{
  "version": "1.0",
  "truncation": null,
  "padding": null,
  "added_tokens": [
    {
      "id": 1,
      "content": "[UNK]",
      "single_word": false,
      "lstrip": false,
      "rstrip": false,
      "normalized": false,
      "special": true
    },
    {
      "id": 2,
      "content": "[CLS]",
      "single_word": false,
      "lstrip": false,
      "rstrip": false,
      "normalized": false,
      "special": true
    },
    {
      "id": 3,
      "content": "[SEP]",
      "single_word": false,
      "lstrip": false,
      "rstrip": false,
      "normalized": false,
      "special": true
    },
    {
      "id": 4,
      "content": "[PAD]",
      "single_word": false,
      "lstrip": false,
      "rstrip": false,
      "normalized": false,
      "special": true
    },
    {
      "id": 5,
      "content": "[MASK]",
      "single_word": false,
      "lstrip": false,
      "rstrip": false,
      "normalized": false,
      "special": true
    }
  ],
  "normalizer": {
    "type": "NFKC"
  },
  "pre_tokenizer": {
    "type": "Whitespace"
  },
  "post_processor": null,
  "decoder": null,
  "model": {
    "type": "Unigram",
    "unk_id": 0,
    "vocab": [
      [
        "<unk>",
        0.0
      ],
      [
        "[UNK]",
        0.0
      ],
      [
        "[CLS]",
        0.0
      ],
      [
        "[SEP]",
        0.0
      ],
      [
        "[PAD]",
        0.0
      ],
      [
        "[MASK]",
        0.0
      ],
      [
        "a",
        -2.677149460841015
      ],
      [
        "n",
        -3.358549233613573
      ],
      [
        "an",
        -3.5196222447900656
      ],
      [
        ",",
        -3.5652847997376487
      ],
      [
        "ar",
        -3.716122778456363
      ],
      [
        ".",
        -3.904602417610029
      ],
      [
        "agus",
        -4.0794852168604105
      ],
      [
        "s",
        -4.157995328801135
      ],
      [
        "i",
        -4.237365428421887
      ],
      [
        "í",
        -4.350486683917893
      ],
      [
        "r",
        -4.4010919678693305
      ],
      [
        "le",
        -4.586353711193528
      ],
      [
        "d",
        -4.643236928118485
      ],
      [
        "-",
        -4.665929385202096
      ],
      [
        "t",
        -4.720951546848525
      ],
      [
        "in",
        -4.947795325695747
      ],
      [
        "dh",
        -4.966276932242883
      ],
      [
        "(",
        -4.982065435544882
      ],
      [
        "ú",
        -5.007822821453651
      ],
      [
        ")",
        -5.031514276011029
      ],
      [
        "go",
        -5.032209961338536
      ],
      [
        "e",
        -5.032720181044413
      ],
      [
        "@",
        -5.068474957634322
      ],
      [
        "is",
        -5.074363398734716
      ],
      [
        "seo",
        -5.0752431240708855
      ],
      [
        "do",
        -5.2028936461433375
      ],
      [
        "tú",
        -5.227869507097179
      ],
      [
        "ó",
        -5.230277472499267
      ],
      [
        "h",
        -5.244062152261611
      ],
      [
        "de",
        -5.2442706634703065
      ],
      [
        "ag",
        -5.2496545687286655
      ],
      [
        "nó",
        -5.329583897802317
      ],
      [
        "m",
        -5.446762553064609
      ],
      [
        "bhfuil",
        -5.469952429806185
      ],
      [
        "leis",
        -5.5085385951944446
      ],
      [
        "c",
        -5.544665798921043
      ],
      [
        "anna",
        -5.54975381676088
      ],
      [
        "l",
        -5.5498477941024404
      ],
      [
        "sin",
        -5.5802600369052975
      ],
      [
        "An",
        -5.60062442571753
      ],
      [
        "chun",
        -5.6084508362453
      ],
      [
        "C",
        -5.6739107408499585
      ],
      [
        "'",
        -5.732927236686969
      ],
      [
        "é",
        -5.750688689429364
      ],
      [
        "il",
        -5.7979523665511365
      ],
      [
        ":",
        -5.813647837274324
      ],
      [
        "igh",
        -5.815361802806487
      ],
      [
        "leat",
        -5.823744814112601
      ],
      [
        "?",
        -5.907269658233016
      ],
      [
        "Tweet",
        -5.932559276064348
      ],
      [
        "sé",
        -5.9379526102747615
      ],
      [
        "gur",
        -5.9657461814501875
      ],
      [
        "á",
        -6.01247368519266
      ],
      [
        "aon",
        -6.02885367130685
      ],
      [
        "cosc",
        -6.0457658980663975
      ],
      [
        "mar",
        -6.069365241300593
      ],
      [
        "atá",
        -6.0789353313679495
      ],
      [
        "o",
        -6.093419425771721
      ],
      [
        "b",
        -6.09452600111354
      ],
      [
        "g",
        -6.101965688878781
      ],
      [
        "Is",
        -6.106012845373371
      ],
      [
        "den",
        -6.116391244767959
      ],
      [
        "ithe",
        -6.15861788024826
      ],
      [
        "faoi",
        -6.185320792031288
      ],
      [
        "mhaith",
        -6.197603085704756
      ],
      [
        "Tá",
        -6.199197423043902
      ],
      [
        "f",
        -6.2024038877466285
      ],
      [
        "féidi",
        -6.209919911803873
      ],
      [
        "ach",
        -6.213113686635101
      ],
      [
        "cinnte",
        -6.236111373308987
      ],
      [
        "breathn",
        -6.243853055928655
      ],
      [
        "Chuir",
        -6.255936980779602
      ],
      [
        "Meáin",
        -6.2762534860336014
      ],
      [
        "A",
        -6.315665360861782
      ],
      [
        "tá",
        -6.330073292971081
      ],
      [
        ";",
        -6.352613187941978
      ],
      [
        "eile",
        -6.375698457535938
      ],
      [
        "chur",
        -6.404112842215316
      ],
      [
        "dhéanamh",
        -6.40554959701695
      ],
      [
        "1",
        -6.429662791437634
      ],
      [
        "’",
        -6.4593573829564335
      ],
      [
        "bheith",
        -6.466760586229832
      ],
      [
        "2",
        -6.511750528668744
      ],
      [
        "I",
        -6.53274307145411
      ],
      [
        "alt",
        -6.533988789889758
      ],
      [
        "ch",
        -6.573953944961861
      ],
      [
        "duine",
        -6.585342674455683
      ],
      [
        "trí",
        -6.591895471730707
      ],
      [
        "Tuillea",
        -6.615708587457046
      ],
      [
        "maidi",
        -6.642754632208678
      ],
      [
        "deimhnithe",
        -6.662110049375235
      ],
      [
        "saor",
        -6.670752277505548
      ],
      [
        "Cuntas",
        -6.672359971785836
      ],
      [
        "S",
        -6.6753298459785775
      ],
      [
        "gach",
        -6.68853360651258
      ],
      [
        "don",
        -6.699208078819165
      ],
      [
        "/",
        -6.699209495509251
      ],
      [
        "níos",
        -6.70120220699631
      ],
      [
        "nasc",
        -6.713044685817909
      ],
      [
        "aisce",
        -6.727507494856438
      ],
      [
        "F",
        -6.736949988182976
      ],
      [
        "nach",
        -6.758617479901103
      ],
      [
        "3",
        -6.764943900393247
      ],
      [
        "beidh",
        -6.772416686842165
      ],
      [
        "óipeáil",
        -6.803799955680427
      ],
      [
        "íonn",
        -6.805613354207681
      ],
      [
        "T",
        -6.806594274291751
      ],
      [
        "Ní",
        -6.808994662635325
      ],
      [
        "ina",
        -6.825397989756505
      ],
      [
        "porn",
        -6.829296388153381
      ],
      [
        "D",
        -6.838593561225871
      ],
      [
        "Acht",
        -6.845851223631321
      ],
      [
        "uair",
        -6.849489774680563
      ],
      [
        "eitheamh",
        -6.889952151341426
      ],
      [
        "maith",
        -6.8939623254397375
      ],
      [
        "dá",
        -6.898050275614203
      ],
      [
        "lena",
        -6.9065806082339165
      ],
      [
        "idh",
        -6.922975142593156
      ],
      [
        "haghaidh",
        -6.930463364666368
      ],
      [
        "úsáid",
        -6.936561509724925
      ],
      [
        "fáil",
        -6.947679497820079
      ],
      [
        "iad",
        -6.972640961589457
      ],
      [
        "mó",
        -6.9753464338239315
      ],
      [
        "tweet",
        -6.9756909707361885
      ],
      [
        "B",
        -6.976962344250898
      ],
      [
        "chuid",
        -6.980926868006836
      ],
      [
        "chloig",
        -6.981945398643349
      ],
      [
        "Ar",
        -6.990948782432046
      ],
      [
        "M",
        -6.997873191908555
      ],
      [
        "leanúna",
        -6.9994331364819775
      ],
      [
        "réir",
        -7.003415275395877
      ],
      [
        "shin",
        -7.008684207693552
      ],
      [
        "um",
        -7.030414027205353
      ],
      [
        "mh",
        -7.039675947671636
      ],
      [
        "4",
        -7.048347517393948
      ],
      [
        "amháin",
        -7.05754504952659
      ],
      [
        "nua",
        -7.093288872869703
      ],
      [
        "Ag",
        -7.099266592227776
      ],
      [
        "u",
        -7.1071108568806505
      ],
      [
        "bheid",
        -7.121218492150847
      ],
      [
        "\"",
        -7.139133244373932
      ],
      [
        "amach",
        -7.146502654760111
      ],
      [
        "N",
        -7.1514680460698
      ],
      [
        "líne",
        -7.162017166211307
      ],
      [
        "–",
        -7.162493571839292
      ],
      [
        "5",
        -7.1709270285932565
      ],
      [
        "iarratas",
        -7.186820014781137
      ],
      [
        "“",
        -7.18803282286712
      ],
      [
        "siad",
        -7.190267552756628
      ],
      [
        "thabhair",
        -7.2156443634400915
      ],
      [
        "gan",
        -7.2188187387999125
      ],
      [
        "mór",
        -7.221360802797337
      ],
      [
        "Dí",
        -7.225245117100203
      ],
      [
        "féin",
        -7.247870442352278
      ],
      [
        "choisc",
        -7.264083910492873
      ],
      [
        "lá",
        -7.264464475056856
      ],
      [
        "raibh",
        -7.278125094746947
      ],
      [
        "daoine",
        -7.284495001382663
      ],
      [
        "faoin",
        -7.290712655635462
      ],
      [
        "éis",
        -7.301480778310326
      ],
      [
        "leith",
        -7.301751964274031
      ],
      [
        "fháil",
        -7.316640596719186
      ],
      [
        "Cuir",
        -7.317143817580895
      ],
      [
        "cheannach",
        -7.322151193071987
      ],
      [
        "cineál",
        -7.3232756292362815
      ],
      [
        "Féach",
        -7.323846232302191
      ],
      [
        "gcás",
        -7.327199893973866
      ],
      [
        "isteach",
        -7.327413410391706
      ],
      [
        "san",
        -7.331569710307932
      ],
      [
        "rud",
        -7.345226794455366
      ],
      [
        "chomh",
        -7.3703459965924285
      ],
      [
        "foca",
        -7.376755248069816
      ],
      [
        "6",
        -7.382372612698925
      ],
      [
        "fearr",
        -7.391096235262692
      ],
      [
        "!",
        -7.417267291527006
      ],
      [
        "ár",
        -7.425773629627683
      ],
      [
        "leana",
        -7.431767049362378
      ],
      [
        "suíomh",
        -7.440094413328671
      ],
      [
        "acu",
        -7.440728738891492
      ],
      [
        "bhí",
        -7.452797923925122
      ],
      [
        "álacha",
        -7.453900744628426
      ],
      [
        "air",
        -7.463785511052551
      ],
      [
        "freagra",
        -7.469918612179619
      ],
      [
        "roimh",
        -7.487639288973595
      ],
      [
        "HD",
        -7.4921282309695485
      ],
      [
        "”",
        -7.495030946666974
      ],
      [
        "tar",
        -7.499346030319387
      ],
      [
        "nGaeilge",
        -7.504456395666521
      ],
      [
        "ealaigh",
        -7.505877308696579
      ],
      [
        "0",
        -7.509062661391569
      ],
      [
        "linn",
        -7.513858494897002
      ],
      [
        "chuig",
        -7.518450461377389
      ],
      [
        "sainmhíni",
        -7.521615055894349
      ],
      [
        "méid",
        -7.525963521288819
      ],
      [
        "bríonn",
        -7.526952617058772
      ],
      [
        "y",
        -7.531974829397312
      ],
      [
        "iallach",
        -7.536183780663944
      ],
      [
        "áirithe",
        -7.5455924592549675
      ],
      [
        "idir",
        -7.550351713301664
      ],
      [
        "_",
        -7.55144015299574
      ],
      [
        "fhrithch",
        -7.553459650806875
      ],
      [
        "fuaimni",
        -7.553761119264914
      ],
      [
        "omhchialla",
        -7.5591186430993105
      ],
      [
        "má",
        -7.568955129666477
      ],
      [
        "Le",
        -7.572318889809676
      ],
      [
        "nois",
        -7.5746408309685265
      ],
      [
        "ceart",
        -7.590144007194116
      ],
      [
        "dtí",
        -7.59560145179373
      ],
      [
        "7",
        -7.595879952974196
      ],
      [
        "8",
        -7.602207803193304
      ],
      [
        "freisin",
        -7.6036098970579875
      ],
      [
        "...",
        -7.619871361960195
      ],
      [
        "dul",
        -7.630784379584448
      ],
      [
        "—",
        -7.652815844546209
      ],
      [
        "chéad",
        -7.657244167141064
      ],
      [
        "ceal",
        -7.65895672914861
      ],
      [
        "gá",
        -7.661004848202129
      ],
      [
        "tear",
        -7.661523795971982
      ],
      [
        "Eorpach",
        -7.663414465107346
      ],
      [
        "duit",
        -7.666331957639779
      ],
      [
        "ceann",
        -7.674549954719881
      ],
      [
        "Mar",
        -7.677304910959563
      ],
      [
        "19",
        -7.680811631874024
      ],
      [
        "Iarratas",
        -7.6955541279121995
      ],
      [
        "com",
        -7.696204633222571
      ],
      [
        "ítear",
        -7.707076074146329
      ],
      [
        "aghaidh",
        -7.71820680265987
      ],
      [
        "bhreathn",
        -7.719675067729277
      ],
      [
        "10",
        -7.725138380548286
      ],
      [
        "abhairt",
        -7.735302480270077
      ],
      [
        "Gaeilge",
        -7.737662049634503
      ],
      [
        "bhaineann",
        -7.740257072359823
      ],
      [
        "iomlán",
        -7.743414579472121
      ],
      [
        "P",
        -7.744479108627928
      ],
      [
        "bhainfea",
        -7.748874791520818
      ],
      [
        "te",
        -7.754885028211268
      ],
      [
        "obair",
        -7.77707981877519
      ],
      [
        "sonraí",
        -7.781327159600619
      ],
      [
        "cheart",
        -7.784666137002984
      ],
      [
        "cur",
        -7.793592017775564
      ],
      [
        "agat",
        -7.797217016288209
      ],
      [
        "bhaint",
        -7.8059119779161374
      ],
      [
        "roinnt",
        -7.809916604724018
      ],
      [
        "dáta",
        -7.811619068933485
      ],
      [
        "Beidh",
        -7.825740876574519
      ],
      [
        "áit",
        -7.827780860497447
      ],
      [
        "tréimhse",
        -7.830307834348748
      ],
      [
        "ainm",
        -7.832163122929714
      ],
      [
        "nuair",
        -7.846029895127824
      ],
      [
        "cluiche",
        -7.852567201124663
      ],
      [
        "]",
        -7.854641554660006
      ],
      [
        "AE",
        -7.8560052471734485
      ],
      [
        "gréasáin",
        -7.856459143683941
      ],
      [
        "Roinn",
        -7.858458416335131
      ],
      [
        "[",
        -7.859657790064225
      ],
      [
        "léir",
        -7.871805674112107
      ],
      [
        "haoine",
        -7.887593738057263
      ],
      [
        "Twitter",
        -7.8942722447572455
      ],
      [
        "físeá",
        -7.896794409849818
      ],
      [
        "éagsúla",
        -7.907907730174467
      ],
      [
        "hÉireann",
        -7.908067971261171
      ],
      [
        "bhfeidhm",
        -7.912369462158303
      ],
      [
        "ábhar",
        -7.91932974875621
      ],
      [
        "9",
        -7.922724313681933
      ],
      [
        "L",
        -7.925066190833193
      ],
      [
        "chéile",
        -7.925342252429959
      ],
      [
        "15",
        -7.927524737969564
      ],
      [
        "the",
        -7.93794378745403
      ],
      [
        "12",
        -7.939604495865625
      ],
      [
        "mo",
        -7.944091744472616
      ],
      [
        "cinn",
        -7.944233507377016
      ],
      [
        "p",
        -7.953431613742889
      ],
      [
        "Aontais",
        -7.956501071667377
      ],
      [
        "ing",
        -7.959116785674846
      ],
      [
        "síos",
        -7.95924075202464
      ],
      [
        "thar",
        -7.959795195362667
      ],
      [
        "Airteagal",
        -7.963169013198048
      ],
      [
        "scoth",
        -7.964724340806042
      ],
      [
        "aige",
        -7.967672782304195
      ],
      [
        "hEorpa",
        -7.96772106706617
      ],
      [
        "&",
        -7.975674883355495
      ],
      [
        "arna",
        -7.97645892980841
      ],
      [
        "Má",
        -7.978393317770956
      ],
      [
        "18",
        -7.985533358202702
      ],
      [
        "aithe",
        -7.9872768936964595
      ],
      [
        "caighdeán",
        -7.991931821484461
      ],
      [
        "G",
        -7.993842290278704
      ],
      [
        "mé",
        -8.006553042112309
      ],
      [
        "for",
        -8.011339096424102
      ],
      [
        "leor",
        -8.012440011415954
      ],
      [
        "bith",
        -8.016587568597853
      ],
      [
        "físeán",
        -8.020103944988481
      ],
      [
        "teacht",
        -8.021293111112389
      ],
      [
        "EN",
        -8.028790645276473
      ],
      [
        "R",
        -8.038346684945605
      ],
      [
        "cheann",
        -8.04491051430858
      ],
      [
        "bhliain",
        -8.045531404927583
      ],
      [
        "ordú",
        -8.046062521551583
      ],
      [
        "fho",
        -8.047152878235977
      ],
      [
        "sórt",
        -8.055715394696692
      ],
      [
        "Go",
        -8.056796093402056
      ],
      [
        "bh",
        -8.057150918261597
      ],
      [
        "chaighdeán",
        -8.057356449322302
      ],
      [
        "Aire",
        -8.057579207526675
      ],
      [
        "2018",
        -8.057972966127474
      ],
      [
        "inneadh",
        -8.064737812018748
      ],
      [
        "Dé",
        -8.067087910729184
      ],
      [
        "láthair",
        -8.07108583188736
      ],
      [
        "€",
        -8.080869837771882
      ],
      [
        "ibé",
        -8.081566866968128
      ],
      [
        "áirítear",
        -8.082853841106246
      ],
      [
        "suas",
        -8.087974312306121
      ],
      [
        "20",
        -8.091712812527042
      ],
      [
        "táirgí",
        -8.09408280030257
      ],
      [
        "ásta",
        -8.095548159052436
      ],
      [
        "%",
        -8.096028883246314
      ],
      [
        "íoc",
        -8.09918395265181
      ],
      [
        "cheana",
        -8.101914529829235
      ],
      [
        "Iúil",
        -8.102728664366076
      ],
      [
        "leo",
        -8.105754493175588
      ],
      [
        "anseo",
        -8.110376799139381
      ],
      [
        "ráta",
        -8.114919896293378
      ],
      [
        "féachain",
        -8.117553983999375
      ],
      [
        "E",
        -8.11963906091229
      ],
      [
        "bearta",
        -8.125772079612425
      ],
      [
        "Coiscthe",
        -8.128088592895448
      ],
      [
        "imh",
        -8.128579577022194
      ],
      [
        "imeachta",
        -8.131349384763753
      ],
      [
        "bliana",
        -8.13185057241328
      ],
      [
        "16",
        -8.133454681500965
      ],
      [
        "24",
        -8.133870924247613
      ],
      [
        "déanta",
        -8.134018268445166
      ],
      [
        "eolas",
        -8.136119070573512
      ],
      [
        "Béarla",
        -8.138161259153335
      ],
      [
        "eann",
        -8.15031463652864
      ],
      [
        "2017",
        -8.1535032192247
      ],
      [
        "díreach",
        -8.153899294875878
      ],
      [
        "Lean",
        -8.156465557126866
      ],
      [
        "láithreá",
        -8.164174321721227
      ],
      [
        "uithe",
        -8.166136208624819
      ],
      [
        "dheis",
        -8.167117320562362
      ],
      [
        "tAire",
        -8.168026674882404
      ],
      [
        "más",
        -8.168072645668357
      ],
      [
        "Deireadh",
        -8.172655030536603
      ],
      [
        "Márta",
        -8.181514066239325
      ],
      [
        "Chomhairle",
        -8.181866078561507
      ],
      [
        "Porn",
        -8.182733647326977
      ],
      [
        "fhéadfadh",
        -8.189089080226166
      ],
      [
        "údarás",
        -8.196256995345188
      ],
      [
        "Rialachá",
        -8.19931467804717
      ],
      [
        "Baile",
        -8.203007297827941
      ],
      [
        "th",
        -8.214193716082157
      ],
      [
        "Ba",
        -8.215844344961404
      ],
      [
        "Chun",
        -8.2183631344982
      ],
      [
        "seirbhísí",
        -8.218630694272916
      ],
      [
        "The",
        -8.221077237117688
      ],
      [
        "áil",
        -8.223148075695654
      ],
      [
        "11",
        -8.228783393829602
      ],
      [
        "eamh",
        -8.229764646989807
      ],
      [
        "íoslódáil",
        -8.232917460671331
      ],
      [
        "eanna",
        -8.237370564013109
      ],
      [
        "líon",
        -8.241327835627132
      ],
      [
        "feadh",
        -8.245825102378733
      ],
      [
        "30",
        -8.257749404178497
      ],
      [
        "ionad",
        -8.261288401301087
      ],
      [
        "aois",
        -8.265017703513696
      ],
      [
        "Comhrá",
        -8.268969332304081
      ],
      [
        "dhá",
        -8.269246243981879
      ],
      [
        "huaire",
        -8.270056833877415
      ],
      [
        "aigh",
        -8.271600999143665
      ],
      [
        "laist",
        -8.273327677140397
      ],
      [
        "ndáil",
        -8.273855038012767
      ],
      [
        "fear",
        -8.27641490265918
      ],
      [
        "Aontas",
        -8.276589923314088
      ],
      [
        "chóir",
        -8.277652325193717
      ],
      [
        "fad",
        -8.280620549612122
      ],
      [
        "2019",
        -8.283776781535693
      ],
      [
        "leathanach",
        -8.289874005659197
      ],
      [
        "iontach",
        -8.294006819106208
      ],
      [
        "amp",
        -8.300142764057385
      ],
      [
        "17",
        -8.30362823806604
      ],
      [
        "bliain",
        -8.313132165881745
      ],
      [
        "mbaineann",
        -8.315350130007378
      ],
      [
        "oibre",
        -8.317890294262483
      ],
      [
        "of",
        -8.320324795582756
      ],
      [
        "fós",
        -8.324756316405367
      ],
      [
        "uisce",
        -8.326539291139937
      ],
      [
        "gcuid",
        -8.332278177415649
      ],
      [
        "far",
        -8.333683162663391
      ],
      [
        "cluichí",
        -8.337321782489616
      ],
      [
        "bhíonn",
        -8.34158996598723
      ],
      [
        "iarraidh",
        -8.34209779785758
      ],
      [
        "13",
        -8.342652573737062
      ],
      [
        "mbead",
        -8.344503691385986
      ],
      [
        "cháin",
        -8.350778874165123
      ],
      [
        "14",
        -8.356579126629903
      ],
      [
        "tráth",
        -8.362321816490342
      ],
      [
        "áireamh",
        -8.367157470445857
      ],
      [
        "gComhairle",
        -8.373785193495696
      ],
      [
        "Agus",
        -8.378191729420527
      ],
      [
        "beag",
        -8.378656311161134
      ],
      [
        "gheall",
        -8.383981293749894
      ],
      [
        "leibhéal",
        -8.3871162976252
      ],
      [
        "fud",
        -8.390386642191935
      ],
      [
        "niú",
        -8.39190113879383
      ],
      [
        "dlí",
        -8.392487619365514
      ],
      [
        "‘",
        -8.395689070340122
      ],
      [
        "rogha",
        -8.397686487616216
      ],
      [
        "céanna",
        -8.399451041958667
      ],
      [
        "Leaba",
        -8.401275185513844
      ],
      [
        "athrú",
        -8.403041167474182
      ],
      [
        "Atweetáil",
        -8.406447422011063
      ],
      [
        "atweet",
        -8.407010589866735
      ],
      [
        "O",
        -8.412931933743678
      ],
      [
        "deara",
        -8.413060372834689
      ],
      [
        "dóibh",
        -8.417420964975182
      ],
      [
        "againn",
        -8.41871342008162
      ],
      [
        "cuid",
        -8.42002932802777
      ],
      [
        "feidhm",
        -8.421744311804286
      ],
      [
        "mhéid",
        -8.42733358226764
      ],
      [
        "orthu",
        -8.42759262160007
      ],
      [
        ").",
        -8.427656968270437
      ],
      [
        "bhun",
        -8.428379560905093
      ],
      [
        "cuideachta",
        -8.429693780757493
      ],
      [
        "náisiúnta",
        -8.432336130037093
      ],
      [
        "Fuaim",
        -8.432410128776533
      ],
      [
        "Fómhair",
        -8.436178466684229
      ],
      [
        "Comhairle",
        -8.436255672873298
      ],
      [
        "liom",
        -8.43830454903734
      ],
      [
        "scríobh",
        -8.439292417289359
      ],
      [
        "on",
        -8.44430208683137
      ],
      [
        "mhí",
        -8.44571202101343
      ],
      [
        "fhreagra",
        -8.446245495295788
      ],
      [
        "Tuga",
        -8.447791196193553
      ],
      [
        "gcónaí",
        -8.448749283365608
      ],
      [
        "luach",
        -8.44999689993862
      ],
      [
        "scannán",
        -8.452348084775554
      ],
      [
        "ábhair",
        -8.458658693511946
      ],
      [
        "tha",
        -8.461330758620633
      ],
      [
        "airgeadra",
        -8.461497898942294
      ],
      [
        "tSín",
        -8.465875988703901
      ],
      [
        "mhír",
        -8.466771772710544
      ],
      [
        "déana",
        -8.469479108610546
      ],
      [
        "cothrom",
        -8.471116306364108
      ],
      [
        "féach",
        -8.472604042964509
      ],
      [
        "Éirinn",
        -8.472806534213088
      ],
      [
        "Cé",
        -8.476850629870205
      ],
      [
        "cáilíochta",
        -8.477663039061234
      ],
      [
        "ndéanfa",
        -8.478711558909984
      ],
      [
        "earraí",
        -8.480448736065604
      ],
      [
        "iomchu",
        -8.481200788444948
      ],
      [
        "feidhme",
        -8.484078220893437
      ],
      [
        "fheabhsú",
        -8.484800018740344
      ],
      [
        "cé",
        -8.486044758424004
      ],
      [
        "críocha",
        -8.48662684281429
      ],
      [
        "eideal",
        -8.48912844741136
      ],
      [
        "féadfaid",
        -8.489380589911743
      ],
      [
        "Féadfaidh",
        -8.491881675446445
      ],
      [
        "2016",
        -8.493050223950373
      ],
      [
        "ciallaíon",
        -8.494155055311106
      ],
      [
        "gnéas",
        -8.4971425775426
      ],
      [
        "íodh",
        -8.49749004158397
      ],
      [
        "Eorpaigh",
        -8.503825054258062
      ],
      [
        "taobh",
        -8.506434167992094
      ],
      [
        "tras",
        -8.50979721499821
      ],
      [
        "Coimisiún",
        -8.510412351639495
      ],
      [
        "Déan",
        -8.513429042000304
      ],
      [
        "21",
        -8.517382727402136
      ],
      [
        "amhlai",
        -8.5201744820829
      ],
      [
        "25",
        -8.522815286508717
      ],
      [
        "Co",
        -8.525851387010384
      ],
      [
        "seirbhís",
        -8.527920118050414
      ],
      [
        "Ballstá",
        -8.529597850003388
      ],
      [
        "Ard",
        -8.531649730152921
      ],
      [
        "croí",
        -8.532908989617123
      ],
      [
        "ghlacad",
        -8.533673936278305
      ],
      [
        "oifig",
        -8.539126319818806
      ],
      [
        "23",
        -8.539648222286612
      ],
      [
        "Físeán",
        -8.545535006490905
      ],
      [
        "Ó",
        -8.550857038520611
      ],
      [
        "fhorbairt",
        -8.55360974013962
      ],
      [
        "muid",
        -8.554426327548256
      ],
      [
        "comh",
        -8.557693072971741
      ],
      [
        "Rinne",
        -8.56190154827274
      ],
      [
        "uaire",
        -8.5641665520781
      ],
      [
        "airgead",
        -8.564717186382001
      ],
      [
        "neamh",
        -8.569692406400652
      ],
      [
        "Nach",
        -8.571952440022915
      ],
      [
        "deireadh",
        -8.574769863171408
      ],
      [
        "000",
        -8.581051001249042
      ],
      [
        "uile",
        -8.582574013411293
      ],
      [
        "táirge",
        -8.58884098512982
      ],
      [
        "Stáit",
        -8.590929738899488
      ],
      [
        "dhéana",
        -8.592229977030597
      ],
      [
        "tríd",
        -8.594654528958763
      ],
      [
        "100",
        -8.60128621985158
      ],
      [
        "K",
        -8.603145761309621
      ],
      [
        "Náisiúnta",
        -8.604474714322377
      ],
      [
        "anúint",
        -8.606267530718778
      ],
      [
        "U",
        -8.607413371845702
      ],
      [
        "éifeacht",
        -8.60754387550756
      ],
      [
        "fógra",
        -8.607801894651173
      ],
      [
        "rialacha",
        -8.608818159600764
      ],
      [
        "ontaithe",
        -8.609279955291242
      ],
      [
        "Oireachtais",
        -8.612053573172584
      ],
      [
        "fo",
        -8.613539850235417
      ],
      [
        "freagairt",
        -8.613654709007772
      ],
      [
        "Bord",
        -8.616367565803364
      ],
      [
        "speisialta",
        -8.6195642559865
      ],
      [
        "chomhrá",
        -8.623573636474838
      ],
      [
        "rith",
        -8.623847903043117
      ],
      [
        "Bhí",
        -8.625571894926754
      ],
      [
        "H",
        -8.626000578856896
      ],
      [
        "bia",
        -8.626279691141564
      ],
      [
        "k",
        -8.628165636784251
      ],
      [
        "réimse",
        -8.63006082992301
      ],
      [
        "comhalta",
        -8.630399893065837
      ],
      [
        "22",
        -8.63140651686253
      ],
      [
        "De",
        -8.633334042351148
      ],
      [
        "sholátha",
        -8.634695015539684
      ],
      [
        "imir",
        -8.634706925225856
      ],
      [
        "Ceisteanna",
        -8.634785932918808
      ],
      [
        "V",
        -8.635400574591916
      ],
      [
        "Pharlaimint",
        -8.638752177362
      ],
      [
        "leas",
        -8.63979631387777
      ],
      [
        "poiblí",
        -8.642592295969536
      ],
      [
        "bhrí",
        -8.644557249961785
      ],
      [
        "ort",
        -8.644666032190834
      ],
      [
        "oifige",
        -8.646842734022187
      ],
      [
        "áitiúil",
        -8.647398185169761
      ],
      [
        "Ach",
        -8.64948102609139
      ],
      [
        "bhfo",
        -8.651728223588908
      ],
      [
        "mhór",
        -8.651737926003705
      ],
      [
        "Tithe",
        -8.652828234972066
      ],
      [
        "ailt",
        -8.654898061463278
      ],
      [
        "chlár",
        -8.65600306192503
      ],
      [
        "rialachá",
        -8.656609463538139
      ],
      [
        "mian",
        -8.658395162050537
      ],
      [
        "chlárú",
        -8.661420405442751
      ],
      [
        "Oifig",
        -8.664677441953282
      ],
      [
        "32",
        -8.668490957502812
      ],
      [
        "Uimh",
        -8.67153035973472
      ],
      [
        "Catagóir",
        -8.671899942835136
      ],
      [
        "Feabh",
        -8.673001620242564
      ],
      [
        "fíor",
        -8.674868413560022
      ],
      [
        "baint",
        -8.675067530873445
      ],
      [
        "Dáil",
        -8.678076871723256
      ],
      [
        "2015",
        -8.678762699432756
      ],
      [
        "mír",
        -8.680294645803897
      ],
      [
        "Stát",
        -8.680854940068624
      ],
      [
        "coinníollach",
        -8.689814810586803
      ],
      [
        "haon",
        -8.690259687876999
      ],
      [
        "cuí",
        -8.690824625342238
      ],
      [
        "lán",
        -8.694067128648923
      ],
      [
        "cosú",
        -8.698928500081795
      ],
      [
        "iúl",
        -8.700951756989664
      ],
      [
        "mura",
        -8.702076357364412
      ],
      [
        "2014",
        -8.709207290522492
      ],
      [
        "pearsanta",
        -8.71267534953163
      ],
      [
        "roghnú",
        -8.719026857855301
      ],
      [
        "tacaíocht",
        -8.723822314701065
      ],
      [
        "praghas",
        -8.727584921154502
      ],
      [
        "irgeadais",
        -8.730003934802653
      ],
      [
        "bunaithe",
        -8.732595147950544
      ],
      [
        "déanfa",
        -8.734342378370904
      ],
      [
        "Gnóthaí",
        -8.73641206742748
      ],
      [
        "teanga",
        -8.737220444610532
      ],
      [
        "Átha",
        -8.742139542993222
      ],
      [
        "Cona",
        -8.74330244686938
      ],
      [
        "Parlaiminte",
        -8.747463098367525
      ],
      [
        "faisnéis",
        -8.74912975896913
      ],
      [
        "eachas",
        -8.751451099378357
      ],
      [
        "fiú",
        -8.757385315251096
      ],
      [
        "súil",
        -8.758004530242776
      ],
      [
        "sheoladh",
        -8.75966532391729
      ],
      [
        "scéim",
        -8.760743571136206
      ],
      [
        "Níl",
        -8.76124115804631
      ],
      [
        "modh",
        -8.768309182756145
      ],
      [
        "aíonn",
        -8.769007975202488
      ],
      [
        "leagan",
        -8.769323884213463
      ],
      [
        "26",
        -8.773291085081635
      ],
      [
        "aonair",
        -8.773627434424615
      ],
      [
        "tagairt",
        -8.775339602117615
      ],
      [
        "chosaint",
        -8.784000354174403
      ],
      [
        "domhain",
        -8.784014313167068
      ],
      [
        "chás",
        -8.78554054511637
      ],
      [
        "|",
        -8.786758568558943
      ],
      [
        "scoil",
        -8.787162846496262
      ],
      [
        "gcomhréir",
        -8.787712397455273
      ],
      [
        "orthaí",
        -8.788086283084095
      ],
      [
        "shampla",
        -8.790849601916682
      ],
      [
        "Cluichí",
        -8.792273055891886
      ],
      [
        "nár",
        -8.792789997992873
      ],
      [
        "hiomlán",
        -8.793982271515944
      ],
      [
        "fhor",
        -8.79436787573068
      ],
      [
        "láithreach",
        -8.79923282932268
      ],
      [
        "Cliath",
        -8.80273448871873
      ],
      [
        "laghdú",
        -8.805607235046924
      ],
      [
        "Nua",
        -8.80701237127945
      ],
      [
        "páirt",
        -8.807941019261364
      ],
      [
        "iarratais",
        -8.808660945635658
      ],
      [
        "gceist",
        -8.808873264271568
      ],
      [
        "gcéad",
        -8.81102878732157
      ],
      [
        "Mí",
        -8.811073316356044
      ],
      [
        "measc",
        -8.812340820461221
      ],
      [
        "2013",
        -8.81553217566805
      ],
      [
        "eadh",
        -8.815975404455529
      ],
      [
        "Fómh",
        -8.816310936076434
      ],
      [
        "Seirbhís",
        -8.81745275164165
      ],
      [
        "saol",
        -8.82026844347029
      ],
      [
        "catagóir",
        -8.825921532306621
      ],
      [
        "cruach",
        -8.833714277325353
      ],
      [
        "idirnáisiúnta",
        -8.839299088771781
      ],
      [
        "Airgeadais",
        -8.841291625587111
      ],
      [
        "31",
        -8.842402014803916
      ],
      [
        "bun",
        -8.844329745841074
      ],
      [
        "gnó",
        -8.845461103110345
      ],
      [
        "CE",
        -8.848821709427163
      ],
      [
        "dtaobh",
        -8.850350776456237
      ],
      [
        "eolais",
        -8.853059478514384
      ],
      [
        "dúinn",
        -8.855592719765752
      ],
      [
        "dhéanta",
        -8.856945551652416
      ],
      [
        "bhealach",
        -8.857309135620907
      ],
      [
        "tuillea",
        -8.85776701996185
      ],
      [
        "cad",
        -8.861142614761082
      ],
      [
        "Gaillimh",
        -8.861398861616447
      ],
      [
        "córas",
        -8.862537930842583
      ],
      [
        "sláinte",
        -8.863594734081932
      ],
      [
        "bhféadfa",
        -8.864094736849996
      ],
      [
        "chuideachta",
        -8.864990242625378
      ],
      [
        "ndia",
        -8.865770373646214
      ],
      [
        "cona",
        -8.867008980031116
      ],
      [
        "Éireann",
        -8.867811635580662
      ],
      [
        "oiriúnach",
        -8.870849453017943
      ],
      [
        "Cur",
        -8.870877525426353
      ],
      [
        "27",
        -8.872477464712471
      ],
      [
        "clár",
        -8.876131404198086
      ],
      [
        "Cad",
        -8.878159397522502
      ],
      [
        "v",
        -8.88185205833409
      ],
      [
        "aítear",
        -8.88422601080052
      ],
      [
        "28",
        -8.892161885830749
      ],
      [
        "chroí",
        -8.89218589008349
      ],
      [
        "álta",
        -8.893275927161636
      ],
      [
        "gh",
        -8.893869179355526
      ],
      [
        "lucht",
        -8.894511757564224
      ],
      [
        "teagmhá",
        -8.894572089060215
      ],
      [
        "gcoinne",
        -8.895476177812188
      ],
      [
        "éasca",
        -8.89919428663191
      ],
      [
        "fé",
        -8.900293317358493
      ],
      [
        "thaobh",
        -8.901815632430335
      ],
      [
        "Más",
        -8.903312590191597
      ],
      [
        "gníomhaíochta",
        -8.906003491831434
      ],
      [
        "siúl",
        -8.909200958100225
      ],
      [
        "50",
        -8.909749264805832
      ],
      [
        "istigh",
        -8.910064001786466
      ],
      [
        "Ghaeilge",
        -8.911011114790709
      ],
      [
        "inniu",
        -8.91232664624935
      ],
      [
        "ghnáth",
        -8.912797934220336
      ],
      [
        "úsáidte",
        -8.913131464438965
      ],
      [
        "fhonn",
        -8.913192144291743
      ],
      [
        "laghad",
        -8.913399023879219
      ],
      [
        "glaca",
        -8.914117845967791
      ],
      [
        "huine",
        -8.915716485918583
      ],
      [
        "chruthú",
        -8.91910021224911
      ],
      [
        "chineál",
        -8.92277164957329
      ],
      [
        "breise",
        -8.92289806967152
      ],
      [
        "chinntiú",
        -8.923008690829183
      ],
      [
        "29",
        -8.92331206104565
      ],
      [
        "cuireadh",
        -8.923868257642727
      ],
      [
        "údar",
        -8.9292988843013
      ],
      [
        "Á",
        -8.932195821117118
      ],
      [
        "éanamh",
        -8.932584389568426
      ],
      [
        "éileamh",
        -8.934666603793318
      ],
      [
        "Sláinte",
        -8.935621561220819
      ],
      [
        "úsáide",
        -8.936805890866637
      ],
      [
        "Seo",
        -8.938314564198857
      ],
      [
        "Beal",
        -8.942391835934085
      ],
      [
        "cánach",
        -8.947481071218645
      ],
      [
        "Gach",
        -8.949677266724205
      ],
      [
        "taighde",
        -8.953877271211663
      ],
      [
        "dtugta",
        -8.954179858794213
      ],
      [
        "Chomh",
        -8.955082905044703
      ],
      [
        "leathan",
        -8.955339602008294
      ],
      [
        "forbairt",
        -8.955835125585548
      ],
      [
        "x",
        -8.9565796189914
      ],
      [
        "Aibreá",
        -8.958358381013554
      ],
      [
        "Meán",
        -8.960859729027531
      ],
      [
        "rochtain",
        -8.961944888243213
      ],
      [
        "meaisín",
        -8.962738215082616
      ],
      [
        "riachtanais",
        -8.963027488213863
      ],
      [
        "tabhair",
        -8.965285977281805
      ],
      [
        "Do",
        -8.965531107938219
      ],
      [
        "leanbh",
        -8.966993450468399
      ],
      [
        "chuir",
        -8.969257403053785
      ],
      [
        "íortha",
        -8.970973208108543
      ],
      [
        "Bainfi",
        -8.972871377003255
      ],
      [
        "porno",
        -8.97309500361633
      ],
      [
        "+",
        -8.973794000790289
      ],
      [
        "talamh",
        -8.973795790849454
      ],
      [
        "déan",
        -8.974638577854263
      ],
      [
        "liosta",
        -8.975613005153306
      ],
      [
        "rinne",
        -8.979084603505509
      ],
      [
        "Ch",
        -8.979312637491713
      ],
      [
        "lae",
        -8.979661275506448
      ],
      [
        "tír",
        -8.979754180217345
      ],
      [
        "cabhr",
        -8.980917042999462
      ],
      [
        "éir",
        -8.981618917625909
      ],
      [
        "Treoir",
        -8.985632985421585
      ],
      [
        "hosm",
        -8.986102157585316
      ],
      [
        "aistriú",
        -8.987154212480078
      ],
      [
        "bunaidh",
        -8.995230482484093
      ],
      [
        "tapa",
        -8.995276688292613
      ],
      [
        "tábhachtach",
        -8.997267009052122
      ],
      [
        "Údarás",
        -8.998560923334718
      ],
      [
        "uaithe",
        -8.998661117784055
      ],
      [
        "chomhlíona",
        -9.004191134626144
      ],
      [
        "rialú",
        -9.007381010325448
      ],
      [
        "dhiai",
        -9.007883232515304
      ],
      [
        "Coiste",
        -9.01418542084684
      ],
      [
        "léinn",
        -9.014478479987215
      ],
      [
        "Th",
        -9.018039248034098
      ],
      [
        "Oideacha",
        -9.019619395840849
      ],
      [
        "Noll",
        -9.023955824417651
      ],
      [
        "imid",
        -9.024128948569283
      ],
      [
        "amhail",
        -9.02587017145547
      ],
      [
        "margadh",
        -9.02733933850816
      ],
      [
        "seirbhíse",
        -9.028783480882216
      ],
      [
        "agtha",
        -9.029419001763472
      ],
      [
        "fhaisnéis",
        -9.029808644796221
      ],
      [
        "thíos",
        -9.032589881904704
      ],
      [
        "aird",
        -9.033292246809694
      ],
      [
        "bhonn",
        -9.036276017275306
      ],
      [
        "dara",
        -9.037932813657692
      ],
      [
        "nádúrtha",
        -9.039321521998561
      ],
      [
        "domhan",
        -9.039873174279066
      ],
      [
        "comhlacht",
        -9.041062432465214
      ],
      [
        "Moncler",
        -9.042826626346901
      ],
      [
        "realamh",
        -9.044010445700192
      ],
      [
        "mbliana",
        -9.044314198504203
      ],
      [
        "léi",
        -9.045306765589086
      ],
      [
        "acmhainn",
        -9.04637675562821
      ],
      [
        "léiriú",
        -9.046883380770307
      ],
      [
        "w",
        -9.04746081313516
      ],
      [
        "Sonraí",
        -9.048027903127553
      ],
      [
        "monaróir",
        -9.051415846507712
      ],
      [
        "íocaíocht",
        -9.051438393673553
      ],
      [
        "oibriú",
        -9.058180200980026
      ],
      [
        "z",
        -9.061317629343005
      ],
      [
        ".”",
        -9.06134213051486
      ],
      [
        "sásta",
        -9.064206591919971
      ],
      [
        "W",
        -9.0647093549611
      ],
      [
        "airde",
        -9.066288522519924
      ],
      [
        "Faoi",
        -9.06954087037531
      ],
      [
        "fhios",
        -9.069633347044629
      ],
      [
        "Coimisinéir",
        -9.070833151730056
      ],
      [
        "tioncha",
        -9.071775357959615
      ],
      [
        "faidh",
        -9.073039073953543
      ],
      [
        "ábhartha",
        -9.07382249994751
      ],
      [
        "2012",
        -9.073938014727975
      ],
      [
        "iméad",
        -9.074281991784552
      ],
      [
        "Casino",
        -9.074305582606549
      ],
      [
        "eoladh",
        -9.079089608446552
      ],
      [
        "gurb",
        -9.079627596551257
      ],
      [
        "riachtanach",
        -9.080969690024045
      ],
      [
        "mlíne",
        -9.081107348270148
      ],
      [
        "freastal",
        -9.081938867585524
      ],
      [
        "Soláthraithe",
        -9.082954699519352
      ],
      [
        "scoile",
        -9.08346910072574
      ],
      [
        "íoctha",
        -9.08505815888214
      ],
      [
        "Aon",
        -9.085664100961445
      ],
      [
        "aimseartha",
        -9.08617945297882
      ],
      [
        "Gaeltachta",
        -9.088415821531617
      ],
      [
        "mheas",
        -9.089306035893706
      ],
      [
        "cead",
        -9.091402961825288
      ],
      [
        "íseal",
        -9.092483923304584
      ],
      [
        "Ionca",
        -9.09504128049272
      ],
      [
        "gníomh",
        -9.095893439082003
      ],
      [
        "Máirt",
        -9.099359105808139
      ],
      [
        "soláthraí",
        -9.099591069934856
      ],
      [
        "oinneáil",
        -9.09972783361485
      ],
      [
        "Chúirt",
        -9.100784245245826
      ],
      [
        "sula",
        -9.1014183299576
      ],
      [
        "cumhachta",
        -9.109876269941527
      ],
      [
        "scríbhinn",
        -9.110210206245299
      ],
      [
        "thora",
        -9.110334281250196
      ],
      [
        "Ean",
        -9.11102045639964
      ],
      [
        "scoileanna",
        -9.114484504165368
      ],
      [
        "iarracht",
        -9.117607458326763
      ],
      [
        "urtha",
        -9.11851315132157
      ],
      [
        "iompar",
        -9.118808145938942
      ],
      [
        "Eanái",
        -9.120536160726001
      ],
      [
        "comhrá",
        -9.121050354869398
      ],
      [
        "chomhalta",
        -9.122705111422558
      ],
      [
        "ionas",
        -9.123026904901817
      ],
      [
        "éigin",
        -9.124926964780727
      ],
      [
        "próiseas",
        -9.12524938394104
      ],
      [
        "arís",
        -9.12783131812003
      ],
      [
        "2020",
        -9.127957854356453
      ],
      [
        "naisc",
        -9.129732372394784
      ],
      [
        "tuarascá",
        -9.131324633508406
      ],
      [
        "clips",
        -9.133414373317056
      ],
      [
        "mbun",
        -9.136101415457947
      ],
      [
        "For",
        -9.137777484226332
      ],
      [
        "ríomh",
        -9.139034314925103
      ],
      [
        "príomh",
        -9.139679989591842
      ],
      [
        "bhfad",
        -9.139722803150505
      ],
      [
        "leasú",
        -9.143082164070055
      ],
      [
        "taithí",
        -9.145060562257356
      ],
      [
        "ginearálta",
        -9.14693580928746
      ],
      [
        "aitheanta",
        -9.147636229630074
      ],
      [
        "Grúpa",
        -9.14781793277304
      ],
      [
        "Saor",
        -9.148981440074774
      ],
      [
        "siú",
        -9.149691081508685
      ],
      [
        "airgi",
        -9.152535178320484
      ],
      [
        "deis",
        -9.15269329775434
      ],
      [
        "Eoraip",
        -9.154930469313694
      ],
      [
        "Sceideal",
        -9.156239205893907
      ],
      [
        "son",
        -9.158229108298698
      ],
      [
        "Déanfa",
        -9.158529894594446
      ],
      [
        "load",
        -9.158926709309597
      ],
      [
        "aici",
        -9.164463631998562
      ],
      [
        "artha",
        -9.165114036836712
      ],
      [
        "soláthar",
        -9.168307553776812
      ],
      [
        "abhair",
        -9.169960080976637
      ],
      [
        "níl",
        -9.171076735758188
      ],
      [
        "lorg",
        -9.171608160551664
      ],
      [
        "trádála",
        -9.17197489260802
      ],
      [
        "neart",
        -9.173176256277962
      ],
      [
        "réiteach",
        -9.173988594907968
      ],
      [
        "reatha",
        -9.175024126634797
      ],
      [
        "seomra",
        -9.175304730791792
      ],
      [
        "chaitheam",
        -9.176519680014206
      ],
      [
        "Comment",
        -9.177923449795767
      ],
      [
        "ath",
        -9.17850261113751
      ],
      [
        "minic",
        -9.17923474732951
      ],
      [
        "Cluich",
        -9.181797812883795
      ],
      [
        "cláraithe",
        -9.1832113895331
      ],
      [
        "bharr",
        -9.183403490782652
      ],
      [
        "Faigh",
        -9.185507947446782
      ],
      [
        "faisnéise",
        -9.188202612934454
      ],
      [
        "chinneadh",
        -9.189026278223125
      ],
      [
        "ndearna",
        -9.18950777555019
      ],
      [
        "oideachais",
        -9.191983514403237
      ],
      [
        "Contae",
        -9.192055208263767
      ],
      [
        "X",
        -9.19238850407812
      ],
      [
        "be",
        -9.192724939710068
      ],
      [
        "fás",
        -9.193762736652264
      ],
      [
        "íocaíochta",
        -9.194949333923816
      ],
      [
        "tháinig",
        -9.197205818948166
      ],
      [
        "téarma",
        -9.19903902991398
      ],
      [
        "Londa",
        -9.199865437896422
      ],
      [
        "Leasú",
        -9.200762136222522
      ],
      [
        "shuíomh",
        -9.201260734669429
      ],
      [
        "óga",
        -9.204959310138749
      ],
      [
        "éard",
        -9.207303096784681
      ],
      [
        "2009",
        -9.208599108121135
      ],
      [
        "Bealtai",
        -9.216587424002476
      ],
      [
        "cás",
        -9.21679243940472
      ],
      [
        "heiceáil",
        -9.217747870240917
      ],
      [
        "Rialtais",
        -9.218145762188584
      ],
      [
        "bhaile",
        -9.2220203272567
      ],
      [
        "Aghaidh",
        -9.228134037613028
      ],
      [
        "gcrích",
        -9.228739729181303
      ],
      [
        "cuspóir",
        -9.22877945502572
      ],
      [
        "dtagraí",
        -9.231054289800285
      ],
      [
        "Nollaig",
        -9.231144976958069
      ],
      [
        "thraigh",
        -9.231651315591245
      ],
      [
        "áin",
        -9.232271454748009
      ],
      [
        "eas",
        -9.238470879889125
      ],
      [
        "2011",
        -9.239158205220281
      ],
      [
        "Samh",
        -9.24034140703375
      ],
      [
        "úsáideoir",
        -9.243049878618425
      ],
      [
        "athbhreithniú",
        -9.24406764924886
      ],
      [
        "sampla",
        -9.244072066933292
      ],
      [
        "athair",
        -9.244639903483478
      ],
      [
        "deimhniú",
        -9.24524565203877
      ],
      [
        "min",
        -9.247645693665962
      ],
      [
        "ionann",
        -9.248075341367574
      ],
      [
        "Maidi",
        -9.248697781594856
      ],
      [
        "simplí",
        -9.249808253743371
      ],
      [
        "comhaont",
        -9.25103209094829
      ],
      [
        "dhíol",
        -9.25146440622446
      ],
      [
        "bheadh",
        -9.253526272041823
      ],
      [
        "togra",
        -9.254127045145864
      ],
      [
        "tuga",
        -9.25478217276715
      ],
      [
        "toisc",
        -9.25552312759908
      ],
      [
        "tíre",
        -9.256433087320813
      ],
      [
        "gCoimisiún",
        -9.25944989255149
      ],
      [
        "fada",
        -9.259657348972873
      ],
      [
        "staid",
        -9.259838691034314
      ],
      [
        "fanacht",
        -9.26615742445087
      ],
      [
        "údará",
        -9.269586819913929
      ],
      [
        "úil",
        -9.27095899761677
      ],
      [
        "Nais",
        -9.271385966902898
      ],
      [
        "grúpa",
        -9.27152784058855
      ],
      [
        "líonadh",
        -9.271972953234043
      ],
      [
        "tharla",
        -9.272716877657503
      ],
      [
        "limisté",
        -9.272930039897535
      ],
      [
        "00",
        -9.27719943484957
      ],
      [
        "áirithi",
        -9.279128668740253
      ],
      [
        "fhéid",
        -9.28164678308303
      ],
      [
        "sraith",
        -9.283878859716848
      ],
      [
        "Liosta",
        -9.284314302169014
      ],
      [
        "ola",
        -9.284948458406644
      ],
      [
        "álainn",
        -9.285641824987131
      ],
      [
        "ríomhaire",
        -9.287928692089324
      ],
      [
        "scannáin",
        -9.288842438125226
      ],
      [
        "thart",
        -9.288857661012898
      ],
      [
        "Scéim",
        -9.289855160447594
      ],
      [
        "*",
        -9.29016182154255
      ],
      [
        "Dá",
        -9.291975635498675
      ],
      [
        "Scoil",
        -9.292151857342242
      ],
      [
        "suim",
        -9.294195895196456
      ],
      [
        "II",
        -9.294993718825609
      ],
      [
        "gcomparáid",
        -9.29506975498077
      ],
      [
        "luath",
        -9.298436740427102
      ],
      [
        "críche",
        -9.298790084177401
      ],
      [
        "féadfa",
        -9.301275641608076
      ],
      [
        "ly",
        -9.302053536429383
      ],
      [
        "malairte",
        -9.30277031891628
      ],
      [
        "choimeád",
        -9.30421000545298
      ],
      [
        "thug",
        -9.305467906686728
      ],
      [
        "sóisialta",
        -9.305608754629379
      ],
      [
        "tionsca",
        -9.3080667126716
      ],
      [
        "costais",
        -9.308073514370896
      ],
      [
        "shonraí",
        -9.309093959883388
      ],
      [
        "earnáil",
        -9.310283597323664
      ],
      [
        "dath",
        -9.310633309958616
      ],
      [
        "chuirea",
        -9.313456110717048
      ],
      [
        "óir",
        -9.31635917261272
      ],
      [
        "sábháilteacht",
        -9.316706623960203
      ],
      [
        "tacú",
        -9.316878139549047
      ],
      [
        "fáilte",
        -9.318131886124299
      ],
      [
        "dhearna",
        -9.318287634706884
      ],
      [
        "us",
        -9.320215371008228
      ],
      [
        "mná",
        -9.320555475408888
      ],
      [
        "Meith",
        -9.320686252592191
      ],
      [
        "J",
        -9.321760964223712
      ],
      [
        "snáithe",
        -9.32224073830762
      ],
      [
        "stíl",
        -9.32226380820053
      ],
      [
        "leagt",
        -9.322654296059794
      ],
      [
        "ndáiríre",
        -9.325236657795292
      ],
      [
        "slí",
        -9.32848905118631
      ],
      [
        "Bhaile",
        -9.329271817023475
      ],
      [
        "hAcht",
        -9.32961238142516
      ],
      [
        "Q",
        -9.33209993194864
      ],
      [
        "ghlac",
        -9.333070904638422
      ],
      [
        "Mór",
        -9.334498641243648
      ],
      [
        "chumhacht",
        -9.337313150449512
      ],
      [
        "ionca",
        -9.340845121265865
      ],
      [
        "cheangal",
        -9.34183580115886
      ],
      [
        "etc",
        -9.34209994566536
      ],
      [
        "léamh",
        -9.34386516502926
      ],
      [
        "ceadúna",
        -9.345270267785342
      ],
      [
        "saothair",
        -9.346791544393255
      ],
      [
        "phobal",
        -9.347281610706196
      ],
      [
        "forbartha",
        -9.350084797341268
      ],
      [
        "dtaca",
        -9.351128641931743
      ],
      [
        "luaite",
        -9.351323367280472
      ],
      [
        "uathoibríoch",
        -9.354824251787647
      ],
      [
        "áitiúla",
        -9.354986002368044
      ],
      [
        "bhunú",
        -9.356015625917543
      ],
      [
        "teach",
        -9.356227327567602
      ],
      [
        "ról",
        -9.356609187503992
      ],
      [
        "tank",
        -9.356789205172333
      ],
      [
        "scileanna",
        -9.358161495281045
      ],
      [
        "Ealaíon",
        -9.35886240420654
      ],
      [
        "cúig",
        -9.359113910629956
      ],
      [
        "thoil",
        -9.359177148855515
      ],
      [
        "múinteoir",
        -9.362450680096016
      ],
      [
        "freagrach",
        -9.364243621135891
      ],
      [
        "uimhir",
        -9.364636784064519
      ],
      [
        "cúna",
        -9.36684937417268
      ],
      [
        "Físeá",
        -9.367805719835744
      ],
      [
        "nós",
        -9.367958915349309
      ],
      [
        "institiúid",
        -9.36892358480419
      ],
      [
        "mhéadú",
        -9.370619915939667
      ],
      [
        "chugai",
        -9.37410253012835
      ],
      [
        "phost",
        -9.374728032064104
      ],
      [
        "•",
        -9.379537015277002
      ],
      [
        "365",
        -9.380196970817657
      ],
      [
        "réidh",
        -9.380747059887579
      ],
      [
        "2010",
        -9.381325476950334
      ],
      [
        "Déanta",
        -9.383587834951904
      ],
      [
        "fh",
        -9.383593351839053
      ],
      [
        "cosaint",
        -9.383967466503002
      ],
      [
        "aidhm",
        -9.385265761553715
      ],
      [
        "thugann",
        -9.385912242861883
      ],
      [
        "fheidhmiú",
        -9.3862414042703
      ],
      [
        "díol",
        -9.386295661112769
      ],
      [
        "dháta",
        -9.386506837020864
      ],
      [
        "eithre",
        -9.389600576101342
      ],
      [
        "fáth",
        -9.389746410936613
      ],
      [
        "cosanta",
        -9.391520873562213
      ],
      [
        "Ríocht",
        -9.393322453410786
      ],
      [
        "fola",
        -9.393812880995014
      ],
      [
        "j",
        -9.397055628323994
      ],
      [
        "fén",
        -9.397423893939557
      ],
      [
        "ráitea",
        -9.397707565559536
      ],
      [
        "leabhar",
        -9.404669314685023
      ],
      [
        "Ireland",
        -9.406590919539598
      ],
      [
        "oibreoir",
        -9.40732989462111
      ],
      [
        "leanúnach",
        -9.41033144102197
      ],
      [
        "cuairt",
        -9.410621601770877
      ],
      [
        "iompai",
        -9.410680116066299
      ],
      [
        "Éire",
        -9.411440838450343
      ],
      [
        "AN",
        -9.414406981652377
      ],
      [
        "che",
        -9.418063880676025
      ],
      [
        "spraoi",
        -9.420393823327718
      ],
      [
        "phoiblí",
        -9.420583739903694
      ],
      [
        "40",
        -9.422135653478502
      ],
      [
        "thosa",
        -9.42401776547129
      ],
      [
        "Chuid",
        -9.425597375237746
      ],
      [
        "sonraithe",
        -9.425622664568369
      ],
      [
        "molta",
        -9.427059791812137
      ],
      [
        "agam",
        -9.428183989778407
      ],
      [
        "oghanna",
        -9.428708833720524
      ],
      [
        "dochar",
        -9.429880231229774
      ],
      [
        "déanfaid",
        -9.430444858997067
      ],
      [
        "pé",
        -9.43086697310101
      ],
      [
        "blianta",
        -9.432158121163884
      ],
      [
        "eisteanna",
        -9.433472545083546
      ],
      [
        "doiciméad",
        -9.434060889781787
      ],
      [
        "tástála",
        -9.434071056164488
      ],
      [
        "Aib",
        -9.43897966241086
      ],
      [
        "Líne",
        -9.439186484539654
      ],
      [
        "éifeachtach",
        -9.439668589183881
      ],
      [
        "Taispeáin",
        -9.441465641037603
      ],
      [
        "ainneoin",
        -9.441482081581796
      ],
      [
        "crua",
        -9.443541236123336
      ],
      [
        "chumas",
        -9.44486668287258
      ],
      [
        "dáileoir",
        -9.445201917815659
      ],
      [
        "osaigh",
        -9.44555613814871
      ],
      [
        "soiléir",
        -9.445872987675074
      ],
      [
        "láidir",
        -9.4462186495798
      ],
      [
        "chúis",
        -9.44746649677896
      ],
      [
        "Idir",
        -9.447558253475238
      ],
      [
        "fianaise",
        -9.447604806987714
      ],
      [
        "dóigh",
        -9.44771162833805
      ],
      [
        "húsáid",
        -9.449292427332688
      ],
      [
        "bogearra",
        -9.450018520206791
      ],
      [
        "méadú",
        -9.451925347142916
      ],
      [
        "cion",
        -9.453939690990424
      ],
      [
        "fuair",
        -9.456202494606153
      ],
      [
        "anailís",
        -9.456897488218925
      ],
      [
        "Lún",
        -9.458575390486082
      ],
      [
        "Díle",
        -9.459093087177056
      ],
      [
        "Choimisiún",
        -9.459371217530293
      ],
      [
        "treoir",
        -9.4607117201013
      ],
      [
        "Tar",
        -9.461131916567858
      ],
      [
        "uirlis",
        -9.463109830062802
      ],
      [
        "Roimh",
        -9.46313324361006
      ],
      [
        "riamh",
        -9.464097838605081
      ],
      [
        "bhearta",
        -9.464167289752849
      ],
      [
        "fhéadfa",
        -9.464380033427219
      ],
      [
        "éadaí",
        -9.464749354778958
      ],
      [
        "mobi",
        -9.466532485387724
      ],
      [
        "£",
        -9.468445687467746
      ],
      [
        "®",
        -9.470270504985994
      ],
      [
        "onaid",
        -9.471071977258056
      ],
      [
        "beala",
        -9.471328051552383
      ],
      [
        "scaireann",
        -9.472491775096398
      ],
      [
        "post",
        -9.47323256740678
      ],
      [
        "páist",
        -9.47425290236575
      ],
      [
        "thaga",
        -9.474673772189647
      ],
      [
        "spreaga",
        -9.476492687636743
      ],
      [
        "fhágáil",
        -9.477798751948018
      ],
      [
        "dhéanfaid",
        -9.478709764268231
      ],
      [
        "ruinniú",
        -9.478916868507891
      ],
      [
        "dteagmhá",
        -9.479299922528208
      ],
      [
        "Cathrach",
        -9.481404061284106
      ],
      [
        "siopa",
        -9.48315921099094
      ],
      [
        "scrúdú",
        -9.486886373169295
      ],
      [
        "eacnamaíoch",
        -9.4890741473314
      ],
      [
        "tóir",
        -9.489402686598396
      ],
      [
        "mbíonn",
        -9.489442173487138
      ],
      [
        "Seol",
        -9.492171069841632
      ],
      [
        "toiliú",
        -9.494959795565006
      ],
      [
        "fuinnimh",
        -9.496652444038753
      ],
      [
        "thógá",
        -9.49744314310405
      ],
      [
        "bhrái",
        -9.498066269747376
      ],
      [
        "Ná",
        -9.499090236162264
      ],
      [
        "Ina",
        -9.499707105400837
      ],
      [
        "2008",
        -9.500615010822262
      ],
      [
        "gcomhair",
        -9.501708611983126
      ],
      [
        "fhoireann",
        -9.502064863012539
      ],
      [
        "ochair",
        -9.50300311600289
      ],
      [
        "measfa",
        -9.504770413452501
      ],
      [
        "caillteana",
        -9.505690142491186
      ],
      [
        "mBallstá",
        -9.50577687398853
      ],
      [
        "cionn",
        -9.50651729910809
      ],
      [
        "comhair",
        -9.506689630895549
      ],
      [
        "téacs",
        -9.507062005894134
      ],
      [
        "cearta",
        -9.507757250224394
      ],
      [
        "video",
        -9.508277077133505
      ],
      [
        "leath",
        -9.508757821835122
      ],
      [
        "eagraíochta",
        -9.508760345894412
      ],
      [
        "cóip",
        -9.508857280337299
      ],
      [
        "Ciste",
        -9.509214989802187
      ],
      [
        "meáchan",
        -9.50938206140155
      ],
      [
        "Phríomh",
        -9.510306437671197
      ],
      [
        "gnáth",
        -9.511737273649015
      ],
      [
        "Fáilte",
        -9.512824980324861
      ],
      [
        "céim",
        -9.513457789828047
      ],
      [
        "iúil",
        -9.514426338779394
      ],
      [
        "Poiblí",
        -9.51509592381961
      ],
      [
        "foirne",
        -9.515130021607742
      ],
      [
        "Electronics",
        -9.519335388399801
      ],
      [
        "uirthi",
        -9.520876086210844
      ],
      [
        "barr",
        -9.521520637226557
      ],
      [
        "reachtaíocht",
        -9.522827894199448
      ],
      [
        "Féadf",
        -9.523223067445407
      ],
      [
        "mBan",
        -9.52338028403343
      ],
      [
        "dír",
        -9.524279185530649
      ],
      [
        "tuismitheoir",
        -9.52462438152655
      ],
      [
        "comhairle",
        -9.524734980604
      ],
      [
        "Clár",
        -9.525033848605034
      ],
      [
        "mid",
        -9.525730602661692
      ],
      [
        "úirt",
        -9.525955401165106
      ],
      [
        "milliú",
        -9.526803398772488
      ],
      [
        "lasmu",
        -9.527993987026857
      ],
      [
        "fach",
        -9.530700981184992
      ],
      [
        "ndéanta",
        -9.53116115133755
      ],
      [
        "páirteach",
        -9.531252652902648
      ],
      [
        "tionscadal",
        -9.534389052319963
      ],
      [
        "chluich",
        -9.535983475975204
      ],
      [
        "réimsí",
        -9.536590555843212
      ],
      [
        "iarrthóir",
        -9.53898045228978
      ],
      [
        "Rialtas",
        -9.542213162075036
      ],
      [
        "ligean",
        -9.545931745966998
      ],
      [
        "ullmhú",
        -9.546461676737334
      ],
      [
        "Áitiúil",
        -9.54732065298522
      ],
      [
        "Trádála",
        -9.548177066871776
      ],
      [
        "orbartha",
        -9.548247645675172
      ],
      [
        "ion",
        -9.54961502671102
      ],
      [
        "ceallra",
        -9.54996373664594
      ],
      [
        "feabhas",
        -9.550084910741178
      ],
      [
        "cuma",
        -9.552701708592725
      ],
      [
        "):",
        -9.554680158975172
      ],
      [
        "coitianta",
        -9.55547531083927
      ],
      [
        "eanta",
        -9.555707707833662
      ],
      [
        "raon",
        -9.555890098602221
      ],
      [
        "cúram",
        -9.5565075551224
      ],
      [
        "faire",
        -9.557167570566378
      ],
      [
        "Leanaí",
        -9.557855814522696
      ],
      [
        "Sóisialta",
        -9.558029430343302
      ],
      [
        "bán",
        -9.558547981604665
      ],
      [
        "60",
        -9.558816660054351
      ],
      [
        "fhógra",
        -9.5589720709457
      ],
      [
        "tháirgea",
        -9.559128974732566
      ],
      [
        "saoire",
        -9.559256075239187
      ],
      [
        "Bain",
        -9.559498829752737
      ],
      [
        "rialta",
        -9.56051241184116
      ],
      [
        "cód",
        -9.561257490784854
      ],
      [
        "dhéanfa",
        -9.561582295309744
      ],
      [
        "bosca",
        -9.561710301760932
      ],
      [
        "iniúchadh",
        -9.563278295037788
      ],
      [
        "Lúnasa",
        -9.564111646954743
      ],
      [
        "chion",
        -9.56488497207041
      ],
      [
        "plean",
        -9.567950771498914
      ],
      [
        "cruinn",
        -9.567966019086382
      ],
      [
        "gcuideachta",
        -9.569173894349124
      ],
      [
        "Táirgí",
        -9.57006604547708
      ],
      [
        "ham",
        -9.570852879072874
      ],
      [
        "mac",
        -9.572434379211657
      ],
      [
        "chéim",
        -9.573471319677692
      ],
      [
        "achomharc",
        -9.574440082079649
      ],
      [
        "chéanna",
        -9.574516783957895
      ],
      [
        "199",
        -9.575699648959798
      ],
      [
        ".—",
        -9.580213681022993
      ],
      [
        "seachtaine",
        -9.580894344885099
      ],
      [
        "lár",
        -9.582247241530741
      ],
      [
        "shóisial",
        -9.582257373518985
      ],
      [
        "imreoir",
        -9.583155031041613
      ],
      [
        "Tag",
        -9.583950963123877
      ],
      [
        "feidhmeanna",
        -9.584285196467075
      ],
      [
        "díobh",
        -9.584796953615033
      ],
      [
        "scéal",
        -9.588641184399231
      ],
      [
        "fostaíochta",
        -9.590355234443216
      ],
      [
        "cumas",
        -9.591996439645733
      ],
      [
        "sábháilte",
        -9.592370018733117
      ],
      [
        "Z",
        -9.596294979810692
      ],
      [
        "téarmaí",
        -9.59633131557503
      ],
      [
        "cathrach",
        -9.596518116971062
      ],
      [
        "costas",
        -9.596522118428549
      ],
      [
        "chuirte",
        -9.597641861068043
      ],
      [
        "phobai",
        -9.59939335885559
      ],
      [
        "gcomhairle",
        -9.60243009008145
      ],
      [
        "Dún",
        -9.603569180642957
      ],
      [
        "ghnó",
        -9.60370326236467
      ],
      [
        "cuirfe",
        -9.604678805687481
      ],
      [
        "fág",
        -9.605640933722597
      ],
      [
        "Bhor",
        -9.605985613570768
      ],
      [
        "suite",
        -9.606028341914499
      ],
      [
        "fhoirm",
        -9.606393148870813
      ],
      [
        "Samhai",
        -9.607599376839254
      ],
      [
        "fostaithe",
        -9.60764912370583
      ],
      [
        "ionscadail",
        -9.607696863441511
      ],
      [
        "eacha",
        -9.608915672366562
      ],
      [
        "soláthraithe",
        -9.609165199074333
      ],
      [
        "cuir",
        -9.60930301957222
      ],
      [
        "talún",
        -9.609311488962923
      ],
      [
        "thaispeáint",
        -9.60952491083225
      ],
      [
        "fhoghlaim",
        -9.610248791747633
      ],
      [
        "teangacha",
        -9.610256246861145
      ],
      [
        "SMS",
        -9.610291794306166
      ],
      [
        "bhfoirm",
        -9.610441426333326
      ],
      [
        "oideachas",
        -9.611237171258702
      ],
      [
        "Eachtrach",
        -9.611306439205075
      ],
      [
        "Trí",
        -9.612694346337054
      ],
      [
        "feidhmiú",
        -9.614062630972704
      ],
      [
        "oiliúint",
        -9.61472824521995
      ],
      [
        "réamh",
        -9.615123142403547
      ],
      [
        "leictreacha",
        -9.615387916751873
      ],
      [
        "kash",
        -9.615576196594052
      ],
      [
        "gruaige",
        -9.616515535784846
      ],
      [
        "News",
        -9.61714623259161
      ],
      [
        "suntasach",
        -9.621837844630184
      ],
      [
        "Baineann",
        -9.622262261254512
      ],
      [
        "Plean",
        -9.624211730973766
      ],
      [
        "deirid",
        -9.624723650976565
      ],
      [
        "dtabharfa",
        -9.624781613537639
      ],
      [
        "smaoinea",
        -9.625419333539892
      ],
      [
        "fir",
        -9.625609397244737
      ],
      [
        "Mura",
        -9.626441644041556
      ],
      [
        "cláir",
        -9.62645251510054
      ],
      [
        "gclár",
        -9.627013981219612
      ],
      [
        "straitéis",
        -9.627638846599208
      ],
      [
        "cuirfid",
        -9.628279501512344
      ],
      [
        "dár",
        -9.628339264879184
      ],
      [
        "cineálach",
        -9.630123753706629
      ],
      [
        "saincheaptha",
        -9.63395612453585
      ],
      [
        "damáiste",
        -9.636972819552835
      ],
      [
        "faide",
        -9.637903585930346
      ],
      [
        "cúis",
        -9.63861189146907
      ],
      [
        "co",
        -9.64117746138827
      ],
      [
        "grianghra",
        -9.641190157681436
      ],
      [
        "2007",
        -9.642035234942655
      ],
      [
        "áitreabh",
        -9.642446631838279
      ],
      [
        "cárta",
        -9.643242404453087
      ],
      [
        "seilbh",
        -9.643321644252872
      ],
      [
        "chomhaont",
        -9.643928775412459
      ],
      [
        "oíche",
        -9.643981535490811
      ],
      [
        "bíonn",
        -9.644274420173346
      ],
      [
        "theannta",
        -9.644441459083264
      ],
      [
        "iarratasóir",
        -9.64553446301267
      ],
      [
        "ghrúpa",
        -9.646487642745225
      ],
      [
        "oscailt",
        -9.649533677169792
      ],
      [
        "rún",
        -9.650114224225266
      ],
      [
        "bheas",
        -9.650346584160793
      ],
      [
        "tacaíochta",
        -9.650637843286503
      ],
      [
        "Tuarascá",
        -9.653632774062853
      ],
      [
        "thuas",
        -9.653821415390983
      ],
      [
        "Freagra",
        -9.653958052757506
      ],
      [
        "pobail",
        -9.654256343700979
      ],
      [
        "teastá",
        -9.654348022546515
      ],
      [
        "Uimhir",
        -9.654712279240938
      ],
      [
        "dubh",
        -9.654716121403663
      ],
      [
        "NA",
        -9.655156750541607
      ],
      [
        "rdaoin",
        -9.656825196101636
      ],
      [
        "Uachtarán",
        -9.657491256157737
      ],
      [
        "brath",
        -9.658128893421994
      ],
      [
        "Gnéas",
        -9.658861226502879
      ],
      [
        "oscailte",
        -9.659568703764595
      ],
      [
        "Dlí",
        -9.662848080795323
      ],
      [
        "Ionad",
        -9.664463335215427
      ],
      [
        "196",
        -9.66473533663947
      ],
      [
        "Y",
        -9.665951043019842
      ],
      [
        "slándá",
        -9.666349451759515
      ],
      [
        "Óga",
        -9.66725243790054
      ],
      [
        "struchtúr",
        -9.66842233789988
      ],
      [
        "gníomhú",
        -9.669512584661708
      ],
      [
        "Parlaimint",
        -9.669729992183223
      ],
      [
        "ndéana",
        -9.669757609791779
      ],
      [
        "lainne",
        -9.670584183773837
      ],
      [
        "Leis",
        -9.67131724780721
      ],
      [
        "Lá",
        -9.67166772828875
      ],
      [
        "Cúirte",
        -9.672759134003453
      ],
      [
        "branda",
        -9.673607802662518
      ],
      [
        "breis",
        -9.674003743662388
      ],
      [
        "eagraíocht",
        -9.674024443544925
      ],
      [
        "Níor",
        -9.674321334255652
      ],
      [
        "sean",
        -9.674346179226955
      ],
      [
        "oiread",
        -9.675385783406885
      ],
      [
        "úinéir",
        -9.675696160783225
      ],
      [
        "glan",
        -9.676035013696703
      ],
      [
        "500",
        -9.67637605515381
      ],
      [
        "teocht",
        -9.677398844526973
      ],
      [
        "Déanfai",
        -9.678488389183109
      ],
      [
        "nochta",
        -9.680296034812212
      ],
      [
        "eaptha",
        -9.682504626568157
      ],
      [
        "35",
        -9.682996491972828
      ],
      [
        "Ollscoil",
        -9.685292586685268
      ],
      [
        "sheirbhís",
        -9.687004000521874
      ],
      [
        "dtús",
        -9.687272475259071
      ],
      [
        "abháil",
        -9.68732651049738
      ],
      [
        "shocrú",
        -9.68739696590054
      ],
      [
        "oiliúna",
        -9.68855492577902
      ],
      [
        "bhailiú",
        -9.688831585121745
      ],
      [
        "éirí",
        -9.689869760048424
      ],
      [
        "chaoi",
        -9.690376792546376
      ],
      [
        "gné",
        -9.692236167841912
      ],
      [
        "Bhallstá",
        -9.69320349001341
      ],
      [
        "frith",
        -9.69466568944101
      ],
      [
        "oibr",
        -9.695315057403537
      ],
      [
        "roghna",
        -9.695386491575452
      ],
      [
        "líonra",
        -9.696504661516428
      ],
      [
        "traidisiún",
        -9.696845549591817
      ],
      [
        "inmheánach",
        -9.69704864211688
      ],
      [
        "cheant",
        -9.699400940983907
      ],
      [
        "beo",
        -9.700012485372714
      ],
      [
        "rádáil",
        -9.700294611623743
      ],
      [
        "oir",
        -9.700490587804872
      ],
      [
        "Cruach",
        -9.70076128290297
      ],
      [
        "Vicipéid",
        -9.701436989732716
      ],
      [
        "nósann",
        -9.70357942010456
      ],
      [
        "chatagóir",
        -9.703741845493093
      ],
      [
        "Seinn",
        -9.703793600438765
      ],
      [
        "cúrsaí",
        -9.704783567207745
      ],
      [
        "Táimid",
        -9.705510441072892
      ],
      [
        "doiciméid",
        -9.705597144747182
      ],
      [
        "eimhin",
        -9.706287729479218
      ],
      [
        "cu",
        -9.709835059625746
      ],
      [
        "cairde",
        -9.7120787221541
      ],
      [
        "abairt",
        -9.712367549510153
      ],
      [
        "brú",
        -9.717292580719576
      ],
      [
        "ainmnithe",
        -9.717428780466337
      ],
      [
        "liúnta",
        -9.71747533409882
      ],
      [
        "rialaithe",
        -9.719753506972987
      ],
      [
        "pe",
        -9.721099079560677
      ],
      [
        "comhlachta",
        -9.721749702018766
      ],
      [
        "leictreonach",
        -9.72246715589316
      ],
      [
        "aighdeáin",
        -9.722635031672805
      ],
      [
        "leighis",
        -9.723313837347082
      ],
      [
        "Choiste",
        -9.7248827712423
      ],
      [
        "bunúsach",
        -9.725328266657957
      ],
      [
        "chláir",
        -9.72542493317621
      ],
      [
        "Dubh",
        -9.726013323480004
      ],
      [
        "eicniúil",
        -9.726546704371106
      ],
      [
        "gnéith",
        -9.727015303817808
      ],
      [
        "Cánach",
        -9.727254629830817
      ],
      [
        "maoiniú",
        -9.727419713818266
      ],
      [
        "orainn",
        -9.727607485037371
      ],
      [
        "scéalta",
        -9.72881324815702
      ],
      [
        "gceart",
        -9.729585682595832
      ],
      [
        "iontu",
        -9.729683683505277
      ],
      [
        "chosc",
        -9.73336950618684
      ],
      [
        "mórdhíol",
        -9.735000925211514
      ],
      [
        "gheobhaid",
        -9.73596980526467
      ],
      [
        "ainmhithe",
        -9.736768266021311
      ],
      [
        "Chonra",
        -9.73678156323517
      ],
      [
        "ceanglai",
        -9.737173811775069
      ],
      [
        "Cliceáil",
        -9.73986239750176
      ],
      [
        "dromchla",
        -9.741348334419374
      ],
      [
        "foirm",
        -9.741427820513401
      ],
      [
        "dearg",
        -9.741501963895644
      ],
      [
        "leabhair",
        -9.742115546437507
      ],
      [
        "chu",
        -9.74211916838972
      ],
      [
        "measúnú",
        -9.742120461907486
      ],
      [
        "ghabh",
        -9.74292268497393
      ],
      [
        "clárú",
        -9.743456563773899
      ],
      [
        "Bille",
        -9.743633262445929
      ],
      [
        "tuairim",
        -9.743741928697208
      ],
      [
        "réasúnach",
        -9.744247258682392
      ],
      [
        "cleachta",
        -9.744732604801978
      ],
      [
        "chóras",
        -9.745783866262059
      ],
      [
        "tuiscint",
        -9.745853971280791
      ],
      [
        "tugtha",
        -9.746160975748548
      ],
      [
        "mhargadh",
        -9.746615774998748
      ],
      [
        "teaghla",
        -9.747074992952996
      ],
      [
        "mhaithe",
        -9.747487851171668
      ],
      [
        "mba",
        -9.748876990320703
      ],
      [
        "shlí",
        -9.749180295893005
      ],
      [
        "hub",
        -9.749628550881727
      ],
      [
        "Príomh",
        -9.750551600448627
      ],
      [
        "éisteacht",
        -9.750635961908344
      ],
      [
        "ionstraim",
        -9.751964650391047
      ],
      [
        "dtagra",
        -9.752761454654589
      ],
      [
        "phríomh",
        -9.753351500831272
      ],
      [
        "ceamara",
        -9.75340905196586
      ],
      [
        "Factor",
        -9.754305959062723
      ],
      [
        "ghabha",
        -9.754824831757489
      ],
      [
        "feiceáil",
        -9.756108546219993
      ],
      [
        "fhiosrúchá",
        -9.756295594224316
      ],
      [
        "Dara",
        -9.75680695314664
      ],
      [
        "bpraghas",
        -9.757281625008854
      ],
      [
        "iasacht",
        -9.757699356323814
      ],
      [
        "siar",
        -9.759051526054469
      ],
      [
        "teicneolaíocht",
        -9.759940387686513
      ],
      [
        "É",
        -9.76025704013194
      ],
      [
        "red",
        -9.76028207046838
      ],
      [
        "cúpla",
        -9.760781452227349
      ],
      [
        "tseirbhís",
        -9.761848944780066
      ],
      [
        "ghearra",
        -9.762052962085285
      ],
      [
        "Astráil",
        -9.763141078732378
      ],
      [
        "seasamh",
        -9.763143233123703
      ],
      [
        "u8",
        -9.763178279425023
      ],
      [
        "stiúir",
        -9.765603272693838
      ],
      [
        "caite",
        -9.76630716229402
      ],
      [
        "ball",
        -9.76648095614598
      ],
      [
        "Cuirea",
        -9.767331318025349
      ],
      [
        "gcur",
        -9.767759316137589
      ],
      [
        "Cuid",
        -9.767914533500813
      ],
      [
        "Céadaoin",
        -9.768122632911007
      ],
      [
        "Scileann",
        -9.768279646776513
      ],
      [
        "grá",
        -9.768673648794525
      ],
      [
        "thairiscint",
        -9.770512034401824
      ],
      [
        "eoidh",
        -9.772323573049267
      ],
      [
        "mion",
        -9.773736403230238
      ],
      [
        "stair",
        -9.774878057926337
      ],
      [
        "u2",
        -9.7763001062781
      ],
      [
        "Rogh",
        -9.77676974611957
      ],
      [
        "fheidhm",
        -9.77716134439335
      ],
      [
        "staidéar",
        -9.778072490640813
      ],
      [
        "Déagóir",
        -9.778412861312376
      ],
      [
        "core",
        -9.778580326670685
      ],
      [
        "amuigh",
        -9.779414716306025
      ],
      [
        "cáin",
        -9.780411988068828
      ],
      [
        "dheon",
        -9.781879784622614
      ],
      [
        "liceáil",
        -9.7822256244948
      ],
      [
        "Tit",
        -9.782705543023814
      ],
      [
        "solas",
        -9.783482736688939
      ],
      [
        "choiste",
        -9.784458427657142
      ],
      [
        "Chiste",
        -9.785543850577845
      ],
      [
        "Súil",
        -9.786227724652507
      ],
      [
        "tharraingt",
        -9.786382332216707
      ],
      [
        "meán",
        -9.787386043044828
      ],
      [
        "bainistíocht",
        -9.787956002377655
      ],
      [
        "seach",
        -9.789107884058703
      ],
      [
        "eisiúint",
        -9.789170604065408
      ],
      [
        "2006",
        -9.791339419203918
      ],
      [
        "irt",
        -9.791667492737696
      ],
      [
        "leasa",
        -9.79203124716706
      ],
      [
        "ardchaighdeán",
        -9.792285814361485
      ],
      [
        "ollmhór",
        -9.793017102848502
      ],
      [
        "scrío",
        -9.793999400608916
      ],
      [
        "gléas",
        -9.794879424598383
      ],
      [
        "chomhair",
        -9.795204011671935
      ],
      [
        "infheistíochta",
        -9.795240886684219
      ],
      [
        "cumhacht",
        -9.795272045165618
      ],
      [
        "Stiúrthóir",
        -9.795686168250086
      ],
      [
        "leibhé",
        -9.796576487481497
      ],
      [
        "Theas",
        -9.79693762862518
      ],
      [
        "Cás",
        -9.798050908986712
      ],
      [
        "óige",
        -9.798409608060735
      ],
      [
        "prionsaba",
        -9.798456004183898
      ],
      [
        "sár",
        -9.798594694404438
      ],
      [
        "dirnáisiúnta",
        -9.798650122707834
      ],
      [
        "Sean",
        -9.802913620416716
      ],
      [
        "dearmad",
        -9.80310323462513
      ],
      [
        "dom",
        -9.80389038945125
      ],
      [
        "chustaiméir",
        -9.806042125566577
      ],
      [
        "stáit",
        -9.806483446799279
      ],
      [
        "pictiúir",
        -9.808204866312469
      ],
      [
        "gleic",
        -9.808232409263905
      ],
      [
        "Táirge",
        -9.810010960745476
      ],
      [
        "ócáid",
        -9.810238999231325
      ],
      [
        "oibleagáid",
        -9.81058437651359
      ],
      [
        "aire",
        -9.811544316598766
      ],
      [
        "ogadh",
        -9.812970968419343
      ],
      [
        "bhua",
        -9.814345620362392
      ],
      [
        "rang",
        -9.81473771168731
      ],
      [
        "uathúil",
        -9.815948191376311
      ],
      [
        "fhaigheann",
        -9.815960046037747
      ],
      [
        "flash",
        -9.81621862527259
      ],
      [
        "Léir",
        -9.816668523616194
      ],
      [
        "asal",
        -9.818077794732208
      ],
      [
        "riarachá",
        -9.818243610000344
      ],
      [
        "gcuirfea",
        -9.818331941048948
      ],
      [
        "fhág",
        -9.818848008196706
      ],
      [
        "taifead",
        -9.820239015292305
      ],
      [
        "adhmai",
        -9.820820467198711
      ],
      [
        "45",
        -9.821238561099406
      ],
      [
        "infheidhme",
        -9.82130943873982
      ],
      [
        "chaillea",
        -9.821337691812849
      ],
      [
        "tairiscint",
        -9.821701312317135
      ],
      [
        "iseanna",
        -9.822432891157177
      ],
      [
        "cuidiú",
        -9.82250463382412
      ],
      [
        "200",
        -9.825281599837577
      ],
      [
        "udaí",
        -9.825318067842469
      ],
      [
        "Choimisiúin",
        -9.82631025296077
      ],
      [
        "aistrithe",
        -9.826831278607086
      ],
      [
        "80",
        -9.829176289700278
      ],
      [
        "Siar",
        -9.830705095040626
      ],
      [
        "todhchaí",
        -9.832131187412221
      ],
      [
        "críoch",
        -9.83222961123624
      ],
      [
        "ord",
        -9.836781001249058
      ],
      [
        "míre",
        -9.838741118314715
      ],
      [
        "ioncai",
        -9.839041867611977
      ],
      [
        "Mórdhíol",
        -9.839370991868112
      ],
      [
        "óirí",
        -9.839798007902175
      ],
      [
        "tora",
        -9.840543100813921
      ],
      [
        "foghlaim",
        -9.84059237710781
      ],
      [
        "bhreise",
        -9.841323333142654
      ],
      [
        "sonrach",
        -9.841387083242086
      ],
      [
        "Institiúid",
        -9.841442006771732
      ],
      [
        "shaol",
        -9.843394824336372
      ],
      [
        "parlaiminteach",
        -9.844796585969066
      ],
      [
        "lámh",
        -9.845377968130137
      ],
      [
        "phróiseáil",
        -9.846045161471968
      ],
      [
        "caithea",
        -9.846940209902687
      ],
      [
        "01",
        -9.847759634198662
      ],
      [
        "cuarda",
        -9.847976618775121
      ],
      [
        "ifigiúil",
        -9.848953062643236
      ],
      [
        "ngach",
        -9.85202167177782
      ],
      [
        "Leasa",
        -9.852344057877247
      ],
      [
        "thanta",
        -9.855074208368764
      ],
      [
        "luas",
        -9.855384521328906
      ],
      [
        "stiúrthóir",
        -9.855414039097884
      ],
      [
        "bua",
        -9.856758845583176
      ],
      [
        "pois",
        -9.857634053898177
      ],
      [
        "onn",
        -9.85884943492422
      ],
      [
        "córa",
        -9.860125643751534
      ],
      [
        "Gréasá",
        -9.860779413440191
      ],
      [
        "Déantóir",
        -9.860956021655731
      ],
      [
        "bhain",
        -9.862270945746575
      ],
      [
        "grianghraf",
        -9.86253012718306
      ],
      [
        "Hard",
        -9.862887221246229
      ],
      [
        "Ábhar",
        -9.863260057841696
      ],
      [
        "ealaín",
        -9.863421238096695
      ],
      [
        "tuairisc",
        -9.863421913040682
      ],
      [
        "pháist",
        -9.864800668883753
      ],
      [
        "níoctha",
        -9.865144230687473
      ],
      [
        "New",
        -9.867011877017422
      ],
      [
        "éisteachta",
        -9.86728950533232
      ],
      [
        "déag",
        -9.867762898395686
      ],
      [
        "cheist",
        -9.86796229155187
      ],
      [
        "Oidhreachta",
        -9.868973850984467
      ],
      [
        "ex",
        -9.869993825863101
      ],
      [
        "Dhún",
        -9.871659895465703
      ],
      [
        "tráchtála",
        -9.872710040283732
      ],
      [
        "Seirbhíse",
        -9.873504659831514
      ],
      [
        "Oideachas",
        -9.873596857421049
      ],
      [
        "altaí",
        -9.873765218373293
      ],
      [
        "deartha",
        -9.87491876062062
      ],
      [
        "bronntana",
        -9.875291794824347
      ],
      [
        "aithint",
        -9.875572454815387
      ],
      [
        "soláthróir",
        -9.87562234533948
      ],
      [
        "húdará",
        -9.876352767077481
      ],
      [
        "Sraith",
        -9.876406613081947
      ],
      [
        "taitneamh",
        -9.877265246107125
      ],
      [
        "héann",
        -9.879542020051364
      ],
      [
        "Éabhlóid",
        -9.879853493431822
      ],
      [
        "Chontae",
        -9.879854239781508
      ],
      [
        "friotaíocht",
        -9.879854446046625
      ],
      [
        "gcion",
        -9.880045415022293
      ],
      [
        "uait",
        -9.880241498450687
      ],
      [
        "mic",
        -9.88027153988563
      ],
      [
        "réitigh",
        -9.881146957929825
      ],
      [
        "lonnaithe",
        -9.881461347521157
      ],
      [
        "héasca",
        -9.882176213458951
      ],
      [
        "Roinne",
        -9.882324015201137
      ],
      [
        "bhreis",
        -9.883283060585107
      ],
      [
        "ur",
        -9.884382962305965
      ],
      [
        "baile",
        -9.88443304310637
      ],
      [
        "sperm",
        -9.885159015021067
      ],
      [
        "ocht",
        -9.885198929092915
      ],
      [
        "foirfe",
        -9.885316520727624
      ],
      [
        "buan",
        -9.885685538365912
      ],
      [
        "Cláraigh",
        -9.886041093579909
      ],
      [
        "cuntas",
        -9.886099334970833
      ],
      [
        "$",
        -9.888140828342971
      ],
      [
        "thréimhse",
        -9.888172064037196
      ],
      [
        "osach",
        -9.888867070628892
      ],
      [
        "comhai",
        -9.889852232340575
      ],
      [
        "aice",
        -9.890436945003353
      ],
      [
        "gcomhar",
        -9.891721689282093
      ],
      [
        "sheachai",
        -9.892949618001278
      ],
      [
        "nGall",
        -9.893751694488056
      ],
      [
        "ghairm",
        -9.894743723499836
      ],
      [
        "Alt",
        -9.896349707736324
      ],
      [
        "Cailín",
        -9.896744577162275
      ],
      [
        "fadhbanna",
        -9.897433490076805
      ],
      [
        "tástáil",
        -9.897680875165584
      ],
      [
        "áillí",
        -9.898345996999982
      ],
      [
        "imeacht",
        -9.898689546040579
      ],
      [
        "2003",
        -9.898998431793189
      ],
      [
        "phoist",
        -9.900235140893429
      ],
      [
        "Úsáid",
        -9.900947158889135
      ],
      [
        "”.",
        -9.9010966975348
      ],
      [
        "net",
        -9.901301296055717
      ],
      [
        "páirtí",
        -9.90154343005948
      ],
      [
        "Bainistíocht",
        -9.902133715940142
      ],
      [
        "gairmiúla",
        -9.902282589920304
      ],
      [
        "u4",
        -9.902538630944761
      ],
      [
        "ísle",
        -9.903052935358337
      ],
      [
        "Domhna",
        -9.903381212499918
      ],
      [
        "leictreach",
        -9.903857046931403
      ],
      [
        "Leas",
        -9.905442640291485
      ],
      [
        "neamhspleách",
        -9.906252944989745
      ],
      [
        "Tabhair",
        -9.906320107012688
      ],
      [
        "tiomanta",
        -9.906447552538186
      ],
      [
        "eicniúla",
        -9.907491924147273
      ],
      [
        "bás",
        -9.907801808359777
      ],
      [
        "áite",
        -9.907861829010809
      ],
      [
        "farraig",
        -9.908325880215646
      ],
      [
        "ardú",
        -9.908938360036078
      ],
      [
        "athru",
        -9.910208215146277
      ],
      [
        "each",
        -9.9108414732803
      ],
      [
        "Nío",
        -9.911148516151073
      ],
      [
        "phraghas",
        -9.912257226336221
      ],
      [
        "Scoile",
        -9.91297948592379
      ],
      [
        "bainte",
        -9.914719783730758
      ],
      [
        "trína",
        -9.916320823612399
      ],
      [
        "oirí",
        -9.916764768210705
      ],
      [
        "riachtana",
        -9.916933093108026
      ],
      [
        "mhaoin",
        -9.917783593331041
      ],
      [
        "Monaróir",
        -9.919366388105596
      ],
      [
        "iotail",
        -9.919690400372282
      ],
      [
        "himeachta",
        -9.920652897236383
      ],
      [
        "teorainn",
        -9.920666270161949
      ],
      [
        "sprioc",
        -9.920965307937795
      ],
      [
        "lárnach",
        -9.921141135607552
      ],
      [
        "éil",
        -9.921239519431293
      ],
      [
        "socru",
        -9.921736329255403
      ],
      [
        "chóipeáil",
        -9.922287064546573
      ],
      [
        "timpeall",
        -9.922447739411922
      ],
      [
        "gáis",
        -9.92422302257686
      ],
      [
        "36",
        -9.924840925242162
      ],
      [
        "mhalairt",
        -9.927753162248148
      ],
      [
        "Eolas",
        -9.927762448036464
      ],
      [
        "aimsiú",
        -9.92780747501778
      ],
      [
        "taispeáint",
        -9.928048832478506
      ],
      [
        "cailíní",
        -9.929099319819345
      ],
      [
        "bord",
        -9.929169343554701
      ],
      [
        "cailín",
        -9.929570643209829
      ],
      [
        "sreang",
        -9.929783422376776
      ],
      [
        "iarr",
        -9.929982722043945
      ],
      [
        "Cuirfi",
        -9.930772966968124
      ],
      [
        "forleathan",
        -9.931547687212905
      ],
      [
        "hordú",
        -9.932302169164753
      ],
      [
        "teicneolaíochta",
        -9.934585296372164
      ],
      [
        "phróisea",
        -9.935547727314903
      ],
      [
        "dliteana",
        -9.93562719223834
      ],
      [
        "iontaofa",
        -9.936687649509985
      ],
      [
        "tuairimí",
        -9.936890096931354
      ],
      [
        "Mac",
        -9.938565058646178
      ],
      [
        "cheangla",
        -9.939189840572409
      ],
      [
        "talmhaíocht",
        -9.93938503372895
      ],
      [
        "pleanála",
        -9.939577592381891
      ],
      [
        "Bóna",
        -9.939609687018928
      ],
      [
        "mhodh",
        -9.941563570134148
      ],
      [
        "bhean",
        -9.941611596154221
      ],
      [
        "triail",
        -9.941766469392709
      ],
      [
        "planda",
        -9.941810873763746
      ],
      [
        "Daoin",
        -9.943292756743872
      ],
      [
        "spóirt",
        -9.943722037630657
      ],
      [
        "nglacfa",
        -9.945046038810016
      ],
      [
        "70",
        -9.946487103045357
      ],
      [
        "CUID",
        -9.948176564527213
      ],
      [
        "pacáiste",
        -9.948804461880421
      ],
      [
        "Bhoir",
        -9.949599535447375
      ],
      [
        "bhainisti",
        -9.952656415303426
      ],
      [
        "Monarcha",
        -9.954078796761856
      ],
      [
        "Talmhaíocht",
        -9.954143101509096
      ],
      [
        "u12",
        -9.954837105127478
      ],
      [
        "gairmiú",
        -9.955126134502107
      ],
      [
        "saineola",
        -9.955268033316905
      ],
      [
        "cúirte",
        -9.955482933996766
      ],
      [
        "céad",
        -9.955902185514251
      ],
      [
        "plé",
        -9.956992314590106
      ],
      [
        "cáilíocht",
        -9.957629218771395
      ],
      [
        "able",
        -9.959406884980815
      ],
      [
        "caithfi",
        -9.960865810933488
      ],
      [
        "osaitheoir",
        -9.961701375838082
      ],
      [
        "huaigh",
        -9.962535534535505
      ],
      [
        "suimiú",
        -9.962830650720152
      ],
      [
        "leathnú",
        -9.963579653900766
      ],
      [
        "oibrithe",
        -9.963828813877466
      ],
      [
        "Mo",
        -9.964006461012488
      ],
      [
        "gceann",
        -9.966277380675237
      ],
      [
        "eachta",
        -9.966302308382371
      ],
      [
        "194",
        -9.96653792363593
      ],
      [
        "fuaime",
        -9.967550942540633
      ],
      [
        "cáiliú",
        -9.967599621811262
      ],
      [
        "ngníomh",
        -9.968947897046622
      ],
      [
        "Google",
        -9.968993411356514
      ],
      [
        "spás",
        -9.969407706678705
      ],
      [
        "monarcha",
        -9.969979613076152
      ],
      [
        "Foirm",
        -9.97055997576604
      ],
      [
        "beart",
        -9.970685600504055
      ],
      [
        "íriú",
        -9.971791401721159
      ],
      [
        "éagsúlacht",
        -9.97495434237868
      ],
      [
        "scaoilea",
        -9.974967654652165
      ],
      [
        "uaireadóirí",
        -9.975298113301182
      ],
      [
        "thugta",
        -9.976463127754426
      ],
      [
        "Speisialta",
        -9.978056426126937
      ],
      [
        "Síochána",
        -9.978061815281091
      ],
      [
        "bail",
        -9.97824188583774
      ],
      [
        "teasa",
        -9.978318470586855
      ],
      [
        "lámha",
        -9.978509200634408
      ],
      [
        "Nuacht",
        -9.979716061374884
      ],
      [
        "dathanna",
        -9.982563961003585
      ],
      [
        "Aibí",
        -9.982908378941886
      ],
      [
        "Gan",
        -9.982980991541531
      ],
      [
        "íneáil",
        -9.983207365773715
      ],
      [
        "foireann",
        -9.98469995577367
      ],
      [
        "Doll",
        -9.98521202453307
      ],
      [
        "laethú",
        -9.985542716030027
      ],
      [
        "cáilithe",
        -9.985828524699166
      ],
      [
        "aisíoc",
        -9.987137934147325
      ],
      [
        "OÉ",
        -9.987576106189941
      ],
      [
        "mheán",
        -9.987668806845356
      ],
      [
        "90",
        -9.988050267831627
      ],
      [
        "foráil",
        -9.988523658494701
      ],
      [
        "tosú",
        -9.989886993237743
      ],
      [
        "Bia",
        -9.990849345977171
      ],
      [
        "Í",
        -9.990887150460416
      ],
      [
        "Iarscríbhinn",
        -9.991071200446978
      ],
      [
        "u3",
        -9.991798593638896
      ],
      [
        "cuirtea",
        -9.992357814252614
      ],
      [
        "III",
        -9.99238893658056
      ],
      [
        "Praghas",
        -9.993347606756117
      ],
      [
        "sheachada",
        -9.993354067382771
      ],
      [
        "Dúin",
        -9.993473700250062
      ],
      [
        "tháirgí",
        -9.994808900378516
      ],
      [
        "níor",
        -9.995003405423093
      ],
      [
        "Bailiúchá",
        -9.99593907412376
      ],
      [
        "fhoilsiú",
        -9.996538730690952
      ],
      [
        "réasúnta",
        -9.996631971865575
      ],
      [
        "táimid",
        -9.997266666236339
      ],
      [
        "choinníoll",
        -9.997362386663841
      ],
      [
        "Comh",
        -9.998078975373343
      ],
      [
        "custaiméir",
        -9.998165958665794
      ],
      [
        "seachtrach",
        -9.999308029614
      ],
      [
        "Pobail",
        -9.999545274188334
      ],
      [
        "compordach",
        -9.999790483494644
      ],
      [
        "fhoráil",
        -9.999909636207928
      ],
      [
        "ph",
        -10.000040093611393
      ],
      [
        "cónaí",
        -10.000756518489364
      ],
      [
        "mbeala",
        -10.001021331846866
      ],
      [
        "próiseála",
        -10.003424560775935
      ],
      [
        "fón",
        -10.003646054778585
      ],
      [
        "buntáist",
        -10.004767962165753
      ],
      [
        "slán",
        -10.004819362493915
      ],
      [
        "ghnóth",
        -10.006619270391838
      ],
      [
        "Aonta",
        -10.006874583795316
      ],
      [
        "dleacht",
        -10.007819278084547
      ],
      [
        "gearán",
        -10.008555742212035
      ],
      [
        "Afraic",
        -10.008878152393613
      ],
      [
        "Taighde",
        -10.008999033131957
      ],
      [
        "leithéid",
        -10.009419359009872
      ],
      [
        "gníomhach",
        -10.009442211546201
      ],
      [
        "Ltd",
        -10.009578484890781
      ],
      [
        "Tionsca",
        -10.009644547053053
      ],
      [
        "stáin",
        -10.010130405462617
      ],
      [
        "theacht",
        -10.01072827654879
      ],
      [
        "lacha",
        -10.011300860277938
      ],
      [
        "stáisiú",
        -10.011833768622918
      ],
      [
        "38",
        -10.011914219774042
      ],
      [
        "Teanga",
        -10.013429737479662
      ],
      [
        "domhanda",
        -10.013843265599306
      ],
      [
        "ainmniú",
        -10.014572322925059
      ],
      [
        "ton",
        -10.014600128409786
      ],
      [
        "37",
        -10.014715948116994
      ],
      [
        "Ár",
        -10.017487720821968
      ],
      [
        "difriú",
        -10.017560706777035
      ],
      [
        "déileáil",
        -10.018282205758807
      ],
      [
        "University",
        -10.018310494301964
      ],
      [
        "Meaisín",
        -10.018310836883927
      ],
      [
        "seachtain",
        -10.019321661944506
      ],
      [
        "San",
        -10.019350489069645
      ],
      [
        "National",
        -10.019893556811267
      ],
      [
        "Aistriúchá",
        -10.020513691981183
      ],
      [
        "láimh",
        -10.020571612713116
      ],
      [
        "Oifigiúil",
        -10.022031106310262
      ],
      [
        "achtachá",
        -10.022103895295515
      ],
      [
        "socrú",
        -10.023029377954606
      ],
      [
        "cht",
        -10.024208497420545
      ],
      [
        "Bearta",
        -10.024939949840713
      ],
      [
        "Déa",
        -10.025830719630608
      ],
      [
        "Leabhar",
        -10.026689768006275
      ],
      [
        "u5",
        -10.02730187997548
      ],
      [
        "deir",
        -10.027393052197668
      ],
      [
        "scriosa",
        -10.027757208022658
      ],
      [
        "Fearr",
        -10.027791790833462
      ],
      [
        "tomhaltóir",
        -10.028162200862209
      ],
      [
        "oibríochta",
        -10.029418407833973
      ],
      [
        "ndóigh",
        -10.029697212193888
      ],
      [
        "chomhlacht",
        -10.02975556345828
      ],
      [
        "hAoi",
        -10.030345156106215
      ],
      [
        "uinneamh",
        -10.031019684708234
      ],
      [
        "bliantúil",
        -10.031028728500058
      ],
      [
        "tv",
        -10.031407570118919
      ],
      [
        "léas",
        -10.031561391238617
      ],
      [
        "Uisce",
        -10.032933038789533
      ],
      [
        "Ord",
        -10.033112870428603
      ],
      [
        "réigiún",
        -10.033429698946511
      ],
      [
        "habháil",
        -10.033767588540819
      ],
      [
        "cheadú",
        -10.033891878020622
      ],
      [
        "sholáthra",
        -10.034086308041738
      ],
      [
        "infheistíocht",
        -10.035678467820922
      ],
      [
        "Céim",
        -10.036164716561553
      ],
      [
        "shábháil",
        -10.036217723436755
      ],
      [
        "nuas",
        -10.03696104645356
      ],
      [
        "orm",
        -10.038088526820609
      ],
      [
        "ionadaithe",
        -10.038170745782912
      ],
      [
        "chleachta",
        -10.03858097932216
      ],
      [
        "eacair",
        -10.039215731943333
      ],
      [
        "bunaío",
        -10.039271132342002
      ],
      [
        "volta",
        -10.039353711942734
      ],
      [
        "gcuirtea",
        -10.039931773131658
      ],
      [
        "Éireannach",
        -10.040211951274141
      ],
      [
        "sócmhainn",
        -10.040535735721406
      ],
      [
        "dócha",
        -10.041161439048249
      ],
      [
        "céimeanna",
        -10.04149679310954
      ],
      [
        "chúirt",
        -10.04274919543067
      ],
      [
        "táille",
        -10.043743481432838
      ],
      [
        "Video",
        -10.043913414627173
      ],
      [
        "Act",
        -10.044051495187322
      ],
      [
        "chothabháil",
        -10.044168333728889
      ],
      [
        "fiosrúchá",
        -10.044393256160667
      ],
      [
        "fhéadf",
        -10.044420163876168
      ],
      [
        "Faisnéise",
        -10.04475069020781
      ],
      [
        "48",
        -10.046137900925387
      ],
      [
        "ghníomh",
        -10.046234500412346
      ],
      [
        "raiceann",
        -10.047148805435446
      ],
      [
        "aicme",
        -10.04789091971519
      ],
      [
        "Coláist",
        -10.048507168031968
      ],
      [
        "chorp",
        -10.048509198105553
      ],
      [
        "earra",
        -10.048692008305498
      ],
      [
        "cásann",
        -10.048693699147623
      ],
      [
        "Ráta",
        -10.050426115022184
      ],
      [
        "pinsean",
        -10.050894459532277
      ],
      [
        "Gh",
        -10.050989140421631
      ],
      [
        "bog",
        -10.05151314262125
      ],
      [
        "treorach",
        -10.051521307184762
      ],
      [
        "mb",
        -10.051694672314103
      ],
      [
        "bpróifíl",
        -10.051764159873171
      ],
      [
        "ála",
        -10.052020467412973
      ],
      [
        "Ph",
        -10.05291928431804
      ],
      [
        "Suíomh",
        -10.053684292988088
      ],
      [
        "Phen",
        -10.05434339560055
      ],
      [
        "údarú",
        -10.054808838414404
      ],
      [
        "2000",
        -10.055143577269813
      ],
      [
        "Oireachta",
        -10.057051664753152
      ],
      [
        "Oibre",
        -10.057894145886909
      ],
      [
        "Mh",
        -10.058006368818496
      ],
      [
        "ies",
        -10.058010195896513
      ],
      [
        "scála",
        -10.059155984665756
      ],
      [
        "cuirea",
        -10.059193371438045
      ],
      [
        "ordu",
        -10.059367232021597
      ],
      [
        "éifeachta",
        -10.059511159325353
      ],
      [
        "maoin",
        -10.059626288538734
      ],
      [
        "páipéar",
        -10.060251132147368
      ],
      [
        "u6",
        -10.060337826093392
      ],
      [
        "riosca",
        -10.060344508764835
      ],
      [
        "mhonarcha",
        -10.06038565678205
      ],
      [
        "foghlama",
        -10.060411236302123
      ],
      [
        "liúntais",
        -10.061443538155455
      ],
      [
        "ladh",
        -10.0618148497854
      ],
      [
        "deich",
        -10.062578027716707
      ],
      [
        "inbh",
        -10.062664344896756
      ],
      [
        "sheol",
        -10.063256097808955
      ],
      [
        "Síne",
        -10.063305488932947
      ],
      [
        "dearbhú",
        -10.0638430364818
      ],
      [
        "thuillead",
        -10.065516997122696
      ],
      [
        "stát",
        -10.065865304968035
      ],
      [
        "phearsanta",
        -10.06610214942895
      ],
      [
        "°",
        -10.066862631144215
      ],
      [
        "shuiteáil",
        -10.06692319637276
      ],
      [
        "gloine",
        -10.067337288631144
      ],
      [
        "imní",
        -10.06846986020376
      ],
      [
        "44",
        -10.069013483465975
      ],
      [
        "Comhshao",
        -10.069473479741632
      ],
      [
        "news",
        -10.069745492946131
      ],
      [
        "inbhuanaithe",
        -10.070100852533841
      ],
      [
        "English",
        -10.070185073545034
      ],
      [
        "Chosaint",
        -10.070195104717776
      ],
      [
        "Réigiún",
        -10.070662392732597
      ],
      [
        "aonad",
        -10.071780104538735
      ],
      [
        "pointe",
        -10.072537059905276
      ],
      [
        "reáchtáil",
        -10.073518224377759
      ],
      [
        "soláthair",
        -10.073781365953788
      ],
      [
        "gúna",
        -10.074649506335223
      ],
      [
        "iv",
        -10.07622983504204
      ],
      [
        "07",
        -10.07628629478732
      ],
      [
        "teoranta",
        -10.076551755900592
      ],
      [
        "tairbhe",
        -10.076844808213076
      ],
      [
        "ifear",
        -10.07703933992251
      ],
      [
        "gluaiseacht",
        -10.077984458614733
      ],
      [
        "Fostaíochta",
        -10.078875656634324
      ],
      [
        "cruth",
        -10.079101437797917
      ],
      [
        "2004",
        -10.0793636232285
      ],
      [
        "Jackets",
        -10.07983980019253
      ],
      [
        "Tugt",
        -10.08024986486677
      ],
      [
        "aifid",
        -10.080824679037342
      ],
      [
        "dhíth",
        -10.080961121153067
      ],
      [
        "ity",
        -10.082067627173574
      ],
      [
        "gcóra",
        -10.08243366513429
      ],
      [
        "CO",
        -10.082709900859214
      ],
      [
        "Forbairt",
        -10.083237087144997
      ],
      [
        "Córa",
        -10.083892012277953
      ],
      [
        "eireadh",
        -10.084505820502539
      ],
      [
        "codann",
        -10.08501038839443
      ],
      [
        "dalta",
        -10.085804945123467
      ],
      [
        "Bh",
        -10.086377022380853
      ],
      [
        "Chéad",
        -10.087029434188462
      ],
      [
        "Imir",
        -10.08756434958094
      ],
      [
        "beaga",
        -10.08836589327844
      ],
      [
        "Gnó",
        -10.089894432250329
      ],
      [
        "caiteacha",
        -10.090863547453527
      ],
      [
        "nuacht",
        -10.09108852243919
      ],
      [
        "píosa",
        -10.091809335144621
      ],
      [
        "mhéad",
        -10.092046341858008
      ],
      [
        "cinntí",
        -10.09210039210219
      ],
      [
        "bonn",
        -10.094246963908033
      ],
      [
        "teannta",
        -10.094468128586971
      ],
      [
        "09",
        -10.094987281917906
      ],
      [
        "Deara",
        -10.095534338992351
      ],
      [
        "46",
        -10.096131791196552
      ],
      [
        "aíochta",
        -10.096258359092392
      ],
      [
        "US",
        -10.096578694889283
      ],
      [
        "ness",
        -10.096848991036133
      ],
      [
        "Eo",
        -10.097238696985746
      ],
      [
        "oibreacha",
        -10.097387816567412
      ],
      [
        "theasta",
        -10.097656247777365
      ],
      [
        "u9",
        -10.097764443880454
      ],
      [
        "gu",
        -10.099850546897475
      ],
      [
        "tiomána",
        -10.1005937809261
      ],
      [
        "2001",
        -10.101015151470959
      ],
      [
        "34",
        -10.101272632872645
      ],
      [
        "u14",
        -10.105482860855307
      ],
      [
        "meái",
        -10.105622757402749
      ],
      [
        "chomhlachta",
        -10.105982360360938
      ],
      [
        "athanna",
        -10.10627697701854
      ],
      [
        "dlite",
        -10.107302362047427
      ],
      [
        "saothar",
        -10.107466505371157
      ],
      [
        "fhadhb",
        -10.10748973745459
      ],
      [
        "taisteal",
        -10.107491173632198
      ],
      [
        "Thuaidh",
        -10.107593629671701
      ],
      [
        "smaointe",
        -10.108047558276152
      ],
      [
        "Ráite",
        -10.108183761250142
      ],
      [
        "timpeallacht",
        -10.109129412632816
      ],
      [
        "cuntais",
        -10.109927168968998
      ],
      [
        "beatha",
        -10.110241601441464
      ],
      [
        "bainisti",
        -10.11056270820756
      ],
      [
        "iasc",
        -10.110737472890378
      ],
      [
        "stoc",
        -10.110925135089516
      ],
      [
        "digiteach",
        -10.110975962440534
      ],
      [
        "33",
        -10.111077104275743
      ],
      [
        "teorainneacha",
        -10.112041247703162
      ],
      [
        "Roghna",
        -10.112222130067494
      ],
      [
        "phlean",
        -10.11293039743067
      ],
      [
        "eacht",
        -10.113129586914923
      ],
      [
        "dhearbh",
        -10.113481746871187
      ],
      [
        "59",
        -10.114175163540438
      ],
      [
        "tíotáiniam",
        -10.115961256105141
      ],
      [
        "coiste",
        -10.116773743179554
      ],
      [
        "eora",
        -10.117401753352212
      ],
      [
        "thú",
        -10.117766021554681
      ],
      [
        "·",
        -10.117894061903772
      ],
      [
        "ugann",
        -10.118028923133826
      ],
      [
        "beagán",
        -10.11841480512598
      ],
      [
        "Iris",
        -10.11943593627312
      ],
      [
        "EU",
        -10.119869195015456
      ],
      [
        "caidr",
        -10.120519725042728
      ],
      [
        "tionscna",
        -10.12102768802496
      ],
      [
        "scáileá",
        -10.121393393099467
      ],
      [
        "Dia",
        -10.122388458278605
      ],
      [
        "Fir",
        -10.12257557337173
      ],
      [
        "intinn",
        -10.124074074029341
      ],
      [
        "ultúrtha",
        -10.12529524067307
      ],
      [
        "rannpháirtíocht",
        -10.125300193053452
      ],
      [
        "sealbhóir",
        -10.125419180373402
      ],
      [
        "Re",
        -10.125506601889978
      ],
      [
        "méadar",
        -10.126645823748277
      ],
      [
        "gCoimisinéir",
        -10.127819713185145
      ],
      [
        "Threesome",
        -10.128420621588948
      ],
      [
        "muirear",
        -10.130745672646025
      ],
      [
        "Chat",
        -10.13104015392674
      ],
      [
        "lua",
        -10.131529371572643
      ],
      [
        "tithíocht",
        -10.131959319785574
      ],
      [
        "stóráil",
        -10.133695854764689
      ],
      [
        "chúram",
        -10.1344364434423
      ],
      [
        "ionadaí",
        -10.134481323151697
      ],
      [
        "u10",
        -10.135338667909632
      ],
      [
        "gov",
        -10.13572973663104
      ],
      [
        "Údarái",
        -10.135918329291082
      ],
      [
        "Sola",
        -10.136932967983554
      ],
      [
        "euro",
        -10.137369117740034
      ],
      [
        "720",
        -10.138305091249258
      ],
      [
        "thuiscint",
        -10.139001385886232
      ],
      [
        "ianaise",
        -10.13902758249428
      ],
      [
        "leigheas",
        -10.139130046918325
      ],
      [
        "chúrsa",
        -10.13975239530312
      ],
      [
        "shláinte",
        -10.139985608934003
      ],
      [
        "chríoch",
        -10.140508102327553
      ],
      [
        "bhforáilte",
        -10.141148906282968
      ],
      [
        "Ógla",
        -10.142007927686358
      ],
      [
        "mála",
        -10.144034411548885
      ],
      [
        "breá",
        -10.14657955934571
      ],
      [
        "plaisteach",
        -10.146812846457461
      ],
      [
        "gearr",
        -10.147712767821723
      ],
      [
        "isce",
        -10.148842138762776
      ],
      [
        "2005",
        -10.149035347174035
      ],
      [
        "ghníomhaíochta",
        -10.149522404736981
      ],
      [
        "chontae",
        -10.149798392798097
      ],
      [
        "Phoibl",
        -10.149811642129809
      ],
      [
        "inti",
        -10.150688123213612
      ],
      [
        "uas",
        -10.15116196579789
      ],
      [
        "Irish",
        -10.151693782312458
      ],
      [
        "bpointe",
        -10.1518214399111
      ],
      [
        "bpobal",
        -10.152029964313336
      ],
      [
        "06",
        -10.152461030336221
      ],
      [
        "óthair",
        -10.152539956647594
      ],
      [
        "Black",
        -10.15398815564851
      ],
      [
        "scor",
        -10.15426080560044
      ],
      [
        "stádas",
        -10.154486913274237
      ],
      [
        "Teach",
        -10.154587964609147
      ],
      [
        "eiseanna",
        -10.157148131414267
      ],
      [
        "tirim",
        -10.158015829000139
      ],
      [
        "by",
        -10.159039458700306
      ],
      [
        "glas",
        -10.159856412665603
      ],
      [
        "meas",
        -10.1601377293462
      ],
      [
        "aistriúchá",
        -10.160740154563491
      ],
      [
        "chothú",
        -10.16090506720986
      ],
      [
        "IO",
        -10.161018975412329
      ],
      [
        "eráide",
        -10.161805261437259
      ],
      [
        "éag",
        -10.162289477850212
      ],
      [
        "eagrú",
        -10.163075643374668
      ],
      [
        "Mheiriceá",
        -10.163075679162237
      ],
      [
        "irí",
        -10.163249906140946
      ],
      [
        "chuirfid",
        -10.163624467531022
      ],
      [
        "sealadach",
        -10.164401474263773
      ],
      [
        "gcroí",
        -10.16491132775149
      ],
      [
        "meáchain",
        -10.167628807615722
      ],
      [
        "éascú",
        -10.167999324564109
      ],
      [
        "official",
        -10.168653910460442
      ],
      [
        "pobal",
        -10.169417402856926
      ],
      [
        "comhoiriúnacht",
        -10.171177260727632
      ],
      [
        "Play",
        -10.171484288658625
      ],
      [
        "dréacht",
        -10.171520065045101
      ],
      [
        "»",
        -10.171670401044661
      ],
      [
        "sheiceáil",
        -10.17182158141172
      ],
      [
        "deireanach",
        -10.172031619444338
      ],
      [
        "ghairmiú",
        -10.172465084306143
      ],
      [
        "ordaithe",
        -10.173458898590617
      ],
      [
        "maoine",
        -10.173484372245914
      ],
      [
        "gceant",
        -10.17472701173443
      ],
      [
        "deas",
        -10.17576452799696
      ],
      [
        "meascá",
        -10.176200218077357
      ],
      [
        "chinn",
        -10.176388318959901
      ],
      [
        "praghs",
        -10.176744785107187
      ],
      [
        "Fostaíocht",
        -10.176845843885442
      ],
      [
        "dtreo",
        -10.176895630118695
      ],
      [
        "litir",
        -10.17696437355416
      ],
      [
        "phlé",
        -10.17732776814697
      ],
      [
        "scéimeanna",
        -10.178183204530516
      ],
      [
        "65",
        -10.178588610096583
      ],
      [
        "cúrsa",
        -10.178853135958807
      ],
      [
        "point",
        -10.179024609484093
      ],
      [
        "láimhe",
        -10.179454666557762
      ],
      [
        "inár",
        -10.179981955721308
      ],
      [
        "anta",
        -10.180075755752352
      ],
      [
        "gCuid",
        -10.182399372838686
      ],
      [
        "pictiúr",
        -10.182635420829072
      ],
      [
        "cóir",
        -10.18267672089934
      ],
      [
        "ceadaithe",
        -10.184722329822378
      ],
      [
        "iascaireacht",
        -10.184936889115612
      ],
      [
        "stop",
        -10.186625488364614
      ],
      [
        "feithicl",
        -10.186854770504373
      ],
      [
        "55",
        -10.187748162390063
      ],
      [
        "gCúirt",
        -10.187768995869465
      ],
      [
        ".\"",
        -10.188192643186198
      ],
      [
        "Cuarda",
        -10.188573424411661
      ],
      [
        "rathúil",
        -10.190370031674131
      ],
      [
        "éineacht",
        -10.190384735619144
      ],
      [
        "Páirt",
        -10.190653688846828
      ],
      [
        "conrad",
        -10.191218220686348
      ],
      [
        "othair",
        -10.19152430162151
      ],
      [
        "úsáideach",
        -10.19217642204476
      ],
      [
        "béim",
        -10.19230242038945
      ],
      [
        "feidhmíocht",
        -10.192561240597477
      ],
      [
        "úshláin",
        -10.193228119378968
      ],
      [
        "Bliain",
        -10.194018505466346
      ],
      [
        "Chearta",
        -10.194063477950252
      ],
      [
        "Clárú",
        -10.194198557626422
      ],
      [
        "sibhialta",
        -10.194223426769819
      ],
      [
        "strap",
        -10.194395202766561
      ],
      [
        "fuarth",
        -10.194546053398422
      ],
      [
        "iallaíonn",
        -10.19514303702627
      ],
      [
        "sochaí",
        -10.196785398458719
      ],
      [
        "tsuim",
        -10.197870175541173
      ],
      [
        "gcaoi",
        -10.19818421739786
      ],
      [
        "03",
        -10.198588443106196
      ],
      [
        "scoláir",
        -10.198722115156666
      ],
      [
        "Banc",
        -10.199196284400438
      ],
      [
        ");",
        -10.199233675916869
      ],
      [
        "08",
        -10.202611351339693
      ],
      [
        "imscrúdú",
        -10.20307525570371
      ],
      [
        "chóra",
        -10.203455295415342
      ],
      [
        "agsúil",
        -10.203564018135527
      ],
      [
        "ealaíon",
        -10.20463238404976
      ],
      [
        "aiste",
        -10.205162999116254
      ],
      [
        "ealaíontóir",
        -10.205413742526474
      ],
      [
        "Straitéis",
        -10.2060708647082
      ],
      [
        "Caibidil",
        -10.206093890964675
      ],
      [
        "PDF",
        -10.206409257636643
      ],
      [
        "Hot",
        -10.2065499257488
      ],
      [
        "lig",
        -10.207317003780835
      ],
      [
        "mhic",
        -10.208531225587476
      ],
      [
        "macasamhail",
        -10.2093872543339
      ],
      [
        "ceol",
        -10.209635461118955
      ],
      [
        "Ú",
        -10.209916476549115
      ],
      [
        "turas",
        -10.20993792724086
      ],
      [
        "ciontach",
        -10.21022572583709
      ],
      [
        "cartlann",
        -10.210751400787771
      ],
      [
        "58",
        -10.211588038704445
      ],
      [
        "idirlín",
        -10.21272720091094
      ],
      [
        "Health",
        -10.213042382478378
      ],
      [
        "fhostaithe",
        -10.21323775281721
      ],
      [
        "bhrú",
        -10.213283981933401
      ],
      [
        "casta",
        -10.21358232362908
      ],
      [
        "tine",
        -10.213940708571215
      ],
      [
        "Crua",
        -10.214570633885398
      ],
      [
        "SC",
        -10.21482620749154
      ],
      [
        "Barr",
        -10.215314095254755
      ],
      [
        "ers",
        -10.21658128285452
      ],
      [
        "chostas",
        -10.216880450077454
      ],
      [
        "difríocht",
        -10.217164964670982
      ],
      [
        "ite",
        -10.217465880338697
      ],
      [
        "mhuirear",
        -10.217816351483975
      ],
      [
        "Big",
        -10.218228962530333
      ],
      [
        "Tarraing",
        -10.220522295469186
      ],
      [
        "Mom",
        -10.22074858150796
      ],
      [
        "Gharda",
        -10.220772089650604
      ],
      [
        "ceacht",
        -10.221830070943517
      ],
      [
        "Stair",
        -10.221971782413572
      ],
      [
        "carr",
        -10.222432071927607
      ],
      [
        "rialtais",
        -10.22417566808364
      ],
      [
        "chomhshao",
        -10.225559615842519
      ],
      [
        "feist",
        -10.225645641187372
      ],
      [
        "lann",
        -10.226248952019779
      ],
      [
        "teagmhála",
        -10.227262408701993
      ],
      [
        "ualach",
        -10.228161423440085
      ],
      [
        "thionscna",
        -10.228195691755209
      ],
      [
        "Íoslódáil",
        -10.22851277258092
      ],
      [
        "Conrad",
        -10.228724988500083
      ],
      [
        "pháirt",
        -10.229978662314032
      ],
      [
        "all",
        -10.230727519414499
      ],
      [
        "tábhacht",
        -10.231235590784543
      ],
      [
        "#",
        -10.23241005776265
      ],
      [
        "Ombudsman",
        -10.232410057763243
      ],
      [
        "Iompai",
        -10.232410133561764
      ],
      [
        "póca",
        -10.232429910470698
      ],
      [
        "iarbhír",
        -10.23248347243797
      ],
      [
        "Coimirce",
        -10.233043869076088
      ],
      [
        "leasanna",
        -10.23373842178503
      ],
      [
        "cultúr",
        -10.233745293357252
      ],
      [
        "links",
        -10.234779064636971
      ],
      [
        "pinsin",
        -10.235452847405625
      ],
      [
        "ceist",
        -10.235981989672666
      ],
      [
        "fórsa",
        -10.236001209166062
      ],
      [
        "mhúinteoir",
        -10.236403759714495
      ],
      [
        "dearfach",
        -10.236673406648126
      ],
      [
        "Euro",
        -10.239487249196266
      ],
      [
        "42",
        -10.240114823973654
      ],
      [
        "saoráid",
        -10.240404600513564
      ],
      [
        "Breataine",
        -10.241162167306953
      ],
      [
        "aistil",
        -10.2416676403213
      ],
      [
        "contae",
        -10.241892032883058
      ],
      [
        "Domhand",
        -10.242768069383732
      ],
      [
        "díolacháin",
        -10.242873472734109
      ],
      [
        "Ghníomhaireacht",
        -10.244222452454085
      ],
      [
        "tube",
        -10.245284478203374
      ],
      [
        "Post",
        -10.24633060236279
      ],
      [
        "bean",
        -10.24693479566796
      ],
      [
        "hiarratas",
        -10.247646705024893
      ],
      [
        "faighte",
        -10.247990534853745
      ],
      [
        "fostóir",
        -10.24810289736202
      ],
      [
        "scéime",
        -10.248125203683445
      ],
      [
        "tromchúiseach",
        -10.248224774035219
      ],
      [
        "Léigh",
        -10.24844407394007
      ],
      [
        "Mheán",
        -10.248883486908621
      ],
      [
        "mhaoiniú",
        -10.249036319251452
      ],
      [
        "uk",
        -10.2492647073324
      ],
      [
        "cúraim",
        -10.24987580121132
      ],
      [
        "mothú",
        -10.250525950876092
      ],
      [
        "diúlt",
        -10.250911086164594
      ],
      [
        "thiont",
        -10.250960986984936
      ],
      [
        "comhlíona",
        -10.25213555691608
      ],
      [
        "uiscedhíonach",
        -10.252330753928561
      ],
      [
        "deontas",
        -10.253371852580496
      ],
      [
        "tseachtain",
        -10.254365733304633
      ],
      [
        "seacht",
        -10.25522923170306
      ],
      [
        "Cumann",
        -10.255791466350145
      ],
      [
        "thóg",
        -10.256657658478805
      ],
      [
        "PH",
        -10.257287791110631
      ],
      [
        "Úsáidte",
        -10.257361334971836
      ],
      [
        "05",
        -10.257923418632302
      ],
      [
        "thuras",
        -10.258084380779604
      ],
      [
        "uaidh",
        -10.259047922040855
      ],
      [
        "crité",
        -10.259062850728416
      ],
      [
        "Cultúir",
        -10.259401626521056
      ],
      [
        "clasaiceach",
        -10.260189585494945
      ],
      [
        "loingseoireacht",
        -10.260198753370899
      ],
      [
        "athbhreithnithe",
        -10.260334966221219
      ],
      [
        "línte",
        -10.260341091935963
      ],
      [
        "39",
        -10.261179754477697
      ],
      [
        "Whats",
        -10.262144624114136
      ],
      [
        "Cineál",
        -10.262199784312019
      ],
      [
        "gcustaiméir",
        -10.263110100086188
      ],
      [
        "ghníomhaíocht",
        -10.263464801645124
      ],
      [
        "aimsire",
        -10.263467997326622
      ],
      [
        "athchóiriú",
        -10.26424748224704
      ],
      [
        "ghinearálta",
        -10.264253166996788
      ],
      [
        "bhunaithe",
        -10.264359861486959
      ],
      [
        "Dearg",
        -10.264521536615781
      ],
      [
        "aíodh",
        -10.265615987212861
      ],
      [
        "Dúi",
        -10.265639793755623
      ],
      [
        "MH",
        -10.265696673040647
      ],
      [
        "per",
        -10.26597046781026
      ],
      [
        "long",
        -10.266243082424612
      ],
      [
        "chairde",
        -10.266418845582137
      ],
      [
        "iarrachtaí",
        -10.267063653250165
      ],
      [
        "pháirtí",
        -10.267827366396201
      ],
      [
        "gcoitinn",
        -10.26827045174203
      ],
      [
        "bónas",
        -10.268639462039918
      ],
      [
        "coileach",
        -10.268879983584956
      ],
      [
        "snáithín",
        -10.26903470502409
      ],
      [
        "Poblacht",
        -10.270059330471856
      ],
      [
        "tSeirbhís",
        -10.271088203578078
      ],
      [
        "foclóir",
        -10.271397762735141
      ],
      [
        "cíos",
        -10.271850240100065
      ],
      [
        "fios",
        -10.272401880574556
      ],
      [
        "Lucht",
        -10.273346549473874
      ],
      [
        "Cuirte",
        -10.273792929183557
      ],
      [
        "cumarsáide",
        -10.273886820731644
      ],
      [
        "rannpháirt",
        -10.274124057936927
      ],
      [
        "Ainm",
        -10.274663544143106
      ],
      [
        "Cuideachta",
        -10.275772775633904
      ],
      [
        "teaghlach",
        -10.276481304348007
      ],
      [
        "thrí",
        -10.2766998481535
      ],
      [
        "phointe",
        -10.278221915469908
      ],
      [
        "dian",
        -10.278902965542787
      ],
      [
        "leithl",
        -10.279330108561007
      ],
      [
        "Fhrainc",
        -10.28051546503045
      ],
      [
        "Blonde",
        -10.280526096105632
      ],
      [
        "Seomra",
        -10.280531036484195
      ],
      [
        "Uair",
        -10.280691817138477
      ],
      [
        "sonracha",
        -10.280759562792518
      ],
      [
        "deontais",
        -10.281448414105263
      ],
      [
        "inneall",
        -10.281567418907999
      ],
      [
        "chuntas",
        -10.281659910358211
      ],
      [
        "acasamhail",
        -10.282383110464021
      ],
      [
        "ime",
        -10.283386560448301
      ],
      [
        "dhiúlt",
        -10.2835221222943
      ],
      [
        "cábla",
        -10.284632057731638
      ],
      [
        "Football",
        -10.284638946452937
      ],
      [
        "béil",
        -10.284725813584444
      ],
      [
        "monatóireacht",
        -10.285050331233613
      ],
      [
        "rolla",
        -10.287693310509571
      ],
      [
        "04",
        -10.287801763528066
      ],
      [
        "American",
        -10.288245581616474
      ],
      [
        "chomhlán",
        -10.288347412882924
      ],
      [
        "Brunette",
        -10.28876302619922
      ],
      [
        "fóill",
        -10.288833867570538
      ],
      [
        "réigiú",
        -10.2900117357396
      ],
      [
        "tógála",
        -10.290239569833107
      ],
      [
        "aeir",
        -10.290737566904127
      ],
      [
        "75",
        -10.291593883336224
      ],
      [
        "rachaid",
        -10.291786769344498
      ],
      [
        "IT",
        -10.292564549671313
      ],
      [
        "Gníomhaíochta",
        -10.292583478419282
      ],
      [
        "Duine",
        -10.292928265899004
      ],
      [
        "watch",
        -10.293692182399026
      ],
      [
        "Beo",
        -10.293824450756343
      ],
      [
        "taisce",
        -10.29383027585067
      ],
      [
        "Star",
        -10.293928654211452
      ],
      [
        "Fo",
        -10.294075252666572
      ],
      [
        "Dáta",
        -10.294631705900915
      ],
      [
        "thiar",
        -10.295453255057225
      ],
      [
        "dleathach",
        -10.29660790082582
      ],
      [
        "thuismitheoir",
        -10.29707896252079
      ],
      [
        "saille",
        -10.297088089723896
      ],
      [
        "Pleanála",
        -10.297162608725014
      ],
      [
        "Caithfi",
        -10.297523431287317
      ],
      [
        "dheara",
        -10.29784799849802
      ],
      [
        "fhad",
        -10.29808821599416
      ],
      [
        "bhall",
        -10.298462325622529
      ],
      [
        "shárú",
        -10.298650368745173
      ],
      [
        "creidmheasa",
        -10.299137229244938
      ],
      [
        "47",
        -10.29929053056975
      ],
      [
        "1999",
        -10.299306637562214
      ],
      [
        "IV",
        -10.300067146950123
      ],
      [
        "Áirítea",
        -10.300220848454394
      ],
      [
        "ko",
        -10.30106771994814
      ],
      [
        "Ath",
        -10.301229507846317
      ],
      [
        "Rialacha",
        -10.3013571461329
      ],
      [
        "gnótha",
        -10.301367417195987
      ],
      [
        "titim",
        -10.301382384842743
      ],
      [
        "cheadúna",
        -10.301710801236979
      ],
      [
        "tógá",
        -10.303630398057438
      ],
      [
        "ghlana",
        -10.30605878087438
      ],
      [
        "gairte",
        -10.307302397218614
      ],
      [
        "aill",
        -10.307474028532301
      ],
      [
        "mhola",
        -10.308829665233873
      ],
      [
        "79",
        -10.310607422137629
      ],
      [
        "íomhá",
        -10.311604759037579
      ],
      [
        "roinn",
        -10.31204233651851
      ],
      [
        "gcomhlíona",
        -10.31295989727054
      ],
      [
        "éadrom",
        -10.313526219953612
      ],
      [
        "02",
        -10.313570101336655
      ],
      [
        "romhainn",
        -10.314007147928898
      ],
      [
        "chailín",
        -10.314082011218249
      ],
      [
        "Mhaigh",
        -10.314558635880735
      ],
      [
        "comhad",
        -10.314584868720335
      ],
      [
        "eachtúil",
        -10.317975193574446
      ],
      [
        "Tithíocht",
        -10.318180020560378
      ],
      [
        "ríthábhachtach",
        -10.318358557517131
      ],
      [
        "tionscnaimh",
        -10.31866071939042
      ],
      [
        "Bunreacht",
        -10.31877119377734
      ],
      [
        "chuí",
        -10.318963101534461
      ],
      [
        "íocfa",
        -10.319843521763891
      ],
      [
        "substaint",
        -10.319921319091193
      ],
      [
        "thír",
        -10.32016293838025
      ],
      [
        "dheimhniú",
        -10.320703170268885
      ],
      [
        "fheithic",
        -10.32097869103539
      ],
      [
        "rangann",
        -10.32138134603144
      ],
      [
        "fuar",
        -10.321993141543214
      ],
      [
        "cheapad",
        -10.321996578719846
      ],
      [
        "ultúir",
        -10.32207560075749
      ],
      [
        "háinig",
        -10.322114169791934
      ],
      [
        "foirgn",
        -10.322204037900608
      ],
      [
        "Ceann",
        -10.322386984983359
      ],
      [
        "Comhaont",
        -10.323187255451641
      ],
      [
        "feithicle",
        -10.323438561716292
      ],
      [
        "suime",
        -10.323635236400696
      ],
      [
        "tábhachta",
        -10.324312519890572
      ],
      [
        "Eacnamaíoch",
        -10.326400518973049
      ],
      [
        "We",
        -10.326462141928754
      ],
      [
        "Tuaisceart",
        -10.32675255873692
      ],
      [
        "threoir",
        -10.326756963559397
      ],
      [
        "Super",
        -10.326764001701303
      ],
      [
        "caighdeánach",
        -10.326988293340152
      ],
      [
        "bhraitheann",
        -10.327009170706743
      ],
      [
        "ment",
        -10.327177802554672
      ],
      [
        "chánach",
        -10.327530995443851
      ],
      [
        "u7",
        -10.327939316962594
      ],
      [
        "ceapad",
        -10.328559724285494
      ],
      [
        "tabharfa",
        -10.329003735643
      ],
      [
        "bhliantúil",
        -10.330526895716737
      ],
      [
        "Rátáil",
        -10.331052833853779
      ],
      [
        "táirgthe",
        -10.332817459800669
      ],
      [
        "fiche",
        -10.332895882059159
      ],
      [
        "ách",
        -10.332966510731158
      ],
      [
        "Cosant",
        -10.333676944338816
      ],
      [
        "fhógair",
        -10.335595888815316
      ],
      [
        "76",
        -10.335616641798822
      ],
      [
        "Cód",
        -10.335828127072645
      ],
      [
        "theanga",
        -10.335900729536679
      ],
      [
        "chaomhn",
        -10.337051493266635
      ],
      [
        "comhpháirt",
        -10.337381637407537
      ],
      [
        "Watch",
        -10.339752817183069
      ],
      [
        "easpa",
        -10.340368855190722
      ],
      [
        "áisiúi",
        -10.341273338396395
      ],
      [
        "193",
        -10.341372103139324
      ],
      [
        "vótála",
        -10.341853116995036
      ],
      [
        "ealach",
        -10.342100139855429
      ],
      [
        "cónaithe",
        -10.343527004335325
      ],
      [
        "Leabharlann",
        -10.344189806001324
      ],
      [
        "nasta",
        -10.344270323146212
      ],
      [
        "mais",
        -10.344296671962214
      ],
      [
        "Óig",
        -10.34482720820899
      ],
      [
        "FC",
        -10.345383651735645
      ],
      [
        "rialtas",
        -10.345534521230626
      ],
      [
        "imistéir",
        -10.34567116146574
      ],
      [
        "Aisc",
        -10.347631617914047
      ],
      [
        "Bun",
        -10.347752912982378
      ],
      [
        "chuspóir",
        -10.348375451886351
      ],
      [
        "bhosca",
        -10.348487464246627
      ],
      [
        "treoirlínte",
        -10.34858161753819
      ],
      [
        "lascain",
        -10.348806522519919
      ],
      [
        "chruinn",
        -10.349653173466798
      ],
      [
        "iontaobha",
        -10.349920806509555
      ],
      [
        "réalta",
        -10.351542896536397
      ],
      [
        "laíonn",
        -10.351882119385472
      ],
      [
        "asbhaint",
        -10.352227729607742
      ],
      [
        "conartha",
        -10.352698619217055
      ],
      [
        "experience",
        -10.352887348692054
      ],
      [
        "Amateurs",
        -10.352887351513008
      ],
      [
        "tábla",
        -10.353090987536511
      ],
      [
        "Ceannai",
        -10.353416500981455
      ],
      [
        "dualgais",
        -10.353940843995183
      ],
      [
        "rannpháirteach",
        -10.354538041557465
      ],
      [
        "tsraith",
        -10.35482122746293
      ],
      [
        "Réalta",
        -10.35739158485511
      ],
      [
        "tugta",
        -10.357410946591614
      ],
      [
        "incháilithe",
        -10.357957833964413
      ],
      [
        "fhostóir",
        -10.358238272936973
      ],
      [
        "mhargai",
        -10.358265769486568
      ],
      [
        "Sóisiala",
        -10.358617131499802
      ],
      [
        "spins",
        -10.35896472475224
      ],
      [
        "píopa",
        -10.359420486973677
      ],
      [
        "rath",
        -10.359558415196734
      ],
      [
        "300",
        -10.360142485760207
      ],
      [
        "chinnf",
        -10.36130741761849
      ],
      [
        "ardchaighdeáin",
        -10.36186063279613
      ],
      [
        "corpra",
        -10.363151948272208
      ],
      [
        "iomláine",
        -10.363593661127384
      ],
      [
        "chruinniú",
        -10.365127096222167
      ],
      [
        "UK",
        -10.365333955181502
      ],
      [
        "nádúr",
        -10.365988806500123
      ],
      [
        "comhionann",
        -10.366133401796695
      ],
      [
        "Náisiún",
        -10.366332670923978
      ],
      [
        "háit",
        -10.366375417313645
      ],
      [
        "fostaí",
        -10.367551751866886
      ],
      [
        "chúrsaí",
        -10.367577525742115
      ],
      [
        "críochnaithe",
        -10.36797899981796
      ],
      [
        "mbainfid",
        -10.368445895526623
      ],
      [
        "póirt",
        -10.36875228569442
      ],
      [
        "chrutha",
        -10.369525021416692
      ],
      [
        "gcomhlacht",
        -10.370306752714987
      ],
      [
        "Rialú",
        -10.370599307959804
      ],
      [
        "inmhuirearaithe",
        -10.370709556392402
      ],
      [
        "Bosca",
        -10.370740748307874
      ],
      [
        "ceoil",
        -10.372367437210993
      ],
      [
        "gníomhaíocht",
        -10.37285976191156
      ],
      [
        "vóta",
        -10.374156387922039
      ],
      [
        "IP",
        -10.37445812130521
      ],
      [
        "fhoirgn",
        -10.374575587932867
      ],
      [
        "shiúl",
        -10.37477594187861
      ],
      [
        "World",
        -10.375207932260526
      ],
      [
        "Choinbhinsiú",
        -10.375209666944937
      ],
      [
        "Uathoibríoch",
        -10.375209667038028
      ],
      [
        "leasuithe",
        -10.375615246517551
      ],
      [
        "ghníomhach",
        -10.375830364475796
      ],
      [
        "chuma",
        -10.376824649596626
      ],
      [
        "insean",
        -10.377774656524178
      ],
      [
        "cháilíocht",
        -10.378618926345926
      ],
      [
        "Iarratais",
        -10.379901605383594
      ],
      [
        "ortha",
        -10.381868584804627
      ],
      [
        "Teaghla",
        -10.381989336490538
      ],
      [
        "1998",
        -10.382156348131673
      ],
      [
        "dhéanf",
        -10.383353803220853
      ],
      [
        "ry",
        -10.38403851852464
      ],
      [
        "pláta",
        -10.384288333226078
      ],
      [
        "Treorach",
        -10.38443428525257
      ],
      [
        "ainmneach",
        -10.384544946942423
      ],
      [
        "ríomhphost",
        -10.384573350824965
      ],
      [
        "tabharfaid",
        -10.384867772284059
      ],
      [
        "tosaíochta",
        -10.385733316040408
      ],
      [
        "cathaoirleach",
        -10.38641178127958
      ],
      [
        "fhomhír",
        -10.38650046536154
      ],
      [
        "u13",
        -10.386748477261566
      ],
      [
        "Ghearmáin",
        -10.386806972102168
      ],
      [
        "400",
        -10.386842981380667
      ],
      [
        "ul",
        -10.387365395251512
      ],
      [
        "57",
        -10.387432842696327
      ],
      [
        "heagraíochta",
        -10.38766876518839
      ],
      [
        "príomha",
        -10.388837711667446
      ],
      [
        "cuimsitheach",
        -10.389380612477272
      ],
      [
        "gcuirfí",
        -10.389453642954695
      ],
      [
        "gcumas",
        -10.390169930828911
      ],
      [
        "bhfaighid",
        -10.390533326728043
      ],
      [
        "q",
        -10.390753489137557
      ],
      [
        "mban",
        -10.391647729812602
      ],
      [
        "MB",
        -10.392755533655304
      ],
      [
        "pá",
        -10.393191017148673
      ],
      [
        "vitimín",
        -10.39343383249302
      ],
      [
        "maoirseacht",
        -10.393435879106764
      ],
      [
        "bhfoireann",
        -10.39399124718793
      ],
      [
        "Chorca",
        -10.395033930803493
      ],
      [
        "gCuideachta",
        -10.396025032519077
      ],
      [
        "chead",
        -10.397791079568432
      ],
      [
        "2002",
        -10.3978848673528
      ],
      [
        "u18",
        -10.397991954239853
      ],
      [
        "Ginearál",
        -10.398051703093827
      ],
      [
        "leordhóthanach",
        -10.398128728596934
      ],
      [
        "línse",
        -10.398458715032309
      ],
      [
        "cúise",
        -10.399961584694417
      ],
      [
        "deonach",
        -10.400181216249436
      ],
      [
        "All",
        -10.400909053523723
      ],
      [
        "spéis",
        -10.401549700095202
      ],
      [
        "ráitis",
        -10.401659036323249
      ],
      [
        "ire",
        -10.401689385643499
      ],
      [
        "op",
        -10.402713068950195
      ],
      [
        "tor",
        -10.403463940072783
      ],
      [
        "thalamh",
        -10.403781161252525
      ],
      [
        "zel",
        -10.404099923043908
      ],
      [
        "breith",
        -10.404688220085664
      ],
      [
        "198",
        -10.406023655380507
      ],
      [
        "shonró",
        -10.40636928638093
      ],
      [
        "fhaightea",
        -10.407124425953121
      ],
      [
        "Éisteachta",
        -10.408007569534364
      ],
      [
        "sain",
        -10.408185869142976
      ],
      [
        "feistí",
        -10.408508319636942
      ],
      [
        "héifeachtach",
        -10.408762645143934
      ],
      [
        "scaipea",
        -10.4089602314638
      ],
      [
        "Ailt",
        -10.408984562782628
      ],
      [
        "earnálach",
        -10.409866907565354
      ],
      [
        "geal",
        -10.410166259740855
      ],
      [
        "ov",
        -10.413860355112787
      ],
      [
        "árachai",
        -10.413888481453514
      ],
      [
        "leasaítear",
        -10.413916321818746
      ],
      [
        "Coinbhinsiú",
        -10.414437728176019
      ],
      [
        "agartha",
        -10.415797596946305
      ],
      [
        "Ciallaíonn",
        -10.416144925610517
      ],
      [
        "City",
        -10.416550448873812
      ],
      [
        "Cíocha",
        -10.416827284332534
      ],
      [
        "greannmhar",
        -10.416900465241174
      ],
      [
        "oiriún",
        -10.41692868866116
      ],
      [
        "thabharfa",
        -10.417211270538612
      ],
      [
        "míleata",
        -10.417966008122677
      ],
      [
        "line",
        -10.419056306237614
      ],
      [
        "Ball",
        -10.419690840098724
      ],
      [
        "fheidhmeanna",
        -10.419736122698723
      ],
      [
        "bheag",
        -10.420097756906975
      ],
      [
        "tarraing",
        -10.420230792452458
      ],
      [
        "éinn",
        -10.421064105426606
      ],
      [
        "oidhreacht",
        -10.421106563293275
      ],
      [
        "galánta",
        -10.42140784506617
      ],
      [
        "alúmana",
        -10.421408525382265
      ],
      [
        "WHO",
        -10.42148386161874
      ],
      [
        "eitilt",
        -10.421487586449722
      ],
      [
        "ullmha",
        -10.421544561335384
      ],
      [
        "amhras",
        -10.422023932762393
      ],
      [
        "chuntasaíocht",
        -10.42214158827733
      ],
      [
        "stáil",
        -10.422273681683222
      ],
      [
        "áracha",
        -10.422290093999202
      ],
      [
        "cistí",
        -10.422334121026148
      ],
      [
        "41",
        -10.422613187674688
      ],
      [
        "Cumarsáide",
        -10.422887105608131
      ],
      [
        "land",
        -10.423904622387187
      ],
      [
        "ochar",
        -10.425256599648755
      ],
      [
        "dlúth",
        -10.425705033792264
      ],
      [
        "Cuimsi",
        -10.425992155376326
      ],
      [
        "brabúi",
        -10.426146967008048
      ],
      [
        "sloinne",
        -10.426280347261264
      ],
      [
        "Dhá",
        -10.426342824423738
      ],
      [
        "gcéanna",
        -10.428421955693853
      ],
      [
        "Liúnta",
        -10.429219516534738
      ],
      [
        "foirmiú",
        -10.429380368320745
      ],
      [
        "ation",
        -10.429791906430943
      ],
      [
        "cóireáil",
        -10.430150411144101
      ],
      [
        "gcríoch",
        -10.43079380180276
      ],
      [
        "athnuachan",
        -10.430910735133626
      ],
      [
        "xxx",
        -10.43133703111679
      ],
      [
        "áilleacht",
        -10.431425685653785
      ],
      [
        "bac",
        -10.431534674460899
      ],
      [
        "99",
        -10.4320056846815
      ],
      [
        "tuairisceá",
        -10.432570824497517
      ],
      [
        "comhar",
        -10.433416874887799
      ],
      [
        "cheada",
        -10.433618046294733
      ],
      [
        "Gearmáinis",
        -10.43418897330622
      ],
      [
        "ríomhaireachta",
        -10.434542769450031
      ],
      [
        "seachada",
        -10.434701731187246
      ],
      [
        "thábhachtach",
        -10.435065523918668
      ],
      [
        "43",
        -10.435613723373688
      ],
      [
        "pas",
        -10.435732734521205
      ],
      [
        "thástáil",
        -10.435919982681371
      ],
      [
        "híocaíochta",
        -10.437389885088649
      ],
      [
        "punt",
        -10.437584735236433
      ],
      [
        "97",
        -10.439645606785085
      ],
      [
        "bhfor",
        -10.440536920620827
      ],
      [
        "Charm",
        -10.441952274558531
      ],
      [
        "dualga",
        -10.442295361960444
      ],
      [
        "saincheiste",
        -10.442908416891353
      ],
      [
        "ordó",
        -10.442995139547637
      ],
      [
        "Luain",
        -10.443045653676375
      ],
      [
        "Feidhm",
        -10.443245423543221
      ],
      [
        "foirmeach",
        -10.443462641676131
      ],
      [
        "comhairliúchá",
        -10.443589408692722
      ],
      [
        "chóireáil",
        -10.443640824929503
      ],
      [
        "teas",
        -10.443710541648512
      ],
      [
        "ling",
        -10.44423112483868
      ],
      [
        "Tír",
        -10.44470109102845
      ],
      [
        "éifeachtúlacht",
        -10.444819293129708
      ],
      [
        "ke",
        -10.4449761314078
      ],
      [
        "dochtúir",
        -10.445287598578357
      ],
      [
        "inne",
        -10.445428353666017
      ],
      [
        "lúdach",
        -10.445438152931228
      ],
      [
        "Bréagá",
        -10.445870258444717
      ],
      [
        "Cosaint",
        -10.44608410313522
      ],
      [
        "liathróid",
        -10.44691306365262
      ],
      [
        "cruthaithe",
        -10.448040517442887
      ],
      [
        "aked",
        -10.448074855571267
      ],
      [
        "Aonad",
        -10.448413483397895
      ],
      [
        "múnla",
        -10.449211669942525
      ],
      [
        "moladh",
        -10.449266419062264
      ],
      [
        "dlíthiú",
        -10.449970509794074
      ],
      [
        "Chomhphoba",
        -10.450397199770851
      ],
      [
        "úinéireacht",
        -10.451153504283269
      ],
      [
        "ve",
        -10.451519139132182
      ],
      [
        "saorána",
        -10.452825296524681
      ],
      [
        "mhná",
        -10.4528962500877
      ],
      [
        "95",
        -10.453487738972743
      ],
      [
        "tasc",
        -10.453500069242018
      ],
      [
        "háite",
        -10.454163500156934
      ],
      [
        "carachta",
        -10.454228049476699
      ],
      [
        "Dath",
        -10.454350470011807
      ],
      [
        "Edit",
        -10.454783479600255
      ],
      [
        "ospidé",
        -10.455064134976556
      ],
      [
        "spriocann",
        -10.455378386770334
      ],
      [
        "Ob",
        -10.455472085824532
      ],
      [
        "Chlár",
        -10.455861160793471
      ],
      [
        "beirt",
        -10.455886836156777
      ],
      [
        "Dúrad",
        -10.45592409203583
      ],
      [
        "mheasúnachta",
        -10.455953987274565
      ],
      [
        "sruth",
        -10.456233245784745
      ],
      [
        "blas",
        -10.45703081840831
      ],
      [
        "féachan",
        -10.45708369173991
      ],
      [
        "bhaill",
        -10.457742772898332
      ],
      [
        "omhdháil",
        -10.458400341592286
      ],
      [
        "ibhir",
        -10.459063738470007
      ],
      [
        "olex",
        -10.459397348319316
      ],
      [
        "bháis",
        -10.459677903051116
      ],
      [
        "Soch",
        -10.459696876434284
      ],
      [
        "choinne",
        -10.460222414055224
      ],
      [
        "cúramach",
        -10.460456889315806
      ],
      [
        "gala",
        -10.460908244397935
      ],
      [
        "Chill",
        -10.461264998927618
      ],
      [
        "more",
        -10.461453544980102
      ],
      [
        "buala",
        -10.462824238020318
      ],
      [
        "nuashonrú",
        -10.463596614731951
      ],
      [
        "astu",
        -10.464043869171746
      ],
      [
        "Gluaiseacht",
        -10.46490108178551
      ],
      [
        "dhlí",
        -10.465039071175205
      ],
      [
        "foilsío",
        -10.465152044909875
      ],
      [
        "aite",
        -10.46581801498361
      ],
      [
        "ionsaí",
        -10.465939873332829
      ],
      [
        "druga",
        -10.466738558081126
      ],
      [
        "polasa",
        -10.467752389289714
      ],
      [
        "ACHT",
        -10.468110911676884
      ],
      [
        "tarraingt",
        -10.469843539380257
      ],
      [
        "stylish",
        -10.469850759900176
      ],
      [
        "siúcra",
        -10.469855278673194
      ],
      [
        "Grianchlo",
        -10.46987910505079
      ],
      [
        "déantúsaíocht",
        -10.469986161908988
      ],
      [
        "dhiailiú",
        -10.471678632356124
      ],
      [
        "shealbhú",
        -10.471908297126209
      ],
      [
        "buiséad",
        -10.472860576825529
      ],
      [
        "Athbhreithni",
        -10.472954807484179
      ],
      [
        "Lio",
        -10.473179833306341
      ],
      [
        "erotic",
        -10.474827531880173
      ],
      [
        "smacht",
        -10.475145308188733
      ],
      [
        "scoir",
        -10.475312857040198
      ],
      [
        "Cearta",
        -10.475338770888232
      ],
      [
        "mhalartú",
        -10.476534157513619
      ],
      [
        "bréagá",
        -10.476957807780602
      ],
      [
        "cumarsáid",
        -10.47791206316767
      ],
      [
        "ill",
        -10.479643220082174
      ],
      [
        "Fhorbairt",
        -10.479817853019522
      ],
      [
        "Uaireadóirí",
        -10.479818520179203
      ],
      [
        "dhliteana",
        -10.47982580812064
      ],
      [
        "éigeandála",
        -10.47985905616504
      ],
      [
        "íos",
        -10.48101629736701
      ],
      [
        "org",
        -10.481187346773154
      ],
      [
        "feidhmíochta",
        -10.481560849765778
      ],
      [
        "príobháideach",
        -10.482285536184595
      ],
      [
        "Sheirbhís",
        -10.482300961840242
      ],
      [
        "baineann",
        -10.482935777952967
      ],
      [
        "SPC",
        -10.483007788988914
      ],
      [
        "Iodáil",
        -10.483124080407425
      ],
      [
        "aimsir",
        -10.48339184846365
      ],
      [
        "meicniúil",
        -10.48398975221924
      ],
      [
        "cruthaío",
        -10.484231435484356
      ],
      [
        "eolaíocht",
        -10.485237144551878
      ],
      [
        "díospóireacht",
        -10.486164487489813
      ],
      [
        "breithiúna",
        -10.48627558789768
      ],
      [
        "69",
        -10.486544666423601
      ],
      [
        "faoisea",
        -10.486705697735683
      ],
      [
        "Eolaíochta",
        -10.487391754169153
      ],
      [
        "tréimhs",
        -10.48754010222752
      ],
      [
        "Sin",
        -10.487725055386738
      ],
      [
        "ceadúnais",
        -10.487837259852448
      ],
      [
        "ghnéas",
        -10.488162104685188
      ],
      [
        "nuálaíocht",
        -10.488622514670457
      ],
      [
        "Bunaío",
        -10.489497221908294
      ],
      [
        "Bán",
        -10.489750982301086
      ],
      [
        "bpost",
        -10.489804656964878
      ],
      [
        "racha",
        -10.489973467449925
      ],
      [
        "choigeartú",
        -10.490354161858237
      ],
      [
        "réim",
        -10.490598560829202
      ],
      [
        "teagai",
        -10.491737795630112
      ],
      [
        "Comhionanna",
        -10.493086438907476
      ],
      [
        "India",
        -10.493656284140624
      ],
      [
        "úla",
        -10.494368926807976
      ],
      [
        "aigéad",
        -10.496368101598136
      ],
      [
        "56",
        -10.496661893936938
      ],
      [
        "Slándá",
        -10.498915366327129
      ],
      [
        "bhéal",
        -10.499478500794378
      ],
      [
        "52",
        -10.49971005721579
      ],
      [
        "achta",
        -10.499950123993004
      ],
      [
        "Uachtaránacht",
        -10.499979870325117
      ],
      [
        "Raidi",
        -10.500073256240357
      ],
      [
        "gcomhthéacs",
        -10.50090206673405
      ],
      [
        "daonna",
        -10.50095341574727
      ],
      [
        "ranga",
        -10.501573382072582
      ],
      [
        "asadh",
        -10.501997823238874
      ],
      [
        "Tabharfai",
        -10.502376048799116
      ],
      [
        "mhíchumas",
        -10.502387918973579
      ],
      [
        "creat",
        -10.502518233074696
      ],
      [
        "chríochnú",
        -10.503176803039095
      ],
      [
        "Oifigeach",
        -10.50343064941487
      ],
      [
        "Oileán",
        -10.504471995887982
      ],
      [
        "bóithr",
        -10.505204521964698
      ],
      [
        "dhaingniú",
        -10.505215394534439
      ],
      [
        "dhiúscairt",
        -10.505534877241514
      ],
      [
        "othar",
        -10.506427204859474
      ],
      [
        "oghcháin",
        -10.506508798881313
      ],
      [
        "billiú",
        -10.506640261541115
      ],
      [
        "Teagmhá",
        -10.508179319329626
      ],
      [
        "lógó",
        -10.510363664205885
      ],
      [
        "cialluíonn",
        -10.510608864498893
      ],
      [
        "teilifíse",
        -10.511289971340428
      ],
      [
        "fhás",
        -10.511408310143185
      ],
      [
        "chuarda",
        -10.512993444379141
      ],
      [
        "eolaíochta",
        -10.513868568207297
      ],
      [
        "Faisnéis",
        -10.514191804984188
      ],
      [
        "66",
        -10.515312415349264
      ],
      [
        "taisí",
        -10.515700723415488
      ],
      [
        "iarnró",
        -10.51580615972405
      ],
      [
        "skin",
        -10.516003052936684
      ],
      [
        "49",
        -10.516019296206496
      ],
      [
        "Méid",
        -10.516877050162684
      ],
      [
        "trá",
        -10.516999838916501
      ],
      [
        "Taith",
        -10.517214793948778
      ],
      [
        "hArd",
        -10.519806608243368
      ],
      [
        "cloch",
        -10.519832275167747
      ],
      [
        "seans",
        -10.52073394338769
      ],
      [
        "bunú",
        -10.521703578194913
      ],
      [
        "Strap",
        -10.522230787546587
      ],
      [
        "straitéiseach",
        -10.522368635469991
      ],
      [
        "cliste",
        -10.52282211828027
      ],
      [
        "cearn",
        -10.52388760257628
      ],
      [
        "ceangailte",
        -10.524079853133912
      ],
      [
        "stórála",
        -10.524697309110385
      ],
      [
        "chomhairle",
        -10.52484378592036
      ],
      [
        "comhpháirte",
        -10.524853588243548
      ],
      [
        "próis",
        -10.525841647745716
      ],
      [
        "gaolmhar",
        -10.526064152657046
      ],
      [
        "bhformáid",
        -10.52624759235702
      ],
      [
        "PE",
        -10.526709213436902
      ],
      [
        "CBL",
        -10.527072655968393
      ],
      [
        "Áitiú",
        -10.527103560485685
      ],
      [
        "Thug",
        -10.527461063749978
      ],
      [
        "77",
        -10.528084586300233
      ],
      [
        "comhshao",
        -10.528679151522184
      ],
      [
        "áthas",
        -10.528679729623171
      ],
      [
        "Teicneolaíochta",
        -10.528867004209022
      ],
      [
        "bainc",
        -10.529028745654102
      ],
      [
        "luí",
        -10.52927763124105
      ],
      [
        "dtír",
        -10.530719350119773
      ],
      [
        "Bhean",
        -10.531133799560253
      ],
      [
        "European",
        -10.531239106903602
      ],
      [
        "Airgi",
        -10.53127012755424
      ],
      [
        "bhfolach",
        -10.531304867196749
      ],
      [
        "Stíl",
        -10.531502302703334
      ],
      [
        "bu",
        -10.532152437756443
      ],
      [
        "fhostaíocht",
        -10.532268556586793
      ],
      [
        "Rang",
        -10.532413588571195
      ],
      [
        "hainmneach",
        -10.534151233782058
      ],
      [
        "íosta",
        -10.534970056609367
      ],
      [
        "Meiriceá",
        -10.535010774629512
      ],
      [
        "iontair",
        -10.535364933184095
      ],
      [
        "gréin",
        -10.535830659030252
      ],
      [
        "Threoir",
        -10.536537695120076
      ],
      [
        "Tiocfai",
        -10.536685184320751
      ],
      [
        "mheasúnú",
        -10.537206574908787
      ],
      [
        "bhord",
        -10.537389173308775
      ],
      [
        "tionsclaíoch",
        -10.538068891999604
      ],
      [
        "Neamh",
        -10.538865032416952
      ],
      [
        "Eile",
        -10.539177195140176
      ],
      [
        "mhonar",
        -10.539231983528206
      ],
      [
        "IR",
        -10.539242414541864
      ],
      [
        "choinníollach",
        -10.539438365674474
      ],
      [
        "Preasráit",
        -10.539774472330683
      ],
      [
        "srianta",
        -10.540096339467034
      ],
      [
        "comhartha",
        -10.54032537377595
      ],
      [
        "u22",
        -10.541219633439432
      ],
      [
        "saoil",
        -10.541598777887579
      ],
      [
        "imthosca",
        -10.541873099274149
      ],
      [
        "Athrú",
        -10.541958813297626
      ],
      [
        "lactha",
        -10.542185095846392
      ],
      [
        "Tacaíocht",
        -10.542277115756885
      ],
      [
        "mháthair",
        -10.542386712551062
      ],
      [
        "con",
        -10.542752853830322
      ],
      [
        "Ós",
        -10.543026842013656
      ],
      [
        "scáth",
        -10.543682735625339
      ],
      [
        "foláir",
        -10.543737854313896
      ],
      [
        "doras",
        -10.544765582227356
      ],
      [
        "Phoba",
        -10.545225937509016
      ],
      [
        "margai",
        -10.54577978115626
      ],
      [
        "Fheidhmiú",
        -10.546258533072272
      ],
      [
        "inniúla",
        -10.546321650550057
      ],
      [
        "faisean",
        -10.54661579574238
      ],
      [
        "vótáil",
        -10.547495030639357
      ],
      [
        "88",
        -10.548172209991803
      ],
      [
        "resistan",
        -10.548721157399294
      ],
      [
        "riocht",
        -10.549239332513132
      ],
      [
        "Seice",
        -10.550932836209928
      ],
      [
        "Tras",
        -10.55118720844344
      ],
      [
        "poll",
        -10.551315270381258
      ],
      [
        "150",
        -10.551337399604726
      ],
      [
        "gcruinni",
        -10.55158857421494
      ],
      [
        "thiomáint",
        -10.551712091492934
      ],
      [
        "u19",
        -10.55185492717333
      ],
      [
        "ugg",
        -10.551980624026701
      ],
      [
        "ceannair",
        -10.552403466277367
      ],
      [
        "sláintiú",
        -10.55257871720666
      ],
      [
        "bhrabhsála",
        -10.55270243150013
      ],
      [
        "hEORPA",
        -10.552764385264659
      ],
      [
        "nasctha",
        -10.552891026280712
      ],
      [
        "up",
        -10.553318209445685
      ],
      [
        "ka",
        -10.553462914177697
      ],
      [
        "hárta",
        -10.553946811503879
      ],
      [
        "soicind",
        -10.55463810182388
      ],
      [
        "uainn",
        -10.554851146788824
      ],
      [
        "thiocfaid",
        -10.55639872209726
      ],
      [
        "inneal",
        -10.557049517865606
      ],
      [
        "chónaí",
        -10.557059174430481
      ],
      [
        "ghné",
        -10.557254106526354
      ],
      [
        "AGU",
        -10.557829256182329
      ],
      [
        "Próifíl",
        -10.557982418182469
      ],
      [
        "ghréasáin",
        -10.557982418580961
      ],
      [
        "Christian",
        -10.558065139695696
      ],
      [
        "theaghla",
        -10.558597717222398
      ],
      [
        "Jacket",
        -10.558611206641798
      ],
      [
        "Taispeánta",
        -10.558855266550783
      ],
      [
        "réigiúnach",
        -10.558929713050881
      ],
      [
        "bain",
        -10.559048159461192
      ],
      [
        "ceangal",
        -10.559273735976406
      ],
      [
        "gcomhalta",
        -10.559364209757582
      ],
      [
        "ainmniúchá",
        -10.559519088073188
      ],
      [
        "sceideal",
        -10.56032811082964
      ],
      [
        "seolta",
        -10.561389329786614
      ],
      [
        "Mhic",
        -10.561408930000443
      ],
      [
        "Caith",
        -10.561745164163689
      ],
      [
        "astaíochta",
        -10.56220645074066
      ],
      [
        "eachtrach",
        -10.563276541655801
      ],
      [
        "chathai",
        -10.563290105397556
      ],
      [
        "muirir",
        -10.563485372209998
      ],
      [
        "gníomhaireachta",
        -10.563512251896594
      ],
      [
        "u11",
        -10.564510467225475
      ],
      [
        "tsráid",
        -10.56493433139574
      ],
      [
        "ionstraimí",
        -10.565110185141641
      ],
      [
        "próifíl",
        -10.566619770590428
      ],
      [
        "bhóthar",
        -10.567270513794762
      ],
      [
        "idirbheart",
        -10.567361184903344
      ],
      [
        "séala",
        -10.56757012729545
      ],
      [
        "ous",
        -10.56814881768011
      ],
      [
        "u20",
        -10.568558465797572
      ],
      [
        "caipiti",
        -10.568786571639887
      ],
      [
        "ARLAIMINT",
        -10.568881681673533
      ],
      [
        "Life",
        -10.568902675015806
      ],
      [
        "Soláthraío",
        -10.56917216548531
      ],
      [
        "áileadh",
        -10.569486783687548
      ],
      [
        "páirteanna",
        -10.56949036059324
      ],
      [
        "tarlú",
        -10.569673133328365
      ],
      [
        "ici",
        -10.5697019160948
      ],
      [
        "Éireannacha",
        -10.57039360669239
      ],
      [
        "gairm",
        -10.570646874283756
      ],
      [
        "tré",
        -10.570717634176408
      ],
      [
        "próiseáil",
        -10.570768104060422
      ],
      [
        "chathaoirleach",
        -10.570959378253338
      ],
      [
        "BBC",
        -10.57193404554796
      ],
      [
        "sreabha",
        -10.57201966068122
      ],
      [
        "ucking",
        -10.572548425842935
      ],
      [
        "híoc",
        -10.57259077620914
      ],
      [
        "pro",
        -10.5734116673834
      ],
      [
        "Acmhainn",
        -10.57404407310064
      ],
      [
        "Oiliúna",
        -10.574376216380703
      ],
      [
        "idirdhealú",
        -10.574392206882461
      ],
      [
        "oitianta",
        -10.57476580874165
      ],
      [
        "daingea",
        -10.575391951679684
      ],
      [
        "léasair",
        -10.575447967422742
      ],
      [
        "cos",
        -10.575689602146152
      ],
      [
        "shon",
        -10.575770662297874
      ],
      [
        "Cáin",
        -10.576791492679906
      ],
      [
        "54",
        -10.57737735905247
      ],
      [
        "mbaol",
        -10.578433134128689
      ],
      [
        "eol",
        -10.579209504109953
      ],
      [
        "faireachá",
        -10.579244045530242
      ],
      [
        "Chomhaont",
        -10.579263895312216
      ],
      [
        "marc",
        -10.580270974657807
      ],
      [
        "Teasta",
        -10.58032541626326
      ],
      [
        "CNC",
        -10.580370302883416
      ],
      [
        "scrúd",
        -10.580811091621376
      ],
      [
        "bhforbairt",
        -10.58156514321859
      ],
      [
        "Ro",
        -10.58182997289554
      ],
      [
        "tarchur",
        -10.582696814677865
      ],
      [
        "shonrú",
        -10.583234319670229
      ],
      [
        "ty",
        -10.583610311415818
      ],
      [
        "hoifig",
        -10.584340078852474
      ],
      [
        "suí",
        -10.584592505997026
      ],
      [
        "Múinteoir",
        -10.585052608240023
      ],
      [
        "Mens",
        -10.585100426737132
      ],
      [
        "malartach",
        -10.585657734490432
      ],
      [
        "gceannas",
        -10.586118801443925
      ],
      [
        "gearra",
        -10.587142949415181
      ],
      [
        "Eagraíocht",
        -10.587861424409265
      ],
      [
        "srian",
        -10.587933954438656
      ],
      [
        "ocal",
        -10.589651205408284
      ],
      [
        "mionsonra",
        -10.590602906366025
      ],
      [
        "Deir",
        -10.590886010770806
      ],
      [
        "tharchur",
        -10.590966095464204
      ],
      [
        "Masturbate",
        -10.59104319675578
      ],
      [
        "thomhas",
        -10.591043809554456
      ],
      [
        "Bracelet",
        -10.591049077306003
      ],
      [
        "laoch",
        -10.591075677351924
      ],
      [
        "cionta",
        -10.591304306822327
      ],
      [
        "saintréithe",
        -10.591782388420665
      ],
      [
        "céile",
        -10.59255248157411
      ],
      [
        "Fraincis",
        -10.593086310247145
      ],
      [
        "ghá",
        -10.594170330148607
      ],
      [
        "Spáinn",
        -10.594525754034962
      ],
      [
        "Press",
        -10.594589885596701
      ],
      [
        "bhreith",
        -10.595364230290105
      ],
      [
        "oibriúcháin",
        -10.595628052255321
      ],
      [
        "haois",
        -10.595661705061307
      ],
      [
        "ionadaíocht",
        -10.595775560223846
      ],
      [
        "Gearr",
        -10.595899076581528
      ],
      [
        "roghnaithe",
        -10.596249217103317
      ],
      [
        "ribh",
        -10.596278733648758
      ],
      [
        "iniúchta",
        -10.596684620421122
      ],
      [
        "www",
        -10.596695774474085
      ],
      [
        "dóiteá",
        -10.59938848813303
      ],
      [
        "Fógra",
        -10.599496815405665
      ],
      [
        "fhreagairt",
        -10.599840141946476
      ],
      [
        "oine",
        -10.600092177062375
      ],
      [
        "Líon",
        -10.601777889999955
      ],
      [
        "Oileá",
        -10.601955697857319
      ],
      [
        "sceimhlitheoir",
        -10.602310891798524
      ],
      [
        "ghearrthóg",
        -10.602336450968732
      ],
      [
        "ceimiceach",
        -10.602443271156915
      ],
      [
        "Allah",
        -10.602757638828631
      ],
      [
        "Anal",
        -10.602991152426622
      ],
      [
        "fíon",
        -10.603168174002988
      ],
      [
        "urscaoilea",
        -10.60378812357513
      ],
      [
        "aithne",
        -10.604024005686703
      ],
      [
        "Aonai",
        -10.604418996593427
      ],
      [
        "gadh",
        -10.604553248603455
      ],
      [
        "comharthaí",
        -10.604672938073275
      ],
      [
        "reachtach",
        -10.604724240583872
      ],
      [
        "Maith",
        -10.604951715017629
      ],
      [
        "over",
        -10.60510472569737
      ],
      [
        "Léin",
        -10.605289525653713
      ],
      [
        "ainne",
        -10.60546320574057
      ],
      [
        "físe",
        -10.605531423591442
      ],
      [
        "Times",
        -10.606635994699818
      ],
      [
        "Cumhacht",
        -10.60738966058748
      ],
      [
        "roinnte",
        -10.607525078691168
      ],
      [
        "fabraic",
        -10.6076531461864
      ],
      [
        "Tuirc",
        -10.60779647608896
      ],
      [
        "Bhliantúil",
        -10.60799457760843
      ],
      [
        "Turasóireacht",
        -10.607994599034114
      ],
      [
        "madra",
        -10.608090382858803
      ],
      [
        "Ceanada",
        -10.60822037833898
      ],
      [
        "criosta",
        -10.608884630973783
      ],
      [
        "oifigiúl",
        -10.609361241231383
      ],
      [
        "CEE",
        -10.609587877608114
      ],
      [
        "AR",
        -10.609862696495732
      ],
      [
        "cruinnea",
        -10.611045735050544
      ],
      [
        "dhul",
        -10.611760439035507
      ],
      [
        "Chúirte",
        -10.612576302003363
      ],
      [
        "fostaíocht",
        -10.613386800554014
      ],
      [
        "Poist",
        -10.613741865412692
      ],
      [
        "RTÉ",
        -10.613765000670064
      ],
      [
        "scór",
        -10.613821601168702
      ],
      [
        "uímh",
        -10.613998324578635
      ],
      [
        "fisiciú",
        -10.61551670032809
      ],
      [
        "Sráid",
        -10.616422063646532
      ],
      [
        "measta",
        -10.616502300831954
      ],
      [
        "oibrí",
        -10.61694999896623
      ],
      [
        "ógtha",
        -10.6170463098035
      ],
      [
        "thionscada",
        -10.617272042223632
      ],
      [
        "Uí",
        -10.617820244148092
      ],
      [
        "bláth",
        -10.618893672289289
      ],
      [
        "carbóin",
        -10.619425086554182
      ],
      [
        "Diamond",
        -10.619454344781392
      ],
      [
        "páipéir",
        -10.619463311355709
      ],
      [
        "rubair",
        -10.619550989721487
      ],
      [
        "bailí",
        -10.619591882486024
      ],
      [
        "Chuideachta",
        -10.619621979033697
      ],
      [
        "fuck",
        -10.620000294243395
      ],
      [
        "Áise",
        -10.620923929233403
      ],
      [
        "olctha",
        -10.62161233100221
      ],
      [
        "polaitiúil",
        -10.62188572657763
      ],
      [
        "olann",
        -10.621962652757636
      ],
      [
        "dúrad",
        -10.622610591960134
      ],
      [
        "shibhialta",
        -10.62261639568979
      ],
      [
        "Taisce",
        -10.623266458284503
      ],
      [
        "UN",
        -10.624790805646182
      ],
      [
        "Cáilíochta",
        -10.625023609603844
      ],
      [
        "●",
        -10.625234468949166
      ],
      [
        "fadtéarmach",
        -10.625343157790773
      ],
      [
        "oileán",
        -10.625517473390278
      ],
      [
        "fianái",
        -10.62594104841083
      ],
      [
        "asturbating",
        -10.626638999298123
      ],
      [
        "Féad",
        -10.627568880486038
      ],
      [
        "phinsin",
        -10.627645916501201
      ],
      [
        "urg",
        -10.627987129630679
      ],
      [
        "fhoca",
        -10.628056130638711
      ],
      [
        "téigh",
        -10.628895203682896
      ],
      [
        "aigheann",
        -10.629388611984295
      ],
      [
        "aiteachais",
        -10.629693188972926
      ],
      [
        "muinín",
        -10.630106011234469
      ],
      [
        "Feidhmiú",
        -10.630848426950738
      ],
      [
        "Foilsiú",
        -10.631048930093565
      ],
      [
        "Masturbation",
        -10.631056594938892
      ],
      [
        "uathu",
        -10.631220863010075
      ],
      [
        "rioscaí",
        -10.631263886886732
      ],
      [
        "airíonna",
        -10.631717341517973
      ],
      [
        "po",
        -10.63238863483227
      ],
      [
        "rialaitheoir",
        -10.632874117182517
      ],
      [
        "chonra",
        -10.632937826482653
      ],
      [
        "bainteach",
        -10.63323776657997
      ],
      [
        "Pro",
        -10.633740766928577
      ],
      [
        "díolúin",
        -10.633940716140236
      ],
      [
        "Council",
        -10.635338974064366
      ],
      [
        "saoránach",
        -10.63558658394864
      ],
      [
        "eagla",
        -10.635926727155304
      ],
      [
        "IL",
        -10.636331500707847
      ],
      [
        "bracelet",
        -10.636896429010918
      ],
      [
        "Choláist",
        -10.636898678014344
      ],
      [
        "Foundation",
        -10.637560243938914
      ],
      [
        "hinstitiúid",
        -10.638168643343143
      ],
      [
        "troid",
        -10.6385599506706
      ],
      [
        "aincheaptha",
        -10.638712304886708
      ],
      [
        "just",
        -10.639660989392198
      ],
      [
        "info",
        -10.640996883074141
      ],
      [
        "cothabháil",
        -10.641176812945542
      ],
      [
        "príobháideacha",
        -10.641312090356257
      ],
      [
        "pm",
        -10.641797202232247
      ],
      [
        "thagairt",
        -10.641894104316176
      ],
      [
        "sheirbheáil",
        -10.642778728703757
      ],
      [
        "Rannóg",
        -10.642791180627018
      ],
      [
        "Cúrsa",
        -10.64279147099792
      ],
      [
        "dúbailte",
        -10.64286337699616
      ],
      [
        "Críostaí",
        -10.643117903511726
      ],
      [
        "Blue",
        -10.643147089941891
      ],
      [
        "ghnótha",
        -10.643156113325816
      ],
      [
        "Foireann",
        -10.643919692504086
      ],
      [
        "foilsithe",
        -10.643962566123044
      ],
      [
        "toirt",
        -10.643986819463635
      ],
      [
        "gnólachta",
        -10.644249167030875
      ],
      [
        "Ghaeltacht",
        -10.644336410699083
      ],
      [
        "baol",
        -10.645338748891415
      ],
      [
        "Be",
        -10.645720215665845
      ],
      [
        "tic",
        -10.647538190920507
      ],
      [
        "96",
        -10.648617923765109
      ],
      [
        "chostais",
        -10.648857322477767
      ],
      [
        "Téigh",
        -10.649138298446768
      ],
      [
        "ranníocaíochta",
        -10.64937142505646
      ],
      [
        "achomhair",
        -10.65034657165334
      ],
      [
        "taispeánta",
        -10.650443730386952
      ],
      [
        "iomaíocht",
        -10.650527890749679
      ],
      [
        "caiteachais",
        -10.651989966098535
      ],
      [
        "maoinithe",
        -10.652089825895072
      ],
      [
        "Iartha",
        -10.652373359465761
      ],
      [
        "DO",
        -10.653212108053935
      ],
      [
        "Infheistíochta",
        -10.653953022285634
      ],
      [
        "oistí",
        -10.65403397491712
      ],
      [
        "fheidhmíocht",
        -10.654251162843126
      ],
      [
        "téama",
        -10.654279938924228
      ],
      [
        "creidiúna",
        -10.65443640293772
      ],
      [
        "Glas",
        -10.65445829274175
      ],
      [
        "Rúis",
        -10.654501325286045
      ],
      [
        "chiste",
        -10.654813074928189
      ],
      [
        "cáilitheach",
        -10.655520861234795
      ],
      [
        "bhainfid",
        -10.655566725811882
      ],
      [
        "glasra",
        -10.656039094440148
      ],
      [
        "bPríomh",
        -10.656442216900665
      ],
      [
        "riail",
        -10.65646433761027
      ],
      [
        "Nós",
        -10.657473496279298
      ],
      [
        "teachtaireacht",
        -10.657522714840471
      ],
      [
        "dtag",
        -10.65876083453659
      ],
      [
        "thuairisc",
        -10.659196633186799
      ],
      [
        "rapóirtéir",
        -10.660636599425214
      ],
      [
        "tuarasta",
        -10.66063825284078
      ],
      [
        "saghas",
        -10.660663585206814
      ],
      [
        "iomaíoch",
        -10.660766750864596
      ],
      [
        "LA",
        -10.660834375880334
      ],
      [
        "thús",
        -10.661018500615658
      ],
      [
        "déanmha",
        -10.662089937934253
      ],
      [
        "Sainmhíni",
        -10.66213566556166
      ],
      [
        "healaíon",
        -10.663613183842209
      ],
      [
        "Leagan",
        -10.665483384053429
      ],
      [
        "gcúrsa",
        -10.665992655271216
      ],
      [
        "pionós",
        -10.666669433987467
      ],
      [
        "Cabhra",
        -10.666680409532752
      ],
      [
        "achomair",
        -10.666693780794073
      ],
      [
        "éarlais",
        -10.666713173885828
      ],
      [
        "chúit",
        -10.66673645008281
      ],
      [
        "Rúnaí",
        -10.666909379421973
      ],
      [
        "buíochas",
        -10.667002923332365
      ],
      [
        "leanann",
        -10.667003633756595
      ],
      [
        "bóthar",
        -10.667127066572785
      ],
      [
        "Sea",
        -10.667550097170901
      ],
      [
        "chónaithe",
        -10.66793973876278
      ],
      [
        "cáil",
        -10.66910791738541
      ],
      [
        "gnócha",
        -10.66967909405555
      ],
      [
        "dlíthe",
        -10.670015243229745
      ],
      [
        "out",
        -10.670568181551639
      ],
      [
        "léireofa",
        -10.670664704744112
      ],
      [
        "hard",
        -10.67089548228406
      ],
      [
        "less",
        -10.671454681465843
      ],
      [
        "léirmheas",
        -10.671545860666079
      ],
      [
        "bheart",
        -10.671674489747499
      ],
      [
        "olc",
        -10.671815812684706
      ],
      [
        "Rómáin",
        -10.67222092701611
      ],
      [
        "solúbtha",
        -10.672557497740883
      ],
      [
        "cothabhála",
        -10.672721001472507
      ],
      [
        "bhíthin",
        -10.672781586864453
      ],
      [
        "míle",
        -10.67288670851691
      ],
      [
        "Ansin",
        -10.673249211067741
      ],
      [
        "Oíche",
        -10.673271234088306
      ],
      [
        "Soláthair",
        -10.6740881733401
      ],
      [
        "cuairteoir",
        -10.67524486645101
      ],
      [
        "tóga",
        -10.675517052467693
      ],
      [
        "margaí",
        -10.675737239097547
      ],
      [
        "Comhalta",
        -10.675961805421398
      ],
      [
        "bhfuair",
        -10.676090389533236
      ],
      [
        "difriúl",
        -10.676246257238281
      ],
      [
        "comórta",
        -10.676562910244416
      ],
      [
        "gcomh",
        -10.676996397644402
      ],
      [
        "iontrála",
        -10.677429800017649
      ],
      [
        "gníomhaire",
        -10.677876273024715
      ],
      [
        "98",
        -10.67814068620574
      ],
      [
        "Rúipí",
        -10.678819110106382
      ],
      [
        "Police",
        -10.678827335663755
      ],
      [
        "Iorua",
        -10.67885040115123
      ],
      [
        "Stiúrthóireacht",
        -10.678972896990643
      ],
      [
        "DE",
        -10.680213745803709
      ],
      [
        "agann",
        -10.680738457850861
      ],
      [
        "buí",
        -10.680887391195004
      ],
      [
        "thíolaca",
        -10.681068938236777
      ],
      [
        "ochtana",
        -10.681331422579522
      ],
      [
        "cháil",
        -10.681967852601893
      ],
      [
        "aigne",
        -10.682616245638314
      ],
      [
        "Soláthraí",
        -10.682934581042371
      ],
      [
        "dtiocfaid",
        -10.6833245093142
      ],
      [
        "éann",
        -10.683445990059871
      ],
      [
        "©",
        -10.684953526009792
      ],
      [
        "láimhseáil",
        -10.684953582773627
      ],
      [
        "gearrthóg",
        -10.685014323105975
      ],
      [
        "dlús",
        -10.68548887079977
      ],
      [
        "gcuirfid",
        -10.685531261985776
      ],
      [
        "lasta",
        -10.686472609361244
      ],
      [
        "Seachtain",
        -10.686629250266408
      ],
      [
        "DC",
        -10.686952621888148
      ],
      [
        "House",
        -10.68724046377611
      ],
      [
        "ver",
        -10.687649483978115
      ],
      [
        "my",
        -10.688605381009102
      ],
      [
        "Fad",
        -10.69015766793867
      ],
      [
        "Facebook",
        -10.691126956163615
      ],
      [
        "Linn",
        -10.691191940761017
      ],
      [
        "luxurious",
        -10.6913087167212
      ],
      [
        "freagracht",
        -10.69190283462218
      ],
      [
        "fhoils",
        -10.692937204006432
      ],
      [
        "íochta",
        -10.693391627890328
      ],
      [
        "Inter",
        -10.69414396126138
      ],
      [
        "gcuntas",
        -10.694363413789048
      ],
      [
        "droch",
        -10.694737761280354
      ],
      [
        "Cumas",
        -10.694966402666125
      ],
      [
        "beacht",
        -10.69516881611991
      ],
      [
        "Me",
        -10.695831681972916
      ],
      [
        "64",
        -10.695873364956272
      ],
      [
        "Cárta",
        -10.697396191202877
      ],
      [
        "tobac",
        -10.697675078362325
      ],
      [
        "díola",
        -10.700370950252115
      ],
      [
        "foinse",
        -10.700894003071276
      ],
      [
        "rugad",
        -10.701140676980593
      ],
      [
        "ceadú",
        -10.702013389103382
      ],
      [
        "53",
        -10.702611089715672
      ],
      [
        "chúl",
        -10.703344380428694
      ],
      [
        "shíniú",
        -10.703654330309316
      ],
      [
        "eilimint",
        -10.704559852047169
      ],
      [
        "léargas",
        -10.705024370913012
      ],
      [
        "bpáirt",
        -10.705163859378851
      ],
      [
        "Airgead",
        -10.705206981471866
      ],
      [
        "Gael",
        -10.705219124606733
      ],
      [
        "Foghlaim",
        -10.70575203436941
      ],
      [
        "Data",
        -10.705819301512232
      ],
      [
        "1952",
        -10.706824386837674
      ],
      [
        "Aeráide",
        -10.706920990656126
      ],
      [
        "comhlacha",
        -10.70722805363096
      ],
      [
        "250",
        -10.707291295891231
      ],
      [
        "gcomhaont",
        -10.707613643853701
      ],
      [
        "93",
        -10.707871014223798
      ],
      [
        "Glaca",
        -10.708360250877401
      ],
      [
        "mhairc",
        -10.708564482632694
      ],
      [
        "soghluaiste",
        -10.709722524451301
      ],
      [
        "Úcráin",
        -10.709876862934046
      ],
      [
        "Services",
        -10.710878907617634
      ],
      [
        "bhf",
        -10.712535076958599
      ],
      [
        "Fionta",
        -10.712570900164252
      ],
      [
        "1967",
        -10.712639401239747
      ],
      [
        "Cumhachta",
        -10.713990645443038
      ],
      [
        "pósta",
        -10.714182856709279
      ],
      [
        "ílte",
        -10.714189517680666
      ],
      [
        "Air",
        -10.714380190545036
      ],
      [
        "mall",
        -10.71490982194326
      ],
      [
        "92",
[...]
