{
  "version": "1.0",
  "truncation": null,
  "padding": null,
  "added_tokens": [
    {
      "id": 1,
      "content": "[UNK]",
      "single_word": false,
      "lstrip": false,
      "rstrip": false,
      "normalized": false,
      "special": true
    },
    {
      "id": 2,
      "content": "[CLS]",
      "single_word": false,
      "lstrip": false,
      "rstrip": false,
      "normalized": false,
      "special": true
    },
    {
      "id": 3,
      "content": "[SEP]",
      "single_word": false,
      "lstrip": false,
      "rstrip": false,
      "normalized": false,
      "special": true
    },
    {
      "id": 4,
      "content": "[PAD]",
      "single_word": false,
      "lstrip": false,
      "rstrip": false,
      "normalized": false,
      "special": true
    },
    {
      "id": 5,
      "content": "[MASK]",
      "single_word": false,
      "lstrip": false,
      "rstrip": false,
      "normalized": false,
      "special": true
    }
  ],
  "normalizer": {
    "type": "NFKC"
  },
  "pre_tokenizer": {
    "type": "Whitespace"
  },
  "post_processor": null,
  "decoder": null,
  "model": {
    "type": "Unigram",
    "unk_id": 0,
    "vocab": [
      [
        "<unk>",
        0.0
      ],
      [
        "[UNK]",
        0.0
      ],
      [
        "[CLS]",
        0.0
      ],
      [
        "[SEP]",
        0.0
      ],
      [
        "[PAD]",
        0.0
      ],
      [
        "[MASK]",
        0.0
      ],
      [
        "a",
        -2.639013545214322
      ],
      [
        "n",
        -3.288436809511456
      ],
      [
        ",",
        -3.553403607078044
      ],
      [
        "an",
        -3.613972822895862
      ],
      [
        "ar",
        -3.75943547203566
      ],
      [
        ".",
        -3.8929622986162915
      ],
      [
        "agus",
        -4.0677188758132505
      ],
      [
        "s",
        -4.189298624900417
      ],
      [
        "i",
        -4.2480010216275375
      ],
      [
        "r",
        -4.326742826366585
      ],
      [
        "í",
        -4.354144947514747
      ],
      [
        "le",
        -4.5968782113105515
      ],
      [
        "-",
        -4.654109356760873
      ],
      [
        "d",
        -4.662837337349524
      ],
      [
        "t",
        -4.759591909104014
      ],
      [
        "(",
        -4.970449535680068
      ],
      [
        "in",
        -4.99866898627492
      ],
      [
        "ú",
        -5.0159490297169835
      ],
      [
        ")",
        -5.019262987053651
      ],
      [
        "go",
        -5.025935066144834
      ],
      [
        "@",
        -5.056584834382829
      ],
      [
        "dh",
        -5.059112581320548
      ],
      [
        "seo",
        -5.074470232581
      ],
      [
        "e",
        -5.130250779862838
      ],
      [
        "is",
        -5.143827489863604
      ],
      [
        "do",
        -5.197284789845636
      ],
      [
        "ó",
        -5.227425707106752
      ],
      [
        "tú",
        -5.232550195922146
      ],
      [
        "de",
        -5.2435117449764785
      ],
      [
        "h",
        -5.2756859568849706
      ],
      [
        "nó",
        -5.333782852084939
      ],
      [
        "ag",
        -5.346153198284947
      ],
      [
        "bhfuil",
        -5.4580639536140865
      ],
      [
        "leis",
        -5.494302725985573
      ],
      [
        "m",
        -5.497817226242823
      ],
      [
        "l",
        -5.537906118325038
      ],
      [
        "c",
        -5.590115653786896
      ],
      [
        "sin",
        -5.595291345090095
      ],
      [
        "chun",
        -5.5975559372808394
      ],
      [
        "anna",
        -5.598867557670832
      ],
      [
        "An",
        -5.60467475231682
      ],
      [
        "é",
        -5.721036902069304
      ],
      [
        "'",
        -5.721037113435475
      ],
      [
        "C",
        -5.7242649144789475
      ],
      [
        ":",
        -5.801886960177454
      ],
      [
        "leat",
        -5.810918114476307
      ],
      [
        "g",
        -5.823975123040956
      ],
      [
        "il",
        -5.869547542815427
      ],
      [
        "?",
        -5.8959117164953
      ],
      [
        "Tweet",
        -5.9206709153970305
      ],
      [
        "sé",
        -5.932572286628506
      ],
      [
        "igh",
        -5.944994844880654
      ],
      [
        "gur",
        -5.954585915007932
      ],
      [
        "á",
        -5.962554880757629
      ],
      [
        "b",
        -5.998197537330775
      ],
      [
        "cosc",
        -6.033939194677982
      ],
      [
        "aon",
        -6.036233211505179
      ],
      [
        "mar",
        -6.056583985657294
      ],
      [
        "atá",
        -6.076478636817358
      ],
      [
        "Is",
        -6.094511780531882
      ],
      [
        "o",
        -6.102446952021248
      ],
      [
        "den",
        -6.127836016655818
      ],
      [
        "faoi",
        -6.162392186582601
      ],
      [
        "mhaith",
        -6.185726905725009
      ],
      [
        "Tá",
        -6.196768139775285
      ],
      [
        "féidi",
        -6.2038079705120275
      ],
      [
        "cinnte",
        -6.224229878454565
      ],
      [
        "ithe",
        -6.226767772666097
      ],
      [
        "breathn",
        -6.232937664569475
      ],
      [
        "Chuir",
        -6.244070844949926
      ],
      [
        "Meáin",
        -6.264373571696996
      ],
      [
        "f",
        -6.279753215898269
      ],
      [
        "A",
        -6.308880135836006
      ],
      [
        "tá",
        -6.322353924971583
      ],
      [
        "ach",
        -6.322971626615791
      ],
      [
        ";",
        -6.340949809043753
      ],
      [
        "eile",
        -6.365311470154296
      ],
      [
        "dhéanamh",
        -6.393725380407506
      ],
      [
        "chur",
        -6.412495479686111
      ],
      [
        "1",
        -6.428762511575865
      ],
      [
        "’",
        -6.449157381190979
      ],
      [
        "bheith",
        -6.4548730316958505
      ],
      [
        "alt",
        -6.529262636898434
      ],
      [
        "2",
        -6.53353826111519
      ],
      [
        "duine",
        -6.573494075353457
      ],
      [
        "trí",
        -6.582674124960862
      ],
      [
        "Tuillea",
        -6.603835106558515
      ],
      [
        "I",
        -6.6043911101935855
      ],
      [
        "maidi",
        -6.630586185535849
      ],
      [
        "deimhnithe",
        -6.650454568232584
      ],
      [
        "saor",
        -6.659538125603628
      ],
      [
        "Cuntas",
        -6.661660083231654
      ],
      [
        "gach",
        -6.677677073833944
      ],
      [
        "/",
        -6.686985462020655
      ],
      [
        "níos",
        -6.691266344818237
      ],
      [
        "nasc",
        -6.701616445775091
      ],
      [
        "aisce",
        -6.7192470509864695
      ],
      [
        "don",
        -6.721410481066664
      ],
      [
        "nach",
        -6.7643523426494685
      ],
      [
        "ch",
        -6.77834351145369
      ],
      [
        "óipeáil",
        -6.792208834904642
      ],
      [
        "Ní",
        -6.79389502498865
      ],
      [
        "S",
        -6.794418202996738
      ],
      [
        "3",
        -6.806551867170631
      ],
      [
        "beidh",
        -6.815864453098035
      ],
      [
        "porn",
        -6.817633428064031
      ],
      [
        "F",
        -6.82729040040201
      ],
      [
        "Acht",
        -6.834345039376954
      ],
      [
        "uair",
        -6.848024744028875
      ],
      [
        "T",
        -6.882116928789145
      ],
      [
        "maith",
        -6.882318361087382
      ],
      [
        "lena",
        -6.906090326020152
      ],
      [
        "D",
        -6.906191151712909
      ],
      [
        "dá",
        -6.915457445439756
      ],
      [
        "haghaidh",
        -6.91863708807729
      ],
      [
        "tweet",
        -6.925769388525158
      ],
      [
        "fáil",
        -6.936770987257747
      ],
      [
        "mó",
        -6.965099406857215
      ],
      [
        "iad",
        -6.968147239011454
      ],
      [
        "ina",
        -6.968829444629998
      ],
      [
        "chloig",
        -6.970061472023028
      ],
      [
        "chuid",
        -6.972461406265651
      ],
      [
        "úsáid",
        -6.981682704254311
      ],
      [
        "leanúna",
        -6.98823277879676
      ],
      [
        "réir",
        -6.991277762422758
      ],
      [
        "shin",
        -6.997399202992433
      ],
      [
        "Ar",
        -7.018886267610339
      ],
      [
        "idh",
        -7.0325802092980485
      ],
      [
        "B",
        -7.033555567689897
      ],
      [
        "eitheamh",
        -7.036893586164187
      ],
      [
        "amháin",
        -7.04581811232983
      ],
      [
        "um",
        -7.059018034627837
      ],
      [
        "M",
        -7.0794950983856815
      ],
      [
        "nua",
        -7.083184677464017
      ],
      [
        "Ag",
        -7.103840218209971
      ],
      [
        "4",
        -7.106999816057433
      ],
      [
        "\"",
        -7.134442275100014
      ],
      [
        "amach",
        -7.1372436631894995
      ],
      [
        "ann",
        -7.147856677430115
      ],
      [
        "líne",
        -7.150358459506284
      ],
      [
        "–",
        -7.150603448587798
      ],
      [
        "iarratas",
        -7.174743848046825
      ],
      [
        "“",
        -7.176150566780192
      ],
      [
        "siad",
        -7.177194847518427
      ],
      [
        "íonn",
        -7.187311856540541
      ],
      [
        "mh",
        -7.198009134263728
      ],
      [
        "thabhair",
        -7.201332184312339
      ],
      [
        "u",
        -7.211235145263505
      ],
      [
        "Dí",
        -7.220070192911587
      ],
      [
        "mór",
        -7.222656174763475
      ],
      [
        "5",
        -7.226124223718108
      ],
      [
        "N",
        -7.239754218433255
      ],
      [
        "féin",
        -7.24461181678668
      ],
      [
        "san",
        -7.24954592215475
      ],
      [
        "choisc",
        -7.253148341462628
      ],
      [
        "raibh",
        -7.266295536468597
      ],
      [
        "daoine",
        -7.272729218567228
      ],
      [
        "lá",
        -7.27816628213133
      ],
      [
        "leith",
        -7.289368017365327
      ],
      [
        "éis",
        -7.299211505396116
      ],
      [
        "fháil",
        -7.305977775690728
      ],
      [
        "cineál",
        -7.3076449805351125
      ],
      [
        "cheannach",
        -7.310121718997545
      ],
      [
        "faoin",
        -7.311823575029372
      ],
      [
        "isteach",
        -7.31381713779874
      ],
      [
        "Féach",
        -7.313913441820665
      ],
      [
        "gan",
        -7.338940525361313
      ],
      [
        "rud",
        -7.350551658367136
      ],
      [
        "Cuir",
        -7.358039955747211
      ],
      [
        "gcás",
        -7.369654283712883
      ],
      [
        "fearr",
        -7.380426775639695
      ],
      [
        "chomh",
        -7.384213053622396
      ],
      [
        "!",
        -7.408574283339727
      ],
      [
        "suíomh",
        -7.428207193075249
      ],
      [
        "6",
        -7.4321112477979945
      ],
      [
        "acu",
        -7.43681268780538
      ],
      [
        "leana",
        -7.439502514708577
      ],
      [
        "bhí",
        -7.442651939092368
      ],
      [
        "freagra",
        -7.459564752388584
      ],
      [
        "roimh",
        -7.4757492557733
      ],
      [
        "HD",
        -7.481314954472332
      ],
      [
        "foca",
        -7.483230853181874
      ],
      [
        "”",
        -7.487275597390704
      ],
      [
        "adh",
        -7.493390383613537
      ],
      [
        "ealaigh",
        -7.49364494680823
      ],
      [
        "nGaeilge",
        -7.500175831722117
      ],
      [
        "bríonn",
        -7.500574177840251
      ],
      [
        "chuig",
        -7.509391408897489
      ],
      [
        "sainmhíni",
        -7.509685338576293
      ],
      [
        "linn",
        -7.512531551721352
      ],
      [
        "iallach",
        -7.5250583993707085
      ],
      [
        "méid",
        -7.5335305693634
      ],
      [
        "áirithe",
        -7.533648285282775
      ],
      [
        "fhrithch",
        -7.54136696809865
      ],
      [
        "fuaimni",
        -7.541828442798334
      ],
      [
        "ár",
        -7.543408743836359
      ],
      [
        "tar",
        -7.545298208401123
      ],
      [
        "omhchialla",
        -7.547185312289113
      ],
      [
        "ceart",
        -7.563547941448384
      ],
      [
        "álacha",
        -7.5679211240245206
      ],
      [
        "idir",
        -7.569356156134809
      ],
      [
        "0",
        -7.569936881945493
      ],
      [
        "má",
        -7.578527947705002
      ],
      [
        "freisin",
        -7.591741018789822
      ],
      [
        "dtí",
        -7.597246642215056
      ],
      [
        "nois",
        -7.608587051640216
      ],
      [
        "dul",
        -7.626069754851727
      ],
      [
        "Le",
        -7.634069053851924
      ],
      [
        "...",
        -7.639724115379115
      ],
      [
        "—",
        -7.641277389339576
      ],
      [
        "tear",
        -7.6417461923428185
      ],
      [
        "chéad",
        -7.646997378033433
      ],
      [
        "ceal",
        -7.649669591607932
      ],
      [
        "Eorpach",
        -7.651501289820567
      ],
      [
        "duit",
        -7.656579872623366
      ],
      [
        "7",
        -7.678436490912885
      ],
      [
        "8",
        -7.682357189950345
      ],
      [
        "Mar",
        -7.6835433733988765
      ],
      [
        "Iarratas",
        -7.6837519647832675
      ],
      [
        "ceann",
        -7.685395209551622
      ],
      [
        "bheid",
        -7.686645261147936
      ],
      [
        "air",
        -7.688280308491349
      ],
      [
        "aghaidh",
        -7.70618025266973
      ],
      [
        "bhreathn",
        -7.710675187658696
      ],
      [
        "Gaeilge",
        -7.717240287280658
      ],
      [
        "com",
        -7.719479619752292
      ],
      [
        "gá",
        -7.720751703546481
      ],
      [
        "bhaineann",
        -7.728365276273234
      ],
      [
        "iomlán",
        -7.734931256700989
      ],
      [
        "abhairt",
        -7.762399911624668
      ],
      [
        "ítear",
        -7.763255125783333
      ],
      [
        "bhainfea",
        -7.764256169418606
      ],
      [
        "obair",
        -7.767168203685821
      ],
      [
        "sonraí",
        -7.769385935469937
      ],
      [
        "cheart",
        -7.777382638549729
      ],
      [
        "agat",
        -7.784138360996612
      ],
      [
        "10",
        -7.788527010117868
      ],
      [
        "dáta",
        -7.800396593537428
      ],
      [
        "roinnt",
        -7.8007207990932335
      ],
      [
        "bhaint",
        -7.801662816063575
      ],
      [
        "aigh",
        -7.812575395565443
      ],
      [
        "Beidh",
        -7.813817650687599
      ],
      [
        "cur",
        -7.8156827402782865
      ],
      [
        "tréimhse",
        -7.8205230753572454
      ],
      [
        "19",
        -7.825669782126078
      ],
      [
        "ainm",
        -7.829688414786902
      ],
      [
        "cluiche",
        -7.8406864995884655
      ],
      [
        "gréasáin",
        -7.844568902810178
      ],
      [
        "Roinn",
        -7.846640642606629
      ],
      [
        "y",
        -7.846897581155771
      ],
      [
        "]",
        -7.848117518354487
      ],
      [
        "[",
        -7.8498599931329816
      ],
      [
        "AE",
        -7.8547831729343685
      ],
      [
        "nuair",
        -7.866239305802375
      ],
      [
        "áit",
        -7.874149635119328
      ],
      [
        "haoine",
        -7.874980981924544
      ],
      [
        "físeá",
        -7.876475538586124
      ],
      [
        "Twitter",
        -7.882382118081875
      ],
      [
        "hÉireann",
        -7.896232455175536
      ],
      [
        "éagsúla",
        -7.896779429810463
      ],
      [
        "bhfeidhm",
        -7.900261413450898
      ],
      [
        "P",
        -7.9035629461631105
      ],
      [
        "léir",
        -7.906045367736137
      ],
      [
        "anseo",
        -7.913356297064328
      ],
      [
        "chéile",
        -7.913495393121454
      ],
      [
        "aithe",
        -7.919190663972375
      ],
      [
        "ábhar",
        -7.9232902308664634
      ],
      [
        "thar",
        -7.937597030012848
      ],
      [
        "cinn",
        -7.942329952458782
      ],
      [
        "Aontais",
        -7.9440589601457035
      ],
      [
        "síos",
        -7.949441174758508
      ],
      [
        "Airteagal",
        -7.951547367209536
      ],
      [
        "scoth",
        -7.95292672469359
      ],
      [
        "15",
        -7.954123261857888
      ],
      [
        "hEorpa",
        -7.9560685800883455
      ],
      [
        "aige",
        -7.9584195519513665
      ],
      [
        "&",
        -7.9637847601040015
      ],
      [
        "Má",
        -7.970910778651452
      ],
      [
        "caighdeán",
        -7.976410648148582
      ],
      [
        "heidh",
        -7.989312028355269
      ],
      [
        "12",
        -7.998322717615224
      ],
      [
        "fho",
        -8.000054062021146
      ],
      [
        "9",
        -8.003689083475452
      ],
      [
        "leor",
        -8.004911628024836
      ],
      [
        "bith",
        -8.008625650803864
      ],
      [
        "teacht",
        -8.016502120778242
      ],
      [
        "mé",
        -8.017469688032595
      ],
      [
        "físeán",
        -8.021788494188645
      ],
      [
        "the",
        -8.022555959056469
      ],
      [
        "bhliain",
        -8.035149898876725
      ],
      [
        "L",
        -8.035919801350563
      ],
      [
        "arna",
        -8.039941648468435
      ],
      [
        "cheann",
        -8.040448088630768
      ],
      [
        "sórt",
        -8.04459200694737
      ],
      [
        "2018",
        -8.046015317864079
      ],
      [
        "Aire",
        -8.047232845257856
      ],
      [
        "chaighdeán",
        -8.047796535024512
      ],
      [
        "láthair",
        -8.059201035379106
      ],
      [
        "ordú",
        -8.059418320872691
      ],
      [
        "Dé",
        -8.065020879933805
      ],
      [
        "EN",
        -8.067613699410721
      ],
      [
        "18",
        -8.068539494172292
      ],
      [
        "€",
        -8.069120197234955
      ],
      [
        "áirítear",
        -8.070978828826775
      ],
      [
        "Go",
        -8.071849513160426
      ],
      [
        "suas",
        -8.075510686349428
      ],
      [
        "táirgí",
        -8.083280756374048
      ],
      [
        "%",
        -8.084376092728512
      ],
      [
        "cheana",
        -8.089759224272134
      ],
      [
        "Iúil",
        -8.091029630330173
      ],
      [
        "inneadh",
        -8.094235099817984
      ],
      [
        "ásta",
        -8.103370197037888
      ],
      [
        "déanta",
        -8.11183775296298
      ],
      [
        "Coiscthe",
        -8.116198384960256
      ],
      [
        "bliana",
        -8.120055032948024
      ],
      [
        "20",
        -8.12266924157367
      ],
      [
        "imeachta",
        -8.123365263249585
      ],
      [
        "féachain",
        -8.12416336807092
      ],
      [
        "eolas",
        -8.12587955264718
      ],
      [
        "Béarla",
        -8.126424278143077
      ],
      [
        "uithe",
        -8.130046943046324
      ],
      [
        "ráta",
        -8.13230933759747
      ],
      [
        "Lean",
        -8.138471041130206
      ],
      [
        "íoc",
        -8.14134159875195
      ],
      [
        "2017",
        -8.141583876365951
      ],
      [
        "istigh",
        -8.141664852235795
      ],
      [
        "mo",
        -8.141746246484427
      ],
      [
        "díreach",
        -8.143119179666336
      ],
      [
        "más",
        -8.152010017756755
      ],
      [
        "láithreá",
        -8.153835356796456
      ],
      [
        "tAire",
        -8.156192545231578
      ],
      [
        "leo",
        -8.158408313241294
      ],
      [
        "G",
        -8.159922239733538
      ],
      [
        "dheis",
        -8.160691489374337
      ],
      [
        "Deireadh",
        -8.160762157135142
      ],
      [
        "16",
        -8.16659259701855
      ],
      [
        "Márta",
        -8.169627730915341
      ],
      [
        "Porn",
        -8.170138727508494
      ],
      [
        "Chomhairle",
        -8.174557061819172
      ],
      [
        "fhéadfadh",
        -8.17686897290017
      ],
      [
        "24",
        -8.177087278209846
      ],
      [
        "údarás",
        -8.186623532573789
      ],
      [
        "Rialachá",
        -8.187442529332426
      ],
      [
        "Baile",
        -8.19651376410992
      ],
      [
        "for",
        -8.197503141987784
      ],
      [
        "seirbhísí",
        -8.2066116815751
      ],
      [
        "Chun",
        -8.206948371106174
      ],
      [
        "p",
        -8.214759707934125
      ],
      [
        "te",
        -8.219027548190521
      ],
      [
        "bearta",
        -8.221234477223199
      ],
      [
        "íoslódáil",
        -8.22126600678698
      ],
      [
        "ing",
        -8.222611486213784
      ],
      [
        "R",
        -8.224760178722237
      ],
      [
        "The",
        -8.232020127934202
      ],
      [
        "ibé",
        -8.232082632332542
      ],
      [
        "on",
        -8.237807011936466
      ],
      [
        "imh",
        -8.24450355459874
      ],
      [
        "feadh",
        -8.252225111070931
      ],
      [
        "ionad",
        -8.254621162314697
      ],
      [
        "Comhrá",
        -8.257046994784151
      ],
      [
        "huaire",
        -8.257933518612706
      ],
      [
        "Aontas",
        -8.262954180350228
      ],
      [
        "fad",
        -8.263602067873446
      ],
      [
        "ndáil",
        -8.266018052641748
      ],
      [
        "bh",
        -8.26921169790368
      ],
      [
        "2019",
        -8.271768085561419
      ],
      [
        "chóir",
        -8.27224749860811
      ],
      [
        "dhá",
        -8.27350007511069
      ],
      [
        "leathanach",
        -8.277886252486404
      ],
      [
        "iontach",
        -8.283418462309523
      ],
      [
        "E",
        -8.286337793211615
      ],
      [
        "11",
        -8.291955024505246
      ],
      [
        "aois",
        -8.292262048167554
      ],
      [
        "30",
        -8.300037403765543
      ],
      [
        "eamh",
        -8.3011268116169
      ],
      [
        "oibre",
        -8.303365797440048
      ],
      [
        "mbaineann",
        -8.303454199871528
      ],
      [
        "bliain",
        -8.304087066655246
      ],
      [
        "fear",
        -8.308547344950826
      ],
      [
        "fós",
        -8.313851437675297
      ],
      [
        "gcuid",
        -8.323079102147585
      ],
      [
        "cluichí",
        -8.325437721628347
      ],
      [
        "uisce",
        -8.326673594255645
      ],
      [
        "bhíonn",
        -8.329185212651275
      ],
      [
        "iarraidh",
        -8.330171489120147
      ],
      [
        "áil",
        -8.334010531505431
      ],
      [
        "17",
        -8.340227342283146
      ],
      [
        "eanna",
        -8.34579618200372
      ],
      [
        "líon",
        -8.348559397907408
      ],
      [
        "áireamh",
        -8.349441768422412
      ],
      [
        "amp",
        -8.351747434867185
      ],
      [
        "tráth",
        -8.352448648624964
      ],
      [
        "beag",
        -8.356985693974305
      ],
      [
        "th",
        -8.357203336594505
      ],
      [
        "gComhairle",
        -8.3646194563809
      ],
      [
        "Agus",
        -8.366500258961945
      ],
      [
        "gheall",
        -8.374183034465494
      ],
      [
        "leibhéal",
        -8.37677549035921
      ],
      [
        "fud",
        -8.378229097629449
      ],
      [
        "céanna",
        -8.383547162574601
      ],
      [
        "rogha",
        -8.386772483491864
      ],
      [
        "‘",
        -8.389552217652199
      ],
      [
        "athrú",
        -8.391673272363708
      ],
      [
        "dlí",
        -8.394064802527168
      ],
      [
        "Atweetáil",
        -8.394642849572058
      ],
      [
        "13",
        -8.396130849450143
      ],
      [
        "14",
        -8.397380083296598
      ],
      [
        "cuid",
        -8.403402271983126
      ],
      [
        "dóibh",
        -8.405394364246664
      ],
      [
        "againn",
        -8.408133577577615
      ],
      [
        "of",
        -8.411752890543642
      ],
      [
        "Ba",
        -8.413831789751857
      ],
      [
        "cuideachta",
        -8.414950790316523
      ],
      [
        "orthu",
        -8.415520406772231
      ],
      [
        "Fuaim",
        -8.421849228890848
      ],
      [
        "niú",
        -8.421990887528773
      ],
      [
        "Comhairle",
        -8.42228571928204
      ],
      [
        "cháin",
        -8.423526558199308
      ],
      [
        "Fómhair",
        -8.424177196141349
      ],
      [
        "liom",
        -8.42431529555143
      ],
      [
        "mhéid",
        -8.43031767230535
      ],
      [
        "mhí",
        -8.432504431715039
      ],
      [
        "feidhm",
        -8.432882112293083
      ],
      [
        "ontaithe",
        -8.43632867294339
      ],
      [
        "fhreagra",
        -8.436400860150737
      ],
      [
        "scríobh",
        -8.437652009501978
      ],
      [
        "gcónaí",
        -8.43771242383946
      ],
      [
        "bhun",
        -8.439144968777734
      ],
      [
        "scannán",
        -8.44487057518442
      ],
      [
        "náisiúnta",
        -8.448296851110022
      ],
      [
        "airgeadra",
        -8.44961023386682
      ],
      [
        ").",
        -8.45080210475075
      ],
      [
        "tSín",
        -8.45409243564157
      ],
      [
        "cothrom",
        -8.458912821086457
      ],
      [
        "Éirinn",
        -8.460914851083787
      ],
      [
        "_",
        -8.461173961588639
      ],
      [
        "earraí",
        -8.463817315320835
      ],
      [
        "ábhair",
        -8.465240270071742
      ],
      [
        "féach",
        -8.467515007799722
      ],
      [
        "cáilíochta",
        -8.468125198914215
      ],
      [
        "mhír",
        -8.46939700004063
      ],
      [
        "iomchu",
        -8.469540447781327
      ],
      [
        "far",
        -8.471513152324606
      ],
      [
        "féadfaid",
        -8.472998070162408
      ],
      [
        "críocha",
        -8.473325925194445
      ],
      [
        "eideal",
        -8.475966345840044
      ],
      [
        "Tuga",
        -8.476984360698854
      ],
      [
        "fheabhsú",
        -8.477393315619583
      ],
      [
        "feidhme",
        -8.47839585863223
      ],
      [
        "ciallaíon",
        -8.479217992727797
      ],
      [
        "Féadfaidh",
        -8.48030287344507
      ],
      [
        "2016",
        -8.481813724349108
      ],
      [
        "Cé",
        -8.485447604847
      ],
      [
        "gnéas",
        -8.485786247328289
      ],
      [
        "luach",
        -8.489572325226668
      ],
      [
        "Rinne",
        -8.48979942802334
      ],
      [
        "Ballstá",
        -8.490116289032308
      ],
      [
        "Eorpaigh",
        -8.491523424510614
      ],
      [
        "Coimisiún",
        -8.496188387311841
      ],
      [
        "taobh",
        -8.496741263441807
      ],
      [
        "amhlai",
        -8.508645491654681
      ],
      [
        "O",
        -8.511226397479238
      ],
      [
        "déana",
        -8.515895500183696
      ],
      [
        "seirbhís",
        -8.517005689910004
      ],
      [
        "tras",
        -8.517335991218765
      ],
      [
        "croí",
        -8.51782235363261
      ],
      [
        "cé",
        -8.522469510851593
      ],
      [
        "Déan",
        -8.525886793990496
      ],
      [
        "Ard",
        -8.529593517233014
      ],
      [
        "21",
        -8.53686247156012
      ],
      [
        "Físeán",
        -8.537706021612255
      ],
      [
        "muid",
        -8.542532786625113
      ],
      [
        "fhorbairt",
        -8.545271871099214
      ],
      [
        "23",
        -8.54915330462153
      ],
      [
        "deara",
        -8.549988826521425
      ],
      [
        "uaire",
        -8.55239850835559
      ],
      [
        "oifig",
        -8.553213140751708
      ],
      [
        "airgead",
        -8.553498778789102
      ],
      [
        "Nach",
        -8.558744703599743
      ],
      [
        "deireadh",
        -8.562913216415188
      ],
      [
        "íodh",
        -8.569367222213762
      ],
      [
        "Ó",
        -8.5741563374475
      ],
      [
        "atweet",
        -8.578791866120708
      ],
      [
        "Stáit",
        -8.579037544730872
      ],
      [
        "25",
        -8.584241001825564
      ],
      [
        "táirge",
        -8.584586941522666
      ],
      [
        "ndéanfa",
        -8.587176927737886
      ],
      [
        "dhéana",
        -8.587349739334178
      ],
      [
        "tríd",
        -8.588590649559123
      ],
      [
        "éifeacht",
        -8.588957811136195
      ],
      [
        "uile",
        -8.591191488796301
      ],
      [
        "Náisiúnta",
        -8.593181118146315
      ],
      [
        "rialacha",
        -8.595908754661043
      ],
      [
        "aítear",
        -8.59607171652861
      ],
      [
        "fógra",
        -8.596598429658691
      ],
      [
        "Oireachtais",
        -8.599940096301456
      ],
      [
        "freagairt",
        -8.601768468571407
      ],
      [
        "000",
        -8.606552298472831
      ],
      [
        "Bord",
        -8.606760389850223
      ],
      [
        "speisialta",
        -8.60775038889443
      ],
      [
        "bhfo",
        -8.60839672505797
      ],
      [
        "chomhrá",
        -8.612331812045456
      ],
      [
        "Bhí",
        -8.616158606549355
      ],
      [
        "comhalta",
        -8.618748851848826
      ],
      [
        "réimse",
        -8.61954913276669
      ],
      [
        "Ceisteanna",
        -8.622924912974998
      ],
      [
        "anúint",
        -8.626068391525086
      ],
      [
        "Pharlaimint",
        -8.626862224930136
      ],
      [
        "Leaba",
        -8.627130667193171
      ],
      [
        "bia",
        -8.628998640002449
      ],
      [
        "imir",
        -8.630247996299671
      ],
      [
        "poiblí",
        -8.63069735928963
      ],
      [
        "neamh",
        -8.633969204621339
      ],
      [
        "áitiúil",
        -8.635407798979582
      ],
      [
        "bhrí",
        -8.639191301132536
      ],
      [
        "Tithe",
        -8.639232503097992
      ],
      [
        "Ach",
        -8.643892331600043
      ],
      [
        "rialachá",
        -8.64482815997384
      ],
      [
        "ailt",
        -8.645978916620155
      ],
      [
        "100",
        -8.646051515980137
      ],
      [
        "Co",
        -8.64683038795978
      ],
      [
        "leas",
        -8.64705865675037
      ],
      [
        "mian",
        -8.649255035826291
      ],
      [
        "Oifig",
        -8.651849234223494
      ],
      [
        "chlárú",
        -8.65262340186181
      ],
      [
        "rith",
        -8.653822790967077
      ],
      [
        "Catagóir",
        -8.660009810252511
      ],
      [
        "Feabh",
        -8.660281181258934
      ],
      [
        "Uimh",
        -8.661869170506591
      ],
      [
        "baint",
        -8.663007445956119
      ],
      [
        "22",
        -8.666685609099723
      ],
      [
        "2015",
        -8.666797139969347
      ],
      [
        "Stát",
        -8.669198062946073
      ],
      [
        "Dáil",
        -8.674098851387082
      ],
      [
        "coinníollach",
        -8.674944613623802
      ],
      [
        "ghlacad",
        -8.676414861319437
      ],
      [
        "fíor",
        -8.677763702692705
      ],
      [
        "haon",
        -8.677968796677549
      ],
      [
        "súil",
        -8.679674309306701
      ],
      [
        "mír",
        -8.68037436099341
      ],
      [
        "fo",
        -8.682250943204451
      ],
      [
        "cuí",
        -8.684413615147712
      ],
      [
        "ort",
        -8.688279681693746
      ],
      [
        "chlár",
        -8.688893897442886
      ],
      [
        "aíonn",
        -8.69205143881833
      ],
      [
        "tacaíocht",
        -8.696719800944999
      ],
      [
        "2014",
        -8.697266919311163
      ],
      [
        "mura",
        -8.700238765945215
      ],
      [
        "pearsanta",
        -8.701081549243355
      ],
      [
        "córas",
        -8.707361342723894
      ],
      [
        "sholátha",
        -8.708877830821928
      ],
      [
        "tha",
        -8.71321009662893
      ],
      [
        "praghas",
        -8.71526535046447
      ],
      [
        "irgeadais",
        -8.716549632599271
      ],
      [
        "bunaithe",
        -8.721206354552294
      ],
      [
        "Gnóthaí",
        -8.724632775954984
      ],
      [
        "mbead",
        -8.725030320860704
      ],
      [
        "iúl",
        -8.728534625712598
      ],
      [
        "Átha",
        -8.730528475141817
      ],
      [
        "teanga",
        -8.73186918188113
      ],
      [
        "Parlaiminte",
        -8.735772648711063
      ],
      [
        "faisnéis",
        -8.737744925271421
      ],
      [
        "32",
        -8.739335384601832
      ],
      [
        "roghnú",
        -8.740957706668631
      ],
      [
        "fiú",
        -8.746238355884774
      ],
      [
        "mhór",
        -8.747249374384772
      ],
      [
        "sheoladh",
        -8.748070168480847
      ],
      [
        "modh",
        -8.750490083232652
      ],
      [
        "De",
        -8.751006919807285
      ],
      [
        "Níl",
        -8.754084794814545
      ],
      [
        "scéim",
        -8.75457467039734
      ],
      [
        "leagan",
        -8.757419804451935
      ],
      [
        "eachas",
        -8.757692856035288
      ],
      [
        "aonair",
        -8.75870963505193
      ],
      [
        "lán",
        -8.76238622551479
      ],
      [
        "nár",
        -8.768093707883548
      ],
      [
        "chosaint",
        -8.772153861046403
      ],
      [
        "domhain",
        -8.77215829145165
      ],
      [
        "|",
        -8.77486757399884
      ],
      [
        "gcomhréir",
        -8.776053358895094
      ],
      [
        "chás",
        -8.7790575988851
      ],
      [
        "Nua",
        -8.779213165917682
      ],
      [
        "Cluichí",
        -8.779968387780388
      ],
      [
        "hiomlán",
        -8.782548269268661
      ],
      [
        "shampla",
        -8.782785034532939
      ],
      [
        "laghdú",
        -8.785259968288038
      ],
      [
        "tagairt",
        -8.786926522407752
      ],
      [
        "láithreach",
        -8.787294090574653
      ],
      [
        "éanamh",
        -8.788924515795605
      ],
      [
        "Cliath",
        -8.79087726352814
      ],
      [
        "cosú",
        -8.793906505096121
      ],
      [
        "iarratais",
        -8.795539446703895
      ],
      [
        "measc",
        -8.797482971754935
      ],
      [
        "gceist",
        -8.798295793033642
      ],
      [
        "scoil",
        -8.801622340912685
      ],
      [
        "gcéad",
        -8.801738852776309
      ],
      [
        "feitheam",
        -8.80306400661884
      ],
      [
        "déanfa",
        -8.803454385458393
      ],
      [
        "páirt",
        -8.804660783045296
      ],
      [
        "Seirbhís",
        -8.805567289057713
      ],
      [
        "Fómh",
        -8.80558957195991
      ],
      [
        "Mí",
        -8.807755183631603
      ],
      [
        "saol",
        -8.808253517535935
      ],
      [
        "catagóir",
        -8.810808177985454
      ],
      [
        "Cona",
        -8.811120369657298
      ],
      [
        "2013",
        -8.812179956597683
      ],
      [
        "úsáide",
        -8.813666505483535
      ],
      [
        "eann",
        -8.815952095120801
      ],
      [
        "cruach",
        -8.822353891656567
      ],
      [
        "idirnáisiúnta",
        -8.826226374910794
      ],
      [
        "Airgeadais",
        -8.829956219121398
      ],
      [
        "dtaobh",
        -8.839278077318617
      ],
      [
        "eolais",
        -8.841280812929444
      ],
      [
        "tabhair",
        -8.841358420951543
      ],
      [
        "dúinn",
        -8.843731060171802
      ],
      [
        "U",
        -8.84599522926002
      ],
      [
        "26",
        -8.84704765240211
      ],
      [
        "bhealach",
        -8.847287573001823
      ],
      [
        "Gaillimh",
        -8.849508720797878
      ],
      [
        "sláinte",
        -8.850608476612956
      ],
      [
        "clár",
        -8.855785067527359
      ],
      [
        "Éireann",
        -8.85606748315627
      ],
      [
        "oiriúnach",
        -8.860542574886784
      ],
      [
        "orthaí",
        -8.8611694610785
      ],
      [
        "chuideachta",
        -8.865024075638814
      ],
      [
        "tuillea",
        -8.873784555789609
      ],
      [
        "cad",
        -8.87464008704502
      ],
      [
        "chroí",
        -8.87970764777949
      ],
      [
        "Cad",
        -8.879737841371325
      ],
      [
        "teagmhá",
        -8.883357474509463
      ],
      [
        "éasca",
        -8.88806920929167
      ],
      [
        "gníomhaíochta",
        -8.8883118307872
      ],
      [
        "Cur",
        -8.889232003808338
      ],
      [
        "íortha",
        -8.890484821346057
      ],
      [
        "gcoinne",
        -8.890649687012987
      ],
      [
        "Más",
        -8.89124168562935
      ],
      [
        "lucht",
        -8.892463495145023
      ],
      [
        "thaobh",
        -8.894100573166517
      ],
      [
        "bun",
        -8.89782995298304
      ],
      [
        "31",
        -8.898327925507221
      ],
      [
        "Ghaeilge",
        -8.900230873188413
      ],
      [
        "inniu",
        -8.900480335738642
      ],
      [
        "laghad",
        -8.901509023542921
      ],
      [
        "siúl",
        -8.90167851815676
      ],
      [
        "fhonn",
        -8.903069309859127
      ],
      [
        "comh",
        -8.903217213679339
      ],
      [
        "álta",
        -8.90847298333102
      ],
      [
        "breise",
        -8.909162713514053
      ],
      [
        "chruthú",
        -8.909171469695474
      ],
      [
        "eadh",
        -8.909826079766404
      ],
      [
        "cuireadh",
        -8.910926107716858
      ],
      [
        "chinntiú",
        -8.911096554874138
      ],
      [
        "CE",
        -8.911120194224946
      ],
      [
        "bhféadfa",
        -8.914424094813183
      ],
      [
        "chineál",
        -8.914848217662101
      ],
      [
        "ndia",
        -8.917536890272197
      ],
      [
        "déan",
        -8.917618321255606
      ],
      [
        "éileamh",
        -8.922762471647719
      ],
      [
        "ghnáth",
        -8.922929467373004
      ],
      [
        "Sláinte",
        -8.925013854370247
      ],
      [
        "gnó",
        -8.925033065885273
      ],
      [
        "huine",
        -8.925260593757283
      ],
      [
        "27",
        -8.92635544119846
      ],
      [
        "fé",
        -8.932250173820215
      ],
      [
        "Seo",
        -8.937947171179822
      ],
      [
        "cánach",
        -8.938186887221079
      ],
      [
        "leathan",
        -8.938394372621794
      ],
      [
        "Gach",
        -8.939837570746457
      ],
      [
        "taighde",
        -8.941173710364183
      ],
      [
        "H",
        -8.941759984494507
      ],
      [
        "dtugta",
        -8.943605254708952
      ],
      [
        "forbairt",
        -8.94401194944301
      ],
      [
        "Aibreá",
        -8.946487205930442
      ],
      [
        "meaisín",
        -8.950848147192286
      ],
      [
        "riachtanais",
        -8.951080674003823
      ],
      [
        "dhéanta",
        -8.951364756525566
      ],
      [
        "rochtain",
        -8.953736357463498
      ],
      [
        "Beal",
        -8.954096570423568
      ],
      [
        "rinne",
        -8.954165268901452
      ],
      [
        "leanbh",
        -8.954851536974392
      ],
      [
        "28",
        -8.960142331485644
      ],
      [
        "Bainfi",
        -8.960976314622993
      ],
      [
        "talamh",
        -8.961913538763577
      ],
      [
        "Meán",
        -8.964546344425093
      ],
      [
        "liosta",
        -8.97130063971778
      ],
      [
        "Treoir",
        -8.973867130592584
      ],
      [
        "porno",
        -8.974275303904856
      ],
      [
        "tír",
        -8.975372087609465
      ],
      [
        "+",
        -8.975697704971548
      ],
      [
        "cona",
        -8.977448952408608
      ],
      [
        "aistriú",
        -8.977965818991903
      ],
      [
        "údar",
        -8.980199715664407
      ],
      [
        "29",
        -8.98027000835316
      ],
      [
        "Á",
        -8.98232304349854
      ],
      [
        "bunaidh",
        -8.98338705283244
      ],
      [
        "Coiste",
        -8.984012939504003
      ],
      [
        "tapa",
        -8.98477268551608
      ],
      [
        "tábhachtach",
        -8.985387169238784
      ],
      [
        "Údarás",
        -8.986773473916415
      ],
      [
        "50",
        -8.992992323557353
      ],
      [
        "rialú",
        -8.997326280172533
      ],
      [
        "léinn",
        -9.002970372760284
      ],
      [
        "dhiai",
        -9.004488869438095
      ],
      [
        "Oideacha",
        -9.007650174458586
      ],
      [
        "hosm",
        -9.008908825452895
      ],
      [
        "V",
        -9.009802299882455
      ],
      [
        "comhlacht",
        -9.010416755047835
      ],
      [
        "Chomh",
        -9.011285971588872
      ],
      [
        "amhail",
        -9.013578812917643
      ],
      [
        "margadh",
        -9.015974053381846
      ],
      [
        "seirbhíse",
        -9.017572714844908
      ],
      [
        "fhaisnéis",
        -9.017923688173894
      ],
      [
        "uaithe",
        -9.020194271877148
      ],
      [
        "thíos",
        -9.020631676233608
      ],
      [
        "aird",
        -9.022731550465327
      ],
      [
        "bhonn",
        -9.022861730076997
      ],
      [
        "íocaíocht",
        -9.026140040513916
      ],
      [
        "nádúrtha",
        -9.027415483914233
      ],
      [
        "domhan",
        -9.02848300387178
      ],
      [
        "Moncler",
        -9.030936477416077
      ],
      [
        "realamh",
        -9.032427179876365
      ],
      [
        "urtha",
        -9.033412727757197
      ],
      [
        "mbliana",
        -9.034180198000204
      ],
      [
        "Sonraí",
        -9.034716319544415
      ],
      [
        "acmhainn",
        -9.038272207195458
      ],
      [
        "monaróir",
        -9.041536581587557
      ],
      [
        "Faoi",
        -9.045592670428682
      ],
      [
        "airde",
        -9.046064349796978
      ],
      [
        "sásta",
        -9.052370496528791
      ],
      [
        "Do",
        -9.054962591614736
      ],
      [
        "Coimisinéir",
        -9.05606122031723
      ],
      [
        ".”",
        -9.056814136903899
      ],
      [
        "riachtanach",
        -9.057373555896305
      ],
      [
        "tioncha",
        -9.057704716171317
      ],
      [
        "ábhartha",
        -9.061704847771082
      ],
      [
        "fhios",
        -9.061967292662949
      ],
      [
        "Casino",
        -9.062423904008597
      ],
      [
        "gurb",
        -9.064431791090641
      ],
      [
        "léi",
        -9.06512189486801
      ],
      [
        "2012",
        -9.066735228825552
      ],
      [
        "dara",
        -9.067091126197838
      ],
      [
        "Soláthraithe",
        -9.071047171997515
      ],
      [
        "mlíne",
        -9.071143526891454
      ],
      [
        "k",
        -9.071219872154757
      ],
      [
        "freastal",
        -9.076322588084414
      ],
      [
        "aimseartha",
        -9.076634320301626
      ],
      [
        "Ionca",
        -9.076715463709036
      ],
      [
        "scoile",
        -9.07762150839342
      ],
      [
        "Gaeltachta",
        -9.077767437652396
      ],
      [
        "oibriú",
        -9.079054627161986
      ],
      [
        "Máirt",
        -9.087549979179837
      ],
      [
        "iméad",
        -9.089929794105291
      ],
      [
        "Chúirt",
        -9.090294538581595
      ],
      [
        "íseal",
        -9.094009446848569
      ],
      [
        "chomhlíona",
        -9.095126191823073
      ],
      [
        "scoileanna",
        -9.096921005810113
      ],
      [
        "léiriú",
        -9.098562647217022
      ],
      [
        "deis",
        -9.09928621634684
      ],
      [
        "cead",
        -9.100910023573228
      ],
      [
        "sula",
        -9.102631313782354
      ],
      [
        "cumhachta",
        -9.102690205892682
      ],
      [
        "glacad",
        -9.103152471000167
      ],
      [
        "Aon",
        -9.104430271096648
      ],
      [
        "comhrá",
        -9.105907798355656
      ],
      [
        "Ean",
        -9.107835731295738
      ],
      [
        "Eanái",
        -9.107904150057887
      ],
      [
        "iarracht",
        -9.108638567275047
      ],
      [
        "iompar",
        -9.109392781344198
      ],
      [
        "arís",
        -9.110702673124916
      ],
      [
        "próiseas",
        -9.113145322337186
      ],
      [
        "oinneáil",
        -9.113197122648575
      ],
      [
        "mheas",
        -9.113372344194868
      ],
      [
        "2020",
        -9.11589136260009
      ],
      [
        "Déanfa",
        -9.118093797598402
      ],
      [
        "ionas",
        -9.11844874249528
      ],
      [
        "gh",
        -9.120142886063444
      ],
      [
        "scríbhinn",
        -9.121327948227014
      ],
      [
        "clips",
        -9.121557471706318
      ],
      [
        "úsáidtea",
        -9.124031665909131
      ],
      [
        "chomhalta",
        -9.125321279630311
      ],
      [
        "úil",
        -9.126041298152153
      ],
      [
        "bhfad",
        -9.127792814170217
      ],
      [
        "éigin",
        -9.128249775521681
      ],
      [
        "soláthraí",
        -9.129176953739748
      ],
      [
        "naisc",
        -9.13033218479586
      ],
      [
        "leasú",
        -9.132956764965078
      ],
      [
        "mbun",
        -9.13399250497558
      ],
      [
        "taithí",
        -9.13443918708785
      ],
      [
        "ginearálta",
        -9.135046698706772
      ],
      [
        "Grúpa",
        -9.136340888399952
      ],
      [
        "chuirea",
        -9.141766034792468
      ],
      [
        "fás",
        -9.141848846551069
      ],
      [
        "Saor",
        -9.141878399286918
      ],
      [
        "chuir",
        -9.142959997537053
      ],
      [
        "Eoraip",
        -9.143026058991191
      ],
      [
        "Sceideal",
        -9.14434980174562
      ],
      [
        "airgi",
        -9.144606443476206
      ],
      [
        "aici",
        -9.149799268302424
      ],
      [
        "aitheanta",
        -9.15182984203302
      ],
      [
        "Th",
        -9.153781399826197
      ],
      [
        "gníomh",
        -9.155907398647965
      ],
      [
        "eoladh",
        -9.156266427200698
      ],
      [
        "soláthar",
        -9.156448955786693
      ],
      [
        "trádála",
        -9.159442462831604
      ],
      [
        "abhair",
        -9.160186460326333
      ],
      [
        "tuarascá",
        -9.162686578154887
      ],
      [
        "réiteach",
        -9.162856121249693
      ],
      [
        "seomra",
        -9.163520290866455
      ],
      [
        "thora",
        -9.16371885397075
      ],
      [
        "Comment",
        -9.16600259763648
      ],
      [
        "reatha",
        -9.16806359812631
      ],
      [
        "cláraithe",
        -9.17108980127062
      ],
      [
        "oideachais",
        -9.171838114360856
      ],
      [
        "níl",
        -9.171895179190745
      ],
      [
        "Cluich",
        -9.173694875449144
      ],
      [
        "minic",
        -9.173793006404956
      ],
      [
        "load",
        -9.174079911290391
      ],
      [
        "lorg",
        -9.175465647689624
      ],
      [
        "faisnéise",
        -9.175532324968874
      ],
      [
        "faidh",
        -9.176523121397405
      ],
      [
        "Contae",
        -9.17722407909352
      ],
      [
        "chinneadh",
        -9.177616367338889
      ],
      [
        "ndearna",
        -9.17789359691946
      ],
      [
        "chaitheam",
        -9.178029450532334
      ],
      [
        "éard",
        -9.184553336021146
      ],
      [
        "tháinig",
        -9.185301927374875
      ],
      [
        "Faigh",
        -9.189183378287378
      ],
      [
        "Bealtai",
        -9.190462773774424
      ],
      [
        "Londa",
        -9.19080856251777
      ],
      [
        "Leasú",
        -9.19096947206504
      ],
      [
        "téarma",
        -9.191285037775376
      ],
      [
        "ansin",
        -9.19378954315459
      ],
      [
        "K",
        -9.19449799842953
      ],
      [
        "shuíomh",
        -9.195030590851152
      ],
      [
        "bharr",
        -9.195209719290977
      ],
      [
        "2009",
        -9.196646501025448
      ],
      [
        "heiceáil",
        -9.2051295773448
      ],
      [
        "Rialtais",
        -9.206310323842407
      ],
      [
        "íocaíochta",
        -9.208278761367277
      ],
      [
        "thraigh",
        -9.212415618231692
      ],
      [
        "cuspóir",
        -9.213819412329304
      ],
      [
        "bhaile",
        -9.214227310305937
      ],
      [
        "Aghaidh",
        -9.216245924503095
      ],
      [
        "Nollaig",
        -9.21950041559427
      ],
      [
        "gcrích",
        -9.219748216215264
      ],
      [
        "cás",
        -9.220374502685278
      ],
      [
        "Samh",
        -9.225323342822119
      ],
      [
        "2011",
        -9.229341301296742
      ],
      [
        "úsáideoir",
        -9.230080044452587
      ],
      [
        "comhaont",
        -9.230279817583247
      ],
      [
        "laist",
        -9.2319722996832
      ],
      [
        "athbhreithniú",
        -9.232171471424962
      ],
      [
        "sampla",
        -9.232677920955949
      ],
      [
        "Maidi",
        -9.233247669123097
      ],
      [
        "ocal",
        -9.233497017779293
      ],
      [
        "ifigeach",
        -9.233708139567337
      ],
      [
        "deimhniú",
        -9.2344995077435
      ],
      [
        "óga",
        -9.236878602777491
      ],
      [
        "simplí",
        -9.237925143585088
      ],
      [
        "neart",
        -9.24094681925509
      ],
      [
        "bheadh",
        -9.241987953218633
      ],
      [
        "toisc",
        -9.245506094789121
      ],
      [
        "togra",
        -9.246971454273098
      ],
      [
        "tíre",
        -9.24864004831533
      ],
      [
        "grúpa",
        -9.248698786025962
      ],
      [
        "gCoimisiún",
        -9.253740687347417
      ],
      [
        "fanacht",
        -9.254266441483992
      ],
      [
        "ionann",
        -9.2550230885716
      ],
      [
        "limisté",
        -9.256271172418298
      ],
      [
        "tuga",
        -9.259526016391955
      ],
      [
        "údará",
        -9.262329338748255
      ],
      [
        "dhíol",
        -9.265020123381598
      ],
      [
        "áirithi",
        -9.2682292416743
      ],
      [
        "sraith",
        -9.272404352525236
      ],
      [
        "Liosta",
        -9.272966749365507
      ],
      [
        "álainn",
        -9.274335316168674
      ],
      [
        "ríomhaire",
        -9.276134140293363
      ],
      [
        "scannáin",
        -9.277382997588376
      ],
      [
        "Scéim",
        -9.278569170206506
      ],
      [
        "suim",
        -9.281427968509808
      ],
      [
        "thart",
        -9.281843185278003
      ],
      [
        "*",
        -9.28239688492414
      ],
      [
        "gcomparáid",
        -9.283491843771264
      ],
      [
        "leagt",
        -9.284337377045391
      ],
      [
        "líonadh",
        -9.285529595398902
      ],
      [
        "imid",
        -9.285579257058199
      ],
      [
        "críche",
        -9.286875459095695
      ],
      [
        "Scoil",
        -9.289418449125545
      ],
      [
        "malairte",
        -9.291025497713537
      ],
      [
        "costais",
        -9.292371695553532
      ],
      [
        "sóisialta",
        -9.294247990025426
      ],
      [
        "luath",
        -9.294889996010916
      ],
      [
        "agtha",
        -9.296346417948943
      ],
      [
        "fada",
        -9.296609719682444
      ],
      [
        "For",
        -9.298253300131634
      ],
      [
        "earnáil",
        -9.298606930497293
      ],
      [
        "príomh",
        -9.29939292798345
      ],
      [
        "shonraí",
        -9.302249609816762
      ],
      [
        "sábháilteacht",
        -9.304770121958
      ],
      [
        "tacú",
        -9.305377432720329
      ],
      [
        "dath",
        -9.30552961572258
      ],
      [
        "dhearna",
        -9.307041515347635
      ],
      [
        "fáilte",
        -9.308686237452482
      ],
      [
        "Dá",
        -9.309042290662344
      ],
      [
        "snáithe",
        -9.310326665496877
      ],
      [
        "II",
        -9.310475042882075
      ],
      [
        "Meith",
        -9.31048783131083
      ],
      [
        "mná",
        -9.311922637000855
      ],
      [
        "siú",
        -9.313193644288638
      ],
      [
        "stíl",
        -9.313374722032837
      ],
      [
        "ndáiríre",
        -9.31442035480531
      ],
      [
        "dhéanfa",
        -9.316489687271401
      ],
      [
        "Bhaile",
        -9.317409333939278
      ],
      [
        "slí",
        -9.321218888725204
      ],
      [
        "v",
        -9.321269049850542
      ],
      [
        "thug",
        -9.32311092638381
      ],
      [
        "x",
        -9.325066335637757
      ],
      [
        "Noll",
        -9.32586246400922
      ],
      [
        "déanfaid",
        -9.327197773821892
      ],
      [
        "Nais",
        -9.329619906438786
      ],
      [
        "Déanta",
        -9.330448132222555
      ],
      [
        "ghlac",
        -9.33167412883055
      ],
      [
        "léamh",
        -9.332066596176839
      ],
      [
        "saothair",
        -9.334326609594875
      ],
      [
        "etc",
        -9.335635944506894
      ],
      [
        "ceadúna",
        -9.335904124034418
      ],
      [
        "forbartha",
        -9.338316273979558
      ],
      [
        "dtaca",
        -9.338589568572706
      ],
      [
        "luaite",
        -9.339404079481586
      ],
      [
        "choimeád",
        -9.339415423242475
      ],
      [
        "ionca",
        -9.340210130482934
      ],
      [
        "uathoibríoch",
        -9.342934072070786
      ],
      [
        "cúig",
        -9.343017359079106
      ],
      [
        "áitiúla",
        -9.343111533511191
      ],
      [
        "féadfa",
        -9.343779350934408
      ],
      [
        "Mór",
        -9.343851261308846
      ],
      [
        "phobal",
        -9.345216970879699
      ],
      [
        "tank",
        -9.346381460858236
      ],
      [
        "scileanna",
        -9.346431797897615
      ],
      [
        "bhunú",
        -9.34669584258953
      ],
      [
        "osaigh",
        -9.346786484465115
      ],
      [
        "Físeá",
        -9.34713661962438
      ],
      [
        "ról",
        -9.349153076135448
      ],
      [
        "chumhacht",
        -9.349530330078519
      ],
      [
        "Cuirea",
        -9.350148825490876
      ],
      [
        "nós",
        -9.350485406051089
      ],
      [
        "freagrach",
        -9.350519139541472
      ],
      [
        "múinteoir",
        -9.350750871082958
      ],
      [
        "hAcht",
        -9.35190088948678
      ],
      [
        "Ealaíon",
        -9.35252807033038
      ],
      [
        "uimhir",
        -9.352751420269403
      ],
      [
        "cheangal",
        -9.353164621194562
      ],
      [
        "díol",
        -9.356160693151322
      ],
      [
        "artha",
        -9.356204240753815
      ],
      [
        "thoil",
        -9.357792898414894
      ],
      [
        "Seol",
        -9.359289495007772
      ],
      [
        "ríomh",
        -9.360562468331475
      ],
      [
        "athair",
        -9.361142381958294
      ],
      [
        "tharla",
        -9.361448524256495
      ],
      [
        "chugai",
        -9.363109218345446
      ],
      [
        "mhéadú",
        -9.365149194437052
      ],
      [
        "•",
        -9.367646892025508
      ],
      [
        "cosaint",
        -9.368793798653446
      ],
      [
        "cha",
        -9.368849534101177
      ],
      [
        "réidh",
        -9.368897243394478
      ],
      [
        "365",
        -9.369542894628548
      ],
      [
        "thugann",
        -9.374856607374344
      ],
      [
        "cúna",
        -9.37497315404691
      ],
      [
        "eisteanna",
        -9.375806830172076
      ],
      [
        "00",
        -9.375951991320639
      ],
      [
        "min",
        -9.376921639324937
      ],
      [
        "2010",
        -9.37705233737498
      ],
      [
        "eithre",
        -9.377854735679662
      ],
      [
        "fheidhmiú",
        -9.378054569156149
      ],
      [
        "teach",
        -9.379001737143678
      ],
      [
        "cosanta",
        -9.379421055964263
      ],
      [
        "dháta",
        -9.379626826076489
      ],
      [
        "Ríocht",
        -9.381368161573427
      ],
      [
        "áin",
        -9.385533507678161
      ],
      [
        "institiúid",
        -9.388761732458253
      ],
      [
        "fáth",
        -9.38931604795656
      ],
      [
        "oibreoir",
        -9.393963982040038
      ],
      [
        "Ireland",
        -9.39469924736898
      ],
      [
        "leanúnach",
        -9.395741041812514
      ],
      [
        "cuairt",
        -9.39679198261152
      ],
      [
        "íoctha",
        -9.397335972403248
      ],
      [
        "aidhm",
        -9.39743158549576
      ],
      [
        "ráitea",
        -9.39749393846793
      ],
      [
        "Éire",
        -9.398073545006401
      ],
      [
        "iompai",
        -9.398555858440874
      ],
      [
        "phost",
        -9.39901417690561
      ],
      [
        "w",
        -9.401933876225243
      ],
      [
        "ola",
        -9.403221482211798
      ],
      [
        "lae",
        -9.4048862458673
      ],
      [
        "fén",
        -9.405738368457591
      ],
      [
        "spraoi",
        -9.408531751833518
      ],
      [
        "níoctha",
        -9.411833746123804
      ],
      [
        "Chuid",
        -9.414062879280348
      ],
      [
        "sonraithe",
        -9.415148087207578
      ],
      [
        "dochar",
        -9.417114424934613
      ],
      [
        "phoiblí",
        -9.417141379373653
      ],
      [
        "agam",
        -9.419830805971234
      ],
      [
        "blianta",
        -9.42097075207609
      ],
      [
        "tástála",
        -9.421133399370134
      ],
      [
        "fh",
        -9.422580694359027
      ],
      [
        "oifige",
        -9.425746519451215
      ],
      [
        "dóigh",
        -9.425885156109494
      ],
      [
        "fianaise",
        -9.427441855877245
      ],
      [
        "Líne",
        -9.427529890904967
      ],
      [
        "leabhar",
        -9.427879914883004
      ],
      [
        "éifeachtach",
        -9.428503987790847
      ],
      [
        "ainneoin",
        -9.429590864675932
      ],
      [
        "thaga",
        -9.430400029827146
      ],
      [
        "húsáid",
        -9.432520404136335
      ],
      [
        "dáileoir",
        -9.43328478019589
      ],
      [
        "dhéanfaid",
        -9.43337196417555
      ],
      [
        "láidir",
        -9.433687480128405
      ],
      [
        "doiciméad",
        -9.434093993093787
      ],
      [
        "soiléir",
        -9.434111427607208
      ],
      [
        "Aib",
        -9.437712630950838
      ],
      [
        "oghanna",
        -9.437861428779861
      ],
      [
        "méadú",
        -9.439955978734957
      ],
      [
        "molta",
        -9.444938642978634
      ],
      [
        "Taispeáin",
        -9.446208509562753
      ],
      [
        "crua",
        -9.44630148510613
      ],
      [
        "fuair",
        -9.446397447068767
      ],
      [
        "Lún",
        -9.446864834331596
      ],
      [
        "Choimisiún",
        -9.447481095177615
      ],
      [
        "eas",
        -9.447906065112893
      ],
      [
        "bogearra",
        -9.450706864492524
      ],
      [
        "uirlis",
        -9.451021324620005
      ],
      [
        "Roimh",
        -9.451171961388726
      ],
      [
        "riamh",
        -9.453119201527418
      ],
      [
        "éadaí",
        -9.453728665178069
      ],
      [
        "£",
        -9.456555564216252
      ],
      [
        "®",
        -9.4583803817345
      ],
      [
        "Díle",
        -9.460885990892882
      ],
      [
        "chu",
        -9.460896509052379
      ],
      [
        "chumas",
        -9.462160189839118
      ],
      [
        "páist",
        -9.462286235326033
      ],
      [
        "scaireann",
        -9.46243048844669
      ],
      [
        "anailís",
        -9.462670355991442
      ],
      [
        "chúis",
        -9.46275250539876
      ],
      [
        "mobi",
        -9.463421329770014
      ],
      [
        "fhágáil",
        -9.465844741426075
      ],
      [
        "cion",
        -9.467860553920342
      ],
      [
        "treoir",
        -9.468362879683273
      ],
      [
        "dteagmhá",
        -9.468450718039197
      ],
      [
        "onaid",
        -9.469200003706318
      ],
      [
        "Cathrach",
        -9.469640968199354
      ],
      [
        "W",
        -9.474753764857017
      ],
      [
        "siopa",
        -9.474903671789994
      ],
      [
        "mbíonn",
        -9.477373933333908
      ],
      [
        "pé",
        -9.477830582970967
      ],
      [
        "fhéadfa",
        -9.479480101631204
      ],
      [
        "son",
        -9.482886765267732
      ],
      [
        "toiliú",
        -9.483101246539338
      ],
      [
        "Tar",
        -9.483323750202313
      ],
      [
        "fuinnimh",
        -9.484752404241908
      ],
      [
        "scrúdú",
        -9.484892233403611
      ],
      [
        "óir",
        -9.485353383043119
      ],
      [
        "mbeid",
        -9.488058547946316
      ],
      [
        "2008",
        -9.48862097922941
      ],
      [
        "measfa",
        -9.489082880050065
      ],
      [
        "fhoireann",
        -9.490353100695877
      ],
      [
        "caillteana",
        -9.490392345355497
      ],
      [
        "gcomhair",
        -9.493767859233769
      ],
      [
        "mBallstá",
        -9.49486099313443
      ],
      [
        "Tuarascá",
        -9.494934559360239
      ],
      [
        "video",
        -9.495335707939121
      ],
      [
        "comhair",
        -9.496584331200793
      ],
      [
        "meáchan",
        -9.497492826882276
      ],
      [
        "Ch",
        -9.498748557436599
      ],
      [
        "staid",
        -9.499061502198607
      ],
      [
        "thógá",
        -9.499755404241409
      ],
      [
        "cóip",
        -9.500492619919324
      ],
      [
        "eacnamaíoch",
        -9.503176537751248
      ],
      [
        "foirne",
        -9.503250106746481
      ],
      [
        "Poiblí",
        -9.503284071376676
      ],
      [
        "cionn",
        -9.503301513238199
      ],
      [
        "téacs",
        -9.504047981828109
      ],
      [
        "Ciste",
        -9.506679790743963
      ],
      [
        "bhrái",
        -9.507213482288725
      ],
      [
        "Electronics",
        -9.507451857518557
      ],
      [
        "fhor",
        -9.507530204949001
      ],
      [
        "Fáilte",
        -9.5085246447928
      ],
      [
        "eagraíochta",
        -9.510061640704853
      ],
      [
        "Phríomh",
        -9.510522478667266
      ],
      [
        "reachtaíocht",
        -9.510916639310235
      ],
      [
        "comhairle",
        -9.51255982910797
      ],
      [
        "tuismitheoir",
        -9.512756321314587
      ],
      [
        "raon",
        -9.513854189809644
      ],
      [
        "uirthi",
        -9.513946950830995
      ],
      [
        "us",
        -9.515362560186459
      ],
      [
        "mBan",
        -9.516539954617304
      ],
      [
        "dtagraí",
        -9.51661303591639
      ],
      [
        "Clár",
        -9.51782288397407
      ],
      [
        "páirteach",
        -9.519232079133829
      ],
      [
        "úirt",
        -9.519532383164357
      ],
      [
        "post",
        -9.52123203746088
      ],
      [
        "chluich",
        -9.522384449599029
      ],
      [
        "tionscadal",
        -9.522623898097805
      ],
      [
        "milliú",
        -9.522877159400053
      ],
      [
        "tóir",
        -9.526335140693512
      ],
      [
        "Ná",
        -9.52868779076423
      ],
      [
        "céim",
        -9.528855671121466
      ],
      [
        "ochair",
        -9.5289404283151
      ],
      [
        "Rialtas",
        -9.530537566587657
      ],
      [
        "iarrthóir",
        -9.530548499961556
      ],
      [
        "ligean",
        -9.531612355617444
      ],
      [
        "ceallra",
        -9.534291354089131
      ],
      [
        "réimsí",
        -9.53495042848218
      ],
      [
        "ullmhú",
        -9.535085489657092
      ],
      [
        "Áitiúil",
        -9.535250710230255
      ],
      [
        "orbartha",
        -9.535839522055436
      ],
      [
        "Trádála",
        -9.536309344626273
      ],
      [
        "fach",
        -9.537420930143366
      ],
      [
        "ruinniú",
        -9.53758584026819
      ],
      [
        "tionsca",
        -9.541077664576278
      ],
      [
        "):",
        -9.541167572875631
      ],
      [
        "feabhas",
        -9.542677437762382
      ],
      [
        "spreaga",
        -9.543400850737742
      ],
      [
        "faire",
        -9.544276824781067
      ],
      [
        "40",
        -9.544589065358085
      ],
      [
        "cuma",
        -9.545601864618517
      ],
      [
        "Sóisialta",
        -9.546187259877227
      ],
      [
        "Leanaí",
        -9.546518461699314
      ],
      [
        "saoire",
        -9.547125649812305
      ],
      [
        "cód",
        -9.54809559962873
      ],
      [
        "coitianta",
        -9.549829309584435
      ],
      [
        "bosca",
        -9.550208009948577
      ],
      [
        "iniúchadh",
        -9.551281387149995
      ],
      [
        "Lúnasa",
        -9.552250317842233
      ],
      [
        "barr",
        -9.552672225275037
      ],
      [
        "Ina",
        -9.55333523335111
      ],
      [
        "lasmu",
        -9.55383910877018
      ],
      [
        "plean",
        -9.55541656809341
      ],
      [
        "cúram",
        -9.556424918774164
      ],
      [
        "Táirgí",
        -9.558363416920036
      ],
      [
        "dír",
        -9.558641786645094
      ],
      [
        "cruinn",
        -9.55990556878872
      ],
      [
        "ndéanta",
        -9.559965236827642
      ],
      [
        "fhógra",
        -9.56021974933126
      ],
      [
        "rialta",
        -9.560963221352416
      ],
      [
        "abhrú",
        -9.561626752421411
      ],
      [
        "deirid",
        -9.562317902129283
      ],
      [
        "chéanna",
        -9.562614012823339
      ],
      [
        "achomharc",
        -9.562878154580929
      ],
      [
        "cúis",
        -9.564402336253098
      ],
      [
        "gcuideachta",
        -9.56635572876309
      ],
      [
        "Tag",
        -9.567888154821004
      ],
      [
        "seachtaine",
        -9.569025250166796
      ],
      [
        "Leab",
        -9.569973223355102
      ],
      [
        "bán",
        -9.570573426638319
      ],
      [
        ".—",
        -9.571006455905426
      ],
      [
        "imreoir",
        -9.571053047305934
      ],
      [
        "ionscadail",
        -9.571308803057171
      ],
      [
        "díobh",
        -9.572816314845543
      ],
      [
        "isce",
        -9.574717408674616
      ],
      [
        "cathrach",
        -9.581960760623774
      ],
      [
        "costas",
        -9.582227638019
      ],
      [
        "Dún",
        -9.582582203464582
      ],
      [
        "téarmaí",
        -9.583091047646192
      ],
      [
        "fostaíochta",
        -9.583476625817145
      ],
      [
        "sábháilte",
        -9.58433474426856
      ],
      [
        "chuirte",
        -9.589123140350836
      ],
      [
        "feidhmeanna",
        -9.58923286503192
      ],
      [
        "phobai",
        -9.589433689180858
      ],
      [
        "lár",
        -9.59016669733103
      ],
      [
        "Samhai",
        -9.590628193893554
      ],
      [
        "mid",
        -9.593889386020845
      ],
      [
        "iúil",
        -9.59608483151991
      ],
      [
        "cabhr",
        -9.596369112713765
      ],
      [
        "soláthraithe",
        -9.597278786939878
      ],
      [
        "talún",
        -9.597408736343379
      ],
      [
        "shóisial",
        -9.597521284795615
      ],
      [
        "thaispeáint",
        -9.59764991932508
      ],
      [
        "SMS",
        -9.597854337917127
      ],
      [
        "gcomhairle",
        -9.59790287885403
      ],
      [
        "cumas",
        -9.598711898187762
      ],
      [
        "X",
        -9.598860735799308
      ],
      [
        "Eachtrach",
        -9.59940596074053
      ],
      [
        "tháirgea",
        -9.601058210898785
      ],
      [
        "Bhor",
        -9.601900529362954
      ],
      [
        "oiliúint",
        -9.603218520946045
      ],
      [
        "feidhmiú",
        -9.603720750376944
      ],
      [
        "kash",
        -9.604341561953355
      ],
      [
        "ghnó",
        -9.604350327840354
      ],
      [
        "fostaithe",
        -9.604623813825652
      ],
      [
        "gruaige",
        -9.604625157389286
      ],
      [
        "Trí",
        -9.604986072790961
      ],
      [
        "éir",
        -9.605082069993923
      ],
      [
        "AN",
        -9.605223540012595
      ],
      [
        "gnáth",
        -9.60568140193402
      ],
      [
        "suite",
        -9.606012508679346
      ],
      [
        "cineálach",
        -9.606340046109684
      ],
      [
        "Bain",
        -9.606502473413762
      ],
      [
        "cearta",
        -9.60832096168819
      ],
      [
        "teangacha",
        -9.60845260381872
      ],
      [
        "bhfoirm",
        -9.609028184102954
      ],
      [
        "fhoghlaim",
        -9.609580079629282
      ],
      [
        "scéal",
        -9.609936962604543
      ],
      [
        "suntasach",
        -9.609947559939103
      ],
      [
        "Baineann",
        -9.61021816476913
      ],
      [
        "cuirfid",
        -9.611406303279749
      ],
      [
        "Mura",
        -9.614498210345111
      ],
      [
        "straitéis",
        -9.61581729736621
      ],
      [
        "chéim",
        -9.617753380150354
      ],
      [
        "oideachas",
        -9.61834419229053
      ],
      [
        "cláir",
        -9.618852943030767
      ],
      [
        "bíonn",
        -9.620672659335032
      ],
      [
        "saincheaptha",
        -9.622206851786997
      ],
      [
        "fhoirm",
        -9.622431300429053
      ],
      [
        "ath",
        -9.622789794222507
      ],
      [
        "dtagra",
        -9.623804064086466
      ],
      [
        "leictreacha",
        -9.624260927125665
      ],
      [
        "damáiste",
        -9.625078334325163
      ],
      [
        "faide",
        -9.626054512529153
      ],
      [
        "cárta",
        -9.628137901004504
      ],
      [
        "grianghra",
        -9.62948187656
      ],
      [
        "áitreabh",
        -9.630141872352795
      ],
      [
        "2007",
        -9.63120036832165
      ],
      [
        "iarratasóir",
        -9.631417104024182
      ],
      [
        "seilbh",
        -9.631435562362284
      ],
      [
        "199",
        -9.635095804889321
      ],
      [
        "oíche",
        -9.635157892674126
      ],
      [
        "theannta",
        -9.635705103555058
      ],
      [
        "dubh",
        -9.63672309416966
      ],
      [
        "bhearta",
        -9.636845882732771
      ],
      [
        "smaoinea",
        -9.637655569522138
      ],
      [
        "bheas",
        -9.640429025215482
      ],
      [
        "ealach",
        -9.641009827780223
      ],
      [
        "udaí",
        -9.64122850030611
      ],
      [
        "dár",
        -9.642154074448008
      ],
      [
        "pobail",
        -9.642366068246332
      ],
      [
        "thuas",
        -9.64243407792857
      ],
      [
        "196",
        -9.642435791948438
      ],
      [
        "ghabha",
        -9.642705980514574
      ],
      [
        "Uimhir",
        -9.643005197524305
      ],
      [
        "slándá",
        -9.643585349081157
      ],
      [
        "mac",
        -9.643646488221098
      ],
      [
        "gclár",
        -9.64567385452369
      ],
      [
        "Leis",
        -9.647323930500576
      ],
      [
        "Freagra",
        -9.648170151572197
      ],
      [
        "fir",
        -9.64824582698075
      ],
      [
        "brath",
        -9.648641325181877
      ],
      [
        "Uachtarán",
        -9.650950456525477
      ],
      [
        "Ionad",
        -9.652511588760937
      ],
      [
        "chomhaont",
        -9.653517502833825
      ],
      [
        "Cúirte",
        -9.653856889728168
      ],
      [
        "nósann",
        -9.654559079545402
      ],
      [
        "teocht",
        -9.654760814632997
      ],
      [
        "gníomhú",
        -9.655884631383678
      ],
      [
        "News",
        -9.656993145629635
      ],
      [
        "oscailte",
        -9.657132315972103
      ],
      [
        "Parlaimint",
        -9.657529217092357
      ],
      [
        "Plean",
        -9.658290142404944
      ],
      [
        "eagraíocht",
        -9.65882672171654
      ],
      [
        "Óga",
        -9.661041059724473
      ],
      [
        "Lá",
        -9.661902518747056
      ],
      [
        "oscailt",
        -9.662769021751092
      ],
      [
        "teastá",
        -9.663354913469838
      ],
      [
        "oiread",
        -9.664577218879735
      ],
      [
        "Níor",
        -9.664969870624118
      ],
      [
        "Dlí",
        -9.665749308441839
      ],
      [
        "breis",
        -9.666163204519094
      ],
      [
        "eaptha",
        -9.666466839181565
      ],
      [
        "Q",
        -9.66791435257342
      ],
      [
        "úinéir",
        -9.668641057375375
      ],
      [
        "ghrúpa",
        -9.67046263780616
      ],
      [
        "Gnéas",
        -9.67051325682841
      ],
      [
        "chion",
        -9.672369010977274
      ],
      [
        "Ollscoil",
        -9.67425679841225
      ],
      [
        "Bhallstá",
        -9.674473344066563
      ],
      [
        "irt",
        -9.674707209875955
      ],
      [
        "struchtúr",
        -9.676731740492905
      ],
      [
        "bhailiú",
        -9.677454191019557
      ],
      [
        "che",
        -9.677501870053762
      ],
      [
        "tacaíochta",
        -9.677967580767739
      ],
      [
        "sheirbhís",
        -9.67988465856767
      ],
      [
        "chaoi",
        -9.681676527959937
      ],
      [
        "lainne",
        -9.682234787828792
      ],
      [
        "branda",
        -9.682485334648021
      ],
      [
        "traidisiún",
        -9.684958308294002
      ],
      [
        "inmheánach",
        -9.685247480328478
      ],
      [
        "líonra",
        -9.687382787520434
      ],
      [
        "eimhin",
        -9.687438194026463
      ],
      [
        "dtús",
        -9.687441761731677
      ],
      [
        "Cruach",
        -9.68844828856583
      ],
      [
        "Vicipéid",
        -9.689546869462689
      ],
      [
        "cúrsaí",
        -9.689819182784356
      ],
      [
        "beo",
        -9.691057529984569
      ],
      [
        "Seinn",
        -9.691454458758031
      ],
      [
        "tús",
        -9.691508916540428
      ],
      [
        "chatagóir",
        -9.691856199726473
      ],
      [
        "Táimid",
        -9.692204610531324
      ],
      [
        "iseanna",
        -9.693540989383015
      ],
      [
        "doiciméid",
        -9.693722387896113
      ],
      [
        "abháil",
        -9.697233259664461
      ],
      [
        "shocrú",
        -9.697531585661581
      ],
      [
        "oiliúna",
        -9.698330954356614
      ],
      [
        "rádáil",
        -9.699652021913725
      ],
      [
        "abairt",
        -9.700425431769048
      ],
      [
        "Leas",
        -9.701360402215993
      ],
      [
        "cairde",
        -9.70155528532931
      ],
      [
        "500",
        -9.701719801639047
      ],
      [
        "J",
        -9.702085486549556
      ],
      [
        "ceanglai",
        -9.705587071503768
      ],
      [
        "rialaithe",
        -9.707118287150049
      ],
      [
        "altaí",
        -9.710008417171766
      ],
      [
        "leighis",
        -9.710355629498512
      ],
      [
        "leictreonach",
        -9.710566405477554
      ],
      [
        "liúnta",
        -9.710813963180444
      ],
      [
        "ainmnithe",
        -9.71132428532077
      ],
      [
        "rún",
        -9.71141832800395
      ],
      [
        "Choiste",
        -9.71301631999869
      ],
      [
        "glan",
        -9.713050135398252
      ],
      [
        "Dubh",
        -9.71322944266537
      ],
      [
        "bunúsach",
        -9.713381435406777
      ],
      [
        "cuirfea",
        -9.714076639336938
      ],
      [
        "orainn",
        -9.714170655190152
      ],
      [
        "fola",
        -9.714567586574834
      ],
      [
        "Cánach",
        -9.715533079983661
      ],
      [
        "maoiniú",
        -9.717067798875085
      ],
      [
        "iontu",
        -9.717402504686824
      ],
      [
        "éirí",
        -9.717633037515018
      ],
      [
        "eicniúil",
        -9.717830371084084
      ],
      [
        "gheobhaid",
        -9.71928570124553
      ],
      [
        "brú",
        -9.719505885967088
      ],
      [
        "cheapad",
        -9.720835108661076
      ],
      [
        "chosc",
        -9.721605578737424
      ],
      [
        "mórdhíol",
        -9.723180451720935
      ],
      [
        "éisteacht",
        -9.724044325537925
      ],
      [
        "ham",
        -9.724386121110978
      ],
      [
        "co",
        -9.72640878248193
      ],
      [
        "aighdeáin",
        -9.72674705256314
      ],
      [
        "ainmhithe",
        -9.726965971725523
      ],
      [
        "Cliceáil",
        -9.727843360823012
      ],
      [
        "dromchla",
        -9.7298725726172
      ],
      [
        "Chonra",
        -9.730331093086871
      ],
      [
        "measúnú",
        -9.73078088093738
      ],
      [
        "tuairim",
        -9.73112801155061
      ],
      [
        "Bille",
        -9.73151060799895
      ],
      [
        "tuiscint",
        -9.732256927832758
      ],
      [
        "réasúnach",
        -9.732289101641184
      ],
      [
        "clárú",
        -9.732784840017032
      ],
      [
        "rdaoin",
        -9.733483118220228
      ],
      [
        "teicneolaíocht",
        -9.734161519158715
      ],
      [
        "tugtha",
        -9.734286286031754
      ],
      [
        "mhaithe",
        -9.734614639227683
      ],
      [
        "teaghla",
        -9.734944080958948
      ],
      [
        "comhlachta",
        -9.735597846609732
      ],
      [
        "chláir",
        -9.736073665907622
      ],
      [
        "mhargadh",
        -9.73607547467608
      ],
      [
        "60",
        -9.736874836560204
      ],
      [
        "shlí",
        -9.736982943731952
      ],
      [
        "z",
        -9.73860938058568
      ],
      [
        "ly",
        -9.73920042134315
      ],
      [
        "Rogh",
        -9.739458493149503
      ],
      [
        "nochta",
        -9.739607787347442
      ],
      [
        "ionstraim",
        -9.740140690267072
      ],
      [
        "foirm",
        -9.741035363028587
      ],
      [
        "dearg",
        -9.742068245359008
      ],
      [
        "chóras",
        -9.743839543751946
      ],
      [
        "fhiosrúchá",
        -9.744006333111884
      ],
      [
        "feiceáil",
        -9.744263670382406
      ],
      [
        "j",
        -9.744790092641736
      ],
      [
        "Dara",
        -9.745142645468833
      ],
      [
        "bpraghas",
        -9.746599244866957
      ],
      [
        "scéalta",
        -9.746858884639817
      ],
      [
        "leabhair",
        -9.747301476195588
      ],
      [
        "cúpla",
        -9.748892198815202
      ],
      [
        "tseirbhís",
        -9.75045310963684
      ],
      [
        "gceart",
        -9.750765831650167
      ],
      [
        "Astráil",
        -9.751265768431878
      ],
      [
        "grá",
        -9.751399140856211
      ],
      [
        "caite",
        -9.752404921886445
      ],
      [
        "sean",
        -9.752500522373062
      ],
      [
        "stiúir",
        -9.753886971077378
      ],
      [
        "hub",
        -9.754075847710592
      ],
      [
        "Cuid",
        -9.754818021488514
      ],
      [
        "Céadaoin",
        -9.756236085612958
      ],
      [
        "Scileann",
        -9.756311720561309
      ],
      [
        "ceamara",
        -9.756674229337015
      ],
      [
        "leath",
        -9.75679849108794
      ],
      [
        "thairiscint",
        -9.758965923490436
      ],
      [
        "iasacht",
        -9.759799202048798
      ],
      [
        "u8",
        -9.759977444492513
      ],
      [
        "Factor",
        -9.76224061546635
      ],
      [
        "eoidh",
        -9.763042160923202
      ],
      [
        "seasamh",
        -9.763871300919188
      ],
      [
        "cumhacht",
        -9.76461854621419
      ],
      [
        "ord",
        -9.765756925587468
      ],
      [
        "Déagóir",
        -9.766489962546451
      ],
      [
        "liceáil",
        -9.770531823500736
      ],
      [
        "ifigiúil",
        -9.770622514630835
      ],
      [
        "core",
        -9.771013534390509
      ],
      [
        "solas",
        -9.771408326608013
      ],
      [
        "cu",
        -9.773097924731509
      ],
      [
        "Chiste",
        -9.77356866866626
      ],
      [
        "siar",
        -9.774206503533819
      ],
      [
        "staidéar",
        -9.775050705257488
      ],
      [
        "bainistíocht",
        -9.77608552613318
      ],
      [
        "eisiúint",
        -9.777761808860065
      ],
      [
        "Príomh",
        -9.777975387589422
      ],
      [
        "osach",
        -9.778739716510362
      ],
      [
        "ardchaighdeán",
        -9.780164306301554
      ],
      [
        "ollmhór",
        -9.781102998819922
      ],
      [
        "gcur",
        -9.781593973240852
      ],
      [
        "2006",
        -9.781733245739947
      ],
      [
        "Súil",
        -9.781944987996027
      ],
      [
        "amuigh",
        -9.782003273133899
      ],
      [
        "Stiúrthóir",
        -9.783711769824496
      ],
      [
        "Déanfai",
        -9.784175996809452
      ],
      [
        "tharraingt",
        -9.78478302636102
      ],
      [
        "Theas",
        -9.784932887344004
      ],
      [
        "stair",
        -9.785037647995324
      ],
      [
        "prionsaba",
        -9.786154266041931
      ],
      [
        "cáin",
        -9.787312786937221
      ],
      [
        "riarachá",
        -9.78780571471065
      ],
      [
        "dheon",
        -9.789514111405145
      ],
      [
        "dearmad",
        -9.791213498721504
      ],
      [
        "Cás",
        -9.792058307726919
      ],
      [
        "éidir",
        -9.792832757984614
      ],
      [
        "chaillea",
        -9.793932910358267
      ],
      [
        "chustaiméir",
        -9.794132004605046
      ],
      [
        "óige",
        -9.794426617465284
      ],
      [
        "fhéid",
        -9.794928514094998
      ],
      [
        "gleic",
        -9.79643104210173
      ],
      [
        "infheistíochta",
        -9.797493265203611
      ],
      [
        "Féadfa",
        -9.799302153187206
      ],
      [
        "Táirge",
        -9.799554837750687
      ],
      [
        "dom",
        -9.800016368182611
      ],
      [
        "chomhair",
        -9.80055468801481
      ],
      [
        "ball",
        -9.80170406243574
      ],
      [
        "cuir",
        -9.802062534161852
      ],
      [
        "NA",
        -9.804065182295528
      ],
      [
        "uathúil",
        -9.804082355121363
      ],
      [
        "fhaigheann",
        -9.80408437821571
      ],
      [
        "pictiúir",
        -9.806019145744923
      ],
      [
        "leibhé",
        -9.806438501870785
      ],
      [
        "tairiscint",
        -9.808660169500683
      ],
      [
        "cuidiú",
        -9.8093932300614
      ],
      [
        "infheidhme",
        -9.80945063986188
      ],
      [
        "Tit",
        -9.81154571183924
      ],
      [
        "flash",
        -9.811738940140934
      ],
      [
        "Choimisiúin",
        -9.814409380639407
      ],
      [
        "sonrach",
        -9.814411569382383
      ],
      [
        "mba",
        -9.815731327511205
      ],
      [
        "oibleagáid",
        -9.81635439326057
      ],
      [
        "choiste",
        -9.81690949186638
      ],
      [
        "Siar",
        -9.81705854765546
      ],
      [
        "lámh",
        -9.817210142936863
      ],
      [
        "mion",
        -9.817404288466383
      ],
      [
        "todhchaí",
        -9.819040715367782
      ],
      [
        "asal",
        -9.821202838287043
      ],
      [
        "dtabharfa",
        -9.82460755195461
      ],
      [
        "cheanta",
        -9.82498169016985
      ],
      [
        "fheidhm",
        -9.825901194053486
      ],
      [
        "ócáid",
        -9.826296729388986
      ],
      [
        "gné",
        -9.826419872551735
      ],
      [
        "réamh",
        -9.826764114443723
      ],
      [
        "Institiúid",
        -9.829493178929305
      ],
      [
        "bhua",
        -9.830662756507103
      ],
      [
        "aistrithe",
        -9.830674366091749
      ],
      [
        "Mórdhíol",
        -9.83232526748802
      ],
      [
        "parlaiminteach",
        -9.832886990901812
      ],
      [
        "adhmai",
        -9.83418102723992
      ],
      [
        "meán",
        -9.836180349799196
      ],
      [
        "San",
        -9.83806985128857
      ],
      [
        "phróiseáil",
        -9.83809621094812
      ],
      [
        "críoch",
        -9.840309240523478
      ],
      [
        "foghlaim",
        -9.842709589817824
      ],
      [
        "taifead",
        -9.843568333124653
      ],
      [
        "scrío",
        -9.847595283042136
      ],
      [
        "cuarda",
        -9.848581668486949
      ],
      [
        "Gréasá",
        -9.848889311226813
      ],
      [
        "ioncai",
        -9.849154404305857
      ],
      [
        "Déantóir",
        -9.84956352932696
      ],
      [
        "seach",
        -9.850246639472815
      ],
      [
        "eacha",
        -9.850556983380503
      ],
      [
        "Ábhar",
        -9.85142649390502
      ],
      [
        "tuairisc",
        -9.851453722374348
      ],
      [
        "frith",
        -9.851989930556243
      ],
      [
        "pháist",
        -9.852415368937608
      ],
      [
        "bail",
        -9.852649278781652
      ],
      [
        "bhreise",
        -9.853269866842775
      ],
      [
        "leasa",
        -9.854168853887417
      ],
      [
        "córa",
        -9.854687497350222
      ],
      [
        "gléas",
        -9.854934706532685
      ],
      [
        "cuirea",
        -9.855978070997445
      ],
      [
        "déag",
        -9.856004775355
      ],
      [
        "Oidhreachta",
        -9.85938084277472
      ],
      [
        "Sean",
        -9.860196610594183
      ],
      [
        "deartha",
        -9.860209404347113
      ],
      [
        "Dhún",
        -9.860745718636679
      ],
      [
        "luas",
        -9.860965299770825
      ],
      [
        "Seirbhíse",
        -9.861388073486374
      ],
      [
        "tráchtála",
        -9.861548724645273
      ],
      [
        "Oideachas",
        -9.86190238095779
      ],
      [
        "pois",
        -9.862242736602997
      ],
      [
        "gcuirfea",
        -9.862964612326882
      ],
      [
        "húdará",
        -9.863302701869848
      ],
      [
        "bronntana",
        -9.863786347554296
      ],
      [
        "soláthróir",
        -9.863995886926391
      ],
      [
        "aithint",
        -9.864238286881811
      ],
      [
        "Roinne",
        -9.864283981108123
      ],
      [
        "Sraith",
        -9.86538792931879
      ],
      [
        "taitneamh",
        -9.865674393781498
      ],
      [
        "comhai",
        -9.867322832670848
      ],
      [
        "Éabhlóid",
        -9.867963375239125
      ],
      [
        "friotaíocht",
        -9.867977739118965
      ],
      [
        "Chontae",
        -9.867994776645112
      ],
      [
        "gcion",
        -9.869116587227957
      ],
      [
        "grianghraf",
        -9.86952721241671
      ],
      [
        "stiúrthóir",
        -9.869621186936715
      ],
      [
        "imeacht",
        -9.870006463389789
      ],
      [
        "phríomh",
        -9.870069621424843
      ],
      [
        "réitigh",
        -9.870126998727446
      ],
      [
        "héasca",
        -9.871295597990201
      ],
      [
        "éisteachta",
        -9.871392870409258
      ],
      [
        "nuas",
        -9.871998107297294
      ],
      [
        "cuntas",
        -9.87267583686732
      ],
      [
        "foirfe",
        -9.873631937792801
      ],
      [
        "Cláraigh",
        -9.874455476212734
      ],
      [
        "héann",
        -9.874546934542465
      ],
      [
        "shaol",
        -9.874555024410576
      ],
      [
        "cheist",
        -9.878319528605545
      ],
      [
        "lonnaithe",
        -9.879093340592853
      ],
      [
        "Hard",
        -9.879627682261802
      ],
      [
        "leictreach",
        -9.879647152767586
      ],
      [
        "gcomhar",
        -9.879811482110675
      ],
      [
        "neamhspleách",
        -9.880006811287558
      ],
      [
        "bhreis",
        -9.880119762995264
      ],
      [
        "200",
        -9.883319181633501
      ],
      [
        "gáis",
        -9.885231938775405
      ],
      [
        "habháil",
        -9.885749930370164
      ],
      [
        "fadhbanna",
        -9.885983234100152
      ],
      [
        "sheachai",
        -9.887228959412145
      ],
      [
        "baile",
        -9.887288025476577
      ],
      [
        "nGall",
        -9.887297398835516
      ],
      [
        "sperm",
        -9.88730824967475
      ],
      [
        "194",
        -9.887309618648404
      ],
      [
        "$",
        -9.88731006763005
      ],
      [
        "ealaín",
        -9.887353492014444
      ],
      [
        "páirtí",
        -9.888049482848936
      ],
      [
        "2003",
        -9.888103024851674
      ],
      [
        "ísle",
        -9.889664498939975
      ],
      [
        "Bainistíocht",
        -9.890245985696538
      ],
      [
        "gairmiúla",
        -9.890483131014307
      ],
      [
        "”.",
        -9.891613852716963
      ],
      [
        "rang",
        -9.89285664383932
      ],
      [
        "u4",
        -9.893158097016414
      ],
      [
        "tiomanta",
        -9.893416433199633
      ],
      [
        "Tabhair",
        -9.894106570242714
      ],
      [
        "uait",
        -9.89485183898708
      ],
      [
        "áillí",
        -9.894968098365624
      ],
      [
        "thréimhse",
        -9.895766748806533
      ],
      [
        "Scoile",
        -9.895848817990071
      ],
      [
        "eicniúla",
        -9.895883279084668
      ],
      [
        "farraig",
        -9.896614789901914
      ],
      [
        "ghairm",
        -9.897007678697843
      ],
      [
        "Alt",
        -9.898144004303779
      ],
      [
        "35",
        -9.901302407834233
      ],
      [
        "tástáil",
        -9.903820868783711
      ],
      [
        "chóipeáil",
        -9.904124800764844
      ],
      [
        "Cailín",
        -9.90463326298054
      ],
      [
        "phraghas",
        -9.90613497360777
      ],
      [
        "New",
        -9.906479750969375
      ],
      [
        "Monaróir",
        -9.907406205955073
      ],
      [
        "beart",
        -9.91052095038703
      ],
      [
        "bainte",
        -9.910683247949713
      ],
      [
        "ghearra",
        -9.912465986337454
      ],
      [
        "ogadh",
        -9.912743402780785
      ],
      [
        "timpeall",
        -9.912833212583047
      ],
      [
        "himeachta",
        -9.913565067250904
      ],
      [
        "socru",
        -9.915631850381345
      ],
      [
        "sreang",
        -9.91573867369553
      ],
      [
        "mhalairt",
        -9.915862568746782
      ],
      [
        "Eolas",
        -9.915870347336694
      ],
      [
        "aimsiú",
        -9.915898765422575
      ],
      [
        "taispeáint",
        -9.916159496376892
      ],
      [
        "lárnach",
        -9.91763807727732
      ],
      [
        "cailíní",
        -9.91770053868993
      ],
      [
        "Cuirfi",
        -9.917963169384095
      ],
      [
        "forleathan",
        -9.919577272430221
      ],
      [
        "mhaoin",
        -9.919817444845444
      ],
      [
        "Gan",
        -9.921308485409906
      ],
      [
        "tuairimí",
        -9.921312397411562
      ],
      [
        "thugta",
        -9.92135675419585
      ],
      [
        "hordú",
        -9.921414857693016
      ],
      [
        "teorainn",
        -9.921605030420125
      ],
      [
        "bua",
        -9.921734643147335
      ],
      [
        "phróisea",
        -9.922815983850565
      ],
      [
        "dliteana",
        -9.92348263023339
      ],
      [
        "iontaofa",
        -9.924344633695343
      ],
      [
        "talmhaíocht",
        -9.927508187711123
      ],
      [
        "cáilíocht",
        -9.927518288883224
      ],
      [
        "pleanála",
        -9.927629593335787
      ],
      [
        "É",
        -9.927779166968406
      ],
      [
        "Bóna",
        -9.927844942396014
      ],
      [
        "mhodh",
        -9.929095007550853
      ],
      [
        "riachtana",
        -9.929176904148402
      ],
      [
        "planda",
        -9.929810044412887
      ],
      [
        "teicneolaíochta",
        -9.930184058991435
      ],
      [
        "fág",
        -9.930359389711501
      ],
      [
        "bás",
        -9.930605805523474
      ],
      [
        "trína",
        -9.931737807824
      ],
      [
        "spóirt",
        -9.93196526837468
      ],
      [
        "Daoin",
        -9.932473424741264
      ],
      [
        "Bhoir",
        -9.933631777430065
      ],
      [
        "bhain",
        -9.93558914464677
      ],
      [
        "cúirte",
        -9.935839359324124
      ],
      [
        "dirnáisiúnta",
        -9.936877649056672
      ],
      [
        "CUID",
        -9.937360046413222
      ],
      [
        "bhean",
        -9.937618231230498
      ],
      [
        "cailín",
        -9.938309281309255
      ],
      [
        "bord",
        -9.940414883959232
      ],
      [
        "ardú",
        -9.940549008515273
      ],
      [
        "red",
        -9.940935219177087
      ],
      [
        "bhainisti",
        -9.9414251077989
      ],
      [
        "Monarcha",
        -9.94219243214317
      ],
      [
        "Talmhaíocht",
        -9.942248385132785
      ],
      [
        "buan",
        -9.943475954998018
      ],
      [
        "sprioc",
        -9.945559635304024
      ],
      [
        "gairmiú",
        -9.945743851288587
      ],
      [
        "caithfi",
        -9.945905805794084
      ],
      [
        "Domhna",
        -9.946750189171347
      ],
      [
        "aire",
        -9.947162916817987
      ],
      [
        "monarcha",
        -9.94761833817297
      ],
      [
        "onn",
        -9.948208167808787
      ],
      [
        "u12",
        -9.949400563258756
      ],
      [
        "óirí",
        -9.94987194392581
      ],
      [
        "athru",
        -9.950321308643925
      ],
      [
        "ghnóth",
        -9.951146078216135
      ],
      [
        "leathnú",
        -9.951754664959584
      ],
      [
        "suimiú",
        -9.954217563811184
      ],
      [
        "cuirtea",
        -9.954273999805128
      ],
      [
        "u2",
        -9.954708179318859
      ],
      [
        "cáiliú",
        -9.95527093867763
      ],
      [
        "pacáiste",
        -9.956595694829943
      ],
      [
        "Google",
        -9.957105681664205
      ],
      [
        "mic",
        -9.95795478347117
      ],
      [
        "gearr",
        -9.958480028035455
      ],
      [
        "triail",
        -9.9594962117575
      ],
      [
        "Teanga",
        -9.96108544872151
      ],
      [
        "íneáil",
        -9.961475582943333
      ],
      [
        "ngach",
        -9.962082751803376
      ],
      [
        "céad",
        -9.962458989096794
      ],
      [
        "uaireadóirí",
        -9.963399842318065
      ],
      [
        "osaitheoir",
        -9.964535339529382
      ],
      [
        "Nuacht",
        -9.965001155173434
      ],
      [
        "Speisialta",
        -9.966167537721478
      ],
      [
        "cib",
        -9.966470578250078
      ],
      [
        "Síochána",
        -9.967776331616424
      ],
      [
        "laethú",
        -9.96799566354495
      ],
      [
        "éagsúlacht",
        -9.96829109915889
      ],
      [
        "Foirm",
        -9.968528737414482
      ],
      [
        "íriú",
        -9.969229837626997
      ],
      [
        "ndéana",
        -9.970025326856907
      ],
      [
        "dathanna",
        -9.970482024537464
      ],
      [
        "be",
        -9.971132855626731
      ],
      [
        "fuaime",
        -9.972038715691806
      ],
      [
        "foireann",
        -9.972966254188492
      ],
      [
        "foráil",
        -9.973446823398135
      ],
      [
        "cáilithe",
        -9.974611518632393
      ],
      [
        "aice",
        -9.97493341063387
      ],
      [
        "OÉ",
        -9.975562796723331
      ],
      [
        "tosú",
        -9.976770915735564
      ],
      [
        "spás",
        -9.977097965178192
      ],
      [
        "stáit",
        -9.978050603828873
      ],
      [
        "ngníomh",
        -9.978336484188134
      ],
      [
        "Iarscríbhinn",
        -9.97882709873171
      ],
      [
        "ghabh",
        -9.980350352482889
      ],
      [
        "aisíoc",
        -9.980834159563942
      ],
      [
        "teasa",
        -9.981319814603408
      ],
      [
        "Praghas",
        -9.98145746255792
      ],
      [
        "táimid",
        -9.981458856700034
      ],
      [
        "custaiméir",
        -9.983373037703284
      ],
      [
        "Bia",
        -9.983745664122022
      ],
      [
        "Bailiúchá",
        -9.983807688859567
      ],
      [
        "réasúnta",
        -9.984784805481436
      ],
      [
        "fhoráil",
        -9.985193215595913
      ],
      [
        "cónaí",
        -9.986148488656
      ],
      [
        "Dúin",
        -9.986543353136678
      ],
      [
        "oibrithe",
        -9.986731640740352
      ],
      [
        "stáin",
        -9.986970310236993
      ],
      [
        "tháirgí",
        -9.987040516081178
      ],
      [
        "sheachada",
        -9.987230754645378
      ],
      [
        "seachtrach",
        -9.9874784349707
      ],
      [
        "Pobail",
        -9.987648634185291
      ],
      [
        "III",
        -9.987719259791056
      ],
      [
        "compordach",
        -9.987908558457894
      ],
      [
        "choinníoll",
        -9.988594656647642
      ],
      [
        "fhoilsiú",
        -9.989068952337574
      ],
      [
        "gearán",
        -9.989690495689615
      ],
      [
        "próiseála",
        -9.991569710500404
      ],
      [
        "dleacht",
        -9.992064153902607
      ],
      [
        "níor",
        -9.99299537143643
      ],
      [
        "iarr",
        -9.994452055370564
      ],
      [
        "Afraic",
        -9.996991857119877
      ],
      [
        "Taighde",
        -9.997162647427938
      ],
      [
        "plé",
        -9.997211244920326
      ],
      [
        "leithéid",
        -9.997404416500355
      ],
      [
        "Ltd",
        -9.997705901876436
      ],
      [
        "lacha",
        -9.998045887025446
      ],
      [
        "u3",
        -9.99976224814969
      ],
      [
        "Aibí",
        -9.999900188615882
      ],
      [
        "eacair",
        -9.999924089244018
      ],
      [
        "buntáist",
        -10.000638397440536
      ],
      [
        "déileáil",
        -10.002026140469079
      ],
      [
        "domhanda",
        -10.002354683268598
      ],
      [
        "seachtain",
        -10.003572357297905
      ],
      [
        "ainmniú",
        -10.004328540782183
      ],
      [
        "difriú",
        -10.005259535522555
      ],
      [
        "eiseanna",
        -10.005776156065506
      ],
      [
        "scaoilea",
        -10.005784347093364
      ],
      [
        "Meaisín",
        -10.006420340035572
      ],
      [
        "University",
        -10.00642297930374
      ],
      [
        "lámha",
        -10.007840574589043
      ],
      [
        "Aistriúchá",
        -10.008545116838679
      ],
      [
        "achtachá",
        -10.009094401112073
      ],
      [
        "infheistíocht",
        -10.009599933199198
      ],
      [
        "Oifigiúil",
        -10.01016156046602
      ],
      [
        "45",
        -10.011422382557669
      ],
      [
        "socrú",
        -10.011851596349143
      ],
      [
        "Leasa",
        -10.012228218591858
      ],
      [
        "theacht",
        -10.013402276972808
      ],
      [
        "Éireannach",
        -10.013581241689224
      ],
      [
        "National",
        -10.01423662532817
      ],
      [
        "Bearta",
        -10.014411720701512
      ],
      [
        "láimh",
        -10.01511941118972
      ],
      [
        "Fearr",
        -10.015569356405155
      ],
      [
        "ion",
        -10.016172287182886
      ],
      [
        "tomhaltóir",
        -10.016206397212692
      ],
      [
        "cásann",
        -10.017255522472736
      ],
      [
        "Ord",
        -10.018104472877983
      ],
      [
        "mheán",
        -10.018958695588829
      ],
      [
        "bliantúil",
        -10.01913997275745
      ],
      [
        "Nío",
        -10.019873456422346
      ],
      [
        "Mac",
        -10.020213268697589
      ],
      [
        "uinneamh",
        -10.021076829865468
      ],
      [
        "chead",
        -10.021253152872665
      ],
      [
        "gceann",
        -10.022811030753285
      ],
      [
        "chomhlacht",
        -10.023508565856421
      ],
      [
        "u5",
        -10.024526014368698
      ],
      [
        "shábháil",
        -10.024548002322536
      ],
      [
        "céimeanna",
        -10.025414579123511
      ],
      [
        "chorp",
        -10.027821357447662
      ],
      [
        "dócha",
        -10.028908685257615
      ],
      [
        "raiceann",
        -10.029138988277564
      ],
      [
        "réigiún",
        -10.029891348422783
      ],
      [
        "sócmhainn",
        -10.030371724881297
      ],
      [
        "oibríochta",
        -10.030386976142989
      ],
      [
        "Céim",
        -10.03047065377072
      ],
      [
        "gníomhach",
        -10.030971618273245
      ],
      [
        "gcuirtea",
        -10.03137672005971
      ],
      [
        "chothabháil",
        -10.03226000265828
      ],
      [
        "fiosrúchá",
        -10.032461797879664
      ],
      [
        "Faisnéise",
        -10.032726402414072
      ],
      [
        "Coláist",
        -10.033541504186505
      ],
      [
        "ndóigh",
        -10.035436340172186
      ],
      [
        "cheadú",
        -10.035741337988277
      ],
      [
        "ionadaithe",
        -10.036981712714065
      ],
      [
        "táille",
        -10.037036134266145
      ],
      [
        "Úsáid",
        -10.037428301761926
      ],
      [
        "pinsean",
        -10.038828801836775
      ],
      [
        "01",
        -10.038886332006738
      ],
      [
        "bpróifíl",
        -10.04010502241661
      ],
      [
        "stáisiú",
        -10.041190735938823
      ],
      [
        "aicme",
        -10.041564970188242
      ],
      [
        "Suíomh",
        -10.041796281849678
      ],
      [
        "Uisce",
        -10.042065652735765
      ],
      [
        "chúirt",
        -10.042092066008115
      ],
      [
        "slán",
        -10.042348787316875
      ],
      [
        "80",
        -10.042791575529659
      ],
      [
        "Idir",
        -10.044342751179807
      ],
      [
        "Ráta",
        -10.045344736353794
      ],
      [
        "hAoi",
        -10.045690078224313
      ],
      [
        "bunaío",
        -10.045866760174029
      ],
      [
        "Oireachta",
        -10.046159156845363
      ],
      [
        "scála",
        -10.04816353157619
      ],
      [
        "páipéar",
        -10.048458748192566
      ],
      [
        "liúntais",
        -10.048494918386169
      ],
      [
        "mhonarcha",
        -10.0485365725891
      ],
      [
        "riosca",
        -10.0489538505318
      ],
      [
        "deich",
        -10.049295798916688
      ],
      [
        "tv",
        -10.049443298337579
      ],
      [
        "gluaiseacht",
        -10.049709243718986
      ],
      [
        "u6",
        -10.049910935804338
      ],
      [
        "dearbhú",
        -10.05204872548336
      ],
      [
        "treorach",
        -10.052138478790548
      ],
      [
        "stát",
        -10.052927534702675
      ],
      [
        "Comhshao",
        -10.053290082813234
      ],
      [
        "thuillead",
        -10.053540033595441
      ],
      [
        "mbeala",
        -10.053650138976927
      ],
      [
        "maoin",
        -10.054370565410014
      ],
      [
        "phearsanta",
        -10.054536724333019
      ],
      [
        "beala",
        -10.054980786822851
      ],
      [
        "gloine",
        -10.055503999068872
      ],
      [
        "foghlama",
        -10.056095003582843
      ],
      [
        "léas",
        -10.056573628251462
      ],
      [
        "néithe",
        -10.0571565607474
      ],
      [
        "Chosaint",
        -10.058307209686133
      ],
      [
        "Video",
        -10.059243065792785
      ],
      [
        "°",
        -10.059504258111488
      ],
      [
        "Réigiún",
        -10.059707214385227
      ],
      [
        "fón",
        -10.060611966247619
      ],
      [
        "English",
        -10.061444603911912
      ],
      [
        "inbhuanaithe",
        -10.06155782476835
      ],
      [
        "reáchtáil",
        -10.061633746365695
      ],
      [
        "soláthair",
        -10.06199271328405
      ],
      [
        "Oibre",
        -10.062057268559823
      ],
      [
        "dhíth",
        -10.063253122512657
      ],
      [
        "36",
        -10.06363786056265
      ],
      [
        "orm",
        -10.063706451896108
      ],
      [
        "gúna",
        -10.06531347226477
      ],
      [
        "tairbhe",
        -10.06562999613486
      ],
      [
        "2000",
        -10.065655408985513
      ],
      [
        "fhág",
        -10.066110737383319
      ],
      [
        "Jackets",
        -10.068111508258937
      ],
      [
        "imní",
        -10.068308721650226
      ],
      [
        "2004",
        -10.069021405780793
      ],
      [
        "Córa",
        -10.06952731292094
      ],
      [
        "shuiteáil",
        -10.069613303006061
      ],
      [
        "údarú",
        -10.069901587741558
      ],
      [
        "fhéadf",
        -10.071150499521227
      ],
      [
        "Forbairt",
        -10.07141796602377
      ],
      [
        "pointe",
        -10.071544606397342
      ],
      [
        "bog",
        -10.073299146055971
      ],
      [
        "Ár",
        -10.074233281777325
      ],
      [
        "aonad",
        -10.074287521468914
      ],
      [
        "laíonn",
        -10.074515502140406
      ],
      [
        "net",
        -10.07470075123102
      ],
      [
        "codann",
        -10.074960727533867
      ],
      [
        "Chéad",
        -10.075403283227978
      ],
      [
        "mhéad",
        -10.075819263182492
      ],
      [
        "Imir",
        -10.075871264042313
      ],
      [
        "Síne",
        -10.076308568570782
      ],
      [
        "caiteacha",
        -10.07672847555575
      ],
      [
        "nglacfa",
        -10.07741075553742
      ],
      [
        "teoranta",
        -10.079173130303401
      ],
      [
        "píosa",
        -10.079534001642568
      ],
      [
        "Fostaíochta",
        -10.079990012981167
      ],
      [
        "timpeallacht",
        -10.080828236315194
      ],
      [
        "oibreacha",
        -10.081006517008685
      ],
      [
        "nuacht",
        -10.08127441862626
      ],
      [
        "sheol",
        -10.083099034789441
      ],
      [
        "Tugt",
        -10.084833089369676
      ],
      [
        "u9",
        -10.084993662585813
      ],
      [
        "teannta",
        -10.08545756853922
      ],
      [
        "bonn",
        -10.085469729082877
      ],
      [
        "theasta",
        -10.085916049763606
      ],
      [
        "eireadh",
        -10.08649497824715
      ],
      [
        "tiomána",
        -10.088788039949733
      ],
      [
        "2001",
        -10.088944502713874
      ],
      [
        "cinntí",
        -10.090530954091246
      ],
      [
        "athanna",
        -10.091202128841543
      ],
      [
        "ocht",
        -10.09120330425073
      ],
      [
        "Leabhar",
        -10.091453635239152
      ],
      [
        "70",
        -10.09231540343498
      ],
      [
        "ifear",
        -10.09360093740748
      ],
      [
        "u14",
        -10.093839950521758
      ],
      [
        "roghna",
        -10.09406121405561
      ],
      [
        "cuntais",
        -10.094908730652495
      ],
      [
        "dlite",
        -10.0954248487148
      ],
      [
        "fhadhb",
        -10.095606871625197
      ],
      [
        "Thuaidh",
        -10.095665975066684
      ],
      [
        "Ráite",
        -10.095892219246341
      ],
      [
        "méadar",
        -10.097030622153476
      ],
      [
        "tionscna",
        -10.09707118955297
      ],
      [
        "Act",
        -10.097426698816719
      ],
      [
        "saineola",
        -10.097819324306668
      ],
      [
        "beatha",
        -10.098005455839697
      ],
      [
        "digiteach",
        -10.099071117225526
      ],
      [
        "inbh",
        -10.099579490388992
      ],
      [
        "cruth",
        -10.100577759304336
      ],
      [
        "rannpháirtíocht",
        -10.101369693963619
      ],
      [
        "teorainneacha",
        -10.10143382145732
      ],
      [
        "meas",
        -10.101665819236246
      ],
      [
        "saothar",
        -10.102470428687962
      ],
      [
        "ur",
        -10.103860336334396
      ],
      [
        "tíotáiniam",
        -10.104046546648485
      ],
      [
        "inár",
        -10.104570520660776
      ],
      [
        "thos",
        -10.104595229325128
      ],
      [
        "·",
        -10.106003938652279
      ],
      [
        "beagán",
        -10.107024400008005
      ],
      [
        "cheangla",
        -10.108282513904134
      ],
      [
        "scáileá",
        -10.109550639269678
      ],
      [
        "smaointe",
        -10.111715536502299
      ],
      [
        "intinn",
        -10.112691326363844
      ],
      [
        "Iris",
        -10.114770596271939
      ],
      [
        "Léirío",
        -10.115092706234876
      ],
      [
        "ultúrtha",
        -10.116314439567384
      ],
      [
        "Threesome",
        -10.11653045050666
      ],
      [
        "chomhlachta",
        -10.117214867239264
      ],
      [
        "coiste",
        -10.117746247608377
      ],
      [
        "cleachta",
        -10.118085460384508
      ],
      [
        "sealbhóir",
        -10.11866327720412
      ],
      [
        "Sola",
        -10.118812030883936
      ],
      [
        "plaisteach",
        -10.118987722390322
      ],
      [
        "tithíocht",
        -10.120069132482243
      ],
      [
        "Gnó",
        -10.121373734040722
      ],
      [
        "taisteal",
        -10.122827631171251
      ],
      [
        "éifeachta",
        -10.123374243386534
      ],
      [
        "able",
        -10.123597673041466
      ],
      [
        "u10",
        -10.123913947061457
      ],
      [
        "ionadaí",
        -10.124024133751032
      ],
      [
        "gCoimisinéir",
        -10.124259654868649
      ],
      [
        "Údarái",
        -10.126914669517568
      ],
      [
        "thuiscint",
        -10.127112396635432
      ],
      [
        "phlean",
        -10.127395889859752
      ],
      [
        "Deara",
        -10.127731689545513
      ],
      [
        "stóráil",
        -10.128171046030628
      ],
      [
        "bhforáilte",
        -10.129445597819771
      ],
      [
        "gov",
        -10.130394693619536
      ],
      [
        "Ógla",
        -10.132567348867973
      ],
      [
        "éag",
        -10.133881082880286
      ],
      [
        "breá",
        -10.134879397243385
      ],
      [
        "stoc",
        -10.135312775467668
      ],
      [
        "Phen",
        -10.135341784674125
      ],
      [
        "iasc",
        -10.136337798430333
      ],
      [
        "2005",
        -10.137190849914212
      ],
      [
        "muirear",
        -10.137651504795304
      ],
      [
        "Phoibl",
        -10.137922516349523
      ],
      [
        "720",
        -10.139161513890546
      ],
      [
        "Eo",
        -10.139435109772863
      ],
      [
        "iotail",
        -10.14023178813498
      ],
      [
        "bpointe",
        -10.140359169912323
      ],
      [
        "bpobal",
        -10.140553303609389
      ],
      [
        "Teach",
        -10.141449623870297
      ],
      [
        "eráide",
        -10.141919098797331
      ],
      [
        "Roghna",
        -10.142240728966211
      ],
      [
        "stádas",
        -10.142571737096711
      ],
      [
        "Irish",
        -10.143436402849868
      ],
      [
        "beaga",
        -10.144839758983395
      ],
      [
        "tirim",
        -10.146075046265889
      ],
      [
        "chothú",
        -10.148969517022948
      ],
      [
        "chontae",
        -10.150195833884096
      ],
      [
        "Fostaíocht",
        -10.150826828026526
      ],
      [
        "Z",
        -10.151022031371408
      ],
      [
        "Chat",
        -10.151022396963864
      ],
      [
        "Mheiriceá",
        -10.15125284800762
      ],
      [
        "chúrsa",
        -10.152416971524612
      ],
      [
        "sealadach",
        -10.152494261207728
      ],
      [
        "aistriúchá",
        -10.154964770734
      ],
      [
        "eagrú",
        -10.155177160530947
      ],
      [
        "cht",
        -10.15597497532426
      ],
      [
        "éascú",
        -10.156334120962864
      ],
      [
        "ois",
        -10.157585626534118
      ],
      [
        "shláinte",
        -10.15779643856272
      ],
      [
        "meáchain",
        -10.157881352772511
      ],
      [
        "othair",
        -10.15895171151029
      ],
      [
        "comhoiriúnacht",
        -10.1592999818787
      ],
      [
        "»",
        -10.159780277793168
      ],
      [
        "pobal",
        -10.160338219609816
      ],
      [
        "sheiceáil",
        -10.160831659492594
      ],
      [
        "deireanach",
        -10.161404485618196
      ],
      [
        "óthair",
        -10.161922152240543
      ],
      [
        "fuarth",
        -10.162902684778075
      ],
      [
        "cúrsa",
        -10.164395400748734
      ],
      [
        "dtreo",
        -10.164657408135092
      ],
      [
        "deir",
        -10.16485644518588
      ],
      [
        "chríoch",
        -10.165478656490984
      ],
      [
        "feidhmíocht",
        -10.166017504892153
      ],
      [
        "193",
        -10.166235652386163
      ],
      [
        "leigheas",
        -10.167513463516986
      ],
      [
        "ghníomhaíochta",
        -10.1679309751068
      ],
      [
        "scéimeanna",
        -10.16850445217706
      ],
      [
        "meascá",
        -10.17051209085227
      ],
      [
        "sochaí",
        -10.17108419804957
      ],
      [
        "bean",
        -10.171674594825149
      ],
      [
        "ghairmiú",
        -10.171776860493646
      ],
      [
        "chúram",
        -10.17189350088072
      ],
      [
        "thosa",
        -10.172044149191105
      ],
      [
        "chuirfid",
        -10.1722547126327
      ],
      [
        ".\"",
        -10.17294903353081
      ],
      [
        "ceadaithe",
        -10.17308634992531
      ],
      [
        "maoine",
        -10.173342928941103
      ],
      [
        "point",
        -10.173911189343855
      ],
      [
        "90",
        -10.174349027431852
      ],
      [
        "glas",
        -10.174799937167446
      ],
      [
        "gcroí",
        -10.175270442798507
      ],
      [
        "litir",
        -10.175749021500511
      ],
      [
        "laetha",
        -10.177390439325798
      ],
      [
        "conrad",
        -10.17819050887839
      ],
      [
        "Cuarda",
        -10.178272216271044
      ],
      [
        "éineacht",
        -10.178540215326755
      ],
      [
        "bainisti",
        -10.178983018280116
      ],
      [
        "rathúil",
        -10.17942621999807
      ],
      [
        "Black",
        -10.17942942256487
      ],
      [
        "láimhe",
        -10.179572595513223
      ],
      [
        "gCuid",
        -10.180496062703797
      ],
      [
        "fhostaithe",
        -10.181124178612219
      ],
      [
        "EU",
        -10.181257774385351
      ],
      [
        "úshláin",
        -10.181366700874484
      ],
      [
        "Dia",
        -10.181716099639637
      ],
      [
        "Bliain",
        -10.182128556204104
      ],
      [
        "aíodh",
        -10.182183901883878
      ],
      [
        "Clárú",
        -10.182679143637635
      ],
      [
        "feithicl",
        -10.183064657637793
      ],
      [
        "Chearta",
        -10.183095355876564
      ],
      [
        "eachta",
        -10.183692727177078
      ],
      [
        "iascaireacht",
        -10.183888125219111
      ],
      [
        "sibhialta",
        -10.184149252348535
      ],
      [
        "Banc",
        -10.184706710759889
      ],
      [
        "úsáideach",
        -10.185028708877294
      ],
      [
        "euro",
        -10.186097515243617
      ],
      [
        "scoláir",
        -10.186785489122347
      ],
      [
        "gcaoi",
        -10.186843775981593
      ],
      [
        "tsuim",
        -10.186846084578058
      ],
      [
        "caidr",
        -10.186859773453012
      ],
      [
        "scriosa",
        -10.18736437877578
      ],
      [
        "volta",
        -10.187978415892985
      ],
      [
        "Fir",
        -10.18805554680323
      ],
      [
        "gCúirt",
        -10.188464778371822
      ],
      [
        "strap",
        -10.188470335876374
      ],
      [
        "difríocht",
        -10.189392222538906
      ],
      [
        "míre",
        -10.19069732256461
      ],
      [
        "imscrúdú",
        -10.19116255857435
      ],
      [
        ");",
        -10.191762601864985
      ],
      [
        "Straitéis",
        -10.194370604899053
      ],
      [
        "Caibidil",
        -10.194529953075003
      ],
      [
        "casta",
        -10.195047901820628
      ],
      [
        "rachaid",
        -10.196560443683895
      ],
      [
        "macasamhail",
        -10.197562761317306
      ],
      [
        "agsúil",
        -10.198414734520856
      ],
      [
        "tora",
        -10.1984574202766
      ],
      [
        "ciontach",
        -10.198720884376312
      ],
      [
        "PDF",
        -10.200185787260619
      ],
      [
        "Hot",
        -10.200637283140733
      ],
      [
        "idirlín",
        -10.20078785076234
      ],
      [
        "cartlann",
        -10.203099411898698
      ],
      [
        "mhic",
        -10.204372851777308
      ],
      [
        "deas",
        -10.204649845433476
      ],
      [
        "Dolla",
        -10.20504931710073
      ],
      [
        "chomhshao",
        -10.205473293578738
      ],
      [
        "Crua",
        -10.205536970446774
      ],
      [
        "thú",
        -10.206502559963273
      ],
      [
        "ealaíontóir",
        -10.206955677860456
      ],
      [
        "inti",
        -10.207646548540989
      ],
      [
        "mála",
        -10.20793054364465
      ],
      [
        "béim",
        -10.208430656655676
      ],
      [
        "Gharda",
        -10.2088722367961
      ],
      [
        "33",
        -10.20934719390024
      ],
      [
        "rialtais",
        -10.210162368393934
      ],
      [
        "Stair",
        -10.210721730736488
      ],
      [
        "stop",
        -10.21122967090503
      ],
      [
        "Tarraing",
        -10.212224941498697
      ],
      [
        "pictiúr",
        -10.213119016914215
      ],
      [
        "ugann",
        -10.213250098956486
      ],
      [
        "aifid",
        -10.214822343751722
      ],
      [
        "teagmhála",
        -10.215041336065445
      ],
      [
        "Big",
        -10.215832013197911
      ],
      [
        "tábhacht",
        -10.216450408027072
      ],
      [
        "Íoslódáil",
        -10.216618051327119
      ],
      [
        "ualach",
        -10.216740339798717
      ],
      [
        "Play",
        -10.217400727950375
      ],
      [
        "scor",
        -10.218213564501776
      ],
      [
        "Mom",
        -10.21840798646802
      ],
      [
        "praghs",
        -10.219890212058063
      ],
      [
        "feist",
        -10.220623671621393
      ],
      [
        "Ombudsman",
        -10.220773640746408
      ],
      [
        "iarbhír",
        -10.22082082783775
      ],
      [
        "Coimirce",
        -10.220963052405041
      ],
      [
        "Iompai",
        -10.221077930855756
      ],
      [
        "oirí",
        -10.222373369381
      ],
      [
        "leasanna",
        -10.223020637170325
      ],
      [
        "each",
        -10.223349590984121
      ],
      [
        "pinsin",
        -10.223454002472923
      ],
      [
        "Health",
        -10.224034070220707
      ],
      [
        "fórsa",
        -10.224189107674764
      ],
      [
        "ordaithe",
        -10.22444833075803
      ],
      [
        "dearfach",
        -10.22472383297159
      ],
      [
        "comhlíona",
        -10.225625572812534
      ],
      [
        "38",
        -10.225890058069064
      ],
      [
        "ceol",
        -10.225914930061855
      ],
      [
        "bhrú",
        -10.226704167163444
      ],
      [
        "contae",
        -10.227023920016602
      ],
      [
        "Cineál",
        -10.22727242080181
      ],
      [
        "ceist",
        -10.227625640067355
      ],
      [
        "37",
        -10.228097219312605
      ],
      [
        "links",
        -10.228593515789925
      ],
      [
        "aistil",
        -10.22986092854446
      ],
      [
        "pe",
        -10.22991849854053
      ],
      [
        "aíochta",
        -10.230090859788874
      ],
      [
        "chostas",
        -10.230351197640989
      ],
      [
        "Domhand",
        -10.230894488189431
      ],
      [
        "ghníomh",
        -10.230940888484756
      ],
      [
        "mb",
        -10.23201587061616
      ],
      [
        "íos",
        -10.232047281837104
      ],
      [
        "Ghníomhaireacht",
        -10.23233217399521
      ],
      [
        "Déa",
        -10.232537988569437
      ],
      [
        "chóra",
        -10.232833422231622
      ],
      [
        "díolacháin",
        -10.233195748455813
      ],
      [
        "Conrad",
        -10.233991789858722
      ],
      [
        "cúraim",
        -10.234723434130672
      ],
      [
        "cultúr",
        -10.234747326581374
      ],
      [
        "faighte",
        -10.235600788509387
      ],
      [
        "fostóir",
        -10.236281294101246
      ],
      [
        "#",
        -10.23629933415068
      ],
      [
        "tromchúiseach",
        -10.236320713574402
      ],
      [
        "official",
        -10.236398098968323
      ],
      [
        "Léigh",
        -10.236524451051416
      ],
      [
        "ndéanfaid",
        -10.237797824443533
      ],
      [
        "turas",
        -10.238523569124233
      ],
      [
        "dréacht",
        -10.239014548223148
      ],
      [
        "mothú",
        -10.239589652536512
      ],
      [
        "34",
        -10.239645982601491
      ],
      [
        "uiscedhíonach",
        -10.240438093018058
      ],
      [
        "scéime",
        -10.240937574385748
      ],
      [
        "mhuirear",
        -10.241313635458457
      ],
      [
        "Cumann",
        -10.241548828958095
      ],
      [
        "inne",
        -10.242014205388582
      ],
      [
        "deontas",
        -10.242335003648481
      ],
      [
        "tseachtain",
        -10.242802670291443
      ],
      [
        "ity",
        -10.242902664689575
      ],
      [
        "thionscna",
        -10.24366668237664
      ],
      [
        "hiarratas",
        -10.243881707313726
      ],
      [
        "Úsáidte",
        -10.244099124854243
      ],
      [
        "Cultúir",
        -10.246918866367405
      ],
      [
        "árachai",
        -10.247146778677624
      ],
      [
        "mhúinteoir",
        -10.247597165991948
      ],
      [
        "clasaiceach",
        -10.248299650660066
      ],
      [
        "athbhreithnithe",
        -10.248732283588538
      ],
      [
        "carr",
        -10.248841688470547
      ],
      [
        "Cuideachta",
        -10.249124935004957
      ],
      [
        "ghníomhaíocht",
        -10.24989746491802
      ],
      [
        "Whats",
        -10.250282571308812
      ],
      [
        "thuras",
        -10.251343631391208
      ],
      [
        "tube",
        -10.251696718600638
      ],
      [
        "fios",
        -10.252038974476534
      ],
      [
        "athchóiriú",
        -10.252354255835662
      ],
      [
        "ghinearálta",
        -10.252441584900295
      ],
      [
        "Dearg",
        -10.252824292501295
      ],
      [
        "aimsire",
        -10.252878950456292
      ],
      [
        "uaidh",
        -10.253169793933811
      ],
      [
        "póca",
        -10.253515678746034
      ],
      [
        "chairde",
        -10.253801518040031
      ],
      [
        "cóir",
        -10.254305205166006
      ],
      [
        "Breataine",
        -10.254889115153652
      ],
      [
        "gcustaiméir",
        -10.254932834940725
      ],
      [
        "crité",
        -10.256069778314085
      ],
      [
        "saoráid",
        -10.256081220619288
      ],
      [
        "Dúi",
        -10.256092563787666
      ],
      [
        "gcoitinn",
        -10.256411461955567
      ],
      [
        "bónas",
        -10.256655416749064
      ],
      [
        "snáithín",
        -10.256996968869538
      ],
      [
        "coileach",
        -10.257010304155475
      ],
      [
        "eacht",
        -10.258941442437445
      ],
      [
        "línte",
        -10.259081344946502
      ],
      [
        "monatóireacht",
        -10.259082542703062
      ],
      [
        "mhaoiniú",
        -10.259233396381859
      ],
      [
        "meái",
        -10.259813454673798
      ],
      [
        "foclóir",
        -10.259838475210113
      ],
      [
        "cíos",
        -10.260019375245873
      ],
      [
        "tSeirbhís",
        -10.260127729267275
      ],
      [
        "bhunaithe",
        -10.261389232733407
      ],
      [
        "cumarsáide",
        -10.261906940662566
      ],
      [
        "iarrachtaí",
        -10.263629391110143
      ],
      [
        "teaghlach",
        -10.264008515805877
      ],
      [
        "diúlt",
        -10.264353646746352
      ],
      [
        "gcásann",
        -10.265132357189742
      ],
      [
        "phointe",
        -10.26567697013757
      ],
      [
        "Euro",
        -10.266311270256296
      ],
      [
        "rannpháirt",
        -10.266777892437492
      ],
      [
        "réigiú",
        -10.267936916357476
      ],
      [
        "Fhrainc",
        -10.268625343002054
      ],
      [
        "Blonde",
        -10.268643208450555
      ],
      [
        "Seomra",
        -10.268647749327217
      ],
      [
        "Mheán",
        -10.269172307197149
      ],
      [
        "ealaíon",
        -10.269374125222445
      ],
      [
        "deontais",
        -10.269420650741177
      ],
      [
        "news",
        -10.270054983632805
      ],
      [
        "07",
        -10.270546577210876
      ],
      [
        "chuntas",
        -10.270615676136366
      ],
      [
        "acasamhail",
        -10.270999074543472
      ],
      [
        "tor",
        -10.272233628130522
      ],
      [
        "Barr",
        -10.273781003601293
      ],
      [
        "48",
        -10.273875734693963
      ],
      [
        "thrí",
        -10.276130191027299
      ],
      [
        "Brunette",
        -10.276872865990313
      ],
      [
        "seacht",
        -10.277637869154109
      ],
      [
        "Ph",
        -10.277752154107574
      ],
      [
        "loingseoireacht",
        -10.278788573711424
      ],
      [
        "béil",
        -10.279253444505585
      ],
      [
        "chomhlán",
        -10.27943925912242
      ],
      [
        "tógála",
        -10.279766041218004
      ],
      [
        "Poblacht",
        -10.280242983417406
      ],
      [
        "pháirt",
        -10.281025497977051
      ],
      [
        "phlé",
        -10.281109253647294
      ],
      [
        "Duine",
        -10.281203758058913
      ],
      [
        "Lucht",
        -10.282018415597275
      ],
      [
        "thiar",
        -10.282306934702177
      ],
      [
        "Gníomhaíochta",
        -10.282323924608862
      ],
      [
        "Cód",
        -10.282403525553882
      ],
      [
        "phoist",
        -10.282968494413371
      ],
      [
        "itheamh",
        -10.28316235392561
      ],
      [
        "creidmheasa",
        -10.283229248969985
      ],
      [
        "Dáta",
        -10.284356141917154
      ],
      [
        "dleathach",
        -10.284683852075972
      ],
      [
        "long",
        -10.28476569976662
      ],
      [
        "dhiúlt",
        -10.284949948354763
      ],
      [
        "thuismitheoir",
        -10.285198568222174
      ],
      [
        "Pleanála",
        -10.285261661476152
      ],
      [
        "Caithfi",
        -10.285555360623281
      ],
      [
        "inneall",
        -10.286200227189651
      ],
      [
        "Áirítea",
        -10.286210469090882
      ],
      [
        "comhad",
        -10.286222341838874
      ],
      [
        "1999",
        -10.2869771043229
      ],
      [
        "shárú",
        -10.287906779479314
      ],
      [
        "rolla",
        -10.288308814523194
      ],
      [
        "éadrom",
        -10.28857844434982
      ],
      [
        "saille",
        -10.288819112522368
      ],
      [
        "thiont",
        -10.289020906291999
      ],
      [
        "titim",
        -10.289467657632411
      ],
      [
        "íomhá",
        -10.290328014272156
      ],
      [
        "Rialacha",
        -10.29113855147266
      ],
      [
        "thóg",
        -10.29145818303491
      ],
      [
        "aeir",
        -10.291641405056403
      ],
      [
        "fóill",
        -10.293563102207383
      ],
      [
        "Comh",
        -10.294414574176983
      ],
      [
        "cábla",
        -10.294741173702274
      ],
      [
        "ladh",
        -10.296335352364395
      ],
      [
        "sonracha",
        -10.296958741008929
      ],
      [
        "bhall",
        -10.298774886600201
      ],
      [
        "Football",
        -10.298888126682714
      ],
      [
        "íreanna",
        -10.300078442393275
      ],
      [
        "romhainn",
        -10.302136239204593
      ],
      [
        "Mhaigh",
        -10.302658145588497
      ],
      [
        "chailín",
        -10.302768935519275
      ],
      [
        "ordu",
        -10.303921809380574
      ],
      [
        "eis",
        -10.304821861345962
      ],
      [
        "rangann",
        -10.30525024909971
      ],
      [
        "Tithíocht",
        -10.30628972707446
      ],
      [
        "Ainm",
        -10.306460066906343
      ],
      [
        "ríthábhachtach",
        -10.306497833952326
      ],
      [
        "suime",
        -10.307688822887899
      ],
      [
        "tine",
        -10.30772338503738
      ],
      [
        "huaigh",
        -10.308256920863348
      ],
      [
        "tionscnaimh",
        -10.30826120636089
      ],
      [
        "fheithic",
        -10.308717852359832
      ],
      [
        "ness",
        -10.309924683124638
      ],
      [
        "eachtúil",
        -10.310469166535704
      ],
      [
        "onas",
        -10.310649677771218
      ],
      [
        "Beo",
        -10.310728637131621
      ],
      [
        "háinig",
        -10.311180379228379
      ],
      [
        "feithicle",
        -10.311594144501324
      ],
      [
        "fuar",
        -10.311718773789165
      ],
      [
        "caighdeánach",
        -10.312958110274925
      ],
      [
        "Comhaont",
        -10.313340052741246
      ],
      [
        "Gh",
        -10.314414595679843
      ],
      [
        "Eacnamaíoch",
        -10.314458983775621
      ],
      [
        "Tuaisceart",
        -10.314862304543976
      ],
      [
        "bhraitheann",
        -10.315059004371367
      ],
      [
        "46",
        -10.316458817420923
      ],
      [
        "American",
        -10.317019478803832
      ],
      [
        "44",
        -10.317970596484159
      ],
      [
        "US",
        -10.318045522022354
      ],
      [
        "dheimhniú",
        -10.319185224562505
      ],
      [
        "Rátáil",
        -10.319205679355335
      ],
      [
        "tabharfaid",
        -10.319215406032054
      ],
      [
        "Cuirte",
        -10.321227606240946
      ],
      [
        "threoir",
        -10.321386073996152
      ],
      [
        "comhpháirt",
        -10.322073902764153
      ],
      [
        "Post",
        -10.322078170276264
      ],
      [
        "09",
        -10.322173558242435
      ],
      [
        "fiche",
        -10.32221062348508
      ],
      [
        "Cosant",
        -10.322292877493734
      ],
      [
        "gcomhlíona",
        -10.32232560370347
      ],
      [
        "u7",
        -10.322378440776028
      ],
      [
        "chuirfea",
        -10.322930894090124
      ],
      [
        "IO",
        -10.323491625963939
      ],
      [
        "fhógair",
        -10.323678998311074
      ],
      [
        "fhad",
        -10.324496313757223
      ],
      [
        "Nolla",
        -10.325323063194126
      ],
      [
        "vóta",
        -10.326730845705264
      ],
      [
        "rannpháirteach",
        -10.327691413642967
      ],
      [
        "tábhachta",
        -10.328743855826417
      ],
      [
        "Ceann",
        -10.33051091194633
      ],
      [
        "dualgais",
        -10.33056774856081
      ],
      [
        "cónaithe",
        -10.331484606941778
      ],
      [
        "pháirtí",
        -10.331994439832346
      ],
      [
        "earra",
        -10.332088726823493
      ],
      [
        "Leabharlann",
        -10.332267654589781
      ],
      [
        "gníomhaíocht",
        -10.332570407042866
      ],
      [
        "chánach",
        -10.332835074722967
      ],
      [
        "chaomhn",
        -10.332863957103235
      ],
      [
        "bhliantúil",
        -10.33366390906418
      ],
      [
        "comhionann",
        -10.333838895712441
      ],
      [
        "rialtas",
        -10.334094776939526
      ],
      [
        "Watch",
        -10.336599098834872
      ],
      [
        "substaint",
        -10.3373651487375
      ],
      [
        "lascain",
        -10.3376432174252
      ],
      [
        "conartha",
        -10.33806452740008
      ],
      [
        "tógá",
        -10.338423737756058
      ],
      [
        "iontaobha",
        -10.338788100424038
      ],
      [
        "áisiúi",
        -10.338947790346674
      ],
      [
        "Óig",
        -10.339440643138865
      ],
      [
        "Super",
        -10.339777337311538
      ],
      [
        "cheadúna",
        -10.340925699828901
      ],
      [
        "experience",
        -10.341029801136955
      ],
      [
        "Amateurs",
        -10.341119694074568
      ],
      [
        "thabharfa",
        -10.341723567830133
      ],
      [
        "IV",
        -10.341869368271487
      ],
      [
        "Y",
        -10.34273190937229
      ],
      [
        "tsraith",
        -10.342776925778779
      ],
      [
        "oir",
        -10.343391313819584
      ],
      [
        "réalta",
        -10.344291883720588
      ],
      [
        "nasta",
        -10.345619567356074
      ],
      [
        "táirgthe",
        -10.345790287358259
      ],
      [
        "Réalta",
        -10.345892429373713
      ],
      [
        "incháilithe",
        -10.346260243303654
      ],
      [
        "spins",
        -10.346606827019404
      ],
      [
        "píopa",
        -10.3470707268086
      ],
      [
        "mbainfid",
        -10.347239995749625
      ],
      [
        "fhostóir",
        -10.347240732704226
      ],
      [
        "lúdach",
        -10.347655610172144
      ],
      [
        "Sóisiala",
        -10.347686274949822
      ],
      [
        "55",
        -10.349114272369617
      ],
      [
        "ardchaighdeáin",
        -10.349955391592953
      ],
      [
        "watch",
        -10.350082870015266
      ],
      [
        "chinn",
        -10.35113822156396
      ],
      [
        "iomláine",
        -10.351622383765307
      ],
      [
        "tugta",
        -10.351666301301265
      ],
      [
        "chinnf",
        -10.35274138188184
      ],
      [
        "oitianta",
        -10.352997758679003
      ],
      [
        "chuí",
        -10.353851646314407
      ],
      [
        "asbhaint",
        -10.354064307305249
      ],
      [
        "nádúr",
        -10.354162228534136
      ],
      [
        "bhosca",
        -10.354580982758836
      ],
      [
        "fostaí",
        -10.355334228403919
      ],
      [
        "críochnaithe",
        -10.356617135959734
      ],
      [
        "leithl",
        -10.357561679987956
      ],
      [
        "Náisiún",
        -10.35793581271888
      ],
      [
        "inmhuirearaithe",
        -10.358934526571057
      ],
      [
        "Rialú",
        -10.35968998789841
      ],
      [
        "thír",
        -10.359932547117882
      ],
      [
        "easpa",
        -10.360188018145044
      ],
      [
        "CO",
        -10.360709615002785
      ],
      [
        "theanga",
        -10.361226987614076
      ],
      [
        "póirt",
        -10.36123188517681
      ],
      [
        "ceoil",
        -10.362413613939776
      ],
      [
        "ex",
        -10.363232493980092
      ],
      [
        "chruinniú",
        -10.363306919636305
      ],
      [
        "Uathoibríoch",
        -10.363319544754471
      ],
      [
        "Choinbhinsiú",
        -10.363319556808765
      ],
      [
        "World",
        -10.363322809873358
      ],
      [
        "Bh",
        -10.363853107377299
      ],
      [
        "bhfaighid",
        -10.364147242394306
      ],
      [
        "PH",
        -10.364210189009215
      ],
      [
        "shiúl",
        -10.366362105213636
      ],
      [
        "choinne",
        -10.367050066670586
      ],
      [
        "dian",
        -10.367056067601496
      ],
      [
        "roinn",
        -10.367867884804042
      ],
      [
        "Iarratais",
        -10.367996129463886
      ],
      [
        "1998",
        -10.369819298652413
      ],
      [
        "Ceannai",
        -10.369972377021043
      ],
      [
        "tábla",
        -10.370532667255496
      ],
      [
        "42",
        -10.370627806851763
      ],
      [
        "198",
        -10.370896436211492
      ],
      [
        "Í",
        -10.371646969296073
      ],
      [
        "Treorach",
        -10.372504401371598
      ],
      [
        "03",
        -10.374202684361244
      ],
      [
        "cathaoirleach",
        -10.374546111537315
      ],
      [
        "chuspóir",
        -10.37462049436447
      ],
      [
        "u13",
        -10.374790620883207
      ],
      [
        "ríomhphost",
        -10.374839005948758
      ],
      [
        "Bunreacht",
        -10.374863732463592
      ],
      [
        "vótála",
        -10.375435723529707
      ],
      [
        "comhar",
        -10.375816388669616
      ],
      [
        "Ghearmáin",
        -10.376008272472557
      ],
      [
        "ainmneach",
        -10.377381298549029
      ],
      [
        "heagraíochta",
        -10.37742469643397
      ],
      [
        "cuimsitheach",
        -10.377425013551253
      ],
      [
        "gcuirfí",
        -10.377482440709498
      ],
      [
        "leasuithe",
        -10.378677209898747
      ],
      [
        "tosaíochta",
        -10.379566401391411
      ],
      [
        "65",
        -10.37957466791422
      ],
      [
        "vitimín",
        -10.381543471258816
      ],
      [
        "maoirseacht",
        -10.381545244015733
      ],
      [
        "gcomhlacht",
        -10.381726285529247
      ],
      [
        "by",
        -10.381838659490857
      ],
      [
        "bhfoireann",
        -10.382166120620049
      ],
      [
        "aiste",
        -10.382558422235181
      ],
      [
        "Chorca",
        -10.383762885090356
      ],
      [
        "treoirlínte",
        -10.383806895601701
      ],
      [
        "taisce",
        -10.385072710592064
      ],
      [
        "spéis",
        -10.385790795420741
      ],
      [
        "leordhóthanach",
        -10.385826233093859
      ],
      [
        "2002",
        -10.38597505156314
      ],
      [
        "u18",
        -10.386161430598886
      ],
      [
        "Ginearál",
        -10.38617744899894
      ],
      [
        "imistéir",
        -10.386300934001857
      ],
      [
        "chúrsaí",
        -10.387955483637498
      ],
      [
        "deonach",
        -10.388335338405145
      ],
      [
        "ráitis",
        -10.389094545997406
      ],
      [
        "Páirt",
        -10.3893057686042
      ],
      [
        "mban",
        -10.389688461485488
      ],
      [
        "oidhreacht",
        -10.390742993002146
      ],
      [
        "Bosca",
        -10.391500145875824
      ],
      [
        "mais",
        -10.391872374335485
      ],
      [
        "thalamh",
        -10.391892569597685
      ],
      [
        "príomha",
        -10.39284418683335
      ],
      [
        "agartha",
        -10.394230970520606
      ],
      [
        "íocfa",
        -10.394338773040033
      ],
      [
        "bheag",
        -10.395172690401699
      ],
      [
        "scaipea",
        -10.395424563324
      ],
      [
        "Teaghla",
        -10.395838166715563
      ],
      [
        "feistí",
        -10.396077169351823
      ],
      [
        "féachan",
        -10.396580359276857
      ],
      [
        "héifeachtach",
        -10.39671301204883
      ],
      [
        "UK",
        -10.397178740569185
      ],
      [
        "cos",
        -10.398667180032264
      ],
      [
        "Éisteachta",
        -10.39909882999076
      ],
      [
        "ultúir",
        -10.399380882829067
      ],
      [
        "mhargai",
        -10.399554157265388
      ],
      [
        "Coinbhinsiú",
        -10.399673102273933
      ],
      [
        "leasaítear",
        -10.40221938871143
      ],
      [
        "ceapad",
        -10.403220311143954
      ],
      [
        "rálacha",
        -10.403755027105621
      ],
      [
        "Fo",
        -10.40377155670528
      ],
      [
        "fhomhír",
        -10.404079903873807
      ],
      [
        "rath",
        -10.404198966601882
      ],
      [
        "háit",
        -10.40428536382963
      ],
      [
        "Ciallaíonn",
        -10.404299186188464
      ],
      [
        "City",
        -10.404422055236246
      ],
      [
        "chruinn",
        -10.404473012594142
      ],
      [
        "Cíocha",
        -10.404956070819697
      ],
      [
        "greannmhar",
        -10.405265181402955
      ],
      [
        "cistí",
        -10.406937558211368
      ],
      [
        "dalta",
        -10.408027465977238
      ],
      [
        "chuma",
        -10.408209636480159
      ],
      [
        "alúmana",
        -10.409518201604296
      ],
      [
        "galánta",
        -10.40951886533131
      ],
      [
        "chónaí",
        -10.409914693753368
      ],
      [
        "chuntasaíocht",
        -10.410068331306446
      ],
      [
        "WHO",
        -10.41015715200514
      ],
      [
        "amhras",
        -10.410622861153328
      ],
      [
        "Cumarsáide",
        -10.41119989328784
      ],
      [
        "cháilíocht",
        -10.41147583841147
      ],
      [
        "pláta",
        -10.411552576166748
      ],
      [
        "iallaíonn",
        -10.413821652282575
      ],
      [
        "brabúi",
        -10.41430799880056
      ],
      [
        "75",
        -10.414403691680665
      ],
      [
        "sloinne",
        -10.41446163668429
      ],
      [
        "Liúnta",
        -10.418268822842645
      ],
      [
        "dualga",
        -10.420401544962463
      ],
      [
        "06",
        -10.420491431480993
      ],
      [
        "insean",
        -10.420585972917017
      ],
      [
        "39",
        -10.42059750063883
      ],
      [
        "fheidhmeanna",
        -10.421709526562445
      ],
      [
        "Gearmáinis",
        -10.42188181234986
      ],
      [
        "gCuideachta",
        -10.422578659246025
      ],
      [
        "tabharfa",
        -10.422879773220373
      ],
      [
        "ríomhaireachta",
        -10.422977440690634
      ],
      [
        "míleata",
        -10.424167493409042
      ],
      [
        "teas",
        -10.424673910500783
      ],
      [
        "punt",
        -10.424691437025572
      ],
      [
        "We",
        -10.426631725222048
      ],
      [
        "Cuimsi",
        -10.42683060760116
      ],
      [
        "spriocann",
        -10.426867838057062
      ],
      [
        "híocaíochta",
        -10.427532072646269
      ],
      [
        "earnálach",
        -10.427685613767238
      ],
      [
        "foirmeach",
        -10.427771133470536
      ],
      [
        "thástáil",
        -10.428379965063314
      ],
      [
        "saincheiste",
        -10.4290554817663
      ],
      [
        "Charm",
        -10.429557112885135
      ],
      [
        "ghníomhach",
        -10.430094312369237
      ],
      [
        "gcumas",
        -10.430096796800331
      ],
      [
        "foirmiú",
        -10.430161684922666
      ],
      [
        "Luain",
        -10.431527855493927
      ],
      [
        "chóireáil",
        -10.431893011851548
      ],
      [
        "Chomhphoba",
        -10.432536720372305
      ],
      [
        "MH",
        -10.433516352455705
      ],
      [
        "thábhachtach",
        -10.433946620077371
      ],
      [
        "Bréagá",
        -10.434008534511925
      ],
      [
        "Cosaint",
        -10.434183514151897
      ],
      [
        "xxx",
        -10.435304995448334
      ],
      [
        "liathróid",
        -10.435335901901519
      ],
      [
        "teagai",
        -10.435712963544487
      ],
      [
        "háite",
        -10.435997275127075
      ],
      [
        "anta",
        -10.436530307501751
      ],
      [
        "cruthaithe",
        -10.436796730651619
      ],
      [
        "Aonad",
        -10.43687918491494
      ],
      [
        "Star",
        -10.43785203776304
      ],
      [
        "dlíthiú",
        -10.438001593836747
      ],
      [
        "breith",
        -10.438746715557638
      ],
      [
        "moladh",
        -10.439015566818572
      ],
      [
        "gcéanna",
        -10.440006062210285
      ],
      [
        "mhná",
        -10.442153204396966
      ],
      [
        "ospidé",
        -10.443174336226733
      ],
      [
        "ite",
        -10.443279142429983
      ],
      [
        "ghlana",
        -10.443494309318684
      ],
      [
        "blas",
        -10.444565365135084
      ],
      [
        "corpra",
        -10.44486359228564
      ],
      [
        "Dúrad",
        -10.445693842548943
      ],
      [
        "athnuachan",
        -10.446614748361707
      ],
      [
        "amh",
        -10.446650738821694
      ],
      [
        "bhaill",
        -10.446698911421546
      ],
      [
        "Ailt",
        -10.447100781608242
      ],
      [
        "cúramach",
        -10.44791036577378
      ],
      [
        "buala",
        -10.448148162909046
      ],
      [
        "Chill",
        -10.449126725825103
      ],
      [
        "gceanta",
        -10.449702972799969
      ],
      [
        "mheasúnachta",
        -10.450149609555538
      ],
      [
        "cruthaío",
        -10.450236990669026
      ],
      [
        "nuashonrú",
        -10.451982608199874
      ],
      [
        "eitilt",
        -10.452246319074892
      ],
      [
        "dochtúir",
        -10.452904705529516
      ],
      [
        "Gluaiseacht",
        -10.453039470786754
      ],
      [
        "omhdháil",
        -10.453387578807702
      ],
      [
        "príobháideach",
        -10.453872081392566
      ],
      [
        "éifeachtúlacht",
        -10.454146104801698
      ],
      [
        "SPC",
        -10.454332021443369
      ],
      [
        "ionsaí",
        -10.4544306217857
      ],
      [
        "chathai",
        -10.454661424260893
      ],
      [
        "Chlár",
        -10.454750879326621
      ],
      [
        "foilsío",
        -10.454831576815263
      ],
      [
        "polasa",
        -10.455458607439851
      ],
      [
        "seachada",
        -10.455686902279599
      ],
      [
        "cóireáil",
        -10.456094568915388
      ],
      [
        "08",
        -10.456625175339088
      ],
      [
        "díospóireacht",
        -10.456922248397875
      ],
      [
        "bháis",
        -10.457489800045817
      ],
      [
        "tarraingt",
        -10.457557765347783
      ],
      [
        "Edit",
        -10.457641906960076
      ],
      [
        "stylish",
        -10.4579608632861
      ],
      [
        "Grianchlo",
        -10.458038020155898
      ],
      [
        "déantúsaíocht",
        -10.458088932413364
      ],
      [
        "siúcra",
        -10.45957410646859
      ],
      [
        "dhiailiú",
        -10.45989282514654
      ],
      [
        "druga",
        -10.460580465509047
      ],
      [
        "Athbhreithni",
        -10.460583957940292
      ],
      [
        "nuálaíocht",
        -10.461179283309487
      ],
      [
        "Lio",
        -10.46129137689034
      ],
      [
        "úinéireacht",
        -10.461934944149883
      ],
      [
        "áilleacht",
        -10.46201764596876
      ],
      [
        "buiséad",
        -10.462675148829682
      ],
      [
        "shealbhú",
        -10.462877908666368
      ],
      [
        "shonró",
        -10.462938073912841
      ],
      [
        "erotic",
        -10.462939992295482
      ],
      [
        "smacht",
        -10.463584049727356
      ],
      [
        "aradh",
        -10.463727011059873
      ],
      [
        "bréagá",
        -10.464709824841217
      ],
      [
        "tréimhs",
        -10.46499400504039
      ],
      [
        "tasc",
        -10.466090383896027
      ],
      [
        "cumarsáid",
        -10.466132028316064
      ],
      [
        "fhaightea",
        -10.466252640717416
      ],
      [
        "gnótha",
        -10.466513994022272
      ],
      [
        "ibhir",
        -10.467338842325793
      ],
      [
        "Dath",
        -10.46759965334666
      ],
      [
        "Uaireadóirí",
        -10.46792950610394
      ],
      [
        "300",
        -10.467935028529586
      ],
      [
        "saorána",
        -10.467943032947902
      ],
      [
        "Fhorbairt",
        -10.467953151676795
      ],
      [
        "éigeandála",
        -10.467968267828702
      ],
      [
        "dhliteana",
        -10.46811676740798
      ],
      [
        "ceadúnais",
        -10.469115313732605
      ],
      [
        "carachta",
        -10.46961527068169
      ],
      [
        "astu",
        -10.470013563791756
      ],
      [
        "Cearta",
        -10.470194056026878
      ],
      [
        "Sheirbhís",
        -10.470303466930801
      ],
      [
        "Tionscai",
        -10.471842750030966
      ],
      [
        "Iodáil",
        -10.47188255796929
      ],
      [
        "dheara",
        -10.471970260261259
      ],
      [
        "aked",
        -10.472007156036515
      ],
      [
        "meicniúil",
        -10.4722616894095
      ],
      [
        "aiteachais",
        -10.47462557256646
      ],
      [
        "oibr",
        -10.474701203491925
      ],
      [
        "breithiúna",
        -10.475343019246804
      ],
      [
        "eartú",
        -10.476310168736587
      ],
      [
        "áite",
        -10.47640215343613
      ],
      [
        "Bunaío",
        -10.476665967402887
      ],
      [
        "beirt",
        -10.477401322644655
      ],
      [
        "oghcháin",
        -10.478130760732643
      ],
      [
        "choigeartú",
        -10.478481705137451
      ],
      [
        "olex",
        -10.479741591530496
      ],
      [
        "tuairisceá",
        -10.480994537000603
      ],
      [
        "Eolaíochta",
        -10.481122423418586
      ],
      [
        "Comhionanna",
        -10.482103527945384
      ],
      [
        "Dhá",
        -10.482894883389381
      ],
      [
        "Bán",
        -10.482908327404001
      ],
      [
        "sruth",
        -10.483993492254038
      ],
      [
        "Léir",
        -10.485036014358773
      ],
      [
        "Slándá",
        -10.485333023365605
      ],
      [
        "aimsir",
        -10.48611245790799
      ],
      [
        "mhalartú",
        -10.486699373431392
      ],
      [
        "ghnéas",
        -10.486991145375324
      ],
      [
        "dlúth",
        -10.48720046781791
      ],
      [
        "Áitiú",
        -10.487287295253154
      ],
      [
        "Raidi",
        -10.488536305897203
      ],
      [
        "feidhmíochta",
        -10.489641546498904
      ],
      [
        "ordó",
        -10.489914031902757
      ],
      [
        "lua",
        -10.489935290898114
      ],
      [
        "gcomhthéacs",
        -10.489952508967491
      ],
      [
        "mhíchumas",
        -10.490451632693164
      ],
      [
        "ACHT",
        -10.49048648681066
      ],
      [
        "Oifigeach",
        -10.491977972772919
      ],
      [
        "chríochnú",
        -10.492297509389335
      ],
      [
        "aigéad",
        -10.49247313285453
      ],
      [
        "SC",
        -10.492827965454465
      ],
      [
        "bpost",
        -10.493155048954314
      ],
      [
        "gcríoch",
        -10.493247545429622
      ],
      [
        "irí",
        -10.493344907308849
      ],
      [
        "dhaingniú",
        -10.493531556545438
      ],
      [
        "dhiúscairt",
        -10.493652541080436
      ],
      [
        "teilifíse",
        -10.494144663858652
      ],
      [
        "Bun",
        -10.494347673362759
      ],
      [
        "bac",
        -10.495170185120248
      ],
      [
        "dhlí",
        -10.495471752144667
      ],
      [
        "59",
        -10.496506570848938
      ],
      [
        "lógó",
        -10.498490919295072
      ],
      [
        "cialluíonn",
        -10.498723655447204
      ],
      [
        "ghlaca",
        -10.499132444998791
      ],
      [
        "chleachta",
        -10.500313538576094
      ],
      [
        "fhás",
        -10.50075509931191
      ],
      [
        "Oileán",
        -10.50154281850591
      ],
      [
        "bain",
        -10.501580191969328
      ],
      [
        "Mo",
        -10.50260199988638
      ],
      [
        "pá",
        -10.50333627221357
      ],
      [
        "bhéal",
        -10.503623080607607
      ],
      [
        "iarnró",
        -10.503946762902846
      ],
      [
        "Meiriceá",
        -10.504631945578318
      ],
      [
        "baineann",
        -10.504791421657021
      ],
      [
        "Méid",
        -10.504974713673487
      ],
      [
        "ranga",
        -10.505069290259986
      ],
      [
        "seans",
        -10.505458977884425
      ],
      [
        "Soláthraío",
        -10.50587610578773
      ],
      [
        "daonna",
        -10.506407586466576
      ],
      [
        "ghearr",
        -10.507338027704911
      ],
      [
        "comhpháirte",
        -10.50898628268678
      ],
      [
        "scoir",
        -10.509305674647242
      ],
      [
        "billiú",
        -10.50951858010146
      ],
      [
        "Teagmhá",
        -10.509913449711515
      ],
      [
        "straitéiseach",
        -10.509982196322749
      ],
      [
        "Sin",
        -10.510533791001953
      ],
      [
        "cliste",
        -10.51087157802667
      ],
      [
        "bunú",
        -10.511073596322507
      ],
      [
        "more",
        -10.511196246748447
      ],
      [
        "skin",
        -10.512175253629557
      ],
      [
        "ceangailte",
        -10.51235007017404
      ],
      [
        "cearn",
        -10.512475565023799
      ],
      [
        "chuarda",
        -10.513037086265156
      ],
      [
        "gaolmhar",
        -10.514136516760228
      ],
      [
        "bhformáid",
        -10.514302968547195
      ],
      [
        "comhshao",
        -10.514362752891138
      ],
      [
        "CBL",
        -10.514627418500762
      ],
      [
        "cloch",
        -10.5147149786802
      ],
      [
        "Tír",
        -10.514730969626232
      ],
      [
        "47",
        -10.51520624039982
      ],
      [
        "Bhean",
        -10.515343272447469
      ],
      [
        "European",
        -10.515818282160918
      ],
      [
        "Tacaíocht",
        -10.51604746760346
      ],
      [
        "stórála",
        -10.51649153824676
      ],
      [
        "áthas",
        -10.517306378539491
      ],
      [
        "Aonai",
        -10.517932878996355
      ],
      [
        "eagtha",
        -10.518179833318278
      ],
      [
        "lig",
        -10.518296469239173
      ],
      [
        "bóithr",
        -10.518837787194045
      ],
      [
        "41",
        -10.519094926125582
      ],
      [
        "Airgi",
        -10.519464874789884
      ],
      [
        "bhfolach",
        -10.519499296158362
      ],
      [
        "02",
        -10.519655724430912
      ],
      [
        "tarraing",
        -10.52016823136195
      ],
      [
        "taisí",
        -10.520979429975839
      ],
      [
        "Taith",
        -10.520982465826965
      ],
      [
        "58",
        -10.521614585578938
      ],
      [
        "Idirlí",
        -10.521893470435163
      ],
      [
        "hainmneach",
        -10.522095767076644
      ],
      [
        "othar",
        -10.522705268436972
      ],
      [
        "Faisnéis",
        -10.52314527010498
      ],
      [
        "lactha",
        -10.523148136548304
      ],
      [
        "Ansin",
        -10.524091768359785
      ],
      [
        "chomhairle",
        -10.524475323734023
      ],
      [
        "Threoir",
        -10.52466333589474
      ],
      [
        "Tiocfai",
        -10.524992152477331
      ],
      [
        "Thug",
        -10.525370576089959
      ],
      [
        "tionsclaíoch",
        -10.526134974352022
      ],
      [
        "fhostaíocht",
        -10.526149350723149
      ],
      [
        "múnla",
        -10.526282226561726
      ],
      [
        "bhord",
        -10.526288616569122
      ],
      [
        "thiocfaid",
        -10.526808046742818
      ],
      [
        "Strap",
        -10.527197326575441
      ],
      [
        "mhonar",
        -10.527562902821913
      ],
      [
        "u22",
        -10.528058631520274
      ],
      [
        "Preasráit",
        -10.528449361550194
      ],
      [
        "saoil",
        -10.528688558393082
      ],
      [
        "faoisea",
        -10.528890493600745
      ],
      [
        "Athrú",
        -10.53006665957145
      ],
      [
        "imthosca",
        -10.530284846421182
      ],
      [
        "mháthair",
        -10.53051695092649
      ],
      [
        "Teicneolaíochta",
        -10.531478451483993
      ],
      [
        "réigiúnach",
        -10.531605710082104
      ],
      [
        "foláir",
        -10.5321598892737
      ],
      [
        "05",
        -10.533520598514926
      ],
      [
        "Phoba",
        -10.533602251107542
      ],
      [
        "All",
        -10.534373330898166
      ],
      [
        "faisean",
        -10.534643181924139
      ],
      [
        "Fheidhmiú",
        -10.535016348010416
      ],
      [
        "aite",
        -10.53515824054551
      ],
      [
        "doras",
        -10.535165955970033
      ],
      [
        "resistan",
        -10.536372927292675
      ],
      [
        "ochar",
        -10.536637452294173
      ],
      [
        "ullmha",
        -10.53782404908619
      ],
      [
        "u19",
        -10.538546495426141
      ],
      [
        "inniúla",
        -10.539368664532292
      ],
      [
        "thiomáint",
        -10.539722029920057
      ],
      [
        "Uachtaránacht",
        -10.540655424087984
      ],
      [
        "sláintiú",
        -10.540688543055039
      ],
      [
        "bhrabhsála",
        -10.540775537528916
      ],
      [
        "hEORPA",
        -10.540879043239475
      ],
      [
        "chruth",
        -10.541126441324359
      ],
      [
        "choinníollach",
        -10.541948247604527
      ],
      [
        "poll",
        -10.542168881490387
      ],
      [
        "fhoirgn",
        -10.542283823333396
      ],
      [
        "soicind",
        -10.54275764038013
      ],
      [
        "hárta",
        -10.542785592139186
      ],
      [
        "Eile",
        -10.542852248871766
      ],
      [
        "India",
        -10.543012432668052
      ],
      [
        "04",
        -10.54322367665915
      ],
      [
        "luí",
        -10.543342361321107
      ],
      [
        "uainn",
        -10.544210195567434
      ],
      [
        "comhartha",
        -10.544707532103839
      ],
      [
        "geal",
        -10.545075130955615
      ],
      [
        "Taispeánta",
        -10.545356899900533
      ],
      [
        "éil",
        -10.545414656263358
      ],
      [
        "ghréasáin",
        -10.546092295570794
      ],
      [
        "Jacket",
        -10.546457541414568
      ],
      [
        "Mhic",
        -10.547165788989421
      ],
      [
        "ceannair",
        -10.547520890713184
      ],
      [
        "srianta",
        -10.548023936318222
      ],
      [
        "iv",
        -10.54874033019724
      ],
      [
        "bainc",
        -10.548949922049733
      ],
      [
        "réim",
        -10.549920734171994
      ],
      [
        "astaíochta",
        -10.550145675131914
      ],
      [
        "Ós",
        -10.55033060110562
      ],
      [
        "eachtrach",
        -10.550485403399922
      ],
      [
        "áileadh",
        -10.550579240635063
      ],
      [
        "theaghla",
        -10.551539911173478
      ],
      [
        "muirir",
        -10.551611365803492
      ],
      [
        "ionstraimí",
        -10.552330547971657
      ],
      [
        "u11",
        -10.552599662366674
      ],
      [
        "tsráid",
        -10.552954421422008
      ],
      [
        "Feidhm",
        -10.553236545854897
      ],
      [
        "u20",
        -10.55693202663776
      ],
      [
        "gníomhaireachta",
        -10.557817129563125
      ],
      [
        "próiseáil",
        -10.558610402064524
      ],
      [
        "chathaoirleach",
        -10.558981455584174
      ],
      [
        "AGU",
        -10.55945477786011
      ],
      [
        "vótáil",
        -10.559609775761583
      ],
      [
        "Ú",
        -10.560126449375284
      ],
      [
        "creat",
        -10.561839565704432
      ],
      [
        "Acmhainn",
        -10.5620596526932
      ],
      [
        "Oiliúna",
        -10.562486096524712
      ],
      [
        "idirdhealú",
        -10.562552088415234
      ],
      [
        "léasair",
        -10.563269800965115
      ],
      [
        "daingea",
        -10.564838245874643
      ],
      [
        "ucking",
        -10.565210221532123
      ],
      [
        "Próifíl",
        -10.56526959077189
      ],
      [
        "uímh",
        -10.565305908759335
      ],
      [
        "fianái",
        -10.565998075298193
      ],
      [
        "mbaol",
        -10.566617894807871
      ],
      [
        "tarchur",
        -10.566788192367442
      ],
      [
        "riocht",
        -10.567507614464557
      ],
      [
        "seolta",
        -10.568231937949367
      ],
      [
        "tarlú",
        -10.568589037848204
      ],
      [
        "bhforbairt",
        -10.569336807541697
      ],
      [
        "scrúd",
        -10.569459055070524
      ],
      [
        "nasctha",
        -10.56978096803635
      ],
      [
        "scáth",
        -10.570566493901616
      ],
      [
        "Mens",
        -10.571126784805825
      ],
      [
        "gcomhalta",
        -10.571180336174917
      ],
      [
        "mheasúnú",
        -10.572095442319911
      ],
      [
        "MB",
        -10.572566213895783
      ],
      [
        "Múinteoir",
        -10.573312175613164
      ],
      [
        "Teasta",
        -10.573697688313864
      ],
      [
        "malartach",
        -10.573916653460586
      ],
      [
        "iontair",
        -10.573999136510846
      ],
      [
        "idirbheart",
        -10.574114515113514
      ],
      [
        "shon",
        -10.574424577622711
      ],
      [
        "Tras",
        -10.575478139005952
      ],
      [
        "cuimhne",
        -10.57560241559004
      ],
      [
        "srian",
        -10.575708153187314
      ],
      [
        "Stíl",
        -10.575783844502165
      ],
      [
        "Eagraíocht",
        -10.575903820741294
      ],
      [
        "aigheann",
        -10.575920950900185
      ],
      [
        "Cáin",
        -10.576697595136137
      ],
      [
        "shonrú",
        -10.577816766140574
      ],
      [
        "tharchur",
        -10.57830510283139
      ],
      [
        "bhóthar",
        -10.57869989578276
      ],
      [
        "Masturbate",
        -10.579153073511772
      ],
      [
        "thomhas",
        -10.579153521655574
      ],
      [
        "Bracelet",
        -10.579158289935588
      ],
      [
        "Chomhaont",
        -10.579780809800143
      ],
      [
        "asadh",
        -10.580095926244553
      ],
      [
        "céile",
        -10.580458682741046
      ],
      [
        "Oileá",
        -10.58048173477146
      ],
      [
        "sceideal",
        -10.58062642495167
      ],
      [
        "saintréithe",
        -10.580674674425588
      ],
      [
        "Seice",
        -10.580675521506393
      ],
      [
        "pas",
        -10.581217355355957
      ],
      [
        "híoc",
        -10.581396600063195
      ],
      [
        "íosta",
        -10.581405975098367
      ],
      [
        "95",
        -10.582286795086564
      ],
      [
        "Éireannacha",
        -10.582623803262218
      ],
      [
        "oibriúcháin",
        -10.5831999961032
      ],
      [
        "43",
        -10.583572121582392
      ],
      [
        "ainmniúchá",
        -10.583771453805783
      ],
      [
        "Spáinn",
        -10.583902670628826
      ],
      [
        "ARLAIMINT",
        -10.58435144774899
      ],
      [
        "Christian",
        -10.58465763871919
      ],
      [
        "www",
        -10.584787018395394
      ],
      [
        "measta",
        -10.585463367315214
      ],
      [
        "BBC",
        -10.58598889136378
      ],
      [
        "faireachá",
        -10.586215912999549
      ],
      [
        "Iartha",
        -10.586659696884375
      ],
      [
        "Tabharfa",
        -10.586780462858233
      ],
      [
        "dtír",
        -10.58716642781187
      ],
      [
        "ghné",
        -10.587343420102716
      ],
      [
        "mionsonra",
        -10.587429881691104
      ],
      [
        "próifíl",
        -10.587506536524188
      ],
      [
        "fostaíocht",
        -10.587895023473205
      ],
      [
        "fhreagairt",
        -10.587963314597857
      ],
      [
        "páirteanna",
        -10.588390279277835
      ],
      [
        "inneal",
        -10.588420140534694
      ],
      [
        "gceannas",
        -10.58853084483497
      ],
      [
        "Léin",
        -10.588544500113562
      ],
      [
        "ghearrthóg",
        -10.590473884300144
      ],
      [
        "ceimiceach",
        -10.590606332865438
      ],
      [
        "Allah",
        -10.590870298543578
      ],
      [
        "sceimhlitheoir",
        -10.591336868953544
      ],
      [
        "gu",
        -10.591457567102573
      ],
      [
        "próis",
        -10.591653073011848
      ],
      [
        "físe",
        -10.591703691723566
      ],
      [
        "Rang",
        -10.591772074675195
      ],
      [
        "gairm",
        -10.592045000392911
      ],
      [
        "urscaoilea",
        -10.592049409836797
      ],
      [
        "reachtach",
        -10.592406253576797
      ],
      [
        "ceangal",
        -10.592565378327741
      ],
      [
        "dóiteá",
        -10.59350670669675
      ],
      [
        "Times",
        -10.593950329987525
      ],
      [
        "Chúirte",
        -10.594183478111507
      ],
      [
        "dhul",
        -10.594221254936725
      ],
      [
        "fabraic",
        -10.595832153773753
      ],
      [
        "Tuirc",
        -10.595864984899158
      ],
      [
        "CEE",
        -10.596101545720622
      ],
      [
        "Bhliantúil",
        -10.596107963163181
      ],
      [
        "Turasóireacht",
        -10.596112230924
      ],
      [
        "roghnaithe",
        -10.596220403948262
      ],
      [
        "scrios",
        -10.596275250047466
      ],
      [
        "CNC",
        -10.596277323231444
      ],
      [
        "Ceanada",
        -10.596309753538396
      ],
      [
        "madra",
        -10.596401062174746
      ],
      [
        "ies",
        -10.596522067466307
      ],
      [
        "suí",
        -10.596653653236807
      ],
      [
        "éinn",
        -10.597755430052235
      ],
      [
        "Uí",
        -10.597909907062089
      ],
      [
        "ugg",
        -10.598166788215753
      ],
      [
        "oifigiúl",
        -10.599858177298813
      ],
      [
        "Poist",
        -10.601840359349511
      ],
      [
        "RTÉ",
        -10.601847601137386
      ],
      [
        "Tabharfai",
        -10.602149233657746
      ],
      [
        "FC",
        -10.602429766400277
      ],
      [
        "fisiciú",
        -10.603834733276937
      ],
      [
        "52",
        -10.604310776610102
      ],
      [
        "cruinnea",
        -10.604980525871415
      ],
      [
        "Life",
        -10.606716871921673
      ],
      [
        "comharthaí",
        -10.606812946994172
      ],
      [
        "aisc",
        -10.606962867528349
      ],
      [
        "Ath",
        -10.60729051009483
      ],
      [
        "Diamond",
        -10.607568669933547
      ],
      [
        "rubair",
        -10.607609135142916
      ],
      [
        "Chuideachta",
        -10.607714906019915
      ],
      [
        "fuck",
        -10.607776799096296
      ],
      [
        "Cumhacht",
        -10.608602737519533
      ],
      [
        "carbóin",
        -10.608664022470705
      ],
      [
        "Maith",
        -10.608807198747446
      ],
      [
        "olctha",
        -10.608929749641977
      ],
      [
        "eanta",
        -10.60930564827283
      ],
      [
        "polaitiúil",
        -10.60956012744408
      ],
      [
        "eolaíochta",
        -10.609691167672702
      ],
      [
        "ách",
        -10.610529549037512
      ],
      [
        "oibrí",
        -10.611396869751706
      ],
      [
        "ionadaíocht",
        -10.611569389392667
      ],
      [
        "Taisce",
        -10.611571660255375
      ],
      [
        "séala",
        -10.61293046761244
      ],
      [
        "400",
        -10.613066852993565
      ],
      [
        "●",
        -10.613344345697673
      ],
      [
        "scór",
        -10.613395159136642
      ],
      [
        "fadtéarmach",
        -10.613459298234355
      ],
      [
        "trá",
        -10.614113775895406
      ],
      [
        "asturbating",
        -10.61471485453278
      ],
      [
        "gala",
        -10.615169317096942
      ],
      [
        "Áise",
        -10.615503190202709
      ],
      [
        "Líon",
        -10.61583842457921
      ],
      [
        "shibhialta",
        -10.616117700660716
      ],
      [
        "ógtha",
        -10.616226376467246
      ],
      [
        "Ghaeltacht",
        -10.61710961096718
      ],
      [
        "bailí",
        -10.617164709343982
      ],
      [
        "haois",
        -10.617349799637264
      ],
      [
        "muinín",
        -10.618271687797307
      ],
      [
        "oine",
        -10.618571854589902
      ],
      [
        "Féad",
        -10.618579897384372
      ],
      [
        "rioscaí",
        -10.618595627233429
      ],
      [
        "Masturbation",
        -10.619166176473783
      ],
      [
        "Foilsiú",
        -10.619193035864397
      ],
      [
        "Anal",
        -10.619229845841108
      ],
      [
        "uathu",
        -10.61927168471259
      ],
      [
        "téigh",
        -10.619505654961666
      ],
      [
        "aincheaptha",
        -10.619916122027291
      ],
      [
        "rialaitheoir",
        -10.620399425659631
      ],
      [
        "Council",
        -10.620743577774604
      ],
      [
        "bainteach",
        -10.620908426998344
      ],
      [
        "díolúin",
        -10.622033444494836
      ],
      [
        "saoránach",
        -10.62356039580914
      ],
      [
        "aithne",
        -10.624197597306274
      ],
      [
        "bláth",
        -10.624247325339145
      ],
      [
        "Mh",
        -10.624269575434544
      ],
      [
        "bracelet",
        -10.625006277572123
      ],
      [
        "Choláist",
        -10.625012503721546
      ],
      [
        "Foundation",
        -10.625730437119243
      ],
      [
        "dtiocfaid",
        -10.627536117378678
      ],
      [
        "airíonna",
        -10.627568978561236
      ],
      [
        "Cáilíochta",
        -10.62763554682617
      ],
      [
        "roinnte",
        -10.62789836762441
      ],
      [
        "Uairea",
        -10.627940288958767
      ],
      [
        "gcruinni",
        -10.628245680440752
      ],
      [
        "troid",
        -10.628301055095328
      ],
      [
        "agann",
        -10.628651311895425
      ],
      [
        "Deir",
        -10.628992181217438
      ],
      [
        "iomaíocht",
        -10.629297081532902
      ],
      [
        "thagairt",
        -10.630476265316519
      ],
      [
        "dúbailte",
        -10.630751039244265
      ],
      [
        "Rannóg",
        -10.630904050922652
      ],
      [
        "sheirbheáil",
        -10.630942182825773
      ],
      [
        "dúrad",
        -10.631106022711748
      ],
      [
        "Críostaí",
        -10.631313201528547
      ],
      [
        "iomaíoch",
        -10.631345618504568
      ],
      [
        "Foireann",
        -10.631382927366296
      ],
      [
        "cionta",
        -10.631449379824868
      ],
      [
        "toirt",
        -10.631729167311766
      ],
      [
        "Sráid",
        -10.63217202654242
      ],
      [
        "baol",
        -10.63341931749309
      ],
      [
        "57",
        -10.634220954679789
      ],
      [
        "sreabha",
        -10.636579166540095
      ],
      [
        "caiteachais",
        -10.636741736631425
      ],
      [
        "iniúchta",
        -10.636800313905027
      ],
      [
        "chostais",
        -10.636966795281797
      ],
      [
        "Téigh",
        -10.637217705575116
      ],
      [
        "Socha",
        -10.637275623397063
      ],
      [
        "oiriún",
        -10.63729407934975
      ],
      [
        "gnólachta",
        -10.637421919202382
      ],
      [
        "criosta",
        -10.637493103243987
      ],
      [
        "leanfaid",
        -10.638238826393465
      ],
      [
        "uas",
        -10.638346433825127
      ],
      [
        "hinstitiúid",
        -10.638402924102621
      ],
      [
        "taispeánta",
        -10.638448093330748
      ],
      [
        "Fraincis",
        -10.638616737688432
      ],
      [
        "cothabháil",
        -10.639692626677979
      ],
      [
        "páipéir",
        -10.639769513710805
      ],
      [
        "150",
        -10.639973586866878
      ],
      [
        "76",
        -10.640453603382273
      ],
      [
        "eolaíocht",
        -10.640907357229556
      ],
      [
        "hArd",
        -10.641126415165852
      ],
      [
        "Sainmhíni",
        -10.641561445842289
      ],
      [
        "IP",
        -10.64187549335461
      ],
      [
        "hoifig",
        -10.642420235765147
      ],
      [
        "Rúis",
        -10.643786612865917
      ],
      [
        "riail",
        -10.644222448159804
      ],
      [
        "sár",
        -10.644560580420771
      ],
      [
        "glasra",
        -10.644757576454195
      ],
      [
        "ranníocaíochta",
        -10.644861759308816
      ],
      [
        "thús",
        -10.645231008909736
      ],
      [
        "Nós",
        -10.645661958416419
      ],
      [
        "árú",
        -10.645873349458832
      ],
      [
        "bPríomh",
        -10.645943041247541
      ],
      [
        "Press",
        -10.646332196612306
      ],
      [
        "bhainfid",
        -10.646392418444268
      ],
      [
        "Infheistíochta",
        -10.646789532857756
      ],
      [
        "Shóisial",
        -10.647128155936409
      ],
      [
        "phinsin",
        -10.647293767543642
      ],
      [
        "príobháideacha",
        -10.648559260529801
      ],
      [
        "rapóirtéir",
        -10.64874755828372
      ],
      [
        "déanmha",
        -10.650244958417794
      ],
      [
        "laoch",
        -10.650561133477211
      ],
      [
        "oileán",
        -10.653933648234169
      ],
      [
        "saghas",
        -10.654510147379192
      ],
      [
        "healaíon",
        -10.6546908841594
      ],
      [
        "buíochas",
        -10.655170732947159
      ],
      [
        "gnócha",
        -10.655193243355377
      ],
      [
        "bóthar",
        -10.655303930055236
      ],
      [
        "eol",
        -10.6557472312413
      ],
      [
        "achomair",
        -10.656132316506719
      ],
      [
        "ment",
        -10.656282863312326
      ],
      [
        "maoinithe",
        -10.656706913042466
      ],
      [
        "mhola",
        -10.656802244964425
      ],
      [
        "dlíthe",
        -10.657772960567021
      ],
      [
        "foilsithe",
        -10.658979694147336
      ],
      [
        "eagla",
        -10.6591991934106
      ],
      [
        "cuairteoir",
        -10.65995613948274
      ],
      [
        "léirmheas",
        -10.660030191319908
      ],
      [
        "réine",
        -10.660044527730452
      ],
      [
        "míle",
        -10.660249265348808
      ],
      [
        "iontrála",
        -10.660291181006095
      ],
      [
        "info",
        -10.660426582892693
      ],
      [
        "Comhalta",
        -10.660520512244753
      ],
      [
        "Cúrsa",
        -10.660693181952418
      ],
      [
        "solúbtha",
        -10.6607508289805
      ],
      [
        "bhíthin",
        -10.660880408952696
      ],
      [
        "chonra",
        -10.66132342005499
      ],
      [
        "Rómáin",
        -10.661336681455243
      ],
      [
        "cothabhála",
        -10.661338292693546
      ],
      [
        "gcúrsa",
        -10.661426368839912
      ],
      [
        "Blue",
        -10.662040006932408
      ],
      [
        "comórta",
        -10.662108996848149
      ],
      [
        "Gearr",
        -10.66214293656263
      ],
      [
        "Leagan",
        -10.662375693393251
      ],
      [
        "Soláthair",
        -10.662405097918633
      ],
      [
        "gadh",
        -10.66326448956023
      ],
      [
        "íochta",
        -10.663384386199922
      ],
      [
        "freagracht",
        -10.663429905844174
      ],
      [
        "uk",
        -10.663508927956517
      ],
      [
        "Oíche",
        -10.664427041148041
      ],
      [
        "difriúl",
        -10.664748630287601
      ],
      [
        "áracha",
        -10.66484656504394
      ],
      [
        "gníomhaire",
        -10.665535589929938
      ],
      [
        "buí",
        -10.666247771790767
      ],
      [
        "fheidhmíocht",
        -10.666329297742909
      ],
      [
        "ceacht",
        -10.6664253846867
      ],
      [
        "Rúipí",
        -10.666928774945763
      ],
      [
        "Police",
        -10.666931826948895
      ],
      [
        "Rúnaí",
        -10.66696511123853
      ],
      [
        "oladh",
        -10.667191491558889
      ],
      [
        "Stiúrthóireacht",
        -10.667212405568671
      ],
      [
        "aigne",
        -10.668326906994334
      ],
      [
        "margaí",
        -10.668792503800802
      ],
      [
        "Seachtain",
        -10.668821143943306
      ],
      [
        "comhairliúchá",
        -10.669780546095813
      ],
      [
        "teachtaireacht",
        -10.67048803228792
      ],
      [
        "téama",
        -10.671110817752753
      ],
      [
        "cáilitheach",
        -10.67218595629878
      ],
      [
        "just",
        -10.672758444398339
      ],
      [
        "©",
        -10.673063402758299
      ],
      [
        "gearrthóg",
        -10.673184722545862
      ],
      [
        "láimhseáil",
        -10.673184970927675
      ],
      [
        "dlús",
        -10.673704714390338
      ],
      [
        "léireofa",
        -10.673805761560999
      ],
      [
        "leanann",
        -10.675636303066081
      ],
      [
        "69",
        -10.676637233852512
      ],
      [
        "cúise",
        -10.676948987298054
      ],
      [
        "gcuirfid",
        -10.678686199619076
      ],
      [
        "Facebook",
        -10.679246145835844
      ],
      [
        "luxurious",
        -10.679446557918777
      ],
      [
        "bhfuair",
        -10.679590009598947
      ],
      [
        "99",
        -10.680334989574767
      ],
      [
        "79",
        -10.681360540822386
      ],
      [
        "Feidhmiú",
        -10.681845135443247
      ],
      [
        "tré",
        -10.681973607093393
      ],
      [
        "olann",
        -10.682853928607503
      ],
      [
        "achomhair",
        -10.683519192057041
      ],
      [
        "Soláthraí",
        -10.684066950523926
      ],
      [
        "inniúi",
        -10.684109832945243
      ],
      [
        "comhoibri",
        -10.684366945270128
      ],
      [
        "Fad",
        -10.684446560697355
      ],
      [
        "Cárta",
        -10.685487442584918
      ],
      [
        "chónaithe",
        -10.687005192257793
      ],
      [
        "66",
        -10.687392752134393
      ],
      [
        "Linn",
        -10.68757736096487
      ],
      [
        "gcuntas",
        -10.689417859199567
      ],
      [
        "Fionta",
        -10.689614933887256
      ],
      [
        "thionscada",
        -10.68987003640021
      ],
      [
        "Neamh",
        -10.690501113690765
      ],
      [
        "éarlais",
        -10.690539742314344
      ],
      [
        "tobac",
        -10.69179792289422
      ],
      [
        "tuarasta",
        -10.692229026821318
      ],
      [
        "léargas",
        -10.693185469053535
      ],
      [
        "fhianai",
        -10.693306058349238
      ],
      [
        "Glas",
        -10.69383682039659
      ],
      [
        "ceadú",
        -10.694500150289038
      ],
      [
        "pionós",
        -10.695058844739188
      ],
      [
        "caipiti",
        -10.69524962755468
      ],
      [
        "Foghlaim",
        -10.695645391128958
      ],
      [
        "Aeráide",
        -10.695763839056621
      ],
      [
        "fhoils",
        -10.697032710017837
      ],
      [
        "cáil",
        -10.697237314066523
      ],
      [
        "soghluaiste",
        -10.697893412949934
      ],
      [
        "1952",
        -10.699044893549084
      ],
      [
        "Services",
        -10.6992272801069
      ],
      [
        "ire",
        -10.699243331585365
      ],
      [
        "caithea",
        -10.699367215450163
      ],
      [
        "thíolaca",
        -10.699483742126532
      ],
      [
        "1967",
        -10.699596638260807
      ],
      [
        "EUR",
        -10.699916241559986
      ],
      [
        "feirme",
        -10.70004781613197
      ],
      [
        "shíniú",
        -10.700632763691546
      ],
      [
        "Úcráin",
        -10.702871894602456
      ],
      [
        "gealltana",
        -10.70303741566044
      ],
      [
        "49",
        -10.70322795082324
      ],
      [
        "ime",
        -10.703234895609341
      ],
      [
        "ílte",
        -10.70574747254867
      ],
      [
        "bpáirt",
        -10.706323241303508
      ],
      [
        "mianra",
        -10.70760442944732
      ],
      [
        "tSeapáin",
        -10.708221152588214
      ],
      [
        "Iorua",
        -10.708352846614202
      ],
      [
        "gcomhaont",
        -10.708887231153945
      ],
      [
        "urg",
        -10.70978371618883
      ],
      [
        "maireachtá",
        -10.709939802504616
      ],
      [
        "láidre",
        -10.710259424330758
      ],
      [
        "beacht",
        -10.71063257640258
      ],
      [
        "foinse",
        -10.710722632177902
      ],
      [
        "margaíocht",
        -10.711090807139641
      ],
      [
        "creidiúna",
        -10.711907416000845
      ],
      [
        "daonra",
        -10.712032616846793
      ],
      [
        "máthair",
        -10.71206050645632
      ],
      [
        "bhreith",
        -10.713000902928165
      ],
      [
        "aisghair",
        -10.713030001671713
      ],
      [
        "chiste",
        -10.713530807010518
      ],
      [
        "chaidream",
        -10.713739299778862
      ],
      [
        "Réigiúnach",
        -10.714528682495772
      ],
      [
        "Óir",
        -10.715343482093086
      ],
      [
        "Fógra",
        -10.715415309002896
      ],
      [
        "mórán",
        -10.715512074860245
      ],
      [
        "Comhphoba",
        -10.716094620250537
      ],
      [
        "iteanna",
        -10.71614282871326
      ],
      [
        "Solátha",
        -10.716218949309258
      ],
      [
        "breithe",
        -10.716321193881047
      ],
      [
        "áireofa",
        -10.716389763650854
      ],
      [
        "scríbhneoir",
        -10.716604073139969
      ],
      [
        "formáid",
        -10.716845704489753
      ],
      [
        "eilimint",
        -10.716910319598837
      ],
      [
        "56",
        -10.71704787288288
      ],
      [
        "moncler",
        -10.717095841120965
      ],
      [
        "Washington",
        -10.71709662208105
      ],
      [
        "Microsoft",
        -10.717096942322897
      ],
      [
        "Toscaireacht",
        -10.717103382566313
      ],
      [
        "hEilvéise",
        -10.717280522075454
      ],
      [
        "fíon",
        -10.717836395544065
      ],
      [
        "rianú",
        -10.717887971549292
      ],
      [
        "Cumas",
        -10.718671229248862
      ],
      [
        "chúlghairm",
        -10.719335075628777
      ],
      [
        "Data",
        -10.719846066426333
      ],
      [
        "iontráil",
        -10.72062481809701
      ],
      [
        "insint",
        -10.721189524569855
      ],
      [
        "Cumhachta",
        -10.721363480645508
      ],
      [
        "tsaoil",
        -10.721531026811153
      ],
      [
        "raidió",
        -10.723584410828776
      ],
      [
        "sheep",
        -10.723633743683479
      ],
      [
        "hacmhainn",
        -10.724722612120765
      ],
      [
        "pósta",
        -10.725000264909715
      ],
      [
        "marc",
        -10.72500863673833
      ],
      [
        "bheart",
        -10.725102532431254
      ],
      [
        "cóireála",
        -10.725209572243994
      ],
      [
        "Gnéithe",
        -10.725387302531432
      ],
      [
        "Mam",
        -10.725559700778412
      ],
      [
        "Power",
        -10.725690593518832
      ],
      [
        "ton",
        -10.725909410040593
      ],
      [
        "IT",
        -10.725997008744912
      ],
      [
        "urrús",
        -10.727228754000691
      ],
      [
        "caol",
        -10.72725780166877
      ],
      [
        "tithe",
        -10.728015161182267
      ],
      [
        "cháil",
        -10.729475762484254
      ],
      [
        "Thuaisceart",
        -10.730040977228036
      ],
      [
        "Tríonóid",
        -10.73004537567541
      ],
      [
        "Answer",
        -10.730072473517179
      ],
      [
        "éili",
        -10.730413199232492
      ],
      [
        "uimhreach",
        -10.731072168265214
      ],
      [
        "sholáthraío",
        -10.731509462062178
      ],
      [
        "School",
        -10.731827563834976
      ],
      [
        "adóirí",
        -10.733034410218917
      ],
      [
        "náisiún",
        -10.733267747420367
      ],
      [
        "charm",
        -10.733388620752955
      ],
      [
        "Tionól",
        -10.734209198206216
      ],
      [
        "clárúchá",
        -10.73443491758876
      ],
      [
        "fostú",
        -10.734501156888193
      ],
      [
        "glaca",
        -10.734924375767225
      ],
      [
        "77",
        -10.735767360245125
      ],
      [
        "lasta",
        -10.736565925013283
      ],
      [
        "Naomh",
        -10.736582636404846
      ],
      [
        "cobhsaíocht",
        -10.736664345229428
      ],
      [
        "rialála",
        -10.73668700669122
      ],
      [
        "línse",
        -10.736822269720868
      ],
      [
        "\".",
        -10.73690511626325
      ],
      [
        "leasmhar",
        -10.737614521693601
      ],
      [
        "uasta",
        -10.737786519803958
      ],
      [
        "fíorúil",
        -10.738275166801778
      ],
      [
        "Rochtain",
        -10.738408837354868
      ],
      [
        "Indiach",
        -10.738421871677376
      ],
      [
        "oirgnimh",
        -10.738674672268825
      ],
      [
        "raitheann",
        -10.738694174942536
      ],
      [
[...]
