{
  "version": "1.0",
  "truncation": null,
  "padding": null,
  "added_tokens": [
    {
      "id": 1,
      "content": "[UNK]",
      "single_word": false,
      "lstrip": false,
      "rstrip": false,
      "normalized": false,
      "special": true
    },
    {
      "id": 2,
      "content": "[CLS]",
      "single_word": false,
      "lstrip": false,
      "rstrip": false,
      "normalized": false,
      "special": true
    },
    {
      "id": 3,
      "content": "[SEP]",
      "single_word": false,
      "lstrip": false,
      "rstrip": false,
      "normalized": false,
      "special": true
    },
    {
      "id": 4,
      "content": "[PAD]",
      "single_word": false,
      "lstrip": false,
      "rstrip": false,
      "normalized": false,
      "special": true
    },
    {
      "id": 5,
      "content": "[MASK]",
      "single_word": false,
      "lstrip": false,
      "rstrip": false,
      "normalized": false,
      "special": true
    }
  ],
  "normalizer": {
    "type": "NFKC"
  },
  "pre_tokenizer": {
    "type": "Whitespace"
  },
  "post_processor": null,
  "decoder": null,
  "model": {
    "type": "Unigram",
    "unk_id": 0,
    "vocab": [
      [
        "<unk>",
        0.0
      ],
      [
        "[UNK]",
        0.0
      ],
      [
        "[CLS]",
        0.0
      ],
      [
        "[SEP]",
        0.0
      ],
      [
        "[PAD]",
        0.0
      ],
      [
        "[MASK]",
        0.0
      ],
      [
        "a",
        -2.622698263021226
      ],
      [
        "n",
        -3.347399360723136
      ],
      [
        "an",
        -3.566911338264852
      ],
      [
        ",",
        -3.66297685368783
      ],
      [
        "ar",
        -3.752780716534641
      ],
      [
        "s",
        -3.9919649439232323
      ],
      [
        ".",
        -4.002618872509526
      ],
      [
        "i",
        -4.032647816044962
      ],
      [
        "r",
        -4.167176511629453
      ],
      [
        "agus",
        -4.1772641321828825
      ],
      [
        "í",
        -4.363179449185333
      ],
      [
        "t",
        -4.393490259711822
      ],
      [
        "d",
        -4.465557597438069
      ],
      [
        "e",
        -4.580391404438625
      ],
      [
        "le",
        -4.613142969961519
      ],
      [
        "-",
        -4.761295459513075
      ],
      [
        "in",
        -4.853022811350831
      ],
      [
        "ú",
        -4.96459324655077
      ],
      [
        "is",
        -4.972868106326866
      ],
      [
        "h",
        -5.020580223548501
      ],
      [
        "dh",
        -5.0647838066019055
      ],
      [
        "(",
        -5.078701781512532
      ],
      [
        "c",
        -5.080947626529644
      ],
      [
        "l",
        -5.098075421472748
      ],
      [
        "go",
        -5.120675064719135
      ],
      [
        "m",
        -5.125652106779061
      ],
      [
        ")",
        -5.1285246541206355
      ],
      [
        "ó",
        -5.13397205891556
      ],
      [
        "@",
        -5.166219471335424
      ],
      [
        "seo",
        -5.171105597025495
      ],
      [
        "de",
        -5.261164144198391
      ],
      [
        "do",
        -5.279441368673723
      ],
      [
        "ag",
        -5.3137608423999545
      ],
      [
        "tú",
        -5.3174525513749575
      ],
      [
        "nó",
        -5.399093809262688
      ],
      [
        "g",
        -5.415273470485406
      ],
      [
        "C",
        -5.466853887843238
      ],
      [
        "o",
        -5.470583523650339
      ],
      [
        "bhfuil",
        -5.567245888523548
      ],
      [
        "leis",
        -5.608988031555732
      ],
      [
        "anna",
        -5.640520877810022
      ],
      [
        "sin",
        -5.674370129311846
      ],
      [
        "é",
        -5.686346242624616
      ],
      [
        "An",
        -5.687390336071623
      ],
      [
        "chun",
        -5.706591611776394
      ],
      [
        "b",
        -5.72183929511753
      ],
      [
        "il",
        -5.7591792381389055
      ],
      [
        "f",
        -5.817210999187633
      ],
      [
        "'",
        -5.8306717503880705
      ],
      [
        "á",
        -5.840138961978086
      ],
      [
        "ach",
        -5.861536013618171
      ],
      [
        "igh",
        -5.894075531964049
      ],
      [
        ":",
        -5.911553721235288
      ],
      [
        "leat",
        -5.922082528865566
      ],
      [
        "?",
        -6.001458136200078
      ],
      [
        "A",
        -6.009295861937549
      ],
      [
        "Tweet",
        -6.030303785783852
      ],
      [
        "sé",
        -6.037774252179833
      ],
      [
        "ch",
        -6.039585666522921
      ],
      [
        "gur",
        -6.060282955381901
      ],
      [
        "S",
        -6.078988253897123
      ],
      [
        "aon",
        -6.104005006365565
      ],
      [
        "mar",
        -6.130611171378806
      ],
      [
        "cosc",
        -6.1437439934882505
      ],
      [
        "atá",
        -6.180471658853913
      ],
      [
        "Is",
        -6.203868284370966
      ],
      [
        "den",
        -6.2050468847313365
      ],
      [
        "ithe",
        -6.221425172128656
      ],
      [
        "F",
        -6.268647816811791
      ],
      [
        "I",
        -6.271462791610466
      ],
      [
        "faoi",
        -6.284134283287804
      ],
      [
        "mhaith",
        -6.2885982718746565
      ],
      [
        "Tá",
        -6.2900103487853904
      ],
      [
        "T",
        -6.299864638969908
      ],
      [
        "féidi",
        -6.307385826706533
      ],
      [
        "cinnte",
        -6.327903013689777
      ],
      [
        "breathn",
        -6.340121234925633
      ],
      [
        "u",
        -6.351742240218353
      ],
      [
        "Chuir",
        -6.353693499125612
      ],
      [
        "tá",
        -6.373295402496515
      ],
      [
        "Meáin",
        -6.3740174947125485
      ],
      [
        "D",
        -6.393053581054202
      ],
      [
        "1",
        -6.402213119265696
      ],
      [
        "M",
        -6.438024857488809
      ],
      [
        ";",
        -6.442405930205425
      ],
      [
        "eile",
        -6.456039035123716
      ],
      [
        "B",
        -6.472983906358868
      ],
      [
        "chur",
        -6.4914552715820655
      ],
      [
        "2",
        -6.494574167401833
      ],
      [
        "dhéanamh",
        -6.503254269608963
      ],
      [
        "’",
        -6.557101896657535
      ],
      [
        "bheith",
        -6.564506426054821
      ],
      [
        "alt",
        -6.590535106415176
      ],
      [
        "trí",
        -6.671814442011799
      ],
      [
        "mh",
        -6.680535805439122
      ],
      [
        "duine",
        -6.6830882828185185
      ],
      [
        "Tuillea",
        -6.713438608125321
      ],
      [
        "p",
        -6.715077856048527
      ],
      [
        "maidi",
        -6.743035962222237
      ],
      [
        "nach",
        -6.75114316028826
      ],
      [
        "saor",
        -6.755142091207164
      ],
      [
        "3",
        -6.757660485532728
      ],
      [
        "deimhnithe",
        -6.759823644355379
      ],
      [
        "Cuntas",
        -6.766899539447822
      ],
      [
        "gach",
        -6.787627251569228
      ],
      [
        "/",
        -6.788394520129762
      ],
      [
        "y",
        -6.792464653868372
      ],
      [
        "N",
        -6.796668722978838
      ],
      [
        "don",
        -6.798455256466918
      ],
      [
        "níos",
        -6.801185484459722
      ],
      [
        "nasc",
        -6.807543530128111
      ],
      [
        "bh",
        -6.8122476819865305
      ],
      [
        "aisce",
        -6.821518963124488
      ],
      [
        "P",
        -6.852331172408441
      ],
      [
        "íonn",
        -6.859568077366042
      ],
      [
        "beidh",
        -6.8619602376037605
      ],
      [
        "uair",
        -6.8937209525757535
      ],
      [
        "óipeáil",
        -6.900246589906931
      ],
      [
        "Ní",
        -6.906159654479589
      ],
      [
        "porn",
        -6.9074947651108936
      ],
      [
        "um",
        -6.917728087091344
      ],
      [
        "dá",
        -6.9296905610729205
      ],
      [
        "idh",
        -6.933712373138524
      ],
      [
        "Acht",
        -6.943590769233566
      ],
      [
        "eitheamh",
        -6.982210955154088
      ],
      [
        "maith",
        -6.985839634222945
      ],
      [
        "úsáid",
        -6.987245736956911
      ],
      [
        "lena",
        -7.0004565243745756
      ],
      [
        "ina",
        -7.00473716764928
      ],
      [
        "Ar",
        -7.009296151244975
      ],
      [
        "L",
        -7.0245943651229865
      ],
      [
        "haghaidh",
        -7.028814463918344
      ],
      [
        "4",
        -7.032269852250332
      ],
      [
        "fáil",
        -7.037499147371326
      ],
      [
        "mó",
        -7.044559589177084
      ],
      [
        "_",
        -7.047736724544739
      ],
      [
        "te",
        -7.0519288651908045
      ],
      [
        "chuid",
        -7.06744941131066
      ],
      [
        "réir",
        -7.068066769286721
      ],
      [
        "tweet",
        -7.069902683582118
      ],
      [
        "iad",
        -7.074546035157363
      ],
      [
        "air",
        -7.076054958749237
      ],
      [
        "chloig",
        -7.079691727482624
      ],
      [
        "shin",
        -7.09042658251205
      ],
      [
        "leanúna",
        -7.095019745474266
      ],
      [
        "G",
        -7.096577856433365
      ],
      [
        "R",
        -7.126908077623899
      ],
      [
        "nua",
        -7.153443555648451
      ],
      [
        "amháin",
        -7.155311835142289
      ],
      [
        "5",
        -7.160358135609018
      ],
      [
        "th",
        -7.188144969890544
      ],
      [
        "Ag",
        -7.192694481214414
      ],
      [
        "bheid",
        -7.220969970301756
      ],
      [
        "chomh",
        -7.2246923771947795
      ],
      [
        "amach",
        -7.237525386771804
      ],
      [
        "\"",
        -7.240951158127576
      ],
      [
        "líne",
        -7.243217579965544
      ],
      [
        "–",
        -7.260238085540394
      ],
      [
        "“",
        -7.276726505206765
      ],
      [
        "iarratas",
        -7.281734664839496
      ],
      [
        "éis",
        -7.284085390109006
      ],
      [
        "mór",
        -7.290370767630064
      ],
      [
        "siad",
        -7.291536056691976
      ],
      [
        "E",
        -7.292546523070186
      ],
      [
        "lá",
        -7.293472609432136
      ],
      [
        "Dí",
        -7.305124113208894
      ],
      [
        "féin",
        -7.329556302704484
      ],
      [
        "thabhair",
        -7.343886551456846
      ],
      [
        "leith",
        -7.344131955256993
      ],
      [
        "choisc",
        -7.352778433661797
      ],
      [
        "gan",
        -7.359433877480912
      ],
      [
        "raibh",
        -7.377010865504452
      ],
      [
        "isteach",
        -7.379038664330345
      ],
      [
        "daoine",
        -7.382250941334419
      ],
      [
        "Cuir",
        -7.382449870711339
      ],
      [
        "faoin",
        -7.3891083692116855
      ],
      [
        "cineál",
        -7.39440430895818
      ],
      [
        "6",
        -7.396817680927809
      ],
      [
        "ár",
        -7.406829333546133
      ],
      [
        "fháil",
        -7.414656887271498
      ],
      [
        "19",
        -7.414962962110554
      ],
      [
        "cheannach",
        -7.420150840794031
      ],
      [
        "Féach",
        -7.421620384306584
      ],
      [
        "gcás",
        -7.425592011703154
      ],
      [
        "aithe",
        -7.439029929435705
      ],
      [
        "ing",
        -7.4436904672027655
      ],
      [
        "foca",
        -7.450562898698475
      ],
      [
        "rud",
        -7.452358481225712
      ],
      [
        "!",
        -7.474404106926885
      ],
      [
        "Le",
        -7.475746710686272
      ],
      [
        "fearr",
        -7.49126256177898
      ],
      [
        "tar",
        -7.492083587221252
      ],
      [
        "0",
        -7.506083572665757
      ],
      [
        "”",
        -7.528609219910281
      ],
      [
        "k",
        -7.5293187677516755
      ],
      [
        "álacha",
        -7.532463729996566
      ],
      [
        "leana",
        -7.532880604279834
      ],
      [
        "suíomh",
        -7.537827995590208
      ],
      [
        "freagra",
        -7.538968415979019
      ],
      [
        "acu",
        -7.5437964572929825
      ],
      [
        "bhí",
        -7.5458130122993445
      ],
      [
        "idir",
        -7.560036212352685
      ],
      [
        "san",
        -7.565385030493692
      ],
      [
        "abhairt",
        -7.565627101221818
      ],
      [
        "8",
        -7.57979139745062
      ],
      [
        "HD",
        -7.581448157304971
      ],
      [
        "roimh",
        -7.585763241202795
      ],
      [
        "mo",
        -7.586245644364883
      ],
      [
        "ealaigh",
        -7.586271032573903
      ],
      [
        "tear",
        -7.592908554403786
      ],
      [
        "má",
        -7.602614761631571
      ],
      [
        "nGaeilge",
        -7.602790563073871
      ],
      [
        "bríonn",
        -7.607485531011843
      ],
      [
        "the",
        -7.615850357993343
      ],
      [
        "chuig",
        -7.616149485149537
      ],
      [
        "7",
        -7.616524507466339
      ],
      [
        "linn",
        -7.616535418205091
      ],
      [
        "H",
        -7.617294987106023
      ],
      [
        "sainmhíni",
        -7.619453766969537
      ],
      [
        "méid",
        -7.624393239310807
      ],
      [
        "áirithe",
        -7.625710080031654
      ],
      [
        "Mar",
        -7.625764676179326
      ],
      [
        "O",
        -7.626219117219245
      ],
      [
        "for",
        -7.630492122725149
      ],
      [
        "iallach",
        -7.632835726516275
      ],
      [
        "...",
        -7.636232375610332
      ],
      [
        "10",
        -7.638011730365124
      ],
      [
        "áil",
        -7.645517950788484
      ],
      [
        "com",
        -7.64617029010695
      ],
      [
        "fhrithch",
        -7.651053948457033
      ],
      [
        "fuaimni",
        -7.6517396427444755
      ],
      [
        "omhchialla",
        -7.656962525366662
      ],
      [
        "ceart",
        -7.658703187295517
      ],
      [
        "W",
        -7.667949919085091
      ],
      [
        "gá",
        -7.669208421498491
      ],
      [
        "eann",
        -7.674548740606248
      ],
      [
        "nois",
        -7.6835424219248605
      ],
      [
        "freisin",
        -7.701354504143929
      ],
      [
        "on",
        -7.706401603614873
      ],
      [
        "dtí",
        -7.707883135005563
      ],
      [
        "V",
        -7.708306397980909
      ],
      [
        "Ch",
        -7.710023993861448
      ],
      [
        "ceann",
        -7.7116459290076484
      ],
      [
        "dul",
        -7.717452305799426
      ],
      [
        "U",
        -7.72915370818092
      ],
      [
        "ceal",
        -7.743926050182999
      ],
      [
        "—",
        -7.7464341144873465
      ],
      [
        "aigh",
        -7.748068762645719
      ],
      [
        "chéad",
        -7.7497788452630285
      ],
      [
        "Eorpach",
        -7.7612313276361995
      ],
      [
        "duit",
        -7.7645957989392365
      ],
      [
        "K",
        -7.765883127981972
      ],
      [
        "Iarratas",
        -7.789894792220634
      ],
      [
        "iomlán",
        -7.794081005260052
      ],
      [
        "áit",
        -7.807433369446562
      ],
      [
        "cheart",
        -7.808604879065683
      ],
      [
        "aghaidh",
        -7.814610728707153
      ],
      [
        "bhreathn",
        -7.814892441096912
      ],
      [
        "w",
        -7.822293850485874
      ],
      [
        "Gaeilge",
        -7.823389438613068
      ],
      [
        "ath",
        -7.827455230753822
      ],
      [
        "obair",
        -7.832475342629962
      ],
      [
        "bhaineann",
        -7.838057549225615
      ],
      [
        "roinnt",
        -7.839255475260137
      ],
      [
        "bhainfea",
        -7.847466093257616
      ],
      [
        "cur",
        -7.8489233260293965
      ],
      [
        "sonraí",
        -7.857790263020348
      ],
      [
        "ainm",
        -7.869507645907838
      ],
      [
        "dáta",
        -7.871354743862433
      ],
      [
        "tha",
        -7.874311957600357
      ],
      [
        "9",
        -7.881292650336437
      ],
      [
        "léir",
        -7.8824429744612114
      ],
      [
        "imh",
        -7.887824243493034
      ],
      [
        "bhaint",
        -7.89091289544139
      ],
      [
        "AE",
        -7.894398272905359
      ],
      [
        "agat",
        -7.899605817207748
      ],
      [
        "18",
        -7.903750608906079
      ],
      [
        "12",
        -7.90610566851514
      ],
      [
        "Roinn",
        -7.907151295679826
      ],
      [
        "tréimhse",
        -7.9171159224017655
      ],
      [
        "Beidh",
        -7.923924493280061
      ],
      [
        "gh",
        -7.923980495409033
      ],
      [
        "ítear",
        -7.927385844467166
      ],
      [
        "20",
        -7.929404572730917
      ],
      [
        "15",
        -7.931864326647165
      ],
      [
        "[",
        -7.948400710994212
      ],
      [
        "]",
        -7.949486094402679
      ],
      [
        "nuair",
        -7.9500415471909704
      ],
      [
        "cluiche",
        -7.95021177470535
      ],
      [
        "gréasáin",
        -7.9542032581918996
      ],
      [
        "ábhar",
        -7.967801001785978
      ],
      [
        "far",
        -7.969769160710084
      ],
      [
        "fh",
        -7.973722705827236
      ],
      [
        "eanna",
        -7.975326427260772
      ],
      [
        "haoine",
        -7.977059133899143
      ],
      [
        "v",
        -7.9790528240402
      ],
      [
        "cinn",
        -7.982721727636826
      ],
      [
        "bhfeidhm",
        -7.9847416581532755
      ],
      [
        "thar",
        -7.985802014114314
      ],
      [
        "Twitter",
        -7.992006553737511
      ],
      [
        "físeá",
        -7.994133876254738
      ],
      [
        "fho",
        -7.997790517599496
      ],
      [
        "éagsúla",
        -8.002635680069737
      ],
      [
        "cheann",
        -8.003665442278223
      ],
      [
        "hÉireann",
        -8.006326629023963
      ],
      [
        "Co",
        -8.017469784215988
      ],
      [
        "arna",
        -8.018882715266315
      ],
      [
        "chéile",
        -8.02310837383576
      ],
      [
        "Má",
        -8.030095739892595
      ],
      [
        "each",
        -8.035437467938428
      ],
      [
        "caighdeán",
        -8.044497266688143
      ],
      [
        "neamh",
        -8.046742121349602
      ],
      [
        "Aontais",
        -8.053546781118573
      ],
      [
        "aige",
        -8.057764696764657
      ],
      [
        "scoth",
        -8.05805363935862
      ],
      [
        "Airteagal",
        -8.060051390776387
      ],
      [
        "síos",
        -8.060664405530677
      ],
      [
        "bith",
        -8.064122190769684
      ],
      [
        "hEorpa",
        -8.065740977626495
      ],
      [
        "comh",
        -8.06597389765478
      ],
      [
        "EN",
        -8.06828151092109
      ],
      [
        "z",
        -8.070501299099268
      ],
      [
        "ordú",
        -8.071249869309064
      ],
      [
        "&",
        -8.073419397056597
      ],
      [
        "teacht",
        -8.083084206297105
      ],
      [
        "mé",
        -8.084295283688451
      ],
      [
        "De",
        -8.091823162646218
      ],
      [
        "Go",
        -8.098340607223154
      ],
      [
        "leor",
        -8.103957348615605
      ],
      [
        "íoc",
        -8.109954820920557
      ],
      [
        "inneadh",
        -8.11180517683821
      ],
      [
        "16",
        -8.116674317155187
      ],
      [
        "físeán",
        -8.118239100837382
      ],
      [
        "24",
        -8.123068411614591
      ],
      [
        "chaighdeán",
        -8.123493264937398
      ],
      [
        "%",
        -8.123839652960324
      ],
      [
        "aois",
        -8.129392453708085
      ],
      [
        "amp",
        -8.13059397629554
      ],
      [
        "bhliain",
        -8.13380100840186
      ],
      [
        "eolas",
        -8.137073647414962
      ],
      [
        "Dé",
        -8.138227430474966
      ],
      [
        "30",
        -8.138548577354154
      ],
      [
        "Aire",
        -8.146084131576975
      ],
      [
        "sórt",
        -8.146575789971397
      ],
      [
        "2018",
        -8.15505193538892
      ],
      [
        "ála",
        -8.159339608233484
      ],
      [
        "láthair",
        -8.16281899183892
      ],
      [
        "€",
        -8.163396556436188
      ],
      [
        "áin",
        -8.16456101674698
      ],
      [
        "ibé",
        -8.165642515212731
      ],
      [
        "áirítear",
        -8.180686296027165
      ],
      [
        "ásta",
        -8.182653690589188
      ],
      [
        "ráta",
        -8.184310565885891
      ],
      [
        "anseo",
        -8.187600773369933
      ],
      [
        "táirgí",
        -8.18974407995043
      ],
      [
        "The",
        -8.190613283561756
      ],
      [
        "suas",
        -8.191466597117772
      ],
      [
        "bliana",
        -8.19165195914833
      ],
      [
        "of",
        -8.194198185419253
      ],
      [
        "Lean",
        -8.19559115179607
      ],
      [
        "cheana",
        -8.200514566179326
      ],
      [
        "Iúil",
        -8.201078084939564
      ],
      [
        "uithe",
        -8.20456176905935
      ],
      [
        "fear",
        -8.205541193850818
      ],
      [
        "féachain",
        -8.21535183738273
      ],
      [
        "Ba",
        -8.218779714311925
      ],
      [
        "imeachta",
        -8.219439897678114
      ],
      [
        "leo",
        -8.220987638601063
      ],
      [
        "díreach",
        -8.224988795362403
      ],
      [
        "bearta",
        -8.225511893196295
      ],
      [
        "Coiscthe",
        -8.225830172386605
      ],
      [
        "11",
        -8.225962944257581
      ],
      [
        "déanta",
        -8.23086548716999
      ],
      [
        "Béarla",
        -8.235902465876435
      ],
      [
        "ph",
        -8.240578315172755
      ],
      [
        "niú",
        -8.242384989913134
      ],
      [
        "co",
        -8.249417997482155
      ],
      [
        "2017",
        -8.251322260611573
      ],
      [
        "chóir",
        -8.252390790814598
      ],
      [
        "Porn",
        -8.2550118788759
      ],
      [
        "dheis",
        -8.255474817568487
      ],
      [
        "láithreá",
        -8.261786656466388
      ],
      [
        "17",
        -8.262906729074595
      ],
      [
        "oir",
        -8.26664858224283
      ],
      [
        "tAire",
        -8.269807031587513
      ],
      [
        "Deireadh",
        -8.27049289381079
      ],
      [
        "más",
        -8.273245041017613
      ],
      [
        "Chomhairle",
        -8.27523488528244
      ],
      [
        "be",
        -8.275388819682284
      ],
      [
        "údarás",
        -8.275571758971264
      ],
      [
        "Márta",
        -8.279269671325782
      ],
      [
        "Chun",
        -8.284142116508757
      ],
      [
        "fo",
        -8.284644044876256
      ],
      [
        "líon",
        -8.286012036096611
      ],
      [
        "fhéadfadh",
        -8.286757146054995
      ],
      [
        "Baile",
        -8.290846814271351
      ],
      [
        "Th",
        -8.293857609312337
      ],
      [
        "Rialachá",
        -8.297088518165822
      ],
      [
        "J",
        -8.305268083716143
      ],
      [
        "14",
        -8.30714899927391
      ],
      [
        "feadh",
        -8.307300983801907
      ],
      [
        "13",
        -8.312260919259547
      ],
      [
        "seirbhísí",
        -8.316688972712607
      ],
      [
        "fad",
        -8.318548689666727
      ],
      [
        "eas",
        -8.323259085916998
      ],
      [
        "íoslódáil",
        -8.32456108656132
      ],
      [
        "íodh",
        -8.329280136490382
      ],
      [
        "cháin",
        -8.336022188107478
      ],
      [
        "ionad",
        -8.336862173633346
      ],
      [
        "dhá",
        -8.338917922498176
      ],
      [
        "iontach",
        -8.3426571766564
      ],
      [
        "ndáil",
        -8.345088766590791
      ],
      [
        "X",
        -8.347468126776576
      ],
      [
        "eamh",
        -8.350323125414938
      ],
      [
        "oibre",
        -8.35254516845718
      ],
      [
        "laist",
        -8.356267138838843
      ],
      [
        "Comhrá",
        -8.36654805290586
      ],
      [
        "huaire",
        -8.368477441984838
      ],
      [
        "Aontas",
        -8.372040361946969
      ],
      [
        "uisce",
        -8.372409895557622
      ],
      [
        "2019",
        -8.38149438980202
      ],
      [
        "ill",
        -8.384126848347286
      ],
      [
        "mhí",
        -8.388114567983543
      ],
      [
        "leathanach",
        -8.38815066584789
      ],
      [
        "ion",
        -8.395413413269711
      ],
      [
        "óir",
        -8.399114051328485
      ],
      [
        "Á",
        -8.404722023423878
      ],
      [
        "all",
        -8.408396328249628
      ],
      [
        "cluichí",
        -8.410875618620612
      ],
      [
        "bliain",
        -8.410878932585113
      ],
      [
        "us",
        -8.411834386669785
      ],
      [
        "mbaineann",
        -8.413282493531769
      ],
      [
        "áireamh",
        -8.416207002186207
      ],
      [
        "bhun",
        -8.42132632725918
      ],
      [
        "fós",
        -8.422756325457286
      ],
      [
        "gcuid",
        -8.425854517260799
      ],
      [
        "25",
        -8.429205716022977
      ],
      [
        "luach",
        -8.43562728764634
      ],
      [
        "gheall",
        -8.438837821165045
      ],
      [
        "iarraidh",
        -8.439434343378087
      ],
      [
        "bhíonn",
        -8.441284307217781
      ],
      [
        "aíonn",
        -8.444782171982396
      ],
      [
        "cé",
        -8.447110985842812
      ],
      [
        "mbead",
        -8.45129686146748
      ],
      [
        "ort",
        -8.451972361940381
      ],
      [
        "tráth",
        -8.45448444048941
      ],
      [
        "Ard",
        -8.455503143845014
      ],
      [
        ").",
        -8.457343426455344
      ],
      [
        "Sh",
        -8.459020576154675
      ],
      [
        "Ó",
        -8.459290461835668
      ],
      [
        "dlí",
        -8.461287760522959
      ],
      [
        "fhreagra",
        -8.462691271069005
      ],
      [
        "Comhairle",
        -8.463163200400775
      ],
      [
        "athrú",
        -8.463907825106904
      ],
      [
        "céanna",
        -8.470435766149077
      ],
      [
        "scríobh",
        -8.472773703094486
      ],
      [
        "gComhairle",
        -8.47386281378058
      ],
      [
        "Agus",
        -8.476458332901522
      ],
      [
        "beag",
        -8.477030313552232
      ],
      [
        "ur",
        -8.477902819120889
      ],
      [
        "mhéid",
        -8.479562366926558
      ],
      [
        "leibhéal",
        -8.485408157634946
      ],
      [
        "ontaithe",
        -8.491033205626374
      ],
      [
        "fud",
        -8.492242972446913
      ],
      [
        "atweet",
        -8.492545989300492
      ],
      [
        "‘",
        -8.493433584041224
      ],
      [
        "rogha",
        -8.496546295183636
      ],
      [
        "náisiúnta",
        -8.498680411878139
      ],
      [
        "ndéanfa",
        -8.499953283456177
      ],
      [
        "Atweetáil",
        -8.504257884341826
      ],
      [
        "cuid",
        -8.506806564075436
      ],
      [
        "Fuaim",
        -8.506825847719876
      ],
      [
        "Leaba",
        -8.506865790178871
      ],
      [
        "cht",
        -8.50726333596456
      ],
      [
        "feidhm",
        -8.509428474577721
      ],
      [
        "x",
        -8.513502925442825
      ],
      [
        "dóibh",
        -8.514895947805556
      ],
      [
        "againn",
        -8.515144541434498
      ],
      [
        "airgeadra",
        -8.516531882619528
      ],
      [
        "ite",
        -8.519029303674946
      ],
      [
        "deara",
        -8.51964776301509
      ],
      [
        "orthu",
        -8.520052947431171
      ],
      [
        "cothrom",
        -8.522586056543947
      ],
      [
        "tras",
        -8.524028523922762
      ],
      [
        "cuideachta",
        -8.525395174397165
      ],
      [
        "scannán",
        -8.527700301333923
      ],
      [
        "déana",
        -8.527981129826486
      ],
      [
        "earraí",
        -8.52883955169382
      ],
      [
        "23",
        -8.530949922834871
      ],
      [
        "Fómhair",
        -8.534110009749067
      ],
      [
        "eideal",
        -8.536024359440859
      ],
      [
        "ábhair",
        -8.538114349599073
      ],
      [
        "liom",
        -8.53854272976005
      ],
      [
        "taobh",
        -8.5397184287724
      ],
      [
        "21",
        -8.54178131420101
      ],
      [
        "gcónaí",
        -8.546866375675641
      ],
      [
        "artha",
        -8.547887870295398
      ],
      [
        "fíor",
        -8.553767724192646
      ],
      [
        "uile",
        -8.554413966299395
      ],
      [
        "oifig",
        -8.554899065353531
      ],
      [
        "féach",
        -8.555266708847075
      ],
      [
        "pe",
        -8.559620323818146
      ],
      [
        "mhír",
        -8.561994994627295
      ],
      [
        "féadfaid",
        -8.563181954136457
      ],
      [
        "tSín",
        -8.563356072911738
      ],
      [
        "Éirinn",
        -8.570544366930289
      ],
      [
        "críocha",
        -8.571895904067098
      ],
      [
        "seirbhís",
        -8.5745599308821
      ],
      [
        "For",
        -8.574713749789467
      ],
      [
        "cáilíochta",
        -8.575484809913933
      ],
      [
        "álta",
        -8.578355050778042
      ],
      [
        "Déan",
        -8.579137838795798
      ],
      [
        "fheabhsú",
        -8.579340032688485
      ],
      [
        "iomchu",
        -8.57964984005741
      ],
      [
        "CE",
        -8.58257709718752
      ],
      [
        "faidh",
        -8.583218071207387
      ],
      [
        "Cé",
        -8.584287440994835
      ],
      [
        "000",
        -8.588417403800328
      ],
      [
        "feidhme",
        -8.588922532808724
      ],
      [
        "Féadfaidh",
        -8.589636231159846
      ],
      [
        "2016",
        -8.589732680282097
      ],
      [
        "gnéas",
        -8.590233910851033
      ],
      [
        "ke",
        -8.591400918969535
      ],
      [
        "Tuga",
        -8.594778640887888
      ],
      [
        "ailt",
        -8.595282016467229
      ],
      [
        "22",
        -8.598841951902557
      ],
      [
        "ghlacad",
        -8.600395855870659
      ],
      [
        "Eorpaigh",
        -8.601146734964857
      ],
      [
        "airgead",
        -8.603643625789214
      ],
      [
        "iúl",
        -8.603876177947175
      ],
      [
        "éir",
        -8.604154712112456
      ],
      [
        "Coimisiún",
        -8.605965194998756
      ],
      [
        "fógra",
        -8.607772522439664
      ],
      [
        "ciallaíon",
        -8.608055712718432
      ],
      [
        "Ballstá",
        -8.612524327481989
      ],
      [
        "amhlai",
        -8.617728492961609
      ],
      [
        "táirge",
        -8.622422567647753
      ],
      [
        "rialacha",
        -8.622858742592918
      ],
      [
        "fhor",
        -8.624647565476366
      ],
      [
        "rith",
        -8.627358001469739
      ],
      [
        "ly",
        -8.63017533180343
      ],
      [
        "croí",
        -8.630323202827364
      ],
      [
        "dhéana",
        -8.631313033567636
      ],
      [
        "lán",
        -8.638530103606143
      ],
      [
        "100",
        -8.640904710318644
      ],
      [
        "Físeán",
        -8.643434715430889
      ],
      [
        "bia",
        -8.64408444507671
      ],
      [
        "fhorbairt",
        -8.64465374830266
      ],
      [
        "son",
        -8.64469060916755
      ],
      [
        "eachta",
        -8.646459912320756
      ],
      [
        "ire",
        -8.64934825158905
      ],
      [
        "súil",
        -8.651547803125858
      ],
      [
        "uaire",
        -8.651787481715026
      ],
      [
        "Y",
        -8.652513007917214
      ],
      [
        "muid",
        -8.654675388244069
      ],
      [
        "leas",
        -8.656709829889046
      ],
      [
        "teanga",
        -8.667986181855309
      ],
      [
        "deireadh",
        -8.672945370968707
      ],
      [
        "chuir",
        -8.674632125779407
      ],
      [
        "éil",
        -8.677796500441286
      ],
      [
        "Nach",
        -8.68080897237251
      ],
      [
        "50",
        -8.681964484768958
      ],
      [
        "imir",
        -8.682444963089335
      ],
      [
        "32",
        -8.684039969307687
      ],
      [
        "sholátha",
        -8.685690380628438
      ],
      [
        "bhfo",
        -8.685888959730375
      ],
      [
        "eacha",
        -8.688150013387347
      ],
      [
        "chlár",
        -8.688158794407729
      ],
      [
        "Stáit",
        -8.688443387804874
      ],
      [
        "éifeacht",
        -8.689466224621386
      ],
      [
        "Náisiúnta",
        -8.691577494419406
      ],
      [
        "speisialta",
        -8.693001965460672
      ],
      [
        "anúint",
        -8.697497671998075
      ],
      [
        "ith",
        -8.699757393530769
      ],
      [
        "mian",
        -8.699928675600784
      ],
      [
        "Bord",
        -8.702356589359269
      ],
      [
        "Oifig",
        -8.704576927845313
      ],
      [
        "tríd",
        -8.707893353283978
      ],
      [
        "Oireachtais",
        -8.709979382639965
      ],
      [
        "Stát",
        -8.710400768778442
      ],
      [
        "bhrí",
        -8.711205199952259
      ],
      [
        "poiblí",
        -8.711367782922768
      ],
      [
        "freagairt",
        -8.711367813086852
      ],
      [
        "chomhrá",
        -8.716400383103146
      ],
      [
        "córas",
        -8.71690440874351
      ],
      [
        "scoil",
        -8.717806042596152
      ],
      [
        "mhór",
        -8.718025592117908
      ],
      [
        "Rinne",
        -8.71856943228454
      ],
      [
        "Bhí",
        -8.719642677231413
      ],
      [
        "réimse",
        -8.727064396556138
      ],
      [
        "haon",
        -8.727236796993418
      ],
      [
        "comhalta",
        -8.729362499378457
      ],
      [
        "lucht",
        -8.730348313835288
      ],
      [
        "bun",
        -8.730504244897418
      ],
      [
        "aítear",
        -8.732553843164062
      ],
      [
        "che",
        -8.733017608396963
      ],
      [
        "Ceisteanna",
        -8.733062475225331
      ],
      [
        "baint",
        -8.736108039426197
      ],
      [
        "Pharlaimint",
        -8.736496691186574
      ],
      [
        "ex",
        -8.73654725484611
      ],
      [
        "imid",
        -8.74037826872475
      ],
      [
        "Uimh",
        -8.740498112619637
      ],
      [
        "chlárú",
        -8.743155604332216
      ],
      [
        "áitiúil",
        -8.745300698899971
      ],
      [
        "mura",
        -8.746055886636116
      ],
      [
        "Chomh",
        -8.747010729352565
      ],
      [
        "Dáil",
        -8.748927348885239
      ],
      [
        "rialachá",
        -8.748969806927162
      ],
      [
        "mír",
        -8.750387766833995
      ],
      [
        "Ach",
        -8.75566850153678
      ],
      [
        "oifige",
        -8.75882140098842
      ],
      [
        "Be",
        -8.759105255318998
      ],
      [
        "Tithe",
        -8.76045097572479
      ],
      [
        "eadh",
        -8.760633630865783
      ],
      [
        "pearsanta",
        -8.760798534613965
      ],
      [
        "abhair",
        -8.762684061487988
      ],
      [
        "eachas",
        -8.76408807750664
      ],
      [
        "26",
        -8.765242143846077
      ],
      [
        "Catagóir",
        -8.76964456369911
      ],
      [
        "Do",
        -8.769904349885294
      ],
      [
        "Parlaiminte",
        -8.775859312022327
      ],
      [
        "2015",
        -8.776951436739614
      ],
      [
        "Z",
        -8.77780237975276
      ],
      [
        "31",
        -8.77987048171913
      ],
      [
        "modh",
        -8.783526061490381
      ],
      [
        "coinníollach",
        -8.786804359937287
      ],
      [
        "cu",
        -8.790204466329222
      ],
      [
        "cuí",
        -8.797383557138588
      ],
      [
        "Mh",
        -8.79864020233893
      ],
      [
        "2014",
        -8.806380944971114
      ],
      [
        "íoctha",
        -8.80722580219565
      ],
      [
        "léi",
        -8.812691425231723
      ],
      [
        "28",
        -8.81414367528659
      ],
      [
        "roghnú",
        -8.816771493911501
      ],
      [
        "tacaíocht",
        -8.817682620105073
      ],
      [
        "cabhr",
        -8.818857053400883
      ],
      [
        "Mí",
        -8.821007652467522
      ],
      [
        "láithreach",
        -8.822529363273704
      ],
      [
        "j",
        -8.822759665079342
      ],
      [
        "praghas",
        -8.823883091493306
      ],
      [
        "fiú",
        -8.824723120816616
      ],
      [
        "bunaithe",
        -8.824920036204059
      ],
      [
        "íocht",
        -8.826218519271283
      ],
      [
        "Comh",
        -8.826284460679098
      ],
      [
        "irgeadais",
        -8.828522627660716
      ],
      [
        "iúil",
        -8.828889535659023
      ],
      [
        "Gnóthaí",
        -8.834157896602617
      ],
      [
        "Nua",
        -8.835984356134027
      ],
      [
        "úil",
        -8.83865121544348
      ],
      [
        "Átha",
        -8.839239572216721
      ],
      [
        "faisnéis",
        -8.841647227652256
      ],
      [
        "Feabh",
        -8.841648515946218
      ],
      [
        "Ph",
        -8.84208077982507
      ],
      [
        "ola",
        -8.846024086375065
      ],
      [
        "27",
        -8.84814043727572
      ],
      [
        "scéim",
        -8.849527958822934
      ],
      [
        "Cona",
        -8.849762968238625
      ],
      [
        "saol",
        -8.850341173975496
      ],
      [
        "measc",
        -8.851732652263397
      ],
      [
        "sheoladh",
        -8.85748130885591
      ],
      [
        "catagóir",
        -8.858115804323965
      ],
      [
        "páirt",
        -8.859836145713142
      ],
      [
        "óga",
        -8.86247753433302
      ],
      [
        "É",
        -8.863491311894279
      ],
      [
        "nár",
        -8.863942081451354
      ],
      [
        "cosú",
        -8.864507453472802
      ],
      [
        "leagan",
        -8.864666106515537
      ],
      [
        "dtagraí",
        -8.864712326330846
      ],
      [
        "Re",
        -8.866365355358319
      ],
      [
        "bhféadfa",
        -8.871071878244912
      ],
      [
        "glaca",
        -8.872562493725175
      ],
      [
        "tagairt",
        -8.873690682804678
      ],
      [
        "Níl",
        -8.874762599908715
      ],
      [
        "amhail",
        -8.874878658979085
      ],
      [
        "shampla",
        -8.875325633292496
      ],
      [
        "aonair",
        -8.875745506011896
      ],
      [
        "fé",
        -8.880014130747181
      ],
      [
        "ow",
        -8.880478783435528
      ],
      [
        "príomh",
        -8.880710249132898
      ],
      [
        "|",
        -8.88082170353818
      ],
      [
        "cad",
        -8.881053964259578
      ],
      [
        "íortha",
        -8.881146312376067
      ],
      [
        "chosaint",
        -8.88174371856379
      ],
      [
        "domhain",
        -8.881772054537528
      ],
      [
        "déanfa",
        -8.88388245766984
      ],
      [
        "chás",
        -8.884089173495148
      ],
      [
        "gcomhréir",
        -8.885315313577895
      ],
      [
        "orthaí",
        -8.88533580881268
      ],
      [
        "pl",
        -8.887874484638225
      ],
      [
        "Cluichí",
        -8.891025040844061
      ],
      [
        "29",
        -8.895344884255731
      ],
      [
        "2013",
        -8.895907835864314
      ],
      [
        "hiomlán",
        -8.896542143525727
      ],
      [
        "oiriúnach",
        -8.897688322794323
      ],
      [
        "laghdú",
        -8.898294262838208
      ],
      [
        "Cliath",
        -8.90066208010739
      ],
      [
        "iarratais",
        -8.901920892202234
      ],
      [
        "eacht",
        -8.902749679187007
      ],
      [
        "údar",
        -8.902914816362957
      ],
      [
        "gceist",
        -8.903994299214226
      ],
      [
        "gcéad",
        -8.904212803420645
      ],
      [
        "AN",
        -8.906156613838863
      ],
      [
        "Seirbhís",
        -8.907291169108749
      ],
      [
        "chuideachta",
        -8.9081899509069
      ],
      [
        "Cur",
        -8.908861563250852
      ],
      [
        "Fómh",
        -8.913706646109997
      ],
      [
        "clár",
        -8.913739268790469
      ],
      [
        "gnó",
        -8.916750206780097
      ],
      [
        "ers",
        -8.923374720673852
      ],
      [
        "Q",
        -8.9260847458904
      ],
      [
        "istigh",
        -8.926765357938503
      ],
      [
        "ndia",
        -8.92692920957996
      ],
      [
        "óirí",
        -8.928223510887978
      ],
      [
        "sláinte",
        -8.931714273969725
      ],
      [
        "cruach",
        -8.931932217828201
      ],
      [
        "ul",
        -8.933896726119233
      ],
      [
        "mheas",
        -8.934458015648215
      ],
      [
        "ation",
        -8.937614326598814
      ],
      [
        "idirnáisiúnta",
        -8.938485929798567
      ],
      [
        "mb",
        -8.938633526230136
      ],
      [
        "Airgeadais",
        -8.93942403732762
      ],
      [
        "gníomhaíochta",
        -8.94203055773912
      ],
      [
        "déan",
        -8.943343864445751
      ],
      [
        "bhealach",
        -8.943649432107858
      ],
      [
        "tuillea",
        -8.950376350491108
      ],
      [
        "eolais",
        -8.951284223473115
      ],
      [
        "dtaobh",
        -8.951817005876858
      ],
      [
        "dúinn",
        -8.953417903934827
      ],
      [
        "oll",
        -8.953653379862452
      ],
      [
        "siú",
        -8.95414630670326
      ],
      [
        "dhéanta",
        -8.95459237112692
      ],
      [
        "cona",
        -8.95627365355898
      ],
      [
        "ghnáth",
        -8.957162332119822
      ],
      [
        "Gaillimh",
        -8.959143580936253
      ],
      [
        "teagmhá",
        -8.959790194266596
      ],
      [
        "thaobh",
        -8.960543917935185
      ],
      [
        "liosta",
        -8.96135454681559
      ],
      [
        "éasca",
        -8.962428318713153
      ],
      [
        "Éireann",
        -8.962927275368838
      ],
      [
        "Gh",
        -8.973904987140651
      ],
      [
        "ghabh",
        -8.974445288018583
      ],
      [
        "Cad",
        -8.975022816793498
      ],
      [
        "vi",
        -8.978227656611033
      ],
      [
        "réamh",
        -8.979154433924862
      ],
      [
        "úsáidte",
        -8.980656253450679
      ],
      [
        "gcoinne",
        -8.980937663420733
      ],
      [
        "ton",
        -8.982167689660468
      ],
      [
        "Meán",
        -8.99056079891815
      ],
      [
        "chroí",
        -8.991806683810513
      ],
      [
        "Ghaeilge",
        -8.993507500096548
      ],
      [
        "Mo",
        -8.996240218479489
      ],
      [
        "huine",
        -8.99837713200256
      ],
      [
        "chruthú",
        -8.998879995247147
      ],
      [
        "ell",
        -9.000066915074527
      ],
      [
        "lae",
        -9.001445656724485
      ],
      [
        "chineál",
        -9.002089830828137
      ],
      [
        "iméad",
        -9.002410097784622
      ],
      [
        "Bh",
        -9.002449089691346
      ],
      [
        "riachtanach",
        -9.002657516370437
      ],
      [
        "00",
        -9.002696996179349
      ],
      [
        "agtha",
        -9.007251732426974
      ],
      [
        "inniu",
        -9.010142228628553
      ],
      [
        "Más",
        -9.010950521906338
      ],
      [
        "laghad",
        -9.011145343035873
      ],
      [
        "éanamh",
        -9.011572697762908
      ],
      [
        "fhonn",
        -9.011776183631177
      ],
      [
        "taighde",
        -9.014970714462835
      ],
      [
        "siúl",
        -9.016691378675102
      ],
      [
        "breise",
        -9.01787708706421
      ],
      [
        "cuireadh",
        -9.01856643880796
      ],
      [
        "ocht",
        -9.019131763830849
      ],
      [
        "rochtain",
        -9.02041420784975
      ],
      [
        "tóir",
        -9.020454968206007
      ],
      [
        "chinntiú",
        -9.020860320364577
      ],
      [
        "min",
        -9.02091603373763
      ],
      [
        "Beal",
        -9.023384035154017
      ],
      [
        "we",
        -9.023877060400196
      ],
      [
        "Treoir",
        -9.031264096225025
      ],
      [
        "cánach",
        -9.031510555214183
      ],
      [
        "éileamh",
        -9.032658465749591
      ],
      [
        "Sláinte",
        -9.033366734872669
      ],
      [
        "porno",
        -9.033725679135232
      ],
      [
        "po",
        -9.034213246989893
      ],
      [
        "aird",
        -9.034718556598785
      ],
      [
        "Seo",
        -9.035016817645948
      ],
      [
        "leathan",
        -9.037555575243827
      ],
      [
        "Aon",
        -9.039606826254579
      ],
      [
        "ter",
        -9.042255938886807
      ],
      [
        "tír",
        -9.045562245848945
      ],
      [
        "eir",
        -9.047640432625531
      ],
      [
        "aistriú",
        -9.049602807085705
      ],
      [
        "dtugta",
        -9.05239087400599
      ],
      [
        "forbairt",
        -9.052791008387779
      ],
      [
        "aíocht",
        -9.055383005759985
      ],
      [
        "per",
        -9.055906672748916
      ],
      [
        "Aibreá",
        -9.056108054115384
      ],
      [
        "riachtanais",
        -9.057817157325278
      ],
      [
        "Me",
        -9.058472959163176
      ],
      [
        "aire",
        -9.059415836932088
      ],
      [
        "meaisín",
        -9.060483013010069
      ],
      [
        "Gach",
        -9.063322210856146
      ],
      [
        "rinne",
        -9.06543114254363
      ],
      [
        "leanbh",
        -9.066858779741011
      ],
      [
        "aíochta",
        -9.069464817932774
      ],
      [
        "Bainfi",
        -9.070870456046556
      ],
      [
        "+",
        -9.07153851449139
      ],
      [
        "talamh",
        -9.071545746795522
      ],
      [
        "Bu",
        -9.072010485288473
      ],
      [
        "gníomh",
        -9.072392540478159
      ],
      [
        "scoile",
        -9.072706890381205
      ],
      [
        "margadh",
        -9.07318635007706
      ],
      [
        "íocaíocht",
        -9.075056549910904
      ],
      [
        "tuarascá",
        -9.078233669786817
      ],
      [
        "eoidh",
        -9.080249757313293
      ],
      [
        "hosm",
        -9.083758651769344
      ],
      [
        "uas",
        -9.084376046475803
      ],
      [
        "Coiste",
        -9.085151697840166
      ],
      [
        "lann",
        -9.085736797663348
      ],
      [
        "athair",
        -9.086011131893503
      ],
      [
        "Saor",
        -9.087751243510002
      ],
      [
        "tapa",
        -9.090687468370984
      ],
      [
        "scoileanna",
        -9.090966577577461
      ],
      [
        "cead",
        -9.091968407684067
      ],
      [
        "bunaidh",
        -9.093003741491856
      ],
      [
        "oibriú",
        -9.093018999010813
      ],
      [
        "tábhachtach",
        -9.095553480183764
      ],
      [
        "aitheanta",
        -9.095578295987405
      ],
      [
        "est",
        -9.095845035888457
      ],
      [
        "Údarás",
        -9.096307370246665
      ],
      [
        "cho",
        -9.096683361054357
      ],
      [
        "tor",
        -9.097128131126189
      ],
      [
        "seirbhíse",
        -9.098058286169142
      ],
      [
        "dhíol",
        -9.09898417785611
      ],
      [
        "ice",
        -9.101108024742562
      ],
      [
        "iompar",
        -9.101420604091917
      ],
      [
        "rialú",
        -9.106788290496773
      ],
      [
        "scríbhinn",
        -9.10771585079599
      ],
      [
        "dhiai",
        -9.107721267058093
      ],
      [
        "op",
        -9.110500551766151
      ],
      [
        "léinn",
        -9.113179595619233
      ],
      [
        "Oideacha",
        -9.114675278404505
      ],
      [
        "airde",
        -9.115028638250203
      ],
      [
        "úsáide",
        -9.11675224528889
      ],
      [
        "comhrá",
        -9.119257510361845
      ],
      [
        "freastal",
        -9.12053154632855
      ],
      [
        "ríomh",
        -9.121593183691207
      ],
      [
        "mbun",
        -9.122262282312292
      ],
      [
        "chomhlíona",
        -9.122300859454079
      ],
      [
        "Noll",
        -9.122877922534101
      ],
      [
        "domhan",
        -9.12513483405089
      ],
      [
        ".”",
        -9.125413165387666
      ],
      [
        "fhaisnéis",
        -9.127553193639434
      ],
      [
        "thíos",
        -9.130583863788274
      ],
      [
        "comhlacht",
        -9.132766980741922
      ],
      [
        "teach",
        -9.134043267896239
      ],
      [
        "ick",
        -9.134759734315052
      ],
      [
        "eoladh",
        -9.135109439960459
      ],
      [
        "bhonn",
        -9.13575850011712
      ],
      [
        "grá",
        -9.135834978288703
      ],
      [
        "nádúrtha",
        -9.137122097485872
      ],
      [
        "ábhartha",
        -9.137283177323162
      ],
      [
        "acmhainn",
        -9.137793408948852
      ],
      [
        "léiriú",
        -9.139203256101451
      ],
      [
        "Moncler",
        -9.140571392228072
      ],
      [
        "minic",
        -9.140672221375247
      ],
      [
        "tic",
        -9.140939071613403
      ],
      [
        "Se",
        -9.141538433869744
      ],
      [
        "mbliana",
        -9.141605125603467
      ],
      [
        "íseal",
        -9.145116391195014
      ],
      [
        "Sonraí",
        -9.146667177793283
      ],
      [
        "fhios",
        -9.148788192056404
      ],
      [
        "monaróir",
        -9.148987985315454
      ],
      [
        "realamh",
        -9.149334015845966
      ],
      [
        "40",
        -9.153084827610137
      ],
      [
        "eal",
        -9.154592182220304
      ],
      [
        "uaithe",
        -9.15463633366672
      ],
      [
        "Ionca",
        -9.156619671224338
      ],
      [
        "2012",
        -9.159242320263807
      ],
      [
        "éigin",
        -9.16592688609267
      ],
      [
        "Coimisinéir",
        -9.166365868153811
      ],
      [
        "achta",
        -9.167489724596525
      ],
      [
        "soláthraí",
        -9.168379475198616
      ],
      [
        "sásta",
        -9.169393715169097
      ],
      [
        "Faoi",
        -9.170461703223708
      ],
      [
        "ord",
        -9.17104540461122
      ],
      [
        "mlíne",
        -9.171070343757913
      ],
      [
        "íoch",
        -9.171459769053662
      ],
      [
        "cuir",
        -9.17153986779203
      ],
      [
        "Casino",
        -9.172076626822847
      ],
      [
        "tioncha",
        -9.173303019528621
      ],
      [
        "téarma",
        -9.174814727151546
      ],
      [
        "chomhalta",
        -9.17514292288934
      ],
      [
        "fás",
        -9.175464411910445
      ],
      [
        "load",
        -9.17623819675298
      ],
      [
        "NA",
        -9.178909313437751
      ],
      [
        "Soláthraithe",
        -9.18067365776195
      ],
      [
        "aimseartha",
        -9.184099318841909
      ],
      [
        "Déanfa",
        -9.184341993535146
      ],
      [
        "sula",
        -9.186789792413489
      ],
      [
        "Chúirt",
        -9.189206993138772
      ],
      [
        "Gaeltachta",
        -9.189693270531496
      ],
      [
        "dara",
        -9.190780165144272
      ],
      [
        "onn",
        -9.191923183240444
      ],
      [
        "cumhachta",
        -9.193500399012631
      ],
      [
        "Í",
        -9.194666918108759
      ],
      [
        "lua",
        -9.194727731484615
      ],
      [
        "staid",
        -9.196420483199184
      ],
      [
        "Máirt",
        -9.197255440827885
      ],
      [
        "gu",
        -9.19861937748059
      ],
      [
        "úirt",
        -9.202001440008642
      ],
      [
        "oinneáil",
        -9.202661689186366
      ],
      [
        "fheidhmiú",
        -9.206690276740817
      ],
      [
        "líonadh",
        -9.206721182754844
      ],
      [
        "tion",
        -9.207733099641779
      ],
      [
        "ies",
        -9.208166294052209
      ],
      [
        "ionann",
        -9.208750408427143
      ],
      [
        "thora",
        -9.209404669822149
      ],
      [
        "iarracht",
        -9.21512474047084
      ],
      [
        "reatha",
        -9.21540123067038
      ],
      [
        "bhfad",
        -9.221693315623114
      ],
      [
        "oideachais",
        -9.222289075727536
      ],
      [
        "próiseas",
        -9.222524131717286
      ],
      [
        "Eanái",
        -9.22311174006537
      ],
      [
        "ionas",
        -9.2237876410326
      ],
      [
        "naisc",
        -9.224408445279924
      ],
      [
        "cuspóir",
        -9.225041186026166
      ],
      [
        "2020",
        -9.226106429763044
      ],
      [
        "sraith",
        -9.228374039576757
      ],
      [
        "clips",
        -9.230273585300406
      ],
      [
        "deis",
        -9.232448765289439
      ],
      [
        "arís",
        -9.233186173223054
      ],
      [
        "grúpa",
        -9.2339923584859
      ],
      [
        "ity",
        -9.23745657267282
      ],
      [
        "gurb",
        -9.23803915199602
      ],
      [
        "airgi",
        -9.238682261241049
      ],
      [
        "Cluich",
        -9.23933763549872
      ],
      [
        "taithí",
        -9.24018403116897
      ],
      [
        "urtha",
        -9.24031935743172
      ],
      [
        "seach",
        -9.241157097008603
      ],
      [
        "thraigh",
        -9.24371043054283
      ],
      [
        "bhearta",
        -9.243718647315497
      ],
      [
        "Faigh",
        -9.2440661968213
      ],
      [
        "ginearálta",
        -9.244675031610768
      ],
      [
        "Grúpa",
        -9.244675094511837
      ],
      [
        "leasú",
        -9.245154145899283
      ],
      [
        "neart",
        -9.247222296068035
      ],
      [
        "she",
        -9.250892989943647
      ],
      [
        "choimeád",
        -9.251306342618374
      ],
      [
        "Eoraip",
        -9.252637908210783
      ],
      [
        "Sceideal",
        -9.254007821767797
      ],
      [
        "bharr",
        -9.255255357652459
      ],
      [
        "íocaíochta",
        -9.256974466784715
      ],
      [
        "ty",
        -9.259242136487677
      ],
      [
        "lorg",
        -9.259787418998815
      ],
      [
        "beala",
        -9.260016571461573
      ],
      [
        "bhaile",
        -9.260153137467423
      ],
      [
        "ry",
        -9.262126609683746
      ],
      [
        "soláthar",
        -9.266052430411069
      ],
      [
        "Comment",
        -9.26875933167844
      ],
      [
        "réiteach",
        -9.268770282007106
      ],
      [
        "trádála",
        -9.268877999672586
      ],
      [
        "aici",
        -9.269535185247252
      ],
      [
        "sampla",
        -9.269740815269454
      ],
      [
        "chaitheam",
        -9.272028239343445
      ],
      [
        "níl",
        -9.272599494886887
      ],
      [
        "seomra",
        -9.273230333173675
      ],
      [
        "cláraithe",
        -9.280646242929226
      ],
      [
        "scéal",
        -9.281378235869987
      ],
      [
        "ime",
        -9.284137213157418
      ],
      [
        "irt",
        -9.284266424851936
      ],
      [
        "chumhacht",
        -9.285145703036399
      ],
      [
        "Bain",
        -9.285507622851242
      ],
      [
        "irí",
        -9.286132848168943
      ],
      [
        "sean",
        -9.286401456322004
      ],
      [
        "ndearna",
        -9.287308186816475
      ],
      [
        "Contae",
        -9.287639959712074
      ],
      [
        "chinneadh",
        -9.290339274978699
      ],
      [
        "Liosta",
        -9.290673828829426
      ],
      [
        "comhaont",
        -9.290975654004189
      ],
      [
        "gnáth",
        -9.291494760212036
      ],
      [
        "íochta",
        -9.292929666704921
      ],
      [
        "Scéim",
        -9.293651539722262
      ],
      [
        "ghlac",
        -9.293926695862421
      ],
      [
        "faisnéise",
        -9.294110560606654
      ],
      [
        "Samh",
        -9.294822679293695
      ],
      [
        "Bealtai",
        -9.295148562883368
      ],
      [
        "tháinig",
        -9.296071739245457
      ],
      [
        "áirithi",
        -9.296234465026053
      ],
      [
        "anailís",
        -9.29630560307654
      ],
      [
        "Londa",
        -9.29763665759927
      ],
      [
        "shuíomh",
        -9.29900459776983
      ],
      [
        "Leasú",
        -9.29912787440082
      ],
      [
        "éard",
        -9.30215321236577
      ],
      [
        "iv",
        -9.302989593165405
      ],
      [
        "land",
        -9.303293576002993
      ],
      [
        "Fo",
        -9.303408486441398
      ],
      [
        "úsáideoir",
        -9.306138102272055
      ],
      [
        "2009",
        -9.306402142920021
      ],
      [
        "bhunú",
        -9.309687806417333
      ],
      [
        "tionsca",
        -9.311714212413053
      ],
      [
        "simplí",
        -9.314475583590376
      ],
      [
        "Rialtais",
        -9.315891597572385
      ],
      [
        "céim",
        -9.316795415177365
      ],
      [
        "cás",
        -9.31849093069183
      ],
      [
        "tharla",
        -9.31890864502008
      ],
      [
        "osaigh",
        -9.318947359545177
      ],
      [
        "heiceáil",
        -9.320194235739582
      ],
      [
        "Ean",
        -9.320518201891009
      ],
      [
        "bu",
        -9.322404915521204
      ],
      [
        "Aghaidh",
        -9.325880290753561
      ],
      [
        "gcrích",
        -9.326636800809315
      ],
      [
        "ceadúna",
        -9.327240490305904
      ],
      [
        "Nollaig",
        -9.328902275081136
      ],
      [
        "Idir",
        -9.331214984846062
      ],
      [
        "togra",
        -9.331329816299142
      ],
      [
        "shonraí",
        -9.33158284648125
      ],
      [
        "Ealaíon",
        -9.332090248456446
      ],
      [
        "Lá",
        -9.335022264804824
      ],
      [
        "tre",
        -9.335443949248763
      ],
      [
        "2011",
        -9.337120689079766
      ],
      [
        "cuairt",
        -9.34038362205383
      ],
      [
        "Dá",
        -9.341484002691205
      ],
      [
        "íos",
        -9.341487749460265
      ],
      [
        "athbhreithniú",
        -9.341863709660664
      ],
      [
        "itheoir",
        -9.343458571553478
      ],
      [
        "deimhniú",
        -9.344132847272522
      ],
      [
        "toisc",
        -9.344723534590514
      ],
      [
        "pé",
        -9.346820041462943
      ],
      [
        "chu",
        -9.347067717048628
      ],
      [
        "chéim",
        -9.347215478259596
      ],
      [
        "Li",
        -9.34765410398579
      ],
      [
        "CO",
        -9.34794271739704
      ],
      [
        "soiléir",
        -9.348166282347744
      ],
      [
        "suim",
        -9.349301956479191
      ],
      [
        "bheadh",
        -9.351164467913007
      ],
      [
        "ionca",
        -9.351443834772127
      ],
      [
        "leabhar",
        -9.351856841363656
      ],
      [
        "ve",
        -9.35216763428685
      ],
      [
        "dath",
        -9.35407787117525
      ],
      [
        "barr",
        -9.355721404620537
      ],
      [
        "tuga",
        -9.356017537802106
      ],
      [
        "AR",
        -9.357811292877905
      ],
      [
        "tíre",
        -9.357847596431373
      ],
      [
        "leath",
        -9.358131387055453
      ],
      [
        "cúig",
        -9.359626906315212
      ],
      [
        "gCoimisiún",
        -9.36139158245908
      ],
      [
        "Maidi",
        -9.36195413499376
      ],
      [
        "ver",
        -9.363349074269852
      ],
      [
        "ham",
        -9.363929304288828
      ],
      [
        "fanacht",
        -9.363975635313036
      ],
      [
        "ghnó",
        -9.363978339086485
      ],
      [
        "údará",
        -9.36451672340605
      ],
      [
        "fhéid",
        -9.365333846261192
      ],
      [
        "institiúid",
        -9.36619815365605
      ],
      [
        "cion",
        -9.36690729310744
      ],
      [
        "ki",
        -9.367256318841836
      ],
      [
        "Scoil",
        -9.36990875978451
      ],
      [
        "ríomhaire",
        -9.369957835034619
      ],
      [
        "luaite",
        -9.370358810745913
      ],
      [
        "limisté",
        -9.37139443387389
      ],
      [
        "altaí",
        -9.37148978115513
      ],
      [
        "ber",
        -9.371594180883474
      ],
      [
        "cuma",
        -9.372066844045655
      ],
      [
        "hAcht",
        -9.373128187660932
      ],
      [
        "*",
        -9.377356966586206
      ],
      [
        "Ro",
        -9.377936691691776
      ],
      [
        "stíl",
        -9.37850828469072
      ],
      [
        "costais",
        -9.379082404861967
      ],
      [
        "múinteoir",
        -9.380380803640985
      ],
      [
        "scannáin",
        -9.380380906572686
      ],
      [
        "con",
        -9.381839142774968
      ],
      [
        "fada",
        -9.38203673323816
      ],
      [
        "chion",
        -9.383804082813958
      ],
      [
        "álainn",
        -9.384434318524178
      ],
      [
        "luath",
        -9.38483594308192
      ],
      [
        "IN",
        -9.38616620909978
      ],
      [
        "60",
        -9.387438315303815
      ],
      [
        "Meith",
        -9.389608904386403
      ],
      [
        "díol",
        -9.390240274663283
      ],
      [
        "II",
        -9.392820898621103
      ],
      [
        "gcomparáid",
        -9.393183008541403
      ],
      [
        "cúna",
        -9.394810182360331
      ],
      [
        "saothair",
        -9.394811574789921
      ],
      [
        "pro",
        -9.396179171778908
      ],
      [
        "dhéanfaid",
        -9.396256269645296
      ],
      [
        "críche",
        -9.396403532967614
      ],
      [
        "thart",
        -9.396418118000993
      ],
      [
        "Su",
        -9.396909807332127
      ],
      [
        "fu",
        -9.398692559540148
      ],
      [
        "malairte",
        -9.400261198313848
      ],
      [
        "ochair",
        -9.40112298061127
      ],
      [
        "Ath",
        -9.402343937157717
      ],
      [
        "sóisialta",
        -9.403352326519318
      ],
      [
        "cóip",
        -9.403460665749343
      ],
      [
        "leanúnach",
        -9.404548811907919
      ],
      [
        "ról",
        -9.405968945440181
      ],
      [
        "earnáil",
        -9.408063147830408
      ],
      [
        "mhéadú",
        -9.408593338418438
      ],
      [
        "fáilte",
        -9.409356853989948
      ],
      [
        "ment",
        -9.409646405235996
      ],
      [
        "mná",
        -9.411035299910253
      ],
      [
        "uirlis",
        -9.411153465969278
      ],
      [
        "thug",
        -9.413290710652195
      ],
      [
        "tacú",
        -9.414867768357043
      ],
      [
        "sábháilteacht",
        -9.414906596426171
      ],
      [
        "chúis",
        -9.415452808505357
      ],
      [
        "dhearna",
        -9.41614077592955
      ],
      [
        "ball",
        -9.417029542279113
      ],
      [
        "slí",
        -9.41839260614599
      ],
      [
        "leagt",
        -9.41896260968387
      ],
      [
        "snáithe",
        -9.419013054043443
      ],
      [
        "cosaint",
        -9.420549675713644
      ],
      [
        "Bhaile",
        -9.421955729197014
      ],
      [
        "ndáiríre",
        -9.423021227845775
      ],
      [
        "éirí",
        -9.42324075035145
      ],
      [
        "ráitea",
        -9.423292088743075
      ],
      [
        "áir",
        -9.423881522768578
      ],
      [
        "luas",
        -9.424163686682842
      ],
      [
        "réidh",
        -9.426050389038892
      ],
      [
        "fhoirm",
        -9.426848359168208
      ],
      [
        "ghníomh",
        -9.426956952666217
      ],
      [
        "Cho",
        -9.430431836212614
      ],
      [
        "oirí",
        -9.431666327620206
      ],
      [
        "red",
        -9.432459374461228
      ],
      [
        "aidhm",
        -9.432549508219129
      ],
      [
        "Mór",
        -9.433341822781586
      ],
      [
        "eo",
        -9.43418163209221
      ],
      [
        "Nais",
        -9.435522108094574
      ],
      [
        "oideachas",
        -9.435597333265694
      ],
      [
        "scrúdú",
        -9.43598760451317
      ],
      [
        "cheangal",
        -9.436426379516515
      ],
      [
        "phobal",
        -9.437594597412106
      ],
      [
        "chinn",
        -9.438697650104157
      ],
      [
        "eisteanna",
        -9.439539533433539
      ],
      [
        "léamh",
        -9.441266096278504
      ],
      [
        "húsáid",
        -9.441779799130867
      ],
      [
        "anta",
        -9.442569564733219
      ],
      [
        "IT",
        -9.442716974153356
      ],
      [
        "sain",
        -9.444224129402532
      ],
      [
        "etc",
        -9.44435647555873
      ],
      [
        "doiciméad",
        -9.444469296161763
      ],
      [
        "oibreoir",
        -9.445089247979794
      ],
      [
        "féadfa",
        -9.44802581881712
      ],
      [
        "thoil",
        -9.448801810412146
      ],
      [
        "forbartha",
        -9.448826731374506
      ],
      [
        "dtaca",
        -9.449554725496624
      ],
      [
        "déanfaid",
        -9.449604053295818
      ],
      [
        "ster",
        -9.451529552195382
      ],
      [
        "uathoibríoch",
        -9.452568604876554
      ],
      [
        "áitiúla",
        -9.452719893668391
      ],
      [
        "tank",
        -9.454855447808757
      ],
      [
        "dhéanf",
        -9.455524345142239
      ],
      [
        "scileanna",
        -9.455831495829852
      ],
      [
        "lacha",
        -9.45601279076591
      ],
      [
        "aill",
        -9.456553381502198
      ],
      [
        "Léir",
        -9.460224448449083
      ],
      [
        "365",
        -9.461277439625231
      ],
      [
        "uimhir",
        -9.462383949218246
      ],
      [
        "chugai",
        -9.462472443549427
      ],
      [
        "bhá",
        -9.462673084804841
      ],
      [
        "Físeá",
        -9.465087546546304
      ],
      [
        "freagrach",
        -9.465306068585633
      ],
      [
        "Con",
        -9.468109978188355
      ],
      [
        "rian",
        -9.46881325925241
      ],
      [
        "video",
        -9.46901771147012
      ],
      [
        "páist",
        -9.469332299754672
      ],
      [
        "iarrthóir",
        -9.469445414150194
      ],
      [
        "eithre",
        -9.469447157411622
      ],
      [
        "treoir",
        -9.469619040309864
      ],
      [
        "cosanta",
        -9.470729684223135
      ],
      [
        "Déanta",
        -9.471204887327197
      ],
      [
        "téarmaí",
        -9.473532527009155
      ],
      [
        "fir",
        -9.473621374501427
      ],
      [
        "phost",
        -9.473941300484071
      ],
      [
        "fola",
        -9.474113429641616
      ],
      [
        "cúram",
        -9.474408118416164
      ],
      [
        "iompai",
        -9.47483504397885
      ],
      [
        "mer",
        -9.47555805950388
      ],
      [
        "cúis",
        -9.475733679985243
      ],
      [
        "chumas",
        -9.476567491431297
      ],
      [
        "•",
        -9.477281528978104
      ],
      [
        "mion",
        -9.478293530100109
      ],
      [
        "2010",
        -9.478581017185466
      ],
      [
        "onaid",
        -9.478762236079582
      ],
      [
        "costas",
        -9.478970870489032
      ],
      [
        "35",
        -9.481190712350916
      ],
      [
        "ghairm",
        -9.483417694508695
      ],
      [
        "thugann",
        -9.484040496385619
      ],
      [
        "Clár",
        -9.48465167626041
      ],
      [
        "dháta",
        -9.485318871615778
      ],
      [
        "fáth",
        -9.487460883955164
      ],
      [
        "post",
        -9.488287645125974
      ],
      [
        "éadaí",
        -9.488893830449623
      ],
      [
        "ste",
        -9.494393377565267
      ],
      [
        "crua",
        -9.494762948801824
      ],
      [
        "Ríocht",
        -9.495033943238084
      ],
      [
        "iasacht",
        -9.495884981558616
      ],
      [
        "Trí",
        -9.497658552199372
      ],
      [
        "Dún",
        -9.49786315464381
      ],
      [
        "ruinniú",
        -9.50001153390372
      ],
      [
        "bhf",
        -9.502084952168426
      ],
      [
        "Lu",
        -9.502271642214764
      ],
      [
        "oghanna",
        -9.502595910044565
      ],
      [
        "Rogh",
        -9.50321336025102
      ],
      [
        "struchtúr",
        -9.50333321329125
      ],
      [
        "Ireland",
        -9.504333420397721
      ],
      [
        "asc",
        -9.504353172265445
      ],
      [
        "bosca",
        -9.504706869678769
      ],
      [
        "fén",
        -9.505178372477777
      ],
      [
        "fhéadfa",
        -9.505370065751517
      ],
      [
        "Éire",
        -9.507399512947671
      ],
      [
        "cáin",
        -9.509121378340506
      ],
      [
        "dheon",
        -9.510531859746868
      ],
      [
        "éifeachtach",
        -9.511070337639858
      ],
      [
        "bhain",
        -9.51261274168354
      ],
      [
        "sonraithe",
        -9.514915054990485
      ],
      [
        "thosa",
        -9.515673955092694
      ],
      [
        "mic",
        -9.51675765418657
      ],
      [
        "phoiblí",
        -9.518138265547794
      ],
      [
        "spraoi",
        -9.518139662416168
      ],
      [
        "dír",
        -9.518230800842154
      ],
      [
        "molta",
        -9.518610281264994
      ],
      [
        "Chuid",
        -9.523178699966259
      ],
      [
        "imreoir",
        -9.523431456807376
      ],
      [
        "mobi",
        -9.524124146064564
      ],
      [
        "chán",
        -9.526434341233642
      ],
      [
        "Ú",
        -9.527120438419985
      ],
      [
        "blianta",
        -9.528619723658291
      ],
      [
        "LE",
        -9.528637922564162
      ],
      [
        "cleachta",
        -9.529091559795233
      ],
      [
        "Aib",
        -9.530129384112545
      ],
      [
        "tástála",
        -9.53149948930644
      ],
      [
        "cód",
        -9.531774241176056
      ],
      [
        "net",
        -9.53177612071232
      ],
      [
        "comhair",
        -9.531997131792746
      ],
      [
        "dochar",
        -9.533367110236705
      ],
      [
        "mid",
        -9.535528072529857
      ],
      [
        "agam",
        -9.536604767416183
      ],
      [
        "Líne",
        -9.538580736238263
      ],
      [
        "Taispeáin",
        -9.539210155555484
      ],
      [
        "sheirbhís",
        -9.53921016826834
      ],
      [
        "ainneoin",
        -9.53922517220618
      ],
      [
        "phríomh",
        -9.539374406004434
      ],
      [
        "comhairle",
        -9.542228059642856
      ],
      [
        "dáileoir",
        -9.543379325936016
      ],
      [
        "Ionad",
        -9.543503034560992
      ],
      [
        "láidir",
        -9.544314082806189
      ],
      [
        "fhógra",
        -9.544591431584436
      ],
      [
        "eacnamaíoch",
        -9.54464550441514
      ],
      [
        "fianaise",
        -9.545633597293294
      ],
      [
        "dóigh",
        -9.545791419018009
      ],
      [
        "lár",
        -9.546159802539623
      ],
      [
        "tuairisc",
        -9.54639638381419
      ],
      [
        "IS",
        -9.546564006886378
      ],
      [
        "bogearra",
        -9.548207579685394
      ],
      [
        "ibh",
        -9.549468671745522
      ],
      [
        "ordaithe",
        -9.550155042885285
      ],
      [
        "frith",
        -9.550689630507446
      ],
      [
        "méadú",
        -9.550848325291806
      ],
      [
        "caillteana",
        -9.55217898036862
      ],
      [
        "LA",
        -9.552509012863787
      ],
      [
        "riamh",
        -9.55409455241345
      ],
      [
        "eora",
        -9.555790813915456
      ],
      [
        "Choimisiún",
        -9.55711573134393
      ],
      [
        "mac",
        -9.557124920178534
      ],
      [
        "Díle",
        -9.557568260183896
      ],
      [
        "fuair",
        -9.55816672411039
      ],
      [
        "Lún",
        -9.558311580426079
      ],
      [
        "úla",
        -9.560478104314539
      ],
      [
        "by",
        -9.561203382643612
      ],
      [
        "Roimh",
        -9.561235077979699
      ],
      [
        "Úsáid",
        -9.56261118446805
      ],
      [
        "orbartha",
        -9.564632005413424
      ],
      [
        "£",
        -9.566190201168848
      ],
      [
        "Cor",
        -9.567724658232372
      ],
      [
        "®",
        -9.568015018687095
      ],
      [
        "scaireann",
        -9.570062533053814
      ],
      [
        "chta",
        -9.570966872330434
      ],
      [
        "éad",
        -9.57246901861781
      ],
      [
        "chluich",
        -9.573510918197067
      ],
      [
        "rialta",
        -9.575392807454666
      ],
      [
        "fhágáil",
        -9.575758221846826
      ],
      [
        "Phríomh",
        -9.576647563151958
      ],
      [
        "téacs",
        -9.577232299201157
      ],
      [
        "meán",
        -9.577330413747616
      ],
      [
        "Cathrach",
        -9.579132651778234
      ],
      [
        "dteagmhá",
        -9.579610003618015
      ],
      [
        "ofar",
        -9.580462915653353
      ],
      [
        "fach",
        -9.580656576705664
      ],
      [
        "siopa",
        -9.580966208218246
      ],
      [
        "Seol",
        -9.582283248827697
      ],
      [
        "ja",
        -9.583124613057437
      ],
      [
        "spreaga",
        -9.583463116991947
      ],
      [
        "Ollscoil",
        -9.583707677021494
      ],
      [
        "cionn",
        -9.584388421408043
      ],
      [
        "lasmu",
        -9.585270252448147
      ],
      [
        "áilte",
        -9.585716856733134
      ],
      [
        "brú",
        -9.585729802760897
      ],
      [
        "ov",
        -9.585771106012341
      ],
      [
        "mba",
        -9.58720913238093
      ],
      [
        "mbíonn",
        -9.590019559252937
      ],
      [
        "Tag",
        -9.59025500499637
      ],
      [
        "imp",
        -9.590716189842738
      ],
      [
        "199",
        -9.591188851284478
      ],
      [
        "thaga",
        -9.592190352013965
      ],
      [
        "rún",
        -9.592293867644678
      ],
      [
        "toiliú",
        -9.593265240046685
      ],
      [
        "2008",
        -9.59470405183285
      ],
      [
        "fuinnimh",
        -9.594868534506517
      ],
      [
        "tuismitheoir",
        -9.595794576408226
      ],
      [
        "ullmhú",
        -9.596464977229394
      ],
      [
        "gcomhair",
        -9.596668269496243
      ],
      [
        "Plean",
        -9.599364566939414
      ],
      [
        "aistrithe",
        -9.599628958257515
      ],
      [
        "ling",
        -9.599653674690718
      ],
      [
        "fhoireann",
        -9.599923562430414
      ],
      [
        "eagraíochta",
        -9.600200402763754
      ],
      [
        "fág",
        -9.6006349127899
      ],
      [
        "glan",
        -9.600989697052984
      ],
      [
        "ko",
        -9.601399796685108
      ],
      [
        "wi",
        -9.602273287445236
      ],
      [
        "díobh",
        -9.60331188732631
      ],
      [
        "Sp",
        -9.603539920600177
      ],
      [
        "meáchan",
        -9.60712774012421
      ],
      [
        "mBallstá",
        -9.608098992878244
      ],
      [
        "Ciste",
        -9.608204635487015
      ],
      [
        "thógá",
        -9.609456233777683
      ],
      [
        "tóirí",
        -9.610411611991827
      ],
      [
        "aighdeáin",
        -9.610994725601195
      ],
      [
        "chuirte",
        -9.612203104919413
      ],
      [
        "RA",
        -9.612234181523313
      ],
      [
        "vo",
        -9.612600729238746
      ],
      [
        "measfa",
        -9.612792752963934
      ],
      [
        "Poiblí",
        -9.61284044358315
      ],
      [
        "foirne",
        -9.612859770371056
      ],
      [
        "Ná",
        -9.6133338813435
      ],
      [
        "Fáilte",
        -9.614351603744737
      ],
      [
        "Electronics",
        -9.616668192640967
      ],
      [
        "tho",
        -9.61798683749034
      ],
      [
        "Freagra",
        -9.618605482435191
      ],
      [
        "uirthi",
        -9.618674186981078
      ],
      [
        "ceallra",
        -9.619123572261643
      ],
      [
        "chéanna",
        -9.619544649240748
      ],
      [
        "Féadf",
        -9.6198976698856
      ],
      [
        "reachtaíocht",
        -9.620923268424736
      ],
      [
        "500",
        -9.62110313485552
      ],
      [
        "cearta",
        -9.621721665592208
      ],
      [
        "achomharc",
        -9.622187227155948
      ],
      [
        "Ina",
        -9.622229097925672
      ],
      [
        "News",
        -9.622365559403738
      ],
      [
        "01",
        -9.62248223746748
      ],
      [
        "orainn",
        -9.62264241038055
      ],
      [
        "straitéis",
        -9.623121447774828
      ],
      [
        "cumas",
        -9.623221403941155
      ],
      [
        "roghna",
        -9.6240807883323
      ],
      [
        "eoirí",
        -9.624174809573216
      ],
      [
        "):",
        -9.624232142904724
      ],
      [
        "breis",
        -9.624478577708151
      ],
      [
        "réimsí",
        -9.624731114835566
      ],
      [
        "ndéanta",
        -9.625910023531281
      ],
      [
        "bán",
        -9.626426744520934
      ],
      [
        "ionscadail",
        -9.627120609323134
      ],
      [
        "mheán",
        -9.628035432017743
      ],
      [
        "páirteach",
        -9.629455448021115
      ],
      [
        "Ho",
        -9.630115945151216
      ],
      [
        "mBan",
        -9.631009384923708
      ],
      [
        "tionscadal",
        -9.632134460568187
      ],
      [
        "tuairim",
        -9.63229839392475
      ],
      [
        "cathrach",
        -9.632331304946737
      ],
      [
        "feidhmeanna",
        -9.633784800218955
      ],
      [
        "ogadh",
        -9.634222039272167
      ],
      [
        "milliú",
        -9.635375732522105
      ],
      [
        "our",
        -9.637026973088503
      ],
      [
        "ghrúpa",
        -9.639947662613269
      ],
      [
        "Rialtas",
        -9.63996232020807
      ],
      [
        "mhaoin",
        -9.641188048455827
      ],
      [
        "íon",
        -9.641431968058324
      ],
      [
        "196",
        -9.641651742501528
      ],
      [
        "ligean",
        -9.642317566775056
      ],
      [
        "feidhmiú",
        -9.642644008551374
      ],
      [
        "tháirgea",
        -9.64385672195517
      ],
      [
        "bail",
        -9.644218688940557
      ],
      [
        "Áitiúil",
        -9.64522278350162
      ],
      [
        "léas",
        -9.645489983531393
      ],
      [
        "Trádála",
        -9.64590655229955
      ],
      [
        "fheidhm",
        -9.646349884700097
      ],
      [
        "dom",
        -9.647007037183322
      ],
      [
        "oíche",
        -9.647265164659197
      ],
      [
        "faire",
        -9.647287160245153
      ],
      [
        "He",
        -9.64745118182821
      ],
      [
        "feabhas",
        -9.647829484966806
      ],
      [
        "foirm",
        -9.648316039736422
      ],
      [
        "beo",
        -9.648330838722295
      ],
      [
        "éag",
        -9.64837687150176
      ],
      [
        "Pro",
        -9.648600396506719
      ],
      [
        "Samhai",
        -9.649499059019984
      ],
      [
        "onta",
        -9.65107261650741
      ],
      [
        "Lo",
        -9.652039829463336
      ],
      [
        "cruinn",
        -9.652284672272884
      ],
      [
        "aíodh",
        -9.652367412999528
      ],
      [
        "coitianta",
        -9.65390621752045
      ],
      [
        "45",
        -9.654495545938222
      ],
      [
        "áite",
        -9.654539434767376
      ],
      [
        "Sóisialta",
        -9.655773849021209
      ],
      [
        "saoire",
        -9.655869025540195
      ],
      [
        "Leanaí",
        -9.656032459114762
      ],
      [
        "RE",
        -9.656613342625988
      ],
      [
        "bhua",
        -9.657373785570147
      ],
      [
        "aim",
        -9.659591621963731
      ],
      [
        "iniúchadh",
        -9.659804178097383
      ],
      [
        "80",
        -9.660606462836139
      ],
      [
        "teangacha",
        -9.661782278888406
      ],
      [
        "Lúnasa",
        -9.661882128631174
      ],
      [
        "slándá",
        -9.662289372212847
      ],
      [
        "bhrái",
        -9.66296283500014
      ],
      [
        "óid",
        -9.664357042090415
      ],
      [
        "plean",
        -9.664739589147146
      ],
      [
        "inne",
        -9.665249384412908
      ],
      [
        "36",
        -9.6656162438913
      ],
      [
        ".—",
        -9.665671528903935
      ],
      [
        "bhu",
        -9.666341411233347
      ],
      [
        "plé",
        -9.666907794376105
      ],
      [
        "smaoinea",
        -9.667272709328742
      ],
      [
        "Táirgí",
        -9.667811512452605
      ],
      [
        "Air",
        -9.668984129125771
      ],
      [
        "cheant",
        -9.669387584397201
      ],
      [
        "ance",
        -9.669783889799731
      ],
      [
        "tur",
        -9.671342206280157
      ],
      [
        "ainmhithe",
        -9.67251738473924
      ],
      [
        "úcháin",
        -9.672598013589019
      ],
      [
        "ID",
        -9.672761725102227
      ],
      [
        "úinéir",
        -9.67320031673561
      ],
      [
        "phobai",
        -9.67369236066294
      ],
      [
        "cárta",
        -9.673940754481919
      ],
      [
        "gcuideachta",
        -9.674285148872974
      ],
      [
        "eanta",
        -9.67507124829763
      ],
      [
        "IR",
        -9.675111354322453
      ],
      [
        "rádáil",
        -9.675795870761736
      ],
      [
        "Tar",
        -9.677244984886807
      ],
      [
        "rialaithe",
        -9.679044524071259
      ],
      [
        "shóisial",
        -9.679993092400972
      ],
      [
        "seachtaine",
        -9.681234571427979
      ],
      [
        "ok",
        -9.685657059713462
      ],
      [
        "fostaíochta",
        -9.689334644156137
      ],
      [
        "sábháilte",
        -9.68940312483873
      ],
      [
        "céad",
        -9.690329132654767
      ],
      [
        "Tuarascá",
        -9.69104452047473
      ],
      [
        "jo",
        -9.691329413179542
      ],
      [
        "riarachá",
        -9.692818570559515
      ],
      [
        "oibrithe",
        -9.692918809613522
      ],
      [
        "gnéith",
        -9.69351006955214
      ],
      [
        "rang",
        -9.695083351405327
      ],
      [
        "Mura",
        -9.696836155317477
      ],
      [
        "oscailt",
        -9.698046582611944
      ],
      [
        "deirid",
        -9.698176567430187
      ],
      [
        "Ru",
        -9.6982673823133
      ],
      [
        "stát",
        -9.699405206487548
      ],
      [
        "suite",
        -9.700942358275032
      ],
      [
        "gcomhairle",
        -9.702448731715336
      ],
      [
        "kash",
        -9.703148513328355
      ],
      [
        "gclár",
        -9.70348985018259
      ],
      [
        "bua",
        -9.70375799491001
      ],
      [
        "fhiosrúchá",
        -9.703800641983774
      ],
      [
        "thú",
        -9.703931787655453
      ],
      [
        "fhoghlaim",
        -9.70460949463876
      ],
      [
        "oiliúna",
        -9.704980405704163
      ],
      [
        "dubh",
        -9.70517926094445
      ],
      [
        "fostaithe",
        -9.705480702644195
      ],
      [
        "eagraíocht",
        -9.705644009455234
      ],
      [
        "soláthraithe",
        -9.706909712794463
      ],
      [
        "thaispeáint",
        -9.706909712831191
      ],
      [
        "talún",
        -9.707364894183018
      ],
      [
        "cuirfe",
        -9.70834247627685
      ],
      [
        "áitreabh",
        -9.708357896476247
      ],
      [
        "SMS",
        -9.708660830202682
      ],
      [
        "Eachtrach",
        -9.70924793221964
      ],
      [
        "lig",
        -9.709404889666505
      ],
      [
        "bhall",
        -9.709898862397207
      ],
      [
        "sár",
        -9.710118015241404
      ],
      [
        "ka",
        -9.712440428359344
      ],
      [
        "oiliúint",
        -9.712691868079164
      ],
      [
        "up",
        -9.713487371237699
      ],
      [
        "stair",
        -9.713747067335987
      ],
      [
        "TE",
        -9.714356224558205
      ],
      [
        "scéalta",
        -9.714711100355778
      ],
      [
        "gruaige",
        -9.714856164952241
      ],
      [
        "pu",
        -9.715697554308536
      ],
      [
        "bhfoirm",
        -9.715914485754942
      ],
      [
        "leictreacha",
        -9.716810700627398
      ],
      [
        "Bhor",
        -9.717387109292092
      ],
      [
        "Uachtarán",
        -9.717961985561459
      ],
      [
        "cuirfid",
        -9.718088538724754
      ],
      [
        "ici",
        -9.71826934251827
      ],
      [
        "cheapad",
        -9.718662140702483
      ],
      [
        "nósann",
        -9.719249682765007
      ],
      [
        "suntasach",
        -9.71958153826742
      ],
      [
        "thuas",
        -9.71995620441037
      ],
      [
        "Baineann",
        -9.720336133668662
      ],
      [
        "iarratasóir",
        -9.720505742522256
      ],
      [
        "prionsaba",
        -9.723841348850364
      ],
      [
        "ionstraim",
        -9.72391395049585
      ],
      [
        "dtabharfa",
        -9.724029002435607
      ],
      [
        "cláir",
        -9.724489987086846
      ],
      [
        "shocrú",
        -9.725184346648824
      ],
      [
        "cineálach",
        -9.725528140678723
      ],
      [
        "log",
        -9.726661447400925
      ],
      [
        "oscailte",
        -9.726689903968747
      ],
      [
        "oireacht",
        -9.729615065133519
      ],
      [
        "ey",
        -9.730810010601033
      ],
      [
        "scrío",
        -9.731461445744975
      ],
      [
        "osc",
        -9.731784284655813
      ],
      [
        "saincheaptha",
        -9.73279892769547
      ],
      [
        "cal",
        -9.734248271379444
      ],
      [
        "ige",
        -9.734383696587022
      ],
      [
        "damáiste",
        -9.734575031284074
      ],
      [
        "lainne",
        -9.735431532202487
      ],
      [
        "ochta",
        -9.736640365687485
      ],
      [
        "faide",
        -9.736667598133952
      ],
      [
        "cos",
        -9.737726370604447
      ],
      [
        "grianghra",
        -9.737947794471097
      ],
      [
        "ráid",
        -9.738217073676477
      ],
      [
        "teaghla",
        -9.738504348327147
      ],
      [
        "US",
        -9.738936704611426
      ],
      [
        "2007",
        -9.739620218952142
      ],
      [
        "seilbh",
        -9.74107626548576
      ],
      [
        "brath",
        -9.741386100325
      ],
      [
        "theannta",
        -9.741489338320395
      ],
      [
        "Dlí",
        -9.742526740160505
      ],
      [
        "abairt",
        -9.743320838437345
      ],
      [
        "chaoi",
        -9.743582443185714
      ],
      [
        "bheas",
        -9.744194542502871
      ],
      [
        "chomhaont",
        -9.744831463742816
      ],
      [
        "fhág",
        -9.745169529487118
      ],
      [
        "ting",
        -9.745254628012178
      ],
      [
        "ndéana",
        -9.745268930899122
      ],
      [
        "iotail",
        -9.74544809578699
      ],
      [
        "cuntas",
        -9.745896310551794
      ],
      [
        "éisteacht",
        -9.746610546411958
      ],
      [
        "Po",
        -9.747724851119063
      ],
      [
        "cairde",
        -9.74791712996904
      ],
      [
        "iseanna",
        -9.748355492249068
      ],
      [
        "chorp",
        -9.749975583363348
      ],
      [
        "stáit",
        -9.749980435107286
      ],
      [
        "ous",
        -9.751314781791454
      ],
      [
        "Parlaimint",
        -9.751910412508005
      ],
      [
        "pobail",
        -9.752122763394151
      ],
      [
        "foghlaim",
        -9.752580281345077
      ],
      [
        "Uimhir",
        -9.752738144782775
      ],
      [
        "lámh",
        -9.752744354218587
      ],
      [
        "asal",
        -9.754278678921779
      ],
      [
        "rdaoin",
        -9.754602752728424
      ],
      [
        "teocht",
        -9.756186795806524
      ],
      [
        "Gu",
        -9.756514024387947
      ],
      [
        "Gnéas",
        -9.75665940187298
      ],
      [
        "teastá",
        -9.756884737539185
      ],
      [
        "abháil",
        -9.758638859148485
      ],
      [
        "tacaíochta",
        -9.760237194444992
      ],
      [
        "réitigh",
        -9.760802596709887
      ],
      [
        "bíonn",
        -9.761597027353197
      ],
      [
        "oibr",
        -9.762754368838653
      ],
      [
        "col",
        -9.762878475779846
      ],
      [
        "lacht",
        -9.763032148452599
      ],
      [
        "mp",
        -9.76451194901119
      ],
      [
        "Che",
        -9.7650845300854
      ],
      [
        "udaí",
        -9.76531976356904
      ],
      [
        "Cúirte",
        -9.765816115359758
      ],
      [
        "Níor",
        -9.766148041626295
      ],
      [
        "37",
        -9.767035454870456
      ],
      [
        "org",
        -9.767358309035867
      ],
      [
        "able",
        -9.76748763308863
      ],
      [
        "branda",
        -9.767495742246068
      ],
      [
        "idí",
        -9.767813127923205
      ],
      [
        "Ord",
        -9.768471721408527
      ],
      [
        "raon",
        -9.768538669840467
      ],
      [
        "oiread",
        -9.769883499765779
      ],
      [
        "gníomhú",
        -9.770009518260014
      ],
      [
        "Leis",
        -9.770782884928641
      ],
      [
        "nochta",
        -9.770957119866116
      ],
      [
        "gcion",
        -9.771069200700317
      ],
      [
        "eolaíocht",
        -9.77227679316444
      ],
      [
        "90",
        -9.772449907384313
      ],
      [
        "stoc",
        -9.772925180671344
      ],
      [
        "hub",
        -9.773290371736788
      ],
      [
        "shi",
        -9.773393642668786
      ],
      [
        "aireacht",
        -9.773841381554377
      ],
      [
        "mhargadh",
        -9.776025904278281
      ],
      [
        "ik",
        -9.776429336353521
      ],
      [
        "34",
        -9.776524765633727
      ],
      [
        "Óga",
        -9.776764814103839
      ],
      [
        "eaptha",
        -9.77754468497255
      ],
      [
        "áillí",
        -9.778696556107704
      ],
      [
        "out",
        -9.77899979751616
      ],
      [
        "maoiniú",
        -9.779036017640752
      ],
      [
        "eicniúil",
        -9.779507101000252
      ],
      [
        "cúrsaí",
        -9.780231285903488
      ],
      [
        "Bhallstá",
        -9.781009033718284
      ],
      [
        "qu",
        -9.781260355662026
      ],
      [
        "Institiúid",
        -9.783199385575244
      ],
      [
        "FC",
        -9.78453216766637
      ],
      [
        "chóras",
        -9.784686617718165
      ],
      [
        "SA",
        -9.785232532869117
      ],
      [
        "córa",
        -9.786017749610465
      ],
      [
        "bhailiú",
        -9.786222298490802
      ],
      [
        "mhéad",
        -9.789496841545663
      ],
      [
        "teicneolaíocht",
        -9.790402141929455
      ],
      [
        "dtús",
        -9.7907007163368
      ],
      [
        "MH",
        -9.792246821825222
      ],
      [
        "eisiúint",
        -9.792325485391341
      ],
      [
        "chó",
        -9.793036625680788
      ],
      [
        "óige",
        -9.794427050653733
      ],
      [
        "traidisiún",
        -9.794589033101797
      ],
      [
        "inmheánach",
        -9.794619178563368
      ],
      [
        "Seinn",
        -9.79528847370523
      ],
      [
        "iontu",
        -9.795946020212504
      ],
      [
        "38",
        -9.796136127686369
      ],
      [
        "líonra",
        -9.796567066675566
      ],
      [
        "bhrú",
        -9.79693743874964
      ],
      [
        "infheistíochta",
        -9.798547806386484
      ],
      [
        "gné",
        -9.798936157875389
      ],
      [
        "baile",
        -9.799062740348795
      ],
      [
        "Vicipéid",
        -9.799181454043005
      ],
      [
        "Príomh",
        -9.79928713644996
      ],
      [
        "Cruach",
        -9.80104826593059
      ],
      [
        "chatagóir",
        -9.801485873599916
      ],
      [
        "spás",
        -9.802433462389239
      ],
      [
        "chuirea",
        -9.80313543380438
      ],
      [
        "doiciméid",
        -9.803843815008271
      ],
      [
        "chosc",
        -9.804499474328928
      ],
      [
        "Táimid",
        -9.804644966085721
      ],
      [
        "asta",
        -9.80481196378183
      ],
      [
        "ness",
        -9.805063420947516
      ],
      [
        "mórdhíol",
        -9.805208351838802
      ],
      [
        "tuiscint",
        -9.80610988705424
      ],
      [
        "ost",
        -9.806547225506058
      ],
      [
        "racha",
        -9.807701758055787
      ],
      [
        "achtaí",
        -9.808162432222165
      ],
      [
        "liúnta",
        -9.808531976518344
      ],
      [
        "cló",
        -9.808627871038727
      ],
      [
        "ainmnithe",
        -9.8091186464623
      ],
      [
        "hor",
        -9.80924988588035
      ],
      [
        "eimhin",
        -9.810898121342404
      ],
      [
        "Cha",
        -9.812695188348515
      ],
      [
        "chead",
        -9.814650247914493
      ],
      [
        "pháirt",
        -9.8157227899063
      ],
      [
        "iom",
        -9.817342041416126
      ],
      [
        "chláir",
        -9.817561839453974
      ],
      [
        "ócáid",
        -9.81947542187219
      ],
      [
        "leictreonach",
        -9.820112496721991
      ],
      [
        "caite",
        -9.820570203726385
      ],
      [
        "UN",
        -9.820988347658108
      ],
      [
        "leighis",
        -9.821467685834849
      ],
      [
        "thanta",
        -9.821941588917811
      ],
      [
        "éagsúlacht",
        -9.822487786752369
      ],
      [
        "Choiste",
        -9.822654368781878
      ],
      [
        "comhlachta",
        -9.822666920806226
      ],
      [
        "Sean",
        -9.823029649653211
      ],
      [
        "Dubh",
        -9.823431999783923
      ],
      [
        "bunúsach",
        -9.823446923088987
      ],
      [
        "réasúnach",
        -9.823654347005112
      ],
      [
        "eolaíochta",
        -9.824408815242187
      ],
      [
        "cor",
        -9.824572762876443
      ],
      [
        "Cánach",
        -9.825115624494725
      ],
      [
        "dár",
        -9.825150628757779
      ],
      [
        "chleachta",
        -9.826415846077865
      ],
      [
        "gheobhaid",
        -9.829938195709765
      ],
      [
        "bord",
        -9.831141180980875
      ],
      [
        "imeacht",
        -9.833791929117451
      ],
      [
        "Déanfai",
        -9.834141545276573
      ],
      [
        "stáin",
        -9.83421296000908
      ],
      [
        "Sraith",
        -9.834227617538245
      ],
      [
        "Chonra",
        -9.834700818857208
      ],
      [
        "neamhspleách",
        -9.8353523699658
      ],
      [
        "chomhair",
        -9.835616635064133
      ],
      [
        "gceart",
        -9.835820416229158
      ],
      [
        "teicneolaíochta",
        -9.836297730706342
      ],
      [
        "CH",
        -9.837938198545295
      ],
      [
        "Cliceáil",
        -9.838368918808765
      ],
      [
        "leabhair",
        -9.838972607197903
      ],
      [
        "dromchla",
        -9.839092847897401
      ],
      [
        "liú",
        -9.839735872932643
      ],
      [
        "ence",
        -9.839912675993844
      ],
      [
        "AS",
        -9.840049274198488
      ],
      [
        "gearr",
        -9.84054879129124
      ],
      [
        "55",
        -9.841207532975798
      ],
      [
        "tairiscint",
        -9.841490923618515
      ],
      [
        "measúnú",
        -9.841569143864442
      ],
      [
        "ceanglai",
        -9.841726232246366
      ],
      [
        "clárú",
        -9.841745859457625
      ],
      [
        "Bille",
        -9.843309993662604
      ],
      [
        "tugtha",
        -9.84389556175637
      ],
      [
        "pre",
        -9.845499847158262
      ],
      [
        "ugann",
        -9.84563199922039
      ],
      [
        "ranníoc",
        -9.84600116051303
      ],
      [
        "Factor",
        -9.846379654349318
      ],
      [
        "shlí",
        -9.846484234573763
      ],
      [
        "taifead",
        -9.846929889937648
      ],
      [
        "Tu",
        -9.848674851668207
      ],
      [
        "orm",
        -9.849372586491466
      ],
      [
        "Theas",
        -9.84967408964525
      ],
      [
        "ceamara",
        -9.851165900167189
      ],
      [
        "unt",
        -9.851360008369621
      ],
      [
        "ES",
        -9.85192944314214
      ],
      [
        "news",
        -9.852868091926286
      ],
      [
        "Hu",
        -9.853540699589427
      ],
      [
        "Cuid",
        -9.85371085233129
      ],
      [
        "istí",
        -9.854037632308932
      ],
      [
        "feiceáil",
        -9.85403791736289
      ],
      [
        "fhad",
        -9.85441124844111
      ],
      [
        "teorainn",
        -9.854630200754729
      ],
      [
        "Vi",
        -9.855164587988373
      ],
      [
        "críoch",
        -9.855227444002093
      ],
      [
        "míre",
        -9.855894169155794
      ],
      [
        "leibhé",
        -9.855898342961279
      ],
      [
        "king",
        -9.856784416418671
      ],
      [
        "dearg",
        -9.856829429108492
      ],
      [
        "bpraghas",
        -9.857894269138566
      ],
      [
        "rial",
        -9.858272773890292
      ],
      [
        "eicniúla",
        -9.858440652048026
      ],
      [
        "cúpla",
        -9.858449446816493
      ],
      [
        "scaoilea",
        -9.85860688276993
      ],
      [
        "eoir",
        -9.859511862725654
      ],
      [
        "aoi",
        -9.860038794316106
      ],
      [
        "ev",
        -9.860771543743386
      ],
      [
        "Astráil",
        -9.860885809162124
      ],
      [
        "seasamh",
        -9.86089386886368
      ],
      [
        "MA",
        -9.861458710382866
      ],
      [
        "cheist",
        -9.861954606195823
      ],
      [
        "tharraingt",
        -9.862155813576447
      ],
      [
        "stiúir",
        -9.863427655380537
      ],
      [
        "Mórdhíol",
        -9.863508999257544
      ],
      [
        "70",
        -9.864096816010981
      ],
      [
        "u8",
        -9.864154595217279
      ],
      [
        "tseirbhís",
        -9.864585670750749
      ],
      [
        "choiste",
        -9.865259319875989
      ],
      [
        "Céadaoin",
        -9.865836264081196
      ],
      [
        "Scileann",
        -9.866009626852328
      ],
      [
        "Cás",
        -9.86770938255689
      ],
      [
        "je",
        -9.868053730915523
      ],
      [
        "thairiscint",
        -9.868256492643233
      ],
      [
        "200",
        -9.869025451934093
      ],
      [
        "dirnáisiúnta",
        -9.870220685849603
      ],
      [
        "oy",
        -9.870309181025625
      ],
      [
        "ghearra",
        -9.871230956590558
      ],
      [
        "bhfor",
        -9.873026412637149
      ],
      [
        "leasa",
        -9.874198193926125
      ],
      [
        "76",
        -9.875365185839708
      ],
      [
        "Tit",
        -9.875649838811722
      ],
      [
        "staidéar",
        -9.875847251087006
      ],
      [
        "Déagóir",
        -9.876375003826922
      ],
      [
        "ure",
        -9.876681587422876
      ],
      [
        "phróiseáil",
        -9.87816982766657
      ],
      [
        "cumhacht",
        -9.878311580620492
      ],
      [
        "PS",
        -9.878366068920513
      ],
      [
        "Táirge",
        -9.878696310913348
      ],
      [
        "liceáil",
        -9.878929697681123
      ],
      [
        "trácht",
        -9.880594736650906
      ],
      [
        "Dia",
        -9.881225689757393
      ],
      [
        "solas",
        -9.88234137410825
      ],
      [
        "gcur",
        -9.882523346940122
      ],
      [
        "todhchaí",
        -9.883165408679924
      ],
      [
        "Chiste",
        -9.883273714373782
      ],
      [
        "SE",
        -9.883501741423313
      ],
      [
        "amuigh",
        -9.884099682301287
      ],
      [
        "Dara",
        -9.884843897888008
      ],
      [
        "ack",
        -9.885299504218219
      ],
      [
        "bainistíocht",
        -9.88577087964053
      ],
      [
        "48",
        -9.885850213684936
      ],
      [
        "láimh",
        -9.886004016165582
      ],
      [
        "ME",
        -9.88639982380841
      ],
      [
        "infheidhme",
        -9.886525557192318
      ],
      [
        "thréimhse",
        -9.886783306433706
      ],
      [
        "Feidhm",
        -9.88829702409134
      ],
      [
        "aibh",
        -9.88836755624014
      ],
      [
        "2006",
        -9.889713601888356
      ],
      [
        "ardchaighdeán",
        -9.890220267046836
      ],
      [
        "éid",
        -9.890278402484366
      ],
      [
        "volta",
        -9.890715451146214
      ],
      [
        "Súil",
        -9.890882986183648
      ],
      [
        "core",
        -9.891077886680566
      ],
      [
        "PE",
        -9.891102546228339
      ],
      [
        "ollmhór",
        -9.891116987585885
      ],
      [
        "ER",
        -9.891727648837268
      ],
      [
        "Stiúrthóir",
        -9.893744500466344
      ],
      [
        "oibríochta",
        -9.895234838507012
      ],
      [
        "gléas",
        -9.895272637785855
      ],
      [
        "aithint",
        -9.896420858550538
      ],
      [
        "Céim",
        -9.897226048830074
      ],
      [
        "bhreise",
        -9.89868007481564
      ],
      [
        "ách",
        -9.899557649783183
      ],
      [
        "Alt",
        -9.90020542348952
      ],
      [
        "monarcha",
        -9.900849200527102
      ],
      [
        "dearmad",
        -9.900853709330399
      ],
      [
        "Coláist",
        -9.901117955955932
      ],
      [
        "theacht",
        -9.9017485864394
      ],
      [
        "chríoch",
        -9.90307420376929
      ],
      [
        "óireacht",
        -9.90387244900892
      ],
      [
        "chustaiméir",
        -9.903923485231045
      ],
      [
        "Leasa",
        -9.904121084702496
      ],
      [
        "pictiúir",
        -9.905949559742636
      ],
      [
        "gleic",
        -9.906061371747844
      ],
      [
        "Ábhar",
        -9.906177887193397
      ],
      [
        "sk",
        -9.90623546708213
      ],
      [
        "bainte",
        -9.90678803770377
      ],
      [
        "Jo",
        -9.906854246234381
      ],
      [
        "uait",
        -9.9069756579382
      ],
      [
        "oibleagáid",
        -9.906990742319053
      ],
      [
        "pá",
        -9.907606896549456
      ],
      [
        "cuarda",
        -9.907768264710446
      ],
      [
        "maoin",
        -9.909219535361817
      ],
      [
        "grianghraf",
        -9.909637382899131
      ],
      [
        "reacht",
        -9.909900250943759
      ],
      [
        "siar",
        -9.910821340539417
      ],
      [
        "flash",
        -9.911094536383555
      ],
      [
        "men",
        -9.911192086763489
      ],
      [
        "Eo",
        -9.911720139999986
      ],
      [
        "aice",
        -9.912403328540297
      ],
      [
        "chúirt",
        -9.91325626709941
      ],
      [
        "uathúil",
        -9.913676816766902
      ],
      [
        "fhaigheann",
        -9.913846910832987
      ],
      [
        "eol",
        -9.914965247933589
      ],
      [
        "sholáthra",
        -9.916246193809261
      ],
      [
        "fón",
        -9.917906679487361
      ],
      [
        "Ceann",
        -9.91819903331599
      ],
      [
        "gcuirfea",
        -9.918294939077384
      ],
      [
        "farraig",
        -9.91886933529968
      ],
      [
        "lámha",
        -9.919302961699355
      ],
      [
        "ealaín",
        -9.919520519582637
      ],
      [
        "cuidiú",
        -9.919990959894156
      ],
      [
        "déag",
        -9.921265844206879
      ],
      [
        "sócmhainn",
        -9.92143395149696
      ],
      [
        "tiomanta",
        -9.921435025853057
      ],
      [
        "Teach",
        -9.921752777779563
      ],
      [
        "éisteachta",
        -9.92250926225929
      ],
      [
        "dócha",
        -9.923299152819737
      ],
      [
        "Choimisiúin",
        -9.924105255973867
      ],
      [
        "Leas",
        -9.924106553476342
      ],
      [
        "IP",
        -9.924687737502659
      ],
      [
        "aith",
        -9.924839060139675
      ],
      [
        "rom",
        -9.926290338065147
      ],
      [
        "adhmai",
        -9.92641902316132
      ],
      [
        "aisíoc",
        -9.927100780719854
      ],
      [
        "Oidhreachta",
        -9.927605811108428
      ],
      [
        "los",
        -9.927967388331938
      ],
      [
        "Glac",
        -9.928366786471711
      ],
      [
        "stiúrthóir",
        -9.928644558674847
      ],
      [
        "ST",
        -9.92922053895765
      ],
      [
        "ize",
        -9.930838114082572
      ],
      [
        "port",
        -9.931592803605394
      ],
      [
        "uinneamh",
        -9.932774960145881
      ],
      [
        "AL",
        -9.933194602801933
      ],
      [
        "shaol",
        -9.933664986465146
      ],
      [
        "teas",
        -9.934466750073423
      ],
      [
        "foirfe",
        -9.934527774828886
      ],
      [
        "sonrach",
        -9.934766284062569
      ],
      [
        "saineola",
        -9.935858661576844
      ],
      [
        "ioncai",
        -9.936049839776432
      ],
      [
        "ker",
        -9.936158045412341
      ],
      [
        "buan",
        -9.936826420818099
      ],
      [
        "bás",
        -9.937150661374716
      ],
      [
        "Chlár",
        -9.938013910303965
      ],
      [
        "úlra",
        -9.938405751380404
      ],
      [
        "comhai",
        -9.93852724925165
      ],
      [
        "sheol",
        -9.93933725341931
      ],
      [
        "fuaime",
        -9.93961352648305
      ],
      [
        "Siar",
        -9.940925959600337
      ],
      [
        "tair",
        -9.941029073633768
      ],
      [
        "leictreach",
        -9.94205963724133
      ],
      [
        "meas",
        -9.942378741087998
      ],
      [
        "húdará",
        -9.942503269371851
      ],
      [
        "parlaiminteach",
        -9.94256901663844
      ],
      [
        "mhaithe",
        -9.944041396179065
      ],
      [
        "ngach",
        -9.944567710431013
      ],
      [
        "aiste",
        -9.945655503266899
      ],
      [
        "ox",
        -9.945865020794209
      ],
      [
        "taitneamh",
        -9.947193250036836
      ],
      [
        "EU",
        -9.947833318488453
      ],
      [
        "Hard",
        -9.94802062593714
      ],
      [
        "”.",
        -9.948934140064054
      ],
      [
        "phlean",
        -9.948971240436531
      ],
      [
        "ladh",
        -9.950209754670304
      ],
      [
        "slán",
        -9.950666596670324
      ],
      [
        "iúin",
        -9.952523638396233
      ],
      [
        "osach",
        -9.953025653850865
      ],
      [
        "timpeallacht",
        -9.953234937360914
      ],
      [
        "hion",
        -9.953664766187746
      ],
      [
        "cháilíocht",
        -9.95421512231006
      ],
      [
        "roinn",
        -9.954705720655216
      ],
      [
        "caithea",
        -9.9547727060962
      ],
      [
        "Mac",
        -9.95488550953629
      ],
      [
        "Síne",
        -9.956802230503165
      ],
      [
        "ochar",
        -9.957667859091652
      ],
      [
        "chtaí",
        -9.957893787670606
      ],
      [
        "Gréasá",
        -9.95852391171222
      ],
      [
        "dleacht",
        -9.96000939147542
      ],
      [
        "sho",
        -9.960498296619633
      ],
      [
        "New",
        -9.961581878933973
      ],
      [
        "áiste",
        -9.962097002154245
      ],
      [
        "IL",
        -9.962528998504645
      ],
      [
        "bhreis",
        -9.963168105299157
      ],
      [
        "ions",
        -9.96395525655462
      ],
      [
        "ifigiúil",
        -9.964386360575876
      ],
      [
        "scair",
        -9.96441993366755
      ],
      [
        "gnótha",
        -9.96542383597435
      ],
      [
        "deartha",
        -9.966020596072074
      ],
      [
        "chas",
        -9.96683980377372
      ],
      [
        "cheadú",
        -9.968648610093487
      ],
      [
        "gcomhar",
        -9.969153788199574
      ],
      [
        "lonnaithe",
        -9.969391589084292
      ],
      [
        "Dhún",
        -9.969436846557777
      ],
      [
        "euro",
        -9.969502984603393
      ],
      [
        "mais",
        -9.97043270645361
      ],
      [
        "pois",
        -9.970499016196834
      ],
      [
        "páirtí",
        -9.970992119215829
      ],
      [
        "héasca",
        -9.971155449544527
      ],
      [
        "réim",
        -9.971777994293772
      ],
      [
        "intinn",
        -9.971941051153747
      ],
      [
        "gairmiúla",
        -9.972114647368223
      ],
      [
        "line",
        -9.972280951773815
      ],
      [
        "SC",
        -9.97236618000409
      ],
      [
        "bronntana",
        -9.972668568065988
      ],
      [
        "tráchtála",
        -9.973207631512116
      ],
      [
        "soláthróir",
        -9.973573855168382
      ],
      [
        "sprioc",
        -9.973921719193363
      ],
      [
        "dhearbh",
        -9.974540850119515
      ],
      [
        "Sóisiala",
        -9.9748508361188
      ],
      [
        "planda",
        -9.975105806323368
      ],
      [
        "thóg",
        -9.975545512239957
      ],
      [
        "Déantóir",
        -9.976115990109143
      ],
      [
        "33",
        -9.976767306955926
      ],
      [
        "Éabhlóid",
        -9.977598007162158
      ],
      [
        "friotaíocht",
        -9.977598007360037
      ],
      [
        "Chontae",
        -9.977605300364372
      ],
      [
        "Oideachas",
        -9.977663507145216
      ],
      [
        "aisc",
        -9.978738759933659
      ],
      [
        "íneáil",
        -9.980094134637879
      ],
      [
        "sreang",
        -9.980374502233154
      ],
      [
        "aifid",
        -9.980381437720602
      ],
      [
        "cheangla",
        -9.98039666130769
      ],
      [
        "habháil",
        -9.980648356275674
      ],
      [
        "sperm",
        -9.980688611784574
      ],
      [
        "pháist",
        -9.981341636306313
      ],
      [
        "eolaíoch",
        -9.982369263702333
      ],
      [
        "Mu",
        -9.983170927365379
      ],
      [
        "Seirbhíse",
        -9.983936073758793
      ],
      [
        "triail",
        -9.983978050274855
      ],
      [
        "vóta",
        -9.984031355668652
      ],
      [
        "Cláraigh",
        -9.9841430991629
      ],
      [
        "fadhbanna",
        -9.984818928747622
      ],
      [
        "cáilíocht",
        -9.985544191510606
      ],
      [
        "$",
        -9.985885342044073
      ],
      [
        "gluaiseacht",
        -9.985887828299536
      ],
      [
        "over",
        -9.988455292704703
      ],
      [
        "phraghas",
        -9.988663127243697
      ],
      [
        "sheachai",
        -9.989059265536099
      ],
      [
        "comhionann",
        -9.989830912868136
      ],
      [
        "DA",
        -9.990103002238355
      ],
      [
        "Euro",
        -9.99073216590055
      ],
      [
        "shábháil",
        -9.991130979379298
      ],
      [
        "Fir",
        -9.991792497173854
      ],
      [
        "tine",
        -9.991868290788076
      ],
      [
        "Gael",
        -9.992898178584664
      ],
      [
        "chaillea",
        -9.993452868947367
      ],
      [
        "Bre",
        -9.993474277284626
      ],
      [
        "pri",
        -9.993523713452795
      ],
      [
        "gceann",
        -9.99356234854632
      ],
      [
        "nGall",
        -9.994093284998776
      ],
      [
        "difríocht",
        -9.99424459308848
      ],
      [
        "Cailín",
        -9.994251779474585
      ],
      [
        "National",
        -9.994297992603173
      ],
      [
        "Bearta",
        -9.994352281080356
      ],
      [
        "foráil",
        -9.99450315858104
      ],
      [
        "gearán",
        -9.994511141880853
      ],
      [
        "athru",
        -9.994523855959983
      ],
      [
        "beart",
        -9.994838591947373
      ],
      [
        "tástáil",
        -9.996075145987652
      ],
      [
        "tuairimí",
        -9.996923312001968
      ],
      [
        "2003",
        -9.996978406496709
      ],
      [
        "oidhreacht",
        -9.997057011961203
      ],
      [
        "Foirm",
        -9.997138878529665
      ],
      [
        "08",
        -9.997179423607264
      ],
      [
        "phoist",
        -9.997324324796823
      ],
      [
        "que",
        -9.997361676344081
      ],
      [
        "achtachá",
        -9.997391918958582
      ],
      [
        "IO",
        -9.998317618570645
      ],
      [
        "iontaofa",
        -9.999539625772282
      ],
      [
        "Bainistíocht",
        -9.999852306499921
      ],
      [
        "Domhna",
        -10.001186997809748
      ],
      [
        "riachtana",
        -10.001458973784818
      ],
      [
        "uk",
        -10.00229490973383
      ],
      [
        "DE",
        -10.002456941295996
      ],
      [
        "socru",
        -10.002691403096128
      ],
      [
        "46",
        -10.002799631423379
      ],
      [
        "gáis",
        -10.002949453285986
      ],
      [
        "III",
        -10.003198473408995
      ],
      [
        "infheistíocht",
        -10.003448588491636
      ],
      [
        "substaint",
        -10.005493805873451
      ],
      [
        "plaisteach",
        -10.00564674923939
      ],
      [
        "Córa",
        -10.005723558224442
      ],
      [
        "ghnóth",
        -10.006015773360613
      ],
      [
        "uir",
        -10.006112161623115
      ],
      [
        "isce",
        -10.006590407137903
      ],
      [
        "tv",
        -10.006905439421342
      ],
      [
        "07",
        -10.007624626686352
      ],
      [
        "iontair",
        -10.008247142867774
      ],
      [
        "héann",
        -10.008316774101207
      ],
      [
        "tógá",
        -10.00897104493508
      ],
      [
        "bheag",
        -10.009785425371142
      ],
      [
        "We",
        -10.009788918041137
      ],
      [
        "bonn",
        -10.009832789946522
      ],
      [
        "mhodh",
        -10.009975792521367
      ],
      [
        "laíonn",
        -10.01077076701079
      ],
      [
        "Tabhair",
        -10.010815243238792
      ],
      [
        "eiseanna",
        -10.011177327952282
      ],
      [
        "ísle",
        -10.011212090003319
      ],
      [
        "rannpháirt",
        -10.012355403400537
      ],
      [
        "coiste",
        -10.013117809122793
      ],
      [
        "trína",
        -10.015042716559357
      ],
      [
        "Roinne",
        -10.015311375026346
      ],
      [
        "himeachta",
        -10.015733108413572
      ],
      [
        "caiteacha",
        -10.015835422624106
      ],
      [
        "timpeall",
        -10.015849637517585
      ],
      [
        "Monaróir",
        -10.017023586426246
      ],
      [
        "bhean",
        -10.017236591574157
      ],
      [
        "58",
        -10.017389168158992
      ],
      [
        "ardú",
        -10.017745007116549
      ],
      [
        "lárnach",
        -10.01935052932133
      ],
      [
        "u4",
        -10.020530977320092
      ],
      [
        "treo",
        -10.020704231340925
      ],
      [
        "iarr",
        -10.020723043064354
      ],
      [
        "uck",
        -10.02498319187002
      ],
      [
        "taispeáint",
        -10.025494453821956
      ],
      [
        "mhalairt",
        -10.025504644841444
      ],
      [
        "Eolas",
        -10.025544923364823
      ],
      [
        "aimsiú",
        -10.025708294977484
      ],
      [
        "cailíní",
        -10.026686297890272
      ],
      [
        "cailín",
        -10.027205729363878
      ],
      [
        "Bia",
        -10.02730180689305
      ],
      [
        "othair",
        -10.028290330617772
      ],
      [
        "earra",
        -10.028364816861316
      ],
      [
        "forleathan",
        -10.029740183463417
      ],
      [
        "tháirgí",
        -10.030656759956134
      ],
      [
        "tionscna",
        -10.030884795193828
      ],
      [
        "táille",
        -10.031188422743753
      ],
      [
        "déileáil",
        -10.031283810623492
      ],
      [
        "phróisea",
        -10.031284395559428
      ],
      [
        "contae",
        -10.031395879288269
      ],
      [
        "Iarscríbhinn",
        -10.031400236964469
      ],
      [
        "Act",
        -10.033023254121403
      ],
      [
        "tora",
        -10.033246307300507
      ],
      [
        "comhpháirt",
        -10.033303940789903
      ],
      [
        "dliteana",
        -10.033337625426089
      ],
      [
        "Du",
        -10.03382881408949
      ],
      [
        "04",
        -10.033856269489771
      ],
      [
        "u12",
        -10.034507566606322
      ],
      [
        "39",
        -10.034691250345496
      ],
      [
        "saothar",
        -10.035208455668583
      ],
      [
        "Nuacht",
        -10.035881123731023
      ],
      [
        "Cuirfi",
        -10.035887274313444
      ],
      [
        "chóipeáil",
        -10.036782166475422
      ],
      [
        "talmhaíocht",
        -10.03710584858316
      ],
      [
        "09",
        -10.03741278525792
      ],
      [
        "Bóna",
        -10.037636104138935
      ],
      [
        "pleanála",
        -10.037850393241637
      ],
      [
        "ze",
        -10.038556631450508
      ],
      [
        "ven",
        -10.039885161766263
      ],
      [
        "Bailiúchá",
        -10.040045615259029
      ],
      [
        "CUID",
        -10.040062395950997
      ],
      [
        "dian",
        -10.040294250740754
      ],
      [
        "ive",
        -10.040311145263153
      ],
      [
        "03",
        -10.040591899737674
      ],
      [
        "stáil",
        -10.040893379194928
      ],
      [
        "Daoin",
        -10.04097915145662
      ],
      [
        "Ainm",
        -10.041376402289
      ],
      [
        "06",
        -10.041801209751952
      ],
      [
        "Straitéis",
        -10.0418424501818
      ],
      [
        "hordú",
        -10.042782305570451
      ],
      [
        "Black",
        -10.042974067745678
      ],
      [
        "Gníomhaireacht",
        -10.04301703518827
      ],
      [
        "tairbhe",
        -10.043595984511722
      ],
      [
        "níor",
        -10.043633812211496
      ],
      [
        "spóirt",
        -10.043707974619647
      ],
      [
        "stóráil",
        -10.044806668764341
      ],
      [
        "nglacfa",
        -10.044872529164333
      ],
      [
        "Fu",
        -10.045110621214288
      ],
      [
        "cúirte",
        -10.045681449413859
      ],
      [
        "inti",
        -10.04576383995542
      ],
      [
        "pacáiste",
        -10.045903902928764
      ],
      [
        "Iodáil",
        -10.045905511724971
      ],
      [
        "ngníomh",
        -10.046074712073144
      ],
      [
        "phlé",
        -10.047892634670408
      ],
      [
        "creat",
        -10.048226193154555
      ],
      [
        "phearsanta",
        -10.048874100351568
      ],
      [
        "tive",
        -10.049248242980076
      ],
      [
        "Scoile",
        -10.049647917879483
      ],
      [
        "ture",
        -10.049860686392677
      ],
      [
        "bhainisti",
        -10.049985521921304
      ],
      [
        "ionadaithe",
        -10.049998801105648
      ],
      [
        "cy",
        -10.050657717289068
      ],
      [
        "Barr",
        -10.050846889175968
      ],
      [
        "Monarcha",
        -10.051816765806029
      ],
      [
        "próiseála",
        -10.05181875869933
      ],
      [
        "Talmhaíocht",
        -10.052123135544758
      ],
      [
        "ainmniú",
        -10.052423222603519
      ],
      [
        "Gra",
        -10.053739165921996
      ],
      [
        "Sola",
        -10.054022978926074
      ],
      [
        "pas",
        -10.054116471776227
      ],
      [
        "75",
        -10.054119664266626
      ],
      [
        "Leabhar",
        -10.054953600948059
      ],
      [
        "AP",
        -10.055434647257705
      ],
      [
        "Bhoir",
        -10.056172820119716
      ],
      [
        "fios",
        -10.056224594438298
      ],
      [
        "caithfi",
        -10.056633524820079
      ],
      [
        "Lio",
        -10.057419875306095
      ],
      [
        "diúlt",
        -10.058940628274286
      ],
      [
        "thugta",
        -10.059190698588962
      ],
      [
        "céimeanna",
        -10.05965521838407
      ],
      [
        "réasúnta",
        -10.06123674736483
      ],
      [
        "leathnú",
        -10.061365588867424
      ],
      [
        "gníomhach",
        -10.062443028897064
      ],
      [
        "ifear",
        -10.062675482842833
      ],
      [
        "huaigh",
        -10.06274861969493
      ],
      [
        "eacair",
        -10.064073979276131
      ],
      [
        "Uisce",
        -10.06422804843059
      ],
      [
        "cinntí",
        -10.06552118963242
      ],
      [
        "gairmiú",
        -10.066304596542837
      ],
      [
        "Google",
        -10.066738729845827
      ],
      [
        "laethú",
        -10.067103906998822
      ],
      [
        "Ion",
        -10.067918313644558
      ],
      [
        "Tacaíocht",
        -10.069002479808697
      ],
      [
        "bog",
        -10.069331453422212
      ],
      [
        "chúram",
        -10.069953469983194
      ],
      [
        "Conrad",
        -10.070756512837573
      ],
      [
        "íriú",
        -10.070813738526143
      ],
      [
        "tter",
        -10.071477181708502
      ],
      [
        "65",
        -10.071518781189395
      ],
      [
        "Oibre",
        -10.072152236887282
      ],
      [
        "choinníoll",
        -10.072750577928822
      ],
      [
        "uaireadóirí",
        -10.072911252388703
      ],
      [
        "réigiúnach",
        -10.073566636168938
      ],
      [
        "Comhshao",
        -10.075299419042283
      ],
      [
        "Speisialta",
        -10.075800882181987
      ],
      [
        "Síochána",
        -10.075800951554147
      ],
      [
        "fiosrúchá",
        -10.076619181063425
      ],
      [
        "Imir",
        -10.077227934730079
      ],
      [
        "mbeala",
        -10.077586759379258
      ],
      [
        "Doll",
        -10.078221599624065
      ],
      [
        "idirbheart",
        -10.07873203254587
      ],
      [
        "chúrsa",
        -10.079381184425785
      ],
      [
        "cáilithe",
        -10.081071267018878
      ],
      [
        "Aibí",
        -10.081332644688285
      ],
      [
        "dathanna",
        -10.082003120783831
      ],
      [
        "cónaithe",
        -10.082094848525314
      ],
      [
        "ealaíon",
        -10.082721273947872
      ],
      [
        "foireann",
        -10.082806157778688
      ],
      [
        "Iris",
        -10.083374804949457
      ],
      [
        "cáiliú",
        -10.08357038035986
      ],
      [
        "omhdháil",
        -10.084558356875698
      ],
      [
        "suimiú",
        -10.085031498796472
      ],
      [
        "fuarth",
        -10.086072681458038
      ],
      [
        "44",
        -10.08688081640205
      ],
      [
        "OÉ",
        -10.086987496411854
      ],
      [
        "59",
        -10.087054696555239
      ],
      [
        "cáil",
        -10.087414715095685
      ],
      [
        "stáisiú",
        -10.089277211815832
      ],
      [
        "mhair",
        -10.08950357487289
      ],
      [
        "iasc",
        -10.08953288367481
      ],
      [
        "Praghas",
        -10.091091719685416
      ],
      [
        "sheachada",
        -10.091092680516969
      ],
      [
        "tosú",
        -10.091400506088007
      ],
      [
        "thu",
        -10.091500781195595
      ],
      [
        "ghníomhach",
        -10.091874123344493
      ],
      [
        "ful",
        -10.092254726774122
      ],
      [
        "Gnó",
        -10.092848983804133
      ],
      [
        "eli",
        -10.093485449407432
      ],
      [
        "custaiméir",
        -10.094035994707468
      ],
      [
        "fhoilsiú",
        -10.094292788614158
      ],
      [
        "Dúin",
        -10.094837688295279
      ],
      [
        "seachtain",
        -10.095174661515282
      ],
      [
        "zz",
        -10.095658589533612
      ],
      [
        "cónaí",
        -10.096400176377028
      ],
      [
        "fhoráil",
        -10.096658770797779
      ],
      [
        "buntáist",
        -10.0969365962386
      ],
      [
        "Teanga",
        -10.09702980951375
      ],
      [
        "Pobail",
        -10.09737436529934
      ],
      [
        "GA",
        -10.097607018318403
      ],
      [
        "compordach",
        -10.097712543826917
      ],
      [
        "táimid",
        -10.098189759537647
      ],
      [
        "deich",
        -10.099193756213655
      ],
      [
        "long",
        -10.099507349210441
      ],
      [
        "gcomh",
        -10.100758987366694
      ],
      [
        "seachtrach",
        -10.101297485487706
      ],
      [
        "dréacht",
        -10.101443707573551
      ],
      [
        "05",
        -10.101663337732115
      ],
      [
        "inte",
        -10.103318521579457
      ],
      [
        "eagrú",
        -10.10406309749156
      ],
      [
        "eagla",
        -10.104100435804737
      ],
      [
        "Afraic",
        -10.106627892020636
      ],
      [
        "Taighde",
        -10.106771339897213
      ],
      [
        "scriosa",
        -10.107058609260994
      ],
      [
        "beatha",
        -10.107180544543517
      ],
      [
        "ek",
        -10.107341898952452
      ],
      [
        "ceol",
        -10.107401550727705
      ],
      [
        "leithéid",
        -10.107618495007163
      ],
      [
        "Tionsca",
        -10.107815913058234
      ],
      [
        "Ltd",
        -10.109730970289023
      ],
      [
        "rolla",
        -10.109936005710008
      ],
      [
        "Play",
        -10.109969612335636
      ],
      [
        "point",
        -10.110189693347447
      ],
      [
        "conartha",
        -10.110283311067308
      ],
      [
        "194",
        -10.111235001780521
      ],
      [
        "fostóir",
        -10.111653723283652
      ],
      [
        "Bhr",
        -10.11196051502792
      ],
      [
        "domhanda",
        -10.112165403938722
      ],
      [
        "Gníomh",
        -10.112671447737
      ],
      [
        "difriú",
        -10.113082707189808
      ],
      [
        "cruth",
        -10.113762562512875
      ],
      [
        "use",
        -10.113768578097723
      ],
      [
        "cuirtea",
        -10.113947606141085
      ],
      [
        "ordu",
        -10.11481592374388
      ],
      [
        "cóir",
        -10.11529593567748
      ],
      [
        "u2",
        -10.115320505154571
      ],
      [
        "éifeachta",
        -10.115326163826808
      ],
      [
        "University",
        -10.116053965505454
      ],
      [
        "Meaisín",
        -10.11606099384078
      ],
      [
        "carr",
        -10.116732056178014
      ],
      [
        "scála",
        -10.116828116471037
      ],
      [
        "teorainneacha",
        -10.11759590803696
      ],
      [
        "Aistriúchá",
        -10.118340474138147
      ],
      [
        "Páirt",
        -10.118655583191114
      ],
      [
        "my",
        -10.119141915752934
      ],
      [
        "rannpháirtíocht",
        -10.119753520947999
      ],
      [
        "Oifigiúil",
        -10.120405631794267
      ],
      [
        "socrú",
        -10.12055350000136
      ],
      [
        "arbh",
        -10.120635712642176
      ],
      [
        "ON",
        -10.120665939394016
      ],
      [
        "teasa",
        -10.122038820683443
      ],
      [
        "píosa",
        -10.122586582110596
      ],
      [
        "OL",
        -10.122849114998925
      ],
      [
        "teannta",
        -10.122975990411327
      ],
      [
        "cásann",
        -10.123804542034605
      ],
      [
        "chomhlacht",
        -10.123944583957183
      ],
      [
        "Cumann",
        -10.125791164795743
      ],
      [
        "Nío",
        -10.125926949625583
      ],
      [
        "Ár",
        -10.12609004353678
      ],
      [
        "tomhaltóir",
        -10.126351849143363
      ],
      [
        "Fearr",
        -10.12760880567108
      ],
      [
        "glas",
        -10.127995044576977
      ],
      [
        "ndóigh",
        -10.128061394516852
      ],
      [
        "bliantúil",
        -10.128772728501165
      ],
      [
        "sibhialta",
        -10.128772942780733
      ],
      [
        "raiceann",
        -10.129266790604976
      ],
      [
        "réigiún",
        -10.130414473889687
      ],
      [
        "dhíth",
        -10.130464468842
      ],
      [
        "hAoi",
        -10.13130872238972
      ],
      [
        "TH",
        -10.131812378197129
      ],
      [
        "EA",
        -10.132506863216511
      ],
      [
        "Ex",
        -10.132771552198315
      ],
      [
        "u3",
        -10.133359481863156
      ],
      [
        "trá",
        -10.134586992208014
      ],
      [
        "lor",
        -10.13507251326096
      ],
      [
        "Chat",
        -10.135121034486453
      ],
      [
        "ealaíontóir",
        -10.136126978371333
      ],
      [
        "PR",
        -10.136809847069468
      ],
      [
        "Éireannach",
        -10.137380274045238
      ],
      [
        "e_",
        -10.138289721458579
      ],
      [
        "chuma",
        -10.13832512925169
      ],
      [
        "aicme",
        -10.138439204084472
      ],
      [
        "u5",
        -10.139916962082607
      ],
      [
        "gcuirtea",
        -10.140194884875203
      ],
      [
        "Poblacht",
        -10.141655671455158
      ],
      [
        "chothabháil",
        -10.141657289526464
      ],
      [
        "47",
        -10.14168544915858
      ],
      [
        "Video",
        -10.141691529428408
      ],
      [
        "bhliantúil",
        -10.141703654006795
      ],
      [
        "cíos",
        -10.142655406618063
      ],
      [
        "inbh",
        -10.142826090079485
      ],
      [
        "Phen",
        -10.143043790208239
      ],
      [
        "méadar",
        -10.143049914756556
      ],
      [
        "q",
        -10.143731085298633
      ],
      [
        "bunaío",
        -10.143924687356312
      ],
      [
        "Faisnéise",
        -10.144847469037963
      ],
      [
        "droch",
        -10.14496712140128
      ],
      [
        "aonad",
        -10.145424636733585
      ],
      [
        "Roghna",
        -10.14634737888108
      ],
      [
        "Ráta",
        -10.148212801053454
      ],
      [
        "spéis",
        -10.148227090497919
      ],
      [
        "áracha",
        -10.148575672778065
      ],
      [
        "MS",
        -10.148744838370982
      ],
      [
        "nuacht",
        -10.148939629887245
      ],
      [
        "pinsean",
        -10.149176315936053
      ],
      [
        "rip",
        -10.149522449336953
      ],
      [
        "chain",
        -10.149657869238979
      ],
      [
        "treorach",
        -10.150020441038627
      ],
      [
        "bpróifíl",
        -10.150120185027436
      ],
      [
        "imní",
        -10.150771876280253
      ],
      [
        "Suíomh",
        -10.151456040643712
      ],
      [
        "2000",
        -10.151615043819417
      ],
      [
        "Déa",
        -10.151948545788578
      ],
      [
        "chóra",
        -10.153318675982987
      ],
      [
        "Oireachta",
        -10.154023502451604
      ],
      [
        "Mheiriceá",
        -10.154706083012918
      ],
      [
        "Forbairt",
        -10.154706386510885
      ],
      [
        "íochtaí",
        -10.15483761736808
      ],
      [
        "ore",
        -10.154860440637652
      ],
      [
        "deir",
        -10.154949783614832
      ],
      [
        "riosca",
        -10.15531527884296
      ],
      [
        "osaitheoir",
        -10.155721842560514
      ],
      [
        "head",
        -10.156979794021096
      ],
      [
        "turas",
        -10.156980569204963
      ],
      [
        "cuntais",
        -10.157331572495734
      ],
      [
        "Tír",
        -10.157463220698746
      ],
      [
        "páipéar",
        -10.15799561208794
      ],
      [
        "mhonarcha",
        -10.1581602054499
      ],
      [
        "Liúnta",
        -10.158542547389047
      ],
      [
        "foghlama",
        -10.158572703688124
      ],
      [
        "liúntais",
        -10.159583933422047
      ],
      [
        "cum",
        -10.159713539510939
      ],
      [
        "chruinn",
        -10.160796521644489
      ],
      [
        "thuillead",
        -10.161332085118207
      ],
      [
        "dearbhú",
        -10.161369349295065
      ],
      [
        "seacht",
        -10.161463117144672
      ],
      [
        "ceist",
        -10.162180371039263
      ],
      [
        "mhic",
        -10.162650220572324
      ],
      [
        "02",
        -10.16416812568837
      ],
      [
        "°",
        -10.164607144845316
      ],
      [
        "shuiteáil",
        -10.16460739696334
      ],
      [
        "gloine",
        -10.164624737257817
      ],
      [
        "Réigiún",
        -10.164889020947534
      ],
      [
        "pointe",
        -10.165444215616235
      ],
      [
        "eráide",
        -10.165624588518298
      ],
      [
        "India",
        -10.165998225830625
      ],
      [
        "Post",
        -10.166164492854408
      ],
      [
        "inbhuanaithe",
        -10.167643201372064
      ],
      [
        "English",
        -10.167929404788586
      ],
      [
        "Chosaint",
        -10.167931839272528
      ],
      [
        "údarú",
        -10.168708068406577
      ],
      [
        "tos",
        -10.169480215445743
      ],
      [
        "u6",
        -10.169594584518666
      ],
      [
        "meái",
        -10.170030418710072
      ],
      [
        "dhiúlt",
        -10.170767796825158
      ],
      [
        "reáchtáil",
        -10.171262741897136
      ],
      [
        "soláthair",
        -10.171851737358386
      ],
      [
        "fhoca",
        -10.172377235289613
      ],
      [
        "gúna",
        -10.173355750710574
      ],
      [
        "eireadh",
        -10.173643771226486
      ],
      [
        "teoranta",
        -10.175349422697252
      ],
      [
        "lot",
        -10.175784812621767
      ],
      [
        "ósta",
        -10.17618821506704
      ],
      [
        "2004",
        -10.176235487512479
      ],
      [
        "Tugt",
        -10.17826583152004
      ],
      [
        "ionadaí",
        -10.178347296765256
      ],
      [
        "uim",
        -10.178377452819444
      ],
      [
        "Jackets",
        -10.179370864567911
      ],
      [
        "oibreacha",
        -10.180278396419016
      ],
      [
        "Fostaíochta",
        -10.180335813737354
      ],
      [
        "dúil",
        -10.180436142617324
      ],
      [
        "fhéadf",
        -10.180804714698743
      ],
      [
        "iallaíonn",
        -10.182765246648398
      ],
      [
        "bre",
        -10.182784894955988
      ],
      [
        "thuiscint",
        -10.184708310591713
      ],
      [
        "mhúinteoir",
        -10.184708920316918
      ],
      [
        "Chéad",
        -10.18561413636846
      ],
      [
        "stop",
        -10.186044401133856
      ],
      [
        "codann",
        -10.186127932514019
      ],
      [
        "eachtúil",
        -10.186365136516756
      ],
      [
        "MO",
        -10.187037279516073
      ],
      [
        "79",
        -10.188303936072383
      ],
      [
        "Ob",
        -10.18868035760492
      ],
      [
        "sochaí",
        -10.189499876925247
      ],
      [
        "feithicl",
        -10.191005822275041
      ],
      [
        "val",
        -10.191452295527034
      ],
      [
        "wo",
        -10.191670263212647
      ],
      [
        "ultúrtha",
        -10.191749181939294
      ],
      [
        "roim",
        -10.192291042151576
      ],
      [
        "asbhaint",
        -10.192755599992019
      ],
      [
        "liathróid",
        -10.19491277869201
      ],
      [
        "theasta",
        -10.195706038433489
      ],
      [
        "tábla",
        -10.197861190260891
      ],
      [
        "tiomána",
        -10.198337415411572
      ],
      [
        "tru",
        -10.198344913211445
      ],
      [
        "official",
        -10.198692837432198
      ],
      [
        "2001",
        -10.198841153223615
      ],
      [
        "ound",
        -10.198955861674335
      ],
      [
        "fhostaithe",
        -10.199484921854404
      ],
      [
        "chuirfid",
        -10.200820841558983
      ],
      [
        "Hot",
        -10.201053434060935
      ],
      [
        "ceacht",
        -10.201644135015858
      ],
      [
        "athanna",
        -10.201648934788743
      ],
      [
        "gcomhlíona",
        -10.202115005362366
      ],
      [
        "teagmhála",
        -10.202766279922814
      ],
      [
        "ju",
        -10.203396106117209
      ],
      [
        "Deara",
        -10.203688481513387
      ],
      [
        "Inter",
        -10.204271222244103
      ],
      [
        "deas",
        -10.204353203655124
      ],
      [
        "stu",
        -10.205189066802571
      ],
      [
        "smaointe",
        -10.205191908555443
      ],
      [
        "pictiúr",
        -10.20522184792459
      ],
      [
        "iche",
        -10.205231731999454
      ],
      [
        "taisteal",
        -10.205241590385604
      ],
      [
        "fhadhb",
        -10.205267518347767
      ],
      [
        "fóill",
        -10.205347474080362
      ],
      [
        "Thuaidh",
        -10.205506375931668
      ],
      [
        "u9",
        -10.20631571433034
      ],
      [
        "u14",
        -10.206576718457663
      ],
      [
        "All",
        -10.207016636427479
      ],
      [
        "Stair",
        -10.207341804374776
      ],
      [
        "ghairmiú",
        -10.207598431429604
      ],
      [
        "CS",
        -10.207835941653407
      ],
      [
        "Cuideachta",
        -10.208021431542914
      ],
      [
        "Ráite",
        -10.208329659190667
      ],
      [
        "chomhlachta",
        -10.208374198608057
      ],
      [
        "beaga",
        -10.208452960707064
      ],
      [
        "praghs",
        -10.208689554073722
      ],
      [
        "watch",
        -10.208711566027105
      ],
      [
        "bainisti",
        -10.208731926820622
      ],
      [
        "aistriúchá",
        -10.208792228030564
      ],
      [
        "digiteach",
        -10.208836383770699
      ],
      [
        "cúrsa",
        -10.208980262864653
      ],
      [
        "dlite",
        -10.209532498850756
      ],
      [
        "óthair",
        -10.20994779737097
      ],
      [
        "PA",
        -10.210348522346756
      ],
      [
        "less",
        -10.211706447321149
      ],
      [
        "shu",
        -10.211776094175887
      ],
      [
        "laoch",
        -10.21191194403416
      ],
      [
        "iomaíoch",
        -10.213779140025878
      ],
      [
        "tíotáiniam",
        -10.214314525634336
      ],
      [
        "caidr",
        -10.21478281878687
      ],
      [
        "mui",
        -10.215472676500731
      ],
      [
        "66",
        -10.215485722520713
      ],
      [
        "·",
        -10.215638575604874
      ],
      [
        "meáchain",
        -10.215638826852881
      ],
      [
        "beagán",
        -10.216257804366489
      ],
      [
        "leasanna",
        -10.217325683554886
      ],
      [
        "PH",
        -10.217997311859682
      ],
      [
        "Bun",
        -10.218336269486457
      ],
      [
        "scáileá",
        -10.219138516542582
      ],
      [
        "iascaireacht",
        -10.219206760990389
      ],
      [
        "bac",
        -10.21932153811111
      ],
      [
        "mhaoiniú",
        -10.219593093305894
      ],
      [
        "litir",
        -10.221963535037172
      ],
      [
        "leigheas",
        -10.222880375942427
      ],
      [
        "sealbhóir",
        -10.222907644196763
      ],
      [
        "leithl",
        -10.223300348903116
      ],
      [
        "leachta",
        -10.223468828663508
      ],
      [
        "42",
        -10.224297699847398
      ],
      [
        "faighte",
        -10.225896613228372
      ],
      [
        "Threesome",
        -10.226164977799474
      ],
      [
        "críochnaithe",
        -10.22620697256636
      ],
      [
        "She",
        -10.226982463393334
      ],
      [
        "maoine",
        -10.229581714745827
      ],
      [
        "cartlann",
        -10.22970666327858
      ],
      [
        "chontae",
        -10.229751485247881
      ],
      [
        "tithíocht",
        -10.229770231376612
      ],
      [
        "crité",
        -10.23003245309366
      ],
      [
        "pinsin",
        -10.230713954161274
      ],
      [
        "gCoimisinéir",
        -10.231903387985131
      ],
      [
        "nuálaíocht",
        -10.23194373197683
      ],
      [
        "uaidh",
        -10.231983364441032
      ],
      [
        "Teaghla",
        -10.233246989043648
      ],
      [
        "Údarái",
        -10.233708025114687
      ],
      [
        ");",
        -10.233729604771153
      ],
      [
        "mhuirear",
        -10.233782815954378
      ],
      [
        "ianaise",
        -10.234720066024632
      ],
      [
        "ome",
        -10.235040202859746
      ],
      [
        "MB",
        -10.235389141512478
      ],
      [
        "bhforáilte",
        -10.23695432599496
      ],
      [
        "fhostaíocht",
        -10.237125026937715
      ],
      [
        "béil",
        -10.237621403492327
      ],
      [
        "720",
        -10.238511032137811
      ],
      [
        "muirear",
        -10.238647635075734
      ],
      [
        "fheidhmeanna",
        -10.239631115050145
      ],
      [
        "monatóireacht",
        -10.240374823484412
      ],
      [
        "shláinte",
        -10.240398429424568
      ],
      [
        "ghníomhaíochta",
        -10.241102223630701
      ],
      [
        "its",
        -10.242422462279354
      ],
      [
        "tim",
        -10.243028268162508
      ],
      [
        "mionsonra",
        -10.243442802619992
      ],
      [
        "qui",
        -10.24361513859682
      ],
      [
        "ghearr",
        -10.243747202608242
      ],
      [
        "ix",
        -10.243944189067522
      ],
      [
        "úshláin",
        -10.243959345393213
      ],
      [
        "Cuirea",
        -10.2440360303626
      ],
      [
        "amhras",
        -10.244145297993484
      ],
      [
        "Phoba",
        -10.244234604689876
      ],
      [
        ".\"",
        -10.24483476640085
      ],
      [
        "Ógla",
        -10.244964266844734
      ],
      [
        "ios",
        -10.245842401134379
      ],
      [
        "u10",
        -10.245973282773203
      ],
      [
        "chuí",
        -10.246352016615678
      ],
      [
        "breá",
        -10.246688923637208
      ],
      [
        "2005",
        -10.246894336840782
      ],
      [
        "Phoibl",
        -10.247556151499428
      ],
      [
        "scor",
        -10.248408508436043
      ],
      [
        "pháirtí",
        -10.248873230110005
      ],
      [
        "IV",
        -10.250517797832034
      ],
      [
        "bpobal",
        -10.250780481914193
      ],
      [
        "bpointe",
        -10.25079318405637
      ],
      [
        "stádas",
        -10.251180300060742
      ],
      [
        "fórsa",
        -10.2511950807887
      ],
      [
        "strap",
        -10.251580396400584
      ],
      [
        "99",
        -10.251736646523717
      ],
      [
        "Irish",
        -10.251816422058294
      ],
      [
        "bhreith",
        -10.252276627804232
      ],
      [
        "scéimeanna",
        -10.25275527271625
      ],
      [
        "feist",
        -10.252773663913356
      ],
      [
        "aistil",
        -10.252806842872106
      ],
      [
        "bhail",
        -10.25333437277747
      ],
      [
        "iontaobha",
        -10.253849102075105
      ],
      [
        "adóireacht",
        -10.253947970778245
      ],
      [
        "pic",
        -10.254107424438047
      ],
      [
        "57",
        -10.254177094213137
      ],
      [
        "feidhmíocht",
        -10.254235585792443
      ],
      [
        "Fhor",
        -10.254252416184997
      ],
      [
        "múnla",
        -10.254849772776478
      ],
      [
        "ghníomhaíocht",
        -10.255812974675152
      ],
      [
        "Cuarda",
        -10.256314323764983
      ],
      [
        "dtreo",
        -10.256484548803872
      ],
      [
        "asadh",
        -10.256776693873721
      ],
      [
        "blas",
        -10.25686525519527
      ],
      [
        "OR",
        -10.257396977712908
      ],
      [
        "Banc",
        -10.258081474545154
      ],
      [
        "ealla",
        -10.258313207045276
      ],
      [
        "Tarraing",
        -10.258427972053092
      ],
      [
        "bol",
        -10.258643205818622
      ],
      [
        "chothú",
        -10.258654161819349
      ],
      [
        "pra",
        -10.258708338018675
      ],
      [
        "tirim",
        -10.258817038665669
      ],
      [
        "ainmneach",
        -10.258886583646905
      ],
      [
        "teachtaireacht",
        -10.259075487391828
      ],
      [
        "gceant",
        -10.259219033238553
      ],
      [
        "sealadach",
        -10.26207558556719
      ],
      [
        "Sta",
        -10.262437159511922
      ],
      [
        "éascú",
        -10.262450755902282
      ],
      [
        "EC",
        -10.263006474284492
      ],
      [
        "thuras",
        -10.263433575717748
      ],
      [
        "49",
        -10.264637669257016
      ],
      [
        "ceant",
        -10.265418943275975
      ],
      [
        "marc",
        -10.266110837585034
      ],
      [
        "pobal",
        -10.266252325607194
      ],
      [
        "54",
        -10.267541113684938
      ],
      [
        "»",
        -10.269414914745763
      ],
      [
        "Health",
        -10.269436921691057
      ],
      [
        "77",
        -10.269481504926492
      ],
      [
        "Neamh",
        -10.269769726288835
      ],
      [
        "deireanach",
        -10.270015800779824
      ],
      [
        "comhoiriúnacht",
        -10.270143039835002
      ],
      [
        "UK",
        -10.27034953199043
      ],
      [
        "Fostaíocht",
        -10.270502661992033
      ],
      [
        "ghá",
        -10.270532448243177
      ],
      [
        "leacht",
        -10.271498327411567
      ],
      [
        "gov",
        -10.272438346528974
      ],
      [
        "urg",
        -10.272908948263014
      ],
      [
        "Shóisial",
        -10.273105161853035
      ],
      [
        "gcroí",
        -10.274056717335672
      ],
      [
        "thír",
        -10.27413424981415
      ],
      [
        "Mheán",
        -10.276149047788325
      ],
      [
        "sheiceáil",
        -10.27676811086368
      ],
      [
        "chaomhn",
        -10.276810029970058
      ],
      [
        "cúraim",
        -10.276810058283715
      ],
      [
        "saille",
        -10.277876363356459
      ],
      [
        "inneall",
        -10.278246180416165
      ],
      [
        "meascá",
        -10.278636687444099
      ],
      [
        "tarraing",
        -10.281972831303896
      ],
      [
        "ock",
        -10.283160886204863
      ],
      [
        "gCuid",
        -10.28336760798734
      ],
      [
        "ceadaithe",
        -10.283575609153726
      ],
      [
        "éadrom",
        -10.284361621192279
      ],
      [
        "láimhe",
        -10.284649810243323
      ],
      [
        "tube",
        -10.285532711552072
      ],
      [
        "Tóg",
        -10.285582828366724
      ],
      [
        "TR",
        -10.286564980550345
      ],
      [
        "gCúirt",
        -10.287361073018737
      ],
      [
        "VI",
        -10.287848083741306
      ],
      [
        "rathúil",
        -10.288207932565966
      ],
      [
        "CP",
        -10.288236762188085
      ],
      [
        "éineacht",
        -10.288389085092291
      ],
      [
        "Pu",
        -10.290541197340719
      ],
      [
        "béim",
        -10.290812612676683
      ],
      [
        "scoláir",
        -10.291274088565437
      ],
      [
        "Bliain",
        -10.291765604661318
      ],
      [
        "Chearta",
        -10.291879161249181
      ],
      [
        "mála",
        -10.292193521989537
      ],
      [
        "chánach",
        -10.292667914704829
      ],
      [
        "Dúi",
        -10.29294276413194
      ],
      [
        "thiar",
        -10.293833131667064
      ],
      [
        "Cineál",
        -10.293882272679028
      ],
      [
        "deon",
        -10.294130858981497
      ],
      [
        "casta",
        -10.29429174143612
      ],
      [
        "Airgead",
        -10.295009652831613
      ],
      [
        "dlúth",
        -10.29554709188508
      ],
      [
        "dheimhniú",
        -10.295658521751252
      ],
      [
        "Clárú",
        -10.296673114583772
      ],
      [
        "gcaoi",
        -10.29781087998851
      ],
      [
        "imscrúdú",
        -10.298806928817758
      ],
      [
        "links",
        -10.299338736165009
      ],
      [
        "phointe",
        -10.300661637478072
      ],
      [
        "conrad",
        -10.300921175521093
      ],
      [
        "Star",
        -10.301531313467763
      ],
      [
        "íocfa",
        -10.302520149949453
      ],
      [
        "foclóir",
        -10.303174437686152
      ],
      [
        "PDF",
        -10.30328953248467
      ],
      [
        "light",
        -10.303883369735278
      ],
      [
        "Caibidil",
        -10.304150579248082
      ],
      [
        "gníomhaíocht",
        -10.304178203582792
      ],
      [
        "breith",
        -10.304602348466387
      ],
      [
        "56",
        -10.304651432949132
      ],
      [
        "ghnótha",
        -10.305425478107985
      ],
      [
        "tsuim",
        -10.305634573459201
      ],
      [
        "You",
        -10.306814303043637
      ],
      [
        "Crua",
        -10.308527604196428
      ],
      [
        "macasamhail",
        -10.3086634035011
      ],
      [
        "idirlín",
        -10.3091515594019
      ],
      [
        "ionstraimí",
        -10.31064803295753
      ],
      [
        "díospóireacht",
        -10.310774146026247
      ],
      [
        "buiséad",
        -10.310827490426096
      ],
      [
        "fhoils",
        -10.310831141801309
      ],
      [
        "radh",
        -10.311002097115468
      ],
      [
        "srianta",
        -10.311141246210333
      ],
      [
        "hiarratas",
        -10.31218975269335
      ],
      [
        "lio",
        -10.312342747692362
      ],
      [
        "Eagraíocht",
        -10.312533094898509
      ],
      [
        "Comhalta",
        -10.313729718690706
      ],
      [
        "chostas",
        -10.31464343631816
      ],
      [
        "bean",
        -10.314782887404135
      ],
      [
        "chomhshao",
        -10.315092058065858
      ],
      [
        "Dhe",
        -10.315329728050598
      ],
      [
        "cháil",
        -10.315403741156773
      ],
      [
        "bhunaithe",
        -10.31655524543676
      ],
      [
        "ucking",
        -10.317068475472855
      ],
      [
        "carachta",
        -10.317311588533409
      ],
      [
        "úsáideach",
        -10.3180159852385
      ],
      [
        "Gharda",
        -10.318609563049247
      ],
      [
        "chos",
        -10.318913630103529
      ],
      [
        "43",
        -10.320282685232328
      ],
      [
        "97",
        -10.321021177717261
      ],
      [
        "bla",
        -10.321210686885928
      ],
      [
        "ji",
        -10.321879163946637
      ],
      [
        "med",
        -10.322044533650239
      ],
      [
        "inár",
        -10.322296554285316
      ],
      [
        "pit",
        -10.322821026537056
      ],
      [
        "tábhacht",
        -10.323552670200222
      ],
      [
        "coinn",
        -10.324032848519378
      ],
      [
        "cultúr",
        -10.324224629042828
      ],
      [
        "ress",
        -10.324254202822754
      ],
      [
        "rannpháirteach",
        -10.324431049702673
      ],
      [
        "rialtais",
        -10.32484978270399
      ],
      [
        "ku",
        -10.32534922734738
      ],
      [
        "thionscna",
        -10.325846275248463
      ],
      [
        "Íoslódáil",
        -10.32625250009458
      ],
      [
        "ualach",
        -10.327407032830585
      ],
      [
        "Athbhreithni",
        -10.32747026518262
      ],
      [
        "ciontach",
        -10.327693035187192
      ],
      [
        "geall",
        -10.327972091422147
      ],
      [
        "Mhaigh",
        -10.329344959831685
      ],
      [
        "thrí",
        -10.32939503240727
      ],
      [
        "#",
        -10.330154571463751
      ],
      [
        "Ombudsman",
        -10.330154571464288
      ],
      [
        "Iompai",
        -10.3301558927263
      ],
      [
        "póca",
        -10.330253253882285
      ],
      [
        "iarbhír",
        -10.330271513685243
      ],
      [
        "luais",
        -10.330458943348022
      ],
      [
        "Coimirce",
        -10.3304917855747
      ],
      [
        "Fógra",
        -10.330654947148528
      ],
      [
        "Sea",
        -10.33078478444158
      ],
      [
        "ráthaíocht",
        -10.33080246517797
      ],
      [
        "charm",
        -10.331471686945157
      ],
      [
        "díolacháin",
        -10.332542274697948
      ],
      [
        "OS",
        -10.332771240926952
      ],
      [
        "fostaí",
        -10.332970026544995
      ],
      [
        "fuar",
        -10.333289487019147
      ],
      [
        "solúbtha",
        -10.334076175245329
      ],
      [
        "Big",
        -10.334174821447682
      ],
      [
        "dleathach",
        -10.334192749492967
      ],
      [
        "dearfach",
        -10.334391462645966
      ],
      [
        "chairde",
        -10.334997059109813
      ],
      [
        "Mom",
        -10.335318986161035
      ],
      [
        "criosta",
        -10.336106239412048
      ],
      [
        "zo",
        -10.3373391919997
      ],
      [
        "chuntas",
        -10.337926400075741
      ],
      [
        "deontas",
        -10.338225808443962
      ],
      [
        "DO",
        -10.338263522219526
      ],
      [
        "Domhand",
        -10.33827252504975
      ],
      [
        "Breataine",
        -10.338369915831482
      ],
      [
        "saoráid",
        -10.338429475046574
      ],
      [
        "Oileá",
        -10.338442232101483
      ],
      [
        "bal",
        -10.338584945800823
      ],
      [
        "dhlí",
        -10.338782492967436
      ],
      [
        "zel",
        -10.339329756804506
      ],
      [
        "Cons",
        -10.33944009207275
      ],
      [
        "tógála",
        -10.339875027613516
      ],
      [
        "threoir",
        -10.33998468886185
      ],
      [
        "fer",
        -10.34147341451692
      ],
      [
        "Ghníomhaireacht",
        -10.341978465583777
      ],
      [
        "Sráid",
        -10.342159382014133
      ],
      [
        "53",
        -10.343081209173604
      ],
      [
        "lactha",
        -10.344601157508645
      ],
      [
        "príobháideach",
        -10.345122284590857
      ],
      [
        "géar",
        -10.345546639656135
      ],
      [
        "tromchúiseach",
        -10.34593411093698
      ],
      [
        "toirt",
        -10.345965537793154
      ],
      [
        "way",
        -10.346178527642362
      ],
      [
        "Léigh",
        -10.346196030973392
      ],
      [
        "aimsire",
        -10.346289093650114
      ],
      [
        "Áise",
        -10.347648737513818
      ],
      [
        "insean",
        -10.349243236289183
      ],
      [
        "roth",
        -10.349683804014196
      ],
      [
        "chuspóir",
        -10.349778127343821
      ],
      [
        "uiscedhíonach",
        -10.349918390964074
      ],
      [
        "deontais",
        -10.350108250360421
      ],
      [
        "cro",
        -10.350323921174912
      ],
      [
        "línte",
        -10.350581149262783
      ],
      [
        "88",
        -10.351313128429686
      ],
      [
        "agartha",
        -10.351665358769633
      ],
      [
        "fheithic",
        -10.351999059231854
      ],
      [
        "theanga",
        -10.352488409145009
      ],
      [
        "oiriún",
        -10.352960423603928
      ],
      [
        "ullmha",
        -10.352984259937827
      ],
      [
        "phe",
        -10.353748559915605
      ],
      [
        "Iarr",
        -10.35379647534478
      ],
      [
        "tionsclaíoch",
        -10.353918111259667
      ],
      [
        "agsúil",
        -10.354657016508437
      ],
      [
        "chomhlán",
        -10.354658473784554
      ],
      [
        "Cosant",
        -10.354734023485086
      ],
      [
        "95",
        -10.354735167088691
      ],
      [
        "imirce",
        -10.355216705964
      ],
      [
        "mothú",
        -10.356388218819966
      ],
      [
        "tseachtain",
        -10.356737688847982
      ],
      [
        "loingseoireacht",
        -10.357934099117353
      ],
      [
        "clasaiceach",
        -10.357934099393017
      ],
      [
        "athbhreithnithe",
        -10.357934136044939
      ],
      [
        "Whats",
        -10.357935715387313
      ],
      [
        "Pri",
        -10.357953905436514
      ],
      [
        "Cultúir",
        -10.35799171102051
      ],
      [
        "thábhachtach",
        -10.358774347038116
      ],
      [
        "Spáinn",
        -10.358779786360902
      ],
      [
        "Íocaíocht",
        -10.358805356092137
      ],
      [
        "scéime",
        -10.359316716383471
      ],
      [
        "tithe",
        -10.359464566874315
      ],
      [
        "háit",
        -10.360395570136216
      ],
      [
        "Dhá",
        -10.36088543567815
      ],
      [
        "dualgais",
        -10.360932409979942
      ],
      [
        "love",
        -10.361166771546522
      ],
      [
        "athchóiriú",
        -10.361966965667822
      ],
      [
        "ghinearálta",
        -10.361967046229662
      ],
      [
        "eagra",
        -10.362212714331996
      ],
      [
        "Super",
        -10.362297757557663
      ],
      [
        "Dearg",
        -10.363082487691578
      ],
      [
        "thiont",
        -10.363679248333607
      ],
      [
        "gcustaiméir",
        -10.363725398762938
      ],
      [
        "amharc",
        -10.363845451723822
      ],
      [
        "Tras",
        -10.364919591187984
      ],
      [
        "iarrachtaí",
        -10.364984227607405
      ],
      [
        "gcoitinn",
        -10.366014996931547
      ],
      [
        "snáithín",
        -10.36601507059737
      ],
      [
        "bónas",
        -10.36604464917335
      ],
      [
        "adóirí",
        -10.366185923281272
      ],
      [
        "coileach",
        -10.36621409905029
      ],
      [
        "íomhá",
        -10.366258200130707
      ],
      [
        "chuirfe",
        -10.368308317555288
      ],
      [
        "just",
        -10.369396779913735
      ],
      [
        "Chorca",
        -10.369890609365747
      ],
      [
        "Ghearmáin",
        -10.370079987233943
      ],
      [
        "vótála",
        -10.370092670880883
      ],
      [
        "Ceannai",
        -10.370378020507067
      ],
      [
        "Cód",
        -10.37107587205108
      ],
      [
        "pol",
        -10.371406319014785
      ],
      [
        "othar",
        -10.371755460735802
      ],
      [
        "Lucht",
        -10.37200265401109
      ],
      [
        "ceangailte",
        -10.3721198041359
      ],
      [
        "rialtas",
        -10.37311043926667
      ],
      [
        "pot",
        -10.373172482962378
      ],
      [
        "tré",
        -10.373183640271826
      ],
      [
        "bailiúchá",
        -10.373970452245107
      ],
      [
        "Úsáidte",
        -10.374025184608993
      ],
      [
        "American",
        -10.374410012753897
      ],
      [
        "próiseáil",
        -10.374487170294735
      ],
      [
        "teaghlach",
        -10.37492551164455
      ],
      [
        "City",
        -10.375343698928539
      ],
      [
        "cumarsáide",
        -10.37569770741488
      ],
      [
        "tarraingt",
        -10.376142280223826
      ],
      [
        "acasamhail",
        -10.376590887655157
      ],
      [
        "cheadúna",
        -10.376687973144342
      ],
      [
        "ACHT",
        -10.377835105776589
      ],
      [
        "Fhrainc",
        -10.37825999786174
      ],
      [
        "Seomra",
        -10.378285720921909
      ],
      [
        "Blonde",
        -10.378338525735685
      ],
      [
        "cap",
        -10.38004575385202
      ],
      [
        "oirgnimh",
        -10.380140514228572
      ],
      [
        "cistí",
        -10.380799642239221
      ],
      [
        "DC",
        -10.381144078719174
      ],
      [
        "Uair",
        -10.381755229086231
      ],
      [
        "línse",
        -10.381863519067707
      ],
      [
        "Football",
        -10.382375214241726
      ],
      [
        "eilimint",
        -10.382388806939955
      ],
      [
        "cábla",
        -10.382395350949633
      ],
      [
        "Ju",
        -10.382593953195085
      ],
      [
        "Gníomhaíochta",
        -10.382619192343522
      ],
      [
        "stór",
        -10.383098295948711
      ],
      [
        "dheara",
        -10.383369681360115
      ],
      [
        "her",
        -10.383485645839556
      ],
      [
        "tSeirbhís",
        -10.383486673424972
      ],
      [
        "fiach",
        -10.38377800599105
      ],
      [
        "uachtar",
        -10.384405014324845
      ],
      [
        "stra",
        -10.384601427054907
      ],
      [
        "198",
        -10.384680210608739
      ],
      [
        "sonracha",
        -10.385123018039891
      ],
      [
        "41",
        -10.385599415013377
      ],
      [
        "Brunette",
        -10.386507730283881
      ],
      [
        "polasa",
        -10.38675464410678
      ],
      [
        "muinín",
        -10.386847973425864
      ],
      [
        "ceannair",
        -10.387086317826896
      ],
      [
        "feithicle",
        -10.387131093573927
      ],
      [
        "réigiú",
        -10.3874378872693
      ],
      [
        "tosaíochta",
        -10.387684900180659
      ],
      [
        "ghnéas",
        -10.387698604601649
      ],
      [
        "erv",
        -10.387760090152033
      ],
      [
        "Cuimsi",
        -10.388515068462354
      ],
      [
        "éann",
        -10.389642761774212
      ],
      [
        "Qu",
        -10.389944430636943
      ],
      [
        "Duine",
        -10.390789030615156
      ],
      [
        "dualga",
        -10.391734272480281
      ],
      [
        "Ball",
        -10.392069967693939
      ],
      [
        "cionta",
        -10.393044486649444
      ],
      [
        "Dáta",
        -10.393374476306015
      ],
      [
        "foirgn",
        -10.393649667088992
      ],
      [
        "roinnte",
        -10.393910568795942
      ],
      [
        "chúrsaí",
        -10.394098809748979
      ],
      [
        "chúl",
        -10.394229835312853
      ],
      [
        "Gearr",
        -10.394559114889205
      ],
      [
        "ultúir",
        -10.39477625413349
      ],
      [
        "thuismitheoir",
        -10.39482348215865
      ],
      [
        "píopa",
        -10.394827963779363
      ],
      [
        "shárú",
        -10.394841670295708
      ],
      [
        "Áirítea",
        -10.394893833281786
      ],
      [
        "Eolaíochta",
        -10.395145000941744
      ],
      [
        "Pleanála",
        -10.395459894003915
      ],
      [
        "Caithfi",
        -10.3956228614276
      ],
      [
        "shiúl",
        -10.395707376392949
      ],
      [
        "1999",
        -10.39710380629335
      ],
      [
        "foirmiú",
        -10.398577189456681
      ],
      [
        "Rialacha",
        -10.399187353775202
      ],
      [
        "ky",
        -10.39924196950613
      ],
      [
        "ghal",
        -10.399267039596939
      ],
      [
        "titim",
        -10.399422045661868
      ],
      [
        "mall",
        -10.399466831799995
      ],
      [
        "líonta",
        -10.400264752240425
      ],
      [
        "creidmheasa",
        -10.40052543533145
      ],
      [
        "Don",
        -10.400613451074669
      ],
      [
        "chomhairle",
        -10.400901833560614
      ],
      [
        "Beo",
        -10.401353509564485
      ],
      [
        "chon",
        -10.401464299462713
      ],
      [
        "gairte",
        -10.401490192221775
      ],
      [
        "52",
        -10.402952379464857
      ],
      [
        "85",
        -10.404024852058132
      ],
      [
        "tabharfa",
        -10.404163399645222
      ],
      [
        "State",
        -10.40480199038264
      ],
      [
        "freagracht",
        -10.405238026127172
      ],
      [
        "gairm",
        -10.406572124531184
      ],
      [
        "Áit",
        -10.406740843828839
      ],
      [
        "Aer",
        -10.406898133614717
      ],
      [
        "scrúd",
        -10.406936309605808
      ],
      [
        "Cu",
        -10.407026104187025
      ],
      [
        "bhosca",
        -10.407598222473446
      ],
      [
        "aite",
        -10.40844900428283
      ],
      [
        "ghlana",
        -10.408643517349937
      ],
      [
        "mban",
        -10.408899607478594
      ],
      [
        "íoló",
        -10.409299302232885
      ],
      [
        "Gan",
        -10.40951784563622
      ],
      [
        "iomaíocht",
        -10.411141336044242
      ],
      [
        "feistí",
        -10.411650706420025
      ],
      [
        "chailín",
        -10.411674503844013
      ],
      [
        "taca",
        -10.411695637276104
      ],
      [
        "romhainn",
        -10.411965423828772
      ],
      [
        "easpa",
        -10.413060528888401
      ],
      [
        "choinne",
        -10.413076670044763
      ],
      [
        "beirt",
        -10.413327594650376
      ],
      [
        "tréimhs",
        -10.414394324970342
      ],
      [
        "laigh",
        -10.415145744627843
      ],
      [
        "comhairliúchá",
        -10.415946122404133
      ],
      [
        "Tithíocht",
        -10.415946391757402
      ],
      [
        "díolúin",
        -10.416085614336554
      ],
      [
        "ríthábhachtach",
        -10.416130741192868
      ],
      [
        "háinig",
        -10.416469341614418
      ],
      [
        "tionscnaimh",
        -10.416508831197577
      ],
      [
        "Bunreacht",
        -10.416618892801127
      ],
      [
        "rangann",
        -10.416861051121911
      ],
      [
        "coimeád",
        -10.418976546394322
      ],
      [
        "oghcháin",
        -10.419326554318049
      ],
      [
        "Eacnamaíoch",
        -10.420647310269263
      ],
      [
        "300",
        -10.421313765401777
      ],
      [
        "comhad",
        -10.42206453005105
      ],
      [
        "Comhaont",
        -10.42300251396831
      ],
      [
        "you",
        -10.423775818855482
      ],
      [
        "leordhóthanach",
        -10.424486623836504
      ],
      [
        "Tuaisceart",
        -10.424487705303395
      ],
      [
        "Réalta",
        -10.424694410636182
      ],
      [
        "Oibr",
        -10.425406595893147
      ],
      [
        "bhraitheann",
        -10.42551215340237
      ],
      [
        "tábhachta",
        -10.426284509036241
      ],
      [
        "comhlíona",
        -10.426450948415264
      ],
      [
        "game",
        -10.426620824622688
      ],
      [
        "fiche",
        -10.427266942823518
      ],
      [
        "uímh",
        -10.427514692610709
      ],
      [
        "Cuirte",
        -10.42824530691001
      ],
      [
        "Rátáil",
        -10.4287999128548
      ],
      [
        "táirgthe",
        -10.428808939917772
      ],
      [
        "Col",
        -10.429203608450447
      ],
      [
        "MI",
        -10.429294056313044
      ],
      [
        "agóid",
        -10.430413961217639
      ],
      [
        "fhear",
        -10.431202045359086
      ],
      [
        "69",
        -10.432647550486259
      ],
      [
        "Aisc",
        -10.432815677941562
      ],
      [
        "School",
        -10.43312750548079
      ],
      [
        "fhógair",
        -10.43313469870832
      ],
      [
        "óiste",
        -10.434057581044197
      ],
      [
        "Ríomh",
        -10.434412358334667
      ],
      [
        "RI",
        -10.43509160097042
      ],
      [
        "póirt",
        -10.435273791479656
      ],
      [
        "caighdeánach",
        -10.4357981501412
      ],
      [
        "óilín",
        -10.436893795298555
      ],
      [
        "Watch",
        -10.437512528868691
      ],
      [
        "Edit",
        -10.43809514145711
      ],
      [
        "nasctha",
        -10.438170847723907
      ],
      [
        "éireacht",
        -10.438188443587398
      ],
      [
        "lip",
        -10.438251413345256
      ],
      [
        "mbainfid",
        -10.439036719446495
      ],
      [
        "ceapad",
        -10.439147378924496
      ],
      [
        "leasuithe",
        -10.439347821898066
      ],
      [
        "mhargai",
        -10.439775955414088
      ],
      [
        "áisiúi",
        -10.440315236657273
      ],
      [
        "SO",
        -10.440464213465132
      ],
      [
        "imistéir",
        -10.440778722362344
      ],
      [
        "tabharfaid",
        -10.440856729747779
      ],
      [
        "chónaithe",
        -10.44147064794125
      ],
      [
        "ciorca",
        -10.441921472239796
      ],
      [
        "Leabharlann",
        -10.442075068919841
      ],
      [
        "geal",
        -10.442093866883942
      ],
      [
        "scoir",
        -10.442139359333968
      ],
      [
        "ceoil",
        -10.443720904563136
      ],
      [
        "s_",
        -10.444304541441564
      ],
      [
        "Nu",
        -10.445084135334158
      ],
      [
        "héifeachtach",
        -10.446046320979093
      ],
      [
        "World",
        -10.446226993353
      ],
      [
        "treoirlínte",
        -10.446311791816438
      ],
      [
        "aigéad",
        -10.446368665451196
      ],
      [
        "trom",
        -10.446439769315141
      ],
      [
        "lascain",
        -10.446703212673793
      ],
      [
        "lúdach",
        -10.446892889105957
      ],
      [
        "tugta",
        -10.448121881906982
      ],
      [
        "bain",
        -10.448239763323022
      ],
      [
        "u7",
        -10.448709882852205
      ],
      [
        "chruinniú",
        -10.448731358274996
      ],
      [
        "400",
        -10.449103311101043
      ],
      [
        "Mon",
        -10.449444608839459
      ],
      [
        "top",
        -10.449471858025735
      ],
      [
        "experience",
        -10.45063186291727
      ],
      [
        "Amateurs",
        -10.450631866810358
      ],
      [
        "Ghaeltacht",
        -10.450638410691628
      ],
      [
        "comórta",
        -10.450639363386063
      ],
      [
        "réalta",
        -10.451511517746155
      ],
      [
        "daonna",
        -10.452432703616637
      ],
      [
        "78",
        -10.453058941235675
      ],
      [
        "El",
        -10.453397658027995
      ],
      [
        "mhion",
        -10.453670671767988
      ],
      [
        "more",
        -10.454513593964741
      ],
      [
        "seachada",
        -10.454961343079628
      ],
      [
        "dochtúir",
        -10.45506349382726
      ],
      [
        "spins",
        -10.455177471446593
      ],
      [
        "incháilithe",
        -10.455587467971913
      ],
      [
        "eck",
        -10.456621997231451
      ],
      [
        "Uachtaránacht",
        -10.456967812583859
      ],
      [
        "fhostóir",
        -10.456989787738706
      ],
      [
        "séala",
        -10.457659127265483
      ],
      [
        "eachtrach",
        -10.457698930681373
      ],
      [
        "mhainn",
        -10.457755031868992
      ],
      [
        "chrutha",
        -10.45793621086147
      ],
      [
        "gcríoch",
        -10.458127899636281
      ],
      [
        "labhra",
        -10.458839282455603
      ],
      [
        "Cal",
        -10.458897533145926
      ],
      [
        "Daonlatha",
        -10.45950125185408
      ],
      [
        "ardchaighdeáin",
        -10.45950287485834
      ],
      [
        "Mad",
        -10.459642328108513
      ],
      [
        "form",
        -10.459725706832444
      ],
      [
        "TS",
        -10.459733312754217
      ],
      [
        "gabh",
        -10.459910550744784
      ],
      [
        "Dath",
        -10.460140269872007
      ],
      [
        "chinnf",
        -10.461054898203884
      ],
      [
        "tóra",
        -10.461188530227332
      ],
      [
        "eoil",
        -10.461824023524816
      ],
      [
        "tuig",
        -10.461828395818038
      ],
      [
        "iomláine",
        -10.462422542345447
      ],
      [
        "corpra",
        -10.46248016466923
      ],
      [
        "51",
        -10.463032905031323
      ],
      [
        "MP",
        -10.46313432174938
      ],
      [
        "Náisiún",
        -10.463351982347692
      ],
      [
        "díls",
        -10.463514875297863
      ],
      [
        "nádúr",
        -10.463524388736506
      ],
      [
        "raitheann",
        -10.46387774629023
      ],
      [
        "haois",
        -10.464112346151868
      ],
      [
        "bhfaighid",
        -10.464242565916699
      ],
      [
        "taisce",
        -10.464457324115351
      ],
      [
        "cruthaithe",
        -10.465062299300138
      ],
      [
        "theach",
        -10.465219057181123
      ],
      [
        "ascadh",
        -10.465399208848556
      ],
      [
        "ordó",
        -10.46575762568971
      ],
      [
        "tsraith",
        -10.466413255463053
      ],
      [
        "sruth",
        -10.46834485007048
      ],
      [
        "inmhuirearaithe",
        -10.468457535977064
      ],
      [
        "Sábháilteacht",
        -10.46855944473526
      ],
      [
        "cóid",
        -10.468593050103275
      ],
      [
        "Bosca",
        -10.468707748540162
      ],
      [
        "ionsaí",
        -10.468814036007245
      ],
      [
        "aoiseach",
        -10.470046815120693
      ],
      [
        "rath",
        -10.47029209924252
      ],
      [
        "ET",
        -10.470584823889787
      ],
      [
        "Mam",
        -10.470968456885117
      ],
      [
        "68",
        -10.471592851142486
      ],
      [
        "sco",
        -10.471940651425015
      ],
      [
        "ugg",
        -10.472522271568266
      ],
      [
        "RT",
        -10.472933923458452
      ],
      [
        "Uathoibríoch",
        -10.472954180681722
      ],
      [
        "Choinbhinsiú",
        -10.472954180828818
      ],
      [
        "Múinteoir",
        -10.472954535181852
      ],
      [
        "creidiúna",
        -10.472955151958221
      ],
      [
        "éifeachtúlacht",
        -10.473718572273707
      ],
      [
        "ceadú",
        -10.474097630589128
      ],
      [
        "Óig",
        -10.475721822494023
      ],
      [
        "earnálach",
        -10.476539004514166
      ],
      [
        "próis",
        -10.477252498670287
      ],
      [
        "Iarratais",
        -10.477484381050168
      ],
      [
        "Rialú",
        -10.47755990963067
      ],
      [
        "ríomhphost",
        -10.478142013427057
      ],
      [
        "scáth",
        -10.478744751950732
      ],
      [
        "AG",
        -10.479080082420566
      ],
      [
        "1998",
        -10.47930808314015
      ],
      [
        "TO",
        -10.480325029908908
      ],
      [
        "íocháin",
        -10.480928508193307
      ],
      [
        "ráitis",
        -10.481690502984456
      ],
      [
        "heagraíochta",
        -10.482013286145285
      ],
      [
        "Sheirbhís",
        -10.482024536202344
      ],
      [
        "pláta",
        -10.482064406733905
      ],
      [
        "Treorach",
        -10.482188949552462
      ],
      [
        "áistí",
        -10.482231174799113
      ],
      [
        "o_",
        -10.482804726673423
      ],
      [
        "fhomhír",
        -10.484384653466698
      ],
      [
        "cois",
        -10.485104715581091
      ],
      [
        "foilsithe",
        -10.485363194258436
      ],
      [
        "cathaoirleach",
        -10.485366525927777
      ],
      [
        "PC",
        -10.486412239312951
      ],
      [
        "gcuirfí",
        -10.486591347722502
      ],
      [
        "cuimsitheach",
        -10.4866511099719
      ],
      [
        "chóireáil",
        -10.4869717259023
      ],
      [
        "gcomhlacht",
        -10.487562786281368
      ],
      [
        "gcumas",
        -10.488207111655571
      ],
      [
        "nasta",
        -10.488482661121445
      ],
      [
        "mhonar",
        -10.489656263840818
      ],
      [
        "tom",
        -10.490387226454366
      ],
      [
        "allmhair",
        -10.49103890795785
      ],
      [
        "mhola",
        -10.491062375414447
      ],
      [
        "vitimín",
        -10.491177966593266
      ],
      [
        "maoirseacht",
        -10.491178193135779
      ],
      [
        "Éisteachta",
        -10.49118169100229
      ],
      [
        "u13",
        -10.491762970051823
      ],
      [
        "bhfoireann",
        -10.493101448887355
      ],
      [
        "ley",
        -10.493119406961968
      ],
      [
        "RO",
        -10.49572984245058
      ],
      [
        "Ginearál",
        -10.495799050721324
      ],
      [
        "2002",
        -10.4961331780291
      ],
      [
        "oistí",
        -10.49650713865212
      ],
      [
        "too",
        -10.496952383193124
      ],
      [
        "gCuideachta",
        -10.497350391879197
      ],
      [
        "thabharfa",
        -10.497576528474365
      ],
      [
        "úinéireacht",
        -10.49785120184815
      ],
      [
        "chaill",
        -10.497894836285507
      ],
      [
        "ney",
        -10.498891678344108
      ],
      [
        "suime",
        -10.499334228976377
      ],
      [
        "faoisea",
        -10.499426786868959
      ],
      [
        "tarchur",
        -10.499934952249433
      ],
      [
        "Je",
        -10.499970347826066
      ],
      [
        "thalamh",
        -10.500425102202497
      ],
      [
        "wood",
        -10.50091840524669
      ],
      [
        "Clo",
        -10.50106010914192
      ],
      [
        "deonach",
        -10.502112944361073
      ],
      [
        "ireann",
        -10.502339245782652
      ],
      [
        "fhaightea",
        -10.50495927130773
      ],
      [
        "teagasc",
        -10.50508848459907
      ],
      [
        "seolta",
        -10.505597871663781
      ],
      [
        "astaíochta",
        -10.506439927587088
      ],
      [
        "Luain",
        -10.506764847472589
      ],
      [
        "dtag",
        -10.507130475874012
      ],
      [
        "riocht",
        -10.507281059361796
      ],
      [
        "Ailt",
        -10.508697318535752
      ],
      [
        "luí",
        -10.509342600946043
      ],
      [
        "cent",
        -10.5094005153748
      ],
      [
        "xxx",
        -10.509745963837723
      ],
      [
        "u18",
        -10.509969362472264
      ],
      [
        "Coinbhinsiú",
        -10.509979941824515
      ],
      [
        "saoránach",
        -10.51046150532691
      ],
      [
        "EL",
        -10.510625492249797
      ],
      [
        "thástáil",
        -10.51095463990554
      ],
      [
        "leasaítear",
        -10.511741568467462
      ],
      [
        "toil",
        -10.511922983185162
      ],
      [
        "Earra",
        -10.512274122623118
      ],
      [
        "eangacha",
        -10.51251751391988
      ],
      [
        "Rang",
        -10.512752445887287
      ],
      [
        "gala",
        -10.513335466517306
      ],
      [
        "mhíniú",
        -10.513645834510577
      ],
      [
        "ghluaiseacht",
        -10.514435077015602
      ],
      [
        "greannmhar",
        -10.514445953531808
      ],
      [
        "cóireáil",
        -10.51460870848184
      ],
      [
        "rug",
        -10.515297144341897
      ],
      [
        "míleata",
        -10.515539180348004
      ],
      [
        "Ciallaíonn",
        -10.515611798105793
      ],
      [
        "Cíocha",
        -10.515682325739025
      ],
      [
        "méad",
        -10.515802124938855
      ],
      [
        "app",
        -10.51614535738653
      ],
      [
        "ctor",
        -10.516336069132638
      ],
      [
        "avi",
        -10.518540718858834
      ],
      [
        "bpost",
        -10.518907580155243
      ],
      [
        "galánta",
        -10.519155706082444
      ],
      [
        "alúmana",
        -10.519158707259963
      ],
      [
        "eitilt",
        -10.519158936118146
      ],
      [
        "WHO",
        -10.51940675442305
      ],
      [
        "pp",
        -10.519784146687591
      ],
      [
        "chuarda",
        -10.52069831618847
      ],
      [
        "chuntasaíocht",
        -10.521307290756445
      ],
      [
        "scaipea",
        -10.521535402475761
      ],
      [
        "Cumarsáide",
        -10.521543272391215
      ],
      [
        "airíonna",
        -10.521632322732453
      ],
      [
        "breithiúna",
        -10.521656522491428
      ],
      [
        "híocaíochta",
        -10.522145076862781
      ],
      [
        "kin",
        -10.523418376630236
      ],
      [
        "bhéal",
        -10.52386270058226
      ],
      [
        "brabúi",
        -10.523892463937035
      ],
      [
        "ious",
        -10.524288179963722
      ],
      [
        "sloinne",
        -10.524373874316115
      ],
      [
        "tail",
        -10.524542870867629
      ],
      [
        "ríomhaireachta",
        -10.524608198398298
      ],
      [
        "Sin",
        -10.525525135303475
      ],
      [
        "cearn",
        -10.526208758757306
      ],
      [
        "sol",
        -10.526459009506002
      ],
      [
        "féachan",
        -10.526664800416219
      ],
      [
        "athnuachan",
        -10.528654023445391
      ],
      [
        "Omeg",
        -10.52865782536415
      ],
      [
        "tuairisceá",
        -10.529021652649805
      ],
      [
        "fheidhmíocht",
        -10.529614246313937
      ],
      [
        "áilleacht",
        -10.529817764212229
      ],
      [
        "rachaid",
        -10.530356236774072
      ],
      [
        "Ós",
        -10.531187622554247
      ],
      [
        "Muir",
        -10.531558663244171
      ],
      [
        "Port",
        -10.532036705363552
      ],
      [
        "Gearmáinis",
        -10.532308490736431
      ],
      [
        "Op",
        -10.532850651458888
      ],
      [
        "aithne",
        -10.532945930004917
      ],
      [
        "shealbhú",
        -10.533437635958022
      ],
      [
        "aked",
        -10.535045788238193
      ],
      [
        "aisghair",
        -10.535096142029902
      ],
      [
        "ucht",
        -10.537264485440598
      ],
      [
        "punt",
        -10.537329977224685
      ],
      [
        "dlíthiú",
        -10.537389636744066
      ],
      [
        "taisí",
        -10.537809015373519
      ],
      [
        "SPC",
        -10.537987534026735
      ],
      [
        "pm",
        -10.53812705898698
      ],
      [
        "ocsaíd",
        -10.538246474294963
      ],
      [
        "cnaipe",
        -10.538247508101147
      ],
      [
        "PO",
        -10.538287973674162
      ],
      [
        "clú",
        -10.538461915622822
      ],
      [
        "shon",
        -10.53862059456902
      ],
      [
        "saorána",
        -10.538710334126037
      ],
      [
        "gcéanna",
        -10.539663428632565
      ],
      [
        "cúise",
        -10.539880964570184
      ],
      [
        "togh",
        -10.540428738137697
      ],
      [
        "bon",
        -10.541127395024976
      ],
      [
        "foirmeach",
        -10.541277958670857
      ],
      [
        "Meiriceá",
        -10.541790190797638
      ],
      [
        "Charm",
        -10.54201330417222
      ],
      [
        "comhartha",
        -10.542188103015004
      ],
      [
        "mhná",
        -10.542299590016448
      ],
      [
        "uala",
        -10.542597581820667
      ],
      [
        "Chomhphoba",
        -10.542665228228046
      ],
      [
        "98",
        -10.542714772648392
      ],
      [
        "hoifig",
        -10.543061357236951
      ],
      [
        "bainc",
        -10.543071029105914
      ],
      [
        "Bréagá",
        -10.543078909916776
      ],
      [
        "Cosaint",
        -10.543091096251256
      ],
      [
        "Soch",
        -10.543263713001961
      ],
      [
        "Díol",
        -10.544150166604442
      ],
      [
        "spriocann",
        -10.544168228666853
      ],
      [
        "téama",
        -10.545737437222781
      ],
      [
        "ocha",
        -10.546472895270567
      ],
      [
        "96",
        -10.546672832112232
      ],
      [
        "Aonad",
        -10.546888708070252
      ],
      [
        "throm",
        -10.547012550780492
      ],
      [
        "ghné",
        -10.547103079320411
      ],
      [
        "thuairim",
        -10.54794423231263
      ],
      [
        "Acmhainn",
        -10.547947608831688
      ],
      [
        "snámh",
        -10.548023662114241
      ],
      [
        "tóga",
        -10.548287592259125
      ],
      [
        "shonró",
        -10.549000599716946
      ],
      [
        "moladh",
        -10.549252955630639
      ],
      [
        "thabh",
        -10.549737961586654
      ],
      [
        "fheic",
        -10.550742488155674
      ],
      [
        "rent",
        -10.551216276584235
      ],
      [
        "hArd",
        -10.55173621301663
      ],
      [
        "hárta",
        -10.551955797643249
      ],
      [
        "SP",
        -10.551958987976448
      ],
      [
        "met",
        -10.552158656948997
      ],
      [
        "ospidé",
        -10.552808670271315
      ],
      [
        "dhualga",
        -10.55281669834956
      ],
      [
        "Fheidhmiú",
        -10.553069457751924
      ],
      [
        "cúl",
        -10.55400436099806
      ],
      [
        "Pol",
        -10.554150435931799
      ],
      [
        "fhás",
        -10.554252148797188
      ],
      [
        "off",
        -10.554426766766785
      ],
      [
        "aeir",
        -10.554469009498439
      ],
      [
        "saincheiste",
        -10.554772773716627
      ],
      [
        "ates",
        -10.554825873567712
      ],
      [
        "inniúi",
        -10.554988275304948
      ],
      [
        "alair",
        -10.55514765491052
      ],
      [
        "EP",
        -10.555220345102716
      ],
      [
        "Dúrad",
        -10.55552421640532
      ],
      [
[...]
