{
  "version": "1.0",
  "truncation": null,
  "padding": null,
  "added_tokens": [
    {
      "id": 1,
      "content": "[UNK]",
      "single_word": false,
      "lstrip": false,
      "rstrip": false,
      "normalized": false,
      "special": true
    },
    {
      "id": 2,
      "content": "[CLS]",
      "single_word": false,
      "lstrip": false,
      "rstrip": false,
      "normalized": false,
      "special": true
    },
    {
      "id": 3,
      "content": "[SEP]",
      "single_word": false,
      "lstrip": false,
      "rstrip": false,
      "normalized": false,
      "special": true
    },
    {
      "id": 4,
      "content": "[PAD]",
      "single_word": false,
      "lstrip": false,
      "rstrip": false,
      "normalized": false,
      "special": true
    },
    {
      "id": 5,
      "content": "[MASK]",
      "single_word": false,
      "lstrip": false,
      "rstrip": false,
      "normalized": false,
      "special": true
    }
  ],
  "normalizer": {
    "type": "NFKC"
  },
  "pre_tokenizer": {
    "type": "Whitespace"
  },
  "post_processor": null,
  "decoder": null,
  "model": {
    "type": "Unigram",
    "unk_id": 0,
    "vocab": [
      [
        "<unk>",
        0.0
      ],
      [
        "[UNK]",
        0.0
      ],
      [
        "[CLS]",
        0.0
      ],
      [
        "[SEP]",
        0.0
      ],
      [
        "[PAD]",
        0.0
      ],
      [
        "[MASK]",
        0.0
      ],
      [
        "a",
        -2.6586609820040508
      ],
      [
        "n",
        -3.3585376896481325
      ],
      [
        "an",
        -3.5351901969442032
      ],
      [
        ",",
        -3.6002839981139143
      ],
      [
        "ar",
        -3.7311988633966546
      ],
      [
        ".",
        -3.9399013618961476
      ],
      [
        "s",
        -4.085239105145481
      ],
      [
        "agus",
        -4.114571626832555
      ],
      [
        "i",
        -4.157842802626572
      ],
      [
        "r",
        -4.319116066808496
      ],
      [
        "í",
        -4.359239043559924
      ],
      [
        "d",
        -4.579940985473291
      ],
      [
        "t",
        -4.590488340889118
      ],
      [
        "le",
        -4.591655813240722
      ],
      [
        "-",
        -4.699857581058588
      ],
      [
        "e",
        -4.828121567574099
      ],
      [
        "in",
        -4.896479626708707
      ],
      [
        "ú",
        -5.003178031723738
      ],
      [
        "dh",
        -5.009114947452357
      ],
      [
        "(",
        -5.016008925938616
      ],
      [
        "is",
        -5.049950858250167
      ],
      [
        "go",
        -5.061605988603999
      ],
      [
        ")",
        -5.067019687248065
      ],
      [
        "@",
        -5.103526615761508
      ],
      [
        "seo",
        -5.1101848880113945
      ],
      [
        "h",
        -5.134187405218496
      ],
      [
        "ó",
        -5.204738624766199
      ],
      [
        "do",
        -5.22724648388702
      ],
      [
        "de",
        -5.2463754630903825
      ],
      [
        "tú",
        -5.259697372990974
      ],
      [
        "ag",
        -5.270386215700313
      ],
      [
        "m",
        -5.310030014905591
      ],
      [
        "nó",
        -5.357998155231652
      ],
      [
        "l",
        -5.365039726609336
      ],
      [
        "c",
        -5.378709136502216
      ],
      [
        "bhfuil",
        -5.5045651351335305
      ],
      [
        "leis",
        -5.544399712386657
      ],
      [
        "anna",
        -5.58402632204122
      ],
      [
        "C",
        -5.586725183970346
      ],
      [
        "sin",
        -5.614428860303645
      ],
      [
        "An",
        -5.630289449748471
      ],
      [
        "chun",
        -5.6436359168901475
      ],
      [
        "é",
        -5.738007315827197
      ],
      [
        "'",
        -5.767978894814155
      ],
      [
        "il",
        -5.7804794671340165
      ],
      [
        "o",
        -5.8030305303191625
      ],
      [
        "g",
        -5.829820778119471
      ],
      [
        "igh",
        -5.843708875257871
      ],
      [
        ":",
        -5.848439339859894
      ],
      [
        "leat",
        -5.858557585099987
      ],
      [
        "?",
        -5.938765280626162
      ],
      [
        "b",
        -5.9478423802682325
      ],
      [
        "Tweet",
        -5.967610961998423
      ],
      [
        "á",
        -5.969420958618736
      ],
      [
        "sé",
        -5.975012908912751
      ],
      [
        "gur",
        -5.999590180030417
      ],
      [
        "f",
        -6.024384100094579
      ],
      [
        "aon",
        -6.052031165988135
      ],
      [
        "cosc",
        -6.080791275937351
      ],
      [
        "ach",
        -6.093864472384707
      ],
      [
        "mar",
        -6.101569299591256
      ],
      [
        "atá",
        -6.113989174662345
      ],
      [
        "Is",
        -6.142469847209076
      ],
      [
        "den",
        -6.14455295522483
      ],
      [
        "ithe",
        -6.165664049593188
      ],
      [
        "A",
        -6.194533457705301
      ],
      [
        "faoi",
        -6.2206436380950265
      ],
      [
        "mhaith",
        -6.228992435337252
      ],
      [
        "Tá",
        -6.234113660939343
      ],
      [
        "féidi",
        -6.244902150430086
      ],
      [
        "cinnte",
        -6.270299568380043
      ],
      [
        "breathn",
        -6.277497515849243
      ],
      [
        "Chuir",
        -6.2909910661381865
      ],
      [
        "Meáin",
        -6.311311372789106
      ],
      [
        "tá",
        -6.3472239563273565
      ],
      [
        ";",
        -6.38358665919586
      ],
      [
        "ch",
        -6.391914897205874
      ],
      [
        "eile",
        -6.405751146842361
      ],
      [
        "1",
        -6.406850155306271
      ],
      [
        "I",
        -6.410870799657689
      ],
      [
        "chur",
        -6.432173799666728
      ],
      [
        "dhéanamh",
        -6.440565900866993
      ],
      [
        "S",
        -6.465017661841831
      ],
      [
        "2",
        -6.470814471045628
      ],
      [
        "’",
        -6.494409041083619
      ],
      [
        "bheith",
        -6.501812412471805
      ],
      [
        "F",
        -6.546662854092645
      ],
      [
        "alt",
        -6.553572744879961
      ],
      [
        "T",
        -6.617122810671448
      ],
      [
        "duine",
        -6.620394625736353
      ],
      [
        "trí",
        -6.623899427943815
      ],
      [
        "Tuillea",
        -6.650744305058186
      ],
      [
        "D",
        -6.677418956874387
      ],
      [
        "maidi",
        -6.678665014442451
      ],
      [
        "deimhnithe",
        -6.69714092341578
      ],
      [
        "saor",
        -6.703719651319261
      ],
      [
        "Cuntas",
        -6.707350274422341
      ],
      [
        "gach",
        -6.721409391150084
      ],
      [
        "3",
        -6.726729329991901
      ],
      [
        "/",
        -6.731919071834486
      ],
      [
        "don",
        -6.732933127002145
      ],
      [
        "níos",
        -6.7366474717758
      ],
      [
        "nasc",
        -6.7435897730295515
      ],
      [
        "u",
        -6.745066181597238
      ],
      [
        "B",
        -6.757074694032413
      ],
      [
        "aisce",
        -6.761328445495023
      ],
      [
        "nach",
        -6.761650955103528
      ],
      [
        "íonn",
        -6.799040449960303
      ],
      [
        "beidh",
        -6.804718749372402
      ],
      [
        "M",
        -6.829662530829211
      ],
      [
        "óipeáil",
        -6.8384365494611306
      ],
      [
        "Ní",
        -6.844042777150621
      ],
      [
        "porn",
        -6.862996077116952
      ],
      [
        "uair",
        -6.868709885112954
      ],
      [
        "ina",
        -6.873221162367029
      ],
      [
        "Acht",
        -6.880668380578037
      ],
      [
        "dá",
        -6.90417556946794
      ],
      [
        "eitheamh",
        -6.922547384954557
      ],
      [
        "maith",
        -6.925670014429279
      ],
      [
        "idh",
        -6.9284530643021895
      ],
      [
        "lena",
        -6.937438506791674
      ],
      [
        "úsáid",
        -6.9620392679717185
      ],
      [
        "haghaidh",
        -6.965791430491871
      ],
      [
        "um",
        -6.96884190821646
      ],
      [
        "mh",
        -6.973757670379335
      ],
      [
        "fáil",
        -6.97795772882478
      ],
      [
        "4",
        -6.981339094724408
      ],
      [
        "Ar",
        -6.994543871102483
      ],
      [
        "iad",
        -7.00347493466127
      ],
      [
        "mó",
        -7.008455088436497
      ],
      [
        "tweet",
        -7.010030052061802
      ],
      [
        "chuid",
        -7.0108890092277605
      ],
      [
        "chloig",
        -7.016997377655223
      ],
      [
        "N",
        -7.025752051359582
      ],
      [
        "réir",
        -7.029946010807887
      ],
      [
        "shin",
        -7.032363410420169
      ],
      [
        "leanúna",
        -7.033936811067775
      ],
      [
        "amháin",
        -7.092409023980963
      ],
      [
        "nua",
        -7.123384072171687
      ],
      [
        "Ag",
        -7.127662367460109
      ],
      [
        "5",
        -7.136652448913464
      ],
      [
        "bheid",
        -7.156720068279862
      ],
      [
        "\"",
        -7.175473908963886
      ],
      [
        "amach",
        -7.180681418718557
      ],
      [
        "y",
        -7.181986789246567
      ],
      [
        "líne",
        -7.192589744071537
      ],
      [
        "–",
        -7.197545229966478
      ],
      [
        "iarratas",
        -7.220903089986555
      ],
      [
        "“",
        -7.223088928176802
      ],
      [
        "siad",
        -7.226866360619221
      ],
      [
        "mór",
        -7.239667727347625
      ],
      [
        "Dí",
        -7.2520102081344415
      ],
      [
        "thabhair",
        -7.257574656798994
      ],
      [
        "lá",
        -7.268960419225188
      ],
      [
        "gan",
        -7.270938285475301
      ],
      [
        "féin",
        -7.278865548385994
      ],
      [
        "choisc",
        -7.2900806296584655
      ],
      [
        "éis",
        -7.2922371234518035
      ],
      [
        "raibh",
        -7.31327685895079
      ],
      [
        "daoine",
        -7.319551154610142
      ],
      [
        "faoin",
        -7.325475360705365
      ],
      [
        "chomh",
        -7.327383175154015
      ],
      [
        "_",
        -7.327907466146167
      ],
      [
        "leith",
        -7.32849438118326
      ],
      [
        "Cuir",
        -7.335106383933697
      ],
      [
        "fháil",
        -7.351737046867031
      ],
      [
        "isteach",
        -7.357150020513474
      ],
      [
        "cheannach",
        -7.35736785599523
      ],
      [
        "cineál",
        -7.357537867351239
      ],
      [
        "6",
        -7.358236978473501
      ],
      [
        "air",
        -7.35881085298244
      ],
      [
        "Féach",
        -7.35890462822171
      ],
      [
        "gcás",
        -7.3624430980162
      ],
      [
        "p",
        -7.368190553234248
      ],
      [
        "rud",
        -7.3812832875136145
      ],
      [
        "foca",
        -7.400844697875822
      ],
      [
        "san",
        -7.410666657724638
      ],
      [
        "ár",
        -7.418400236044283
      ],
      [
        "fearr",
        -7.426647262261705
      ],
      [
        "te",
        -7.4310086813485725
      ],
      [
        "!",
        -7.449400041024909
      ],
      [
        "leana",
        -7.468069637327366
      ],
      [
        "P",
        -7.472253987626694
      ],
      [
        "suíomh",
        -7.475145167551936
      ],
      [
        "acu",
        -7.478791133555985
      ],
      [
        "tar",
        -7.484327668832313
      ],
      [
        "bhí",
        -7.486243333810114
      ],
      [
        "álacha",
        -7.487264114541274
      ],
      [
        "0",
        -7.4922962064019565
      ],
      [
        "”",
        -7.503142165177586
      ],
      [
        "freagra",
        -7.504178047586972
      ],
      [
        "roimh",
        -7.5229117441486935
      ],
      [
        "HD",
        -7.5264346869091465
      ],
      [
        "ealaigh",
        -7.5275444966203615
      ],
      [
        "nGaeilge",
        -7.539490571646091
      ],
      [
        "Le",
        -7.54720968164149
      ],
      [
        "linn",
        -7.548922637215954
      ],
      [
        "chuig",
        -7.553300346569564
      ],
      [
        "bríonn",
        -7.554929698788738
      ],
      [
        "idir",
        -7.556139803262527
      ],
      [
        "sainmhíni",
        -7.556447348037903
      ],
      [
        "méid",
        -7.561112997609516
      ],
      [
        "bh",
        -7.564732827787356
      ],
      [
        "7",
        -7.565485992462989
      ],
      [
        "G",
        -7.5659209847306155
      ],
      [
        "iallach",
        -7.57025705241208
      ],
      [
        "tear",
        -7.574864442866618
      ],
      [
        "19",
        -7.576799985273135
      ],
      [
        "áirithe",
        -7.577987947132355
      ],
      [
        "8",
        -7.583130104058874
      ],
      [
        "fhrithch",
        -7.588517124090844
      ],
      [
        "fuaimni",
        -7.588814012308779
      ],
      [
        "omhchialla",
        -7.594172007470103
      ],
      [
        "má",
        -7.602397607187667
      ],
      [
        "nois",
        -7.615353998989299
      ],
      [
        "ceart",
        -7.619009940167798
      ],
      [
        "dtí",
        -7.634796884169553
      ],
      [
        "Mar",
        -7.637186525764465
      ],
      [
        "freisin",
        -7.638661580403074
      ],
      [
        "...",
        -7.653381181060206
      ],
      [
        "dul",
        -7.654968865037782
      ],
      [
        "com",
        -7.656624329077308
      ],
      [
        "L",
        -7.661890728861325
      ],
      [
        "ceann",
        -7.679922734392081
      ],
      [
        "chéad",
        -7.686793854969341
      ],
      [
        "—",
        -7.688545738885264
      ],
      [
        "gá",
        -7.691196447204133
      ],
      [
        "ceal",
        -7.694220839011267
      ],
      [
        "Eorpach",
        -7.698485920969045
      ],
      [
        "duit",
        -7.7016297700742555
      ],
      [
        "ing",
        -7.710024830948337
      ],
      [
        "10",
        -7.724191524953925
      ],
      [
        "Iarratas",
        -7.727201864611221
      ],
      [
        "E",
        -7.7376240979789355
      ],
      [
        "abhairt",
        -7.7443496242298515
      ],
      [
        "R",
        -7.749122030002837
      ],
      [
        "bhreathn",
        -7.752199420387516
      ],
      [
        "aghaidh",
        -7.752638812333366
      ],
      [
        "mo",
        -7.756663351767145
      ],
      [
        "Gaeilge",
        -7.77157429729758
      ],
      [
        "iomlán",
        -7.773511744851676
      ],
      [
        "bhaineann",
        -7.775320260371563
      ],
      [
        "bhainfea",
        -7.783885792516619
      ],
      [
        "aithe",
        -7.784800878577581
      ],
      [
        "th",
        -7.789574616334653
      ],
      [
        "obair",
        -7.802032001653011
      ],
      [
        "cheart",
        -7.80608291512266
      ],
      [
        "cur",
        -7.81075693378882
      ],
      [
        "the",
        -7.8158660136278435
      ],
      [
        "sonraí",
        -7.8160566011763795
      ],
      [
        "áit",
        -7.829019115344987
      ],
      [
        "ainm",
        -7.829727917739253
      ],
      [
        "bhaint",
        -7.832265124815611
      ],
      [
        "agat",
        -7.833835663275441
      ],
      [
        "dáta",
        -7.840849052673513
      ],
      [
        "roinnt",
        -7.84420922697517
      ],
      [
        "tréimhse",
        -7.860693752950565
      ],
      [
        "Beidh",
        -7.86081781087665
      ],
      [
        "AE",
        -7.864611253701384
      ],
      [
        "for",
        -7.864885406408082
      ],
      [
        "Roinn",
        -7.8725520291224775
      ],
      [
        "ítear",
        -7.875107690314493
      ],
      [
        "nuair",
        -7.882549279229003
      ],
      [
        "[",
        -7.885707846809838
      ],
      [
        "léir",
        -7.8860548148681495
      ],
      [
        "]",
        -7.886793230208953
      ],
      [
        "12",
        -7.887128158952739
      ],
      [
        "15",
        -7.88745802658586
      ],
      [
        "cluiche",
        -7.887604286793062
      ],
      [
        "gréasáin",
        -7.891510402406025
      ],
      [
        "9",
        -7.905074298982742
      ],
      [
        "haoine",
        -7.915652445060533
      ],
      [
        "18",
        -7.918411232268952
      ],
      [
        "eann",
        -7.921274036311577
      ],
      [
        "Twitter",
        -7.929325970706836
      ],
      [
        "físeá",
        -7.930698131365083
      ],
      [
        "bhfeidhm",
        -7.93933833829891
      ],
      [
        "éagsúla",
        -7.942223494271087
      ],
      [
        "hÉireann",
        -7.943353018105973
      ],
      [
        "ábhar",
        -7.952555125424245
      ],
      [
        "chéile",
        -7.9603997880878525
      ],
      [
        "cinn",
        -7.963970436853973
      ],
      [
        "thar",
        -7.985681202880489
      ],
      [
        "Aontais",
        -7.992053749793554
      ],
      [
        "imh",
        -7.992313025297921
      ],
      [
        "síos",
        -7.994709235900414
      ],
      [
        "scoth",
        -7.995394433101431
      ],
      [
        "Airteagal",
        -7.997254382722204
      ],
      [
        "aige",
        -8.000181631286978
      ],
      [
        "Má",
        -8.002723463216359
      ],
      [
        "hEorpa",
        -8.002905797948596
      ],
      [
        "20",
        -8.003091070686398
      ],
      [
        "arna",
        -8.00617341370021
      ],
      [
        "EN",
        -8.007852405496338
      ],
      [
        "&",
        -8.010726541482681
      ],
      [
        "caighdeán",
        -8.025988892994715
      ],
      [
        "mé",
        -8.026785828900218
      ],
      [
        "bith",
        -8.030074124517034
      ],
      [
        "leor",
        -8.037794019922352
      ],
      [
        "teacht",
        -8.040792181300878
      ],
      [
        "fho",
        -8.049102876518877
      ],
      [
        "cheann",
        -8.05110863643213
      ],
      [
        "áil",
        -8.052836339305006
      ],
      [
        "físeán",
        -8.05513840121875
      ],
      [
        "Go",
        -8.067351285497725
      ],
      [
        "O",
        -8.070103321942524
      ],
      [
        "bhliain",
        -8.0715389827084
      ],
      [
        "ordú",
        -8.072708631203723
      ],
      [
        "inneadh",
        -8.08108113521186
      ],
      [
        "16",
        -8.081577643398534
      ],
      [
        "sórt",
        -8.0838514287137
      ],
      [
        "Aire",
        -8.083946372214843
      ],
      [
        "Dé",
        -8.088192161851843
      ],
      [
        "chaighdeán",
        -8.091745246093872
      ],
      [
        "2018",
        -8.093078609980669
      ],
      [
        "k",
        -8.093733720477735
      ],
      [
        "24",
        -8.097852975914453
      ],
      [
        "€",
        -8.100703700862272
      ],
      [
        "láthair",
        -8.104877887666856
      ],
      [
        "íoc",
        -8.106621155922408
      ],
      [
        "ásta",
        -8.110134078147727
      ],
      [
        "ibé",
        -8.110360941854363
      ],
      [
        "on",
        -8.115230412847806
      ],
      [
        "áirítear",
        -8.117919789933042
      ],
      [
        "suas",
        -8.124798407842183
      ],
      [
        "táirgí",
        -8.127251858727538
      ],
      [
        "%",
        -8.131889851894957
      ],
      [
        "ráta",
        -8.137005271373344
      ],
      [
        "cheana",
        -8.137241382536871
      ],
      [
        "Iúil",
        -8.137997585943351
      ],
      [
        "anseo",
        -8.140521751289935
      ],
      [
        "leo",
        -8.150333186503886
      ],
      [
        "féachain",
        -8.152642103775175
      ],
      [
        "bearta",
        -8.158766491258895
      ],
      [
        "imeachta",
        -8.16094043808355
      ],
      [
        "eolas",
        -8.16179392445393
      ],
      [
        "eanna",
        -8.162924685846466
      ],
      [
        "Coiscthe",
        -8.163141035412192
      ],
      [
        "bliana",
        -8.16549917301504
      ],
      [
        "déanta",
        -8.168990772911966
      ],
      [
        "Béarla",
        -8.17320947649861
      ],
      [
        "aigh",
        -8.173833915552384
      ],
      [
        "uithe",
        -8.179211510649935
      ],
      [
        "Lean",
        -8.186350819246565
      ],
      [
        "far",
        -8.188447785615715
      ],
      [
        "2017",
        -8.188589503061726
      ],
      [
        "díreach",
        -8.188594413478793
      ],
      [
        "Porn",
        -8.1922487755904
      ],
      [
        "dheis",
        -8.19615684182256
      ],
      [
        "láithreá",
        -8.199093213854603
      ],
      [
        "The",
        -8.20015546806873
      ],
      [
        "11",
        -8.20199966154233
      ],
      [
        "K",
        -8.204103567524054
      ],
      [
        "tAire",
        -8.204560599731035
      ],
      [
        "más",
        -8.20493496940026
      ],
      [
        "Deireadh",
        -8.207734942933953
      ],
      [
        "30",
        -8.20830412057321
      ],
      [
        "údarás",
        -8.212443021175996
      ],
      [
        "Chomhairle",
        -8.212539684260678
      ],
      [
        "Márta",
        -8.216568741992834
      ],
      [
        "fhéadfadh",
        -8.224059440782193
      ],
      [
        "Baile",
        -8.22683712711033
      ],
      [
        "H",
        -8.228342624610558
      ],
      [
        "Rialachá",
        -8.234369508077254
      ],
      [
        "V",
        -8.234762875345226
      ],
      [
        "Ba",
        -8.23660592319878
      ],
      [
        "aois",
        -8.23988104195404
      ],
      [
        "seirbhísí",
        -8.253596340068354
      ],
      [
        "Chun",
        -8.254240855439674
      ],
      [
        "feadh",
        -8.255262473803246
      ],
      [
        "líon",
        -8.256047487886507
      ],
      [
        "17",
        -8.256663680199036
      ],
      [
        "amp",
        -8.260875750006758
      ],
      [
        "íoslódáil",
        -8.261866946524464
      ],
      [
        "eamh",
        -8.262974956814844
      ],
      [
        "U",
        -8.264719675033948
      ],
      [
        "chóir",
        -8.267460478686619
      ],
      [
        "of",
        -8.27371557688405
      ],
      [
        "14",
        -8.27453721282829
      ],
      [
        "ionad",
        -8.27744015720518
      ],
      [
        "laist",
        -8.288091120270185
      ],
      [
        "dhá",
        -8.291296703854357
      ],
      [
        "fear",
        -8.292006847456893
      ],
      [
        "13",
        -8.293650074227283
      ],
      [
        "fad",
        -8.297279101532139
      ],
      [
        "tha",
        -8.303121002007504
      ],
      [
        "Comhrá",
        -8.303967062271347
      ],
      [
        "ndáil",
        -8.305343228391482
      ],
      [
        "huaire",
        -8.305712736221867
      ],
      [
        "Aontas",
        -8.313499686365684
      ],
      [
        "2019",
        -8.318987516615849
      ],
      [
        "leathanach",
        -8.325097948170452
      ],
      [
        "iontach",
        -8.32810765619873
      ],
      [
        "W",
        -8.34799721895933
      ],
      [
        "bliain",
        -8.348184508642683
      ],
      [
        "oibre",
        -8.349697236599392
      ],
      [
        "mbaineann",
        -8.350472295451983
      ],
      [
        "niú",
        -8.352111426861793
      ],
      [
        "neamh",
        -8.355224327122109
      ],
      [
        "fós",
        -8.35978908429656
      ],
      [
        "uisce",
        -8.359804079177593
      ],
      [
        "gcuid",
        -8.361760536858236
      ],
      [
        "w",
        -8.365601543348937
      ],
      [
        "cháin",
        -8.366480353443889
      ],
      [
        "Co",
        -8.369055817114141
      ],
      [
        "cluichí",
        -8.37210679192561
      ],
      [
        "íodh",
        -8.374564917587547
      ],
      [
        "bhíonn",
        -8.376353761674531
      ],
      [
        "iarraidh",
        -8.37717934981432
      ],
      [
        "áireamh",
        -8.379413778940274
      ],
      [
        "mbead",
        -8.380889660621733
      ],
      [
        "comh",
        -8.383001895198896
      ],
      [
        "tráth",
        -8.391098140204031
      ],
      [
        "De",
        -8.394950683294368
      ],
      [
        "dlí",
        -8.403975457356648
      ],
      [
        "gheall",
        -8.4048657629823
      ],
      [
        "gComhairle",
        -8.409462961939724
      ],
      [
        "Agus",
        -8.413499320529867
      ],
      [
        "beag",
        -8.41381745072962
      ],
      [
        "bhun",
        -8.418493566505685
      ],
      [
        "leibhéal",
        -8.42228274483325
      ],
      [
        "fud",
        -8.426816504028258
      ],
      [
        "‘",
        -8.430740728467306
      ],
      [
        "athrú",
        -8.431892051718645
      ],
      [
        "rogha",
        -8.433157498514275
      ],
      [
        "céanna",
        -8.433531452191138
      ],
      [
        "ndéanfa",
        -8.435114342229447
      ],
      [
        "Leaba",
        -8.437199283353618
      ],
      [
        "mhí",
        -8.438583724795556
      ],
      [
        "25",
        -8.44009787641923
      ],
      [
        "Atweetáil",
        -8.441548372812157
      ],
      [
        ").",
        -8.443399205562523
      ],
      [
        "Fuaim",
        -8.444070203397947
      ],
      [
        "atweet",
        -8.444238322650238
      ],
      [
        "v",
        -8.444978350493844
      ],
      [
        "scríobh",
        -8.445333866839253
      ],
      [
        "cuid",
        -8.44598115267101
      ],
      [
        "mhéid",
        -8.44901130110566
      ],
      [
        "luach",
        -8.449880068410419
      ],
      [
        "deara",
        -8.450801494813836
      ],
      [
        "dóibh",
        -8.452492906045666
      ],
      [
        "againn",
        -8.452614205830297
      ],
      [
        "feidhm",
        -8.453858133694307
      ],
      [
        "orthu",
        -8.45937244632006
      ],
      [
        "fhreagra",
        -8.460328523111855
      ],
      [
        "cuideachta",
        -8.464103527107014
      ],
      [
        "náisiúnta",
        -8.46932338571472
      ],
      [
        "Comhairle",
        -8.469731389712614
      ],
      [
        "Fómhair",
        -8.471276567346056
      ],
      [
        "liom",
        -8.473759048133758
      ],
      [
        "Ch",
        -8.476548703869526
      ],
      [
        "gcónaí",
        -8.483948240293191
      ],
      [
        "scannán",
        -8.485261109687407
      ],
      [
        "ábhair",
        -8.490255611165995
      ],
      [
        "Ó",
        -8.492379396740091
      ],
      [
        "cothrom",
        -8.492382405284243
      ],
      [
        "Tuga",
        -8.493876330187529
      ],
      [
        "21",
        -8.494407152566495
      ],
      [
        "mhír",
        -8.495003813943487
      ],
      [
        "23",
        -8.495209088166508
      ],
      [
        "Ard",
        -8.495718663632829
      ],
      [
        "airgeadra",
        -8.496055063931973
      ],
      [
        "cé",
        -8.496504843268529
      ],
      [
        "earraí",
        -8.497186972134518
      ],
      [
        "déana",
        -8.499793898136929
      ],
      [
        "tras",
        -8.500483385657091
      ],
      [
        "tSín",
        -8.50133566437546
      ],
      [
        "féach",
        -8.502305379539312
      ],
      [
        "fo",
        -8.50608213168789
      ],
      [
        "Éirinn",
        -8.507858608052576
      ],
      [
        "críocha",
        -8.51095697104989
      ],
      [
        "cáilíochta",
        -8.512086410645699
      ],
      [
        "féadfaid",
        -8.51238583566335
      ],
      [
        "iomchu",
        -8.516435591514643
      ],
      [
        "fheabhsú",
        -8.516647176920511
      ],
      [
        "Cé",
        -8.516757629549996
      ],
      [
        "feidhme",
        -8.521076921963557
      ],
      [
        "eideal",
        -8.525831481028941
      ],
      [
        "Féadfaidh",
        -8.526935822804166
      ],
      [
        "2016",
        -8.527560660065156
      ],
      [
        "gnéas",
        -8.528284068653257
      ],
      [
        "taobh",
        -8.528468118759946
      ],
      [
        "Déan",
        -8.530077890532779
      ],
      [
        "ciallaíon",
        -8.534317577795953
      ],
      [
        "Eorpaigh",
        -8.53868730086476
      ],
      [
        "Coimisiún",
        -8.54479765444711
      ],
      [
        "uile",
        -8.546169054293758
      ],
      [
        "ort",
        -8.54641764281859
      ],
      [
        "000",
        -8.55394820055059
      ],
      [
        "amhlai",
        -8.555109335520068
      ],
      [
        "Ballstá",
        -8.557855338533198
      ],
      [
        "seirbhís",
        -8.558376531607102
      ],
      [
        "ghlacad",
        -8.558936739522537
      ],
      [
        "oifig",
        -8.560957900604121
      ],
      [
        "gh",
        -8.564460435560846
      ],
      [
        "dhéana",
        -8.567504000996564
      ],
      [
        "croí",
        -8.568528519941381
      ],
      [
        "airgead",
        -8.576103084587114
      ],
      [
        "100",
        -8.579994678261214
      ],
      [
        "Físeán",
        -8.580563827563044
      ],
      [
        "fhorbairt",
        -8.581824656452122
      ],
      [
        "22",
        -8.582031749768227
      ],
      [
        "z",
        -8.589506524655448
      ],
      [
        "muid",
        -8.59025336809711
      ],
      [
        "uaire",
        -8.593509982327305
      ],
      [
        "bia",
        -8.598658148450461
      ],
      [
        "rialacha",
        -8.60127654895604
      ],
      [
        "Nach",
        -8.609888859999888
      ],
      [
        "deireadh",
        -8.609951010588206
      ],
      [
        "Rinne",
        -8.61728891574855
      ],
      [
        "táirge",
        -8.618329251183198
      ],
      [
        "leas",
        -8.623545117534189
      ],
      [
        "Stáit",
        -8.626025423608242
      ],
      [
        "éifeacht",
        -8.628557175974882
      ],
      [
        "Náisiúnta",
        -8.628853949545647
      ],
      [
        "imir",
        -8.63064491669953
      ],
      [
        "tríd",
        -8.63438423780882
      ],
      [
        "rith",
        -8.636315533893889
      ],
      [
        "lán",
        -8.637813271672382
      ],
      [
        "Bord",
        -8.639532621546962
      ],
      [
        "ailt",
        -8.64050873400694
      ],
      [
        "anúint",
        -8.641362933702231
      ],
      [
        "fógra",
        -8.642857112438335
      ],
      [
        "J",
        -8.645963303977366
      ],
      [
        "Oireachtais",
        -8.64715269765385
      ],
      [
        "32",
        -8.6472393452008
      ],
      [
        "freagairt",
        -8.648674928973293
      ],
      [
        "speisialta",
        -8.651834037920061
      ],
      [
        "chomhrá",
        -8.65690062135087
      ],
      [
        "Bhí",
        -8.658408758988806
      ],
      [
        "chlár",
        -8.658875211891669
      ],
      [
        "bhfo",
        -8.660303481149505
      ],
      [
        "sholátha",
        -8.661760001192663
      ],
      [
        "fíor",
        -8.663717016024542
      ],
      [
        "réimse",
        -8.664339674299313
      ],
      [
        "comhalta",
        -8.665469770336507
      ],
      [
        "Ceisteanna",
        -8.670095211457085
      ],
      [
        "ath",
        -8.671979904019167
      ],
      [
        "Pharlaimint",
        -8.673803835506561
      ],
      [
        "baint",
        -8.676154419893713
      ],
      [
        "bhrí",
        -8.6768549749692
      ],
      [
        "poiblí",
        -8.67748113483854
      ],
      [
        "Oifig",
        -8.681220728851596
      ],
      [
        "áitiúil",
        -8.682370372408093
      ],
      [
        "mian",
        -8.685163551492925
      ],
      [
        "rialachá",
        -8.686129034599446
      ],
      [
        "Ach",
        -8.686319029483538
      ],
      [
        "iúl",
        -8.68814821815822
      ],
      [
        "mhór",
        -8.689271243108738
      ],
      [
        "Tithe",
        -8.691249189252277
      ],
      [
        "oifige",
        -8.691387919146656
      ],
      [
        "chlárú",
        -8.696899662086416
      ],
      [
        "Dáil",
        -8.701398468559763
      ],
      [
        "mír",
        -8.70409060107724
      ],
      [
        "Uimh",
        -8.70675781252259
      ],
      [
        "Catagóir",
        -8.706951624856895
      ],
      [
        "CE",
        -8.708964212845432
      ],
      [
        "Stát",
        -8.711223384025462
      ],
      [
        "2015",
        -8.714190622901164
      ],
      [
        "haon",
        -8.720780249673643
      ],
      [
        "coinníollach",
        -8.72442922767158
      ],
      [
        "mura",
        -8.726764462021391
      ],
      [
        "26",
        -8.729669943194779
      ],
      [
        "cuí",
        -8.729899784268948
      ],
      [
        "Á",
        -8.730051583245459
      ],
      [
        "Feabh",
        -8.735187135045159
      ],
      [
        "íoctha",
        -8.741656467200896
      ],
      [
        "2014",
        -8.744330799142848
      ],
      [
        "fhor",
        -8.744695037281435
      ],
      [
        "eachas",
        -8.747109963590145
      ],
      [
        "pearsanta",
        -8.747298476493397
      ],
      [
        "ontaithe",
        -8.750556606805574
      ],
      [
        "be",
        -8.751714345972921
      ],
      [
        "cosú",
        -8.753740006534457
      ],
      [
        "roghnú",
        -8.754078530959204
      ],
      [
        "tacaíocht",
        -8.757711743130086
      ],
      [
        "súil",
        -8.760645616766853
      ],
      [
        "bunaithe",
        -8.761827792346818
      ],
      [
        "praghas",
        -8.762308743998105
      ],
      [
        "bun",
        -8.762430759977313
      ],
      [
        "teanga",
        -8.763394730336184
      ],
      [
        "irgeadais",
        -8.765254877899647
      ],
      [
        "Gnóthaí",
        -8.771463970481088
      ],
      [
        "Átha",
        -8.77615396562426
      ],
      [
        "scoil",
        -8.776567125575427
      ],
      [
        "aíonn",
        -8.78042383783555
      ],
      [
        "x",
        -8.781356881569476
      ],
      [
        "faisnéis",
        -8.782246512366058
      ],
      [
        "éir",
        -8.782552320438487
      ],
      [
        "Parlaiminte",
        -8.782829067599678
      ],
      [
        "fiú",
        -8.786051977006677
      ],
      [
        "scéim",
        -8.786400484423531
      ],
      [
        "Cona",
        -8.788379193010716
      ],
      [
        "déanfa",
        -8.789749639174833
      ],
      [
        "28",
        -8.79053838566388
      ],
      [
        "sheoladh",
        -8.794740886935735
      ],
      [
        "50",
        -8.79581570090313
      ],
      [
        "Mí",
        -8.79853709013991
      ],
      [
        "páirt",
        -8.800500504431664
      ],
      [
        "dtagraí",
        -8.801765488523074
      ],
      [
        "Níl",
        -8.801781642014816
      ],
      [
        "leagan",
        -8.805102748729759
      ],
      [
        "27",
        -8.806274787500483
      ],
      [
        "modh",
        -8.806639650414152
      ],
      [
        "aonair",
        -8.809770878380949
      ],
      [
        "tagairt",
        -8.810470563406607
      ],
      [
        "álta",
        -8.810842398236563
      ],
      [
        "shampla",
        -8.812632379330111
      ],
      [
        "|",
        -8.818128847964264
      ],
      [
        "fh",
        -8.818381767122393
      ],
      [
        "chosaint",
        -8.819052742972941
      ],
      [
        "domhain",
        -8.819069237165778
      ],
      [
        "chás",
        -8.820799296682468
      ],
      [
        "gcomhréir",
        -8.822832763015679
      ],
      [
        "orthaí",
        -8.822935027699177
      ],
      [
        "bhféadfa",
        -8.824200577557562
      ],
      [
        "nár",
        -8.826663103976609
      ],
      [
        "Cluichí",
        -8.827548937981899
      ],
      [
        "ly",
        -8.827656418473945
      ],
      [
        "saol",
        -8.829397606380102
      ],
      [
        "hiomlán",
        -8.830839778766558
      ],
      [
        "Do",
        -8.832375117442048
      ],
      [
        "láithreach",
        -8.832592350716123
      ],
      [
        "aítear",
        -8.834078482736732
      ],
      [
        "2013",
        -8.834819170532612
      ],
      [
        "us",
        -8.835970259639822
      ],
      [
        "Cliath",
        -8.83786474445891
      ],
      [
        "Nua",
        -8.839080310739801
      ],
      [
        "iarratais",
        -8.839169584732531
      ],
      [
        "laghdú",
        -8.839846093002084
      ],
      [
        "measc",
        -8.840400602303088
      ],
      [
        "eadh",
        -8.84102362312223
      ],
      [
        "cad",
        -8.843297882080137
      ],
      [
        "gceist",
        -8.843374384036336
      ],
      [
        "eas",
        -8.84584086974008
      ],
      [
        "gcéad",
        -8.846539633626186
      ],
      [
        "Th",
        -8.846808503526402
      ],
      [
        "31",
        -8.847828478504493
      ],
      [
        "córas",
        -8.848592504300672
      ],
      [
        "Seirbhís",
        -8.849521555619944
      ],
      [
        "Fómh",
        -8.851161060004086
      ],
      [
        "29",
        -8.852408197128657
      ],
      [
        "Cur",
        -8.856669245083054
      ],
      [
        "chuir",
        -8.858285358150045
      ],
      [
        "catagóir",
        -8.860309858243635
      ],
      [
        "oiriúnach",
        -8.865943349706995
      ],
      [
        "cruach",
        -8.8689297180954
      ],
      [
        "chuideachta",
        -8.87328371682268
      ],
      [
        "clár",
        -8.873391356868664
      ],
      [
        "idirnáisiúnta",
        -8.87487711127869
      ],
      [
        "Airgeadais",
        -8.87623563256059
      ],
      [
        "son",
        -8.876272809250938
      ],
      [
        "ndia",
        -8.87950874182405
      ],
      [
        "lucht",
        -8.885519073404105
      ],
      [
        "Chomh",
        -8.88595129988689
      ],
      [
        "dtaobh",
        -8.886452202907286
      ],
      [
        "fé",
        -8.887538049642817
      ],
      [
        "X",
        -8.888058132555683
      ],
      [
        "eolais",
        -8.888123127141334
      ],
      [
        "tuillea",
        -8.888953604191567
      ],
      [
        "bhealach",
        -8.890192699144254
      ],
      [
        "gnó",
        -8.890578028763539
      ],
      [
        "dúinn",
        -8.890674130218066
      ],
      [
        "dhéanta",
        -8.891967567565429
      ],
      [
        "ghnáth",
        -8.894467508169685
      ],
      [
        "Gaillimh",
        -8.89645054778545
      ],
      [
        "sláinte",
        -8.898903212398178
      ],
      [
        "áin",
        -8.89943887164727
      ],
      [
        "Éireann",
        -8.901897140234736
      ],
      [
        "thaobh",
        -8.909623417742328
      ],
      [
        "istigh",
        -8.911443545884962
      ],
      [
        "íortha",
        -8.91164476608132
      ],
      [
        "Cad",
        -8.91270860833051
      ],
      [
        "údar",
        -8.914884188050461
      ],
      [
        "cona",
        -8.918848053410162
      ],
      [
        "éanamh",
        -8.920181247888038
      ],
      [
        "For",
        -8.92068235719537
      ],
      [
        "éasca",
        -8.922163415781121
      ],
      [
        "gcoinne",
        -8.922992981721553
      ],
      [
        "úsáidte",
        -8.925978550268576
      ],
      [
        "Meán",
        -8.927781868293222
      ],
      [
        "chroí",
        -8.928534240710938
      ],
      [
        "teagmhá",
        -8.92885920119685
      ],
      [
        "Ghaeilge",
        -8.930814644302849
      ],
      [
        "glaca",
        -8.935102890443337
      ],
      [
        "Y",
        -8.935738551465361
      ],
      [
        "chruthú",
        -8.936024920657076
      ],
      [
        "faidh",
        -8.936133544275922
      ],
      [
        "cabhr",
        -8.938890359913534
      ],
      [
        "lae",
        -8.941771796525662
      ],
      [
        "Más",
        -8.941810607348401
      ],
      [
        "gníomhaíochta",
        -8.943713256416643
      ],
      [
        "huine",
        -8.943790688711093
      ],
      [
        "siúl",
        -8.94631612126068
      ],
      [
        "inniu",
        -8.947392346844518
      ],
      [
        "fhonn",
        -8.948390200416
      ],
      [
        "laghad",
        -8.948451107345157
      ],
      [
        "déan",
        -8.952108106313684
      ],
      [
        "ion",
        -8.952593904268916
      ],
      [
        "taighde",
        -8.95399096449536
      ],
      [
        "chineál",
        -8.957576974127578
      ],
      [
        "breise",
        -8.957907431661871
      ],
      [
        "chinntiú",
        -8.958092415986034
      ],
      [
        "cuireadh",
        -8.958221724691004
      ],
      [
        "éileamh",
        -8.96981307923987
      ],
      [
        "cánach",
        -8.969899641661513
      ],
      [
        "Sláinte",
        -8.970673362273676
      ],
      [
        "leathan",
        -8.97125091869285
      ],
      [
        "Z",
        -8.971452169851577
      ],
      [
        "Seo",
        -8.97429709453165
      ],
      [
        "óir",
        -8.975737983189644
      ],
      [
        "tír",
        -8.980744866842183
      ],
      [
        "imid",
        -8.981909625463675
      ],
      [
        "rochtain",
        -8.982627260967817
      ],
      [
        "Treoir",
        -8.985698006295346
      ],
      [
        "aistriú",
        -8.987133848367577
      ],
      [
        "Gach",
        -8.989000397906098
      ],
      [
        "dtugta",
        -8.989384264478714
      ],
      [
        "Beal",
        -8.989741549160126
      ],
      [
        "j",
        -8.990291700573525
      ],
      [
        "forbairt",
        -8.990689088966842
      ],
      [
        "Aibreá",
        -8.993412151907215
      ],
      [
        "léi",
        -8.99373406258351
      ],
      [
        "riachtanais",
        -8.994901804110267
      ],
      [
        "meaisín",
        -8.997789970945991
      ],
      [
        "liosta",
        -8.998227717763026
      ],
      [
        "rinne",
        -8.999468832185578
      ],
      [
        "uaithe",
        -9.000194513327214
      ],
      [
        "leanbh",
        -9.0025752317747
      ],
      [
        "úsáide",
        -9.005433358556356
      ],
      [
        "Bainfi",
        -9.008006227807808
      ],
      [
        "porno",
        -9.008324711855973
      ],
      [
        "+",
        -9.008845658917473
      ],
      [
        "talamh",
        -9.008848281565621
      ],
      [
        "Q",
        -9.011590211513749
      ],
      [
        "hosm",
        -9.019759023253068
      ],
      [
        "príomh",
        -9.024932238351383
      ],
      [
        "mheas",
        -9.025654333500707
      ],
      [
        "tapa",
        -9.027366297627156
      ],
      [
        "íocaíocht",
        -9.029547858897295
      ],
      [
        "bunaidh",
        -9.030295474715949
      ],
      [
        "úil",
        -9.03158464112707
      ],
      [
        "tábhachtach",
        -9.032478893324393
      ],
      [
        "Údarás",
        -9.033613158348167
      ],
      [
        "co",
        -9.03447451202723
      ],
      [
        "aird",
        -9.03604855156807
      ],
      [
        "chomhlíona",
        -9.037464703808986
      ],
      [
        "rialú",
        -9.042060951267636
      ],
      [
        "dhiai",
        -9.042798700566822
      ],
      [
        "agtha",
        -9.046700426865968
      ],
      [
        "abhair",
        -9.047635345727356
      ],
      [
        "Coiste",
        -9.04800279462809
      ],
      [
        "léinn",
        -9.049815472722344
      ],
      [
        "tabhair",
        -9.05208284637526
      ],
      [
        "amhail",
        -9.052094019602166
      ],
      [
        "Oideacha",
        -9.053617642825959
      ],
      [
        "iméad",
        -9.054587031392474
      ],
      [
        "ur",
        -9.054722159273684
      ],
      [
        "Noll",
        -9.0592664461686
      ],
      [
        "margadh",
        -9.059330524922654
      ],
      [
        "gníomh",
        -9.06095635086066
      ],
      [
        ".”",
        -9.061768117352857
      ],
      [
        "domhan",
        -9.062112270816668
      ],
      [
        "fhaisnéis",
        -9.064860310003798
      ],
      [
        "siú",
        -9.066365674873602
      ],
      [
        "thíos",
        -9.067890615102703
      ],
      [
        "seirbhíse",
        -9.068369907253816
      ],
      [
        "Aon",
        -9.071199577674587
      ],
      [
        "bhonn",
        -9.071592391298356
      ],
      [
        "oibriú",
        -9.07286966604127
      ],
      [
        "comhlacht",
        -9.07421057198016
      ],
      [
        "nádúrtha",
        -9.074385821617017
      ],
      [
        "ríomh",
        -9.07518277371036
      ],
      [
        "00",
        -9.076686666429755
      ],
      [
        "Moncler",
        -9.077878379448425
      ],
      [
        "léiriú",
        -9.078443814031743
      ],
      [
        "acmhainn",
        -9.078789790001276
      ],
      [
        "realamh",
        -9.079447910376789
      ],
      [
        "mbliana",
        -9.080563771316612
      ],
      [
        "artha",
        -9.083690758390135
      ],
      [
        "Sonraí",
        -9.08514583341779
      ],
      [
        "fhios",
        -9.085696892310207
      ],
      [
        "monaróir",
        -9.086631428358995
      ],
      [
        "cead",
        -9.088104784714815
      ],
      [
        "min",
        -9.088395510355747
      ],
      [
        "dara",
        -9.090950237826231
      ],
      [
        "pe",
        -9.091826594151469
      ],
      [
        "eoladh",
        -9.09324139348191
      ],
      [
        "airde",
        -9.095314380069695
      ],
      [
        "aitheanta",
        -9.09620580787401
      ],
      [
        "riachtanach",
        -9.100951585235011
      ],
      [
        "2012",
        -9.100973205717736
      ],
      [
        "mlíne",
        -9.101864657643151
      ],
      [
        "sásta",
        -9.103033972916577
      ],
      [
        "Coimisinéir",
        -9.105199853245516
      ],
      [
        "scoile",
        -9.105222448816448
      ],
      [
        "Faoi",
        -9.10531140464985
      ],
      [
        "ábhartha",
        -9.108963146011156
      ],
      [
        "Casino",
        -9.109366158629975
      ],
      [
        "tioncha",
        -9.110542586014668
      ],
      [
        "each",
        -9.111832600951455
      ],
      [
        "tuarascá",
        -9.113974799853445
      ],
      [
        "cu",
        -9.114570635352045
      ],
      [
        "óga",
        -9.115792144552373
      ],
      [
        "freastal",
        -9.116803353940803
      ],
      [
        "íseal",
        -9.116870620603898
      ],
      [
        "Soláthraithe",
        -9.117980802182803
      ],
      [
        "che",
        -9.119728764066796
      ],
      [
        "aimseartha",
        -9.121287751253078
      ],
      [
        "sula",
        -9.122005018499962
      ],
      [
        "Gaeltachta",
        -9.123566439776766
      ],
      [
        "scríbhinn",
        -9.124098713373911
      ],
      [
        "urtha",
        -9.124330444550951
      ],
      [
        "soláthraí",
        -9.1254869694039
      ],
      [
        "ola",
        -9.132031797933843
      ],
      [
        "iompar",
        -9.132348012176852
      ],
      [
        "oinneáil",
        -9.132864626123105
      ],
      [
        "Chúirt",
        -9.132970705625675
      ],
      [
        "cumhachta",
        -9.134266099491526
      ],
      [
        "Máirt",
        -9.134444359222925
      ],
      [
        "ph",
        -9.136337272267266
      ],
      [
        "gurb",
        -9.137337567561307
      ],
      [
        "scoileanna",
        -9.14123951792218
      ],
      [
        "chomhalta",
        -9.141437467515257
      ],
      [
        "thora",
        -9.14320662719674
      ],
      [
        "comhrá",
        -9.14594712772766
      ],
      [
        "deis",
        -9.151086959627069
      ],
      [
        "iarracht",
        -9.152677346527256
      ],
      [
        "naisc",
        -9.152912235863056
      ],
      [
        "éigin",
        -9.154577181363216
      ],
      [
        "reatha",
        -9.154677649134939
      ],
      [
        "mbun",
        -9.155413824162737
      ],
      [
        "Eanái",
        -9.156666937932771
      ],
      [
        "teach",
        -9.156951626478154
      ],
      [
        "ionas",
        -9.158995175527988
      ],
      [
        "próiseas",
        -9.159800974847975
      ],
      [
        "oir",
        -9.16009892818811
      ],
      [
        "téarma",
        -9.162664091558764
      ],
      [
        "arís",
        -9.162776539477212
      ],
      [
        "2020",
        -9.163144108737162
      ],
      [
        "load",
        -9.167330129109384
      ],
      [
        "clips",
        -9.168703804331088
      ],
      [
        "bhfad",
        -9.170098594922347
      ],
      [
        "neart",
        -9.17604669722627
      ],
      [
        "taithí",
        -9.179009040713286
      ],
      [
        "dhíol",
        -9.179174437782109
      ],
      [
        "airgi",
        -9.179779614003177
      ],
      [
        "leasú",
        -9.179807445839696
      ],
      [
        "Ionca",
        -9.181162769102698
      ],
      [
        "Saor",
        -9.181481313885797
      ],
      [
        "Grúpa",
        -9.181982177213907
      ],
      [
        "ginearálta",
        -9.181982201736428
      ],
      [
        "Ean",
        -9.182677902619957
      ],
      [
        "bharr",
        -9.187624966138745
      ],
      [
        "ála",
        -9.188123142079814
      ],
      [
        "Déanfa",
        -9.189777829109682
      ],
      [
        "Eoraip",
        -9.189945132420856
      ],
      [
        "Sceideal",
        -9.191296299496345
      ],
      [
        "lorg",
        -9.194146051672696
      ],
      [
        "oideachais",
        -9.197126172963422
      ],
      [
        "aici",
        -9.200344481191603
      ],
      [
        "minic",
        -9.20241161220002
      ],
      [
        "É",
        -9.202480141063836
      ],
      [
        "soláthar",
        -9.203359338308374
      ],
      [
        "níl",
        -9.20424207720302
      ],
      [
        "réiteach",
        -9.206081678378315
      ],
      [
        "Comment",
        -9.20615270722067
      ],
      [
        "athair",
        -9.206535165662626
      ],
      [
        "trádála",
        -9.207147042034507
      ],
      [
        "Cluich",
        -9.208978357522597
      ],
      [
        "chaitheam",
        -9.20903564864302
      ],
      [
        "seomra",
        -9.210416008138077
      ],
      [
        "Faigh",
        -9.212343549328137
      ],
      [
        "íocaíochta",
        -9.212578353852239
      ],
      [
        "choimeád",
        -9.212948510402846
      ],
      [
        "AN",
        -9.213181345241338
      ],
      [
        "fás",
        -9.213537795803322
      ],
      [
        "cláraithe",
        -9.218181927129597
      ],
      [
        "ndearna",
        -9.224570050200429
      ],
      [
        "chinneadh",
        -9.225078584640224
      ],
      [
        "faisnéise",
        -9.226263403881703
      ],
      [
        "Contae",
        -9.226446772682223
      ],
      [
        "Bealtai",
        -9.232345298136224
      ],
      [
        "tháinig",
        -9.232647110926546
      ],
      [
        "Londa",
        -9.234924383521092
      ],
      [
        "Leasú",
        -9.235935553366172
      ],
      [
        "shuíomh",
        -9.236308273552801
      ],
      [
        "éard",
        -9.240863113879833
      ],
      [
        "2009",
        -9.243684768889942
      ],
      [
        "éil",
        -9.24460108903365
      ],
      [
        "Samh",
        -9.247180652896198
      ],
      [
        "40",
        -9.248289285971957
      ],
      [
        "cás",
        -9.250049446106042
      ],
      [
        "Rialtais",
        -9.253197678563229
      ],
      [
        "heiceáil",
        -9.253217867222917
      ],
      [
        "bhaile",
        -9.260244995183907
      ],
      [
        "cht",
        -9.26259621535025
      ],
      [
        "cuspóir",
        -9.26313272670511
      ],
      [
        "Aghaidh",
        -9.263186325977662
      ],
      [
        "gcrích",
        -9.263846495949927
      ],
      [
        "Nollaig",
        -9.266188708713067
      ],
      [
        "thraigh",
        -9.266300910050258
      ],
      [
        "ionann",
        -9.271818245190069
      ],
      [
        "2011",
        -9.274312003334614
      ],
      [
        "ton",
        -9.275852085665889
      ],
      [
        "togra",
        -9.277674017110634
      ],
      [
        "sampla",
        -9.278830035161707
      ],
      [
        "athbhreithniú",
        -9.279140355062081
      ],
      [
        "eacha",
        -9.280777347895768
      ],
      [
        "deimhniú",
        -9.281250185126549
      ],
      [
        "toisc",
        -9.282011664196725
      ],
      [
        "comhaont",
        -9.283978180593024
      ],
      [
        "úsáideoir",
        -9.284701458683092
      ],
      [
        "simplí",
        -9.28482129811244
      ],
      [
        "Maidi",
        -9.287820087719076
      ],
      [
        "líonadh",
        -9.287884878060712
      ],
      [
        "bheadh",
        -9.288872421349938
      ],
      [
        "tíre",
        -9.291330906613346
      ],
      [
        "gCoimisiún",
        -9.295910894803722
      ],
      [
        "cúig",
        -9.296845210263195
      ],
      [
        "tharla",
        -9.298943507453428
      ],
      [
        "fada",
        -9.300665025258525
      ],
      [
        "fanacht",
        -9.301227352667954
      ],
      [
        "hAcht",
        -9.302389904715174
      ],
      [
        "tuga",
        -9.303329497640068
      ],
      [
        "údará",
        -9.30336014880185
      ],
      [
        "II",
        -9.30732318973888
      ],
      [
        "Re",
        -9.307657934025586
      ],
      [
        "sraith",
        -9.308119195387981
      ],
      [
        "staid",
        -9.30890175388376
      ],
      [
        "grúpa",
        -9.309074038610925
      ],
      [
        "limisté",
        -9.309086208212925
      ],
      [
        "Dá",
        -9.311894390814109
      ],
      [
        "Nais",
        -9.313719327497981
      ],
      [
        "áirithi",
        -9.314019924323588
      ],
      [
        "*",
        -9.31466411101229
      ],
      [
        "suim",
        -9.315214037540231
      ],
      [
        "costais",
        -9.317069994782258
      ],
      [
        "ionca",
        -9.319374475275886
      ],
      [
        "Liosta",
        -9.319658424121059
      ],
      [
        "álainn",
        -9.32085440990285
      ],
      [
        "fhéid",
        -9.321346216966562
      ],
      [
        "Scoil",
        -9.32193401690352
      ],
      [
        "scannáin",
        -9.32224371350232
      ],
      [
        "ríomhaire",
        -9.322922489940858
      ],
      [
        "tóir",
        -9.323694818347455
      ],
      [
        "Scéim",
        -9.324095049939361
      ],
      [
        "shonraí",
        -9.325952142661627
      ],
      [
        "iúil",
        -9.326364303072289
      ],
      [
        "thart",
        -9.327269132110374
      ],
      [
        "gcomparáid",
        -9.330277718154367
      ],
      [
        "cúna",
        -9.332011063920788
      ],
      [
        "críche",
        -9.333792128457556
      ],
      [
        "luath",
        -9.33398819855441
      ],
      [
        "saothair",
        -9.334046396875312
      ],
      [
        "anailís",
        -9.334104938270077
      ],
      [
        "malairte",
        -9.337880819527978
      ],
      [
        "sóisialta",
        -9.340659464760893
      ],
      [
        "thug",
        -9.342448966127838
      ],
      [
        "fáilte",
        -9.342778031320812
      ],
      [
        "tionsca",
        -9.342909479027696
      ],
      [
        "mná",
        -9.34435496393871
      ],
      [
        "earnáil",
        -9.345343480491284
      ],
      [
        "chumhacht",
        -9.34854061456046
      ],
      [
        "stíl",
        -9.348710086682676
      ],
      [
        "ers",
        -9.3496055434997
      ],
      [
        "tacú",
        -9.351875475589484
      ],
      [
        "sábháilteacht",
        -9.351938189502164
      ],
      [
        "dhearna",
        -9.353377616180651
      ],
      [
        "dath",
        -9.35501974538424
      ],
      [
        "leagt",
        -9.356291921217132
      ],
      [
        "luaite",
        -9.3563985901459
      ],
      [
        "Meith",
        -9.357148663093724
      ],
      [
        "snáithe",
        -9.357399725002903
      ],
      [
        "ról",
        -9.35748597412918
      ],
      [
        "Bhaile",
        -9.358717171790197
      ],
      [
        "féadfa",
        -9.358829868521113
      ],
      [
        "Idir",
        -9.359331980603878
      ],
      [
        "ndáiríre",
        -9.360282639306158
      ],
      [
        "slí",
        -9.360702656835826
      ],
      [
        "ex",
        -9.36395405260605
      ],
      [
        "Bh",
        -9.367246040516134
      ],
      [
        "Mór",
        -9.369787973872588
      ],
      [
        "etc",
        -9.37366291703778
      ],
      [
        "cheangal",
        -9.373733391099371
      ],
      [
        "ghlac",
        -9.374241161150167
      ],
      [
        "phobal",
        -9.376043228640377
      ],
      [
        "ceadúna",
        -9.37653037066414
      ],
      [
        "léamh",
        -9.379130526167577
      ],
      [
        "thosa",
        -9.380039971750787
      ],
      [
        "bhunú",
        -9.381659269940947
      ],
      [
        "pé",
        -9.38264743586561
      ],
      [
        "oibreoir",
        -9.38384411979889
      ],
      [
        "thoil",
        -9.38481124481498
      ],
      [
        "forbartha",
        -9.385462289362742
      ],
      [
        "dtaca",
        -9.386437836803013
      ],
      [
        "fola",
        -9.387866380680972
      ],
      [
        "aidhm",
        -9.38854006549668
      ],
      [
        "tank",
        -9.389208149325052
      ],
      [
        "uathoibríoch",
        -9.389876189077235
      ],
      [
        "áitiúla",
        -9.389990451129236
      ],
      [
        "Ealaíon",
        -9.392520993353244
      ],
      [
        "scileanna",
        -9.393168832632945
      ],
      [
        "fheidhmiú",
        -9.393570960162737
      ],
      [
        "múinteoir",
        -9.397353713047854
      ],
      [
        "365",
        -9.39851909747452
      ],
      [
        "ham",
        -9.398563249205697
      ],
      [
        "uimhir",
        -9.399689087130666
      ],
      [
        "freagrach",
        -9.399951349567154
      ],
      [
        "eisteanna",
        -9.400834354249286
      ],
      [
        "leabhar",
        -9.40271730737284
      ],
      [
        "mhéadú",
        -9.402719983061292
      ],
      [
        "Físeá",
        -9.402989529878326
      ],
      [
        "díol",
        -9.403165359203644
      ],
      [
        "institiúid",
        -9.40322596526586
      ],
      [
        "eithre",
        -9.404255114106725
      ],
      [
        "ill",
        -9.406242253006674
      ],
      [
        "cosanta",
        -9.407973586703477
      ],
      [
        "cuairt",
        -9.40854516641333
      ],
      [
        "chugai",
        -9.409796076091382
      ],
      [
        "phost",
        -9.41032938091303
      ],
      [
        "ke",
        -9.410863736865423
      ],
      [
        "chumas",
        -9.412052171823195
      ],
      [
        "réidh",
        -9.413275993918162
      ],
      [
        "•",
        -9.414588673404188
      ],
      [
        "ocht",
        -9.414771726273024
      ],
      [
        "2010",
        -9.416469264699664
      ],
      [
        "Déanta",
        -9.41744336199211
      ],
      [
        "cosaint",
        -9.418350604784036
      ],
      [
        "nós",
        -9.419836679495297
      ],
      [
        "thugann",
        -9.421046403106601
      ],
      [
        "dháta",
        -9.421913117141631
      ],
      [
        "fáth",
        -9.424695663831086
      ],
      [
        "leanúnach",
        -9.42624848331392
      ],
      [
        "Ríocht",
        -9.428911629967224
      ],
      [
        "post",
        -9.430187344934048
      ],
      [
        "ráitea",
        -9.430356204912318
      ],
      [
        "déanfaid",
        -9.431460666218499
      ],
      [
        "cion",
        -9.431609780060235
      ],
      [
        "crua",
        -9.432090247609692
      ],
      [
        "chúis",
        -9.432738809165475
      ],
      [
        "fén",
        -9.436146183281728
      ],
      [
        "treoir",
        -9.439937563934826
      ],
      [
        "NA",
        -9.440152000586306
      ],
      [
        "Ireland",
        -9.441640299317001
      ],
      [
        "doiciméad",
        -9.444227076508549
      ],
      [
        "Éire",
        -9.446849396168306
      ],
      [
        "beala",
        -9.44777840759884
      ],
      [
        "dhéanfaid",
        -9.448052529794627
      ],
      [
        "iompai",
        -9.448128746743526
      ],
      [
        "Bain",
        -9.448190367424065
      ],
      [
        "éifeachtach",
        -9.449454516501259
      ],
      [
        "spraoi",
        -9.455445669537061
      ],
      [
        "phoiblí",
        -9.456124491382257
      ],
      [
        "réamh",
        -9.457059824681917
      ],
      [
        "60",
        -9.457585671541972
      ],
      [
        "sonraithe",
        -9.45775877967649
      ],
      [
        "chuirea",
        -9.45950054058623
      ],
      [
        "bhearta",
        -9.460047460361043
      ],
      [
        "cóip",
        -9.460290898877838
      ],
      [
        "aire",
        -9.460562445384465
      ],
      [
        "Chuid",
        -9.460661899701963
      ],
      [
        "Aib",
        -9.461871221041768
      ],
      [
        "oghanna",
        -9.462475426729688
      ],
      [
        "mobi",
        -9.463609937966257
      ],
      [
        "agam",
        -9.466313335259017
      ],
      [
        "sean",
        -9.466892814522215
      ],
      [
        "blianta",
        -9.46721915151037
      ],
      [
        "dochar",
        -9.467434145279212
      ],
      [
        "tástála",
        -9.469070150796952
      ],
      [
        "óirí",
        -9.471199834579842
      ],
      [
        "osaigh",
        -9.47160939598615
      ],
      [
        "molta",
        -9.471791666547382
      ],
      [
        "video",
        -9.474629226051519
      ],
      [
        "Líne",
        -9.474761278829611
      ],
      [
        "Taispeáin",
        -9.476517299313212
      ],
      [
        "ainneoin",
        -9.476525927223644
      ],
      [
        "fach",
        -9.479083053958783
      ],
      [
        "soiléir",
        -9.479550720928486
      ],
      [
        "dáileoir",
        -9.480385113320828
      ],
      [
        "ite",
        -9.48091135368961
      ],
      [
        "láidir",
        -9.481408684650603
      ],
      [
        "dóigh",
        -9.483012197531096
      ],
      [
        "fianaise",
        -9.48333998174108
      ],
      [
        "Gh",
        -9.484799469133524
      ],
      [
        "leath",
        -9.485813267007702
      ],
      [
        "bogearra",
        -9.4859645922606
      ],
      [
        "ochair",
        -9.48716603403868
      ],
      [
        "fuair",
        -9.48718827421635
      ],
      [
        "méadú",
        -9.487454831783936
      ],
      [
        "húsáid",
        -9.488879335192708
      ],
      [
        "caillteana",
        -9.489481199477968
      ],
      [
        "all",
        -9.490576257716125
      ],
      [
        "spreaga",
        -9.491361265946605
      ],
      [
        "onaid",
        -9.492268331237025
      ],
      [
        "Lún",
        -9.493993009245052
      ],
      [
        "Choimisiún",
        -9.49442287570345
      ],
      [
        "Díle",
        -9.495073480181649
      ],
      [
        "scrúdú",
        -9.495336169159568
      ],
      [
        "éadaí",
        -9.49587403957582
      ],
      [
        "uirlis",
        -9.497558264384297
      ],
      [
        "ruinniú",
        -9.49791935659998
      ],
      [
        "Roimh",
        -9.498256085560943
      ],
      [
        "cuir",
        -9.500278010096803
      ],
      [
        "riamh",
        -9.500335856722801
      ],
      [
        "ord",
        -9.500882593061991
      ],
      [
        "eoidh",
        -9.501031817547595
      ],
      [
        "Mh",
        -9.50117417818559
      ],
      [
        "gnáth",
        -9.503196456410548
      ],
      [
        "£",
        -9.503497345594933
      ],
      [
        "fhéadfa",
        -9.503730887081957
      ],
      [
        "®",
        -9.50532216311318
      ],
      [
        "scaireann",
        -9.505393366390898
      ],
      [
        "dír",
        -9.506023902048678
      ],
      [
        "mid",
        -9.511743318064696
      ],
      [
        "fhágáil",
        -9.512885369332219
      ],
      [
        "páist",
        -9.513088000670086
      ],
      [
        "eacnamaíoch",
        -9.513546645996076
      ],
      [
        "Phríomh",
        -9.513693926427443
      ],
      [
        "ul",
        -9.514627615408166
      ],
      [
        "dteagmhá",
        -9.51512176783081
      ],
      [
        "Lá",
        -9.51515285143495
      ],
      [
        "mac",
        -9.516268686461881
      ],
      [
        "Cathrach",
        -9.51644930875141
      ],
      [
        "Seol",
        -9.517192671486477
      ],
      [
        "mb",
        -9.517517713837332
      ],
      [
        "siopa",
        -9.518233665718924
      ],
      [
        "comhair",
        -9.520204756726919
      ],
      [
        "Tar",
        -9.520659335171285
      ],
      [
        "per",
        -9.522125333781258
      ],
      [
        "lasmu",
        -9.522610740905439
      ],
      [
        "mbíonn",
        -9.525506015524822
      ],
      [
        "téacs",
        -9.52756921313214
      ],
      [
        "toiliú",
        -9.5302362139847
      ],
      [
        "chluich",
        -9.530705187799605
      ],
      [
        "fuinnimh",
        -9.531796756855965
      ],
      [
        "2008",
        -9.531962445386561
      ],
      [
        "ter",
        -9.532681921883988
      ],
      [
        "tuismitheoir",
        -9.5331017195843
      ],
      [
        "ullmhú",
        -9.533867497772984
      ],
      [
        "eagraíochta",
        -9.535367515935018
      ],
      [
        "céim",
        -9.535904086186834
      ],
      [
        "gcomhair",
        -9.535911785758607
      ],
      [
        "fhoireann",
        -9.537205387405631
      ],
      [
        "thógá",
        -9.537922636649494
      ],
      [
        "oideachas",
        -9.538235412376544
      ],
      [
        "Ná",
        -9.540455919129975
      ],
      [
        "measfa",
        -9.541052932779593
      ],
      [
        "barr",
        -9.541212332164292
      ],
      [
        "mBallstá",
        -9.542527012371645
      ],
      [
        "Ina",
        -9.543480549814086
      ],
      [
        "cionn",
        -9.543642326515883
      ],
      [
        "meáchan",
        -9.54443395211727
      ],
      [
        "fhógra",
        -9.54517444638648
      ],
      [
        "Ciste",
        -9.545386771971451
      ],
      [
        "bhrái",
        -9.546380714838683
      ],
      [
        "35",
        -9.54814877041094
      ],
      [
        "Fáilte",
        -9.548935541779967
      ],
      [
        "cearta",
        -9.549009367429463
      ],
      [
        "Poiblí",
        -9.550147583290613
      ],
      [
        "foirne",
        -9.550158861436856
      ],
      [
        "cumas",
        -9.55320842626009
      ],
      [
        "cód",
        -9.553620953584467
      ],
      [
        "seach",
        -9.554029355855501
      ],
      [
        "Electronics",
        -9.554418037656639
      ],
      [
        "uirthi",
        -9.555944805426769
      ],
      [
        "iarrthóir",
        -9.556028914981631
      ],
      [
        "ceallra",
        -9.556536493167588
      ],
      [
        "onn",
        -9.55726546449928
      ],
      [
        "reachtaíocht",
        -9.557939111612939
      ],
      [
        "Clár",
        -9.558544696726909
      ],
      [
        "cúram",
        -9.558922701134815
      ],
      [
        "Féadf",
        -9.55942036298719
      ],
      [
        "comhairle",
        -9.559883455929636
      ],
      [
        "scéal",
        -9.560328236677744
      ],
      [
        "réimsí",
        -9.561969887528889
      ],
      [
        "milliú",
        -9.563703972341294
      ],
      [
        "ndéanta",
        -9.564144113407654
      ],
      [
        "eanta",
        -9.565876398863335
      ],
      [
        "páirteach",
        -9.566285770602954
      ],
      [
        "mBan",
        -9.56903096009944
      ],
      [
        "tionscadal",
        -9.569442299354112
      ],
      [
        "cathrach",
        -9.56953189690607
      ],
      [
        "rialta",
        -9.572213394195476
      ],
      [
        "chuirte",
        -9.572979138783104
      ],
      [
        "Ph",
        -9.574384072975722
      ],
      [
        "Rialtas",
        -9.577266375638708
      ],
      [
        "chu",
        -9.578116267014098
      ],
      [
        "costas",
        -9.578440457528004
      ],
      [
        "):",
        -9.578960923918356
      ],
      [
        "glan",
        -9.579260017206499
      ],
      [
        "ghrúpa",
        -9.580912441089996
      ],
      [
        "cúis",
        -9.581101525653477
      ],
      [
        "ligean",
        -9.581717380899942
      ],
      [
        "faire",
        -9.581802840553486
      ],
      [
        "Áitiúil",
        -9.58246991774477
      ],
      [
        "Mo",
        -9.58293812924338
      ],
      [
        "orbartha",
        -9.582948774501887
      ],
      [
        "Trádála",
        -9.583226953151554
      ],
      [
        "oíche",
        -9.583269561956742
      ],
      [
        "tháirgea",
        -9.583447092892818
      ],
      [
        "feabhas",
        -9.585136579275204
      ],
      [
        "úirt",
        -9.588813638118225
      ],
      [
        "chéim",
        -9.589000084045487
      ],
      [
        "coitianta",
        -9.5906624340596
      ],
      [
        "Leanaí",
        -9.592971821509064
      ],
      [
        "Sóisialta",
        -9.593080992042282
      ],
      [
        "saoire",
        -9.593110988165815
      ],
      [
        "thaga",
        -9.59432575931513
      ],
      [
        "cruinn",
        -9.594909466903989
      ],
      [
        "cuma",
        -9.595655235009382
      ],
      [
        "chion",
        -9.595673633815583
      ],
      [
        "bosca",
        -9.596169157867834
      ],
      [
        "fir",
        -9.597328341612954
      ],
      [
        "News",
        -9.597551844586793
      ],
      [
        "bán",
        -9.598180714766627
      ],
      [
        "iniúchadh",
        -9.598402480021374
      ],
      [
        "Lúnasa",
        -9.599172554609204
      ],
      [
        "plean",
        -9.599749039831254
      ],
      [
        "uas",
        -9.600257934076046
      ],
      [
        "Úsáid",
        -9.600511347222053
      ],
      [
        "oirí",
        -9.604320847309648
      ],
      [
        "Táirgí",
        -9.605117917567634
      ],
      [
        "gcuideachta",
        -9.60638662840445
      ],
      [
        "raon",
        -9.606929494058507
      ],
      [
        "téarmaí",
        -9.60703092819652
      ],
      [
        "ation",
        -9.607524992622597
      ],
      [
        "fhoirm",
        -9.60870972743492
      ],
      [
        "achomharc",
        -9.609025094156905
      ],
      [
        "chéanna",
        -9.609563129379879
      ],
      [
        ".—",
        -9.610617167607046
      ],
      [
        "phobai",
        -9.611029936304604
      ],
      [
        "cárta",
        -9.61122108135331
      ],
      [
        "seachtaine",
        -9.616938990152558
      ],
      [
        "shóisial",
        -9.61730020702722
      ],
      [
        "imreoir",
        -9.617654920041097
      ],
      [
        "díobh",
        -9.618532919268723
      ],
      [
        "feidhmeanna",
        -9.618602168632723
      ],
      [
        "Freagra",
        -9.618657746166717
      ],
      [
        "éirí",
        -9.619170872040215
      ],
      [
        "lár",
        -9.621612894804567
      ],
      [
        "ionscadail",
        -9.623103396018982
      ],
      [
        "frith",
        -9.625445306115758
      ],
      [
        "fostaíochta",
        -9.62578835241052
      ],
      [
        "rún",
        -9.626370062612022
      ],
      [
        "red",
        -9.626945566611077
      ],
      [
        "sábháilte",
        -9.627187928038921
      ],
      [
        "ghnó",
        -9.627294482266514
      ],
      [
        "net",
        -9.627818999243368
      ],
      [
        "fág",
        -9.62991774638816
      ],
      [
        "45",
        -9.631430195878927
      ],
      [
        "eachta",
        -9.631982167771643
      ],
      [
        "Mura",
        -9.6331454957938
      ],
      [
        "ghabh",
        -9.633963528170254
      ],
      [
        "teangacha",
        -9.63555466487863
      ],
      [
        "iarratasóir",
        -9.636339122139177
      ],
      [
        "feidhmiú",
        -9.636539961470724
      ],
      [
        "gclár",
        -9.637049809482658
      ],
      [
        "suite",
        -9.63736747734324
      ],
      [
        "gcomhairle",
        -9.637933843344186
      ],
      [
        "ire",
        -9.639094394460061
      ],
      [
        "Dún",
        -9.639445048643676
      ],
      [
        "cuirfe",
        -9.639624808287031
      ],
      [
        "Trí",
        -9.63972096880104
      ],
      [
        "Ionad",
        -9.640479908234227
      ],
      [
        "foirm",
        -9.64050671018364
      ],
      [
        "kash",
        -9.640734109443143
      ],
      [
        "Samhai",
        -9.64235949788224
      ],
      [
        "fostaithe",
        -9.642791042122536
      ],
      [
        "ies",
        -9.643251202280371
      ],
      [
        "Bhor",
        -9.6439601796718
      ],
      [
        "soláthraithe",
        -9.644216857204807
      ],
      [
        "fhoghlaim",
        -9.644436711440825
      ],
      [
        "talún",
        -9.644473401253318
      ],
      [
        "irt",
        -9.644573888986164
      ],
      [
        "thaispeáint",
        -9.644592244990726
      ],
      [
        "oscailt",
        -9.645094173519752
      ],
      [
        "eagraíocht",
        -9.645728130541364
      ],
      [
        "áitreabh",
        -9.646291688420177
      ],
      [
        "Eachtrach",
        -9.646427509228182
      ],
      [
        "SMS",
        -9.646508786407836
      ],
      [
        "struchtúr",
        -9.647254315517092
      ],
      [
        "bhfoirm",
        -9.648602920174955
      ],
      [
        "pl",
        -9.649161816570867
      ],
      [
        "leictreacha",
        -9.649562891604644
      ],
      [
        "oiliúint",
        -9.649750384188486
      ],
      [
        "199",
        -9.650438647649507
      ],
      [
        "gruaige",
        -9.651801712095383
      ],
      [
        "Tuarascá",
        -9.654158825278792
      ],
      [
        "deirid",
        -9.6549427557961
      ],
      [
        "Sh",
        -9.656594100810516
      ],
      [
        "cuirfid",
        -9.656605191006049
      ],
      [
        "suntasach",
        -9.65688862821522
      ],
      [
        "Uachtarán",
        -9.65718015913421
      ],
      [
        "Comh",
        -9.657306899748887
      ],
      [
        "Baineann",
        -9.657461773956236
      ],
      [
        "500",
        -9.659397037718348
      ],
      [
        "Plean",
        -9.659733433604728
      ],
      [
        "dtabharfa",
        -9.660218568020941
      ],
      [
        "straitéis",
        -9.661038592743566
      ],
      [
        "Rogh",
        -9.661444929772244
      ],
      [
        "cláir",
        -9.66149344943257
      ],
      [
        "oscailte",
        -9.662372987867268
      ],
      [
        "cineálach",
        -9.662706697753768
      ],
      [
        "brú",
        -9.663419787979707
      ],
      [
        "Tag",
        -9.66367337692585
      ],
      [
        "smaoinea",
        -9.665829361126551
      ],
      [
        "sheirbhís",
        -9.668161406427707
      ],
      [
        "cheant",
        -9.668369204844181
      ],
      [
        "saincheaptha",
        -9.669500466356059
      ],
      [
        "cáin",
        -9.670136059312238
      ],
      [
        "damáiste",
        -9.672057241311649
      ],
      [
        "rialaithe",
        -9.67257747269787
      ],
      [
        "faide",
        -9.673353806056834
      ],
      [
        "01",
        -9.673613008140787
      ],
      [
        "breis",
        -9.674133399074282
      ],
      [
        "chomhaont",
        -9.674884159824458
      ],
      [
        "lainne",
        -9.675273262100475
      ],
      [
        "grianghra",
        -9.675786572120165
      ],
      [
        "brath",
        -9.676478977781782
      ],
      [
        "Ollscoil",
        -9.676805205055476
      ],
      [
        "2007",
        -9.677058607475319
      ],
      [
        "cheapad",
        -9.67718734183725
      ],
      [
        "seilbh",
        -9.678375289144501
      ],
      [
        "oiliúna",
        -9.678803212341213
      ],
      [
        "Dlí",
        -9.678860622548985
      ],
      [
        "theannta",
        -9.679125340801916
      ],
      [
        "cairde",
        -9.679690936106246
      ],
      [
        "abairt",
        -9.68058392675977
      ],
      [
        "bheas",
        -9.680949356425195
      ],
      [
        "mic",
        -9.68146489147567
      ],
      [
        "shocrú",
        -9.686216263940496
      ],
      [
        "ko",
        -9.6865454711681
      ],
      [
        "éisteacht",
        -9.686962862267837
      ],
      [
        "gu",
        -9.687168904326668
      ],
      [
        "bíonn",
        -9.687192218390194
      ],
      [
        "gnéith",
        -9.687404632552102
      ],
      [
        "dom",
        -9.687499818145243
      ],
      [
        "tacaíochta",
        -9.68902553841519
      ],
      [
        "thuas",
        -9.689148019165199
      ],
      [
        "pobail",
        -9.68931776907818
      ],
      [
        "Uimhir",
        -9.689844992401152
      ],
      [
        "dubh",
        -9.690008838099953
      ],
      [
        "dár",
        -9.690255035037621
      ],
      [
        "ment",
        -9.69087759418322
      ],
      [
        "rdaoin",
        -9.691657092764874
      ],
      [
        "Gnéas",
        -9.69393367123093
      ],
      [
        "iv",
        -9.693966659612816
      ],
      [
        "Leis",
        -9.694506373575706
      ],
      [
        "Ú",
        -9.697288885964117
      ],
      [
        "teastá",
        -9.697860947754872
      ],
      [
        "fheidhm",
        -9.698037938244353
      ],
      [
        "slándá",
        -9.698232062166474
      ],
      [
        "teocht",
        -9.699848239294976
      ],
      [
        "Í",
        -9.70110083596602
      ],
      [
        "chaoi",
        -9.701306859533771
      ],
      [
        "ndéana",
        -9.701493005913388
      ],
      [
        "Parlaimint",
        -9.702859586928067
      ],
      [
        "oibr",
        -9.705428591198423
      ],
      [
        "gníomhú",
        -9.70565811154653
      ],
      [
        "Níor",
        -9.707458887671779
      ],
      [
        "Cúirte",
        -9.707644743413752
      ],
      [
        "Óga",
        -9.708156859095421
      ],
      [
        "phríomh",
        -9.708894338311152
      ],
      [
        "oiread",
        -9.709209537432404
      ],
      [
        "úinéir",
        -9.710164044436873
      ],
      [
        "beo",
        -9.710552788439315
      ],
      [
        "meán",
        -9.71281038487658
      ],
      [
        "CO",
        -9.712928441847527
      ],
      [
        "branda",
        -9.71308539840659
      ],
      [
        "ry",
        -9.713135952087667
      ],
      [
        "abháil",
        -9.713500237998224
      ],
      [
        "op",
        -9.716527662087525
      ],
      [
        "eaptha",
        -9.717166966249877
      ],
      [
        "eicniúil",
        -9.717827400095965
      ],
      [
        "80",
        -9.718186455689196
      ],
      [
        "Bhallstá",
        -9.718319444214629
      ],
      [
        "chóras",
        -9.72005693993783
      ],
      [
        "tor",
        -9.720775697812437
      ],
      [
        "aighdeáin",
        -9.723387765291058
      ],
      [
        "ball",
        -9.723394755535448
      ],
      [
        "bhailiú",
        -9.724193238724602
      ],
      [
        "dtús",
        -9.72428931194064
      ],
      [
        "nochta",
        -9.725074069163288
      ],
      [
        "Léir",
        -9.725688457499041
      ],
      [
        "nósann",
        -9.726932316197757
      ],
      [
        "lann",
        -9.727215503505784
      ],
      [
        "mba",
        -9.72878799277594
      ],
      [
        "orainn",
        -9.730005128407127
      ],
      [
        "roghna",
        -9.730104308638742
      ],
      [
        "teicneolaíocht",
        -9.730879016070835
      ],
      [
        "traidisiún",
        -9.731896173223566
      ],
      [
        "inmheánach",
        -9.732146494133806
      ],
      [
        "Seinn",
        -9.732173951774389
      ],
      [
        "líonra",
        -9.732190260919854
      ],
      [
        "iseanna",
        -9.732276974036235
      ],
      [
        "aistrithe",
        -9.733346334881805
      ],
      [
        "fhiosrúchá",
        -9.734790213211435
      ],
      [
        "rang",
        -9.735432368070477
      ],
      [
        "Déanfai",
        -9.7359067720712
      ],
      [
        "rádáil",
        -9.736073762188115
      ],
      [
        "scrío",
        -9.736147567346663
      ],
      [
        "Vicipéid",
        -9.736488598520491
      ],
      [
        "Cruach",
        -9.736576154193198
      ],
      [
        "chosc",
        -9.736990723818211
      ],
      [
        "iontu",
        -9.738450557829324
      ],
      [
        "chatagóir",
        -9.738794017236081
      ],
      [
        "cúrsaí",
        -9.739014035789205
      ],
      [
        "Táimid",
        -9.740748645374257
      ],
      [
        "doiciméid",
        -9.740800623859403
      ],
      [
        "able",
        -9.741763959304183
      ],
      [
        "196",
        -9.7422113638877
      ],
      [
        "mórdhíol",
        -9.742384897361687
      ],
      [
        "altaí",
        -9.742529373771134
      ],
      [
        "tuiscint",
        -9.743417030107729
      ],
      [
        "dheon",
        -9.744057874545181
      ],
      [
        "míre",
        -9.744337351701871
      ],
      [
        "36",
        -9.744832671940731
      ],
      [
        "eimhin",
        -9.745027234080057
      ],
      [
        "scéalta",
        -9.747368486896931
      ],
      [
        "chláir",
        -9.747658380265847
      ],
      [
        "liúnta",
        -9.747805148983838
      ],
      [
        "con",
        -9.749563600584747
      ],
      [
        "tic",
        -9.751382501894915
      ],
      [
        "ainmnithe",
        -9.752646158639248
      ],
      [
        "irí",
        -9.752971795341047
      ],
      [
        "gceart",
        -9.757385064242692
      ],
      [
        "comhlachta",
        -9.757525429871801
      ],
      [
        "leictreonach",
        -9.757530396075108
      ],
      [
        "thanta",
        -9.75787610179945
      ],
      [
        "leighis",
        -9.758494056818812
      ],
      [
        "Choiste",
        -9.759889394760016
      ],
      [
        "Dubh",
        -9.760262505146953
      ],
      [
        "bunúsach",
        -9.760461965888938
      ],
      [
        "réasúnach",
        -9.760564113590535
      ],
      [
        "mion",
        -9.761124875191225
      ],
      [
        "Cánach",
        -9.762338431535621
      ],
      [
        "maoiniú",
        -9.763612952266392
      ],
      [
        "ogadh",
        -9.763870168201402
      ],
      [
        "eacht",
        -9.764211589052337
      ],
      [
        "Príomh",
        -9.764392085524896
      ],
      [
        "tuairim",
        -9.767443077048593
      ],
      [
        "ity",
        -9.767912300030918
      ],
      [
        "gheobhaid",
        -9.769242630470721
      ],
      [
        "achta",
        -9.769400609816909
      ],
      [
        "mhargadh",
        -9.770019698573059
      ],
      [
        "ty",
        -9.770639069121078
      ],
      [
        "ainmhithe",
        -9.771123931154346
      ],
      [
        "Chonra",
        -9.771733178293587
      ],
      [
        "sár",
        -9.773872478851953
      ],
      [
        "sain",
        -9.774171804415843
      ],
      [
        "ionstraim",
        -9.774277572548202
      ],
      [
        "Cliceáil",
        -9.7752153590679
      ],
      [
        "ceanglai",
        -9.775653046661155
      ],
      [
        "leabhair",
        -9.775846076121827
      ],
      [
        "bhua",
        -9.7761592764151
      ],
      [
        "eisiúint",
        -9.776385814436894
      ],
      [
        "dromchla",
        -9.776399983463882
      ],
      [
        "chomhair",
        -9.77644494049477
      ],
      [
        "measúnú",
        -9.777370112575678
      ],
      [
        "choiste",
        -9.778245632204616
      ],
      [
        "hub",
        -9.77849680964338
      ],
      [
        "tairiscint",
        -9.778798065399371
      ],
      [
        "Sean",
        -9.778834156841452
      ],
      [
        "Bille",
        -9.779636384169176
      ],
      [
        "clárú",
        -9.779636429489837
      ],
      [
        "Tit",
        -9.779736849099816
      ],
      [
        "cleachta",
        -9.780108577517732
      ],
      [
        "ghearra",
        -9.780798897621311
      ],
      [
        "teaghla",
        -9.781199872118627
      ],
      [
        "tugtha",
        -9.781202080361268
      ],
      [
        "ice",
        -9.782395499753736
      ],
      [
        "Factor",
        -9.783635046839885
      ],
      [
        "shlí",
        -9.783716757058148
      ],
      [
        "dearg",
        -9.7837655224385
      ],
      [
        "taifead",
        -9.784123627677044
      ],
      [
        "mer",
        -9.78486687980444
      ],
      [
        "stáit",
        -9.785110900983229
      ],
      [
        "gné",
        -9.78551810852829
      ],
      [
        "mheán",
        -9.786155350718786
      ],
      [
        "ceamara",
        -9.788464503013593
      ],
      [
        "iasacht",
        -9.789811665175842
      ],
      [
        "u8",
        -9.790301675799377
      ],
      [
        "infheistíochta",
        -9.790836394901785
      ],
      [
        "feiceáil",
        -9.791215313374126
      ],
      [
        "ve",
        -9.791484927333407
      ],
      [
        "leibhé",
        -9.792531978157058
      ],
      [
        "bpraghas",
        -9.793339291039196
      ],
      [
        "cúpla",
        -9.795750265901763
      ],
      [
        "críoch",
        -9.79656802659951
      ],
      [
        "stair",
        -9.797245153742418
      ],
      [
        "Astráil",
        -9.79819278242865
      ],
      [
        "seasamh",
        -9.79819587198849
      ],
      [
        "Cuid",
        -9.800046386323249
      ],
      [
        "stiúir",
        -9.800666636404607
      ],
      [
        "iotail",
        -9.800704115984011
      ],
      [
        "Dara",
        -9.800705002543216
      ],
      [
        "tseirbhís",
        -9.80116576633015
      ],
      [
        "caite",
        -9.801923807982423
      ],
      [
        "Céadaoin",
        -9.803155128441823
      ],
      [
        "Scileann",
        -9.80324406581465
      ],
      [
        "Cás",
        -9.803553968264564
      ],
      [
        "tharraingt",
        -9.804544661224774
      ],
      [
        "thairiscint",
        -9.805563716301442
      ],
      [
        "grá",
        -9.805604526165823
      ],
      [
        "200",
        -9.80594478213191
      ],
      [
        "gcur",
        -9.807272588277177
      ],
      [
        "ócáid",
        -9.807696949880665
      ],
      [
        "by",
        -9.812200054359597
      ],
      [
        "siar",
        -9.812644886811839
      ],
      [
        "staidéar",
        -9.813122753273577
      ],
      [
        "mhaithe",
        -9.813175357392145
      ],
      [
        "Déagóir",
        -9.813352771346523
      ],
      [
        "udaí",
        -9.814137728925306
      ],
      [
        "76",
        -9.815654972648744
      ],
      [
        "Táirge",
        -9.815839268146403
      ],
      [
        "liceáil",
        -9.817026474294307
      ],
      [
        "pro",
        -9.817697206027091
      ],
      [
        "core",
        -9.8185464371956
      ],
      [
        "solas",
        -9.818906880838323
      ],
      [
        "todhchaí",
        -9.820471549085113
      ],
      [
        "cumhacht",
        -9.82068850273152
      ],
      [
        "Chiste",
        -9.820701181923535
      ],
      [
        "bhain",
        -9.821830578225676
      ],
      [
        "thréimhse",
        -9.82220732024817
      ],
      [
        "amuigh",
        -9.822328951244263
      ],
      [
        "Súil",
        -9.823024298951918
      ],
      [
        "bainistíocht",
        -9.823029397312636
      ],
      [
        "dirnáisiúnta",
        -9.823275774064829
      ],
      [
        "infheidhme",
        -9.82350291065044
      ],
      [
        "luas",
        -9.824436585885326
      ],
      [
        "tuairisc",
        -9.824683101864878
      ],
      [
        "leasa",
        -9.824684078456396
      ],
      [
        "óige",
        -9.824740596382028
      ],
      [
        "ghairm",
        -9.824786899670226
      ],
      [
        "est",
        -9.825785327341436
      ],
      [
        "2006",
        -9.827034118958164
      ],
      [
        "bua",
        -9.827352845440387
      ],
      [
        "ardchaighdeán",
        -9.827391912637665
      ],
      [
        "ollmhór",
        -9.82816328135531
      ],
      [
        "ja",
        -9.829207857303372
      ],
      [
        "gléas",
        -9.830509760987216
      ],
      [
        "Stiúrthóir",
        -9.830824538514628
      ],
      [
        "90",
        -9.831675508510106
      ],
      [
        "córa",
        -9.832437828753548
      ],
      [
        "Theas",
        -9.832473879478895
      ],
      [
        "prionsaba",
        -9.832969861250657
      ],
      [
        "áillí",
        -9.833110581441508
      ],
      [
        "dearmad",
        -9.838156789191089
      ],
      [
        "Institiúid",
        -9.839862345011863
      ],
      [
        "chustaiméir",
        -9.84113313208854
      ],
      [
        "asal",
        -9.841564822789842
      ],
      [
        "70",
        -9.842344052803814
      ],
      [
        "pictiúir",
        -9.843256540610342
      ],
      [
        "gleic",
        -9.843303007355212
      ],
      [
        "Ábhar",
        -9.84332735732091
      ],
      [
        "34",
        -9.843902870424833
      ],
      [
        "oibleagáid",
        -9.845029138137473
      ],
      [
        "grianghraf",
        -9.846313699808572
      ],
      [
        "léas",
        -9.846928099353992
      ],
      [
        "aice",
        -9.847095834066671
      ],
      [
        "lacha",
        -9.848300910107987
      ],
      [
        "flash",
        -9.84839588308228
      ],
      [
        "fhág",
        -9.850769508576894
      ],
      [
        "uathúil",
        -9.851025109909209
      ],
      [
        "fhaigheann",
        -9.851043794266161
      ],
      [
        "foghlaim",
        -9.851421010043378
      ],
      [
        "ov",
        -9.851978205627834
      ],
      [
        "cuarda",
        -9.851989851692338
      ],
      [
        "riarachá",
        -9.852503489371923
      ],
      [
        "gcuirfea",
        -9.853911086797227
      ],
      [
        "aíochta",
        -9.854466112680406
      ],
      [
        "éisteachta",
        -9.855889692841984
      ],
      [
        "ealaín",
        -9.856211997099578
      ],
      [
        "inne",
        -9.857155714499214
      ],
      [
        "cuidiú",
        -9.85731023487405
      ],
      [
        "adhmai",
        -9.858050351443984
      ],
      [
        "tiomanta",
        -9.858741116105925
      ],
      [
        "48",
        -9.85927292841114
      ],
      [
        "Fo",
        -9.860938037692478
      ],
      [
        "Choimisiúin",
        -9.861372191572732
      ],
      [
        "vi",
        -9.86140842176616
      ],
      [
        "shaol",
        -9.863766686653127
      ],
      [
        "Oidhreachta",
        -9.864365160502892
      ],
      [
        "stiúrthóir",
        -9.865210704260457
      ],
      [
        "ifigiúil",
        -9.865476026563451
      ],
      [
        "37",
        -9.86720200249869
      ],
      [
        "buan",
        -9.867991696119411
      ],
      [
        "38",
        -9.868651975992698
      ],
      [
        "saineola",
        -9.868963417995111
      ],
      [
        "Siar",
        -9.869052348521988
      ],
      [
        "ioncai",
        -9.870747229584179
      ],
      [
        "bás",
        -9.872129131491302
      ],
      [
        "chaillea",
        -9.872583755404747
      ],
      [
        "Mórdhíol",
        -9.874149518372684
      ],
      [
        "sonrach",
        -9.874773029822366
      ],
      [
        "dhéanfa",
        -9.876081191121049
      ],
      [
        "ngach",
        -9.876992863339865
      ],
      [
        "bhreise",
        -9.877032759467134
      ],
      [
        "húdará",
        -9.87782804687634
      ],
      [
        "Se",
        -9.879323837483227
      ],
      [
        "cuntas",
        -9.879594827163153
      ],
      [
        "parlaiminteach",
        -9.879817826300844
      ],
      [
        "phróiseáil",
        -9.880687033601916
      ],
      [
        "lámh",
        -9.881079604068015
      ],
      [
        "comhai",
        -9.882440447091174
      ],
      [
        "orm",
        -9.883480383161448
      ],
      [
        "uait",
        -9.885381085837725
      ],
      [
        "taitneamh",
        -9.886976404209836
      ],
      [
        "cheist",
        -9.887305904758465
      ],
      [
        "IN",
        -9.888067168112109
      ],
      [
        "oll",
        -9.889850017486136
      ],
      [
        "gcion",
        -9.889884443960398
      ],
      [
        "IS",
        -9.890579104676194
      ],
      [
        "caithea",
        -9.893332770455688
      ],
      [
        "ell",
        -9.893403841075436
      ],
      [
        "pois",
        -9.894769731792849
      ],
      [
        "Gréasá",
        -9.89583102446705
      ],
      [
        "ghabha",
        -9.896580843305024
      ],
      [
        "Hard",
        -9.89722666146177
      ],
      [
        "scaoilea",
        -9.897813630808162
      ],
      [
        "plé",
        -9.89877924420583
      ],
      [
        "bhreis",
        -9.899225135281565
      ],
      [
        "Déantóir",
        -9.89955030592023
      ],
      [
        "ness",
        -9.900424837643893
      ],
      [
        "New",
        -9.900810851646593
      ],
      [
        "pháist",
        -9.90156139066088
      ],
      [
        "oibrithe",
        -9.901805267049902
      ],
      [
        "déag",
        -9.903195048240185
      ],
      [
        "aithint",
        -9.90329625953541
      ],
      [
        "Leasa",
        -9.903423356789787
      ],
      [
        "spás",
        -9.90358781870753
      ],
      [
        "sprioc",
        -9.905869465735435
      ],
      [
        "Dhún",
        -9.906720759119814
      ],
      [
        "gairmiúla",
        -9.907649255641509
      ],
      [
        "páirtí",
        -9.907676330250844
      ],
      [
        "tráchtála",
        -9.90805310544411
      ],
      [
        "anta",
        -9.908832622171104
      ],
      [
        "Alt",
        -9.908903064889822
      ],
      [
        "Sraith",
        -9.909081251078337
      ],
      [
        "ghníomh",
        -9.909191348982237
      ],
      [
        "bronntana",
        -9.90994968189182
      ],
      [
        "soláthróir",
        -9.910819513983117
      ],
      [
        "Oideachas",
        -9.91110483792114
      ],
      [
        "deartha",
        -9.911446932040747
      ],
      [
        "Leas",
        -9.912038229162661
      ],
      [
        "Seirbhíse",
        -9.91339567000321
      ],
      [
        "Éabhlóid",
        -9.914905151502797
      ],
      [
        "Chontae",
        -9.91490606576794
      ],
      [
        "friotaíocht",
        -9.914908229667557
      ],
      [
        "SC",
        -9.915064304234848
      ],
      [
        "lonnaithe",
        -9.915075053673291
      ],
      [
        "tora",
        -9.91549891920723
      ],
      [
        "réitigh",
        -9.915661929335919
      ],
      [
        "héasca",
        -9.91584645024332
      ],
      [
        "sreang",
        -9.917672362552377
      ],
      [
        "aifid",
        -9.917689894105093
      ],
      [
        "sperm",
        -9.917823860817087
      ],
      [
        "gcomhar",
        -9.917976854079633
      ],
      [
        "planda",
        -9.918253993995199
      ],
      [
        "athru",
        -9.918883325721657
      ],
      [
        "baile",
        -9.919518271457758
      ],
      [
        "foirfe",
        -9.920068717525275
      ],
      [
        "triail",
        -9.920092922853843
      ],
      [
        "IT",
        -9.920501965895033
      ],
      [
        "Mac",
        -9.920607457267518
      ],
      [
        "héann",
        -9.920674169690548
      ],
      [
        "FC",
        -9.921024967952686
      ],
      [
        "Cláraigh",
        -9.921117242715145
      ],
      [
        "u2",
        -9.922956999368255
      ],
      [
        "$",
        -9.923192486470157
      ],
      [
        "teorainn",
        -9.925305721003703
      ],
      [
        "up",
        -9.925551322558334
      ],
      [
        "vo",
        -9.925894713133896
      ],
      [
        "cáilíocht",
        -9.926111304273727
      ],
      [
        "éagsúlacht",
        -9.92668765874137
      ],
      [
        "US",
        -9.927212381777963
      ],
      [
        "imeacht",
        -9.928929461066534
      ],
      [
        "nGall",
        -9.929203669886286
      ],
      [
        "sheachai",
        -9.929558168521034
      ],
      [
        "fadhbanna",
        -9.930340580315686
      ],
      [
        "Roinne",
        -9.930797421202763
      ],
      [
        "”.",
        -9.931266786333044
      ],
      [
        "LA",
        -9.931632673996077
      ],
      [
        "National",
        -9.931800044518967
      ],
      [
        "Bearta",
        -9.931801023037096
      ],
      [
        "Cailín",
        -9.9318087257932
      ],
      [
        "tástáil",
        -9.932718897413924
      ],
      [
        "gearán",
        -9.93318633760705
      ],
      [
        "2003",
        -9.934232577472116
      ],
      [
        "Foirm",
        -9.934380378587043
      ],
      [
        "phoist",
        -9.934496061144317
      ],
      [
        "leictreach",
        -9.934808632087854
      ],
      [
        "áite",
        -9.934876614207157
      ],
      [
        "tion",
        -9.936938087143183
      ],
      [
        "iontaofa",
        -9.937023918242534
      ],
      [
        "33",
        -9.937037186754612
      ],
      [
        "Bainistíocht",
        -9.937208251293322
      ],
      [
        "fu",
        -9.937510665686972
      ],
      [
        "Eo",
        -9.93809542121397
      ],
      [
        "Domhna",
        -9.938345935638587
      ],
      [
        "mhaoin",
        -9.939212981386135
      ],
      [
        "riachtana",
        -9.940050826758478
      ],
      [
        "neamhspleách",
        -9.940170519382463
      ],
      [
        "iarr",
        -9.941431452943972
      ],
      [
        "ísle",
        -9.942081688448718
      ],
      [
        "Ath",
        -9.942385102720174
      ],
      [
        "eicniúla",
        -9.942388789126724
      ],
      [
        "cheangla",
        -9.942517469120741
      ],
      [
        "ghnóth",
        -9.942591370435903
      ],
      [
        "osach",
        -9.94260718314346
      ],
      [
        "Tabhair",
        -9.942849269891154
      ],
      [
        "farraig",
        -9.94327908946376
      ],
      [
        "u4",
        -9.945518828324587
      ],
      [
        "mhodh",
        -9.947104475004675
      ],
      [
        "ardú",
        -9.947150853398377
      ],
      [
        "phraghas",
        -9.948721819566522
      ],
      [
        "stát",
        -9.949641265040913
      ],
      [
        "eora",
        -9.949959745127195
      ],
      [
        "trína",
        -9.950934009794816
      ],
      [
        "ling",
        -9.951216406939619
      ],
      [
        "land",
        -9.952895585223095
      ],
      [
        "ow",
        -9.95389792854782
      ],
      [
        "tuairimí",
        -9.95410203897601
      ],
      [
        "Monaróir",
        -9.95424631639619
      ],
      [
        "lárnach",
        -9.956253344725098
      ],
      [
        "bainte",
        -9.956285790302664
      ],
      [
        "beart",
        -9.956308556561456
      ],
      [
        "timpeall",
        -9.956586676585525
      ],
      [
        "lua",
        -9.95718513586803
      ],
      [
        "socru",
        -9.957636184155763
      ],
      [
        "gceann",
        -9.95781952131869
      ],
      [
        "céad",
        -9.957975447605783
      ],
      [
        "Scoile",
        -9.958038245425946
      ],
      [
        "mhéad",
        -9.9581395614034
      ],
      [
        "teicneolaíochta",
        -9.958322492260926
      ],
      [
        "himeachta",
        -9.959713023809474
      ],
      [
        "bhean",
        -9.96077337792827
      ],
      [
        "aill",
        -9.961191949958058
      ],
      [
        "aisíoc",
        -9.961590954520059
      ],
      [
        "gáis",
        -9.961689699991847
      ],
      [
        "chóipeáil",
        -9.962373432941279
      ],
      [
        "bord",
        -9.962735544470258
      ],
      [
        "mhalairt",
        -9.962805603251162
      ],
      [
        "Eolas",
        -9.962824213994297
      ],
      [
        "aimsiú",
        -9.962922364377725
      ],
      [
        "taispeáint",
        -9.963142225129591
      ],
      [
        "news",
        -9.963849238947066
      ],
      [
        "Act",
        -9.963975123175569
      ],
      [
        "cailíní",
        -9.96404702601461
      ],
      [
        "cailín",
        -9.964774310619898
      ],
      [
        "forleathan",
        -9.966760987824138
      ],
      [
        "Cuirfi",
        -9.968017565805814
      ],
      [
        "u12",
        -9.968243737675628
      ],
      [
        "Iarscríbhinn",
        -9.968685757827306
      ],
      [
        "roinn",
        -9.969079693672999
      ],
      [
        "íneáil",
        -9.970090872664537
      ],
      [
        "hordú",
        -9.97032462623665
      ],
      [
        "dliteana",
        -9.97066307154931
      ],
      [
        "phróisea",
        -9.970922641011292
      ],
      [
        "Ord",
        -9.972139264961204
      ],
      [
        "Nuacht",
        -9.972371922296201
      ],
      [
        "Nío",
        -9.972412319231545
      ],
      [
        "chríoch",
        -9.973441896361539
      ],
      [
        "chorp",
        -9.974150747350457
      ],
      [
        "talmhaíocht",
        -9.974453835775506
      ],
      [
        "ver",
        -9.974476398760956
      ],
      [
        "Bóna",
        -9.97474455650111
      ],
      [
        "pleanála",
        -9.97477960175057
      ],
      [
        "Cuirea",
        -9.974947150636268
      ],
      [
        "Me",
        -9.976254599301281
      ],
      [
        "CUID",
        -9.977350722668609
      ],
      [
        "Bailiúchá",
        -9.977869709603162
      ],
      [
        "Daoin",
        -9.978566079053461
      ],
      [
        "spóirt",
        -9.979875274004254
      ],
      [
        "lig",
        -9.980429320710616
      ],
      [
        "nglacfa",
        -9.980786041733513
      ],
      [
        "theacht",
        -9.981402770485452
      ],
      [
        "lámha",
        -9.981459348685519
      ],
      [
        "chinn",
        -9.983723403860164
      ],
      [
        "pacáiste",
        -9.983922762551003
      ],
      [
        "foráil",
        -9.983990930499015
      ],
      [
        "huaigh",
        -9.984383050496724
      ],
      [
        "ionadaithe",
        -9.986301085218399
      ],
      [
        "bog",
        -9.9864172280611
      ],
      [
        "sócmhainn",
        -9.986918888577776
      ],
      [
        "bhainisti",
        -9.98747200211355
      ],
      [
        "Bhoir",
        -9.98854312982045
      ],
      [
        "ainmniú",
        -9.988755910748178
      ],
      [
        "Monarcha",
        -9.98912157354334
      ],
      [
        "próiseála",
        -9.989122429860643
      ],
      [
        "gairmiú",
        -9.98921227074753
      ],
      [
        "Talmhaíocht",
        -9.989248950673272
      ],
      [
        "07",
        -9.991213353353182
      ],
      [
        "cúirte",
        -9.991532992664903
      ],
      [
        "Leabhar",
        -9.992190300947648
      ],
      [
        "ime",
        -9.992215576154354
      ],
      [
        "tv",
        -9.993637020299083
      ],
      [
        "caithfi",
        -9.995319767618223
      ],
      [
        "ance",
        -9.996348575647486
      ],
      [
        "earra",
        -9.996408778843486
      ],
      [
        "ngníomh",
        -9.996765424297418
      ],
      [
        "AR",
        -9.998040817531415
      ],
      [
        "réasúnta",
        -9.998396412334255
      ],
      [
        "leathnú",
        -9.998666291889064
      ],
      [
        "suimiú",
        -10.000062247386147
      ],
      [
        "eacair",
        -10.001286521253466
      ],
      [
        "cáiliú",
        -10.002924704457175
      ],
      [
        "she",
        -10.003763411651871
      ],
      [
        "Oibre",
        -10.003768253627259
      ],
      [
        "Google",
        -10.004045148104884
      ],
      [
        "laethú",
        -10.004260834827292
      ],
      [
        "monarcha",
        -10.005104470473128
      ],
      [
        "fuaime",
        -10.005457016287915
      ],
      [
        "stoc",
        -10.007289418147693
      ],
      [
        "íriú",
        -10.008044841958151
      ],
      [
        "bhrú",
        -10.008106336657479
      ],
      [
        "thugta",
        -10.00832441923676
      ],
      [
        "uaireadóirí",
        -10.010191182504833
      ],
      [
        "IO",
        -10.010423639442347
      ],
      [
        "thú",
        -10.010697627462894
      ],
      [
        "choinníoll",
        -10.010725124251984
      ],
      [
        "deir",
        -10.010740184032667
      ],
      [
        "íocht",
        -10.011555639594533
      ],
      [
        "Doll",
        -10.012444463561996
      ],
      [
        "ordaithe",
        -10.012562617155869
      ],
      [
        "Speisialta",
        -10.013108028352747
      ],
      [
        "Síochána",
        -10.013120695517646
      ],
      [
        "teasa",
        -10.013701591879004
      ],
      [
        "fiosrúchá",
        -10.01398206214802
      ],
      [
        "dathanna",
        -10.017959050775447
      ],
      [
        "stáin",
        -10.018098965851781
      ],
      [
        "Aibí",
        -10.018390042762158
      ],
      [
        "gearr",
        -10.019124388091262
      ],
      [
        "06",
        -10.019456808322616
      ],
      [
        "Bia",
        -10.019464184993186
      ],
      [
        "foireann",
        -10.019725698360501
      ],
      [
        "cáilithe",
        -10.019798149936538
      ],
      [
        "ugann",
        -10.020034384221407
      ],
      [
        "39",
        -10.020817068183735
      ],
      [
        "uk",
        -10.02093740898732
      ],
      [
        "ealaíon",
        -10.02208659386293
      ],
      [
        "Ro",
        -10.022146357564445
      ],
      [
        "tháirgí",
        -10.022375028048309
      ],
      [
        "Céim",
        -10.022575313568261
      ],
      [
        "OÉ",
        -10.023205230328188
      ],
      [
        "láimh",
        -10.023206810984554
      ],
      [
        "níor",
        -10.025193797864482
      ],
      [
        "III",
        -10.025623560573617
      ],
      [
        "chleachta",
        -10.025714088370465
      ],
      [
        "stáisiú",
        -10.026495764810978
      ],
      [
        "tosú",
        -10.027454502694962
      ],
      [
        "MH",
        -10.02765882582769
      ],
      [
        "sheol",
        -10.027671387561144
      ],
      [
        "ber",
        -10.027983514011108
      ],
      [
        "Praghas",
        -10.028398843694182
      ],
      [
        "sheachada",
        -10.028407866133016
      ],
      [
        "Dúin",
        -10.028455963952394
      ],
      [
        "eir",
        -10.028522942258505
      ],
      [
        "ka",
        -10.030013912805703
      ],
      [
        "volta",
        -10.031495939435167
      ],
      [
        "fhoilsiú",
        -10.031546402031804
      ],
      [
        "habháil",
        -10.031629015131525
      ],
      [
        "jo",
        -10.032335750035422
      ],
      [
        "custaiméir",
        -10.032625051232666
      ],
      [
        "03",
        -10.032694778192027
      ],
      [
        "táimid",
        -10.032771475539803
      ],
      [
        "08",
        -10.033334354749524
      ],
      [
        "fhoráil",
        -10.033656748054597
      ],
      [
        "cuirtea",
        -10.034214855365377
      ],
      [
        "deich",
        -10.034439971373772
      ],
      [
        "Pobail",
        -10.03461503362944
      ],
      [
        "compordach",
        -10.034925260344856
      ],
      [
        "cónaí",
        -10.035130493052844
      ],
      [
        "seachtrach",
        -10.035531060228474
      ],
      [
        "slán",
        -10.037254576219098
      ],
      [
        "Ár",
        -10.037785370391607
      ],
      [
        "buntáist",
        -10.037819563229412
      ],
      [
        "44",
        -10.038808169549613
      ],
      [
        "mbeala",
        -10.040611075585755
      ],
      [
        "scriosa",
        -10.04087988869091
      ],
      [
        "46",
        -10.041549215475676
      ],
      [
        "tionscna",
        -10.04242391938229
      ],
      [
        "dleacht",
        -10.042567501879878
      ],
      [
        "fón",
        -10.042982356528142
      ],
      [
        "Afraic",
        -10.04393142786691
      ],
      [
        "Taighde",
        -10.044006971213813
      ],
      [
        "leithéid",
        -10.044394283736999
      ],
      [
        "58",
        -10.044504294356685
      ],
      [
        "Ltd",
        -10.045065213196501
      ],
      [
        "gníomhach",
        -10.04512915603939
      ],
      [
        "Tionsca",
        -10.045137883155018
      ],
      [
        "chúirt",
        -10.045764299165933
      ],
      [
        "chúram",
        -10.04646781940627
      ],
      [
        "táille",
        -10.04863475298821
      ],
      [
        "osaitheoir",
        -10.048636626600155
      ],
      [
        "dhearbh",
        -10.04898463347237
      ],
      [
        "domhanda",
        -10.049085733011719
      ],
      [
        "u3",
        -10.049410347939872
      ],
      [
        "Teanga",
        -10.04967716216034
      ],
      [
        "seachtain",
        -10.04988550977626
      ],
      [
        "09",
        -10.05004922334961
      ],
      [
        "chúrsa",
        -10.050265617732832
      ],
      [
        "scála",
        -10.051249443812303
      ],
      [
        "difriú",
        -10.051834034699947
      ],
      [
        "déileáil",
        -10.05204699863787
      ],
      [
        "Dia",
        -10.05207375034686
      ],
      [
        "Gan",
        -10.052545215675615
      ],
      [
        "Meaisín",
        -10.053363891819735
      ],
      [
        "University",
        -10.053364639733687
      ],
      [
        "aiste",
        -10.054440041938552
      ],
      [
        "Aistriúchá",
        -10.055491824249895
      ],
      [
        "rannpháirtíocht",
        -10.056737263541137
      ],
      [
        "Oifigiúil",
        -10.057260843393259
      ],
      [
        "éag",
        -10.057883756933789
      ],
      [
        "socrú",
        -10.059009547697409
      ],
      [
        "cruth",
        -10.05922716400823
      ],
      [
        "achtachá",
        -10.05971831211231
      ],
      [
        "píosa",
        -10.05976527204228
      ],
      [
        "EU",
        -10.059915728731548
      ],
      [
        "uinneamh",
        -10.061939145496915
      ],
      [
        "Fearr",
        -10.063236162019155
      ],
      [
        "chomhlacht",
        -10.063304854899561
      ],
      [
        "tomhaltóir",
        -10.063371751597295
      ],
      [
        "Teach",
        -10.063544708255858
      ],
      [
        "céimeanna",
        -10.063583444693073
      ],
      [
        "ndóigh",
        -10.06465786093549
      ],
      [
        "ceol",
        -10.064798923451576
      ],
      [
        "Déa",
        -10.065551199036525
      ],
      [
        "oibríochta",
        -10.065757207454276
      ],
      [
        "isce",
        -10.065866921321183
      ],
      [
        "bliantúil",
        -10.066079870514997
      ],
      [
        "sibhialta",
        -10.066098293769997
      ],
      [
        "hAoi",
        -10.066586811029524
      ],
      [
        "log",
        -10.066962571119639
      ],
      [
        "Uisce",
        -10.067188492548752
      ],
      [
        "réigiún",
        -10.068139506151834
      ],
      [
        "cheadú",
        -10.068516135346847
      ],
      [
        "59",
        -10.069301050193893
      ],
      [
        "u5",
        -10.0705467885
      ],
      [
        "infheistíocht",
        -10.07091792903297
      ],
      [
        "shábháil",
        -10.071109138904522
      ],
      [
        "íoch",
        -10.072073673453898
      ],
      [
        "line",
        -10.072374707838257
      ],
      [
        "ifear",
        -10.074649812322775
      ],
      [
        "dócha",
        -10.074831719395064
      ],
      [
        "Éireannach",
        -10.075082991443164
      ],
      [
        "65",
        -10.075281561729014
      ],
      [
        "gcuirtea",
        -10.075742829204863
      ],
      [
        "éifeachta",
        -10.076496779266078
      ],
      [
        "cásann",
        -10.076755339524693
      ],
      [
        "aicme",
        -10.076935027616518
      ],
      [
        "seacht",
        -10.077538387558858
      ],
      [
        "IR",
        -10.078028812192684
      ],
      [
        "rial",
        -10.07812857590435
      ],
      [
        "Gu",
        -10.078342921710902
      ],
      [
        "AS",
        -10.078386220892622
      ],
      [
        "sholáthra",
        -10.078771477073028
      ],
      [
        "Video",
        -10.07897292229784
      ],
      [
        "RA",
        -10.079058036185511
      ],
      [
        "chothabháil",
        -10.079186674683855
      ],
      [
        "beatha",
        -10.079392149642576
      ],
      [
        "Faisnéise",
        -10.080726819846046
      ],
      [
        "LE",
        -10.080828002854581
      ],
      [
        "ochar",
        -10.082773223113247
      ],
      [
        "Coláist",
        -10.08323760497916
      ],
      [
        "bunaío",
        -10.084577601836141
      ],
      [
        "194",
        -10.08526233431056
      ],
      [
        "Ráta",
        -10.085485230836943
      ],
      [
        "raiceann",
        -10.08561398139598
      ],
      [
        "pinsean",
        -10.086273894677241
      ],
      [
        "Su",
        -10.08657368129825
      ],
      [
        "treorach",
        -10.086818956076023
      ],
      [
        "bpróifíl",
        -10.08703063005062
      ],
      [
        "maoin",
        -10.087553970971472
      ],
      [
        "nuacht",
        -10.088179416519047
      ],
      [
        "Suíomh",
        -10.08874352436238
      ],
      [
        "imní",
        -10.089289585697479
      ],
      [
        "ladh",
        -10.089758876522659
      ],
      [
        "fhéadf",
        -10.090249693944976
      ],
      [
        "Phen",
        -10.090829654532268
      ],
      [
        "aíodh",
        -10.091392545297936
      ],
      [
        "dhéanf",
        -10.091494769947822
      ],
      [
        "2000",
        -10.091841601543255
      ],
      [
        "Oireachta",
        -10.091906409955108
      ],
      [
        "Forbairt",
        -10.092013329888193
      ],
      [
        "pháirt",
        -10.092242594430225
      ],
      [
        "riosca",
        -10.092467994742131
      ],
      [
        "long",
        -10.093746689799872
      ],
      [
        "páipéar",
        -10.095302735829275
      ],
      [
        "mhonarcha",
        -10.0954143459887
      ],
      [
        "foghlama",
        -10.09558335977761
      ],
      [
        "údarú",
        -10.096223928357254
      ],
      [
        "liúntais",
        -10.09683441096411
      ],
      [
        "05",
        -10.096834969602785
      ],
      [
        "cóir",
        -10.096870550023365
      ],
      [
        "point",
        -10.097490880516247
      ],
      [
        "Barr",
        -10.097995524645118
      ],
      [
        "Post",
        -10.09891272971948
      ],
      [
        "dearbhú",
        -10.09891999230601
      ],
      [
        "inbh",
        -10.100063972796988
      ],
      [
        "phearsanta",
        -10.100132308555558
      ],
      [
        "cuntais",
        -10.100202033058409
      ],
      [
        "55",
        -10.100988919563372
      ],
      [
        "pointe",
        -10.10145961981496
      ],
      [
        "thuillead",
        -10.101583783658285
      ],
      [
        "°",
        -10.101914289271399
      ],
      [
        "u6",
        -10.101956369104354
      ],
      [
        "shuiteáil",
        -10.10200172919417
      ],
      [
        "Síne",
        -10.10238146432216
      ],
      [
        "gloine",
        -10.10240571338701
      ],
      [
        "aonad",
        -10.103309833529082
      ],
      [
        "phlean",
        -10.10336608450601
      ],
      [
        "Gnó",
        -10.103752759462779
      ],
      [
        "inbhuanaithe",
        -10.105077767325687
      ],
      [
        "English",
        -10.105236548733146
      ],
      [
        "Chosaint",
        -10.105238540694252
      ],
      [
        "teannta",
        -10.105392804932023
      ],
      [
        "Réigiún",
        -10.105434711891577
      ],
      [
        "Comhshao",
        -10.105848983005313
      ],
      [
        "dhíth",
        -10.105864804115017
      ],
      [
        "tairbhe",
        -10.106566968584826
      ],
      [
        "bhfor",
        -10.107803060841217
      ],
      [
        "dhiúlt",
        -10.108167458803063
      ],
      [
        "reáchtáil",
        -10.10856988318204
      ],
      [
        "soláthair",
        -10.108948035230267
      ],
      [
        "04",
        -10.109226168507956
      ],
      [
        "dréacht",
        -10.10939500298145
      ],
      [
        "gúna",
        -10.109747998018369
      ],
      [
        "substaint",
        -10.111483419451721
      ],
      [
        "gluaiseacht",
        -10.111903939197136
      ],
      [
        "teoranta",
        -10.111904143806786
      ],
      [
        "2004",
        -10.113525698629772
      ],
      [
        "Fostaíochta",
        -10.115047045518459
      ],
      [
        "Tugt",
        -10.115340700644978
      ],
      [
        "phlé",
        -10.115364269968238
      ],
      [
        "ionadaí",
        -10.115593640303022
      ],
      [
        "Jackets",
        -10.115619938730278
      ],
      [
        "euro",
        -10.117003015267212
      ],
      [
        "75",
        -10.117303004059526
      ],
      [
        "PE",
        -10.11804231462284
      ],
      [
        "Sola",
        -10.118791923488983
      ],
      [
        "eireadh",
        -10.119222823979829
      ],
      [
        "we",
        -10.11966886866906
      ],
      [
        "codann",
        -10.120934545062557
      ],
      [
        "thuiscint",
        -10.122015450728826
      ],
      [
        "Chéad",
        -10.122188291774677
      ],
      [
        "Imir",
        -10.122825512970977
      ],
      [
        "Córa",
        -10.123293984242029
      ],
      [
        "cinntí",
        -10.123761642513767
      ],
      [
        "glas",
        -10.123783097995629
      ],
      [
        "ultúrtha",
        -10.124046039072335
      ],
      [
        "Ceann",
        -10.124669903516576
      ],
      [
        "caiteacha",
        -10.125230761975121
      ],
      [
        "oibreacha",
        -10.125417177729727
      ],
      [
        "cal",
        -10.125694826089884
      ],
      [
        "sochaí",
        -10.125965030589292
      ],
      [
        "Roghna",
        -10.126944485262138
      ],
      [
        "ik",
        -10.127094833246556
      ],
      [
        "San",
        -10.127691938275525
      ],
      [
        "beaga",
        -10.129908434567007
      ],
      [
        "u9",
        -10.13146635373241
      ],
      [
        "Chat",
        -10.131996468047337
      ],
      [
        "theasta",
        -10.132865158706931
      ],
      [
        "ordu",
        -10.133270260225018
      ],
      [
        "Ho",
        -10.13349962446065
      ],
      [
        "Deara",
        -10.13372438734062
      ],
      [
        "tine",
        -10.134104386053437
      ],
      [
        "úla",
        -10.134304678741465
      ],
      [
        "íos",
        -10.134825724002209
      ],
      [
        "tiomána",
        -10.135648032035114
      ],
      [
        "official",
        -10.136156865468912
      ],
      [
        "saothar",
        -10.136304085308003
      ],
      [
        "2001",
        -10.136470717013527
      ],
      [
        "bonn",
        -10.13669088830273
      ],
      [
        "athanna",
        -10.137234200407644
      ],
      [
        "carr",
        -10.138357179720046
      ],
      [
        "iasc",
        -10.138693889821287
      ],
      [
        "deas",
        -10.13937995392473
      ],
      [
        "u14",
        -10.139817209140102
      ],
      [
        "chomhlachta",
        -10.142401190838633
      ],
      [
        "timpeallacht",
        -10.142426974707774
      ],
      [
        "pictiúr",
        -10.142528974497282
      ],
      [
        "taisteal",
        -10.14254280023329
      ],
      [
        "fhadhb",
        -10.142547111340964
      ],
      [
        "chuirfid",
        -10.142682301299098
      ],
      [
        "Thuaidh",
        -10.142682743803629
      ],
      [
        "smaointe",
        -10.142864877651274
      ],
      [
        "stop",
        -10.143112858818998
      ],
      [
        "Ráite",
        -10.14363748970111
      ],
      [
        "dlite",
        -10.144042438921506
      ],
      [
        "Páirt",
        -10.14423065745764
      ],
      [
        "Cho",
        -10.144565591752368
      ],
      [
        "dian",
        -10.145187970022121
      ],
      [
        "aistriúchá",
        -10.145324105986015
      ],
      [
        "bainisti",
        -10.145823407453992
      ],
      [
        "praghs",
        -10.145990554711027
      ],
      [
        "digiteach",
        -10.146066072808956
      ],
      [
        "bu",
        -10.146450866623674
      ],
      [
        "Cuideachta",
        -10.146668655101646
      ],
      [
        "stóráil",
        -10.147281847587358
      ],
      [
        "teorainneacha",
        -10.147944035428079
      ],
      [
        "pas",
        -10.14851708819371
      ],
      [
        "bail",
        -10.149245171792373
      ],
      [
        "rolla",
        -10.14990104583691
      ],
      [
        "po",
        -10.150354317910287
      ],
      [
        "tíotáiniam",
        -10.151229621686053
      ],
      [
        "coiste",
        -10.15238097043601
      ],
      [
        "·",
        -10.152945720030958
      ],
      [
        "meáchain",
        -10.152946057867311
      ],
      [
        "IP",
        -10.153003140671046
      ],
      [
        "beagán",
        -10.153484422202332
      ],
      [
        "Iris",
        -10.15457680215491
      ],
      [
        "leasanna",
        -10.154805150492592
      ],
      [
        "meái",
        -10.154912271722239
      ],
      [
        "caidr",
        -10.155148443193625
      ],
      [
        "Con",
        -10.155791164270475
      ],
      [
        "scáileá",
        -10.156447666503706
      ],
      [
        "ceist",
        -10.156495457580474
      ],
      [
        "iascaireacht",
        -10.156719957599975
      ],
      [
        "intinn",
        -10.156817588582218
      ],
      [
        "aim",
        -10.156842927888409
      ],
      [
        "méadar",
        -10.157245406056663
      ],
      [
        "chóra",
        -10.157639157259013
      ],
      [
        "47",
        -10.157772215454536
      ],
      [
        "02",
        -10.158832560293092
      ],
      [
        "Black",
        -10.159235087859063
      ],
      [
        "Fir",
        -10.159821090027908
      ],
      [
        "sealbhóir",
        -10.16009644349495
      ],
      [
        "leigheas",
        -10.160097038861014
      ],
      [
        "ous",
        -10.161105960958476
      ],
      [
        "pá",
        -10.161368476087777
      ],
      [
        "inti",
        -10.162656624393126
      ],
      [
        "Mu",
        -10.162946068916554
      ],
      [
        "Threesome",
        -10.163472126111945
      ],
      [
        "ith",
        -10.163996042141463
      ],
      [
        "gCoimisinéir",
        -10.164792188829225
      ],
      [
        "scor",
        -10.165016370335941
      ],
      [
        "óthair",
        -10.16529068064693
      ],
      [
        "MA",
        -10.16539199789521
      ],
      [
        "muirear",
        -10.16693326026796
      ],
      [
        "chontae",
        -10.167014848693686
      ],
      [
        "tithíocht",
        -10.167025250043501
      ],
      [
        "cartlann",
        -10.167026557824935
      ],
      [
        "crité",
        -10.167164576826613
      ],
      [
        "eolaíocht",
        -10.168050893684876
      ],
      [
        "ki",
        -10.169564400762592
      ],
      [
        "Údarái",
        -10.170968338770193
      ],
      [
        "ianaise",
        -10.171198977700808
      ],
      [
        "pre",
        -10.171442476014082
      ],
      [
        "cho",
        -10.174502250346919
      ],
      [
        "u10",
        -10.175117804244863
      ],
      [
        "eagrú",
        -10.175119865799331
      ],
      [
        "shláinte",
        -10.175528880920297
      ],
      [
        "720",
        -10.176227752126383
      ],
      [
        "strap",
        -10.176321822058185
      ],
      [
        "bhforáilte",
        -10.176402405852265
      ],
      [
        "cy",
        -10.177022560442202
      ],
      [
        "chuí",
        -10.177495901256462
      ],
      [
        "monatóireacht",
        -10.177681997540073
      ],
      [
        "Ógla",
        -10.179194319895341
      ],
      [
        "Banc",
        -10.179502561838657
      ],
      [
        "eiseanna",
        -10.179693992529826
      ],
      [
        "79",
        -10.180187250834177
      ],
      [
        "plaisteach",
        -10.18107145259428
      ],
      [
        "amhras",
        -10.1813206554346
      ],
      [
        "úshláin",
        -10.181614809910204
      ],
      [
        "breá",
        -10.181919277136325
      ],
      [
        "gov",
        -10.182333711963366
      ],
      [
        "ghníomhaíochta",
        -10.183236821292468
      ],
      [
        "iallaíonn",
        -10.184141287334294
      ],
      [
        "2005",
        -10.184246378156459
      ],
      [
        "ive",
        -10.18435916790821
      ],
      [
        "Li",
        -10.184801055366119
      ],
      [
        "Phoibl",
        -10.18486329063996
      ],
      [
        "42",
        -10.184936239557269
      ],
      [
        "feidhmíocht",
        -10.185771389112478
      ],
      [
        "scéimeanna",
        -10.186693688331053
      ],
      [
        "Irish",
        -10.187381860240205
      ],
      [
        "eal",
        -10.187425416988166
      ],
      [
        "bpobal",
        -10.187434933519256
      ],
      [
        "bpointe",
        -10.187547947141088
      ],
      [
        "my",
        -10.187815544467984
      ],
      [
        "stádas",
        -10.18848297124072
      ],
      [
        "mála",
        -10.190051725279378
      ],
      [
        "shi",
        -10.19062081477696
      ],
      [
        "Pro",
        -10.191655618501336
      ],
      [
        "Euro",
        -10.192977430228366
      ],
      [
        "tirim",
        -10.194105749674101
      ],
      [
        "Tarraing",
        -10.19573422175365
      ],
      [
        "chothú",
        -10.195787481744741
      ],
      [
        "Cuarda",
        -10.1961859851241
      ],
      [
        "dtreo",
        -10.19630351674967
      ],
      [
        "gcóra",
        -10.197966479309407
      ],
      [
        "Mheiriceá",
        -10.198117394548067
      ],
      [
        "feist",
        -10.198973652573057
      ],
      [
        "sealadach",
        -10.199468368029926
      ],
      [
        "gnótha",
        -10.199817319506979
      ],
      [
        "íochta",
        -10.200519479868214
      ],
      [
        "ER",
        -10.201203433907013
      ],
      [
        "meas",
        -10.201686888401555
      ],
      [
        "maoine",
        -10.202646049118453
      ],
      [
        "éascú",
        -10.203057527198567
      ],
      [
        "gcroí",
        -10.203411081806436
      ],
      [
        "pobal",
        -10.204126275017632
      ],
      [
        "feithicl",
        -10.20489206886258
      ],
      [
        "pháirtí",
        -10.205484539921184
      ],
      [
        "eráide",
        -10.205997724726465
      ],
      [
        "Play",
        -10.206427469194715
      ],
      [
        "comhoiriúnacht",
        -10.2066503131743
      ],
      [
        "mhuirear",
        -10.206681680218932
      ],
      [
        "»",
        -10.206722059171845
      ],
      [
        "Health",
        -10.206730898084583
      ],
      [
        "deireanach",
        -10.20714433826078
      ],
      [
        "Star",
        -10.208665742405028
      ],
      [
        ".\"",
        -10.20962887709512
      ],
      [
        "sheiceáil",
        -10.2098706171993
      ],
      [
        "litir",
        -10.210264954302188
      ],
      [
        "Fostaíocht",
        -10.210657545942723
      ],
      [
        "PH",
        -10.210821043466304
      ],
      [
        "mhic",
        -10.210945189128871
      ],
      [
        "Mheán",
        -10.212509413079601
      ],
      [
        "cúrsa",
        -10.21328135206612
      ],
      [
        "ceacht",
        -10.213854070721336
      ],
      [
        "cúraim",
        -10.214124363906357
      ],
      [
        "ghairmiú",
        -10.21416663604068
      ],
      [
        "teagmhála",
        -10.214444795821272
      ],
      [
        "diúlt",
        -10.215110378184516
      ],
      [
        "gceant",
        -10.215447671671996
      ],
      [
        "láimhe",
        -10.216414505047025
      ],
      [
        "gCuid",
        -10.21844119080468
      ],
      [
        "meascá",
        -10.218745945335126
      ],
      [
        "tube",
        -10.219404429325722
      ],
      [
        "dalta",
        -10.219602595340213
      ],
      [
        "ceadaithe",
        -10.22014336977123
      ],
      [
        "éadrom",
        -10.221634474584572
      ],
      [
        "mhaoiniú",
        -10.221666106717077
      ],
      [
        "gCúirt",
        -10.224258752583768
      ],
      [
        "ici",
        -10.224706180691381
      ],
      [
        "rathúil",
        -10.225458183511321
      ],
      [
        "éineacht",
        -10.225509340577588
      ],
      [
        ");",
        -10.2255768062412
      ],
      [
        "bhf",
        -10.226806436098222
      ],
      [
        "Hot",
        -10.226887093309864
      ],
      [
        "eolaíochta",
        -10.226942642873727
      ],
      [
        "béim",
        -10.227490463479182
      ],
      [
        "UN",
        -10.227526153413415
      ],
      [
        "fuarth",
        -10.229030705086284
      ],
      [
        "Bliain",
        -10.229070894382955
      ],
      [
        "Chearta",
        -10.229141481480923
      ],
      [
        "othair",
        -10.229471749015659
      ],
      [
        "conrad",
        -10.23018585990314
      ],
      [
        "Cineál",
        -10.230220312454636
      ],
      [
        "Clárú",
        -10.230721926743627
      ],
      [
        "Cumann",
        -10.23096093656693
      ],
      [
        "scoláir",
        -10.231815939654116
      ],
      [
        "inár",
        -10.232070056919534
      ],
      [
        "úsáideach",
        -10.233340841154074
      ],
      [
        "gcaoi",
        -10.233625759176512
      ],
      [
        "imscrúdú",
        -10.235686637619864
      ],
      [
        "ealaíontóir",
        -10.236130608465285
      ],
      [
        "tsuim",
        -10.23628699161138
      ],
      [
        "We",
        -10.236427428620306
      ],
      [
        "watch",
        -10.236596983898163
      ],
      [
        "Straitéis",
        -10.23947657393773
      ],
      [
        "que",
        -10.239829887555729
      ],
      [
        "Sin",
        -10.239977419758667
      ],
      [
        "foclóir",
        -10.240464267758593
      ],
      [
        "org",
        -10.240830857118514
      ],
      [
        "Caibidil",
        -10.241168389357425
      ],
      [
        "CH",
        -10.241373640271433
      ],
      [
        "ghníomhach",
        -10.241574004081922
      ],
      [
        "PDF",
        -10.2417070729429
      ],
      [
        "Po",
        -10.243262996324633
      ],
      [
        "ek",
        -10.243642374183022
      ],
      [
        "gníomhaíocht",
        -10.244381381013874
      ],
      [
        "macasamhail",
        -10.245018967186596
      ],
      [
        "agsúil",
        -10.245201115004827
      ],
      [
        "turas",
        -10.245727842173485
      ],
      [
        "idirlín",
        -10.24731566981937
      ],
      [
        "TR",
        -10.24733264485131
      ],
      [
        "mais",
        -10.247861680659941
      ],
      [
        "Crua",
        -10.248469250159285
      ],
      [
        "hiarratas",
        -10.249520391626374
      ],
      [
        "57",
        -10.249919543844138
      ],
      [
        "ciontach",
        -10.250390498424586
      ],
      [
        "difríocht",
        -10.251022239621502
      ],
      [
        "chostas",
        -10.25193627321779
      ],
      [
        "thrí",
        -10.25217165989605
      ],
      [
        "Bun",
        -10.252594680078676
      ],
      [
        "pri",
        -10.252663456260521
      ],
      [
        "carachta",
        -10.252824154833334
      ],
      [
        "aíocht",
        -10.255348090944226
      ],
      [
        "ok",
        -10.25541569953061
      ],
      [
        "Gharda",
        -10.255853885725346
      ],
      [
        "bhunaithe",
        -10.25588989421146
      ],
      [
        "Mom",
        -10.257347178810138
      ],
      [
        "Big",
        -10.25791468032335
      ],
      [
        "Lu",
        -10.257979587000825
      ],
      [
        "chomhshao",
        -10.258018563688317
      ],
      [
        "cuirea",
        -10.258620489694813
      ],
      [
        "Stair",
        -10.258658767799478
      ],
      [
        "rannpháirteach",
        -10.259476818344769
      ],
      [
        "rialtais",
        -10.25993999895065
      ],
      [
        "IL",
        -10.260057216159503
      ],
      [
        "fuar",
        -10.261448902031432
      ],
      [
        "fhostaithe",
        -10.261813000083936
      ],
      [
        "ualach",
        -10.262643460054168
      ],
      [
        "thóg",
        -10.262987464830642
      ],
      [
        "thionscna",
        -10.263201494505772
      ],
      [
        "Íoslódáil",
        -10.263557697610507
      ],
      [
        "tábhacht",
        -10.264734259798846
      ],
      [
        "ey",
        -10.264743099072197
      ],
      [
        "Ainm",
        -10.266318037357157
      ],
      [
        "Conrad",
        -10.26641130110997
      ],
      [
        "#",
        -10.267461715889834
      ],
      [
        "Ombudsman",
        -10.267461715891333
      ],
      [
        "Iompai",
        -10.267462118035432
      ],
      [
        "póca",
        -10.267503930787946
      ],
      [
        "iarbhír",
        -10.267548449320548
      ],
      [
        "tho",
        -10.267603216528993
      ],
      [
        "Lio",
        -10.267942536779366
      ],
      [
        "Coimirce",
        -10.26814873687798
      ],
      [
        "IV",
        -10.26888425408548
      ],
      [
        "chruinn",
        -10.268988533973653
      ],
      [
        "breith",
        -10.26901940634115
      ],
      [
        "cultúr",
        -10.269556354734778
      ],
      [
        "pinsin",
        -10.270164731550498
      ],
      [
        "links",
        -10.270250380001293
      ],
      [
        "díolacháin",
        -10.270358921517563
      ],
      [
        "43",
        -10.270739069769826
      ],
      [
        "fórsa",
        -10.27085342773107
      ],
      [
        "India",
        -10.271396036357416
      ],
      [
        "dleathach",
        -10.271476408778536
      ],
      [
        "mhúinteoir",
        -10.27153400128591
      ],
      [
        "dearfach",
        -10.271701817638268
      ],
      [
        "chairde",
        -10.27193655623298
      ],
      [
        "casta",
        -10.27197253689693
      ],
      [
        "tos",
        -10.272000531631937
      ],
      [
        "She",
        -10.272123158136267
      ],
      [
        "phointe",
        -10.273371752951324
      ],
      [
        "uaidh",
        -10.273518254644804
      ],
      [
        "saoráid",
        -10.27554577812263
      ],
      [
        "chuntas",
        -10.275733488583283
      ],
      [
        "contae",
        -10.27610540970246
      ],
      [
        "Breataine",
        -10.276430877488096
      ],
      [
        "aistil",
        -10.277092217204364
      ],
      [
        "deontas",
        -10.27738819391345
      ],
      [
        "thír",
        -10.277618050158146
      ],
      [
        "bhall",
        -10.277778989641877
      ],
      [
        "Domhand",
        -10.277982141896963
      ],
      [
        "eli",
        -10.279045443295857
      ],
      [
        "Ghníomhaireacht",
        -10.27927513557151
      ],
      [
        "foirgn",
        -10.279572659299458
      ],
      [
        "tógála",
        -10.281586394267315
      ],
      [
        "aimsire",
        -10.281767847791597
      ],
      [
        "faighte",
        -10.282614384636172
      ],
      [
        "fostóir",
        -10.28292726225028
      ],
      [
        "tromchúiseach",
        -10.28329198952779
      ],
      [
        "Léigh",
        -10.283370026978023
      ],
      [
        "q",
        -10.28407035508668
      ],
      [
        "uiscedhíonach",
        -10.287321600665361
      ],
      [
        "dhlí",
        -10.287838297237052
      ],
      [
        "deontais",
        -10.288110679253885
      ],
      [
        "ainmneach",
        -10.288725995685063
      ],
      [
        "línte",
        -10.290185184322421
      ],
      [
        "scéime",
        -10.290696424441848
      ],
      [
        "tseachtain",
        -10.290964431980228
      ],
      [
        "thiont",
        -10.291066738842865
      ],
      [
        "thuras",
        -10.291498314488988
      ],
      [
        "oiriún",
        -10.292746139611733
      ],
      [
        "mothú",
        -10.292793699297096
      ],
      [
        "idí",
        -10.292993784829505
      ],
      [
        "chomhlán",
        -10.293057158486
      ],
      [
        "réim",
        -10.293297005815788
      ],
      [
        "bac",
        -10.29365559881344
      ],
      [
        "ster",
        -10.294345392339768
      ],
      [
        "Cultúir",
        -10.294835462105631
      ],
      [
        "ghnótha",
        -10.294876696254539
      ],
      [
        "clasaiceach",
        -10.2952412436354
      ],
      [
        "loingseoireacht",
        -10.295241245722274
      ],
      [
        "athbhreithnithe",
        -10.29547055761459
      ],
      [
        "ful",
        -10.29583827609364
      ],
      [
        "ghníomhaíocht",
        -10.296059032103098
      ],
      [
        "ách",
        -10.296124553172383
      ],
      [
        "taisce",
        -10.297201301270057
      ],
      [
        "Whats",
        -10.297619477506966
      ],
      [
        "dualgais",
        -10.297677479975974
      ],
      [
        "He",
        -10.29783758798548
      ],
      [
        "gcustaiméir",
        -10.299033512746572
      ],
      [
        "athchóiriú",
        -10.29927382581712
      ],
      [
        "ghinearálta",
        -10.299273979822603
      ],
      [
        "Super",
        -10.299373767005815
      ],
      [
        "eachtúil",
        -10.29953200864241
      ],
      [
        "aite",
        -10.299684412506
      ],
      [
        "Dearg",
        -10.299781288938094
      ],
      [
        "fheithic",
        -10.30001009961645
      ],
      [
        "fhad",
        -10.301130246575255
      ],
      [
        "Neamh",
        -10.301785025780742
      ],
      [
        "iarrachtaí",
        -10.302168800316595
      ],
      [
        "fios",
        -10.302867117480577
      ],
      [
        "gcoitinn",
        -10.303322096402987
      ],
      [
        "bónas",
        -10.303340007151398
      ],
      [
        "comhlíona",
        -10.303794412487012
      ],
      [
        "snáithín",
        -10.303933174565243
      ],
      [
        "saille",
        -10.304040331441266
      ],
      [
        "coileach",
        -10.30405604066161
      ],
      [
        "Poblacht",
        -10.304749905751695
      ],
      [
        "Úsáidte",
        -10.305409810948372
      ],
      [
        "Cód",
        -10.305563647283837
      ],
      [
        "áilte",
        -10.305632188835702
      ],
      [
        "inneall",
        -10.305701886938019
      ],
      [
        "eo",
        -10.305892227885225
      ],
      [
        "SA",
        -10.306683197409672
      ],
      [
        "rannpháirt",
        -10.306964132865161
      ],
      [
        "Uair",
        -10.307366782646014
      ],
      [
        "Ghearmáin",
        -10.307444977374361
      ],
      [
        "Lucht",
        -10.30784542276928
      ],
      [
        "cíos",
        -10.307852468319613
      ],
      [
        "threoir",
        -10.308707031338589
      ],
      [
        "Chlár",
        -10.309179446306338
      ],
      [
        "rialtas",
        -10.30989267690998
      ],
      [
        "cumarsáide",
        -10.31039587138662
      ],
      [
        "asbhaint",
        -10.310846792428995
      ],
      [
        "Air",
        -10.311058360241956
      ],
      [
        "tSeirbhís",
        -10.31111734579764
      ],
      [
        "Beo",
        -10.31114000035501
      ],
      [
        "Lo",
        -10.311160399515515
      ],
      [
        "American",
        -10.311482567838699
      ],
      [
        "56",
        -10.311737317699716
      ],
      [
        "teaghlach",
        -10.312303879023224
      ],
      [
        "cheadúna",
        -10.313002826051333
      ],
      [
        "Dúi",
        -10.313930721643366
      ],
      [
        "chuirfe",
        -10.314716042249767
      ],
      [
        "dlúth",
        -10.315464133770172
      ],
      [
        "Fhrainc",
        -10.315567127326538
      ],
      [
        "Blonde",
        -10.315587601796524
      ],
      [
        "Seomra",
        -10.31559154049981
      ],
      [
        "acasamhail",
        -10.316585255575749
      ],
      [
        "nuas",
        -10.316979882412536
      ],
      [
        "feithicle",
        -10.317308915145546
      ],
      [
        "sonracha",
        -10.317748246775162
      ],
      [
        "dheara",
        -10.319165807835489
      ],
      [
        "97",
        -10.31937961751286
      ],
      [
        "DE",
        -10.319542298991845
      ],
      [
        "ST",
        -10.319563118028837
      ],
      [
        "línse",
        -10.319684454148089
      ],
      [
        "cábla",
        -10.319687958823842
      ],
      [
        "Football",
        -10.319690909169452
      ],
      [
        "Brunette",
        -10.323814659059671
      ],
      [
        "fóill",
        -10.323942990539177
      ],
      [
        "tosaíochta",
        -10.324012830823094
      ],
      [
        "béil",
        -10.324491773918943
      ],
      [
        "99",
        -10.324804260483265
      ],
      [
        "réigiú",
        -10.325110418254352
      ],
      [
        "bean",
        -10.326178896579393
      ],
      [
        "Gníomhaíochta",
        -10.327863412720847
      ],
      [
        "Duine",
        -10.328004923967057
      ],
      [
        "dualga",
        -10.329632401042218
      ],
      [
        "Dáta",
        -10.330003872910904
      ],
      [
        "thiar",
        -10.332005907222248
      ],
      [
        "thuismitheoir",
        -10.332130621149755
      ],
      [
        "píopa",
        -10.332132333381317
      ],
      [
        "Pleanála",
        -10.332328978730711
      ],
      [
        "óid",
        -10.332521053825905
      ],
      [
        "ultúir",
        -10.332579480222709
      ],
      [
        "Caithfi",
        -10.332680765412846
      ],
      [
        "shiúl",
        -10.332701103349088
      ],
      [
        "rath",
        -10.333581567661344
      ],
      [
        "shárú",
        -10.333707837961391
      ],
      [
        "racha",
        -10.334080157916521
      ],
      [
        "1999",
        -10.33451823952694
      ],
      [
        "Ceannai",
        -10.334765966602328
      ],
      [
        "PA",
        -10.334895933793916
      ],
      [
        "Rialacha",
        -10.336404448758891
      ],
      [
        "titim",
        -10.336484527742947
      ],
      [
        "cónaithe",
        -10.336504231690565
      ],
      [
        "Áirítea",
        -10.336520093275023
      ],
      [
        "roim",
        -10.336874449420154
      ],
      [
        "creidmheasa",
        -10.33732366185387
      ],
      [
        "Cuirte",
        -10.337576566163069
      ],
      [
        "leithl",
        -10.33786237058932
      ],
      [
        "bheag",
        -10.338304148260846
      ],
      [
        "chánach",
        -10.338494224778525
      ],
      [
        "Dhá",
        -10.340378569256325
      ],
      [
        "49",
        -10.340576777126072
      ],
      [
        "ACHT",
        -10.340960134268638
      ],
      [
        "dheimhniú",
        -10.343588875436044
      ],
      [
        "gairte",
        -10.344169578004967
      ],
      [
        "ghlana",
        -10.34525732864202
      ],
      [
        "íomhá",
        -10.346269286262435
      ],
      [
        "chrutha",
        -10.346529652812624
      ],
      [
        "itheoir",
        -10.346753157145663
      ],
      [
        "tre",
        -10.348472577369357
      ],
      [
        "tógá",
        -10.34867295083173
      ],
      [
        "chuspóir",
        -10.348912826425744
      ],
      [
        "aeir",
        -10.349002918039666
      ],
      [
        "háit",
        -10.349032626746737
      ],
      [
        "chailín",
        -10.349152523404523
      ],
      [
        "romhainn",
        -10.349179137924688
      ],
      [
        "gcomhlíona",
        -10.349341596960365
      ],
      [
        "rachaid",
        -10.349407284780792
      ],
      [
        "easpa",
        -10.349457836274066
      ],
      [
        "beirt",
        -10.349573445082939
      ],
      [
        "insean",
        -10.349983955313501
      ],
      [
        "Mhaigh",
        -10.350000399222708
      ],
      [
        "El",
        -10.350923162393402
      ],
      [
        "áracha",
        -10.35177414838803
      ],
      [
        "rangann",
        -10.351811660043388
      ],
      [
        "Tithíocht",
        -10.353236425185441
      ],
      [
        "comhairliúchá",
        -10.353238786548099
      ],
      [
        "ríthábhachtach",
        -10.353382196674673
      ],
      [
        "tionscnaimh",
        -10.35370685478081
      ],
      [
        "Bunreacht",
        -10.353790002649252
      ],
      [
        "comhad",
        -10.354298747966984
      ],
      [
        "Aisc",
        -10.354986380428993
      ],
      [
        "chúrsaí",
        -10.355513256552811
      ],
      [
        "41",
        -10.355651933775677
      ],
      [
        "dúil",
        -10.355899167054789
      ],
      [
        "háinig",
        -10.355939374166349
      ],
      [
        "chead",
        -10.356438835378281
      ],
      [
        "300",
        -10.356656538505398
      ],
      [
        "RE",
        -10.357226933032882
      ],
      [
        "DC",
        -10.357783445629043
      ],
      [
        "Comhaont",
        -10.358452287165704
      ],
      [
        "fiche",
        -10.359171380701575
      ],
      [
        "comhpháirt",
        -10.359668598438134
      ],
      [
        "Eacnamaíoch",
        -10.360210708235334
      ],
      [
        "tábhachta",
        -10.360508586385993
      ],
      [
        "mhola",
        -10.361607243806887
      ],
      [
        "Tuaisceart",
        -10.361794451023261
      ],
      [
        "leordhóthanach",
        -10.361812841196286
      ],
      [
        "bhraitheann",
        -10.362225178081914
      ],
      [
        "mp",
        -10.362235086574051
      ],
      [
        "95",
        -10.362945556378873
      ],
      [
        "ev",
        -10.363078620904325
      ],
      [
        "All",
        -10.364483392313133
      ],
      [
        "caighdeánach",
        -10.364878025162767
      ],
      [
        "bhliantúil",
        -10.364940470918699
      ],
      [
        "íocfa",
        -10.365333597746066
      ],
      [
        "chaomhn",
        -10.365535456559645
      ],
      [
        "over",
        -10.365586682478629
      ],
      [
        "Rátáil",
        -10.36610493434433
      ],
      [
        "UK",
        -10.366183594642656
      ],
      [
        "Cosant",
        -10.368004208010044
      ],
      [
        "táirgthe",
        -10.368551469334015
      ],
      [
        "Ru",
        -10.368722004598965
      ],
      [
        "Réalta",
        -10.369014331035391
      ],
      [
        "vótála",
        -10.369238135566196
      ],
      [
        "theanga",
        -10.369341883113101
      ],
      [
        "less",
        -10.369627905115662
      ],
      [
        "tréimhs",
        -10.369796970374622
      ],
      [
        "ofar",
        -10.369871844924655
      ],
      [
        "gcomh",
        -10.37018247780426
      ],
      [
        "fhógair",
        -10.370435737343168
      ],
      [
        "Fógra",
        -10.370571872137326
      ],
      [
        "ceapad",
        -10.372143315275888
      ],
      [
        "póirt",
        -10.372279732042124
      ],
      [
        "séala",
        -10.372500041144995
      ],
      [
        "Feidhm",
        -10.37263046591215
      ],
      [
        "gcríoch",
        -10.374090057348264
      ],
      [
        "u7",
        -10.374359682916651
      ],
      [
        "gala",
        -10.37443971053591
      ],
      [
        "Watch",
        -10.374797258941943
      ],
      [
        "Edit",
        -10.37521114403253
      ],
      [
        "áisiúi",
        -10.375396840322672
      ],
      [
        "nasta",
        -10.375732219732015
      ],
      [
        "mhargai",
        -10.375874830626877
      ],
      [
        "ceoil",
        -10.376354251826719
      ],
      [
        "leasuithe",
        -10.37657267105136
      ],
      [
        "zel",
        -10.376585041667148
      ],
      [
        "DA",
        -10.376672500466558
      ],
      [
        "imistéir",
        -10.377389103490763
      ],
      [
        "suime",
        -10.377697370993582
      ],
      [
        "Leabharlann",
        -10.379290239305718
      ],
      [
        "oy",
        -10.380157932834646
      ],
      [
        "eagra",
        -10.381218945282583
      ],
      [
        "héifeachtach",
        -10.381287118754276
      ],
      [
        "tábla",
        -10.382982775897531
      ],
      [
        "World",
        -10.383533839020156
      ],
      [
        "bhosca",
        -10.383554762615194
      ],
      [
        "treoirlínte",
        -10.383621408693346
      ],
      [
        "lascain",
        -10.383908956278116
      ],
      [
        "tabharfa",
        -10.384283726142748
      ],
      [
        "oidhreacht",
        -10.384411833946375
      ],
      [
        "iontaobha",
        -10.384621154687546
      ],
      [
        "conartha",
        -10.385415041673536
      ],
      [
        "69",
        -10.385659703544281
      ],
      [
        "ker",
        -10.386297209697775
      ],
      [
        "tugta",
        -10.386582858719542
      ],
      [
        "réalta",
        -10.386637257946926
      ],
      [
        "col",
        -10.386712295214425
      ],
      [
        "tarraing",
        -10.386748704956613
      ],
      [
        "AL",
        -10.387210522442917
      ],
      [
        "ES",
        -10.38742626746148
      ],
      [
        "more",
        -10.387884817147798
      ],
      [
        "experience",
        -10.387939006795694
      ],
      [
        "Amateurs",
        -10.387939008601974
      ],
      [
        "SE",
        -10.390331729666288
      ],
      [
        "Óig",
        -10.391694995925372
      ],
      [
        "iom",
        -10.391886560909098
      ],
      [
        "just",
        -10.392109507211657
      ],
      [
        "Ob",
        -10.392238086475984
      ],
      [
        "spins",
        -10.392409987622745
      ],
      [
        "incháilithe",
        -10.39324441233866
      ],
      [
        "fhostóir",
        -10.393500881027311
      ],
      [
        "tsraith",
        -10.393924223448323
      ],
      [
        "Sóisiala",
        -10.3940530010903
      ],
      [
        "port",
        -10.394386636621356
      ],
      [
        "Sea",
        -10.395151174242287
      ],
      [
        "ghá",
        -10.395643034047495
      ],
      [
        "chinnf",
        -10.395858551979922
      ],
      [
        "MS",
        -10.396647739039114
      ],
      [
        "ardchaighdeáin",
        -10.39691859772239
      ],
      [
        "ordó",
        -10.397222608813987
      ],
      [
        "tabharfaid",
        -10.397482310896851
      ],
      [
        "urg",
        -10.397955946895763
      ],
      [
        "Sp",
        -10.398276121488514
      ],
      [
        "corpra",
        -10.398443903970943
      ],
      [
        "iomláine",
        -10.399063874428366
      ],
      [
        "66",
        -10.399179404071575
      ],
      [
        "fostaí",
        -10.399558007511857
      ],
      [
        "comhionann",
        -10.3996193896797
      ],
      [
        "chruinniú",
        -10.399891294129178
      ],
      [
        "400",
        -10.40005340864198
      ],
      [
        "laíonn",
        -10.40069379503808
      ],
      [
        "mbainfid",
        -10.400724010995233
      ],
      [
        "nádúr",
        -10.400993355634487
      ],
      [
        "Náisiún",
        -10.401000209432326
      ],
      [
        "wi",
        -10.401840432978007
      ],
      [
        "críochnaithe",
        -10.402350087838244
      ],
      [
        "OS",
        -10.403027190112967
      ],
      [
        "haois",
        -10.40314954240177
      ],
      [
        "vóta",
        -10.404508978886057
      ],
      [
        "inmhuirearaithe",
        -10.405762301748386
      ],
      [
        "Bosca",
        -10.405804486624476
      ],
      [
        "ID",
        -10.40603712724091
      ],
      [
        "chuma",
        -10.406994517828135
      ],
      [
        "Rialú",
        -10.407381269430784
      ],
      [
        "out",
        -10.40793179140617
      ],
      [
        "cháilíocht",
        -10.40800969362715
      ],
      [
        "MP",
        -10.410002231035506
      ],
      [
        "Uathoibríoch",
        -10.41026132506698
      ],
      [
        "Choinbhinsiú",
        -10.410261325120462
      ],
      [
        "creidiúna",
        -10.410261937203362
      ],
      [
        "éifeachtúlacht",
        -10.410587469473366
      ],
      [
        "comhar",
        -10.411012446248808
      ],
      [
        "gcomhlacht",
        -10.411417212153024
      ],
      [
        "City",
        -10.412993198490955
      ],
      [
        "Airgead",
        -10.413379276494243
      ],
      [
        "fhoca",
        -10.413523999294844
      ],
      [
        "rom",
        -10.41383989424007
      ],
      [
        "cruthaithe",
        -10.414498630151392
      ],
      [
        "Iarratais",
        -10.414787982679274
      ],
      [
        "MB",
        -10.414875251239401
      ],
      [
        "sruth",
        -10.415721891927703
      ],
      [
        "Teaghla",
        -10.416301860746046
      ],
      [
        "1998",
        -10.416374170407092
      ],
      [
        "fhoirgn",
        -10.416535394988324
      ],
      [
        "heagraíochta",
        -10.416763188629773
      ],
      [
        "ríomhphost",
        -10.4175695083104
      ],
      [
        "cos",
        -10.417570160315384
      ],
      [
        "Soch",
        -10.417952771067661
      ],
      [
        "chomhairle",
        -10.419290985252672
      ],
      [
        "Sheirbhís",
        -10.419331670325636
      ],
      [
        "pláta",
        -10.419350045668121
      ],
      [
        "Treorach",
        -10.419630644562435
      ],
      [
        "77",
        -10.419859172420253
      ],
      [
        "ugg",
        -10.420338342113858
      ],
      [
        "fhomhír",
        -10.421567380709469
      ],
      [
        "cathaoirleach",
        -10.421822128397617
      ],
      [
        "TE",
        -10.42286454829734
      ],
      [
        "u13",
        -10.42332041643335
      ],
      [
        "gcuirfí",
        -10.423898096310666
      ],
      [
        "chóireáil",
        -10.424087772327612
      ],
      [
        "cuimsitheach",
        -10.424555402219287
      ],
      [
        "lactha",
        -10.424674969007555
      ],
      [
        "geal",
        -10.426446935244897
      ],
      [
        "gcumas",
        -10.426585596154741
      ],
      [
        "Gearr",
        -10.426967164811012
      ],
      [
        "52",
        -10.427034666065744
      ],
      [
        "maoirseacht",
        -10.42848510162343
      ],
      [
        "vitimín",
        -10.428485866537446
      ],
      [
        "trá",
        -10.428853125471015
      ],
      [
        "bhfoireann",
        -10.429359673283976
      ],
      [
        "mhonar",
        -10.429511018335095
      ],
      [
        "Sráid",
        -10.429804265108562
      ],
      [
        "blas",
        -10.42984339630571
      ],
      [
        "Chorca",
        -10.430136593245056
      ],
      [
        "ochta",
        -10.430992892082974
      ],
      [
        "sk",
        -10.432203231978015
      ],
      [
        "gCuideachta",
        -10.432445471787489
      ],
      [
        "je",
        -10.43248701357526
      ],
      [
        "Ginearál",
        -10.4331312059347
      ],
      [
        "spéis",
        -10.43318079916838
      ],
      [
        "2002",
        -10.433407984012929
      ],
      [
        "scair",
        -10.433785108580384
      ],
      [
        "úinéireacht",
        -10.434050399194888
      ],
      [
        "deonach",
        -10.436028517437165
      ],
      [
        "éad",
        -10.43644590724517
      ],
      [
        "ráitis",
        -10.437065297018728
      ],
      [
        "wood",
        -10.437908943649148
      ],
      [
        "u18",
        -10.438428886524711
      ],
      [
        "astaíochta",
        -10.438599828701065
      ],
      [
        "ven",
        -10.438867811038042
      ],
      [
        "thalamh",
        -10.43898861332709
      ],
      [
        "DO",
        -10.440078834728554
      ],
      [
        "scrúd",
        -10.44086283859411
      ],
      [
        "scoir",
        -10.440886626203849
      ],
      [
        "AP",
        -10.441150349090059
      ],
      [
        "fhaightea",
        -10.442131100469554
      ],
      [
        "Éisteachta",
        -10.44333079409768
      ],
      [
        "próis",
        -10.444091456057357
      ],
      [
        "feistí",
        -10.444126024087442
      ],
      [
        "thabharfa",
        -10.444482924975915
      ],
      [
        "Ailt",
        -10.444637902328552
      ],
      [
        "príomha",
        -10.444981950221852
      ],
      [
        "Luain",
        -10.44574910336349
      ],
      [
        "scaipea",
        -10.446822940590936
      ],
      [
        "creat",
        -10.447535096057251
      ],
      [
        "thástáil",
        -10.448074078674516
      ],
      [
        "earnálach",
        -10.448425151202986
      ],
      [
        "Coinbhinsiú",
        -10.448819923027033
      ],
      [
        "leasaítear",
        -10.44891107442433
      ],
      [
        "choinne",
        -10.449386308188862
      ],
      [
        "bhfaighid",
        -10.44975224655111
      ],
      [
        "cóireáil",
        -10.451848524696949
      ],
      [
        "Ciallaíonn",
        -10.45188966176206
      ],
      [
        "greannmhar",
        -10.452018358694641
      ],
      [
        "Cíocha",
        -10.452155048832953
      ],
      [
        "xxx",
        -10.452281762196616
      ],
      [
        "king",
        -10.45242862572101
      ],
      [
        "míleata",
        -10.452623035466551
      ],
      [
        "fheidhmeanna",
        -10.45370355105052
      ],
      [
        "Ball",
        -10.454207749216492
      ],
      [
        "teagai",
        -10.454217655565603
      ],
      [
        "stáil",
        -10.455090252894465
      ],
      [
        "luí",
        -10.455182835090199
      ],
      [
        "ullmha",
        -10.45556726887218
      ],
      [
        "e_",
        -10.45582371640851
      ],
      [
        "híocaíochta",
        -10.455888587072877
      ],
      [
        "galánta",
        -10.456460108837799
      ],
      [
        "alúmana",
        -10.456462021569873
      ],
      [
        "eitilt",
        -10.456462042337915
      ],
      [
        "droch",
        -10.456504321257011
      ],
      [
        "WHO",
        -10.456776102730688
      ],
      [
        "thábhachtach",
        -10.457068212055487
      ],
      [
        "chuntasaíocht",
        -10.4574364155465
      ],
      [
        "mban",
        -10.457475147078748
      ],
      [
        "cló",
        -10.457543435114058
      ],
      [
        "cistí",
        -10.457963245964546
      ],
      [
        "Cumarsáide",
        -10.45828069478462
      ],
      [
        "shonró",
        -10.458818645696066
      ],
      [
        "men",
        -10.460389928209974
      ],
      [
        "tionsclaíoch",
        -10.46049875305395
      ],
      [
        "light",
        -10.461132672377865
      ],
      [
        "brabúi",
        -10.461198854321552
      ],
      [
        "sloinne",
        -10.461427013931322
      ],
      [
        "Cuimsi",
        -10.461572287824572
      ],
      [
        "agartha",
        -10.462311040697116
      ],
      [
        "Liúnta",
        -10.46411974788288
      ],
      [
        "athnuachan",
        -10.465960492161397
      ],
      [
        "foirmiú",
        -10.466726427582355
      ],
      [
        "breithiúna",
        -10.466765636437959
      ],
      [
        "áilleacht",
        -10.466878720005216
      ],
      [
        "féachan",
        -10.467463174609492
      ],
      [
        "ju",
        -10.467864101578442
      ],
      [
        "gcéanna",
        -10.46833630064927
      ],
      [
        "tuairisceá",
        -10.468396595276413
      ],
      [
        "85",
        -10.468644616336167
      ],
      [
        "cúise",
        -10.469108580013188
      ],
      [
        "Gearmáinis",
        -10.469354899918313
      ],
      [
        "seachada",
        -10.469471610044181
      ],
      [
        "ríomhaireachta",
        -10.469979045100189
      ],
      [
        "teas",
        -10.470992373446359
      ],
      [
        "punt",
        -10.471891620484516
      ],
      [
        "omhdháil",
        -10.472067716956424
      ],
      [
        "iche",
        -10.472206119046973
      ],
      [
        "ionsaí",
        -10.472267134185657
      ],
      [
        "chuarda",
        -10.47270760972813
      ],
      [
        "qui",
        -10.473048241952029
      ],
      [
        "GA",
        -10.473600055941942
      ],
      [
        "cheada",
        -10.474060768790263
      ],
      [
        "árachai",
        -10.474203672530443
      ],
      [
        "aked",
        -10.474223962556657
      ],
      [
        "Tras",
        -10.475095460771252
      ],
      [
        "criosta",
        -10.475965071076493
      ],
      [
        "bainc",
        -10.477378028101814
      ],
      [
        "foirmeach",
        -10.477525907099885
      ],
      [
        "mhná",
        -10.478111109112156
      ],
      [
        "Meiriceá",
        -10.479131734367572
      ],
      [
        "Charm",
        -10.47981867812273
      ],
      [
        "Tír",
        -10.480293559952123
      ],
      [
        "dochtúir",
        -10.480319807210645
      ],
      [
        "Bréagá",
        -10.480384027358221
      ],
      [
        "Cosaint",
        -10.480390401713183
      ],
      [
        "sho",
        -10.481258989181727
      ],
      [
        "saincheiste",
        -10.481352692624423
      ],
      [
        "liathróid",
        -10.482079346141733
      ],
      [
        "othar",
        -10.482422289797677
      ],
      [
        "Chomhphoba",
        -10.48281216600931
      ],
      [
        "88",
        -10.483122911816409
      ],
      [
        "tarraingt",
        -10.483791706407285
      ],
      [
        "Aonad",
        -10.483794718103326
      ],
      [
        "dlíthiú",
        -10.48413337989541
      ],
      [
        "saorána",
        -10.484464170991702
      ],
      [
        "bhreith",
        -10.484686867471318
      ],
      [
        "moladh",
        -10.485101354598408
      ],
      [
        "Acmhainn",
        -10.485243216817608
      ],
      [
        "eoirí",
        -10.48551897778356
      ],
      [
        "múnla",
        -10.485913842496043
      ],
      [
        "bus",
        -10.486085086261344
      ],
      [
        "54",
        -10.48704638470733
      ],
      [
        "ortha",
        -10.487553665303732
      ],
      [
        "tasc",
        -10.488125418769744
      ],
      [
        "ence",
        -10.488518845789411
      ],
      [
        "MO",
        -10.489288892814473
      ],
      [
        "bhéal",
        -10.490010480505125
      ],
      [
        "ospidé",
        -10.490115795350704
      ],
      [
        "spriocann",
        -10.490856507834359
      ],
      [
        "bhaill",
        -10.490857972057286
      ],
      [
        "lúdach",
        -10.491193497561461
      ],
      [
        "Dúrad",
        -10.491391892130972
      ],
      [
        "fhostaíocht",
        -10.491555250727519
      ],
      [
        "mheasúnachta",
        -10.4915613133149
      ],
      [
        "ibhir",
        -10.491885377728657
      ],
      [
        "chónaithe",
        -10.49193088352499
      ],
      [
        "96",
        -10.493476172710151
      ],
      [
        "VI",
        -10.49385904577533
      ],
      [
        "hárta",
        -10.494090659827744
      ],
      [
        "tré",
        -10.494591013594679
      ],
      [
        "hion",
        -10.49530668624477
      ],
      [
        "OL",
        -10.495540043082453
      ],
      [
        "fer",
        -10.495677942090907
      ],
      [
        "Eagraíocht",
        -10.496028298653794
      ],
      [
        "hArd",
        -10.496163696114094
      ],
      [
        "cúramach",
        -10.49638553899306
      ],
      [
        "198",
        -10.496807444722464
      ],
      [
        "foilsío",
        -10.496882409581971
      ],
      [
        "aimsir",
        -10.496939484127562
      ],
      [
        "shealbhú",
        -10.497234173573895
      ],
      [
        "ting",
        -10.49739338778097
      ],
      [
        "Chill",
        -10.497815515388988
      ],
      [
        "olex",
        -10.49795703431979
      ],
      [
        "bain",
        -10.498086218342376
      ],
      [
        "taisí",
        -10.498243674113976
      ],
      [
        "éinn",
        -10.498841711162598
      ],
      [
        "nuashonrú",
        -10.498887432985445
      ],
      [
        "imp",
        -10.499057781436644
      ],
      [
        "buala",
        -10.499795838605237
      ],
      [
        "Gluaiseacht",
        -10.499956775019653
      ],
      [
        "tur",
        -10.501055199199048
      ],
      [
        "pu",
        -10.501826881283115
      ],
      [
        "68",
        -10.502159582035212
      ],
      [
        "polasa",
        -10.502391757456078
      ],
      [
        "háite",
        -10.502619527840952
      ],
      [
        "tom",
        -10.502664641955626
      ],
      [
        "Dath",
        -10.502690938835844
      ],
      [
        "PR",
        -10.502910602734428
      ],
      [
        "teilifíse",
        -10.503463210688867
      ],
      [
        "druga",
        -10.50390931365353
      ],
      [
        "istí",
        -10.504692666586067
      ],
      [
        "déantúsaíocht",
        -10.504894547697162
      ],
      [
        "stylish",
        -10.504912021476336
      ],
      [
        "siúcra",
        -10.504912728875698
      ],
      [
        "Grianchlo",
        -10.504951588718367
      ],
      [
        "dhiailiú",
        -10.506893229875148
      ],
      [
        "ste",
        -10.506909950095725
      ],
      [
        "bháis",
        -10.507100975261302
      ],
      [
        "buiséad",
        -10.507654479920674
      ],
      [
        "Ceada",
        -10.507740586169282
      ],
      [
        "Be",
        -10.508592711808308
      ],
      [
        "Athbhreithni",
        -10.509445372298657
      ],
      [
        "astu",
        -10.509867671112087
      ],
      [
        "erotic",
        -10.509894115261641
      ],
      [
        "fhás",
        -10.50999454458853
      ],
      [
        "smacht",
        -10.510438294522144
      ],
      [
        "faoisea",
        -10.511104749926135
      ],
      [
        "cumarsáid",
        -10.511179374271022
      ],
      [
        "cloch",
        -10.512489154018008
      ],
      [
        "bréagá",
        -10.512496664907946
      ],
      [
        "Cearta",
        -10.512797152178669
      ],
      [
        "mhalartú",
        -10.513040931516365
      ],
      [
        "ure",
        -10.513043771663739
      ],
      [
        "ick",
        -10.51324389356368
      ],
      [
        "Cons",
        -10.51371602295712
      ],
      [
        "príobháideach",
        -10.514798224024256
      ],
      [
        "Fhorbairt",
        -10.51486949451468
      ],
      [
        "Uaireadóirí",
        -10.514869761330445
      ],
      [
        "reacht",
        -10.514877096264447
      ],
      [
        "dhliteana",
        -10.514879578581922
      ],
      [
        "éigeandála",
        -10.51489550049271
      ],
      [
        "dtag",
        -10.515967661895
      ],
      [
        "Iodáil",
        -10.517366904946897
      ],
      [
        "baineann",
        -10.517621382305483
      ],
      [
        "ochtana",
        -10.518814204882695
      ],
      [
        "ionadaíocht",
        -10.519705955911032
      ],
      [
        "díospóireacht",
        -10.520033266756123
      ],
      [
        "sceideal",
        -10.520520961332078
      ],
      [
        "meicniúil",
        -10.52083563646944
      ],
      [
        "bhail",
        -10.521789170075948
      ],
      [
        "feidhmíochta",
        -10.521794753536298
      ],
      [
        "Áitiú",
        -10.521918385890823
      ],
      [
        "ghnéas",
        -10.522215212010815
      ],
      [
        "ceadúnais",
        -10.522664487513014
      ],
      [
        "nuálaíocht",
        -10.522781572575196
      ],
      [
        "cruthaío",
        -10.523101887285296
      ],
      [
        "Eolaíochta",
        -10.523125444437579
      ],
      [
        "98",
        -10.523705366209512
      ],
      [
        "Comhionanna",
        -10.524962985140979
      ],
      [
        "choigeartú",
        -10.525215625582524
      ],
      [
        "aigéad",
        -10.525496950219427
      ],
      [
        "eol",
        -10.52565481740423
      ],
      [
        "PS",
        -10.526181749243158
      ],
      [
        "Bán",
        -10.526455136971581
      ],
      [
        "chta",
        -10.526691334412863
      ],
      [
        "ráid",
        -10.527244973817414
      ],
      [
        "bpost",
        -10.527961238469675
      ],
      [
        "chán",
        -10.528618977924483
      ],
      [
        "mB",
        -10.528967608447779
      ],
      [
        "Bunaío",
        -10.529259116088935
      ],
      [
        "info",
        -10.529275384911147
      ],
      [
        "eolaíoch",
        -10.529997562013639
      ],
      [
        "use",
        -10.530811541420258
      ],
      [
        "Slándá",
        -10.531323245374129
      ],
      [
        "ceangal",
        -10.532203996562899
      ],
      [
        "51",
        -10.533994369229985
      ],
      [
        "Tuairisc",
        -10.53445261648828
      ],
      [
        "margai",
        -10.534701006789799
      ],
      [
        "150",
        -10.534710872732985
      ],
      [
        "daonna",
        -10.534885109500078
      ],
      [
        "Seice",
        -10.534919362614175
      ],
      [
        "asturbating",
        -10.535123295502308
      ],
      [
        "Raidi",
        -10.535126126768269
      ],
      [
        "Uachtaránacht",
        -10.535319495289677
      ],
      [
        "oghcháin",
        -10.53580099676671
      ],
      [
        "gcomhthéacs",
        -10.536203315703805
      ],
      [
        "67",
        -10.536853037388095
      ],
      [
        "ky",
        -10.536875264308692
      ],
      [
        "mhíchumas",
        -10.53757507241086
      ],
      [
        "marc",
        -10.537714272343107
      ],
      [
        "thionscada",
        -10.537964714943918
      ],
      [
        "riocht",
        -10.538395516073564
      ],
      [
        "chríochnú",
        -10.538544514453292
      ],
      [
        "Oifigeach",
        -10.538713486415144
      ],
      [
        "Oileán",
        -10.538956723938856
      ],
      [
        "dhiúscairt",
        -10.540251510245547
      ],
      [
        "bóithr",
        -10.540263338916638
      ],
      [
        "dhaingniú",
        -10.540280383134643
      ],
      [
        "chas",
        -10.5431814379827
      ],
      [
        "ceannair",
        -10.543446079562768
      ],
      [
        "Rang",
        -10.54386455462646
      ],
      [
        "Teagmhá",
        -10.545064687274369
      ],
      [
        "lógó",
        -10.54542171953882
      ],
      [
        "billiú",
        -10.545522077916296
      ],
      [
        "64",
        -10.545586278191562
      ],
      [
        "cialluíonn",
        -10.545706261585243
      ],
      [
        "cionta",
        -10.545811017170871
      ],
      [
        "asadh",
        -10.546473514483559
      ],
      [
        "Taith",
        -10.546536078572913
      ],
      [
        "ix",
        -10.547477994332004
      ],
      [
        "Faisnéis",
        -10.547767068848419
      ],
      [
        "scáth",
        -10.548156081084059
      ],
      [
        "EC",
        -10.548351171258151
      ],
      [
        "ku",
        -10.548772096916805
      ],
      [
        "cro",
        -10.551521942844078
      ],
      [
        "iarnró",
        -10.551632546636435
      ],
      [
        "poll",
        -10.551709653616637
      ],
      [
        "bhord",
        -10.552084241923426
      ],
      [
        "Méid",
        -10.55253549251789
      ],
      [
        "uímh",
        -10.553010109617285
      ],
      [
        "Inter",
        -10.553276679572134
      ],
      [
        "eachtrach",
        -10.553824757626906
      ],
      [
        "iontair",
        -10.55424902032389
      ],
      [
        "taispeánta",
        -10.554304668477407
      ],
      [
        "aithne",
        -10.554739857799794
      ],
      [
        "adóirí",
        -10.555316448400294
      ],
      [
        "skin",
        -10.555678447844413
      ],
      [
        "med",
        -10.556044530384963
      ],
      [
        "ige",
        -10.556078355423177
      ],
      [
        "ME",
        -10.556091694865337
      ],
      [
        "Strap",
        -10.55638514225591
      ],
      [
        "straitéiseach",
        -10.55796003910708
      ],
      [
        "cliste",
        -10.558518359246015
      ],
      [
        "úcháin",
        -10.558840950366845
      ],
      [
        "ceangailte",
        -10.55891208751026
      ],
      [
        "cearn",
        -10.559107975310324
      ],
      [
        "ghné",
        -10.559551295445889
      ],
      [
        "trom",
        -10.559775796549044
      ],
      [
        "stórála",
        -10.559902484168408
      ],
      [
        "ceimiceach",
        -10.561123546933075
      ],
      [
        "gaolmhar",
        -10.561158122432985
      ],
      [
        "bhformáid",
        -10.561461122985815
      ],
      [
        "tarchur",
        -10.561614779609517
      ],
      [
        "bunú",
        -10.562378431016995
      ],
      [
        "CBL",
        -10.563267791568672
      ],
      [
        "Deir",
        -10.563453238002925
      ],
      [
        "Thug",
        -10.563745622369552
      ],
      [
        "SPC",
        -10.56422600728881
      ],
      [
        "áthas",
        -10.564494168092995
      ],
      [
        "Teicneolaíochta",
        -10.564919621348379
      ],
      [
        "Ós",
        -10.564934921450382
      ],
      [
        "seans",
        -10.56503790832761
      ],
      [
        "choinníollach",
        -10.565745095321478
      ],
      [
        "ranga",
        -10.565930604220279
      ],
      [
        "ribh",
        -10.56607990422819
      ],
      [
        "European",
        -10.56609556102308
      ],
      [
        "chónaí",
        -10.566123008713127
      ],
      [
        "muinín",
        -10.566153704890255
      ],
      [
        "ceadú",
        -10.566250315903565
      ],
      [
        "Airgi",
        -10.566352472331562
      ],
      [
        "bhfolach",
        -10.566385821492606
      ],
      [
        "láidre",
        -10.566488262959822
      ],
      [
        "Stíl",
        -10.566615690305806
      ],
      [
        "87",
        -10.567603819402159
      ],
      [
        "Cáin",
        -10.56765873236795
      ],
      [
        "Bhean",
        -10.567992583634961
      ],
      [
        "ze",
        -10.568404149474992
      ],
      [
        "comhpháirte",
        -10.570256692933713
      ],
      [
        "inniúla",
        -10.570548538739548
      ],
      [
        "ions",
        -10.570772294122557
      ],
      [
        "hainmneach",
        -10.571162053864606
      ],
      [
        "comhshao",
        -10.571306572708721
      ],
      [
        "íosta",
        -10.571435709482696
      ],
      [
        "Soláthraío",
        -10.571553981487826
      ],
      [
        "Tiocfai",
        -10.571585805392646
      ],
      [
        "fabraic",
        -10.571586442053096
      ],
      [
        "mheasúnú",
        -10.571593586038158
      ],
      [
        "Threoir",
        -10.571602246206261
      ],
      [
        "You",
        -10.571900459598384
      ],
      [
        "Líon",
        -10.572037390793884
      ],
      [
        "Cumhacht",
        -10.572072257902821
      ],
      [
        "gadh",
        -10.5727628296248
      ],
      [
        "resistan",
        -10.572845831477643
      ],
      [
        "House",
        -10.573284197791349
      ],
      [
        "Preasráit",
        -10.574488064557782
      ],
      [
        "srianta",
        -10.57453824620649
      ],
      [
        "oistí",
        -10.574999072967257
      ],
      [
        "comhartha",
        -10.57563730893856
      ],
      [
        "Eile",
        -10.575759577344627
      ],
      [
        "Tacaíocht",
        -10.57615591178011
      ],
      [
        "imthosca",
        -10.576319307009298
      ],
      [
        "Áit",
        -10.576744251875114
      ],
      [
        "Athrú",
        -10.57707530223913
      ],
      [
        "mháthair",
        -10.577184870582592
      ],
      [
        "inneal",
        -10.577186322551668
      ],
      [
        "oine",
        -10.57720670815429
      ],
      [
        "saoil",
        -10.577311416289486
      ],
      [
        "ainmniúchá",
        -10.577487133752808
      ],
      [
        "u22",
        -10.577489941208135
      ],
      [
        "Phoba",
        -10.577654744254556
      ],
      [
        "phríobháideach",
        -10.577921924554209
      ],
      [
        "gairm",
        -10.579512159619057
      ],
      [
        "foláir",
        -10.579551488347743
      ],
      [
        "doras",
        -10.580228146960046
      ],
      [
        "bheart",
        -10.580633014323224
      ],
      [
        "Fheidhmiú",
        -10.580731219472593
      ],
      [
        "faisean",
        -10.581619768656592
      ],
      [
        "vótáil",
        -10.582450321347736
      ],
      [
        "Cu",
        -10.582714036119011
      ],
      [
        "Mhic",
        -10.58317338781081
      ],
      [
        "nasctha",
        -10.583523266284644
      ],
      [
        "bpáirt",
        -10.583599775863616
      ],
      [
        "uainn",
        -10.58365491603156
      ],
      [
        "ionstraimí",
        -10.583822742727289
      ],
      [
        "thiocfaid",
        -10.585224194583223
      ],
      [
        "saoirse",
        -10.586000813344318
      ],
      [
        "dtír",
        -10.58633753405916
      ],
      [
        "thiomáint",
        -10.586550883211789
      ],
      [
        "Taispeánta",
        -10.587628670910242
      ],
      [
        "hEORPA",
        -10.587628671024824
      ],
      [
        "sláintiú",
        -10.587631033289469
      ],
      [
        "bhrabhsála",
        -10.58780372423911
      ],
      [
        "u19",
        -10.587912967699893
      ],
      [
        "pol",
        -10.58835984709139
      ],
      [
        "Che",
        -10.589043349557814
      ],
      [
        "gcruinni",
        -10.589349175755117
      ],
      [
        "cor",
        -10.589490448982719
      ],
      [
        "soicind",
        -10.589679307492105
      ],
      [
        "olc",
        -10.590731416502264
      ],
      [
        "val",
        -10.591332237870903
      ],
      [
        "riail",
        -10.591915439873869
      ],
      [
        "193",
        -10.5922805304482
      ],
      [
        "Jacket",
        -10.592492875190963
      ],
      [
        "TV",
        -10.592617483467773
      ],
      [
        "Próifíl",
        -10.59303407632294
      ],
      [
        "ghréasáin",
        -10.593034076353241
      ],
      [
        "bhóthar",
        -10.5930767468192
      ],
      [
        "Tuirc",
        -10.593089630149365
      ],
      [
        "óiste",
        -10.593163084709511
      ],
      [
        "Christian",
        -10.593185372317105
      ],
      [
        "réigiúnach",
        -10.593214469404188
      ],
      [
        "theaghla",
        -10.593215504175395
      ],
      [
        "gréin",
        -10.59394622054267
      ],
      [
        "cothabháil",
        -10.594058181366664
      ],
      [
        "u11",
        -10.594242060264424
      ],
      [
        "Aer",
        -10.595598124018686
      ],
      [
        "eoir",
        -10.595687513526945
      ],
      [
        "áileadh",
        -10.595708437483752
      ],
      [
        "78",
        -10.595777349175586
      ],
      [
        "físe",
        -10.597304029585239
      ],
      [
        "aigheann",
        -10.598000942251064
      ],
      [
        "seolta",
        -10.598548671979591
      ],
      [
        "muirir",
        -10.5985571290496
      ],
      [
        "Caith",
        -10.59859428105434
      ],
      [
        "tsráid",
        -10.598637293311608
      ],
      [
        "fíon",
        -10.599747296670103
      ],
      [
        "gníomhaireachta",
        -10.600081258217227
      ],
      [
        "idirbheart",
        -10.600083231987762
      ],
      [
        "gcomhalta",
        -10.600325942065439
      ],
      [
        "oibrí",
        -10.600430650551829
      ],
      [
        "laigh",
        -10.601072560274105
      ],
      [
        "AGU",
        -10.601235104304763
      ],
      [
        "próifíl",
        -10.601312070293297
      ],
      [
        "áir",
        -10.601659928402043
      ],
      [
        "Tabharfa",
        -10.60174343611858
      ],
      [
        "Tóg",
        -10.60276540250641
      ],
      [
        "caipiti",
        -10.603799037629226
      ],
      [
        "ARLAIMINT",
        -10.603933339773233
      ],
      [
        "shibhialta",
        -10.603937341788077
      ],
      [
        "Life",
        -10.604084372448188
      ],
      [
        "páirteanna",
        -10.604305711166248
      ],
      [
        "ucking",
        -10.6045764752522
      ],
      [
        "laoch",
        -10.60466068989957
      ],
      [
        "cruinnea",
        -10.604744416616935
      ],
      [
        "stra",
        -10.604969643446573
      ],
      [
        "tarlú",
        -10.604973382305719
      ],
      [
        "chathaoirleach",
        -10.605091998895563
      ],
      [
        "próiseáil",
        -10.605201734020394
      ],
      [
        "tharchur",
        -10.605224699748621
      ],
      [
        "63",
        -10.605358396089763
      ],
      [
        "faireachá",
        -10.605469656420972
      ],
      [
        "Spáinn",
        -10.60552343022843
      ],
      [
        "Éireannacha",
        -10.607276223399971
      ],
      [
        "chathai",
        -10.607369369795933
      ],
      [
        "u20",
        -10.607872858347818
      ],
      [
        "Ion",
        -10.608792011167022
      ],
      [
        "Oiliúna",
        -10.609427864928705
      ],
      [
        "idirdhealú",
        -10.609427891983557
      ],
      [
        "bláth",
        -10.609475868106152
      ],
      [
        "hard",
        -10.60977393098514
      ],
      [
        "híoc",
        -10.610242713695941
      ],
      [
        "Chomhaont",
        -10.610823147961069
      ],
      [
        "léasair",
        -10.610831234277546
      ],
      [
        "BBC",
        -10.61213448128488
      ],
      [
        "off",
        -10.612688941061268
      ],
      [
        "daingea",
        -10.6127866392818
      ],
      [
        "gceannas",
        -10.61406663311081
      ],
      [
        "mbaol",
        -10.614081313940693
      ],
      [
        "roinnte",
        -10.615017559852747
      ],
      [
        "Council",
        -10.615397939763682
      ],
      [
        "Teasta",
        -10.615561760307335
      ],
      [
        "CNC",
        -10.615749655716971
      ],
      [
        "mhian",
        -10.61575073522096
      ],
      [
        "CR",
        -10.615796770407218
      ],
      [
        "Fraincis",
        -10.617093594369397
      ],
      [
        "bhforbairt",
        -10.617621608220567
      ],
      [
        "Bu",
        -10.617735034633906
      ],
      [
        "53",
        -10.617825615880772
      ],
      [
        "iontrála",
        -10.617900013728729
      ],
      [
        "92",
        -10.618175753597743
      ],
      [
        "shonrú",
        -10.618766657294358
      ],
      [
        "sreabha",
        -10.619039541622097
      ],
      [
        "Múinteoir",
        -10.619954269140493
      ],
      [
        "ley",
        -10.619967894228406
      ],
      [
        "Times",
        -10.620313613602267
      ],
      [
        "suí",
        -10.620440490366033
      ],
      [
        "malartach",
        -10.620770714988154
      ],
      [
        "Mens",
        -10.620974295205855
      ],
      [
        "Tabharfai",
        -10.622765852663825
      ],
      [
        "shon",
        -10.622919562127521
      ],
      [
        "Mon",
        -10.624150226228448
      ],
      [
        "SI",
        -10.62422063901626
      ],
      [
        "srian",
        -10.624640751476527
      ],
      [
        "Press",
        -10.625953958293465
      ],
      [
        "Masturbate",
        -10.626094854890162
      ],
      [
        "Bracelet",
        -10.626094899205633
      ],
      [
        "thomhas",
        -10.626096553147729
      ],
      [
        "saintréithe",
        -10.62615028699758
      ],
      [
        "way",
        -10.62645546837587
      ],
      [
        "arbh",
        -10.62646765154239
      ],
      [
        "Garda",
        -10.626502113130298
      ],
      [
        "gealltana",
        -10.626589121229244
      ],
      [
        "measta",
        -10.6270775975905
      ],
      [
        "céile",
        -10.627908543421288
      ],
      [
        "mionsonra",
        -10.628133937699257
      ],
      [
        "cháil",
        -10.63012757784169
      ],
      [
        "oibriúcháin",
        -10.630157969355178
      ],
      [
        "aiteachais",
        -10.630426767676964
      ],
      [
        "s_",
        -10.630488442442726
      ],
      [
        "roghnaithe",
        -10.63131804971658
      ],
      [
        "www",
        -10.631713343171777
      ],
      [
        "iniúchta",
        -10.631779090564594
      ],
      [
        "phinsin",
        -10.631902125535463
      ],
      [
        "hoifig",
        -10.632724738595321
      ],
      [
        "fhreagairt",
        -10.635336010323389
      ],
      [
        "dóiteá",
        -10.635705532726007
      ],
      [
        "Anal",
        -10.635955495263357
      ],
      [
        "Oileá",
        -10.636881989248288
      ],
      [
        "sceimhlitheoir",
        -10.637362549929897
      ],
      [
        "ghearrthóg",
        -10.63739241512864
      ],
      [
        "urscaoilea",
        -10.637631281229538
      ],
      [
        "Allah",
        -10.637907301281968
      ],
      [
        "89",
        -10.63807193143278
      ],
      [
        "comharthaí",
        -10.639497535740471
      ],
      [
        "CP",
        -10.640925313905237
      ],
      [
        "reachtach",
        -10.641044335077293
      ],
      [
        "Léin",
        -10.641425434012996
      ],
      [
        "pm",
        -10.641510422199122
      ],
[...]
