<unk>	0
<s>	0
</s>	0
,	-3.43278
▁an	-3.43446
▁a	-3.45166
▁ar	-3.70486
.	-3.8074
▁agus	-3.93165
▁na	-4.16069
▁	-4.41676
▁le	-4.55521
▁i	-4.57415
-	-4.81234
▁go	-4.90044
▁@	-4.9317
▁seo	-4.9654
▁tú	-5.11079
▁do	-5.11991
▁ag	-5.13865
▁nó	-5.20193
▁(	-5.20808
▁de	-5.21241
)	-5.25991
▁bhfuil	-5.32051
▁leis	-5.34509
▁d	-5.35546
r	-5.45052
▁chun	-5.4585
▁sin	-5.46398
▁is	-5.4647
▁An	-5.47047
▁in	-5.47596
'	-5.62247
▁ó	-5.66682
▁leat	-5.68425
▁C	-5.69598
a	-5.703
:	-5.72809
?	-5.75457
s	-5.76839
▁é	-5.76911
▁sé	-5.77751
▁gur	-5.81638
▁atá	-5.88227
▁sa	-5.88759
▁cosc	-5.89614
▁den	-5.90645
▁Tweetanna	-5.93998
▁mar	-5.95186
▁Is	-5.97436
▁-	-6.01517
▁aon	-6.05178
▁féidir	-6.05686
▁mhaith	-6.06447
▁faoi	-6.08221
▁cinnte	-6.08496
▁Tá	-6.09434
▁breathnú	-6.09993
▁Chuir	-6.10639
▁Meáin	-6.12604
;	-6.20114
▁eile	-6.23278
▁n	-6.23547
▁t	-6.26366
▁tá	-6.26819
▁dhéanamh	-6.27273
▁chur	-6.30419
’	-6.30884
▁bheith	-6.31707
▁ina	-6.33324
í	-6.37162
e	-6.39423
▁don	-6.44059
▁duine	-6.44625
▁Tuilleadh	-6.4674
▁maidi	-6.4999
▁deimhnithe	-6.51333
▁saor	-6.52749
▁as	-6.54123
▁níos	-6.56576
▁nasc	-6.58042
▁gach	-6.5816
▁trí	-6.58228
▁aisce	-6.58937
n	-6.59953
Cuntas	-6.62976
▁Ní	-6.63197
▁ón	-6.64561
óipeáil	-6.65327
▁san	-6.66231
_	-6.66452
▁nach	-6.67114
▁F	-6.69991
▁ach	-6.72721
▁ná	-6.73247
▁porn	-6.74519
▁maith	-6.74876
b	-6.76012
▁haghaidh	-6.77784
▁lena	-6.79657
▁fáil	-6.79937
▁dá	-6.808
▁mó	-6.8184
▁chloig	-6.83143
▁ann	-6.83385
▁leanúna	-6.85382
▁Ar	-6.85528
▁iad	-6.85673
▁chuid	-6.85673
▁réir	-6.85869
▁shin	-6.8617
▁ní	-6.86493
▁u	-6.88195
▁tweet	-6.91006
▁I	-6.94999
▁Ag	-6.95412
▁amháin	-6.95875
▁nua	-6.96231
dh	-6.96292
▁bheidh	-6.97418
▁alt	-6.97878
▁D	-7.00283
▁amach	-7.0071
▁úsáid	-7.00744
▁uair	-7.01226
▁siad	-7.0253
▁–	-7.03185
▁thabhairt	-7.04505
▁gan	-7.05084
▁líne	-7.05108
▁um	-7.05404
c	-7.05409
ú	-7.06281
oisc	-7.07745
▁Cuir	-7.10766
▁féin	-7.11722
▁Dích	-7.12575
▁raibh	-7.142
▁mór	-7.14274
▁“	-7.14617
íonn	-7.16769
▁éis	-7.17076
▁cheannach	-7.17303
▁A	-7.17453
▁faoin	-7.17585
alt	-7.1769
▁cineál	-7.17871
▁leith	-7.18659
▁lá	-7.1892
d	-7.19894
▁Féach	-7.19989
▁isteach	-7.20855
▁á	-7.21167
▁1	-7.21227
igh	-7.21265
▁daoine	-7.22307
▁fháil	-7.22555
▁fearr	-7.23641
▁chomh	-7.26211
▁beidh	-7.26358
!	-7.26359
▁gcás	-7.26835
▁rud	-7.27703
▁focal	-7.28566
▁bhí	-7.29642
▁acu	-7.30041
▁nGaeilge	-7.32678
▁suíomh	-7.33392
▁Acht	-7.33696
▁freagra	-7.33926
ealaigh	-7.34902
▁ár	-7.35133
i	-7.3526
▁mbeidh	-7.35523
▁HD	-7.35747
t	-7.35982
▁B	-7.38074
ann	-7.38463
▁sainmhíniú	-7.38909
▁2	-7.38915
▁tar	-7.39599
iallach	-7.39692
▁bríonna	-7.39708
iarratas	-7.3982
▁linn	-7.39978
ir	-7.40194
▁fuaimniú	-7.40327
▁T	-7.40429
▁fhrithch	-7.40755
▁comhchiallaigh	-7.40862
”	-7.42371
▁3	-7.44776
▁anseo	-7.45197
▁freisin	-7.45422
▁h	-7.45449
▁méid	-7.45929
▁má	-7.46358
an	-7.47645
▁dtí	-7.48812
in	-7.49478
▁anois	-7.49516
▁dul	-7.49907
▁Le	-7.50118
▁chéad	-7.51096
▁tabhairt	-7.51426
▁leanas	-7.51648
com	-7.52052
▁ceal	-7.52346
▁duit	-7.52935
▁ceart	-7.53302
/	-7.53372
...	-7.53748
▁"	-7.53919
▁feitheamh	-7.54172
▁Iarratas	-7.54664
▁idir	-7.54982
eitheamh	-7.56469
▁gá	-7.56968
▁sna	-7.58402
▁bhaineann	-7.59101
▁bhainfea	-7.60092
▁(2)	-7.60209
▁bhreathnú	-7.61162
▁Mar	-7.6118
▁ceann	-7.61325
▁nuair	-7.61329
▁/	-7.6205
▁aghaidh	-7.62943
h	-7.63276
▁agat	-7.64394
▁Eorpach	-7.64482
is	-7.65
▁sonraí	-7.6521
▁chuig	-7.65843
m	-7.66291
▁no	-7.66369
▁Gaeilge	-7.666
▁roimh	-7.66898
▁roinnt	-7.67286
▁iomlán	-7.67395
▁bhaint	-7.67604
▁dáta	-7.68135
▁S	-7.68706
▁obair	-7.6882
ach	-7.689
A	-7.6948
▁ba	-7.69626
▁Beidh	-7.70377
▁gréasáin	-7.70631
▁5	-7.71164
ch	-7.71428
▁Roinn	-7.72458
▁0	-7.72937
▁tréimhse	-7.73402
]	-7.73583
▁í	-7.73624
▁4	-7.73651
▁cur	-7.74588
▁sí	-7.74717
C	-7.74967
tear	-7.7545
▁hÉireann	-7.75556
▁cluiche	-7.75671
▁éagsúla	-7.75782
▁arna	-7.7624
▁bhfeidhm	-7.7644
▁Twitter	-7.76773
▁cheart	-7.77895
▁físeáin	-7.78468
▁dhaoine	-7.79409
▁[	-7.7963
▁6	-7.7995
▁Aontais	-7.80895
ing	-7.80913
▁síos	-7.81113
▁am	-7.81217
▁scoth	-7.81416
▁hEorpa	-7.81458
▁mé	-7.82787
▁chéile	-7.82845
▁cinn	-7.83141
▁air	-7.8377
▁aige	-7.83962
▁físeán	-7.84181
y	-7.8421
▁áirithe	-7.84524
▁caighdeán	-7.85046
▁Má	-7.85477
EN	-7.86137
▁bith	-7.86982
▁leor	-7.87343
▁c	-7.87952
il	-7.87957
▁áit	-7.88697
▁teacht	-7.897
—	-7.89928
▁Nua	-7.90251
B	-7.90316
lacha	-7.90496
S	-7.91324
▁Lean	-7.91992
"	-7.92009
▁fásta	-7.92014
▁Ba	-7.92231
▁láthair	-7.92517
l	-7.93315
▁bhliain	-7.93523
▁leo	-7.94382
▁18	-7.94648
▁8	-7.94954
▁cheana	-7.95166
▁&	-7.95216
▁Go	-7.95295
▁Aire	-7.95584
▁léir	-7.95785
▁cheann	-7.96537
▁féachaint	-7.96809
▁Iúil	-7.97616
áirítear	-7.97793
▁Coiscthe	-7.9829
3	-7.9863
▁Tweet	-7.98942
▁bliana	-7.9895
adh	-7.9926
▁(3)	-8.00039
atweetá	-8.00344
▁tAire	-8.00768
▁suas	-8.00904
2	-8.00977
▁10	-8.01027
anna	-8.01079
▁AE	-8.01206
4	-8.01769
▁fho	-8.01798
▁Sa	-8.01839
▁mo	-8.01911
te	-8.024
▁thar	-8.02441
ithe	-8.02621
1	-8.02804
▁Porn	-8.03039
▁díreach	-8.03226
▁cibé	-8.03266
ic	-8.03451
▁Márta	-8.03609
▁Deireadh	-8.03621
▁dheis	-8.03626
fhéadfadh	-8.03654
▁chaighdeán	-8.03818
fidh	-8.04271
▁Chomhairle	-8.04903
▁Dé	-8.05167
▁M	-8.0531
▁sórt	-8.06006
▁2018	-8.06809
g	-8.06999
aon	-8.07148
▁dhá	-8.07254
▁seirbhísí	-8.07978
▁b	-8.08437
▁Chun	-8.08458
F	-8.08723
er	-8.09219
▁7	-8.09387
▁P	-8.09638
▁so	-8.09702
amp	-8.10382
▁laistigh	-8.10529
▁íoslódáil	-8.10531
▁ard	-8.10599
D	-8.10907
▁más	-8.11298
▁dó	-8.11551
▁12	-8.11813
▁huaire	-8.12585
▁Comhrá	-8.12723
▁ábhar	-8.12851
aigh	-8.13098
▁ndáil	-8.13575
ar	-8.13978
▁G	-8.14205
▁chóir	-8.14217
▁táirgí	-8.14338
o	-8.14345
▁leathanach	-8.14568
f	-8.1509
▁15	-8.15248
eann	-8.15385
▁láithreán	-8.1586
▁feadh	-8.15867
na	-8.16134
▁mbaineann	-8.16434
aí	-8.16442
▁9	-8.16699
▁Airteagal	-8.16717
▁gcuid	-8.17001
▁fós	-8.17367
▁oibre	-8.19008
▁mbeadh	-8.19118
▁bhíonn	-8.19174
),	-8.19313
G	-8.20037
ed	-8.20058
▁iontach	-8.20286
▁fad	-8.21442
▁2017	-8.21843
▁gComhairle	-8.22114
▁(1)	-8.22233
▁cluichí	-8.22791
▁déanta	-8.22951
▁Baile	-8.23683
▁eolas	-8.23895
▁gheall	-8.23984
▁fud	-8.24026
ta	-8.24273
▁iarraidh	-8.24634
▁ionad	-8.24738
▁céanna	-8.24758
▁Tuga	-8.25309
▁ordú	-8.25359
▁ainm	-8.25402
▁Agus	-8.25412
▁Atweetáil	-8.25869
▁dóibh	-8.26863
▁féadfaidh	-8.27055
▁The	-8.27214
▁rogha	-8.27379
as	-8.27703
▁orthu	-8.27816
idh	-8.28372
▁Fómhair	-8.28525
▁cuid	-8.28641
▁Comhairle	-8.29002
▁iarratas	-8.29033
▁mhí	-8.2918
▁Leaba	-8.29515
8	-8.29874
▁gcónaí	-8.30031
▁againn	-8.30035
▁Rinne	-8.30091
▁bliain	-8.30114
).	-8.30177
uaimniú	-8.30641
▁L	-8.3068
▁ráta	-8.30952
▁tSín	-8.31691
▁liom	-8.31882
le	-8.32682
▁críocha	-8.32727
▁2019	-8.32854
▁24	-8.32969
M	-8.33031
▁20	-8.33182
▁feidhme	-8.3342
▁cothrom	-8.33565
▁Aontaithe	-8.33723
ciallaíonn	-8.33752
▁uisce	-8.33797
▁áireamh	-8.33968
▁Cé	-8.34263
▁iomchuí	-8.34614
▁g	-8.34956
▁leibhéal	-8.35023
▁gnéas	-8.35112
▁of	-8.35274
T	-8.35381
▁ghlacadh	-8.35397
▁scannán	-8.3551
▁feidhm	-8.35532
Béarla	-8.35541
nn	-8.35605
▁Na	-8.35734
▁Eorpaigh	-8.36151
▁fheabhsú	-8.36163
▁Féadfaidh	-8.36525
▁Coimisiún	-8.3664
▁mhír	-8.36789
acha	-8.36828
▁fhreagra	-8.37426
▁amhlaidh	-8.37702
▁Físeán	-8.38268
▁náisiúnta	-8.38382
▁dlí	-8.38385
▁taobh	-8.38446
▁tríd	-8.38516
am	-8.39103
▁tras	-8.39242
p	-8.3964
▁mí	-8.39827
I	-8.39839
▁Déan	-8.40116
▁athrú	-8.40242
▁bhfo	-8.40389
▁féach	-8.40557
▁muid	-8.40585
▁Rialachán	-8.40752
P	-8.40962
▁líon	-8.41296
▁Nach	-8.41619
Acht	-8.41732
▁cáilíochta	-8.41817
▁14	-8.41871
▁ch	-8.41978
▁16	-8.42281
▁E	-8.42581
▁m	-8.42723
5	-8.42729
▁croí	-8.42832
▁neamh	-8.42941
▁mhéid	-8.43411
faidh	-8.43537
▁Co	-8.43637
▁bhun	-8.43663
aithe	-8.43989
uaire	-8.44071
▁Náisiúnta	-8.44568
▁tráth	-8.44717
▁11	-8.44908
▁Stáit	-8.45014
▁háirithe	-8.45155
▁Éirinn	-8.45333
▁Ard	-8.45441
nd	-8.45728
▁Oireachtais	-8.46001
ie	-8.46276
▁haon	-8.46512
tar	-8.46951
6	-8.47008
R	-8.47105
▁íoc	-8.47225
ainm	-8.47229
▁fo	-8.47233
▁fógra	-8.47252
▁chomhrá	-8.47414
▁speisialta	-8.47596
▁freagairt	-8.47638
▁s	-8.47845
▁(4)	-8.48008
▁seirbhís	-8.48193
▁13	-8.48206
▁dhéanann	-8.48209
▁Pharlaimint	-8.48824
▁deireadh	-8.48907
▁sholáthar	-8.49073
▁ansin	-8.49214
▁Ceisteanna	-8.49462
▁poiblí	-8.4954
▁17	-8.49641
▁bhrí	-8.49659
▁réimse	-8.49797
scríobh	-8.49863
▁rith	-8.50024
▁Bhí	-8.5028
▁bia	-8.5031
the	-8.50532
ítear	-8.51001
▁fhorbairt	-8.51059
▁uile	-8.51265
▁Ach	-8.52171
▁chlárú	-8.53179
▁baint	-8.53238
▁19	-8.53374
la	-8.5352
bh	-8.536
▁áitiúil	-8.53642
▁cuí	-8.53644
▁Stát	-8.53724
▁mura	-8.53752
▁cuideachta	-8.53815
áin	-8.53918
▁cosúil	-8.53982
▁Dáil	-8.54482
▁údarás	-8.5459
▁fíor	-8.54797
▁ais	-8.55124
▁gc	-8.55186
▁rialacha	-8.5525
▁30	-8.55339
▁Tithe	-8.55501
▁imeachta	-8.55581
▁luach	-8.55839
▁imirt	-8.5601
▁mian	-8.56128
7	-8.56306
▁leas	-8.56315
▁déanaí	-8.56355
▁pearsanta	-8.56442
E	-8.57667
th	-8.58096
al	-8.58208
▁praghas	-8.58331
▁airgeadra	-8.58357
K	-8.58684
▁airgeadais	-8.58689
▁bunaithe	-8.58855
▁De	-8.59014
▁Átha	-8.59043
▁Gnóthaí	-8.59123
▁Parlaiminte	-8.59385
es	-8.59568
▁Aontas	-8.59715
L	-8.59762
▁mír	-8.60164
▁H	-8.60256
▁Catagóir	-8.60824
▁teanga	-8.61181
▁fiú	-8.61631
▁aonair	-8.61732
▁Ballstáit	-8.61978
▁sheoladh	-8.62088
▁beag	-8.62225
os	-8.62235
▁ort	-8.62804
▁Ó	-8.62882
▁roghnú	-8.62972
▁hiomlán	-8.62986
▁coinníollacha	-8.63084
▁dtagraítear	-8.63257
▁Conas	-8.63381
▁gcomhréir	-8.63532
im	-8.63996
▁Cluichí	-8.64572
▁roimhe	-8.64715
▁chosaint	-8.64754
▁Níl	-8.64812
▁domhain	-8.64966
▁lú	-8.64998
▁Cliath	-8.65204
▁scéim	-8.65214
iú	-8.65425
▁gnó	-8.65534
on	-8.65583
9	-8.65968
▁shampla	-8.66654
▁lán	-8.66687
▁gcéad	-8.66813
▁laghdú	-8.6684
▁gceist	-8.66988
▁bun	-8.67244
▁tacaíocht	-8.67719
▁measc	-8.67989
óidh	-8.68092
▁saol	-8.68622
▁dtaobh	-8.68653
▁Airgeadais	-8.6883
▁Mí	-8.69018
ra	-8.69097
W	-8.6916
▁os	-8.69533
▁cruach	-8.69567
▁rá	-8.69647
▁2016	-8.69667
▁éifeacht	-8.69793
▁iúl	-8.69806
▁chás	-8.69971
N	-8.70289
V	-8.70408
▁dúinn	-8.70632
de	-8.71023
▁R	-8.71028
▁airgead	-8.71034
▁21	-8.71218
▁23	-8.71984
▁faisnéis	-8.72132
▁Cur	-8.72268
▁gcoinne	-8.7239
▁cé	-8.72456
▁conas	-8.72493
aíonn	-8.72588
k	-8.72726
or	-8.72824
▁eolais	-8.73199
▁p	-8.73233
▁25	-8.73268
▁forálacha	-8.73508
▁leanaí	-8.73732
▁Cad	-8.7393
áil	-8.73975
▁siúl	-8.74222
▁Más	-8.74601
▁táirge	-8.74701
aois	-8.74747
▁idirnáisiúnta	-8.74835
▁láithreach	-8.74873
10	-8.74977
▁chuige	-8.75022
▁scoil	-8.75065
▁clár	-8.75164
▁22	-8.75481
tha	-8.7565
▁teagmháil	-8.7587
fhonn	-8.76014
12	-8.76163
ii	-8.7619
▁laghad	-8.76288
▁inniu	-8.764
▁thaobh	-8.76402
▁ghnáth	-8.76412
▁nós	-8.76513
▁chroí	-8.76631
▁ndiaidh	-8.77235
▁chinntiú	-8.77235
▁Uimh	-8.77552
▁leagan	-8.77668
▁breise	-8.778
▁tuilleadh	-8.78083
▁cinneadh	-8.78108
▁sláinte	-8.78189
▁cuireadh	-8.78204
id	-8.78346
▁bhealach	-8.78619
▁chruthú	-8.7863
CE	-8.78715
▁lucht	-8.78974
▁Éireann	-8.79112
▁—	-8.79428
▁Seo	-8.79438
▁In	-8.79439
▁déanamh	-8.79482
▁rinneadh	-8.7951
▁N	-8.79569
▁dara	-8.79592
▁Bord	-8.796
▁cad	-8.79911
▁chineál	-8.80505
▁Sláinte	-8.80579
▁2015	-8.808
▁deis	-8.80888
▁fé	-8.81221
▁dtugtar	-8.81337
▁dhuine	-8.81359
▁úsáidtear	-8.81444
H	-8.8156
▁'	-8.82037
▁bearta	-8.82063
▁cabhrú	-8.82333
án	-8.82548
▁taighde	-8.82575
▁Cuntas	-8.8277
▁rochtain	-8.83245
▁éasca	-8.83401
▁Achta	-8.83639
▁oiriúnach	-8.83827
▁déanfar	-8.84022
▁Meán	-8.84261
▁tír	-8.84334
gt	-8.8439
▁córas	-8.84437
u	-8.84488
▁tAcht	-8.84529
▁bunaidh	-8.84579
▁riachtanais	-8.84619
▁leanbh	-8.84849
O	-8.84992
▁rinne	-8.85132
▁dhiaidh	-8.85376
▁Gach	-8.85467
▁Beal	-8.86012
▁(5)	-8.86024
▁2014	-8.86045
▁aois	-8.86277
▁léinn	-8.86435
▁chuideachta	-8.86718
mh	-8.87274
▁margadh	-8.87526
▁Oifig	-8.8768
▁curtha	-8.8786
▁mbliana	-8.88074
aítear	-8.88084
▁Treoir	-8.88139
re	-8.88264
▁dhosmálta	-8.88519
▁soláthraí	-8.88619
▁thíos	-8.88757
▁glacadh	-8.8876
.”	-8.88886
▁bhonn	-8.88894
▁súil	-8.88938
uireann	-8.8919
▁V	-8.89207
▁ailt	-8.89389
▁Ghaeilge	-8.89514
far	-8.89753
▁cánach	-8.90243
▁rialú	-8.90361
▁Sonraí	-8.90371
▁di	-8.90432
el	-8.90468
▁talamh	-8.90568
▁catagóirí	-8.90714
▁Chomh	-8.9072
▁tríú	-8.90887
▁sásta	-8.91091
▁seachas	-8.91174
▁leanúint	-8.91526
▁31	-8.91601
▁iarratais	-8.91791
▁forbairt	-8.9185
▁(32	-8.9201
▁amhail	-8.92089
▁tús	-8.92155
▁Oideachais	-8.92173
▁domhan	-8.92242
▁choinneáil	-8.92257
▁nádúrtha	-8.923
▁fhios	-8.92673
▁airde	-8.92777
▁ábhair	-8.92804
An	-8.92833
▁Do	-8.92937
ly	-8.92964
▁2013	-8.93043
amlíne	-8.93128
▁26	-8.93305
▁ndéanfar	-8.93366
▁Soláthraithe	-8.93509
▁27	-8.936
▁Gaeltachta	-8.94017
▁arís	-8.94185
▁chomhlíonadh	-8.94241
▁léi	-8.94286
▁chuireann	-8.94286
▁mhór	-8.94495
ais	-8.94703
▁Ean	-8.94868
▁fhaisnéis	-8.94953
▁ábhartha	-8.94981
▁Faigh	-8.95531
▁tapa	-8.95674
▁fada	-8.95697
▁Ch	-8.95876
▁príomh	-8.95917
▁déan	-8.9597
údarás	-8.96018
▁gurb	-8.96019
▁istigh	-8.96041
U	-8.96051
▁aird	-8.96085
▁comhrá	-8.96383
▁torthaí	-8.9639
st	-8.96484
▁scoile	-8.96902
▁rialacháin	-8.97042
x	-8.97108
▁sula	-8.97108
▁nithe	-8.97363
▁freastal	-8.97393
▁Ioncaim	-8.97419
▁liosta	-8.97545
▁ionas	-8.97682
▁comhlacht	-8.97888
▁earraí	-8.97915
▁min	-8.98052
▁28	-8.98134
▁comhalta	-8.98175
▁thoradh	-8.98198
▁bhfad	-8.98332
us	-8.98343
▁clips	-8.98468
▁ama	-8.98523
▁inar	-8.98977
▁bh	-8.9928
▁nóiméad	-8.99378
load	-8.99515
▁leasú	-8.99629
▁Máirt	-8.9978
▁O	-8.99839
▁ginearálta	-8.99906
▁éigin	-9.00172
▁Faoi	-9.0019
▁iníoctha	-9.00191
▁seirbhíse	-9.00835
▁porno	-9.00881
▁29	-9.00916
AE	-9.00928
▁Sceideal	-9.01112
▁Saor	-9.01215
▁déanfaidh	-9.01264
▁imeachtaí	-9.01402
▁Bain	-9.01573
▁tagairt	-9.01616
acht	-9.01737
Airteagal	-9.0179
▁níl	-9.02116
▁naisc	-9.02119
▁íseal	-9.02414
▁iarracht	-9.02643
▁gníomhaíochtaí	-9.0266
▁lorg	-9.0273
each	-9.02815
▁airgid	-9.03031
ábhar	-9.03182
▁úsáide	-9.03409
▁Cluiche	-9.03563
▁faisnéise	-9.03655
▁soláthar	-9.04126
ig	-9.04151
▁scríbhinn	-9.04279
it	-9.04353
▁tháinig	-9.0444
▁dearadh	-9.04608
▁minic	-9.04888
▁Comment	-9.0495
▁Meitheamh	-9.05079
▁mheas	-9.05244
▁chaitheamh	-9.05256
en	-9.05653
eoidh	-9.05736
gh	-9.05978
▁Eoraip	-9.0598
▁reatha	-9.06056
▁cláraithe	-9.06219
▁Eanáir	-9.06313
19	-9.06375
▁Tar	-9.06389
▁dteideal	-9.06631
▁comh	-9.07092
eanna	-9.07109
ne	-9.07396
▁Rialtais	-9.07483
▁Casino	-9.0751
imid	-9.07583
▁Londain	-9.07618
▁riachtanach	-9.07643
▁Bealtaine	-9.07916
▁dar	-9.07988
▁gcrích	-9.08049
▁scoileanna	-9.0816
fear	-9.08324
▁cuir	-9.08339
▁tionchar	-9.08357
▁fheiceáil	-9.08483
▁Nollaig	-9.08518
▁bharr	-9.08519
▁téarma	-9.08624
▁dhéantar	-9.08646
▁cearta	-9.08732
▁oifig	-9.09041
▁taithí	-9.09206
▁Coimisinéirí	-9.09385
▁Contae	-9.09412
▁aici	-9.09504
▁Aghaidh	-9.09665
(1)	-9.09733
▁chinneadh	-9.09959
▁deara	-9.09966
▁ngach	-9.101
▁gCoimisiún	-9.10378
▁Aon	-9.10541
▁Coiste	-9.10606
▁bheadh	-9.10682
▁Maidir	-9.10838
▁éileamh	-9.1093
íodh	-9.10979
v	-9.10988
15	-9.11019
▁for	-9.11076
▁siúd	-9.11115
▁tíortha	-9.11139
Naisc	-9.1127
▁rudaí	-9.11614
▁fanacht	-9.11712
se	-9.11935
▁chuir	-9.122
▁íocaíocht	-9.12349
14	-9.12487
▁seoladh	-9.12861
11	-9.13037
w	-9.13157
▁thart	-9.1358
20	-9.13731
ers	-9.13767
▁meaisín	-9.13778
▁modh	-9.13829
úsáid	-9.1419
▁dhéanfaidh	-9.14279
▁gcomparáid	-9.14584
▁cás	-9.14777
▁aistriú	-9.14825
▁húsáid	-9.14901
▁Liosta	-9.14909
▁Déanfar	-9.14942
▁Bainfi	-9.14974
▁simplí	-9.15074
cha	-9.15173
▁críche	-9.152
▁the	-9.15248
▁ríomhaire	-9.15341
▁réiteach	-9.1536
▁malairte	-9.15395
▁cead	-9.15406
▁áirithiú	-9.15535
13	-9.15635
▁ghabhann	-9.15674
▁shuíomh	-9.15684
▁oifigeach	-9.1592
▁toisc	-9.15957
▁sóisialta	-9.15975
▁fáilte	-9.16248
▁deimhniú	-9.16331
ard	-9.16412
▁mná	-9.16602
▁monaróirí	-9.16648
▁dhearna	-9.16758
ordú	-9.16864
▁choimeád	-9.16973
▁ndáiríre	-9.17072
▁scannáin	-9.17109
nó	-9.17124
▁K	-9.17189
▁tacú	-9.17251
▁Úsáid	-9.17448
▁raon	-9.17586
▁Bhaile	-9.17702
▁leagtha	-9.17703
▁chlár	-9.17837
sa	-9.17916
cht	-9.1797
▁ea	-9.1805
▁tAontas	-9.18194
▁leagtar	-9.18377
16	-9.18382
ion	-9.18391
J	-9.18601
▁thagann	-9.18661
▁Dá	-9.18684
▁Athraigh	-9.18693
go	-9.18775
▁Aibreán	-9.18917
▁tuarascáil	-9.18919
▁Tweetáil	-9.19512
▁dtaca	-9.19633
▁faoina	-9.19798
▁tábhachtach	-9.19859
▁fén	-9.19895
▁oideachais	-9.19901
▁Meith	-9.19918
▁sraith	-9.19939
▁forbartha	-9.19944
▁léamh	-9.19944
▁Scéim	-9.19968
▁dhíol	-9.2018
▁limistéar	-9.20307
▁2012	-9.20326
▁Grúpa	-9.20486
▁áitiúla	-9.20607
▁saothair	-9.2096
ca	-9.21064
▁Feabh	-9.21142
ófar	-9.2142
▁thug	-9.21499
▁páirt	-9.21606
▁freagrach	-9.218
▁Díle	-9.21849
▁luath	-9.21857
▁etc	-9.22072
▁chugainn	-9.22237
X	-9.22364
▁óga	-9.22505
▁cosanta	-9.22736
▁earnáil	-9.22952
▁oibriú	-9.22972
▁ghlac	-9.23033
▁bhunú	-9.23096
0	-9.23109
(	-9.23223
▁mhéadú	-9.23282
▁te	-9.23293
sh	-9.23385
▁thugann	-9.23467
ip	-9.23505
▁trealamh	-9.23585
▁W	-9.23641
▁suim	-9.23727
▁tugadh	-9.2374
▁ról	-9.23783
ag	-9.24068
▁dath	-9.24122
▁Chúirt	-9.24348
▁trádála	-9.24889
▁dháta	-9.24953
j	-9.24992
▁Feabhra	-9.25114
▁thoil	-9.25174
eadh	-9.25263
▁teideal	-9.25467
▁réidh	-9.25484
▁lae	-9.25675
▁ionann	-9.25758
▁Físeáin	-9.25779
▁stíl	-9.25814
▁Ríocht	-9.26173
▁phobal	-9.26349
▁ath	-9.26761
z	-9.2677
17	-9.26802
man	-9.2703
▁mbun	-9.27217
▁ráiteas	-9.27553
▁Chuid	-9.27639
▁fuair	-9.27647
Y	-9.27736
▁dochar	-9.27797
▁phoiblí	-9.2787
▁ndéantar	-9.28036
▁léiriú	-9.28037
onn	-9.28237
▁cosaint	-9.2839
▁spraoi	-9.28404
▁Scoil	-9.28438
▁snáithe	-9.28563
▁bhaile	-9.28626
▁iompar	-9.28634
▁(6)	-9.28655
▁álainn	-9.2873
▁Seirbhísí	-9.28779
▁fáth	-9.29067
ainneoin	-9.29095
▁costais	-9.29101
oir	-9.29393
▁Mór	-9.29537
ó	-9.2956
▁dár	-9.29598
▁seomra	-9.29636
▁scileanna	-9.29742
▁Aib	-9.29794
▁neart	-9.29832
▁dáileoir	-9.29987
▁roghanna	-9.30018
Déanfaidh	-9.30038
▁leathan	-9.30094
▁anailís	-9.30109
▁Líne	-9.30262
eofar	-9.30321
▁2020	-9.30409
▁ró	-9.30601
▁cuairt	-9.307
▁Lún	-9.3072
▁Taispeáin	-9.30724
▁Rialacháin	-9.30907
mm	-9.30974
▁Choimisiún	-9.31429
▁údaráis	-9.3148
é	-9.31661
▁dteagmháil	-9.31799
▁sonraithe	-9.31805
mobi	-9.31814
▁Roimh	-9.3191
▁thógáil	-9.31979
▁cúig	-9.31982
▁agam	-9.31999
ol	-9.32066
▁fear	-9.32216
to	-9.32217
eachta	-9.32218
fhéidir	-9.32232
▁méadú	-9.32384
▁Ná	-9.3301
▁chomhalta	-9.33126
18	-9.33288
▁dóigh	-9.33326
▁páistí	-9.3345
▁mbíonn	-9.33518
▁Ina	-9.33592
▁fhágáil	-9.33634
▁riamh	-9.33819
▁nár	-9.33876
▁láidir	-9.33888
▁gnéithe	-9.34021
▁cén	-9.34071
▁bogearraí	-9.34199
▁tíre	-9.34504
▁fuinnimh	-9.34566
365.	-9.34663
▁cionn	-9.34698
▁San	-9.34742
▁100	-9.34915
▁ríomh	-9.35108
▁Phríomh	-9.35145
▁MFómh	-9.3516
▁scaireanna	-9.3517
▁treoir	-9.35387
▁gcomhair	-9.35484
▁deiridh	-9.35518
▁meáchan	-9.35886
▁údaraithe	-9.35894
▁comhairle	-9.36008
ine	-9.36136
▁iompair	-9.3615
▁chumas	-9.36223
▁cumhachta	-9.36316
▁Poiblí	-9.36458
▁pé	-9.36523
▁Fáilte	-9.36529
▁cheangal	-9.36543
▁Á	-9.36594
▁soiléir	-9.36627
▁Electronics	-9.37039
▁leanúnach	-9.37054
▁Éire	-9.37087
▁Ealaíon	-9.37117
▁Údarás	-9.37142
24	-9.3734
▁athbhreithniú	-9.37532
ite	-9.37594
▁beartaithe	-9.3768
íoc	-9.37749
▁páirteach	-9.38253
á	-9.3841
▁Déantar	-9.38559
▁bhráid	-9.38583
▁foirne	-9.38777
▁r	-9.38833
cháin	-9.38952
▁lasmuigh	-9.38973
▁aer	-9.38977
da	-9.39129
▁2009	-9.39153
▁Seol	-9.39168
▁fola	-9.39179
▁hAchtanna	-9.39181
▁áfach	-9.3937
▁chluiche	-9.39378
▁faire	-9.39638
22	-9.39845
▁Áitiúil	-9.39958
eacht	-9.40086
▁Sóisialta	-9.40751
▁Cathrach	-9.40884
Fómh	-9.40919
▁coitianta	-9.40951
▁luaithe	-9.40964
▁Clár	-9.41001
▁Trádála	-9.41151
▁chumhacht	-9.4116
▁cód	-9.41203
uithe	-9.41341
▁Forbartha	-9.41351
Tá	-9.41367
óir	-9.41518
▁fostaíochta	-9.41745
▁feabhas	-9.41753
▁crua	-9.41837
▁U	-9.4187
▁cúram	-9.41921
▁1.	-9.41987
▁2011	-9.42051
▁doiciméad	-9.42104
▁chéanna	-9.4214
▁Rialtas	-9.42193
▁f	-9.42276
▁Gaillimhe	-9.42306
▁measfar	-9.42368
▁50	-9.42379
▁féadfar	-9.42381
▁gclár	-9.42564
▁dom	-9.42745
▁Lúnasa	-9.42782
▁fás	-9.42809
▁Leanaí	-9.42925
▁aidhm	-9.4305
▁toiliú	-9.43146
▁réimsí	-9.43221
▁díobh	-9.43336
▁ceallraí	-9.43388
▁cumas	-9.4339
▁cúnamh	-9.43391
▁chuirtear	-9.43437
▁comhaltaí	-9.43442
▁seachtaine	-9.43453
▁smaoineamh	-9.43583
▁blianta	-9.43788
▁gcomhairle	-9.43815
▁mBallstát	-9.43994
▁próiseas	-9.43994
mar	-9.44031
▁togra	-9.44079
▁leabhar	-9.44207
▁fhógra	-9.4424
▁feidhmeanna	-9.44371
▁Samhain	-9.44414
▁uirthi	-9.44495
▁téarmaí	-9.44529
▁chúis	-9.44738
▁saoire	-9.44844
▁scrúdú	-9.44886
▁cuma	-9.44902
▁ligean	-9.44929
▁sábháilte	-9.45238
▁nósanna	-9.4579
▁ghnó	-9.45832
▁céim	-9.45942
▁talún	-9.46075
▁phobail	-9.4612
▁soláthraithe	-9.46289
▁thaispeáint	-9.46317
▁teach	-9.46367
▁SMS	-9.4651
▁gruaige	-9.46523
▁ndearnadh	-9.46547
▁gnáth	-9.46686
▁tháirgeadh	-9.46714
▁mBan	-9.46951
ist	-9.47286
▁post	-9.47354
ath	-9.47381
aimseartha	-9.47418
no	-9.47523
▁Samh	-9.4765
▁Idirnáisiúnta	-9.47772
▁tosaigh	-9.47772
▁ceadúnas	-9.47829
▁saincheaptha	-9.47986
ála	-9.48617
▁kashtanka	-9.48631
▁faide	-9.48665
▁uimhir	-9.48739
▁díol	-9.48757
▁teastáil	-9.48847
▁tionscadal	-9.48862
▁Leis	-9.48901
▁son	-9.48948
▁2.	-9.48992
▁rialta	-9.49071
▁bhfoirm	-9.491
▁barr	-9.4911
▁Nollag	-9.49289
▁Leasú	-9.49341
▁Táirgí	-9.49372
▁rátaí	-9.49387
▁Tú	-9.49474
▁theannta	-9.49498
▁bán	-9.49659
▁anuas	-9.49661
▁Ireland	-9.49826
▁leasa	-9.49833
▁Óga	-9.49861
▁seilbh	-9.49938
▁grianghraif	-9.49941
▁spreagadh	-9.4997
ad	-9.50057
▁bealach	-9.50153
▁bheas	-9.5016
▁mac	-9.50191
úil	-9.50205
▁óg	-9.50251
▁II	-9.50338
▁Baineann	-9.5046
▁Eachtracha	-9.50608
▁fheidhmiú	-9.50615
▁cóip	-9.50644
▁rún	-9.50673
▁Gnéas	-9.51044
▁brath	-9.51091
▁th	-9.5123
▁Dlí	-9.51359
ma	-9.51475
▁dea	-9.51568
▁ullmhú	-9.51604
▁cheapadh	-9.51712
▁ola	-9.51732
ru	-9.51746
▁Bhord	-9.51781
mo	-9.51916
▁dubh	-9.51926
▁siar	-9.51993
at	-9.5201
cuirfidh	-9.52092
▁milliún	-9.52146
▁cineálacha	-9.52163
▁fir	-9.52212
▁gníomhú	-9.52266
▁éifeachtach	-9.52269
▁costas	-9.52272
▁rialachán	-9.52368
▁dtús	-9.52399
▁gcuideachta	-9.52456
▁ceanglais	-9.52819
▁Freagra	-9.52828
▁damáiste	-9.52867
▁deiseanna	-9.52877
▁Níor	-9.52885
21	-9.52938
▁Déardaoin	-9.53042
▁dhéanfar	-9.53315
▁Féadfar	-9.53353
▁réamh	-9.53417
▁cion	-9.53424
▁Parlaimint	-9.53477
▁ndéanfaidh	-9.53494
▁oscailte	-9.53528
▁Gaillimh	-9.53566
▁oiread	-9.53721
▁acmhainní	-9.53814
ailt	-9.54016
▁Moncler	-9.54136
▁suite	-9.54499
▁tacaíochta	-9.54568
▁deimhin	-9.54633
▁ré	-9.54653
net	-9.54718
▁Príomh	-9.54831
ian	-9.54975
▁Dún	-9.55029
23	-9.5504
▁Vicipéid	-9.55092
▁cúrsaí	-9.55187
▁breis	-9.55188
ul	-9.55298
▁bhailiú	-9.55315
oibreoir	-9.55362
▁éadaí	-9.55416
▁Seinn	-9.55555
▁chaoi	-9.55605
▁Mura	-9.55725
▁dírithe	-9.56022
▁cuirfea	-9.56281
▁fostaithe	-9.56321
Is	-9.56428
▁ceaptha	-9.56486
do	-9.56566
▁meán	-9.56776
ith	-9.56789
▁Dara	-9.56838
▁ceisteanna	-9.56959
ce	-9.57091
▁mhaithe	-9.57152
▁feidhmiú	-9.57189
óirí	-9.57189
▁2010	-9.57192
▁téacs	-9.57521
me	-9.57557
▁fh	-9.57841
▁Seirbhís	-9.579
▁oíche	-9.57926
▁ioncam	-9.57973
▁lenár	-9.58271
▁Th	-9.5833
gan	-9.58374
▁Ollscoil	-9.58467
▁tionscadail	-9.58605
▁3.	-9.58633
▁sh	-9.58704
▁shocrú	-9.58811
▁Dubh	-9.58847
▁chosc	-9.58907
▁leath	-9.58957
▁beo	-9.59024
▁Táimid	-9.59028
▁fhoirm	-9.59061
▁iontu	-9.59084
▁tástála	-9.5914
▁100%	-9.59171
ire	-9.59308
lena	-9.5932
▁measúnú	-9.59323
▁Uimhir	-9.59333
▁Choiste	-9.59355
ke	-9.59382
The	-9.59388
et	-9.59409
aíocht	-9.59534
▁Chonradh	-9.59563
▁doiciméid	-9.59574
▁comhaontú	-9.59587
▁Cliceáil	-9.59805
▁gcur	-9.59828
▁fhoghlaim	-9.59941
▁bpraghas	-9.60046
▁cláir	-9.6005
50	-9.60147
▁tóir	-9.60176
▁frith	-9.60185
▁tugtha	-9.60288
▁tseirbhís	-9.60354
▁Cruach	-9.60356
▁gníomhartha	-9.60378
▁tuairim	-9.60379
▁J	-9.60426
all	-9.60718
▁feiceáil	-9.60775
▁leighis	-9.60781
▁rialaithe	-9.60803
▁Béarla	-9.60847
▁clárú	-9.60848
▁comhlachtaí	-9.60853
▁oiliúna	-9.60856
▁gcásanna	-9.60878
▁líonadh	-9.60886
eolas	-9.61014
▁maoiniú	-9.61129
▁to	-9.61134
▁bhféadfadh	-9.61263
▁pobail	-9.61508
▁ceithre	-9.61526
▁stiúir	-9.61754
▁ph	-9.61883
▁Cuid	-9.61904
▁seasamh	-9.62
▁caillteanas	-9.62019
▁phríomh	-9.62153
▁Scileanna	-9.62247
▁teaghlaigh	-9.62257
▁beartais	-9.62361
oirí	-9.62506
▁shlí	-9.62511
▁caite	-9.62591
▁Tuarascáil	-9.62593
▁tharraingt	-9.62643
▁reachtaíocht	-9.6266
▁tuiscint	-9.62742
▁beaga	-9.62791
▁oscailt	-9.62955
▁mórdhíola	-9.63009
▁cúpla	-9.63014
co	-9.63066
▁Déagóirí	-9.63241
Moncler	-9.63284
fhéadfaí	-9.63492
▁gabháil	-9.63492
▁thairiscint	-9.64015
▁mba	-9.64023
▁Cúirte	-9.64251
▁Factory	-9.64259
▁solas	-9.6426
▁chéim	-9.64305
▁video	-9.64318
▁iniúchadh	-9.64483
▁oifigiúil	-9.64506
▁ollmhór	-9.6475
▁amuigh	-9.64756
ill	-9.64907
land	-9.64956
▁infheidhme	-9.65007
▁tharlaíonn	-9.65073
▁liúntas	-9.65117
▁Sean	-9.65182
▁Noll	-9.65191
▁on	-9.65279
ac	-9.65288
▁slí	-9.65311
▁Súil	-9.65329
▁múinteoirí	-9.65353
pe	-9.65413
▁chatagóir	-9.65518
▁mhargadh	-9.65573
▁mb	-9.65678
▁ngleic	-9.66025
▁thuas	-9.66031
air	-9.66121
▁(7)	-9.66132
▁ghearradh	-9.66298
▁móra	-9.66519
▁fhaigheann	-9.6654
▁ndaoine	-9.66554
▁tí	-9.66679
ear	-9.66717
▁Céadaoin	-9.66799
▁trína	-9.66927
▁dearmad	-9.67058
▁flash	-9.6707
▁Theas	-9.67119
fhiosrúchán	-9.67151
▁Cánach	-9.67237
▁bhua	-9.67279
▁pictiúir	-9.67317
▁pornhub	-9.67317
▁Léir	-9.6746
▁Choimisiúin	-9.67578
▁Siar	-9.6763
▁teocht	-9.67639
▁€	-9.67699
▁léiríonn	-9.6775
▁Gan	-9.67894
▁staidéar	-9.67905
▁gcuirfea	-9.6793
▁araon	-9.67937
▁dtáirgí	-9.68127
▁trádáil	-9.68128
▁teicneolaíocht	-9.68191
lann	-9.682
▁dromchla	-9.68207
iii	-9.68247
éard	-9.68273
▁phróiseáil	-9.68307
▁achomharc	-9.68321
▁gceart	-9.68364
▁gheobhaid	-9.6845
earraí	-9.68472
):	-9.6863
▁uathúil	-9.68647
▁scéal	-9.687
▁Lá	-9.68759
▁éisteachta	-9.68774
▁chinn	-9.69158
▁cruinniú	-9.69179
▁o	-9.69217
▁cuidiú	-9.69249
▁cairde	-9.69403
▁brú	-9.69507
▁dearg	-9.69518
▁Mórdhíol	-9.69601
▁beagnach	-9.69755
▁2008	-9.69846
▁gcóras	-9.69953
▁grianghraf	-9.70021
▁cuspóirí	-9.70097
▁gcomhar	-9.70104
▁bhreise	-9.70114
▁cumhacht	-9.70135
▁staid	-9.70267
▁páirtithe	-9.70273
anúint	-9.70396
▁riaracháin	-9.70488
▁héasca	-9.70501
imh	-9.7052
▁Ionad	-9.70524
▁Roinne	-9.70525
▁adhmaid	-9.70757
▁NA	-9.70897
▁foghlaim	-9.71037
aíodh	-9.71057
▁uathoibríoch	-9.71084
▁Re	-9.71166
▁lár	-9.71254
▁ainmnithe	-9.71349
▁Oidhreachta	-9.7136
▁abairt	-9.71415
▁stair	-9.71484
eacha	-9.7152
news	-9.71647
▁Seirbhíse	-9.71673
▁oiliúint	-9.71745
▁todhchaí	-9.71837
▁orainn	-9.71841
▁cúis	-9.71862
▁leibhéil	-9.71931
▁théann	-9.72112
▁thugtar	-9.72147
▁struchtúr	-9.72344
▁Dhún	-9.72385
▁páirtí	-9.72466
achta	-9.72508
▁gáis	-9.7253
▁luas	-9.72538
▁déag	-9.72544
▁oideachas	-9.72642
▁foirfe	-9.72653
aithfidh	-9.72682
▁gcion	-9.72806
▁óir	-9.72897
and	-9.72913
▁grá	-9.72932
▁Chontae	-9.72934
▁Éabhlóid	-9.72934
▁labhairt	-9.72943
▁mh	-9.72983
▁mm	-9.72991
▁nGall	-9.73212
▁tráchtála	-9.73212
▁éisteacht	-9.73214
▁comhair	-9.73214
▁bhain	-9.73218
▁húdaráis	-9.73226
▁gairmiúla	-9.73262
▁ioncaim	-9.73301
▁branda	-9.73314
▁fhoráil	-9.73316
▁chóras	-9.73403
▁ísle	-9.73486
▁daltaí	-9.73535
▁Ciste	-9.7369
ro	-9.73732
▁sperm	-9.73763
▁Bille	-9.73921
▁grúpa	-9.73925
▁deartha	-9.74025
be	-9.74186
▁ionstraim	-9.74302
▁bhreis	-9.74357
▁buan	-9.7456
▁áitreabh	-9.74581
▁cuntas	-9.74582
▁miotail	-9.74598
Roghchlár	-9.74607
▁Cláraigh	-9.7464
▁déantar	-9.74648
▁modhanna	-9.7466
▁taitneamh	-9.74827
▁caighdeáin	-9.74878
”.	-9.74958
son	-9.7498
▁hordú	-9.75004
▁”	-9.75216
▁bosca	-9.75273
ia	-9.75276
▁ham	-9.75362
iv	-9.75391
▁Eorpacha	-9.75432
▁sochair	-9.75449
▁ceamara	-9.7555
▁cheist	-9.75693
▁eagraíochtaí	-9.75718
▁fadhbanna	-9.75735
▁Tits	-9.75748
age	-9.7581
▁eacnamaíoch	-9.75866
▁mion	-9.75923
▁Tabharfa	-9.76047
▁asal	-9.76247
▁baile	-9.76334
▁iasacht	-9.76509
fho	-9.7651
▁sheachaint	-9.76576
tv	-9.76597
▁aistrithe	-9.76676
ry	-9.76718
▁ngníomh	-9.7675
▁chóipeáil	-9.76795
ent	-9.76797
▁gceann	-9.76984
bíonn	-9.77001
▁Ballstát	-9.77148
30	-9.7717
▁sampla	-9.77252
▁scéalta	-9.77311
▁sonrach	-9.77438
▁comhaid	-9.77443
▁gníomh	-9.7747
▁mhalairt	-9.77723
▁laethanta	-9.77768
▁míreanna	-9.77776
▁Tabhair	-9.77777
▁baill	-9.77788
▁hearraí	-9.77797
▁mheán	-9.77825
▁eagraíocht	-9.77968
▁toradh	-9.78013
▁socruithe	-9.78014
▁traidisiúnta	-9.78018
▁Ábhar	-9.78071
ti	-9.78119
▁timpeall	-9.78155
▁sean	-9.78205
▁farraige	-9.78302
▁forleathan	-9.78303
▁chustaiméirí	-9.78325
▁uait	-9.78335
▁teorainn	-9.78351
▁cásanna	-9.78365
ocht	-9.78522
▁mhaoin	-9.78549
▁slán	-9.7861
▁scoir	-9.78623
▁shonraítear	-9.7863
▁aithint	-9.78677
thar	-9.78846
▁tionscal	-9.78884
▁mBord	-9.78888
▁luaitear	-9.78901
▁nochtadh	-9.78905
▁fhoireann	-9.7894
▁leabhair	-9.78944
▁bhf	-9.78948
▁lonnaithe	-9.78962
▁Leasa	-9.79042
▁plé	-9.79065
▁oifige	-9.79176
▁spóirt	-9.79177
agann	-9.79193
▁pleanála	-9.7923
▁tástáil	-9.79233
▁Oideachas	-9.79318
▁íocaíochtaí	-9.79439
▁gairmiúil	-9.79472
▁X	-9.79581
▁teasa	-9.796
▁foráil	-9.7962
▁cáin	-9.7965
▁aimsiú	-9.79764
▁cailíní	-9.79931
▁sábháilteachta	-9.8005
▁dúirt	-9.80125
▁tagairtí	-9.80195
▁Mac	-9.80306
▁bord	-9.80379
▁2007	-9.80607
▁ghairm	-9.80621
able	-9.80643
▁níor	-9.80662
▁suntasach	-9.80676
▁Bhoird	-9.80687
▁spás	-9.80687
▁himeachtaí	-9.807
▁and	-9.80754
▁Leas	-9.80795
▁éifeachtaí	-9.80884
▁scríobh	-9.80952
▁Monarcha	-9.80955
▁taispeáint	-9.80988
▁Bia	-9.81226
▁bás	-9.81262
▁ainmhithe	-9.81265
▁40	-9.81291
▁Dúin	-9.81571
▁Gréasáin	-9.81848
▁ndóigh	-9.81848
orálacha	-9.81855
▁Alt	-9.81872
▁eisiúint	-9.82085
▁iontaofa	-9.821
▁Eolas	-9.82205
fh	-9.82228
▁cailín	-9.82283
ha	-9.82318
▁réasúnach	-9.82452
▁poist	-9.82455
▁chomhaontú	-9.82463
▁slándála	-9.82464
▁réitigh	-9.82522
."	-9.82561
▁thréimhse	-9.82619
dá	-9.82643
▁neamhspleách	-9.82701
▁Speisialta	-9.82754
▁Síochána	-9.82754
▁phróiseas	-9.8279
▁Trí	-9.82868
▁.—	-9.82894
▁sprioc	-9.82998
▁bhean	-9.83026
Í	-9.83104
iúil	-9.83111
▁moltaí	-9.83137
▁cáilithe	-9.8315
▁glan	-9.83192
Á	-9.83253
▁fianaise	-9.83363
▁uaireadóirí	-9.83363
▁cliceáil	-9.83432
▁lámh	-9.83455
io	-9.83529
▁tsórt	-9.83669
▁leathnú	-9.837
▁É	-9.83871
▁íocaíochta	-9.83953
▁mbealach	-9.83975
▁ghabháil	-9.84091
▁Comh	-9.84186
▁foireann	-9.84284
▁bhainistiú	-9.84286
▁Déantóirí	-9.8432
▁bainte	-9.84337
▁samplaí	-9.84467
▁Táirge	-9.84584
▁shaol	-9.8461
▁Sh	-9.84612
▁e	-9.8487
▁gC	-9.84989
íocht	-9.85007
▁re	-9.8509
agus	-9.85107
▁tuairimí	-9.85107
▁foirm	-9.8512
▁monarcha	-9.85156
▁choinníoll	-9.85181
▁éirí	-9.85315
▁Mo	-9.85462
▁compordach	-9.85531
▁Hardcore	-9.85836
▁Tags	-9.85837
▁OÉ	-9.85844
AN	-9.85956
▁cháin	-9.85969
▁Ár	-9.8604
di	-9.86089
▁arb	-9.86133
▁friotaíocht	-9.86148
▁córais	-9.86158
▁mhéad	-9.86196
cuirtear	-9.86267
▁riachtanas	-9.86487
▁domhanda	-9.86488
▁chearta	-9.86535
▁%	-9.86592
▁cuspóir	-9.86608
25	-9.86701
▁áiteanna	-9.86702
▁focail	-9.86779
▁Aibí	-9.86894
▁dathanna	-9.86908
▁inár	-9.87043
▁leictreach	-9.87115
▁hábhair	-9.87117
▁cónaí	-9.87212
▁leictreonach	-9.874
inn	-9.87403
ty	-9.87416
▁Oifigiúil	-9.87428
▁ndéanann	-9.87562
lu	-9.87627
▁Fostaíochta	-9.87674
▁cáilíocht	-9.87692
ling	-9.87729
▁buntáistí	-9.87732
▁fuaime	-9.87785
▁réasúnta	-9.87917
▁tharla	-9.88023
▁caitheamh	-9.88058
▁scriosadh	-9.88065
▁New	-9.88069
▁rannpháirtíocht	-9.88113
▁Fearr	-9.88146
▁parlaiminteach	-9.8836
▁sheachadadh	-9.88376
▁dhíth	-9.8838
▁thosaigh	-9.88418
▁Praghas	-9.88421
▁caithfidh	-9.88428
▁tuismitheoirí	-9.88435
um	-9.88618
▁réigiún	-9.88653
▁shábháil	-9.88683
▁déileáil	-9.88693
▁Oibre	-9.88731
▁tháirgí	-9.88737
▁Pobail	-9.88739
ola	-9.88789
if	-9.88858
▁sreang	-9.88904
▁tÚdarás	-9.89045
▁gcuirtear	-9.89049
▁Faisnéise	-9.8911
▁aitheanta	-9.89159
▁cathracha	-9.89201
ile	-9.89225
▁Ltd	-9.89381
ka	-9.89387
▁seach	-9.89559
▁bliantúil	-9.89682
▁bunaíodh	-9.89684
▁athruithe	-9.89853
▁bpróifíl	-9.8999
▁hAoine	-9.8999
▁Thosaitheoirí	-9.8999
▁Aisce	-9.90003
▁Taighde	-9.9004
▁ardchaighdeán	-9.90048
▁aice	-9.90292
▁socrú	-9.90325
ation	-9.90359
▁Nuacht	-9.90434
▁taifead	-9.9044
▁sheol	-9.90578
lú	-9.90616
▁plandaí	-9.90663
▁chorp	-9.90697
▁triail	-9.90768
▁iar	-9.91039
▁siopa	-9.91202
▁inmheánach	-9.913
▁tosú	-9.91305
ri	-9.91329
▁ardú	-9.91347
▁úsáideann	-9.9142
ton	-9.91585
▁foghlama	-9.91635
▁táimid	-9.91747
▁meas	-9.9178
IO	-9.91941
▁láimh	-9.91962
▁Astráil	-9.91967
▁thuilleadh	-9.91968
▁straitéis	-9.9198
▁chothabháil	-9.91997
▁Cabhair	-9.92025
▁táille	-9.92061
▁cheantar	-9.92074
▁Google	-9.92095
▁dí	-9.92241
▁stóráil	-9.92508
▁inbhuanaithe	-9.92538
▁phraghas	-9.9256
▁Suíomh	-9.92661
▁fhoilsiú	-9.92735
un	-9.92813
lo	-9.92948
▁AN	-9.92962
▁Chosaint	-9.9297
ail	-9.92992
▁shóisialta	-9.92997
▁Dollar	-9.93013
▁chúirt	-9.93024
▁Síne	-9.93074
óg	-9.93111
▁infheistíochta	-9.93163
íochta	-9.93291
▁Réigiún	-9.93305
▁fíneáil	-9.93334
▁soláthróirí	-9.93346
ín	-9.93413
▁éagsúlacht	-9.93452
airgeadraí	-9.93688
Uimh	-9.93749
▁institiúidí	-9.93784
▁Jackets	-9.93854
▁críoch	-9.93873
ga	-9.93942
▁shonraí	-9.93946
▁cinntí	-9.93979
▁shuiteáil	-9.93985
▁hamháin	-9.93987
▁reáchtáil	-9.94002
▁Act	-9.94049
sc	-9.9424
▁Daoine	-9.94443
▁Institiúid	-9.94474
▁dheireadh	-9.94667
▁ndéanamh	-9.94667
áit	-9.94676
▁Gnó	-9.94681
▁orduithe	-9.94854
official	-9.95016
▁dearbhú	-9.95055
▁Forbairt	-9.9506
▁táillí	-9.95107
▁Eo	-9.95153
▁smaointe	-9.95354
og	-9.95389
▁árachais	-9.95419
▁tairbhe	-9.95473
ab	-9.95516
▁maoin	-9.9553
ies	-9.95589
▁gloine	-9.95696
▁lámha	-9.95703
▁bíodh	-9.95772
▁difriúil	-9.95804
▁plean	-9.95932
▁mic	-9.95954
▁Thuaidh	-9.96042
▁bonn	-9.9611
ur	-9.96195
▁Gh	-9.96284
chaighdeán	-9.96302
▁Cás	-9.96395
▁Video	-9.9643
▁Teanga	-9.96432
▁leathanaigh	-9.96448
▁beart	-9.9658
▁deich	-9.96586
▁stoc	-9.96682
▁cuideachtaí	-9.96763
▁Talmhaíochta	-9.96793
▁dlite	-9.96827
▁lear	-9.96988
▁Sraith	-9.97019
▁céad	-9.97038
▁cuntais	-9.97087
▁tionscail	-9.97149
▁leithéid	-9.97337
ll	-9.97411
▁bpróiseas	-9.97439
▁ghnóthú	-9.9744
▁cumhachtaí	-9.97441
li	-9.97447
▁caiteachas	-9.97475
▁Tugtar	-9.97475
▁teoranta	-9.97501
▁phost	-9.97546
▁imní	-9.97557
▁theacht	-9.97721
▁riosca	-9.97725
▁tíotáiniam	-9.97806
ko	-9.97889
▁dtreo	-9.9789
oifigeach	-9.97999
ut	-9.9804
▁Threesome	-9.98144
▁sábháilteacht	-9.98185
▁dócha	-9.98255
▁neartú	-9.98315
01	-9.98335
▁Stiúrthóir	-9.98353
▁ball	-9.98365
▁pointe	-9.9849
▁meáchain	-9.98498
▁sheiceáil	-9.98499
▁Ráiteas	-9.98518
▁pacáiste	-9.9854
▁Seoladh	-9.98564
▁Anois	-9.98583
▁2006	-9.9883
▁rachaidh	-9.98862
ph	-9.98863
▁cruinn	-9.99087
▁imeacht	-9.99091
▁chontae	-9.99211
▁bhforáiltear	-9.99217
▁Phen	-9.99341
▁phearsanta	-9.99436
taí	-9.99519
▁deas	-9.99561
▁taisteal	-9.9957
▁bpointe	-9.9957
▁hiarratas	-9.99577
▁Céim	-9.99655
▁chomhlacht	-9.99658
▁English	-9.99664
▁lárnach	-9.99676
▁News	-9.9979
▁cárta	-9.99809
▁bpobal	-9.9993
▁méadar	-9.99986
▁Chéad	-9.99997
nna	-10.0005
▁breá	-10.0029
▁mBaile	-10.003
▁chláir	-10.0033
▁cheadú	-10.0035
▁talmhaíochta	-10.0037
▁mhonarcha	-10.0041
int	-10.0045
ant	-10.0063
▁Phoiblí	-10.0065
ak	-10.0068
▁difear	-10.0069
▁University	-10.0083
▁III	-10.0096
▁coiste	-10.0097
▁meáin	-10.0104
ge	-10.0123
▁grúpaí	-10.0125
▁taisce	-10.0126
phost	-10.0127
▁ghairmiúil	-10.0139
ora	-10.0139
▁gníomhach	-10.0149
▁beagán	-10.0153
▁líonra	-10.0163
ina	-10.0165
▁dteannta	-10.0175
▁ndéanfaí	-10.0175
▁Foirm	-10.0182
▁timpeallacht	-10.0193
fháil	-10.0214
▁St	-10.0232
▁720	-10.0233
▁íoctha	-10.0238
▁choiste	-10.0245
▁tsuim	-10.0249
eas	-10.0256
▁liúntais	-10.026
▁beatha	-10.0282
▁gCuid	-10.0285
▁tirim	-10.0286
▁Cailíní	-10.029
▁léas	-10.029
▁Bh	-10.0292
▁ócáid	-10.0292
▁pinsean	-10.0292
▁beartas	-10.0319
▁teagmhála	-10.0322
▁éascú	-10.0323
▁infheistíocht	-10.0333
▁National	-10.0334
▁Uisce	-10.0335
▁tairiscint	-10.0343
▁gearán	-10.0352
▁sibhialta	-10.0357
▁deireanach	-10.036
▁pobal	-10.036
▁ciontach	-10.0371
▁uirlis	-10.0386
▁mhic	-10.0388
▁fuarthas	-10.0398
▁chothú	-10.0398
▁Dearadh	-10.0398
▁Mheiriceá	-10.04
▁fuck	-10.0401
▁ceadaithe	-10.0404
▁gh	-10.0404
▁fhorálacha	-10.0408
▁fheidhm	-10.0411
▁maoine	-10.0415
▁Éireannach	-10.042
▁mhodh	-10.0431
▁orm	-10.0437
▁bealaí	-10.0442
▁ghrúpa	-10.0442
▁Hot	-10.0442
▁chuirfidh	-10.0443
▁60	-10.0445
▁(8)	-10.0449
▁cúrsa	-10.045
▁Chiste	-10.0459
▁gcaoi	-10.0473
▁príomha	-10.0482
▁láimhe	-10.0493
▁scaoileadh	-10.0494
▁aisíoc	-10.0499
▁laethúil	-10.0511
▁linbh	-10.0511
▁éineacht	-10.0511
▁aeráide	-10.0514
▁ealaíne	-10.0516
▁sonracha	-10.0517
▁Meaisín	-10.0535
▁conradh	-10.0549
tabharfaidh	-10.0555
▁ord	-10.0557
▁Dia	-10.0567
▁idirlín	-10.0574
▁nglacfa	-10.0581
▁stát	-10.0587
▁cabhair	-10.0588
▁macasamhail	-10.0589
▁cúirte	-10.0589
q	-10.0592
fe	-10.0594
▁casta	-10.0595
ish	-10.0596
▁tuairisc	-10.0609
▁deacair	-10.061
100	-10.0612
▁tionscnamh	-10.0613
▁Ph	-10.0615
▁gné	-10.0622
▁láithreáin	-10.0625
▁rathúil	-10.0626
▁Crua	-10.0626
▁stádas	-10.0632
▁scéimeanna	-10.0642
▁Ansin	-10.0645
ba	-10.0647
airí	-10.0653
▁bp	-10.066
▁Bónas	-10.0664
▁taifid	-10.0664
▁gluaiseacht	-10.067
▁uaireanta	-10.0679
40	-10.0684
▁Fo	-10.0722
airgead	-10.0728
úirt	-10.0733
Leasú	-10.0739
▁acmhainn	-10.0741
▁thosach	-10.0741
▁Uachtarán	-10.0752
▁2000	-10.0752
▁Black	-10.0754
▁plaisteach	-10.0755
▁ceol	-10.0758
▁Gharda	-10.078
▁bainistíochta	-10.0795
▁méideanna	-10.0796
▁páipéar	-10.0802
▁pictiúr	-10.0806
ise	-10.0816
▁scoláirí	-10.0822
▁céimeanna	-10.0822
▁Coláiste	-10.0838
ts	-10.0841
seachas	-10.0853
CUID	-10.0855
▁óna	-10.0856
san	-10.0856
▁comhlíonadh	-10.0859
▁stáin	-10.086
▁béim	-10.0861
▁meascán	-10.0864
▁Cumann	-10.0865
▁Iris	-10.0872
irí	-10.0886
▁teicneolaíochta	-10.0893
em	-10.0895
▁Breataine	-10.0898
▁litir	-10.0898
▁chiallaíonn	-10.0898
▁tseachtain	-10.0898
▁teorainneacha	-10.0898
▁tSeirbhís	-10.0898
▁Coimirce	-10.0903
▁Monaróirí	-10.0904
▁tosach	-10.0904
of	-10.0905
▁tiomanta	-10.0909
ate	-10.0928
▁leithligh	-10.0937
▁gúna	-10.0959
▁ngair	-10.0961
▁ndearna	-10.0967
▁inti	-10.0975
▁links	-10.0977
▁feithiclí	-10.0978
▁scéime	-10.0991
▁bean	-10.0992
ice	-10.1003
▁pinsin	-10.1005
▁dt	-10.1007
ib	-10.1023
▁rialtais	-10.1026
▁chathair	-10.1031
▁contae	-10.1045
éad	-10.1048
▁turas	-10.1056
▁Cultúir	-10.1057
▁Iompair	-10.1057
▁uiscedhíonach	-10.1057
▁Ghníomhaireacht	-10.1057
▁fios	-10.1059
▁Tuaithe	-10.1098
▁fhadhb	-10.1098
▁dheonú	-10.1099
▁custaiméirí	-10.1102
ow	-10.1117
▁faighte	-10.1119
▁difríocht	-10.1134
▁comhar	-10.1134
▁iarbhír	-10.1137
▁Dearg	-10.1137
▁thiontú	-10.1137
▁clasaiceach	-10.1137
▁theastaíonn	-10.1137
▁v	-10.1138
▁fág	-10.1145
▁feidhmíocht	-10.1147
▁Am	-10.1153
▁be	-10.1166
iarr	-10.1174
▁Bí	-10.1177
▁ghinearálta	-10.1178
▁Íoslódáil	-10.1182
ord	-10.12
▁óige	-10.1204
28	-10.1206
▁l	-10.1215
▁bónas	-10.1218
▁Moms	-10.1219
▁chuaigh	-10.122
▁sheirbhísí	-10.1229
▁Fostaíocht	-10.123
▁oibríonn	-10.1239
▁fón	-10.1242
▁leasanna	-10.1242
▁cónaithe	-10.1247
der	-10.125
▁Play	-10.1253
▁cumarsáide	-10.1256
▁feithicle	-10.1259
▁gcoitinne	-10.1259
▁coileach	-10.126
▁Roghnaigh	-10.126
amh	-10.1263
▁éagsúil	-10.1276
nár	-10.1293
acasamhail	-10.1298
▁srl	-10.1301
▁limistéir	-10.1307
▁Sin	-10.1312
▁táirgeadh	-10.1314
ER	-10.1321
uk	-10.1326
▁thuras	-10.1337
▁Iarscríbhinn	-10.1341
▁feistithe	-10.1341
▁chairde	-10.1341
▁mothú	-10.1341
▁Solas	-10.1342
▁cúiseanna	-10.1343
▁Plean	-10.1343
▁Idirlíon	-10.1349
▁Teach	-10.1351
▁mban	-10.1351
▁Bliain	-10.1352
▁ceist	-10.1353
▁creidmheasa	-10.1355
▁@1	-10.1357
▁próiseála	-10.1362
▁chead	-10.1364
▁Tionscail	-10.1382
▁codanna	-10.1383
▁Clárú	-10.1385
▁tábhachtaí	-10.1385
▁sc	-10.1388
▁aitheantas	-10.1393
▁Irish	-10.1406
ins	-10.1411
▁scríofa	-10.1427
tr	-10.1427
▁Córas	-10.1431
▁Conradh	-10.1432
▁phlé	-10.1436
▁ranganna	-10.1436
▁faoiseamh	-10.1439
▁gar	-10.1451
▁thiar	-10.1453
▁gearr	-10.1453
▁muirear	-10.1456
▁údarú	-10.1459
▁Duine	-10.1466
▁díriú	-10.1466
▁Poblacht	-10.1468
FC	-10.1473
▁chostas	-10.1476
éirigh	-10.148
▁tógála	-10.148
▁Bainistíochta	-10.148
▁thuiscint	-10.148
▁Post	-10.1486
tugann	-10.1503
▁háit	-10.1506
▁2004	-10.1518
▁saille	-10.1524
▁euro	-10.1529
▁fóill	-10.1535
▁oifigigh	-10.1537
ón	-10.1538
ibh	-10.1543
▁dleathach	-10.155
▁tslí	-10.155
▁Pleanála	-10.1551
▁sócmhainní	-10.1553
▁Údaráis	-10.1562
▁saothar	-10.1569
▁w	-10.1585
nach	-10.1587
▁leigheas	-10.1588
▁Beo	-10.1591
▁bhfianaise	-10.1592
▁Domhanda	-10.1592
▁dteangacha	-10.1592
▁Whats	-10.1595
▁shárú	-10.1596
▁achtachán	-10.1613
▁bog	-10.1618
Óglaigh	-10.1633
▁bronntanas	-10.1634
▁Comhshaoil	-10.1634
▁romhainn	-10.1634
▁Áirítear	-10.1635
▁sochar	-10.1635
▁Mhaigh	-10.1639
óra	-10.1639
ime	-10.164
▁praghsanna	-10.1644
▁uirlisí	-10.1673
▁cuardach	-10.1677
▁ceapadh	-10.1678
▁uaidh	-10.1682
déanann	-10.1685
aire	-10.1688
▁cóir	-10.1697
35	-10.1699
▁úinéir	-10.1708
▁titim	-10.1719
▁féachana	-10.1721
▁glas	-10.1723
▁Bailiúchán	-10.1731
om	-10.1737
▁Ceann	-10.1738
▁thú	-10.1741
▁chúrsa	-10.1754
▁Dúiche	-10.1762
▁For	-10.1763
▁Health	-10.1777
háinig	-10.1787
▁taistil	-10.1805
▁critéir	-10.1806
▁dtíortha	-10.1808
45	-10.1811
▁aeir	-10.1816
▁chúram	-10.183
▁dtír	-10.1832
▁Dáta	-10.184
ness	-10.1845
▁Afraic	-10.1849
▁teicniúla	-10.1849
▁Cosanta	-10.1849
▁bhféadfaí	-10.1849
▁bhraitheann	-10.185
▁Leabhar	-10.1862
vi	-10.1863
US	-10.1869
▁dtabharfar	-10.187
▁Barr	-10.1871
▁Rátáil	-10.1892
▁thionscnamh	-10.1893
▁tsraith	-10.1894
▁deontais	-10.1895
▁lean	-10.1902
▁stáit	-10.1903
▁eagrú	-10.1906
ous	-10.1911
▁ghníomhaíochtaí	-10.1916
▁Banc	-10.192
ain	-10.1928
▁thrí	-10.1936
▁cultúrtha	-10.1937
▁cartlann	-10.1938
▁fuar	-10.1939
▁gCoimisinéirí	-10.194
éileamh	-10.1941
ide	-10.1946
▁chórais	-10.195
▁rialtas	-10.1955
LA	-10.1968
▁ithe	-10.1971
▁tábhacht	-10.1977
od	-10.1978
▁4.	-10.1978
▁teaghlach	-10.198
▁Ainm	-10.198
▁Seomra	-10.1988
▁seacht	-10.2
iocfaidh	-10.2007
▁Fhrainc	-10.2019
▁sp	-10.2019
▁athbhreithnithe	-10.2024
▁mbainfidh	-10.2024
▁ghlanadh	-10.2025
▁Náisiún	-10.2026
▁réigiúin	-10.2027
ot	-10.203
▁dréacht	-10.203
▁staidéir	-10.203
▁tithíochta	-10.2031
so	-10.204
con	-10.205
che	-10.2051
▁Tarraing	-10.2057
▁2001	-10.206
▁monatóireacht	-10.206
▁chuntas	-10.2067
▁huathoibríoch	-10.2068
▁Straitéis	-10.2079
úradh	-10.2089
org	-10.2092
05	-10.2097
▁Bhallstáit	-10.2112
▁spins	-10.2113
▁teangacha	-10.2119
▁bunúsach	-10.2126
▁mBéarla	-10.2127
▁2005	-10.2129
den	-10.2137
▁incháilithe	-10.2143
aim	-10.2144
▁gcroí	-10.2145
▁gCúirt	-10.2156
▁shiúl	-10.2157
▁As	-10.2159
líne	-10.2161
▁tionscnaimh	-10.2163
▁dheimhniú	-10.2164
iompar	-10.2168
AL	-10.2169
est	-10.2171
iar	-10.2179
ama	-10.2183
más	-10.2189
▁Leab	-10.2199
▁ardchaighdeáin	-10.2202
▁Ceannais	-10.2203
▁Amateurs	-10.2204
▁roghnaigh	-10.2209
▁deontas	-10.2209
▁sealadach	-10.2213
pm	-10.2221
▁siopaí	-10.2225
▁úsáideoirí	-10.2237
aid	-10.2238
▁rang	-10.2246
▁fuinneamh	-10.2247
▁inmhuirearaithe	-10.2247
▁tugtar	-10.2247
▁reachtúil	-10.2247
▁chríoch	-10.2256
▁Lucht	-10.2264
▁Céard	-10.2268
▁strap	-10.2288
▁mhaoiniú	-10.2291
▁caidreamh	-10.2293
▁fiosrúcháin	-10.2338
▁Imirt	-10.234
▁2003	-10.234
▁sárú	-10.2343
aíochta	-10.235
iom	-10.2351
▁gcumas	-10.2352
▁seachtain	-10.2353
▁fostaí	-10.2357
▁€1	-10.236
▁críochnaithe	-10.2361
▁nádúr	-10.2382
▁gcuirfí	-10.2383
▁ceoil	-10.2384
▁chuí	-10.2392
aistriú	-10.2394
Aibreán	-10.24
▁phlean	-10.242
▁bhfoireann	-10.2429
▁rannpháirtithe	-10.2429
▁dhearadh	-10.2436
▁treoracha	-10.244
▁roinn	-10.2444
▁bhrú	-10.2445
▁leanfaidh	-10.2447
▁Léigh	-10.2448
▁Ghearmáin	-10.2463
▁Achtanna	-10.2465
▁múinteoir	-10.2466
▁feidhmíochta	-10.247
▁leasuithe	-10.2471
▁héifeachtach	-10.2473
▁Bhallstát	-10.2475
▁feistí	-10.2475
▁chiontú	-10.2476
▁bhféadfar	-10.2476
▁scála	-10.2478
▁Oireachtas	-10.2478
▁mholadh	-10.2482
▁CO	-10.2483
▁La	-10.2488
ive	-10.2499
▁intinn	-10.2519
▁ríomhphost	-10.2523
▁un	-10.2528
ity	-10.2537
▁éag	-10.2544
▁cruth	-10.2549
úcháin	-10.2554
ment	-10.256
▁gcéanna	-10.2568
▁Aistriúchán	-10.2568
ja	-10.257
▁thalamh	-10.2571
▁fiche	-10.2571
▁dhó	-10.2571
Ú	-10.2572
▁Luain	-10.2573
▁leictreachais	-10.2573
▁dhlí	-10.2577
tóir	-10.2585
▁vóta	-10.2598
▁dleacht	-10.26
▁rannpháirteach	-10.2609
▁Stair	-10.2609
SA	-10.2613
▁Iarratais	-10.2615
▁Mheán	-10.2615
▁thuismitheoirí	-10.2617
▁chomhaltaí	-10.2619
▁leasaítear	-10.2627
▁fhaightear	-10.2662
▁dúshláin	-10.2666
▁Uathoibríoch	-10.2667
▁Ós	-10.2667
▁Cíocha	-10.2673
▁íomhá	-10.2675
xxx	-10.2705
RA	-10.2708
WHO	-10.271
▁úr	-10.2718
▁bhliantúil	-10.2719
▁threoir	-10.2722
▁ghníomhaíocht	-10.2732
▁shláinte	-10.2733
▁imscrúdú	-10.2734
AS	-10.274
loingseoireachta	-10.2743
▁iarrthóir	-10.2747
ré	-10.275
▁galánta	-10.2756
▁pointí	-10.2756
▁Bosca	-10.2758
▁cistí	-10.2758
▁Cineál	-10.2758
▁Spóirt	-10.2761
▁Cumarsáide	-10.2761
▁fhianaise	-10.2763
▁thír	-10.2767
▁táirgthe	-10.2768
▁éilimh	-10.2775
".	-10.2779
chta	-10.2786
▁comhionann	-10.2793
▁Feidhm	-10.2793
▁Big	-10.2793
▁ainmniú	-10.2796
ct	-10.2799
ter	-10.2803
▁saincheisteanna	-10.2805
▁Teaghlaigh	-10.2809
▁bainistiú	-10.2821
Le	-10.2841
▁teagaisc	-10.2852
▁chuntasaíochta	-10.2852
▁treoirlínte	-10.2852
▁Cuimsiú	-10.2853
▁comhad	-10.2854
▁Bun	-10.2861
▁sain	-10.2871
▁catagóir	-10.2883
▁mheasúnachta	-10.2886
▁sloinne	-10.29
▁chaomhnú	-10.29
▁míleata	-10.29
▁greannmhar	-10.2903
▁Ciallaíonn	-10.2903
▁Rialú	-10.2904
▁Euro	-10.2908
▁Fh	-10.2911
les	-10.2918
▁roghna	-10.2928
▁pá	-10.2934
▁dian	-10.2938
fhéadfá	-10.2948
▁Ginearálta	-10.2948
▁chúrsaí	-10.2962
▁spriocanna	-10.2963
▁ríomhaireachta	-10.2964
ber	-10.2965
▁pháirtí	-10.2969
07	-10.2971
▁dlíthiúil	-10.2997
▁moladh	-10.3
▁tae	-10.3001
▁Charm	-10.3004
▁Be	-10.3005
fimid	-10.3018
ní	-10.3031
▁me	-10.3035
ance	-10.3035
▁ghníomh	-10.3037
▁Ath	-10.3039
▁lig	-10.304
AP	-10.3041
art	-10.3044
▁Inexperienced	-10.3045
▁Áitiúla	-10.3046
▁Liúntas	-10.3046
▁tagtha	-10.3046
▁cathaoirleach	-10.3047
▁dhearbhú	-10.305
▁Samhna	-10.3053
ell	-10.3056
▁Super	-10.3058
▁tine	-10.3064
▁cúramach	-10.3064
▁easpa	-10.3064
pa	-10.3068
▁ionaid	-10.3073
▁Rialacha	-10.3077
▁cruthaithe	-10.3081
▁Cá	-10.3095
▁bualadh	-10.3095
▁corpraithe	-10.3095
▁hArd	-10.3097
▁nd	-10.31
▁Eacnamaíoch	-10.3101
▁Ailt	-10.3101
▁pas	-10.3104
ob	-10.3118
bhunaithe	-10.3126
▁chóireáil	-10.3128
▁Edit	-10.3132
News	-10.3135
▁Te	-10.3147
▁thástáil	-10.3147
▁Chill	-10.3157
▁suimiúil	-10.3163
▁dh	-10.3164
00	-10.317
▁gléas	-10.3171
▁oibreacha	-10.3175
dy	-10.3184
▁(1	-10.3188
▁co	-10.3191
É	-10.3191
▁oibrithe	-10.3191
▁lascaine	-10.3193
▁brabúis	-10.3194
▁foirmeacha	-10.3195
▁pleananna	-10.3198
▁blas	-10.3199
va	-10.3201
▁tógáil	-10.3202
▁mhargaidh	-10.3203
60	-10.3204
▁Scoileanna	-10.3205
▁teilifíse	-10.3209
chuirfear	-10.3209
▁amhras	-10.321
▁breith	-10.3218
▁díolacháin	-10.3225
▁bhall	-10.3229
arna	-10.3239
▁stylish	-10.3243
▁gréine	-10.3243
▁meicniúil	-10.3243
▁mbliain	-10.3243
▁beirt	-10.3244
ang	-10.3245
▁gcustaiméirí	-10.3247
vo	-10.3251
chán	-10.3256
Na	-10.3256
▁gníomhaíochta	-10.3259
▁chruinniú	-10.326
▁ranga	-10.3264
eir	-10.3276
cho	-10.328
▁200	-10.3286
▁ghnéas	-10.3286
▁Grianchloch	-10.3293
▁chailleadh	-10.3293
▁Chorcaí	-10.3294
▁nuashonrú	-10.3295
04	-10.3299
▁meaisíní	-10.3299
▁lua	-10.3307
▁digiteach	-10.331
▁aimsire	-10.3321
▁bunúsacha	-10.3332
▁Mná	-10.3345
▁bpost	-10.3345
▁cruinnithe	-10.3348
▁dhiailiú	-10.3353
▁ríthábhachtach	-10.336
Oifig	-10.3361
▁Éireannacha	-10.3363
▁caighdeánach	-10.3365
03	-10.337
▁aire	-10.3374
▁prionsabal	-10.3394
▁Rolex	-10.3394
▁scaipeadh	-10.3394
▁ríomhphoist	-10.3394
▁mhná	-10.3394
▁scor	-10.3399
anta	-10.3401
▁chomhairle	-10.3403
su	-10.3405
▁tábla	-10.3407
▁smacht	-10.3408
▁World	-10.3412
fa	-10.3421
▁Soláthra	-10.3432
ya	-10.3433
▁Iodáil	-10.3437
▁úsáideoir	-10.344
éir	-10.3443
▁Uaireanta	-10.3445
▁inniúil	-10.3445
▁Gluaiseacht	-10.3451
ap	-10.3453
▁Chlár	-10.3453
ki	-10.3454
▁fhorléiriú	-10.3454
▁spéis	-10.3459
tal	-10.3463
▁Bán	-10.3473
top	-10.3481
▁deir	-10.3482
▁sealbhóir	-10.3484
lin	-10.349
▁dualgas	-10.3496
▁craiceann	-10.3496
▁IV	-10.3497
ni	-10.3497
CC	-10.3499
▁aicme	-10.35
▁gcomhthéacs	-10.3501
▁Óige	-10.3507
▁gov	-10.3508
▁có	-10.3512
▁gcomh	-10.3514
ímid	-10.3516
▁daonna	-10.3517
▁5.	-10.3523
▁liathróid	-10.3531
▁nóim	-10.3539
IR	-10.3542
▁rath	-10.3542
▁dhiúscairt	-10.3547
▁seachadadh	-10.3547
▁thiocfaidh	-10.3548
▁Trealamh	-10.355
▁saoránaigh	-10.3551
ai	-10.3554
▁seans	-10.3556
▁mhíchumas	-10.3558
▁Star	-10.3563
▁gníomhaíocht	-10.3563
▁dlúth	-10.3564
ioncam	-10.3567
tu	-10.3583
mu	-10.3583
▁sruth	-10.3584
ah	-10.3591
▁bain	-10.3594
ier	-10.3595
▁chailleann	-10.36
▁prionsabail	-10.3601
▁saoráidí	-10.3606
ner	-10.3606
ud	-10.3617
▁bainc	-10.3617
▁dearfach	-10.3623
irt	-10.3641
0,000	-10.3642
▁chríochnú	-10.3651
▁dhaingniú	-10.3651
▁pháistí	-10.3651
▁comhpháirteanna	-10.3651
▁Leabharlann	-10.3651
▁bhéal	-10.3651
▁fhágann	-10.3652
▁shealbhú	-10.3653
éar	-10.3657
▁tomhaltóirí	-10.3658
▁baineann	-10.3659
▁Cód	-10.3664
▁cíos	-10.3669
▁íocadh	-10.3673
▁leordhóthanach	-10.3673
▁ionadaithe	-10.368
cl	-10.3686
wa	-10.3689
▁Teicneolaíochta	-10.3692
ron	-10.3696
▁chomhlánú	-10.3702
▁Taithí	-10.3702
▁cialluíonn	-10.3703
▁choigeartú	-10.3703
▁Bréagáin	-10.3703
▁áilleacht	-10.3705
▁Tástáil	-10.3706
▁Ta	-10.3713
▁bháis	-10.3717
▁cearn	-10.3722
per	-10.3724
▁fheithicil	-10.3726
by	-10.3731
athrú	-10.3746
▁Neamh	-10.3747
▁bhformáid	-10.3755
▁foilsíodh	-10.3755
▁cliste	-10.3755
▁éadrom	-10.376
▁Cosaint	-10.3765
▁iascaireachta	-10.3767
▁bunú	-10.377
▁pro	-10.377
au	-10.3772
▁athchóiriú	-10.3774
▁comhoiriúnacht	-10.3777
▁Blonde	-10.378
▁príobháideach	-10.3784
och	-10.3784
06	-10.3784
ism	-10.3785
▁Fheidhmiú	-10.3789
▁snáithín	-10.3791
▁fhomhír	-10.3799
▁Raidió	-10.3807
▁bezel	-10.3807
▁bhfolach	-10.3809
▁hainmneacha	-10.3809
▁punt	-10.3811
▁chailíní	-10.3811
▁clúdach	-10.3812
▁ceangailte	-10.3814
▁srianta	-10.3817
▁im	-10.3821
▁long	-10.3825
ary	-10.3827
▁ordaithe	-10.3835
tí	-10.3837
▁Al	-10.3847
▁Uí	-10.3853
▁stiúrthóir	-10.3857
▁Airgid	-10.386
▁foirgneamh	-10.386
▁margaidh	-10.386
▁comhshaoil	-10.386
▁gCoiste	-10.3862
▁suimeanna	-10.3865
éiríonn	-10.3869
▁Socha	-10.3881
▁aonad	-10.3884
▁halt	-10.3899
inne	-10.3903
▁Dhá	-10.3907
eithre	-10.3911
▁Achomhairc	-10.3913
▁Domhnach	-10.3913
▁Threoir	-10.3913
▁Stíl	-10.3914
▁creat	-10.3918
);	-10.392
hi	-10.3921
úla	-10.3923
▁cheadúnas	-10.3923
▁mhalartú	-10.3926
▁stáisiún	-10.3927
▁shon	-10.3933
ara	-10.3937
Chúirt	-10.3938
Ar	-10.394
▁chó	-10.394
▁Dh	-10.3941
▁phointe	-10.3948
úsáideoirí	-10.3956
▁Éisteachta	-10.3957
▁bua	-10.3957
▁faisean	-10.3964
▁Phobail	-10.3967
▁tharchur	-10.3968
▁stíleanna	-10.397
▁snasta	-10.3971
lá	-10.3983
▁cuimsitheach	-10.3994
▁Watch	-10.3995
ana	-10.4001
▁iarratasóir	-10.4001
▁35	-10.4012
SC	-10.4015
▁bhosca	-10.4017
▁cultúr	-10.4019
▁hEORPA	-10.4021
▁tréimhsí	-10.4021
▁vótáil	-10.4021
▁Iarthair	-10.4021
▁saineolaithe	-10.4021
▁chuma	-10.4021
▁stórála	-10.4033
▁cheap	-10.4042
▁Brunette	-10.4043
▁thabharfai	-10.4047
ho	-10.405
▁réim	-10.4067
sk	-10.4071
▁éigeandála	-10.4075
▁teas	-10.4076
▁Obair	-10.4081
▁údar	-10.4083
▁Ombudsman	-10.4084
mi	-10.4084
▁Tír	-10.4085
▁bhaill	-10.4086
▁éifeachtúlacht	-10.4094
▁asbhaint	-10.4096
▁áiseanna	-10.41
▁bac	-10.4107
80	-10.4113
▁té	-10.4119
mhaith	-10.4123
▁ceangal	-10.4124
▁inniúla	-10.4128
▁mionsonraithe	-10.4129
▁Mhárta	-10.4129
▁tsráid	-10.4129
▁AGUS	-10.4129
▁glactha	-10.413
▁ceannairí	-10.4136
▁ghearr	-10.414
▁thiomáint	-10.4143
▁carr	-10.4144
▁la	-10.4152
▁dtiocfaidh	-10.4154
II	-10.4159
▁Idir	-10.4162
▁dualgais	-10.4168
▁Bunaío	-10.4169
▁st	-10.4169
▁Bhean	-10.4169
▁Gníomhaíochta	-10.4171
▁monaróir	-10.4174
▁voltas	-10.4184
▁Thug	-10.4184
▁diúltú	-10.4185
▁Taisce	-10.4191
bo	-10.4192
op	-10.4193
▁díospóireacht	-10.4204
▁theanga	-10.4206
▁Eile	-10.421
ley	-10.4217
oll	-10.4221
▁comhartha	-10.4224
▁suí	-10.4229
▁dhliteanas	-10.4239
▁ghréasáin	-10.4239
▁shibhialta	-10.4239
▁mbaol	-10.4241
▁gceannas	-10.4244
▁íosta	-10.4246
▁Fhorbairt	-10.425
▁Uaireadóirí	-10.425
CA	-10.4251
▁fianáin	-10.4251
que	-10.4252
achas	-10.4254
▁Coinbhinsiún	-10.4255
▁500	-10.4261
fhoireann	-10.4261
▁Anal	-10.4262
▁Chearta	-10.4263
▁po	-10.4265
31	-10.4269
▁Ro	-10.4274
▁Car	-10.4286
▁toghcháin	-10.4294
▁bhforbairt	-10.4294
▁billiún	-10.4294
▁Preasráitis	-10.4294
▁léasair	-10.43
▁cumarsáid	-10.43
Co	-10.4301
▁cruinneas	-10.4301
UK	-10.4302
▁béil	-10.4303
mer	-10.4315
▁Jacket	-10.4315
▁próiseáil	-10.4322
rú	-10.4325
eamh	-10.4328
si	-10.4333
▁32	-10.4344
▁redtube	-10.4349
▁sholáthraíonn	-10.435
men	-10.4351
▁muirir	-10.4351
abhróidh	-10.4352
▁imreoirí	-10.4352
▁soicind	-10.4353
▁Ma	-10.4373
▁ús	-10.4374
▁34	-10.4381
▁Pro	-10.4384
car	-10.4391
ús	-10.4393
▁Mh	-10.4395
Chat	-10.4403
▁Masturbate	-10.4405
▁thomhas	-10.4405
▁Bracelet	-10.4405
▁nuacht	-10.4406
▁institiúid	-10.4407
▁Cha	-10.441
▁chion	-10.4411
▁American	-10.4413
▁chónaithe	-10.4414
▁Tithíochta	-10.4414
▁Con	-10.4415
32	-10.4415
▁tarlú	-10.4416
▁spreag	-10.4416
▁saoil	-10.4425
3.	-10.4425
▁aiste	-10.4428
▁seachtrach	-10.4428
cc	-10.4431
▁haois	-10.4432
▁ionadaí	-10.4437
▁trá	-10.4438
▁IP	-10.4439
▁chomhlachta	-10.4441
500	-10.445
▁oibríochtaí	-10.4453
▁doras	-10.446
De	-10.4461
▁lógó	-10.4461
▁PHARLAIMINT	-10.4461
▁teicniúil	-10.4461
▁ráitis	-10.4462
▁saintréithe	-10.4464
▁Mhic	-10.4465
▁nAchtanna	-10.4465
▁Próifíl	-10.4466
▁Gearmáinis	-10.4474
27	-10.4474
▁riocht	-10.4475
▁Athbhreithniú	-10.4477
▁nuálaíocht	-10.4489
.00	-10.4495
09	-10.45
▁watch	-10.4505
áis	-10.451
▁ghearrthóg	-10.4518
▁bóithre	-10.4518
▁Críostaí	-10.4521
▁Oiliúna	-10.4521
▁mbunaítear	-10.4522
▁tabharfar	-10.4523
▁bailí	-10.4533
▁45	-10.4535
▁Mara	-10.4536
▁Sainmhíni	-10.4537
▁se	-10.454
▁Spáinn	-10.4545
br	-10.4549
90	-10.4556
Caibidil	-10.4568
▁Meiriceá	-10.4569
áilte	-10.4571
-19	-10.4572
▁gcomhlacht	-10.4572
▁bPríomh	-10.4575
▁Fir	-10.4578
▁daingean	-10.4579
▁luí	-10.4582
▁luaite	-10.4582
▁uainn	-10.4584
sp	-10.4584
▁bhord	-10.4586
26	-10.4588
▁Cinneadh	-10.4591
▁cháilíocht	-10.4612
▁ceadúnais	-10.4614
eadaíonn	-10.4616
imeachtaí	-10.4624
▁Maith	-10.4627
▁Faisnéis	-10.4627
iúla	-10.4631
▁Bhliantúil	-10.4632
▁pháiste	-10.4632
▁bhrabhsálaí	-10.4634
▁oibriúcháin	-10.4635
▁scáileán	-10.4635
▁Lu	-10.4636
he	-10.4639
▁Chu	-10.464
Comhaontú	-10.4643
abhraíonn	-10.4644
lach	-10.4646
▁Faoin	-10.4653
▁tithe	-10.4653
▁iarr	-10.4655
ver	-10.4666
▁póca	-10.4672
CEE	-10.4673
29	-10.4676
▁fostóir	-10.4677
artha	-10.4678
itheoirí	-10.468
▁polaitiúil	-10.4689
▁buataisí	-10.4689
ual	-10.469
▁shonrú	-10.469
▁fhéadfaidh	-10.469
▁Aonair	-10.4692
▁gcomhlíonann	-10.4692
▁Mens	-10.4702
▁comharthaí	-10.4707
uisce	-10.471
We	-10.4714
&	-10.4722
08	-10.4725
▁siúcra	-10.473
du	-10.4739
▁Tras	-10.4744
▁comhdhéanta	-10.4748
▁Poist	-10.4748
▁Sna	-10.4751
ov	-10.4754
mid	-10.4756
Mar	-10.4764
raí	-10.4767
▁Dath	-10.477
▁buí	-10.478
Ch	-10.4799
▁Sráid	-10.4804
▁Masturbation	-10.4805
▁Foilsiú	-10.4806
▁uathu	-10.4806
▁oifigiúla	-10.4806
▁ualach	-10.481
ny	-10.4818
scríofa	-10.482
▁stiúrthóirí	-10.4824
▁36	-10.483
▁muinín	-10.4842
▁pháirt	-10.4851
▁Masturbating	-10.4864
▁dáileadh	-10.4864
▁fhreagairt	-10.4864
▁rubair	-10.4864
▁Allah	-10.4864
▁fágtha	-10.4866
▁páirteanna	-10.4869
▁aimsir	-10.4869
▁oidhreacht	-10.4871
▁dúbailte	-10.4871
▁Teagmháil	-10.4872
▁bhféadfaid	-10.4874
▁City	-10.4877
tion	-10.4882
po	-10.4883
▁CE	-10.4891
our	-10.4895
▁thús	-10.4908
▁saoránach	-10.491
gal	-10.4916
fi	-10.4918
▁iasc	-10.492
fr	-10.4922
▁cothabháil	-10.4923
▁sheirbheáil	-10.4923
▁RTÉ	-10.4923
▁cruthaíodh	-10.4923
▁foláir	-10.4924
▁dhul	-10.4933
▁dliteanas	-10.4934
ek	-10.4934
▁Cáin	-10.4937
ár	-10.4938
▁cathrach	-10.4949
▁cártaí	-10.4951
▁scór	-10.496
▁foilsithe	-10.4961
eoir	-10.4969
▁choinne	-10.4979
▁bracelet	-10.4982
▁shóisialaigh	-10.4982
▁caiteachais	-10.4982
▁comhábhair	-10.4983
▁thíortha	-10.4983
▁cóipeanna	-10.4985
▁bainne	-10.4988
▁cúiteamh	-10.4992
ID	-10.5001
▁ÁSPC	-10.5001
▁míle	-10.5005
02	-10.5007
▁baol	-10.501
▁thagairt	-10.5024
▁Uachtaránacht	-10.5026
bi	-10.5029
king	-10.503
In	-10.5037
▁díolúine	-10.5041
▁mBunreacht	-10.5041
▁páipéir	-10.5041
▁shonrófar	-10.5041
▁comhoibriú	-10.5042
▁chruinnithe	-10.5042
▁bainteach	-10.5043
▁Tuarascálacha	-10.5045
▁leanann	-10.5051
fhoils	-10.5052
▁imthosca	-10.5055
▁Fógra	-10.5056
▁Athrú	-10.5056
▁tré	-10.5074
▁cábla	-10.5084
▁ghné	-10.5086
min	-10.5087
▁tograí	-10.5091
EU	-10.5095
▁bóthair	-10.5101
▁dlínse	-10.5102
ker	-10.5103
▁Méid	-10.5106
▁maoinithe	-10.5106
▁mhúinteoirí	-10.5109
▁Anseo	-10.5109
▁téigh	-10.5109
▁indéanta	-10.511
▁iascaigh	-10.511
ey	-10.5111
▁Man	-10.5114
(2)	-10.5118
ve	-10.5119
▁leathair	-10.512
▁Ordú	-10.512
-1	-10.5121
▁Cuideachta	-10.5127
ricelist	-10.514
EA	-10.5145
ms	-10.5155
ure	-10.5158
▁láidre	-10.5161
▁Rannóg	-10.5161
▁ugg	-10.5167
▁bhainfidh	-10.5169
▁línte	-10.5172
▁Oileán	-10.5174
▁roghnaithe	-10.5179
ionad	-10.518
ochta	-10.5184
oideachas	-10.5187
▁k	-10.519
▁fheidhmeanna	-10.5192
up	-10.5193
▁Iar	-10.5199
eal	-10.5201
▁He	-10.5208
for	-10.5213
▁Rúis	-10.5213
▁cóireáil	-10.5219
▁troid	-10.5221
▁Saincheaptha	-10.5222
▁bhíthin	-10.5222
▁healaíona	-10.5223
▁teachtaireacht	-10.5223
▁bhfuair	-10.5224
▁achomhairc	-10.5225
▁sceimhlitheoir	-10.5231
▁Ón	-10.5237
▁mheasúnú	-10.524
▁Beartas	-10.5241
gar	-10.5248
ster	-10.5259
▁33	-10.5263
▁gcúrsa	-10.5265
▁gás	-10.5266
▁90	-10.527
uireadh	-10.5278
▁Pandora	-10.5283
▁Rúipí	-10.5283
▁cothabhála	-10.5283
▁cleachtais	-10.5284
chan	-10.5285
▁Cuardaigh	-10.5286
▁India	-10.5287
▁oiriúnú	-10.5298
▁MP	-10.5305
St	-10.5315
▁ardán	-10.5322
▁con	-10.5325
▁imreoir	-10.5326
íos	-10.5327
las	-10.5331
íoch	-10.5338
ong	-10.5338
oth	-10.5339
▁70	-10.5341
▁Domhnaigh	-10.5344
▁gcuntas	-10.5344
IS	-10.5347
▁gearradh	-10.5351
▁mais	-10.5368
▁SEA	-10.537
▁ceadú	-10.5371
za	-10.5374
ial	-10.5385
UN	-10.5385
▁Cons	-10.5387
Gaeilge	-10.5389
▁réigiúnach	-10.539
▁vótála	-10.5396
odh	-10.5401
▁mháthair	-10.5406
▁Tionól	-10.5406
▁tuaithe	-10.5408
▁céile	-10.541
▁Téigh	-10.5411
lia	-10.5412
▁dóiteáin	-10.5412
ci	-10.5416
▁ha	-10.5417
▁heagraíochtaí	-10.5418
▁(9)	-10.5419
thas	-10.5439
gi	-10.5445
▁“(	-10.5452
gníomhaireachtaí	-10.5458
éirí	-10.5465
▁gheimhridh	-10.5468
▁láimhseáil	-10.5468
▁80	-10.5469
▁buíochas	-10.547
▁galar	-10.547
▁gCuideachtaí	-10.5472
▁Cumhacht	-10.5473
▁gcuirfidh	-10.5476
sha	-10.5487
▁suíomhanna	-10.5489
▁athnuachan	-10.5508
CH	-10.5513
cal	-10.5524
uck	-10.5526
▁difriúla	-10.5531
▁luxurious	-10.5531
▁tSeapáin	-10.5531
▁rugadh	-10.5531
▁bogadh	-10.5537
▁choinníollacha	-10.5547
lt	-10.555
oibrithe	-10.5554
▁ainmneacha	-10.5581
▁soghluaiste	-10.5587
▁Scoile	-10.5587
▁Ghaeltacht	-10.5588
▁Facebook	-10.5594
TS	-10.5594
▁Oíche	-10.5594
▁dtagann	-10.5595
ili	-10.5598
▁fostaíocht	-10.5599
▁astu	-10.5605
EC	-10.561
▁cara	-10.5611
▁físe	-10.5612
fheidhmiú	-10.5616
less	-10.5617
one	-10.5618
65	-10.5624
▁ionsaí	-10.563
éal	-10.5631
óid	-10.5637
ix	-10.5642
eo	-10.5647
AR	-10.5648
rian	-10.5649
▁Soláthraí	-10.5656
▁tobac	-10.5657
▁bhfreagra	-10.5657
▁caipitil	-10.5657
▁comhaontuithe	-10.5657
▁próisis	-10.5658
▁eacnamaíocha	-10.5668
▁oibleagáid	-10.5676
▁Rátaí	-10.5681
▁leictreacha	-10.5688
48	-10.5708
amar	-10.5714
light	-10.5715
33	-10.5715
▁tsaoil	-10.5721
isc	-10.5723
▁Choláiste	-10.5726
▁Cumas	-10.5726
▁Choinbhinsiún	-10.5727
▁bhrath	-10.5729
▁margaí	-10.5732
▁rí	-10.5737
ex	-10.5737
ble	-10.5748
▁rioscaí	-10.5748
▁gcríoch	-10.5751
▁straitéisí	-10.5754
▁Nós	-10.5759
▁eagla	-10.5761
▁luachanna	-10.5774
▁maireachtáil	-10.5785
▁moncler	-10.5785
▁pionós	-10.5785
▁folctha	-10.5785
▁hEilvéise	-10.5785
▁gCiste	-10.5785
▁thíolacadh	-10.5785
▁shíniú	-10.5785
▁Chathair	-10.5786
▁chomhshaoil	-10.5786
▁aigéad	-10.5789
70	-10.5792
▁riail	-10.5795
▁No	-10.5803
hathanna	-10.5805
▁Cruinniú	-10.5812
bu	-10.5821
▁gClár	-10.5824
▁“...	-10.5825
raitheann	-10.5828
▁mórán	-10.5831
▁Réalta	-10.5833
95	-10.5839
ille	-10.5843
aw	-10.5847
▁Seice	-10.5848
▁Sóisialaí	-10.5849
▁cóireála	-10.585
▁thaifeadadh	-10.5851
▁criostail	-10.5855
▁mara	-10.5859
▁Il	-10.5862
IT	-10.5867
▁Services	-10.5872
oifig	-10.588
SS	-10.5885
▁beacht	-10.5889
ST	-10.5891
suas	-10.5891
.—	-10.5892
éis	-10.5894
▁tarraingt	-10.5895
▁Tacaíocht	-10.5896
-2	-10.5897
▁eis	-10.5897
ham	-10.5898
▁2016.	-10.5901
▁Dial	-10.5903
ACHT	-10.5904
aint	-10.5907
▁Times	-10.5911
▁soláthair	-10.5914
▁1952	-10.5916
▁clárúcháin	-10.5919
▁solúbtha	-10.592
Ní	-10.5926
▁freagracht	-10.5929
▁www	-10.5933
ras	-10.5936
óga	-10.5938
▁bhóthar	-10.5938
▁dhéag	-10.5943
my	-10.5956
▁úinéireacht	-10.5962
▁píosa	-10.5973
▁ceachta	-10.5974
▁raidió	-10.5979
▁tiomáint	-10.5979
▁máthair	-10.598
▁tagartha	-10.598
▁forordaithe	-10.598
▁foinse	-10.5981
▁míre	-10.5981
▁Gnéithe	-10.5981
▁Naomh	-10.5982
▁uasta	-10.5984
▁fíorúil	-10.5986
▁úsáideora	-10.5988
▁cionta	-10.599
▁Léinn	-10.5991
▁Council	-10.5998
jo	-10.5999
han	-10.6004
iarratasóir	-10.6006
CP	-10.6009
▁droch	-10.6013
pi	-10.6013
▁chúlghairm	-10.6016
▁Y	-10.6017
▁pe	-10.6017
96	-10.6021
ás	-10.6021
▁x	-10.6023
SAMH	-10.6027
▁úsáideach	-10.6033
92	-10.6037
▁Foghlaim	-10.6041
▁pósta	-10.6042
▁gcruinniú	-10.6045
▁thabharfar	-10.6046
▁sochaí	-10.6046
99	-10.6047
▁formhór	-10.6047
áireamh	-10.6049
▁carbóin	-10.605
▁Indiach	-10.605
▁Me	-10.6052
ps	-10.6053
▁rialála	-10.6056
▁aigne	-10.6059
▁Chuideachta	-10.6059
▁Diamond	-10.6063
ick	-10.6073
léargas	-10.6081
ata	-10.6084
▁Inter	-10.6084
▁mol	-10.6086
▁chaith	-10.6087
▁Óir	-10.609
▁réigiúnacha	-10.6092
▁eol	-10.6094
▁cúraim	-10.6094
▁sine	-10.6099
▁gníomhaire	-10.6099
mp	-10.6099
▁ceannach	-10.6102
▁iomaíocht	-10.6103
▁Líon	-10.6105
▁Answers	-10.6112
▁Feirste	-10.6112
▁mílte	-10.6112
▁Toscaireacht	-10.6112
▁fostú	-10.6112
▁leideanna	-10.6112
Official	-10.6112
▁gnólachtaí	-10.6113
▁saoirse	-10.6116
▁éarlais	-10.6123
▁fórsaí	-10.6123
▁chonradh	-10.6125
▁dlús	-10.6132
▁Life	-10.6138
▁1997	-10.6139
▁chruth	-10.6145
▁iomláine	-10.6148
▁Oibr	-10.6174
▁Li	-10.6175
rá	-10.6176
Re	-10.6176
▁Eolaíochta	-10.6176
▁Shóisialaigh	-10.6178
▁Tríonóide	-10.6178
▁sheepskin	-10.6178
▁daonra	-10.6178
▁inarb	-10.6179
▁1976	-10.618
▁naked	-10.6182
▁conarthaí	-10.6187
▁gaolmhara	-10.6187
eagraíochtaí	-10.6187
▁roinnte	-10.619
▁poll	-10.6192
▁bhia	-10.6195
▁bheag	-10.62
▁Foilsithe	-10.62
fhorbairt	-10.6206
▁taise	-10.6209
▁toirt	-10.621
▁charm	-10.6216
▁tromchúiseach	-10.6219
▁Tuairisc	-10.6221
▁ionadaíocht	-10.6221
▁srian	-10.6232
▁sheirbhís	-10.624
▁theicniúil	-10.6245
▁Ghlac	-10.6246
▁stop	-10.6247
▁Oscailte	-10.6247
▁Múinteoirí	-10.6249
rm	-10.6253
▁tábhachtacha	-10.6253
▁ex	-10.6254
▁tuarascálacha	-10.6255
▁bhfaigh	-10.6255
tach	-10.6256
▁úis	-10.6256
▁molta	-10.6257
▁maoirseachta	-10.6261
obair	-10.6264
▁mbeart	-10.6264
▁idirdhealú	-10.6272
▁léirithe	-10.6277
oo	-10.6282
nt	-10.6283
▁scair	-10.6288
▁agóid	-10.6291
▁luch	-10.6299
íní	-10.6306
▁Sóisialai	-10.6313
▁vidio	-10.6313
▁Feidhmiúcháin	-10.6313
▁glasraí	-10.6313
▁44	-10.6316
▁Thuaisceart	-10.6317
▁lánaimseartha	-10.6318
▁saibhir	-10.6319
▁Rúisis	-10.632
▁lch	-10.632
▁Mam	-10.6331
▁Data	-10.6331
▁dlíthe	-10.6332
▁gcinn	-10.6341
ós	-10.6343
▁Fuair	-10.6343
75	-10.6343
▁ng	-10.6347
uas	-10.6348
▁ocht	-10.6348
ium	-10.6353
tas	-10.6354
▁38	-10.6362
lan	-10.6365
wood	-10.6366
▁thábhachtach	-10.6371
▁Eagraíocht	-10.6373
▁Department	-10.6381
▁ceanglas	-10.6381
▁hAlban	-10.6381
▁bheatha	-10.6381
▁boinn	-10.6382
▁sláintiúil	-10.6382
▁taispeántas	-10.6382
▁hiarratais	-10.6386
ró	-10.6392
▁aistriúcháin	-10.64
▁dtéann	-10.6404
CO	-10.6407
(3)	-10.6413
ES	-10.6415
▁seachtracha	-10.6422
▁Sula	-10.6424
chlár	-10.6425
íocfaidh	-10.6428
74	-10.6431
▁iomaíoch	-10.6435
▁dramhaíola	-10.6449
▁Áilleacht	-10.6449
▁insint	-10.645
▁ceiliúradh	-10.6451
▁Oral	-10.6451
▁caol	-10.6456
▁Home	-10.6457
▁dliteanais	-10.6459
▁idirlíon	-10.646
▁Fúinn	-10.646
▁Football	-10.6461
▁EU	-10.6461
CS	-10.6467
▁Bo	-10.6484
37	-10.6485
▁múnla	-10.6486
eoirí	-10.6488
naigh	-10.6489
MA	-10.6489
ura	-10.6493
▁CBL	-10.6502
▁nu	-10.6503
Mo	-10.6508
▁bhféad	-10.6509
▁cáil	-10.651
▁nascadh	-10.651
tic	-10.6511
▁Páirtí	-10.6512
out	-10.6515
▁Blowjob	-10.6518
▁Pinsean	-10.6518
▁Chomhphobail	-10.6519
▁foirmiúil	-10.6521
▁Scannán	-10.6524
▁Rochtain	-10.6525
52	-10.6527
▁drugaí	-10.6529
ger	-10.6532
▁fógraí	-10.6534
▁gcuimhne	-10.6534
EL	-10.654
▁Nó	-10.6541
▁chaidreamh	-10.6542
▁urscaoileadh	-10.6543
▁áisiúil	-10.6543
▁astaíochtaí	-10.6554
▁gceantar	-10.6555
▁aithne	-10.6556
RE	-10.6585
TR	-10.6586
albhaigh	-10.6588
▁iarnróid	-10.6588
▁Aoine	-10.6588
▁Fiontar	-10.6588
▁Fomhair	-10.6588
▁trasteorann	-10.6588
omh	-10.6589
▁Margadh	-10.6589
▁chlog	-10.659
▁teagasc	-10.6592
▁dhaltaí	-10.6596
▁dtugann	-10.6597
▁míniú	-10.6603
▁bhearta	-10.6613
fí	-10.6617
▁(1),	-10.6617
▁dochtúir	-10.663
▁2002	-10.6631
IC	-10.6633
▁Cirt	-10.6634
▁chúl	-10.6647
▁Infheistíochta	-10.6647
▁séasúr	-10.6649
▁6.	-10.6652
▁cuimhne	-10.6657
▁Digiteach	-10.6658
▁tsochaí	-10.6658
▁gnách	-10.6658
▁tógadh	-10.6659
FA	-10.6659
▁dTuaisceart	-10.6661
▁Glacann	-10.6662
▁Erasmus	-10.6662
▁hacmhainní	-10.6664
▁sreabhadh	-10.6665
▁earra	-10.6671
NA	-10.6671
bra	-10.6672
Ó	-10.6672
AT	-10.6674
ala	-10.6676
▁innealra	-10.6682
▁vótaí	-10.6683
La	-10.6686
▁Cinn	-10.6694
▁1999	-10.6709
qui	-10.6711
ted	-10.6718
ler	-10.6719
▁buiséad	-10.6721
▁calories	-10.6728
▁comhtháite	-10.6728
▁foirgnimh	-10.6728
▁dháileadh	-10.6728
▁mianraí	-10.6731
TA	-10.6732
▁dúradh	-10.6733
▁deacrachtaí	-10.6736
85	-10.6737
▁Washington	-10.674
▁stoic	-10.6742
ting	-10.6744
uirfear	-10.6745
cy	-10.6748
gra	-10.6751
▁cloí	-10.6754
67	-10.6758
▁phríobháideach	-10.6758
OS	-10.6767
▁boscaí	-10.6771
▁European	-10.6778
▁nasctha	-10.6778
▁oibleagáidí	-10.6782
▁rialaitheoir	-10.6784
ís	-10.6787
iz	-10.6795
▁Dír	-10.6798
76	-10.6799
▁Next	-10.6799
ozrel	-10.6799
▁International	-10.6799
▁taispeántais	-10.6799
▁carachtair	-10.68
▁misean	-10.6802
:—	-10.6805
▁substaintí	-10.6808
▁réaltaí	-10.6809
ee	-10.6811
▁Soláthar	-10.6812
▁dúnta	-10.6814
77	-10.6816
mag	-10.6822
▁super	-10.6822
▁socraithe	-10.6828
▁Fraincis	-10.6828
▁tréithe	-10.6841
▁1998	-10.6852
▁foclóir	-10.6853
▁Taca	-10.6855
▁Linn	-10.6861
▁luaidhe	-10.6871
▁gComhphobal	-10.6871
▁spórt	-10.6871
▁shots	-10.6871
▁iomlána	-10.6883
PR	-10.689
▁gorm	-10.6892
eg	-10.6895
▁ionstraimí	-10.6897
▁eolaíochta	-10.6902
▁Líonra	-10.6908
▁..	-10.691
ige	-10.6918
roíthe	-10.692
tre	-10.692
arm	-10.6925
▁pláta	-10.6925
▁fhad	-10.6929
▁EUR	-10.6929
rach	-10.6934
▁Gearr	-10.6935
▁Sathairn	-10.6942
▁dhualgas	-10.6942
▁Athchóirithe	-10.6942
▁gcluiche	-10.6943
▁seiceáil	-10.6943
▁bainise	-10.6943
▁gContae	-10.6943
▁gcaitheamh	-10.6943
▁1963	-10.6944
▁comhpháirtithe	-10.6945
▁mhaolú	-10.6947
▁dteanga	-10.695
mb	-10.6951
▁scrúduithe	-10.6954
▁Acmhainní	-10.6955
▁mB	-10.6958
oga	-10.6958
ean	-10.6958
▁chuspóir	-10.6961
lúthpháirtíochta	-10.6963
▁cáilíochtaí	-10.6972
▁breithe	-10.6977
▁laghd	-10.6979
▁bhalla	-10.6982
raithe	-10.6985
▁dheasca	-10.7006
oibrigh	-10.7015
▁Íseal	-10.7015
▁Dublin	-10.7015
▁bParlaimint	-10.7015
▁Chláir	-10.7015
▁neamhchoitianta	-10.7015
▁chuardach	-10.7016
▁mícheart	-10.7016
▁chabhair	-10.7016
▁cnaipe	-10.7022
▁Tábla	-10.7025
▁ailse	-10.7026
▁eochair	-10.7028
▁léim	-10.7038
▁fheidhmíocht	-10.7048
▁Déanta	-10.7048
mat	-10.7051
▁Atha	-10.7058
▁riachtanacha	-10.7062
▁laghdaithe	-10.7063
▁rolla	-10.7064
tur	-10.7069
PS	-10.707
46	-10.7073
▁chostais	-10.7083
▁híoc	-10.7084
▁Bhruiséil	-10.7088
▁faisin	-10.7088
▁mhuintir	-10.7088
▁fisiciúil	-10.7088
▁Ainmneacha	-10.7088
▁Ghnóthaí	-10.7088
▁Bliana	-10.7088
▁Ríoga	-10.7088
▁Bogearraí	-10.7088
▁léirmheasanna	-10.7089
▁fhéadfar	-10.7089
▁OEM	-10.7089
▁féad	-10.7089
▁mhíniú	-10.709
▁Rí	-10.7092
▁ranníocaíochtaí	-10.7094
▁Amach	-10.7097
▁vitimíní	-10.7098
38	-10.71
▁dteastaíonn	-10.7102
▁saill	-10.7113
▁airm	-10.7123
55	-10.7129
DE	-10.7131
▁2017.	-10.7138
ead	-10.7138
▁fhás	-10.7144
úsáidtear	-10.7149
line	-10.7154
▁chor	-10.7154
▁trácht	-10.7155
har	-10.7159
▁sheachtain	-10.7161
▁Buíochas	-10.7161
▁Lesbians	-10.7161
▁bhfíric	-10.7161
▁chaiteachas	-10.7161
▁ábalta	-10.7161
▁saghas	-10.7162
▁tomhais	-10.7162
▁VI	-10.7162
▁shonraithe	-10.7162
▁ndéanfadh	-10.7162
▁féideartha	-10.7162
▁solais	-10.7163
nithe	-10.7165
▁daor	-10.7166
▁leasmhara	-10.7166
lí	-10.717
44	-10.7185
earnálacha	-10.7186
56	-10.7197
▁dúshlán	-10.72
gu	-10.7201
▁more	-10.7201
▁PDF	-10.7202
▁coinníoll	-10.7202
▁mála	-10.7203
▁Christian	-10.7205
údar	-10.7225
▁per	-10.7233
▁Foclóir	-10.7235
▁Sibhialta	-10.7235
▁polasaí	-10.7235
▁spriocdháta	-10.7236
▁polaitiúla	-10.7236
▁Tráchtála	-10.7236
▁comhairliúcháin	-10.7236
▁bailiúchán	-10.7236
▁Bhreithiúnais	-10.7236
▁faireachán	-10.7236
▁39	-10.7237
▁Story	-10.7238
▁mhuirearú	-10.7241
its	-10.7248
▁tráchta	-10.725
AD	-10.7255
▁Tríú	-10.7257
fhág	-10.726
Go	-10.726
▁chathaoirleach	-10.726
▁Se	-10.7263
Chiste	-10.7264
▁Teicneolaíocht	-10.7265
tor	-10.7269
1.	-10.727
▁37	-10.7273
pl	-10.7274
▁príobháideacha	-10.7275
Sa	-10.7281
▁sár	-10.7292
54	-10.7292
▁áis	-10.7299
72	-10.7302
▁Seachtain	-10.7302
▁li	-10.7302
éil	-10.7303
▁fhógairt	-10.731
▁ANKO	-10.731
▁seasta	-10.7311
▁marbh	-10.7311
▁áitribh	-10.7311
▁comhairimh	-10.7312
▁hinstitiúidí	-10.7314
,000	-10.732
▁aitheantais	-10.7321
▁Microsoft	-10.733
▁meastar	-10.7331
ay	-10.7332
36	-10.7333
▁taca	-10.7341
▁inslithe	-10.7341
▁Oileáin	-10.7342
▁iarrthóirí	-10.7344
par	-10.735
▁éilíonn	-10.7355
tá	-10.7356
▁maidin	-10.7357
ez	-10.7363
▁dhí	-10.7364
AC	-10.7368
▁bí	-10.7368
▁Ráta	-10.7369
▁scáth	-10.7374
[	-10.7384
je	-10.7384
▁Comhionannais	-10.7385
▁ballóide	-10.7385
▁Cáilíochta	-10.7386
▁bhreithniú	-10.7386
▁filleadh	-10.7386
▁Eorpaí	-10.7386
▁Iascaigh	-10.7386
▁faigheann	-10.7387
▁rothar	-10.7389
▁bheartais	-10.7391
▁Comhdháil	-10.7393
▁creimeadh	-10.7396
▁híocaíochtaí	-10.7401
▁48	-10.7406
▁málaí	-10.7409
▁achoimre	-10.7409
▁bhuaigh	-10.7409
athbhreithniú	-10.7411
▁treo	-10.7411
▁Chuarda	-10.7419
eolaíocht	-10.742
4.	-10.7428
▁Cho	-10.7432
TE	-10.7442
▁300	-10.7449
▁théarmaí	-10.7451
Chúirte	-10.7454
▁Caiteachais	-10.7461
▁Committee	-10.7461
▁Iorua	-10.7461
▁Slándála	-10.7461
▁hachomair	-10.7461
▁seamhan	-10.7461
▁cá	-10.7462
▁rásaí	-10.7464
▁Lucsamburg	-10.7465
▁Limistéar	-10.7466
▁diúscairt	-10.7475
▁bhfaighid	-10.7479
▁píosaí	-10.7481
▁sínithe	-10.7482
tin	-10.7484
▁rapóirtéir	-10.7493
▁Dheirea	-10.7495
ze	-10.7495
87	-10.7502
ok	-10.7504
▁Cearta	-10.7513
cadóirí	-10.7522
▁eitilt	-10.7522
▁bhF	-10.7522
All	-10.7525
▁inneall	-10.7528
▁Páirteanna	-10.7538
▁galair	-10.7538
▁Ábhair	-10.7538
▁tuairisceán	-10.7538
▁cheiliúradh	-10.7538
▁Ceamara	-10.7538
ec	-10.7539
▁Deontais	-10.7542
▁dé	-10.7542
▁oiriúint	-10.7543
▁forais	-10.7545
▁Bhainc	-10.7545
▁Turasóireachta	-10.7548
▁United	-10.7551
val	-10.7557
▁gcúrsaí	-10.7558
97	-10.756
thraíonn	-10.7562
LC	-10.7575
▁líonraí	-10.7576
▁Nio	-10.7577
aca	-10.7578
▁Coda	-10.7581
▁Luan	-10.7585
aidh	-10.7587
▁42	-10.7601
▁áthas	-10.7602
mon	-10.7605
▁41	-10.7613
▁Páirc	-10.7614
▁pleanáil	-10.7615
▁phróisis	-10.7615
Ba	-10.7616
▁Togra	-10.7617
▁gairid	-10.7617
▁othar	-10.7619
▁York	-10.762
▁hábhar	-10.7629
▁bróga	-10.763
▁Tacaíochta	-10.7637
hol	-10.764
▁€2	-10.7646
video	-10.7648
chi	-10.7648
▁léirítear	-10.7648
▁éifeachtacht	-10.7652
▁ga	-10.7663
ns	-10.7663
▁Glas	-10.7669
▁tiomána	-10.7677
ou	-10.768
we	-10.7681
▁Cárta	-10.7687
haibidil	-10.7688
▁geal	-10.7688
▁chomhshaol	-10.7692
▁chreidiúint	-10.7692
▁sloinnte	-10.7692
ano	-10.7692
▁Eolais	-10.7692
▁soladach	-10.7692
lán	-10.7692
▁Ghrúpa	-10.7693
▁cáiliúla	-10.7693
▁su	-10.7697
▁cuairteoirí	-10.7698
▁cleachtas	-10.7698
▁inchurtha	-10.7701
▁Deimhniú	-10.7702
▁dtabharfaidh	-10.7713
▁deonacha	-10.7713
▁clúdaithe	-10.7714
▁Dul	-10.7724
▁hé	-10.7725
▁bheaga	-10.7731
▁urrús	-10.7733
▁ráthaíocht	-10.7734
▁ealaíon	-10.7736
ua	-10.774
lic	-10.774
▁scrios	-10.7742
▁2019.	-10.7745
mhar	-10.7745
39	-10.7751
▁Sea	-10.7754
▁fe	-10.7762
000	-10.7763
▁lasta	-10.7764
▁Phlean	-10.7765
ken	-10.7768
▁Fhaisnéis	-10.777
▁dhiúltú	-10.777
▁ghruaig	-10.777
ence	-10.777
▁neamhdhleathach	-10.777
▁mhoill	-10.777
▁gcineál	-10.777
éid	-10.7772
▁feirme	-10.7772
▁cáiliúil	-10.7773
▁bhfaigheann	-10.7774
▁Taispeántas	-10.7775
▁soilse	-10.7775
TV	-10.778
▁Dr	-10.778
▁cheadúnais	-10.7781
▁feithicil	-10.7782
▁dlífear	-10.7782
▁cruinne	-10.7783
head	-10.7783
▁airíonna	-10.7784
red	-10.7792
42	-10.7797
oma	-10.7803
▁brabús	-10.7806
PDF	-10.7809
Me	-10.781
ea	-10.7812
arrann	-10.7815
bar	-10.7816
▁séala	-10.7817
88	-10.7822
▁píopa	-10.7832
▁Imeachta	-10.7838
sean	-10.7839
▁Réamh	-10.7847
▁Scheme	-10.7849
▁caipitiúil	-10.7849
▁sláintíochta	-10.7849
magazine	-10.7849
▁dearcadh	-10.7849
▁Riail	-10.7849
▁ullmhaithe	-10.785
uair	-10.7851
▁Mhór	-10.7857
▁tógtha	-10.7866
▁cáilitheach	-10.7868
▁dhíreach	-10.7869
▁Lo	-10.7876
luach	-10.788
ino	-10.7883
▁tionsclaíoch	-10.7885
▁machnamh	-10.7888
yo	-10.789
teach	-10.7891
▁erotic	-10.7895
tan	-10.7897
▁súile	-10.7899
CR	-10.7914
ghnéithe	-10.7915
ring	-10.7924
▁seomraí	-10.7925
▁diúité	-10.7926
▁Glao	-10.7928
▁Android	-10.7928
▁seachtainiúil	-10.7929
▁tabhair	-10.793
▁ainmniúcháin	-10.793
▁hathruithe	-10.793
ug	-10.7935
▁spreagúil	-10.7935
fo	-10.7937
▁thit	-10.7944
ions	-10.7949
▁El	-10.7952
▁samhail	-10.7955
▁Soláthair	-10.7956
▁Modh	-10.7957
▁ceannais	-10.796
Ireland	-10.7967
▁Foireann	-10.797
▁2014.	-10.7972
▁MB	-10.7976
oil	-10.7981
ev	-10.7983
▁mam	-10.7987
▁fadhb	-10.8005
▁Fraince	-10.8008
▁Kashtanka	-10.8008
▁pussy	-10.8008
▁tapúla	-10.8008
▁sainráite	-10.8008
▁dlíthiúla	-10.8008
▁cadhnraí	-10.8009
▁eisíodh	-10.8009
▁feabhsaithe	-10.801
TC	-10.8011
ng	-10.8014
press	-10.8015
uimhir	-10.8019
0.	-10.8021
▁cumann	-10.8024
▁só	-10.8036
▁chois	-10.8038
chuid	-10.8041
oibríonn	-10.8049
▁meastóireacht	-10.8052
84	-10.8056
▁nótaí	-10.8066
▁Coimisinéir	-10.8072
▁43	-10.8075
anda	-10.8075
▁chomhair	-10.8082
▁Aer	-10.8086
▁cobhsaí	-10.8088
irg	-10.8088
▁Iomlán	-10.8089
▁foirgníochta	-10.8089
▁cuardaigh	-10.8089
▁mp	-10.809
▁iniúchta	-10.8092
ilium	-10.8094
▁caint	-10.8094
ram	-10.8096
▁cóid	-10.8096
▁chumasú	-10.8096
▁55	-10.8104
IN	-10.8107
▁Education	-10.8107
star	-10.8109
▁chónaí	-10.8114
▁rianú	-10.8123
▁Halla	-10.8124
ven	-10.813
▁theach	-10.8132
áiste	-10.8134
ria	-10.8142
ON	-10.8145
▁géar	-10.8147
▁ghrúpaí	-10.8149
2.	-10.8149
▁resistant	-10.8151
▁próifíl	-10.8151
ave	-10.8151
▁en	-10.8153
▁toil	-10.8158
oibriú	-10.8158
íocaíocht	-10.8162
▁Ceanada	-10.817
▁dtimpeallacht	-10.817
▁síneadh	-10.817
▁feadán	-10.817
íon	-10.8171
▁gcomhaontú	-10.8172
▁Leathar	-10.8173
▁sibh	-10.8176
▁bhriseadh	-10.8177
▁aonaid	-10.8178
tais	-10.8185
▁gnóthaí	-10.8186
live	-10.8193
▁thuairim	-10.8195
▁Phoblacht	-10.8196
▁mhac	-10.8197
▁Leag	-10.8198
▁arm	-10.8198
isghairtear	-10.8203
▁So	-10.8205
CT	-10.8205
▁éisc	-10.8207
med	-10.8211
▁dheisiú	-10.8215
cs	-10.8215
▁fadtéarmach	-10.8218
▁Ola	-10.8235
▁mbearta	-10.8237
▁moill	-10.8238
lainne	-10.8245
58	-10.8248
▁olc	-10.825
▁Limited	-10.8252
▁forléireo	-10.8252
▁mhonarú	-10.8252
▁giorra	-10.8252
▁Chomhaontú	-10.8253
▁German	-10.8253
▁(31	-10.8253
▁State	-10.8254
▁measúnachta	-10.8254
▁Leictreach	-10.8255
200	-10.8255
▁riaradh	-10.8255
▁creidiúnaithe	-10.8256
dan	-10.8256
▁Aonad	-10.8258
▁teochta	-10.8259
▁Taobh	-10.826
68	-10.826
49	-10.8261
▁Fuck	-10.8261
▁hOllscoile	-10.8269
let	-10.8279
▁Lig	-10.8284
▁Nuálaíochta	-10.8286
▁Gael	-10.8287
love	-10.8289
▁geall	-10.8289
▁gceanta	-10.8291
▁síniú	-10.8293
leas	-10.8293
óin	-10.8295
ten	-10.83
Al	-10.8302
▁Tuirc	-10.8313
▁iarrachtaí	-10.8324
ik	-10.8324
▁bhreith	-10.8328
61	-10.8333
▁dílsithe	-10.8335
▁FÁS	-10.8335
▁damhsa	-10.8335
▁thuaidh	-10.8335
▁sucking	-10.8335
▁forlámhas	-10.8335
▁shásamh	-10.8335
▁Eilvéis	-10.8335
▁bláthanna	-10.8336
▁Sp	-10.8337
▁gcúirt	-10.8338
47	-10.8339
▁cuntasaíochta	-10.8339
▁1923	-10.8342
▁1924	-10.8343
▁Aeir	-10.8347
▁Treoirlínte	-10.8351
▁uimhreacha	-10.836
▁Imeachtaí	-10.8373
SP	-10.8374
dú	-10.8374
▁2018.	-10.8378
ds	-10.8378
▁Caighdeán	-10.8383
▁fhéidir	-10.8385
▁ghrá	-10.8396
eu	-10.8398
form	-10.84
úint	-10.8404
aimid	-10.8404
Ma	-10.8409
▁Fág	-10.8412
▁sciath	-10.8415
▁Áit	-10.8416
▁déanmhas	-10.8418
▁tabhaíodh	-10.8418
▁thosú	-10.8418
▁fhorlíonadh	-10.8418
gú	-10.8419
▁inmheánacha	-10.8419
▁bhuachan	-10.8419
▁Coitianta	-10.842
▁riar	-10.842
▁dhlíthiúil	-10.842
▁gabhálais	-10.842
▁chomhlíonann	-10.8421
▁US	-10.8422
▁aisling	-10.8424
▁breithiúnas	-10.8426
▁táirgeachta	-10.8427
▁cigire	-10.8428
▁(10)	-10.8429
▁chlé	-10.8429
▁150	-10.8429
oc	-10.8429
▁anal	-10.8432
▁1988	-10.8435
▁malartú	-10.8436
▁Oifigeach	-10.8437
▁lo	-10.8439
eli	-10.844
aidhm	-10.8446
▁Club	-10.845
▁phleanáil	-10.8455
71	-10.8455
real	-10.8456
▁bréagach	-10.8456
bhar	-10.846
Ghaeilge	-10.8465
▁gearrthóg	-10.8468
▁bainistíocht	-10.8469
▁gcomhpháirt	-10.8469
Stiúrthóireacht	-10.847
sta	-10.8473
64	-10.8474
▁Sain	-10.8479
sí	-10.8479
dr	-10.848
▁iontrála	-10.8492
▁ghá	-10.8495
78	-10.8496
▁Loch	-10.8497
▁Fuinnimh	-10.8502
▁pionóis	-10.8502
▁Pearsanta	-10.8502
▁Asraon	-10.8502
▁fionraí	-10.8502
▁bpáistí	-10.8502
▁saineolas	-10.8503
▁chomhrac	-10.8504
▁Strap	-10.8508
▁Pháirtí	-10.8509
▁Suas	-10.851
ff	-10.8511
▁Rang	-10.8511
▁Iarthar	-10.8512
▁To	-10.8518
▁MO	-10.8523
OL	-10.8531
▁ghníomhaire	-10.8535
ór	-10.854
▁Bhain	-10.8541
▁iontráil	-10.8542
cra	-10.8547
86	-10.8554
▁amharc	-10.8557
▁rial	-10.8562
▁ceannas	-10.8572
ábhair	-10.8572
▁oibrí	-10.8577
ova	-10.858
MP	-10.858
▁trédhearcach	-10.8584
▁bronntanais	-10.8587
▁chugat	-10.8587
▁iontaobhais	-10.8587
▁pacáistiú	-10.8587
▁sciorta	-10.8587
▁bhuíochas	-10.8587
▁suimiúla	-10.8588
▁phá	-10.8589
▁glaoch	-10.8589
▁gearrtha	-10.8591
▁Asal	-10.8597
▁suntasacha	-10.8597
▁tu	-10.861
5.	-10.8617
;&	-10.8617
▁Human	-10.862
aer	-10.862
DA	-10.8624
van	-10.8624
▁Airteagail	-10.8631
nú	-10.8633
aibh	-10.8635
agtar	-10.8635
▁trom	-10.8636
▁2015.	-10.8639
▁cha	-10.8641
▁straitéiseach	-10.8644
▁shonróid	-10.8645
▁Díol	-10.8651
▁Cumhachta	-10.8653
▁Tí	-10.8654
▁nD	-10.8664
▁Íoc	-10.8666
▁Power	-10.8671
▁Pacáistiú	-10.8672
▁bhfógra	-10.8672
▁tráthnóna	-10.8672
europapress	-10.8672
▁chomaoin	-10.8672
▁ceantair	-10.8672
▁tarmligthe	-10.8673
▁chultúrtha	-10.8673
▁1990	-10.8676
▁slándáil	-10.8678
▁háiteanna	-10.8679
▁Féile	-10.868
▁cat	-10.8681
▁Bhuel	-10.8681
▁Long	-10.8682
▁shaoránaigh	-10.8682
▁gé	-10.8691
▁seaicéid	-10.8693
▁brí	-10.8693
éin	-10.8695
sen	-10.8696
▁rochtana	-10.8696
▁idirbheart	-10.8701
NT	-10.8702
aghaidh	-10.8707
▁TSín	-10.8707
ost	-10.8708
▁dtabharfa	-10.8713
naithe	-10.8713
PC	-10.8723
▁cealla	-10.8733
▁hAcht	-10.8735
▁chúiseanna	-10.8739
▁díola	-10.8743
fer	-10.8748
▁Bhun	-10.8751
▁gairm	-10.8754
53	-10.8756
▁tSualainn	-10.8758
▁mhealladh	-10.8759
▁rannóg	-10.8761
laí	-10.8762
▁Taoiseach	-10.8762
▁triúr	-10.8764
▁Ilghnéitheacha	-10.8764
▁thrádáil	-10.8766
PA	-10.8768
▁Office	-10.8769
▁School	-10.8771
▁tosaíochta	-10.8771
▁Cuims	-10.8775
▁rialáil	-10.8775
▁fhreagracht	-10.8777
yu	-10.8778
▁Institute	-10.8781
▁Omega	-10.8785
▁CNC	-10.8787
▁Treoracha	-10.8787
▁College	-10.8788
▁fhostaíocht	-10.8789
end	-10.8789
▁fonn	-10.8791
▁bhail	-10.8802
iste	-10.8803
SI	-10.8806
rin	-10.8809
▁Tóg	-10.8812
ash	-10.8816
▁oileán	-10.8818
▁bhuiséad	-10.8819
nta	-10.8824
▁Creat	-10.8825
ize	-10.8838
▁tuismitheoir	-10.8839
▁balla	-10.8842
▁Gheobhaidh	-10.8845
▁Phortaingéil	-10.8845
▁aicrileach	-10.8845
▁Ollmhór	-10.8845
▁gcinneadh	-10.8847
▁PVC	-10.8847
▁gcomhlíonadh	-10.8848
▁gnéasach	-10.885
▁Moltar	-10.8853
▁1916	-10.8855
▁bpáirt	-10.8857
▁fhoirceannadh	-10.8859
6.	-10.886
éan	-10.8861
▁aschur	-10.8861
naí	-10.8863
▁malartacha	-10.8865
▁Su	-10.8874
▁66	-10.8874
▁Report	-10.8875
media	-10.8878
▁ionchur	-10.889
▁chláraithe	-10.889
aill	-10.8897
▁oifigí	-10.8897
mark	-10.8898
ios	-10.8901
▁chu	-10.8902
▁caith	-10.8911
CI	-10.8915
▁Ghnó	-10.8915
ait	-10.8917
400	-10.8925
iu	-10.8929
▁bónais	-10.8933
▁trealaimh	-10.8933
▁Minister	-10.8933
▁dtéarmaí	-10.8933
éag	-10.8934
▁1996	-10.8937
▁cumhachtach	-10.8938
▁cainteoirí	-10.8939
▁Ceannaigh	-10.894
▁Sé	-10.8941
▁Eaglais	-10.8941
▁2)	-10.8942
▁shraith	-10.8951
▁Rúise	-10.8954
▁logáil	-10.8954
▁Coinn	-10.8961
▁Rial	-10.8965
▁DO	-10.8974
▁info	-10.8977
ft	-10.8979
▁Gar	-10.899
ánach	-10.8995
▁úsáideadh	-10.9002
ky	-10.9003
▁gairme	-10.9005
▁grád	-10.9009
read	-10.9011
▁éirigh	-10.9013
sky	-10.9013
imp	-10.9013
ros	-10.9018
▁feiste	-10.9019
8.	-10.902
83	-10.902
▁Talún	-10.9022
▁jewelry	-10.9022
▁tionchair	-10.9022
▁chucu	-10.9022
▁caillteanais	-10.9022
ks	-10.9029
▁Socruithe	-10.9033
teicneolaíochtaí	-10.9036
▁tarraingteach	-10.9037
▁eacnamaíochta	-10.9037
▁cruthú	-10.9038
▁thionscadail	-10.9041
▁foclóirí	-10.9043
▁aisghabháil	-10.9047
▁thagairtí	-10.9047
▁cearnach	-10.9048
▁Féad	-10.9061
▁leictreachas	-10.9073
▁Teo	-10.9074
▁Im	-10.9075
óis	-10.9076
tra	-10.9078
tábhachtach	-10.9083
▁fhostaí	-10.9085
▁reachtach	-10.9085
▁Add	-10.9086
▁nóta	-10.9086
▁freagraí	-10.9089
-10	-10.9093
▁Spáinnis	-10.9093
tóirí	-10.9094
▁shain	-10.9097
eora	-10.9098
cricket	-10.9111
▁timthriall	-10.9111
▁Bileog	-10.9111
▁Shábháilteacht	-10.9111
▁trastomhas	-10.9111
dal	-10.9112
▁sexy	-10.9112
ME	-10.9112
▁Service	-10.9112
▁Leispiacha	-10.9114
▁1992	-10.9115
▁cuimhneamh	-10.9117
▁dhroim	-10.9117
ódh	-10.9118
▁Technology	-10.9118
hóiste	-10.9118
▁comhréireachta	-10.9119
az	-10.912
▁íocfar	-10.912
OR	-10.9123
▁TFC	-10.9127
zo	-10.9134
▁Ra	-10.9134
▁seachadta	-10.9135
▁75	-10.9137
íl	-10.9139
don	-10.9141
▁reacht	-10.9145
▁tairiscintí	-10.9152
LE	-10.9154
93	-10.9156
▁ion	-10.9157
▁TG	-10.9158
Éirinn	-10.9165
duine	-10.9172
mas	-10.9174
▁ionchúiseamh	-10.9182
▁breosla	-10.9184
▁he	-10.9184
▁Téarmaí	-10.9185
▁Íocaíocht	-10.9186
▁mall	-10.9189
ris	-10.9198
ionscnamh	-10.9198
9.	-10.9199
▁Thairis	-10.9201
▁fúthu	-10.9201
▁bhfaisnéis	-10.9201
▁chónaíonn	-10.9202
▁cheanglaítear	-10.9203
▁bhFear	-10.9203
▁chúnamh	-10.9203
▁Leighis	-10.9205
▁Tuairimí	-10.9205
▁China	-10.9205
▁leictreonacha	-10.9206
ens	-10.9206
▁hobair	-10.9209
▁éinní	-10.9211
ich	-10.9212
▁strus	-10.9212
▁luaidhtear	-10.9212
▁gcomhaltaí	-10.9213
▁tUachtarán	-10.9213
▁You	-10.9217
▁Ru	-10.9219
▁éinne	-10.9219
MS	-10.9222
▁FC	-10.9223
▁bpríomh	-10.9225
▁Iompar	-10.923
▁íomhánna	-10.923
▁íocann	-10.9231
▁reachtaíochta	-10.9233
59	-10.9241
▁chiste	-10.9243
▁thuairisc	-10.9244
▁Fad	-10.9245
%	-10.9249
▁scoláire	-10.9252
▁thóg	-10.9255
ub	-10.9257
▁Fiú	-10.926
sco	-10.9261
▁316	-10.9272
▁slabhra	-10.9275
57	-10.9275
▁fu	-10.9276
HA	-10.9276
ita	-10.9278
▁abhaile	-10.928
▁ceannaigh	-10.9283
▁Just	-10.9285
▁COVID	-10.9292
▁cúnaimh	-10.9292
▁litiam	-10.9292
▁praiticiúil	-10.9292
▁gcumhacht	-10.9292
▁himthosca	-10.9293
▁mheaitseáil	-10.9295
▁tsamhail	-10.9295
▁alúmanam	-10.9296
aonad	-10.9297
▁reachtúla	-10.9299
▁iasachtaí	-10.9303
▁iasachta	-10.9304
▁mheasfaidh	-10.9306
89	-10.9306
▁by	-10.9308
idí	-10.931
▁Art	-10.9311
▁Los	-10.9314
▁Beaga	-10.9316
EM	-10.9317
▁Cogadh	-10.9319
▁cheisteanna	-10.9321
athraigh	-10.9322
▁Port	-10.9325
▁cum	-10.9326
OP	-10.9327
▁coimeád	-10.9328
▁ós	-10.9329
her	-10.9341
ves	-10.9344
▁caillte	-10.935
▁Press	-10.935
▁Sábháilteacht	-10.9351
chat	-10.9355
ible	-10.9357
tán	-10.9359
ess	-10.9359
▁tS	-10.9362
low	-10.9368
▁luachmhar	-10.9368
▁tionónta	-10.9373
NY	-10.9378
PE	-10.9382
▁Amaitéarach	-10.9384
▁Fhionlainn	-10.9384
▁Trenbolone	-10.9384
▁intíre	-10.9384
▁chaiteachais	-10.9384
▁thosaíonn	-10.9384
▁Bhéal	-10.9384
▁comhiomlán	-10.9385
▁coinneáil	-10.9385
▁ríomhairí	-10.9386
▁chuirimid	-10.9391
▁fhíorú	-10.9392
▁Leibhéal	-10.9393
▁brunettes	-10.9394
íochtaí	-10.9403
▁Cinnte	-10.9406
éadaí	-10.9406
laigh	-10.9408
▁oireann	-10.9409
94	-10.941
▁eagar	-10.9415
▁fomhír	-10.9421
▁sl	-10.9421
dis	-10.9422
tro	-10.9422
vel	-10.9428
▁réasún	-10.943
mheas	-10.944
tom	-10.9443
▁chomhlachtaí	-10.9444
▁íon	-10.9444
ku	-10.9444
aga	-10.9445
▁Police	-10.9446
way	-10.9447
▁Inc	-10.9447
–	-10.9448
▁Éasca	-10.9449
cm	-10.9456
▁Foundation	-10.9459
▁DC	-10.946
áth	-10.9465
úsáideann	-10.9468
▁bunús	-10.9469
tóra	-10.9471
sin	-10.9471
▁She	-10.9473
ric	-10.9474
▁Cúram	-10.9475
▁Mheithimh	-10.9476
▁cultúir	-10.9476
▁hAstráile	-10.9476
▁shainaithint	-10.9476
▁mionsonraí	-10.9476
▁sliocht	-10.9478
▁tarraingthe	-10.9478
▁rannpháirtí	-10.9478
ET	-10.948
▁1994	-10.948
▁stopadh	-10.9481
▁glac	-10.9481
▁léarscáil	-10.9482
▁Torthaí	-10.9485
▁tráthúil	-10.9485
▁buntáiste	-10.9486
▁Barbour	-10.9489
IP	-10.9491
▁coinne	-10.9493
▁War	-10.9494
fheidhm	-10.9498
RI	-10.95
▁onnmhairiú	-10.9502
tel	-10.9504
▁Seacha	-10.9506
▁Cathair	-10.9509
Sh	-10.9515
▁€3	-10.9518
▁suirbhé	-10.9523
áid	-10.9523
gle	-10.9524
▁cheangla	-10.9531
ren	-10.9532
▁cobhsaíocht	-10.9537
▁bhuail	-10.9539
av	-10.9541
▁7.	-10.9543
(4)	-10.9548
cibé	-10.9551
▁madra	-10.9553
ung	-10.9568
▁Preas	-10.957
▁acadúil	-10.957
▁muintir	-10.957
▁Ísiltír	-10.957
▁Pholainn	-10.957
▁dúchais	-10.957
▁ndearadh	-10.957
▁boird	-10.9571
▁sonraíochtaí	-10.9571
▁thacaíocht	-10.9572
▁gcorp	-10.9572
▁púdar	-10.9572
▁chánach	-10.9572
▁tasc	-10.9572
▁casadh	-10.9573
▁1995	-10.9573
▁fiontair	-10.9576
▁bianna	-10.9577
▁leithdháileadh	-10.9577
▁roth	-10.9578
▁Polasaí	-10.9578
▁inrochtana	-10.9579
62	-10.9581
▁Bhéarla	-10.9581
▁turasóireachta	-10.9582
online	-10.9583
▁urrúis	-10.9585
7.	-10.9587
▁j	-10.9589
▁eagraithe	-10.9591
▁Ceart	-10.9592
▁Lio	-10.9594
Ro	-10.9598
cur	-10.9604
▁plátáilte	-10.9606
▁AC	-10.961
66	-10.9611
▁ionsú	-10.9628
ys	-10.9632
údaráis	-10.9632
▁eachtrach	-10.9633
port	-10.9638
acháin	-10.9638
▁snámha	-10.9643
bal	-10.9644
▁Frith	-10.9651
aille	-10.9659
▁Shaorá	-10.9664
ings	-10.9664
▁toirmeasc	-10.9664
▁Bóthar	-10.9664
▁Europol	-10.9664
▁ceadúnaithe	-10.9664
▁sorcóir	-10.9664
▁Anailís	-10.9664
▁tiús	-10.9665
▁sm	-10.9665
▁sách	-10.9666
▁baineadh	-10.9666
info	-10.967
▁Author	-10.9674
▁comhla	-10.9676
▁feasacht	-10.9676
▁Ha	-10.9677
MB	-10.968
▁líonta	-10.968
▁daite	-10.9681
▁Féin	-10.9681
▁alos	-10.9682
▁tosaíochtaí	-10.9686
▁déantúsaíochta	-10.9686
▁thionchar	-10.9689
▁céadta	-10.969
ari	-10.969
ibé	-10.969
▁bhu	-10.9691
oireacht	-10.9691
athair	-10.9693
▁Sábháilteachta	-10.9699
▁Gníomh	-10.9707
róidh	-10.9711
▁SAM	-10.9711
▁fosta	-10.9711
▁fhorchur	-10.9713
ainn	-10.9715
ons	-10.9716
▁uachtar	-10.9718
ious	-10.9723
▁Gníomhaireacht	-10.9725
▁shár	-10.9732
pdf	-10.9732
▁1000	-10.9735
▁Pa	-10.9737
▁ngnáth	-10.974
▁CY	-10.9741
hr	-10.9748
▁ngnó	-10.9755
▁Dhaoine	-10.9759
▁comórtas	-10.9759
▁Local	-10.976
▁bóthar	-10.976
▁foriomlán	-10.976
▁dorcha	-10.9761
▁míosa	-10.9762
mhór	-10.9762
▁déantúsóirí	-10.9763
álta	-10.9769
▁struchtúir	-10.977
▁Eacnamaíochta	-10.9771
▁thorthaí	-10.9774
▁mheastar	-10.9774
▁dhóigh	-10.9774
▁suiteáil	-10.9776
▁chlúdach	-10.9776
▁gnóthas	-10.9778
▁Cill	-10.9779
▁fá	-10.9779
uil	-10.9779
▁tiománaí	-10.978
gen	-10.9781
▁Ball	-10.9782
▁Rialaithe	-10.9782
▁USB	-10.9782
▁athraithe	-10.9787
▁inscne	-10.9792
ue	-10.9793
▁Gall	-10.9794
82	-10.9798
▁infheistiú	-10.9798
▁Pleanáil	-10.9806
rn	-10.9815
▁eolaíocht	-10.9818
:00	-10.9824
fhorálacha	-10.9833
ero	-10.9835
▁Bainistíocht	-10.9836
▁fórsa	-10.9838
fu	-10.9839
43	-10.9843
ore	-10.9847
▁over	-10.9849
▁roisín	-10.9855
▁seisiún	-10.9856
▁Bheilg	-10.9856
▁Tiarna	-10.9856
▁Óstán	-10.9856
▁dhúnadh	-10.9856
▁Earraigh	-10.9856
▁foinsí	-10.9857
ser	-10.9858
▁Old	-10.9858
▁1956	-10.9858
▁miondíola	-10.9859
▁1927	-10.9859
▁coda	-10.9862
eachtaí	-10.9865
▁Public	-10.9865
▁dátaí	-10.9868
▁stáisiúin	-10.987
hu	-10.987
▁hard	-10.9872
▁eascraíonn	-10.9874
▁breithniú	-10.9875
char	-10.9875
▁bhfeidhmiú	-10.9877
▁Hu	-10.9877
▁House	-10.9877
▁ISO	-10.9879
del	-10.989
▁SCEIDEAL	-10.9892
sy	-10.99
▁dT	-10.9903
▁Óg	-10.9908
▁Po	-10.9912
81	-10.9912
aonar	-10.9914
79	-10.9914
tech	-10.9915
91	-10.9916
▁hOifige	-10.9916
▁tosaíocht	-10.9916
ada	-10.9917
▁phoist	-10.992
ionadaithe	-10.9921
RT	-10.9923
▁Rómáin	-10.9924
ali	-10.9925
▁cu	-10.9926
▁atmaisféar	-10.9927
-20	-10.9942
niú	-10.9944
98	-10.9944
▁chonartha	-10.9944
▁luacháil	-10.9944
▁leabharlann	-10.995
work	-10.995
▁asraon	-10.9951
▁Inmheánach	-10.9952
▁feistis	-10.9952
▁shaincheapadh	-10.9952
▁tairseach	-10.9952
▁turais	-10.9953
▁thaisceadh	-10.9953
▁bréagáin	-10.9953
▁thuilleamh	-10.9954
EP	-10.9954
▁buille	-10.9955
▁Coats	-10.9955
▁nglacadh	-10.9955
▁feidhmiúcháin	-10.9956
▁sraitheanna	-10.9961
▁Páipéar	-10.9961
▁Sc	-10.9964
chomh	-10.9964
▁téama	-10.9966
GA	-10.9968
▁Ros	-10.9969
▁margaíochta	-10.997
well	-10.9972
▁Silver	-10.9972
bel	-10.9972
▁Inis	-10.9975
af	-10.9975
leacht	-10.9981
73	-10.9984
DC	-10.9985
rum	-10.999
tú	-10.9992
▁46	-10.9993
▁oidhreachta	-10.9996
▁Éil	-10.9998
▁ársa	-11.0009
▁Free	-11.0013
fhostaithe	-11.0017
▁marc	-11.0017
mhéid	-11.002
ult	-11.0022
▁Arm	-11.003
▁nuachta	-11.0032
▁Dála	-11.0032
▁Bail	-11.0045
▁fhear	-11.0048
▁Ghréig	-11.0051
▁Tionscadail	-11.0051
▁idéalach	-11.0051
▁sapphire	-11.0051
▁mhíleata	-11.0051
▁Angeles	-11.0051
Faoiseamh	-11.0051
▁liachta	-11.0052
▁1961	-11.0053
▁bharántas	-11.0055
▁ranníoc	-11.0056
▁fís	-11.0056
uff	-11.0059
▁Center	-11.0063
▁Oiliúint	-11.0064
▁Cheap	-11.0064
▁Cultúr	-11.0065
▁ráthú	-11.0067
▁2012.	-11.007
▁árachas	-11.0076
ning	-11.0078
▁All	-11.0078
▁gceangal	-11.0083
NE	-11.0091
▁aiseolas	-11.0096
cat	-11.0101
▁leithne	-11.0104
achán	-11.0104
Ag	-11.0109
▁ngá	-11.011
▁eisithe	-11.0115
óige	-11.012
iarratais	-11.0123
áitreabh	-11.0127
▁cloch	-11.0128
NC	-11.0131
▁dalta	-11.014
uporn	-11.0142
▁dtiocfa	-11.0147
▁Laidin	-11.0148
/1	-11.0149
▁Foilseacháin	-11.015
▁mullaigh	-11.015
▁sliotán	-11.015
▁cartúin	-11.015
▁mhilliún	-11.015
▁mhúineadh	-11.015
▁dífhostaithe	-11.015
▁stiúradh	-11.015
▁staitisticí	-11.0151
▁Gold	-11.0151
▁paisinéirí	-11.0152
▁rúnda	-11.0152
▁Cathaoirleach	-11.0152
▁ranníoca	-11.0155
▁hoibreacha	-11.0156
▁difríochtaí	-11.0157
▁120	-11.0157
▁Teagasc	-11.0157
▁AR	-11.0159
ney	-11.0161
chu	-11.0163
▁America	-11.0166
▁hA	-11.017
▁déine	-11.0172
▁Bar	-11.0172
▁tonna	-11.0173
▁ealaíontóirí	-11.0177
▁Cháin	-11.0179
thaí	-11.0184
act	-11.0188
Am	-11.0188
▁...	-11.019
SB	-11.0194
▁clog	-11.0197
▁CH	-11.0198
house	-11.0201
ball	-11.0204
▁vótaíochta	-11.0208
TH	-11.0212
▁Ins	-11.022
▁seolta	-11.0236
girl	-11.0243
▁2013.	-11.0245
▁taitneamhach	-11.0246
▁Breasts	-11.025
▁Doiciméid	-11.025
▁Músaem	-11.025
▁Tiontaire	-11.025
▁muscle	-11.025
▁phinsin	-11.025
▁Cúnamh	-11.025
41	-11.025
▁tanaí	-11.025
▁Ostair	-11.025
▁Ardchaighdeáin	-11.025
▁Cairdeas	-11.0251
▁méad	-11.0251
▁chruthaíonn	-11.0254
▁Tairiscintí	-11.0254
▁hoibleagáidí	-11.0254
SE	-11.0255
ries	-11.0257
▁díobháil	-11.0264
▁gcóir	-11.0265
▁téip	-11.0265
▁Sheirbhísí	-11.0266
▁báis	-11.027
aontaigh	-11.0273
▁litreacha	-11.0277
AG	-11.0281
▁fa	-11.0283
▁can	-11.0286
▁ghníomhaireacht	-11.0288
▁Tin	-11.0292
eisigh	-11.0292
ats	-11.0295
▁Fe	-11.0299
▁ainmhí	-11.0306
▁Comhalta	-11.0306
▁PE	-11.031
▁bainisteoir	-11.0312
▁barra	-11.0319
▁fíon	-11.032
mor	-11.032
ealaíontóirí	-11.033
chleachtas	-11.033
old	-11.0334
▁feasach	-11.034
▁Tu	-11.0341
▁br	-11.0342
▁hoibre	-11.0342
iam	-11.0343
▁bheartas	-11.0347
▁naoi	-11.0348
▁toghchán	-11.0351
▁Athruithe	-11.0351
▁Láithreán	-11.0351
FCBarcelona	-11.0351
▁namhaid	-11.0351
▁creideamh	-11.0351
▁cúltaca	-11.0351
▁rannán	-11.0351
▁scriú	-11.0351
▁samhlacha	-11.0351
▁chleachtadh	-11.0352
▁Aicm	-11.0355
▁fachtóirí	-11.0357
▁leispiacha	-11.0357
línte	-11.0357
▁feirmeoirí	-11.0357
▁bhás	-11.036
▁Eis	-11.0365
áir	-11.0365
osa	-11.037
nc	-11.0371
▁LED	-11.0372
▁Áise	-11.0372
▁cúraimí	-11.0377
▁65	-11.0383
úis	-11.0384
▁iarrtar	-11.0385
▁White	-11.0386
▁chúig	-11.0393
69	-11.0394
▁fulaingt	-11.0396
▁charms	-11.0398
stra	-11.04
úinéir	-11.0401
ford	-11.0404
hal	-11.0411
▁Mhuir	-11.0412
▁cháilitheach	-11.0413
▁Deir	-11.0413
▁lag	-11.0418
▁Treorach	-11.042
ál	-11.043
▁Díbh	-11.0437
neach	-11.0439
oifigigh	-11.044
fl	-11.0441
▁imeall	-11.0441
fheidhmeannach	-11.045
▁Inscne	-11.0453
▁Seapáinis	-11.0453
▁Shóisialta	-11.0453
▁carachtar	-11.0453
▁nDaonlathaithe	-11.0453
▁neamhfhoirmiúil	-11.0453
▁scáileáin	-11.0453
▁mharú	-11.0453
▁cuimilteora	-11.0453
▁Aistriúcháin	-11.0453
▁bhfostaíocht	-11.0453
▁chreid	-11.0453
▁iarainn	-11.0453
▁borradh	-11.0454
▁conclúidí	-11.0454
▁Uachtarach	-11.0455
▁fráma	-11.0455
63	-11.0456
▁1980	-11.0458
▁Tionscadal	-11.046
▁uasghrádú	-11.0466
ans	-11.0467
▁fáis	-11.0468
▁MA	-11.047
éas	-11.0473
teachtaireachtaí	-11.0475
▁1989	-11.0476
▁foirceannadh	-11.0479
▁áirítear	-11.048
des	-11.0481
▁Lár	-11.0482
▁athair	-11.0485
▁Chumann	-11.0491
▁comhpháirtíocht	-11.0501
▁Díreach	-11.0501
IL	-11.0503
▁Mhuire	-11.0503
▁leisce	-11.0507
oy	-11.0508
éifeacht	-11.0511
▁corp	-11.0521
achomharc	-11.0532
luíonn	-11.0532
▁háite	-11.0534
ful	-11.0537
Football	-11.0538
▁Bunaithe	-11.054
▁Feidhmeanna	-11.0542
▁Nóta	-11.0552
fhógair	-11.0556
▁Bhliain	-11.0556
▁Ceantair	-11.0556
▁Conarthaí	-11.0556
▁JavaScript	-11.0556
▁Organization	-11.0556
orporate	-11.0556
▁thomhaltóirí	-11.0556
football	-11.0556
▁Comhphobail	-11.0556
▁morgáiste	-11.0556
▁mogalra	-11.0556
▁chúiteamh	-11.0556
▁sráide	-11.0556
▁Féadtar	-11.0558
▁50%	-11.0559
▁too	-11.0559
▁ngairmtear	-11.0559
▁Mhúinteoirí	-11.0559
▁1993	-11.0559
▁forála	-11.056
times	-11.0561
▁Caith	-11.0562
▁glúine	-11.0562
▁Den	-11.0565
chair	-11.0566
unt	-11.0568
ju	-11.0569
gov	-11.0575
▁alcóil	-11.0578
▁47	-11.058
eck	-11.0581
34	-11.0582
▁County	-11.0582
▁oll	-11.0582
▁2016,	-11.0583
▁cl	-11.0588
▁chreat	-11.0588
▁iontaofacht	-11.0598
▁Dar	-11.0605
▁leagfa	-11.061
istí	-11.0613
▁par	-11.0614
▁ghníomhach	-11.0626
fhreagra	-11.0631
▁mhol	-11.0632
oill	-11.0638
▁íogair	-11.064
▁DE	-11.0642
▁Gníomhaireachta	-11.0643
ator	-11.0643
▁pearsa	-11.0643
▁mhó	-11.0645
ithníonn	-11.0646
oi	-11.0648
▁comhoiriúnach	-11.0652
▁oibríocht	-11.0658
▁Bhreatain	-11.066
▁eatarthu	-11.066
▁pornozal	-11.066
▁Uladh	-11.066
▁bhabhta	-11.0661
▁Braiteoir	-11.0662
▁ngníomhaíochtaí	-11.0663
▁fholaíonn	-11.0663
▁toirchis	-11.0664
▁iontas	-11.0667
▁spéir	-11.0671
▁Costais	-11.0673
▁teorann	-11.0675
▁cheantair	-11.0678
chain	-11.0689
▁gléasra	-11.069
▁aibí	-11.069
pr	-11.0697
▁Shot	-11.0697
▁ciste	-11.0698
Ho	-11.0705
▁scaoilte	-11.0708
▁coinn	-11.0708
iún	-11.071
▁aistriúchán	-11.071
▁fireann	-11.071
▁Fan	-11.0722
athnuaite	-11.0722
▁Thiar	-11.0724
▁Dí	-11.0728
▁moltar	-11.0731
▁Chat	-11.0731
▁fabraic	-11.0731
▁Cúirt	-11.0734
dd	-11.0734
▁ma	-11.0739
cor	-11.0749
féach	-11.0751
▁orgánach	-11.0755
▁Leagan	-11.0759
▁ghléas	-11.076
▁Miotal	-11.076
▁Céad	-11.0761
▁timpeallachta	-11.0765
▁díolmhaithe	-11.0765
▁romhat	-11.0765
▁blonde	-11.0765
▁Coiriúil	-11.0765
▁Fianáin	-11.0765
▁deonaíodh	-11.0765
▁Pacáiste	-11.0765
▁eisiach	-11.0765
▁tromlach	-11.0765
▁Láirge	-11.0766
BA	-11.0766
▁bréagán	-11.0766
airgeadra	-11.0766
▁ceantar	-11.0766
▁gcaidreamh	-11.0766
▁theaghlach	-11.0766
▁bunscoile	-11.0767
▁leantóirí	-11.0769
▁gComhaontú	-11.077
▁faiseanta	-11.077
▁comhaimseartha	-11.0771
▁tosaithe	-11.0773
▁ollscoil	-11.0773
▁sceideal	-11.078
die	-11.078
▁Top	-11.0785
▁Árann	-11.0786
51	-11.0787
▁snámh	-11.0788
▁Bearta	-11.0788
pro	-11.0792
faí	-11.0794
íocaíochtaí	-11.0801
▁ca	-11.0808
tréimhse	-11.0809
IA	-11.0814
inc	-11.0814
▁Bra	-11.082
ose	-11.0822
▁Di	-11.0826
eis	-11.0827
sal	-11.0833
▁ól	-11.0837
▁Mu	-11.084
pho	-11.0847
▁gaire	-11.0849
▁cheannaigh	-11.0854
▁Monaróir	-11.0855
NG	-11.0859
Eabhrac	-11.0865
▁diúltach	-11.0866
▁ghearán	-11.0869
▁corparáide	-11.0869
▁méadaithe	-11.087
▁Réamhrá	-11.0871
▁Corcaigh	-11.0872
▁Ghinearálta	-11.0872
▁Priontáil	-11.0872
▁gheimhreadh	-11.0872
▁ngréasán	-11.0872
▁Faisean	-11.0872
▁thaithí	-11.0872
▁Voyeurism	-11.0872
▁Phort	-11.0872
▁Domhain	-11.0872
▁dífhostaíochta	-11.0877
▁iliomad	-11.0877
▁treocht	-11.0878
sport	-11.0878
▁Deimhnithe	-11.0879
▁Sonrú	-11.0879
▁Sheirbhís	-11.0879
▁Fireann	-11.088
▁Ciorclán	-11.088
▁(11)	-11.0884
▁ru	-11.0887
▁éifeachtúil	-11.0894
▁Network	-11.0894
▁píopaí	-11.0895
chtaí	-11.0897
▁(2	-11.0902
▁guth	-11.0912
▁Che	-11.0913
lad	-11.0915
BBC	-11.0917
ica	-11.092
▁tuairisciú	-11.0922
▁tromchúiseacha	-11.0925
ane	-11.0927
▁dick	-11.0927
▁mbarr	-11.0927
chur	-11.0931
▁pian	-11.0939
thi	-11.0948
cul	-11.0953
SD	-11.0955
▁dtuairim	-11.0962
pat	-11.0965
▁lipéad	-11.097
▁cainte	-11.0972
▁radharc	-11.0979
▁dúlra	-11.0979
▁tsamhraidh	-11.0979
▁uaslódáil	-11.0979
▁cinntiú	-11.0979
▁chustaiméara	-11.098
▁coistí	-11.098
▁mhodhnú	-11.098
▁aighneachtaí	-11.098
▁Saoirse	-11.0981
▁suímh	-11.0982
▁polaitíochta	-11.0984
▁Maoiniú	-11.0995
▁chóip	-11.0997
▁ospidéil	-11.1
▁Cum	-11.1001
▁Éirí	-11.1002
yl	-11.1009
▁orlach	-11.101
iche	-11.1012
chláir	-11.1021
▁chuntais	-11.1024
scoil	-11.1026
▁fhoirgneamh	-11.1026
ban	-11.103
shi	-11.1033
▁fr	-11.1033
▁Geo	-11.1051
▁fuaim	-11.1057
ji	-11.1058
▁chabhra	-11.1058
iomlán	-11.1059
mes	-11.1065
uri	-11.1066
eagraíocht	-11.1067
__	-11.1072
dra	-11.1073
▁here	-11.1077
institiúidí	-11.1079
▁400	-11.1079
▁Thoir	-11.108
▁Úcráin	-11.1083
othar	-11.1084
lot	-11.1085
▁Leictreonach	-11.1088
▁Riachtanais	-11.1088
▁chogaidh	-11.1088
▁Lárionad	-11.1088
▁sceitheadh	-11.1088
▁míonna	-11.1088
▁crann	-11.1088
▁eachtraíochta	-11.1088
▁beann	-11.1089
▁cliant	-11.1089
▁gníomhairí	-11.1089
▁Méadú	-11.1091
lit	-11.1095
▁tástálacha	-11.1097
▁tríocha	-11.1102
▁Uachtaráin	-11.1102
▁Tac	-11.1109
▁phearsa	-11.1115
Do	-11.1119
▁Pacáil	-11.1124
▁measa	-11.1128
side	-11.1129
▁sho	-11.1135
ella	-11.1152
ull	-11.1154
▁thuairisciú	-11.1154
iff	-11.1155
▁coiteann	-11.1164
▁Omeg	-11.1165
sch	-11.1166
ls	-11.1166
▁bhealaí	-11.1167
▁teip	-11.1169
▁Ríomh	-11.1177
▁Ne	-11.1183
▁Aois	-11.1183
Rúnaí	-11.1187
▁suiteáilte	-11.1188
▁Catagóirí	-11.1188
aireacht	-11.1189
oid	-11.1189
dar	-11.119
AI	-11.1194
ont	-11.1194
▁Teoranta	-11.1198
▁comparáid	-11.1198
▁0/0	-11.1198
▁Firefox	-11.1198
▁Phobal	-11.1198
▁gcostas	-11.1198
▁coiriúil	-11.1198
▁dollar	-11.1198
▁Spying	-11.1198
▁rialuithe	-11.1199
▁Gné	-11.12
▁chuimsiú	-11.12
▁Credits	-11.1201
▁gheofar	-11.1201
▁Airm	-11.1202
▁aníos	-11.1203
▁Foras	-11.1205
▁inmhuirir	-11.1205
▁Teastas	-11.1205
▁thógann	-11.1205
▁bhfomhír	-11.1206
oise	-11.1207
ast	-11.1207
▁Áras	-11.1208
▁comhionannas	-11.1211
▁Cabhra	-11.1218
▁Thar	-11.1218
▁chárta	-11.1225
-5	-11.1231
▁cath	-11.1232
náisiúnaigh	-11.1243
▁rúin	-11.1246
▁Met	-11.125
▁cm	-11.1255
ardchaighdeán	-11.1258
achtaí	-11.1262
ini	-11.1262
ever	-11.1267
▁Game	-11.1269
▁Ben	-11.1269
▁soiléire	-11.1277
▁Dea	-11.1283
▁tiomantas	-11.1286
tos	-11.1299
▁cúirt	-11.1302
cair	-11.1304
▁you	-11.1306
▁CRO	-11.1309
▁Phacastáin	-11.1309
▁aláraim	-11.1309
▁Bróga	-11.1309
▁eadhon	-11.1309
▁Forex	-11.1309
iarrthóirí	-11.1309
▁Stocaí	-11.131
▁leagadh	-11.1311
frik	-11.1313
▁eolaíoch	-11.1315
▁Gáis	-11.1316
▁inghlactha	-11.1317
▁chomhar	-11.1318
ack	-11.1318
▁cheadaíonn	-11.132
cre	-11.1321
▁tairbhí	-11.1321
▁glanadh	-11.1321
ef	-11.1324
DI	-11.1324
▁UN	-11.1328
▁riarachán	-11.1329
▁tarchurtha	-11.1331
▁leaganacha	-11.1333
▁France	-11.1335
eur	-11.134
▁urlár	-11.1342
▁49	-11.1347
▁mhuirear	-11.1351
▁2020.	-11.1359
▁seirbhíseach	-11.1364
▁YA	-11.1367
lacht	-11.1368
▁iniompartha	-11.1375
▁bheart	-11.1377
▁52	-11.1381
▁Nuad	-11.1385
600	-11.1385
fin	-11.1388
aithfear	-11.1388
▁pre	-11.1393
▁éigeantach	-11.1394
MC	-11.1395
álaithe	-11.1401
▁shoot	-11.1405
aicme	-11.1407
▁deacra	-11.1409
▁Op	-11.141
just	-11.1414
tiocfaidh	-11.1416
▁reachta	-11.142
field	-11.142
▁díoltóir	-11.142
▁hAfraice	-11.1421
▁mBúcairist	-11.1421
▁cairdiúil	-11.1421
▁Athchóiriú	-11.1421
▁buartha	-11.1421
▁fáinne	-11.1421
▁Leabharlainne	-11.1422
▁coimhdeachta	-11.1422
▁Manufacturers	-11.1422
▁trádálaí	-11.1422
ort	-11.1423
▁gcoinníollacha	-11.1423
▁hAchta	-11.1425
nu	-11.1426
▁comhordú	-11.1429
cháil	-11.1432
▁Struchtúr	-11.1435
▁olann	-11.1437
▁barántas	-11.1437
▁Sín	-11.1442
▁allmhairiú	-11.145
▁eastát	-11.145
▁liostaithe	-11.1451
gs	-11.1452
▁alúmanaim	-11.1453
▁chos	-11.1454
▁cheapfar	-11.1454
▁LE	-11.1457
aans	-11.1461
▁han	-11.1465
▁forbairtí	-11.1467
▁liathróidí	-11.1467
▁nG	-11.1469
▁dheas	-11.147
▁Oifigí	-11.1474
▁Vi	-11.1478
othair	-11.1483
oin	-11.1485
ED	-11.1487
▁léirigh	-11.1488
▁ghrian	-11.149
bre	-11.1492
ates	-11.1495
▁digiteacha	-11.1497
▁Ni	-11.1499
▁ceimiceach	-11.1501
▁fhocal	-11.1502
glacfaidh	-11.1504
▁England	-11.1505
ani	-11.1512
eolaíochta	-11.1513
▁tomhaltóir	-11.1518
FI	-11.1518
▁Hua	-11.1518
ainmhithe	-11.1522
earc	-11.153
▁braiteoir	-11.1534
▁buidéal	-11.1535
▁scagaire	-11.1535
▁fiosrúchán	-11.1535
▁comhtháthú	-11.1535
▁earráid	-11.1535
▁painéal	-11.1535
▁gCoinbhinsiún	-11.1535
▁soláthairtí	-11.1536
▁off	-11.1537
▁bhunaidh	-11.1538
▁teirmeach	-11.1538
SM	-11.1539
éireoidh	-11.1539
álacha	-11.154
▁Oiriúnach	-11.154
▁bhfocal	-11.154
▁dheireanach	-11.154
▁Trá	-11.1541
▁Sínis	-11.1542
▁folamh	-11.1544
kin	-11.1546
▁pháipéar	-11.1554
AB	-11.1554
osach	-11.1562
ating	-11.1567
▁Women	-11.1569
▁coiriúla	-11.1573
raic	-11.1576
apa	-11.1577
ski	-11.1578
▁achar	-11.158
▁nuálach	-11.1589
▁League	-11.1591
▁Roinnt	-11.1591
▁cas	-11.1598
▁cothromaíocht	-11.1599
▁Air	-11.1619
chas	-11.1621
▁stampa	-11.1632
▁Rud	-11.1633
cáin	-11.1634
▁Un	-11.1641
ight	-11.1643
▁man	-11.1644
idi	-11.1645
▁gcoinníoll	-11.1647
▁laoch	-11.1649
Mhúinteoireachta	-11.165
▁Luimnigh	-11.165
▁dhromchla	-11.165
▁Chustaiméirí	-11.165
▁tiarna	-11.165
▁threisiú	-11.165
▁Gúna	-11.165
▁chailliúint	-11.165
▁Éigeandála	-11.165
▁comhaontaithe	-11.165
▁shúchán	-11.165
▁Winx	-11.165
▁teileafóin	-11.165
▁huisce	-11.1651
▁Meastar	-11.1651
▁taos	-11.1652
▁gcathair	-11.1652
▁páiste	-11.1652
▁imscrúdaithe	-11.1661
gr	-11.1662
▁Red	-11.1662
▁nGníomhaireacht	-11.1663
▁Caibidil	-11.1664
▁Plaisteacha	-11.1665
▁seó	-11.1666
▁tháirge	-11.1666
▁measctha	-11.1669
▁tailte	-11.1669
▁Blue	-11.1673
▁hailt	-11.168
▁Ealaíne	-11.1681
▁we	-11.1685
▁crios	-11.1686
▁clocha	-11.1689
SF	-11.1691
ima	-11.1692
▁Orduithe	-11.1693
NI	-11.1694
world	-11.1699
pt	-11.1707
▁Franc	-11.1707
▁SA	-11.1711
▁Comhroinn	-11.1712
2:	-11.1712
▁comhshocraíocht	-11.1721
úsáideoir	-11.1722
▁sheas	-11.1725
ealaíon	-11.1725
▁imirce	-11.1726
▁ghluaiseacht	-11.1727
▁mhian	-11.1744
CD	-11.1745
oibrí	-11.1746
met	-11.1747
▁Réigiúnach	-11.1748
▁strainséir	-11.1749
▁héifeacht	-11.175
fhostóir	-11.175
iasc	-11.1756
▁trasna	-11.1757
feadh	-11.1761
▁Pá	-11.1761
elle	-11.1763
AM	-11.1766
▁Foirne	-11.1766
▁Ioncuim	-11.1766
▁féilire	-11.1766
▁iargúlta	-11.1766
▁theaghlaigh	-11.1766
▁thoirmeasc	-11.1766
▁chuici	-11.1766
▁codlata	-11.1766
▁matáin	-11.1767
▁bailíodh	-11.1767
▁Measfar	-11.1767
▁Neart	-11.1767
▁ciseal	-11.1767
▁tiubh	-11.1768
▁stairiúil	-11.1768
▁huirlisí	-11.1769
▁1968	-11.1769
▁gnóchain	-11.1771
▁dTeangacha	-11.1772
▁Dearbhú	-11.1773
▁taiscí	-11.1774
▁leaba	-11.1775
▁Parlaiminteach	-11.1776
rom	-11.1776
deireadh	-11.1776
▁bhfear	-11.1777
inntíonn	-11.1778
▁phriontáil	-11.178
▁ealaín	-11.178
▁tuarastail	-11.1781
▁1978	-11.1784
▁freagrachtaí	-11.1789
▁uibheacha	-11.1789
▁chineálacha	-11.1791
ond	-11.1792
ines	-11.1799
▁stór	-11.1803
laíonn	-11.1809
▁dho	-11.1809
▁fhéad	-11.1811
▁Bailte	-11.1811
lar	-11.1818
▁naimhde	-11.1823
▁áireofar	-11.1823
ráta	-11.1824
▁€4	-11.1827
FF	-11.1832
ocha	-11.1835
▁Mhí	-11.1839
▁mhion	-11.1849
▁príosúnacht	-11.185
▁aisíocaíocht	-11.1852
aird	-11.1854
▁chomhordú	-11.1855
Te	-11.1856
more	-11.1858
dia	-11.1859
racha	-11.1862
oidh	-11.1864
ding	-11.1865
▁scíth	-11.1867
olta	-11.1867
▁iomarcach	-11.1874
bhealach	-11.1877
cle	-11.1877
vision	-11.1879
kh	-11.188
▁gr	-11.1882
▁thaighde	-11.1883
▁Bhóithre	-11.1884
▁geimhreadh	-11.1884
▁peataí	-11.1884
▁samhradh	-11.1884
▁chách	-11.1884
▁sneachta	-11.1884
▁[...]	-11.1884
racial	-11.1884
▁ceathrú	-11.1884
▁Airgeadaíochta	-11.1884
▁fuaraithe	-11.1884
▁gCathair	-11.1884
▁Leathanach	-11.1885
▁grafaicí	-11.1887
▁choirp	-11.1887
▁locht	-11.1887
▁1926	-11.1888
▁himreoirí	-11.1888
▁Inn	-11.1888
▁othair	-11.1892
▁mótair	-11.1892
ualach	-11.1893
▁1925	-11.1893
▁comhpháirt	-11.1894
▁draíochta	-11.1895
▁Deontas	-11.1897
▁agallamh	-11.1898
ank	-11.1898
post	-11.1899
dity	-11.1903
bha	-11.1905
▁oibríochta	-11.1905
▁Comhar	-11.191
▁fhoinse	-11.191
▁dúil	-11.1913
▁nglacfaidh	-11.1914
Aonad	-11.1915
trí	-11.1915
ofa	-11.192
▁neamhspleáchas	-11.192
cast	-11.192
vin	-11.1931
▁trialacha	-11.1931
▁Or	-11.1934
▁peann	-11.1935
time	-11.1936
▁uas	-11.1937
ship	-11.1946
▁or	-11.1946
gha	-11.1948
▁deoch	-11.195
ná	-11.1955
▁cúinsí	-11.1956
cher	-11.1957
▁Caisleán	-11.1963
▁thabha	-11.1968
▁Maigh	-11.1969
▁chigire	-11.197
▁cló	-11.197
▁réalta	-11.1976
eodh	-11.1976
oscailt	-11.198
▁gcáil	-11.1983
▁fi	-11.1986
▁Don	-11.1989
DR	-11.1989
Aire	-11.1994
▁teagmhas	-11.2001
eolaí	-11.2001
▁Adhmaid	-11.2003
▁Gearmáine	-11.2003
▁Sláintíochta	-11.2003
▁Windows	-11.2003
▁hiondúil	-11.2003
▁phacáiste	-11.2003
▁phinsean	-11.2003
▁praiticiúla	-11.2003
▁tháirgtear	-11.2003
▁tsuímh	-11.2003
▁gearáin	-11.2003
▁nDún	-11.2003
▁Siopa	-11.2003
▁fhorordaithe	-11.2003
▁fliuch	-11.2003
▁Shaoránaigh	-11.2003
FT	-11.2003
▁comhlíonta	-11.2003
▁AD	-11.2004
▁greamaigh	-11.2004
▁sáruithe	-11.2004
eng	-11.2007
▁CUID	-11.2013
▁Seas	-11.2014
▁Béal	-11.2015
▁Arna	-11.2018
▁tarraing	-11.2019
▁BBC	-11.2023
▁cumais	-11.2023
▁Ka	-11.2024
ward	-11.2024
▁ranníocaí	-11.2026
▁rialtóir	-11.2026
▁fógraíochta	-11.2028
▁cúlra	-11.203
▁árasán	-11.203
▁Rialáil	-11.203
OPE	-11.2031
gg	-11.2034
▁chultúr	-11.2036
▁mheasúnacht	-11.2037
......	-11.2043
▁comhpháirteach	-11.2047
léi	-11.2051
jp	-11.2051
▁mhóra	-11.2052
▁Daily	-11.2052
▁mBanc	-11.2052
▁tArd	-11.2055
rick	-11.2055
▁ceap	-11.2056
▁My	-11.2064
▁dochair	-11.2068
▁féile	-11.2069
▁@2	-11.207
Cúrsaí	-11.2073
▁Chur	-11.2074
▁ghabh	-11.2075
aol	-11.2075
ally	-11.2076
▁Business	-11.2077
ming	-11.2077
▁sholáthrói	-11.2085
▁Teacht	-11.2086
▁ócáidí	-11.2086
rus	-11.2087
PP	-11.2087
▁agaibh	-11.2088
▁deonach	-11.2094
▁bhforál	-11.2094
íchumasaithe	-11.2095
fhorbair	-11.2098
Shéalainn	-11.2106
iarrthóir	-11.2106
▁chaill	-11.2106
▁infheistíochtaí	-11.2109
▁Fón	-11.2113
aiste	-11.2116
▁Corparáide	-11.2117
life	-11.2118
▁Rúnaí	-11.2119
Parliament	-11.2123
▁Bíobla	-11.2123
▁Feisirí	-11.2123
▁gaoithe	-11.2123
▁gcomhshaol	-11.2123
▁silicone	-11.2123
▁taispeána	-11.2123
▁Téann	-11.2123
▁athsholáthar	-11.2123
▁labhartha	-11.2123
▁sheasamh	-11.2124
▁aoisliúntais	-11.2124
▁Montblanc	-11.2124
▁poker	-11.2124
▁1979	-11.2126
▁Seiceáil	-11.2126
NO	-11.2126
▁sult	-11.2127
▁aonfhoirmeach	-11.2127
▁airgeadaíochta	-11.2128
▁Leigh	-11.2128
▁1935	-11.2129
▁1960	-11.213
ture	-11.213
▁briste	-11.2131
▁Gairmiúla	-11.2131
▁dtuig	-11.2132
▁imithe	-11.2132
▁shábháilteacht	-11.2132
gp	-11.2135
vis	-11.2137
rmhór	-11.2138
rop	-11.2141
inte	-11.2142
dsm	-11.2142
▁clú	-11.2146
300	-11.2148
Sraith	-11.2149
▁chionn	-11.2155
▁móide	-11.2155
tter	-11.2156
▁athchóirithe	-11.2157
▁1)	-11.2157
▁mhéideanna	-11.2163
oinnigh	-11.2168
▁chumann	-11.2171
roll	-11.2175
▁Hi	-11.2181
▁cíosa	-11.2201
▁Arts	-11.2206
▁Aims	-11.221
oz	-11.2212
▁By	-11.2214
So	-11.2219
▁Danmhairg	-11.2223
▁náisiúnach	-11.2225
▁Lae	-11.2226
▁nea	-11.2227
▁chuideachtaí	-11.2227
TO	-11.2229
stone	-11.2231
▁maisiú	-11.2232
log	-11.2236
▁aontú	-11.224
▁Amharc	-11.2244
▁litríocht	-11.2244
▁rás	-11.2244
oh	-11.2245
▁Massage	-11.2245
▁Réitigh	-11.2245
▁briseadh	-11.2245
▁hEalaíona	-11.2245
▁optúla	-11.2245
▁speisialaithe	-11.2245
▁meicniúla	-11.2245
▁pholasaí	-11.2245
▁Scríobh	-11.2245
▁babhta	-11.2245
RO	-11.2245
▁híocaíochta	-11.2246
▁feoil	-11.2246
▁Cónaithe	-11.2246
▁mblianta	-11.2246
▁dhíriú	-11.2247
▁heilimintí	-11.2247
ory	-11.2247
▁chuims	-11.2248
▁1958	-11.2248
▁Saoire	-11.2248
▁Leasuithe	-11.2248
▁1977	-11.2249
▁armtha	-11.2249
▁fhor	-11.225
▁áitiú	-11.225
▁ghnólachtaí	-11.225
▁fhírinne	-11.225
▁tacaíochtaí	-11.2252
▁cháil	-11.2255
▁féinfhostaithe	-11.2255
▁Mhacha	-11.2257
▁súl	-11.2257
▁sú	-11.2259
▁cheapann	-11.2259
fá	-11.2259
DS	-11.226
▁Cas	-11.227
▁loinge	-11.2272
▁banc	-11.2276
▁gealltanas	-11.2281
radaim	-11.2287
▁foras	-11.2291
▁Páirtithe	-11.2295
una	-11.2295
NL	-11.2306
▁58	-11.2306
▁Green	-11.2306
▁Bunacha	-11.2307
▁lasc	-11.2307
▁Chomhar	-11.2308
▁Mol	-11.2308
idir	-11.2308
ula	-11.2312
▁comhoiriúnachta	-11.2326
▁Read	-11.2328
▁láithreacha	-11.2328
▁rásaíocht	-11.2336
abhar	-11.2337
▁Corparáideach	-11.2339
ado	-11.2346
▁racha	-11.2346
itear	-11.2348
▁vitimín	-11.2351
imreoir	-11.2355
▁lampa	-11.2355
▁salach	-11.2355
▁Airgead	-11.2359
Iarscríbhinn	-11.2366
▁charr	-11.2368
▁Aicrileach	-11.2369
▁Limistéir	-11.2369
▁Phrótacal	-11.2369
▁Riachtanach	-11.2369
▁Schengen	-11.2369
▁figiúr	-11.2369
▁sciála	-11.2369
▁vuku	-11.2369
▁gluaisteáin	-11.2369
▁Idirlín	-11.2369
▁Phoist	-11.2369
▁thógaint	-11.2369
▁torann	-11.2369
▁chuairteoirí	-11.2369
▁bheirt	-11.237
▁chomhtháthú	-11.237
▁Tosaigh	-11.2371
▁rialaíonn	-11.2371
▁cleachtadh	-11.2371
▁1972	-11.2372
▁fheictear	-11.2372
▁oiriúnaí	-11.2377
dícheall	-11.2377
▁gcúis	-11.2377
▁tascanna	-11.2378
▁Fhine	-11.2378
acmhainní	-11.2379
▁siúil	-11.2379
▁buachaillí	-11.2382
▁cabhrach	-11.2385
▁Uirlisí	-11.2385
▁tri	-11.239
▁Philippe	-11.2391
pcs	-11.2395
kar	-11.2395
hall	-11.2398
▁áite	-11.2399
▁Buan	-11.24
▁AS	-11.2407
Se	-11.2408
▁caill	-11.2409
éasca	-11.2416
▁FSS	-11.2418
▁taifeadta	-11.242
ól	-11.2424
▁€5	-11.2424
can	-11.2424
▁shonracha	-11.2425
cla	-11.2432
▁áititheoir	-11.2436
ized	-11.2437
▁máil	-11.2439
▁56	-11.2439
▁Cheartas	-11.244
SU	-11.2445
rbh	-11.2447
▁plaisteacha	-11.2449
▁ranníocaíocht	-11.2459
▁ST	-11.2464
rialacha	-11.2465
▁CC	-11.2471
Sc	-11.2473
ghabhála	-11.2476
EI	-11.2476
▁kg	-11.2483
HS	-11.2486
▁Manufactur	-11.2492
has	-11.2493
▁sástacht	-11.2493
▁Bónais	-11.2494
▁Taistil	-11.2494
▁cóimhiotail	-11.2494
▁lesbians	-11.2494
▁phláinéid	-11.2494
▁shimplí	-11.2494
▁speiceas	-11.2494
▁dtuismitheoirí	-11.2494
▁hÁise	-11.2494
▁Cóirithe	-11.2494
▁Cosúil	-11.2494
▁Aeráide	-11.2494
▁Staidrimh	-11.2494
▁gnáthchónaí	-11.2494
▁Bhunreacht	-11.2494
▁staidrimh	-11.2494
▁Inniu	-11.2494
▁tOireachtas	-11.2495
▁ngabhann	-11.2495
▁fhada	-11.2495
▁mbord	-11.2496
▁bhliana	-11.2499
▁chomhionann	-11.25
▁fashion	-11.25
Beidh	-11.2502
▁Bunscoile	-11.2502
▁ghlúin	-11.2505
▁micrea	-11.2506
▁chinneann	-11.2507
▁Auto	-11.2508
▁eachtraí	-11.251
▁Thithe	-11.2511
▁Ambasáid	-11.2511
▁líomatáiste	-11.2514
▁1:	-11.2516
▁ospidéal	-11.2517
▁Mhá	-11.2518
▁shaothrú	-11.2519
ale	-11.2521
ionann	-11.2521
nas	-11.2523
▁CFAE	-11.2524
▁ordachán	-11.2525
pan	-11.2528
▁ceimiceacha	-11.2531
▁Straitéise	-11.2534
cus	-11.2535
▁bhunúsach	-11.2536
ame	-11.2539
liú	-11.2539
▁théarma	-11.2546
▁cheartú	-11.2551
ionn	-11.2556
▁stad	-11.2559
▁nuálacha	-11.256
she	-11.257
ruthaíonn	-11.2575
▁dleachta	-11.2584
..../201	-11.2595
aka	-11.2595
set	-11.26
▁Beag	-11.2607
úin	-11.2607
▁rúnaí	-11.2609
leabhar	-11.2611
Th	-11.2613
▁scar	-11.2614
▁thaifead	-11.2617
aontuithe	-11.262
▁Measúnú	-11.262
▁bliantúla	-11.262
▁bronnadh	-11.262
▁cogaidh	-11.262
▁geilleagar	-11.262
▁hAeráide	-11.262
▁chríche	-11.262
▁Taoisigh	-11.262
▁bándearg	-11.262
▁Pádraig	-11.262
▁Bhinse	-11.2621
▁dtosach	-11.2621
▁Samhraidh	-11.2621
▁spáis	-11.2621
▁caidéil	-11.2622
▁Dóiteáin	-11.2623
iniúchadh	-11.2624
▁1946	-11.2624
yn	-11.2625
▁péire	-11.2625
▁thacaíonn	-11.2627
rob	-11.2627
▁durable	-11.2631
▁Scéimeanna	-11.2632
▁Classic	-11.2632
▁foilsiú	-11.2632
▁Gr	-11.2632
▁2021	-11.2634
rd	-11.2634
▁táirgeoirí	-11.2635
▁séalaithe	-11.2636
▁Painéal	-11.2636
▁Tuaisceart	-11.2637
It	-11.2638
▁thuig	-11.2638
▁Eanair	-11.2638
▁(“	-11.2642
▁léitheoireachta	-11.2643
itheach	-11.2644
▁iarann	-11.2646
bot	-11.2649
att	-11.2652
nia	-11.2655
▁cruthúnas	-11.2657
bona	-11.2665
▁ghiniúint	-11.2667
▁seachtainí	-11.2668
001	-11.267
▁trátha	-11.267
▁bhunaigh	-11.2671
▁bád	-11.2671
800	-11.2674
▁gCo	-11.2675
ude	-11.2676
▁Flash	-11.268
▁@_	-11.2681
7%	-11.2685
▁Cúrsa	-11.2686
bl	-11.2688
▁51	-11.2691
▁Táim	-11.2693
▁Mon	-11.2693
reach	-11.2695
▁Chlárú	-11.2697
▁shé	-11.2707
▁fhostóir	-11.2713
iúir	-11.2721
▁oibreoidh	-11.2722
▁trédhearcacht	-11.2724
ófaí	-11.2726
samh	-11.2727
▁Gabh	-11.2727
▁seánra	-11.2731
▁formáid	-11.2731
laithe	-11.2731
row	-11.2736
ors	-11.2739
▁Críost	-11.274
▁bplean	-11.2744
▁Ceap	-11.2745
▁traidisiún	-11.2746
LT	-11.2746
▁cistiú	-11.2748
▁bailiú	-11.2748
thuarascáil	-11.2748
▁Foirgníochta	-11.2748
▁Oisrí	-11.2748
▁feachtas	-11.2748
▁infheidhmithe	-11.2748
▁convert	-11.2748
▁Choimisinéara	-11.2748
▁comhdhéanamh	-11.2749
▁constaicí	-11.2749
▁Chuige	-11.2749
▁tharlóidh	-11.2751
▁gColáiste	-11.2751
▁1939	-11.2752
▁nuachtán	-11.2752
▁Cearnóg	-11.2754
fish	-11.2754
tim	-11.2754
iúlacht	-11.2755
Féach	-11.2757
▁gléasanna	-11.2757
▁gaol	-11.2757
▁Gorm	-11.2758
▁Daonna	-11.276
inneall	-11.276
▁Údar	-11.2763
▁Ri	-11.2765
▁shean	-11.2765
táil	-11.2767
▁Reacht	-11.2769
porn	-11.2769
Sports	-11.2772
radio	-11.2772
off	-11.2777
lainn	-11.2778
▁chiall	-11.2778
▁Dámhachtain	-11.2778
▁69	-11.2778
▁Project	-11.2779
▁mise	-11.2781
▁dhlíthe	-11.2782
rc	-11.2783
▁Group	-11.2784
▁lámhach	-11.2786
mad	-11.2788
▁leasaithe	-11.2788
▁Association	-11.2793
lon	-11.2797
▁57	-11.2799
▁Saol	-11.2799
avi	-11.2802
▁leithead	-11.2814
▁chothrom	-11.2822
▁GA	-11.2823
▁Buail	-11.2824
room	-11.283
lag	-11.2834
5,000	-11.2835
achais	-11.2835
▁neamhghnách	-11.2836
wi	-11.2838
▁máistir	-11.2847
▁Os	-11.2851
▁luchtú	-11.2853
key	-11.2856
íocfar	-11.2858
▁gcomhalta	-11.2862
má	-11.2869
rio	-11.2869
▁thogra	-11.287
▁suime	-11.2873
▁Nu	-11.2876
▁bannaí	-11.2877
▁tuairiscí	-11.2877
▁Laoghaire	-11.2878
▁Talmhan	-11.2878
▁comhéadan	-11.2878
▁cúitimh	-11.2878
▁feabhais	-11.2878
▁smachtbhannaí	-11.2878
▁ndaltaí	-11.2878
▁EUROPA	-11.2878
school	-11.2878
▁Shamhna	-11.2878
▁Fhéile	-11.2878
▁sonrófar	-11.2879
▁gConradh	-11.2879
▁faoisimh	-11.2879
▁measartha	-11.288
▁gnóthais	-11.288
▁colún	-11.288
▁mothúcháin	-11.2881
▁frithpháirteach	-11.2881
▁1986	-11.2881
▁1942	-11.2883
chleachtais	-11.2888
▁fheiste	-11.289
▁Earraí	-11.2891
▁bhac	-11.2893
PD	-11.2895
▁teicnící	-11.2896
▁aontaithe	-11.2897
leibhéal	-11.2897
▁chara	-11.29
▁Corr	-11.2902
▁Ráth	-11.2904
FE	-11.2904
▁Liúntais	-11.2906
andy	-11.2908
▁Ról	-11.2908
▁Fís	-11.291
▁Iarr	-11.2912
▁phrionsaba	-11.2917
▁Pu	-11.2917
kan	-11.2918
▁Taispeán	-11.2919
pre	-11.292
▁bhainc	-11.292
▁oilte	-11.2922
▁voltais	-11.2924
▁uiscí	-11.2928
▁€6	-11.2931
LF	-11.2935
▁UK	-11.2936
▁Glac	-11.2939
áistí	-11.2939
lac	-11.294
▁toirte	-11.2942
▁cháis	-11.2944
▁sub	-11.2946
will	-11.2946
▁ton	-11.2947
▁Rose	-11.2951
▁breac	-11.2953
▁Pas	-11.2953
▁Bean	-11.2954
-12	-11.2956
▁ndíol	-11.2959
▁Tor	-11.2963
8/	-11.2964
▁Mha	-11.2971
▁bus	-11.2972
uc	-11.2975
nal	-11.2975
▁Fiontraíocht	-11.2976
▁inchinn	-11.2982
col	-11.2986
cu	-11.2995
▁conartha	-11.3001
-3	-11.3002
▁costaisí	-11.3006
▁Pé	-11.3008
RS	-11.3009
▁Information	-11.301
▁Semester	-11.301
▁inphinsin	-11.301
▁patrúin	-11.301
▁soilsiú	-11.301
▁Orgy	-11.301
▁insliú	-11.301
▁feasta	-11.301
▁gcaighdeán	-11.301
▁EURES	-11.301
▁Bharraigh	-11.301
▁ghuthán	-11.3011
▁Meáchan	-11.3011
▁Nádúrtha	-11.3011
▁uilíoch	-11.3011
▁háiseanna	-11.3014
ette	-11.3015
▁hainmhithe	-11.3017
▁hiarrthóirí	-11.3017
▁Coinníollacha	-11.3018
eáin	-11.302
▁(30	-11.302
▁Mír	-11.3022
ink	-11.3022
▁bhranda	-11.3022
▁fhorghníomhú	-11.3022
▁Staidéar	-11.3022
▁cúirteanna	-11.3023
HR	-11.3024
▁dóthain	-11.3024
eileachumarsáide	-11.3024
RC	-11.3024
▁ceardlanna	-11.3027
▁Bunúsacha	-11.3027
▁ullmhúcháin	-11.3028
▁deochanna	-11.303
▁Nasc	-11.303
▁Spreag	-11.3031
▁Teangacha	-11.3034
▁Cóta	-11.3035
eit	-11.3037
watch	-11.3037
hosaigh	-11.3042
▁(19	-11.3042
aireachta	-11.3047
ainmniú	-11.3052
▁250	-11.3053
ple	-11.3056
▁dálaí	-11.3056
now	-11.3065
▁bhog	-11.3066
▁Mini	-11.307
▁One	-11.3074
▁chúlra	-11.3076
▁céime	-11.3084
OC	-11.3086
▁hionstraimí	-11.3086
▁fearais	-11.3088
▁ROS	-11.3088
▁chuairt	-11.3091
▁cáipéisí	-11.3095
▁earnálacha	-11.3096
SO	-11.3096
faimid	-11.3096
ump	-11.3101
▁tarchur	-11.3107
▁duais	-11.311
▁trialach	-11.311
▁Iosrael	-11.3119
▁socr	-11.3122
▁Clo	-11.3125
▁víosa	-11.3126
▁mhúinteoir	-11.3127
▁Garda	-11.3128
ole	-11.3128
▁LCD	-11.3135
▁Cailín	-11.3139
▁Chríost	-11.3139
pie	-11.314
airt	-11.3142
Via	-11.3143
▁Gruaige	-11.3143
▁Shibhialta	-11.3143
▁árasáin	-11.3143
▁greanta	-11.3143
▁fáinní	-11.3143
▁cogadh	-11.3143
▁seiceálacha	-11.3143
▁iarchéime	-11.3143
▁feadáin	-11.3144
▁fianán	-11.3144
▁Toghcháin	-11.3144
ombre	-11.3144
▁ardleibhéil	-11.3144
▁Ró	-11.3144
▁hOileáin	-11.3146
▁ESB	-11.3146
▁Oifigiúla	-11.3146
▁DVD	-11.3147
▁tiúchan	-11.3148
oda	-11.3148
▁Teas	-11.3149
▁Europa	-11.3149
▁pacála	-11.3149
▁clainne	-11.315
▁héifeachtaí	-11.315
▁chomórtas	-11.3151
▁dhoiciméid	-11.3151
▁Íocaíochtaí	-11.3154
nua	-11.3154
cia	-11.3154
▁scratch	-11.3157
▁html	-11.316
rid	-11.3161
▁Doras	-11.3161
pin	-11.3162
▁mheasfar	-11.3163
▁fide	-11.317
▁Gra	-11.317
▁Iodáilis	-11.3171
ray	-11.3172
▁choill	-11.3173
▁fhorfheidhmiú	-11.3177
▁dtosaíonn	-11.3178
▁Réaltaí	-11.3179
▁out	-11.3181
▁chealú	-11.3184
▁fuil	-11.3188
uan	-11.3188
▁sealbhóirí	-11.3189
BR	-11.3189
▁eachtracha	-11.3192
▁gcoimeád	-11.3194
▁Seanad	-11.3196
2%	-11.32
▁pa	-11.3201
▁tráthanna	-11.3203
hromlach	-11.321
▁iarrtha	-11.3214
ena	-11.3216
loo	-11.3219
San	-11.322
state	-11.3227
▁Bell	-11.3227
adóir	-11.323
comhpháirtíochta	-11.3232
▁Tour	-11.3232
igi	-11.3234
LV	-11.3237
▁Leit	-11.3238
ilín	-11.324
▁breithiúnach	-11.3243
▁oibreoirí	-11.3243
▁1967	-11.3244
To	-11.3246
Oifigeach	-11.325
▁sha	-11.3251
GC	-11.3251
▁Gu	-11.3251
pur	-11.3252
▁110	-11.3252
gin	-11.3256
▁gruaig	-11.3261
▁scilling	-11.3262
▁Scéal	-11.3262
▁íoctar	-11.3266
▁cóta	-11.3268
Pa	-11.3268
▁ngeall	-11.327
lucht	-11.3271
▁custaim	-11.3278
▁caomhnú	-11.3278
▁theagasc	-11.3278
▁Fiontair	-11.3278
▁chonaic	-11.3278
▁fógartha	-11.3278
▁bonneagar	-11.3278
▁1970	-11.3279
▁scagadh	-11.3279
▁feabhsú	-11.3279
▁Nuashonrú	-11.3279
▁níolón	-11.3279
▁Comhlacht	-11.328
▁laochra	-11.328
▁chósta	-11.3281
▁1959	-11.3281
▁1974	-11.3282
▁Cásca	-11.3282
▁1936	-11.3283
!!!	-11.3285
olaimid	-11.3289
▁doirse	-11.3292
▁traenáil	-11.3292
▁fhoirmle	-11.3294
▁UM	-11.3296
▁formáidí	-11.3296
National	-11.3297
▁Ospidéal	-11.3297
▁dramhaíl	-11.3298
▁éide	-11.3299
▁Support	-11.33
USA	-11.3301
▁Rights	-11.3301
▁Rogha	-11.3302
▁luadh	-11.3303
▁ragha	-11.3304
▁kb	-11.3305
▁Jo	-11.3306
bya	-11.3306
▁díobhálacha	-11.3307
ye	-11.331
▁Tionsclaíocht	-11.3313
▁iontaobhas	-11.3316
cent	-11.3316
▁Help	-11.3318
AA	-11.3318
lee	-11.3319
▁rian	-11.3325
eáil	-11.3325
oe	-11.3326
inse	-11.3329
▁diúltacha	-11.3335
▁Comhairleach	-11.3336
▁IN	-11.3337
▁réad	-11.3337
▁si	-11.3338
▁Ionstraim	-11.3338
▁dtrí	-11.3339
oireachta	-11.3359
eála	-11.3359
▁Bainisteoir	-11.3362
▁Saoránach	-11.3365
▁sos	-11.3368
uinn	-11.3368
óil	-11.3368
fra	-11.3372
dro	-11.3375
▁lánúin	-11.3376
ese	-11.3381
▁hair	-11.3382
mos	-11.3383
▁cruthaitheach	-11.3385
▁Straitéiseach	-11.339
▁59	-11.3391
▁Day	-11.3394
▁ngrá	-11.3397
zz	-11.3401
▁bP	-11.3405
▁2011.	-11.3405
láintiúil	-11.3411
▁rátáil	-11.3414
▁Comhairliúchán	-11.3415
▁Otslaivanie	-11.3415
▁chronograph	-11.3415
▁mhíbhuntáiste	-11.3415
▁milliúin	-11.3415
▁reifreann	-11.3415
▁rince	-11.3415
▁pholaitiúil	-11.3415
▁thriail	-11.3415
▁choróin	-11.3416
▁Machine	-11.3416
network	-11.3416
▁gleoite	-11.3416
▁coimeádán	-11.3417
▁tairbhiúil	-11.3418
▁fhoinsí	-11.3418
▁uilig	-11.3418
▁1971	-11.3419
▁éagtha	-11.342
▁dTithe	-11.342
▁Stiúrthóra	-11.3421
▁Cuimhnigh	-11.3422
sain	-11.3423
▁BR	-11.3425
ici	-11.3425
▁Sports	-11.3426
iarraidh	-11.3428
▁deacracht	-11.3429
▁California	-11.343
▁1975	-11.3432
▁umar	-11.3432
nes	-11.3432
▁Bheaga	-11.3434
▁caife	-11.3435
▁Droichead	-11.3435
rátaí	-11.3437
▁sonrú	-11.3437
ocsaíd	-11.3439
▁dearaidh	-11.344
▁guys	-11.3442
PT	-11.3446
km	-11.3446
gcomhpháirtíocht	-11.3456
illa	-11.346
▁Dréacht	-11.3464
Bo	-11.3466
▁nglac	-11.3469
▁tharraing	-11.347
pri	-11.347
▁erotica	-11.3474
▁straitéiseacha	-11.3474
OM	-11.3475
ád	-11.3478
uni	-11.3481
▁nuálaíochta	-11.3481
▁spéise	-11.3482
nigh	-11.3483
▁bó	-11.3483
▁UV	-11.3489
táin	-11.3497
iarratasóirí	-11.3498
▁fl	-11.3499
▁brandaí	-11.3502
▁chlub	-11.3505
▁Real	-11.3508
▁gheobha	-11.3508
▁54	-11.3511
▁78	-11.3511
▁Eolaíocht	-11.3525
▁76	-11.3529
Ra	-11.3532
pol	-11.3536
▁custaiméir	-11.3537
▁úinéirí	-11.3538
BB	-11.3541
▁dhea	-11.3543
▁seirbhísigh	-11.3545
▁dámhachtain	-11.3546
lay	-11.355
▁glao	-11.3552
hejiang	-11.3554
▁Sloinnte	-11.3554
▁coigríche	-11.3554
▁comhairliúchán	-11.3554
▁massage	-11.3554
▁spéaclaí	-11.3554
▁bríomhar	-11.3554
comóradh	-11.3554
▁Léann	-11.3554
▁Fisting	-11.3554
▁bhfoghlaim	-11.3554
▁gluaisteán	-11.3554
▁sliseanna	-11.3554
▁Chéile	-11.3555
▁bhfabhar	-11.3555
▁stairiúla	-11.3556
▁bródúil	-11.3556
▁chluas	-11.3556
▁Imir	-11.3557
▁figiúirí	-11.3557
▁phlandaí	-11.3558
▁hiarrachtaí	-11.3559
▁Oifigigh	-11.3559
▁mbonn	-11.3559
▁dtarlaíonn	-11.356
▁Áiseanna	-11.356
▁táscairí	-11.356
▁tomhaltas	-11.356
▁Iarmhéid	-11.3561
▁dheonadh	-11.3563
▁taighdeoirí	-11.3563
mars	-11.3566
▁Company	-11.3567
▁2:	-11.3568
▁Táirgeadh	-11.357
mheasann	-11.3571
▁húsáideoirí	-11.3572
▁neamhaird	-11.3572
▁lúb	-11.3577
▁cos	-11.3578
ade	-11.358
nic	-11.358
▁uaim	-11.3581
▁Cead	-11.3584
▁threalamh	-11.3586
▁Xi	-11.3591
▁fearas	-11.3591
íocha	-11.3597
▁Ais	-11.3597
Baile	-11.3599
▁thionscadal	-11.3599
▁fíona	-11.36
▁comhthéacs	-11.3601
Oibreacha	-11.3602
▁bheo	-11.3605
Ard	-11.3605
illte	-11.3606
BE	-11.3609
iteach	-11.3612
▁táim	-11.3621
▁Stiúrthóirí	-11.3622
CL	-11.3623
ofar	-11.3624
MT	-11.3624
▁Mor	-11.3631
kg	-11.3635
▁Nuálaíocht	-11.3636
lm	-11.3637
▁Tra	-11.3637
uítear	-11.3637
lum	-11.3637
mara	-11.3637
▁Tríd	-11.3638
Uachtarán	-11.3643
!!	-11.3644
▁Breise	-11.3653
thú	-11.366
▁shuntasach	-11.3661
▁coincheap	-11.3661
▁iascaireacht	-11.3662
▁Náisiú	-11.3663
▁fhéach	-11.3665
▁idirbhearta	-11.3666
teistiméireachta	-11.3672
▁neamhspleácha	-11.3673
use	-11.3673
▁inter	-11.3675
▁Si	-11.3676
▁gcruthú	-11.3676
▁ngrúpa	-11.3678
cadh	-11.368
▁Liostaí	-11.3682
▁iníon	-11.3685
Con	-11.3688
ml	-11.3692
▁liostaí	-11.3692
2018	-11.3694
▁Battery	-11.3695
▁Breosla	-11.3695
▁Louboutin	-11.3695
▁iPhone	-11.3695
▁patrún	-11.3695
▁webcam	-11.3695
▁íosluchtaigh	-11.3695
▁Litríocht	-11.3695
▁Satharn	-11.3695
▁bhfíor	-11.3695
iarsmaí	-11.3695
▁Centre	-11.3695
▁boladh	-11.3695
▁iarrthóra	-11.3695
▁Gloine	-11.3695
▁Éadaí	-11.3695
▁sheilbh	-11.3695
▁bhoird	-11.3696
▁bailiúcháin	-11.3696
▁chosnaíonn	-11.3696
▁sheachtainiúil	-11.3696
▁éalú	-11.3696
▁coirp	-11.3696
▁dtáirgeadh	-11.3697
▁leathar	-11.3697
▁Daonlathaithe	-11.3697
▁fhorchuirtear	-11.3697
▁ardoideachais	-11.3698
▁ranna	-11.3698
▁Grand	-11.3699
▁1991	-11.3699
not	-11.37
ical	-11.37
▁cheadaítear	-11.3701
mc	-11.3702
▁1940	-11.3703
▁hÉirinn	-11.3704
Comh	-11.3704
▁Amazon	-11.3705
liocht	-11.3705
▁cirt	-11.3706
▁linksoflondon	-11.3706
▁Cóiré	-11.3706
▁bhóithre	-11.3708
▁comhshó	-11.3712
▁Reachtaíocht	-11.3712
▁táthú	-11.3713
▁admháil	-11.3715
▁Tairseach	-11.3717
▁eisiamh	-11.3719
▁Europe	-11.3719
ACH	-11.3722
intinn	-11.3722
NS	-11.3722
▁Ionaid	-11.3723
▁gnólacht	-11.3724
▁fheidhmíonn	-11.3724
▁míchumas	-11.3727
▁leacht	-11.3728
▁shúile	-11.3732
▁Branda	-11.3734
AIR	-11.3735
fc	-11.3736
▁ngairm	-11.3736
▁Áir	-11.3737
▁fostóirí	-11.3737
▁Rith	-11.3742
American	-11.3742
imir	-11.3745
▁ardaíonn	-11.3749
fhoirm	-11.3753
▁únaer	-11.3762
▁hath	-11.3766
ret	-11.3768
AU	-11.3771
eadúnas	-11.3772
ax	-11.3773
▁Rock	-11.3775
LD	-11.3781
▁bhfeic	-11.3781
▁comhsheasmhach	-11.3787
MH	-11.3789
CN	-11.3789
GE	-11.379
▁mhúnla	-11.3795
cer	-11.3796
-4	-11.3796
.30	-11.3801
▁measúnacht	-11.3801
istic	-11.3802
▁minicíocht	-11.3805
itch	-11.3808
uma	-11.3809
choiste	-11.3821
vy	-11.3822
▁dhír	-11.3824
caithfear	-11.383
▁teaghais	-11.383
▁Cáilíocht	-11.3831
uarastail	-11.3832
▁ocsaigin	-11.3834
▁síol	-11.3837
fhreagair	-11.3838
▁Aibreáin	-11.3838
▁Déantúsóirí	-11.3838
▁Tionscal	-11.3838
▁bprionsabal	-11.3838
▁corraitheach	-11.3838
▁paraiméadair	-11.3838
▁scríbe	-11.3838
▁thaispeántar	-11.3838
▁Custam	-11.3838
▁damáistí	-11.3838
▁gconradh	-11.3838
▁modhnuithe	-11.3838
▁comhlachais	-11.3838
▁threorú	-11.3838
Tiontaigh	-11.3838
▁Cábla	-11.3838
▁sásamh	-11.3838
▁cóimhiotal	-11.3838
▁Accessories	-11.3838
england	-11.3839
omhrac	-11.3839
▁Breithiúnais	-11.3839
▁uigeacht	-11.3839
▁bhfostóir	-11.3839
▁Dragon	-11.384
▁Bhea	-11.384
▁Chríostaí	-11.384
▁Breithe	-11.3841
▁Boird	-11.3841
Reachtaire	-11.3841
▁Pink	-11.3841
▁1933	-11.3842
▁Leabhair	-11.3842
▁aerach	-11.3843
▁Mamaí	-11.3844
▁ticéad	-11.3844
▁Electric	-11.3846
▁Glan	-11.3846
▁garbh	-11.3847
▁gcleachtas	-11.3848
▁Brexit	-11.3849
▁Billí	-11.3851
▁En	-11.3852
▁soghluaisteacht	-11.3854
Be	-11.3855
▁athúsáid	-11.3856
▁réasúnacha	-11.3857
▁fiacha	-11.3857
▁SF	-11.3859
▁ballaí	-11.3859
fhoghlaim	-11.3861
▁Álainn	-11.3863
▁Energy	-11.3865
▁cheaptha	-11.3866
▁plátaí	-11.3872
Níl	-11.3875
▁fheice	-11.3875
▁pics	-11.3876
▁túisce	-11.3878
▁app	-11.3879
▁rannchuidi	-11.3879
▁fhoirgnimh	-11.3885
▁club	-11.3889
▁Ranna	-11.3889
▁gal	-11.389
▁gcionta	-11.3891
ardaigh	-11.3898
▁idirphlé	-11.3898
▁Save	-11.3906
No	-11.391
▁Freastal	-11.3912
Su	-11.3915
▁PA	-11.3917
▁cúl	-11.3918
▁ndlí	-11.392
pla	-11.3921
▁fiach	-11.3925
eallraí	-11.3928
▁substaint	-11.393
▁cosa	-11.3934
aitheoirí	-11.3934
▁77	-11.3946
▁scríbhneoir	-11.3948
▁dhigiteach	-11.3949
▁déantúsaíocht	-11.3949
SL	-11.3952
CM	-11.3955
▁gComh	-11.3956
▁Media	-11.3957
▁Cl	-11.396
reg	-11.396
▁diosca	-11.3966
▁64	-11.3967
black	-11.3969
▁gcaithf	-11.3973
lor	-11.3973
▁Ungáir	-11.3978
aoiseach	-11.3981
ound	-11.3981
▁trahtube	-11.3983
▁Datejust	-11.3983
▁Liospóin	-11.3983
▁acadúla	-11.3983
▁furasta	-11.3983
▁gealltanais	-11.3983
▁measúnaithe	-11.3983
▁fhíneáil	-11.3983
neamhdhíobhálach	-11.3983
▁bpróiseáil	-11.3983
▁thuasluaite	-11.3983
▁randamach	-11.3983
▁tobann	-11.3983
▁troscán	-11.3983
▁uafásach	-11.3983
▁chaillteanas	-11.3983
▁dhíscaoileadh	-11.3983
▁Chartlann	-11.3983
▁ndeachaigh	-11.3984
▁mheaisín	-11.3984
▁Baintrí	-11.3984
téann	-11.3984
▁mhaireann	-11.3985
▁gceadúnas	-11.3986
▁ceachtanna	-11.3986
▁poill	-11.3989
▁tOrdú	-11.3989
▁dhochtúir	-11.399
▁Innealra	-11.3993
▁leanfar	-11.3999
▁1920	-11.4002
▁idirghabháil	-11.4002
▁téacsanna	-11.4004
roulette	-11.4006
▁tofa	-11.4009
▁dhiúlta	-11.401
▁fhiosrú	-11.4011
riachtanach	-11.4012
▁charachtar	-11.4014
▁fillte	-11.4015
▁mhéara	-11.4019
▁Transport	-11.4021
lé	-11.4024
▁cáblaí	-11.4025
▁Bhr	-11.4025
insí	-11.4028
▁bhfeidhmeanna	-11.403
ware	-11.4035
cothaithe	-11.404
tch	-11.4041
hen	-11.4042
Fe	-11.4042
▁Fear	-11.4043
▁léasa	-11.4043
over	-11.4045
▁múnlaí	-11.4045
▁Gaelscoil	-11.4047
▁Mp	-11.4048
nny	-11.4049
▁gcionn	-11.4057
▁Dleacht	-11.406
▁304	-11.4063
Pro	-11.4063
▁ACHT	-11.4065
▁suiteála	-11.4067
▁King	-11.407
olaíochtaí	-11.4075
▁3)	-11.4075
▁ócáideach	-11.4078
jack	-11.4079
▁53	-11.4082
▁bileog	-11.4096
▁maoirseacht	-11.4096
▁cheol	-11.4098
aimh	-11.41
▁Ceol	-11.4106
ement	-11.4107
▁Music	-11.4113
len	-11.4113
▁treorach	-11.4124
PL	-11.4124
▁scuab	-11.4126
▁BIA	-11.4128
▁shu	-11.4129
▁Bhanc	-11.413
▁Agallamh	-11.413
▁Comhlachais	-11.413
▁Dúbailte	-11.413
▁Pinsin	-11.413
▁chraiceann	-11.413
▁contrártha	-11.413
▁urláir	-11.413
equired	-11.413
▁glaonna	-11.413
▁gcoiste	-11.413
▁Aiseolas	-11.4131
▁gcolún	-11.4131
▁rathúla	-11.4131
▁cailleadh	-11.4131
▁tuigthe	-11.4131
▁cainéal	-11.4131
led	-11.4132
▁folláine	-11.4134
▁lgh	-11.4135
▁Dhia	-11.4135
▁marcanna	-11.4136
▁PR	-11.4138
▁shoiléir	-11.4142
▁inchánach	-11.4142
▁Ghaeltachta	-11.4143
Lakers	-11.4145
▁Feidhme	-11.4149
IM	-11.4152
▁Grá	-11.4154
Atlantic	-11.4156
Mhúsaem	-11.4156
▁taifeadadh	-11.4156
▁madraí	-11.4157
Eanáir	-11.4158
Media	-11.4158
AF	-11.4159
fhan	-11.4159
ladh	-11.416
▁fara	-11.4161
▁úsáidfear	-11.4161
▁Brown	-11.4165
▁shealbh	-11.4166
▁scannánú	-11.4166
▁Water	-11.4166
eat	-11.4167
MO	-11.4167
TM	-11.4168
▁Comhaltaí	-11.4169
▁mhaisiú	-11.417
▁PCB	-11.4174
▁bheartaithe	-11.4178
▁ghlan	-11.4178
▁aturnae	-11.4178
sl	-11.418
▁Réigiúnacha	-11.4183
▁íos	-11.4183
BC	-11.4187
lio	-11.4188
▁eilimintí	-11.4189
▁pócaí	-11.4192
tair	-11.4193
scéal	-11.4196
uz	-11.4197
ated	-11.4197
aitheoir	-11.4199
▁choinn	-11.4208
thu	-11.4212
▁bhunús	-11.4218
▁gha	-11.422
free	-11.4221
▁gcuma	-11.4221
iad	-11.423
roinn	-11.4231
uch	-11.4236
▁barántúla	-11.4238
any	-11.4238
▁Har	-11.4238
ithí	-11.4239
▁creidmheas	-11.4241
▁siopadóireacht	-11.4246
▁lia	-11.4246
▁Meiriceánach	-11.4247
▁Cuarda	-11.4247
▁cóiríocht	-11.4247
▁péint	-11.4248
bhuirg	-11.4248
▁Bre	-11.4254
▁acmhainne	-11.4256
FB	-11.4261
▁idirghabhála	-11.4266
▁amhairc	-11.4267
léas	-11.4271
▁fhéin	-11.4274
▁braite	-11.4275
▁72	-11.4277
▁DRÉACHT	-11.4279
iomportáil	-11.4279
▁Chiarraí	-11.4279
▁cearrbhachais	-11.4279
▁chomóradh	-11.4279
▁mhaireachtála	-11.4279
▁tnúth	-11.4279
▁Chomhdháil	-11.4279
▁shannadh	-11.4279
▁Ráitis	-11.4279
▁mhara	-11.4279
▁seaicéad	-11.4279
▁Dearbhuithe	-11.4279
▁hoifigiúil	-11.4279
▁phóca	-11.4279
▁Bailiúcháin	-11.4279
▁bhfuarthas	-11.4279
SCÁIL	-11.4279
▁ciorcad	-11.428
▁Léirmheasanna	-11.428
▁BDSM	-11.4281
▁pearsanra	-11.4281
▁modhnú	-11.4282
▁1981	-11.4282
▁tipiciúil	-11.4282
▁soláthróir	-11.4285
▁Orgasms	-11.4285
▁ce	-11.4285
▁chaitheann	-11.4286
lla	-11.4287
▁struchtúrtha	-11.4288
▁iarratasóra	-11.4288
▁Naofa	-11.429
▁cláruithe	-11.4291
▁droichead	-11.4291
▁níocháin	-11.4291
▁spiorad	-11.4293
part	-11.4293
▁Wire	-11.4295
▁ghlactar	-11.4298
day	-11.4303
▁cith	-11.4304
oibreacha	-11.4305
▁seoltaí	-11.4305
▁Acadamh	-11.4306
▁siamsaíochta	-11.4307
get	-11.4314
▁phas	-11.4316
▁tomhas	-11.4317
▁adhmad	-11.4318
TF	-11.4319
▁innill	-11.4322
▁Cuideachtaí	-11.4323
▁Cistí	-11.4327
▁mhíreanna	-11.4328
▁CD	-11.4328
▁chomhthéacs	-11.433
▁caibidlíochta	-11.4331
back	-11.4332
He	-11.4333
UM	-11.4334
▁dleachtanna	-11.4334
▁States	-11.4338
▁Leagann	-11.4339
▁1967,	-11.434
▁VII	-11.4342
▁mhíle	-11.4347
late	-11.4348
oon	-11.4349
▁muirí	-11.435
gue	-11.4351
play	-11.4357
list	-11.4364
▁TF	-11.4365
éim	-11.4366
▁faigh	-11.437
▁spreagtha	-11.437
ití	-11.4372
ben	-11.4378
LO	-11.4379
éifeachtach	-11.4382
▁loch	-11.4384
mis	-11.439
SR	-11.4391
asach	-11.4396
▁uirbeach	-11.4397
▁shonrach	-11.4398
▁Máistir	-11.4401
itis	-11.4405
ville	-11.4406
los	-11.4413
▁Cat	-11.4415
▁banna	-11.4416
▁em	-11.4417
▁tarchuir	-11.4419
ód	-11.4421
Fi	-11.4422
▁chuirfea	-11.4422
▁Maoine	-11.4424
▁shocr	-11.4428
▁shroich	-11.443
ealraíonn	-11.443
▁Brasaíle	-11.4431
▁Rannpháirtithe	-11.4431
▁cóimheas	-11.4431
▁dheiridh	-11.4431
▁fharraige	-11.4431
▁gheilleagar	-11.4431
▁laethúla	-11.4431
▁ngeilleagar	-11.4431
▁seisean	-11.4431
▁speicis	-11.4431
▁ilbhliantúil	-11.4431
Laistigh	-11.4431
▁This	-11.4431
▁theorannú	-11.4432
▁nGaillimh	-11.4432
▁lárionad	-11.4432
▁gafa	-11.4433
▁gasta	-11.4434
▁milis	-11.4434
▁lochtanna	-11.4435
▁ghathanna	-11.4437
▁bhuachaillí	-11.4437
▁gcruthófar	-11.4437
▁ITBÁC	-11.4437
éara	-11.4439
▁earrach	-11.444
▁Taisteal	-11.4441
▁coinneála	-11.4443
▁tuairiscithe	-11.4444
▁star	-11.4444
Aerfort	-11.4445
▁roghnúcháin	-11.4445
bhair	-11.4448
▁polasaithe	-11.4448
▁01	-11.4449
▁gnéis	-11.445
▁Tre	-11.445
LS	-11.4452
▁ráthaíochtaí	-11.4452
rain	-11.4453
▁Tástála	-11.4454
IANNA	-11.4455
▁déanfaimid	-11.4455
▁dhíon	-11.4456
eisiúint	-11.4457
▁halla	-11.4457
ainmneacha	-11.4458
▁Casinos	-11.4461
▁Spyder	-11.4462
▁fóin	-11.4465
▁críochnú	-11.4467
▁bloc	-11.4468
▁from	-11.4471
▁cheanglais	-11.4472
Uni	-11.4473
▁óstán	-11.4473
adóireacht	-11.4479
▁ardaithe	-11.4481
gre	-11.4486
▁600	-11.449
▁Seasam	-11.4494
▁Brú	-11.4498
▁Meas	-11.4502
▁Dis	-11.4505
▁feic	-11.4509
▁mis	-11.4512
ress	-11.4513
▁maisithe	-11.4515
sing	-11.452
▁áille	-11.4523
sw	-11.4528
▁cois	-11.4529
▁staire	-11.4529
▁alcól	-11.4529
stát	-11.4533
▁luachála	-11.4535
▁teilifís	-11.4535
▁para	-11.4541
éachtaí	-11.4543
bit	-11.4543
fhéach	-11.4546
rang	-11.4549
chúrsa	-11.4551
▁malartach	-11.4553
ficial	-11.4557
CF	-11.456
lús	-11.4563
town	-11.4564
sis	-11.4567
▁buachaill	-11.4567
▁Ré	-11.4567
▁mbosca	-11.4567
caire	-11.4568
sms	-11.457
▁eachtra	-11.4572
▁Athraío	-11.4574
▁hu	-11.4575
▁nGael	-11.4575
▁Brand	-11.4575
▁uillinn	-11.4579
JM	-11.458
▁chrua	-11.4581
▁cáiliú	-11.4582
fadh	-11.4584
▁drochuair	-11.4584
▁faillí	-11.4584
Wimbledon	-11.4584
▁Caipitiúil	-11.4584
▁Pháirc	-11.4584
▁Pictiúir	-11.4584
▁Teideal	-11.4584
▁bhfoirgneamh	-11.4584
▁teagmhais	-11.4584
▁scothaosta	-11.4584
▁Sreang	-11.4584
▁lasair	-11.4584
▁Bluetooth	-11.4585
▁gceanglaítear	-11.4585
▁sholáthraithe	-11.4585
▁cliniciúla	-11.4585
▁Chomhphobal	-11.4585
▁gcéim	-11.4585
▁seal	-11.4586
▁Roghanna	-11.4586
▁Breathnaíonn	-11.4586
▁comhraic	-11.4586
▁bunachar	-11.4586
▁ceapfar	-11.4586
▁cáis	-11.4587
▁mbeifear	-11.4587
▁dúnadh	-11.4587
▁Strapon	-11.4588
▁cré	-11.4588
▁1964	-11.4588
▁dráma	-11.4589
▁thagartha	-11.459
▁Deartha	-11.459
▁1932	-11.459
▁(12)	-11.459
▁hearnála	-11.459
▁bhogadh	-11.459
els	-11.459
▁frása	-11.4591
▁parlaiminteacha	-11.4592
▁peile	-11.4592
úchán	-11.4594
▁hoibríochtaí	-11.4595
▁leantach	-11.4595
▁fhreagraíonn	-11.46
▁20%	-11.46
▁pearsan	-11.46
▁roghchlár	-11.4601
Mu	-11.4601
▁foréigean	-11.4601
▁spásanna	-11.4602
▁víosaí	-11.4604
sun	-11.4605
water	-11.4606
▁Cruthaigh	-11.4609
▁dhe	-11.4611
music	-11.4612
▁cleachtaí	-11.4615
▁Ga	-11.4616
▁imr	-11.4617
▁fhorála	-11.4618
oibreoidh	-11.4618
ities	-11.462
▁heolas	-11.4622
anach	-11.4622
▁poly	-11.4623
▁sheomra	-11.4631
▁amanna	-11.4631
oiriúnach	-11.4632
▁aithnítear	-11.4633
fheirmeoirí	-11.4636
faoi	-11.4639
▁Coimeád	-11.464
▁ghníomhacha	-11.4642
KB	-11.4642
▁reachtacha	-11.4648
▁fírinneach	-11.465
▁Global	-11.4652
▁ghníomhartha	-11.4655
web	-11.466
▁gcruth	-11.4661
▁Theach	-11.4661
▁Will	-11.4661
▁frithsheasmhach	-11.4668
5%	-11.467
cas	-11.4673
emi	-11.4675
▁my	-11.4675
UA	-11.4685
pu	-11.4685
Em	-11.469
FS	-11.4696
ito	-11.4698
wan	-11.47
Cha	-11.47
nis	-11.4702
ists	-11.4706
app	-11.4709
▁Chlé	-11.4709
illeadh	-11.4714
▁dheonach	-11.4717
bhreith	-11.4718
▁fheic	-11.4719
Gov	-11.472
▁iarmhéid	-11.4724
ste	-11.4725
IB	-11.4728
▁Bu	-11.4728
leachtanna	-11.4729
▁Fíor	-11.473
líon	-11.4732
▁Sasana	-11.4736
mpl	-11.4737
▁cainníocht	-11.4737
▁with	-11.4738
▁hainm	-11.474
▁Foghlama	-11.4741
▁Thaighde	-11.4741
▁Tomhaltóirí	-11.4741
▁craolacháin	-11.4741
▁tarrthála	-11.4741
▁fiacla	-11.4741
▁caipín	-11.4741
▁dhomhanda	-11.4741
▁radhairc	-11.4741
▁ocras	-11.4741
▁múineadh	-11.4741
▁eastáit	-11.4741
▁chuala	-11.4741
▁feabhsúcháin	-11.4742
▁Státchiste	-11.4742
▁míchumais	-11.4742
▁fónamh	-11.4742
▁hiontach	-11.4743
▁caidrimh	-11.4743
▁cuain	-11.4743
▁gCill	-11.4744
BS	-11.4744
▁Atá	-11.4745
▁phróifíl	-11.4747
▁30%	-11.4748
▁thriomú	-11.4748
▁béal	-11.4749
▁mhéadaithe	-11.4752
▁cruthanna	-11.4753
▁dáiríre	-11.4753
▁Scol	-11.4753
book	-11.4754
▁cuairteanna	-11.4754
▁chultúir	-11.4755
▁chuimsitheach	-11.4756
▁amhráin	-11.4757
▁phíosa	-11.4757
osc	-11.4758
▁athuair	-11.4761
▁breiseán	-11.4763
▁longa	-11.4764
▁fhaoiseamh	-11.4765
HE	-11.4765
▁orgasms	-11.4769
▁Cairt	-11.4775
ify	-11.4776
▁Cu	-11.4776
▁forfheidhmiú	-11.4777
▁KB	-11.4778
resistant	-11.4778
▁chorparáide	-11.4779
idirbheart	-11.4779
tes	-11.4781
▁South	-11.4786
▁gceap	-11.4788
▁Library	-11.479
fas	-11.479
▁Social	-11.4791
-6	-11.4794
imreoirí	-11.4794
arra	-11.4797
tern	-11.4799
bol	-11.4804
▁fút	-11.4808
box	-11.4811
pha	-11.4814
▁brathadóir	-11.4821
point	-11.4824
tube	-11.4825
▁Cong	-11.4827
RN	-11.4827
▁iomaíochta	-11.4827
BL	-11.483
▁thaca	-11.4842
erry	-11.4843
▁Ollscoile	-11.4849
Star	-11.4851
;”	-11.4851
namh	-11.4853
▁Airí	-11.4855
ionta	-11.4858
▁ghlas	-11.4859
▁chl	-11.4863
▁fuinneog	-11.4866
▁fisiceach	-11.4866
▁talmhaíocht	-11.4866
▁thoiliú	-11.4867
▁diaper	-11.4868
itheoir	-11.4874
▁faid	-11.488
▁gunna	-11.4883
▁foirmiú	-11.4883
▁fhiach	-11.4885
▁chleachtais	-11.4889
▁amhrán	-11.4891
▁reiligiún	-11.4892
▁ro	-11.4893
▁Teagmhála	-11.4898
rim	-11.4899
▁Comórtas	-11.4899
▁Nuachtlitir	-11.4899
▁Shóisearach	-11.4899
▁fhinné	-11.4899
▁foilseacháin	-11.4899
▁hIodáile	-11.4899
▁thairis	-11.4899
▁Simplí	-11.4899
▁hidirnáisiúnta	-11.4899
▁casinos	-11.4899
▁cloiche	-11.4899
▁tiontaire	-11.4899
rúisis	-11.4899
▁tamall	-11.4899
▁thrácht	-11.49
▁bPoblacht	-11.49
▁Hollywood	-11.49
▁foraoise	-11.49
▁folúntas	-11.49
▁Árachais	-11.49
▁teastas	-11.49
chaint	-11.49
▁seisiúin	-11.49
bet	-11.49
▁cluaise	-11.4901
▁feola	-11.4901
▁thosnú	-11.4902
▁Uile	-11.4904
▁Bog	-11.4904
▁mhaisiúil	-11.4904
▁Sí	-11.4905
▁bhfís	-11.4905
▁gceanglas	-11.4906
▁treochtaí	-11.4907
aoil	-11.4909
▁Costas	-11.4909
▁Breitling	-11.491
cking	-11.4911
LI	-11.4915
▁chinnidh	-11.4916
▁fuaimeanna	-11.4918
agraíonn	-11.492
▁Gardaí	-11.492
▁EC	-11.4922
▁earráidí	-11.4924
board	-11.4925
▁tuarastal	-11.4928
MI	-11.4929
▁rangú	-11.493
▁Pri	-11.493
bus	-11.4933
▁Mi	-11.4935
▁singil	-11.4936
Twitter	-11.4939
▁Magazine	-11.494
fhás	-11.494
▁dream	-11.4943
TL	-11.4943
▁easnamh	-11.4946
▁Comhaltas	-11.4949
▁PP	-11.4957
8%	-11.4959
▁mótar	-11.4965
▁bPlean	-11.4969
VA	-11.497
▁Ja	-11.4971
▁dtréimhse	-11.4971
▁Bank	-11.4973
▁ciall	-11.4974
unk	-11.4974
DB	-11.4975
xi	-11.4977
Foundation	-11.4978
▁lón	-11.498
lín	-11.4983
py	-11.4984
▁aca	-11.4987
250	-11.4988
law	-11.499
uille	-11.499
▁iontacha	-11.4993
▁ordó	-11.4993
▁cine	-11.4995
leath	-11.4998
▁scríbhneoirí	-11.4998
▁corr	-11.4999
sea	-11.5
▁mbaile	-11.5002
hill	-11.5013
abhra	-11.5017
▁63	-11.5019
▁More	-11.5022
als	-11.5022
El	-11.5023
▁dhaonna	-11.5024
war	-11.5024
ori	-11.5031
oideachais	-11.5033
▁neamhrialta	-11.5037
mal	-11.5038
▁Oidhreacht	-11.5038
▁2017,	-11.504
▁88	-11.5041
▁seasmhach	-11.5048
▁caoga	-11.505
▁West	-11.5058
▁Mion	-11.5059
eitéareolaíochta	-11.5061
▁Chainnigh	-11.5061
▁Seachadadh	-11.5061
▁Seapáine	-11.5061
▁Tionóil	-11.5061
▁elegance	-11.5061
▁painéil	-11.5061
▁searmanas	-11.5061
▁Friotaíocht	-11.5061
▁coirníní	-11.5061
▁gcló	-11.5062
▁Society	-11.5062
▁Árachas	-11.5062
▁Chipir	-11.5063
▁1934	-11.5064
▁roghnaíodh	-11.5064
▁ghnóthais	-11.5065
▁scaradh	-11.5065
▁Conclúidí	-11.5065
▁Maisiú	-11.5065
▁guy	-11.5068
imsigh	-11.507
vil	-11.507
▁healaíontóirí	-11.507
▁Domhan	-11.5071
▁neamhréir	-11.5071
▁Fhuinneamh	-11.5072
▁Tíortha	-11.5072
▁rialúcháin	-11.5073
▁chruach	-11.5073
band	-11.5073
▁foirmle	-11.5073
▁atáirgeadh	-11.5074
▁hoifigigh	-11.5074
▁mhodhanna	-11.5075
asha	-11.5078
▁buailte	-11.5081
▁léigh	-11.5084
▁maolú	-11.5086
▁Próiseas	-11.5086
▁Tos	-11.5087
aidí	-11.5088
▁clé	-11.509
▁fhuinneamh	-11.509
fhostaíocht	-11.5092
▁sheirbhíse	-11.5097
▁banda	-11.51
England	-11.5103
hea	-11.5104
▁aicmí	-11.511
cro	-11.5113
Leas	-11.5114
▁modúl	-11.5116
▁chumainn	-11.5119
▁99	-11.512
rit	-11.5123
abha	-11.5124
▁éadach	-11.5125
fhostóirí	-11.5128
dteicneolaíochta	-11.5131
▁seic	-11.5139
Man	-11.514
inger	-11.5143
lúdaíonn	-11.5146
▁nochta	-11.516
▁fírinne	-11.5162
▁ghabha	-11.5165
▁Áirithe	-11.5168
▁chomhshó	-11.5171
▁Thrácht	-11.5174
”)	-11.5175
IE	-11.518
▁Chairt	-11.5183
Im	-11.5189
▁Rómhánach	-11.5191
ck	-11.5193
Gníomhaithe	-11.5193
pp	-11.5194
For	-11.5194
ithigh	-11.5194
▁chon	-11.5195
othú	-11.5197
▁Úsáide	-11.5204
▁TR	-11.5206
▁riarthóir	-11.5207
▁gairdín	-11.5207
▁teicníc	-11.5207
ike	-11.5213
Sp	-11.5215
▁heagraíochta	-11.5216
▁EP	-11.5219
▁trádmharc	-11.5221
▁mhainn	-11.5222
▁Suirbhé	-11.5224
▁Amhráin	-11.5225
▁Comhshaol	-11.5225
▁Fionlainne	-11.5225
▁Spraoi	-11.5225
▁cailciam	-11.5225
▁giotár	-11.5225
▁mainneachtain	-11.5225
▁maireachtála	-11.5225
▁míochaine	-11.5225
▁shaibhir	-11.5225
▁Ainmhithe	-11.5225
▁cheoil	-11.5225
▁dtaithí	-11.5225
▁Dildo	-11.5225
▁Gréige	-11.5225
▁teoiric	-11.5225
▁Réiteach	-11.5225
▁ceapachán	-11.5225
▁sainmhínithe	-11.5225
▁ceapacháin	-11.5225
▁gcnaipe	-11.5225
▁Shráid	-11.5225
▁Síor	-11.5225
▁dílis	-11.5225
▁Creative	-11.5225
▁tuairisceáin	-11.5226
▁bhailiúchán	-11.5227
▁Scéime	-11.5228
▁1983	-11.5228
gent	-11.5229
▁Hong	-11.5229
▁RA	-11.523
▁cosmaideacha	-11.523
▁phionós	-11.5231
CU	-11.5231
▁Íomhánna	-11.5232
EO	-11.5232
Gradam	-11.5233
▁tinneas	-11.5235
▁breitheamh	-11.5235
▁1930	-11.5236
▁Chóir	-11.5237
▁Cláir	-11.524
ery	-11.5242
▁Chéim	-11.5243
SH	-11.5244
iot	-11.5244
▁tusa	-11.5246
▁ollscoile	-11.5248
▁ionfhabhtú	-11.5248
▁Tri	-11.5248
▁Rómáine	-11.5253
▁cor	-11.5254
▁téamaí	-11.5254
▁rollta	-11.5255
OT	-11.5257
▁bhíodh	-11.5257
▁urramú	-11.5258
▁Tráth	-11.5259
▁doimhneacht	-11.5259
▁dír	-11.5261
ition	-11.5264
loc	-11.5264
▁USA	-11.5269
bhealaí	-11.527
phraghas	-11.5271
▁Pe	-11.5271
rath	-11.5272
ao	-11.5273
▁iomlánach	-11.5276
▁annamh	-11.5279
2016	-11.528
▁ráithe	-11.528
▁bplé	-11.5285
▁Ex	-11.5285
▁deo	-11.5286
ánaigh	-11.5286
ráid	-11.5287
You	-11.5287
▁ghlacfa	-11.5291
▁pháirtithe	-11.5292
oscail	-11.5293
▁eintiteas	-11.5293
▁Land	-11.5293
▁Caol	-11.5293
zy	-11.5294
6%	-11.5299
▁achainí	-11.5301
Cé	-11.5301
▁tuath	-11.5303
▁uasmhéid	-11.5303
▁180	-11.5304
▁meitibileach	-11.5305
▁próiseáilte	-11.5306
tsu	-11.5308
▁gcuir	-11.5308
▁mhionn	-11.5314
TT	-11.5316
▁náisiún	-11.5317
Di	-11.5319
▁Creidmheasa	-11.5328
teoir	-11.5346
acmhainn	-11.5352
▁maighnéadach	-11.5355
bhunscoile	-11.536
hai	-11.5362
oli	-11.5362
tle	-11.5371
chéim	-11.5374
▁fhíor	-11.5375
aki	-11.5378
▁luchtaithe	-11.538
▁Fáilt	-11.5383
húnamh	-11.5388
ruth	-11.5389
game	-11.5389
▁theorainn	-11.5391
▁Lascaine	-11.5391
▁gcúram	-11.5391
▁lóistín	-11.5391
▁mhúnlú	-11.5391
▁Íoslainn	-11.5391
▁traenála	-11.5391
▁Leideanna	-11.5391
Gailearaí	-11.5391
▁Fóram	-11.5391
▁thráth	-11.5391
▁cheilt	-11.5391
▁Míleata	-11.5391
▁Iarchéime	-11.5391
▁fóram	-11.5391
▁pornorolik	-11.5391
▁meastachán	-11.5392
location	-11.5392
▁dhéanaimid	-11.5392
▁féilte	-11.5392
▁chíche	-11.5393
▁Mhóir	-11.5394
▁glacfar	-11.5394
áititheoir	-11.5395
▁1973	-11.5395
▁sceidealta	-11.5395
▁1987	-11.5396
▁dealraitheach	-11.5396
▁Peso	-11.5396
▁sholáthraítear	-11.5396
▁Comhphobal	-11.5396
▁Ceadúnais	-11.5398
▁truailliú	-11.54
▁Suiteáil	-11.54
▁Slándáil	-11.5401
▁Weather	-11.5401
▁síolta	-11.5401
Car	-11.5401
áthas	-11.5401
▁Glos	-11.5403
▁Fuinneamh	-11.5405
▁theoranta	-11.5405
gas	-11.5408
Ranníocach	-11.5413
Paul	-11.5413
▁shamhlú	-11.5415
▁arbh	-11.5416
OU	-11.5418
▁coil	-11.5418
▁Labhair	-11.5419
▁fhuaim	-11.5421
graph	-11.5424
▁sealbhú	-11.5425
▁Léim	-11.5425
rey	-11.5427
▁óstáil	-11.5431
▁inmhianaithe	-11.5432
▁lionsa	-11.5436
▁fhostú	-11.5438
▁Feidhmeannacht	-11.5438
House	-11.5439
chúiseanna	-11.544
▁€7	-11.5441
LP	-11.5441
RG	-11.5442
▁forlíonadh	-11.5444
▁gcomhlíon	-11.5444
▁ráthaíochta	-11.5446
NR	-11.5448
▁chásanna	-11.5449
wo	-11.5452
cheart	-11.5454
▁sholáthraí	-11.5454
2.5	-11.5459
had	-11.5462
▁Roll	-11.5462
▁tionsclaíocha	-11.5463
teacht	-11.5466
▁fhormheas	-11.5472
cheann	-11.5478
▁críochnaitheach	-11.5482
▁gníomhaireacht	-11.5482
ces	-11.5483
▁Tús	-11.5487
mit	-11.5489
RP	-11.5491
▁Min	-11.5491
▁BCE	-11.5491
▁ráite	-11.5497
▁1950	-11.5503
ami	-11.5503
ichi	-11.5508
▁bra	-11.5513
east	-11.5518
▁bhuan	-11.552
▁gabha	-11.5522
▁Light	-11.5522
UI	-11.5528
▁díobhálach	-11.5531
6/	-11.5531
thach	-11.5539
alach	-11.5539
▁lenar	-11.5543
éamh	-11.555
tt	-11.5552
ett	-11.5556
▁éifeachtúla	-11.5557
eep	-11.5558
▁Fabraic	-11.5561
▁Soilse	-11.5561
▁Stáisiún	-11.5561
▁leathanbhanda	-11.5561
▁priontála	-11.5561
▁rompu	-11.5561
▁sleamhnáin	-11.5561
eintitis	-11.5561
▁Chaomhnú	-11.5561
▁Skills	-11.5561
▁bairille	-11.5561
▁breataine	-11.5561
▁cliniciúil	-11.5561
▁déiríochta	-11.5561
▁optúil	-11.5561
▁turraing	-11.5561
▁phraiticiúil	-11.5561
inchoigeartaithe	-11.5561
▁gcluichí	-11.5561
▁eilimint	-11.5561
▁sparkl	-11.5561
▁iomaí	-11.5562
▁phunt	-11.5562
▁Comhoibriú	-11.5562
▁caipiteal	-11.5562
▁mbéal	-11.5562
▁Fhoras	-11.5563
▁Deiseanna	-11.5563
▁díolachán	-11.5563
HC	-11.5563
▁Nike	-11.5563
▁theorainneacha	-11.5564
▁Mesa	-11.5564
DP	-11.5565
▁scamall	-11.5565
▁Pan	-11.5565
▁1937	-11.5566
▁Cláraithe	-11.5566
▁1947	-11.5566
▁chríochnaigh	-11.5566
▁bailte	-11.5566
▁4-6	-11.5566
▁candy	-11.5566
▁bhforas	-11.5567
bby	-11.5567
▁tuirse	-11.5568
▁bheartaítear	-11.5568
▁daonlathas	-11.5568
▁Gearradh	-11.5569
▁Cúntóirí	-11.5571
▁Bheatha	-11.5572
mic	-11.5574
▁stocaí	-11.5575
own	-11.5577
▁gcearta	-11.558
▁cadás	-11.558
eri	-11.5582
▁scairchaipiteal	-11.5585
▁cheachta	-11.5585
▁Aireacht	-11.5586
▁leathadh	-11.5586
▁Bhearta	-11.5587
▁iarmhairtí	-11.5591
▁eagrán	-11.5592
▁Food	-11.5595
▁tapaidh	-11.5597
▁aisteach	-11.5597
sho	-11.5599
pháirtí	-11.56
france	-11.5601
▁minice	-11.5602
achar	-11.5603
▁leachtach	-11.5607
atek	-11.5609
▁chomhaid	-11.5609
aigéad	-11.5612
▁chumhachta	-11.5613
▁dtithe	-11.5613
▁béile	-11.5616
▁Action	-11.5616
▁chomhad	-11.5618
▁corda	-11.5621
ique	-11.5622
onchúiseamh	-11.5622
▁gcó	-11.5623
▁Plé	-11.5624
▁dochtúirí	-11.5627
▁mheastóireacht	-11.5627
rest	-11.5629
wh	-11.5634
▁London	-11.5638
▁Pat	-11.564
chóras	-11.5645
▁mbainfea	-11.5649
Ke	-11.5649
▁aisti	-11.565
like	-11.5652
íd	-11.5654
oghachán	-11.5655
▁dátheangach	-11.5659
Éire	-11.5661
▁shuí	-11.5668
eamar	-11.5671
▁ban	-11.5673
▁Mair	-11.5674
▁bhainea	-11.5674
▁Law	-11.5677
pot	-11.568
▁Ti	-11.5682
▁muir	-11.5694
itheora	-11.5694
hl	-11.5698
▁geografach	-11.5699
tz	-11.5699
ONS	-11.57
aoin	-11.57
▁cócaireacht	-11.57
▁IR	-11.57
bur	-11.5703
Jo	-11.5706
700	-11.5707
▁macánta	-11.5712
evan	-11.5714
▁Bunscoil	-11.5716
inter	-11.5716
▁Laghd	-11.5721
▁Tuig	-11.5724
Baill	-11.5727
croílár	-11.5727
▁docht	-11.5729
▁dún	-11.573
▁km	-11.5731
▁ceirde	-11.5732
▁Chonartha	-11.5732
▁Duais	-11.5733
▁Bliantúil	-11.5733
▁YouTube	-11.5733
▁comórtais	-11.5733
▁gameplay	-11.5733
▁mbuiséad	-11.5733
▁saothrú	-11.5733
▁dtarlóidh	-11.5733
▁truaillithe	-11.5733
▁Finance	-11.5733
▁tharmligean	-11.5733
▁ateangaireacht	-11.5733
▁abhainn	-11.5733
▁eisceachtúla	-11.5733
▁Ghairmiúil	-11.5734
▁bhrabúis	-11.5734
▁Altranais	-11.5734
▁aisghairm	-11.5734
▁earcú	-11.5735
▁caitheadh	-11.5735
▁Fásta	-11.5736
▁rabhadh	-11.5736
▁2008.	-11.5737
▁úsáideacha	-11.5738
▁phósta	-11.5738
▁1955	-11.5738
shop	-11.5738
▁sruthán	-11.5738
▁Saothair	-11.5738
▁horduithe	-11.5739
▁traein	-11.574
▁bpáirtithe	-11.574
▁Málta	-11.574
fheithiclí	-11.574
▁páirtaimseartha	-11.5741
▁múnlaithe	-11.5741
▁troigh	-11.5742
Ha	-11.5742
▁Loingseoireacht	-11.5743
▁dtalamh	-11.5744
▁Plandaí	-11.5745
▁fiachais	-11.5748
Innealtóireachta	-11.575
▁ticéid	-11.575
▁Scoir	-11.575
itt	-11.5751
▁scáthán	-11.5751
ough	-11.5752
▁hoibrithe	-11.5752
▁ho	-11.5757
var	-11.5758
qua	-11.5763
▁ghnóthas	-11.5765
▁Cláraitheoir	-11.5767
ska	-11.577
▁Spáinne	-11.577
Ionad	-11.577
▁pras	-11.5773
▁Mad	-11.5775
▁chuspóirí	-11.5775
▁chíos	-11.5777
900	-11.5778
▁airteagal	-11.5781
ift	-11.5783
iompróir	-11.5786
▁Not	-11.5786
fhaisnéis	-11.5787
▁lámhaigh	-11.5788
▁Aonach	-11.5788
▁gcontae	-11.5789
porno	-11.5791
▁Breathn	-11.5793
▁Íocfa	-11.5797
▁Ad	-11.5797
▁comhréir	-11.5798
lis	-11.5798
▁comhlachta	-11.5799
CG	-11.58
▁anailíse	-11.5801
reath	-11.5808
ace	-11.581
▁Ion	-11.5811
lanna	-11.5813
▁Plus	-11.5814
lais	-11.582
oileán	-11.582
illí	-11.5824
Sha	-11.5826
▁Ú	-11.583
fort	-11.583
▁Buí	-11.583
Li	-11.5831
COM	-11.5832
▁chumarsáid	-11.5833
TI	-11.5838
▁du	-11.5838
▁mharcáil	-11.584
rock	-11.5841
▁gcomhlíonfa	-11.5844
▁leithscéal	-11.5847
▁thuairimí	-11.5852
▁tinn	-11.5854
Má	-11.5855
▁slat	-11.5856
▁rannchuid	-11.5858
ista	-11.5861
▁chuimhne	-11.5862
▁chompord	-11.5862
▁2010.	-11.5865
▁thur	-11.5866
▁shainiú	-11.5866
▁cheapfa	-11.587
mac	-11.5871
▁Rolla	-11.5871
▁dlisteanach	-11.5874
▁Monatóireacht	-11.5875
▁MS	-11.5877
▁orgasm	-11.5877
▁neamhbhailí	-11.5884
▁Great	-11.5886
▁col	-11.5887
▁gCoimisinéir	-11.5891
▁iomláin	-11.5892
scéim	-11.5893
RF	-11.5893
adán	-11.5901
othaithe	-11.5902
▁bláth	-11.5905
▁stiall	-11.5907
adóirí	-11.5907
PH	-11.5908
Toirmeasc	-11.5909
▁Crystal	-11.5909
▁chliaint	-11.5909
▁léirmhíniú	-11.5909
▁pacáistithe	-11.5909
Marquette	-11.5909
▁Uilíoch	-11.5909
▁sweetie	-11.5909
▁altranais	-11.5909
▁comhdháil	-11.5909
▁sráidbhaile	-11.5909
▁tamaill	-11.5909
▁chúinsí	-11.5909
▁Hood	-11.5909
▁Caife	-11.5909
▁shainmhínítear	-11.5909
▁heels	-11.5909
▁Móire	-11.5909
▁sicín	-11.5909
▁comhardaithe	-11.5909
▁comhlachas	-11.5909
▁dícháilithe	-11.5909
▁mBéal	-11.5909
▁lámhleabhar	-11.5909
▁cupán	-11.5909
▁íoslaghdú	-11.591
▁marcóirí	-11.591
▁sannadh	-11.591
▁labhraíonn	-11.5911
▁Aragon	-11.5911
▁cíche	-11.5911
▁Cultúrtha	-11.5911
▁Leictreachais	-11.5912
▁1953	-11.5913
▁tOmbudsman	-11.5913
▁Sonraíocht	-11.5914
▁line	-11.5915
▁fhéidearthacht	-11.5916
▁Lámhleabhar	-11.5916
▁Laghdú	-11.5917
▁chaibidil	-11.5918
▁fiontraíochta	-11.5919
▁Chúirteanna	-11.5921
-15	-11.5922
▁Industry	-11.5923
▁ghéarchéim	-11.5923
▁Ranná	-11.5923
▁fhág	-11.5927
▁str	-11.5932
rich	-11.5933
▁Corn	-11.5936
▁neamhní	-11.5938
▁Box	-11.5941
▁cócaireachta	-11.5943
▁diapers	-11.5944
tions	-11.5946
▁dodhéanta	-11.5947
▁oiriúnaithe	-11.5949
usa	-11.5952
stuithe	-11.5952
osaíonn	-11.5953
hat	-11.5954
▁SN	-11.5955
▁brúigh	-11.5958
▁Fola	-11.596
▁iarratasóirí	-11.5963
▁Mont	-11.5966
▁fhoirmiú	-11.5966
íseal	-11.5968
osta	-11.597
▁Léirigh	-11.597
lus	-11.5974
▁eagarthóireacht	-11.5974
▁ve	-11.5977
Tour	-11.5977
▁chaighdeáin	-11.5977
▁fhoilsithe	-11.5978
▁Cal	-11.5979
NU	-11.5981
vent	-11.5986
tigh	-11.5986
sur	-11.5989
oibríochtaí	-11.5991
▁Obs	-11.5993
rianta	-11.5997
▁hEagraíochta	-11.5997
▁solúbthacht	-11.5998
▁Téarma	-11.6
ets	-11.6001
opa	-11.6004
office	-11.6009
cheap	-11.6019
▁teen	-11.6021
▁03	-11.6023
▁(4	-11.6023
▁scrúdaithe	-11.6028
iel	-11.603
▁gcomhrá	-11.6035
▁chosa	-11.6038
aoi	-11.6042
ew	-11.6045
▁déanach	-11.6046
ARD	-11.6046
pé	-11.6051
▁díospóid	-11.6053
isiún	-11.6054
iree	-11.6057
▁gráin	-11.6064
RD	-11.6066
city	-11.6069
chris	-11.6071
aisíoc	-11.6073
▁aeráid	-11.6073
▁rópa	-11.6073
pon	-11.6075
oundation	-11.6075
urra	-11.6078
▁€20	-11.6078
abhair	-11.608
MX	-11.6081
vers	-11.6082
scal	-11.6083
aethanta	-11.6084
▁innealtóireacht	-11.6084
▁Choinbhinsiúin	-11.6087
▁Chúram	-11.6087
▁Dhírigh	-11.6087
▁Gheimhridh	-11.6087
▁Inbhuanaithe	-11.6087
▁Slabhra	-11.6087
▁deireanaí	-11.6087
▁dtionscal	-11.6087
▁díolúintí	-11.6087
▁fíochán	-11.6087
▁gcultúr	-11.6087
▁míosúil	-11.6087
▁phiocadh	-11.6087
▁platanam	-11.6087
▁tsláinte	-11.6087
Abrán	-11.6087
▁ildaite	-11.6087
▁dhualgais	-11.6087
▁dúiche	-11.6087
▁Cleachtais	-11.6087
▁cliaint	-11.6087
▁mbóthar	-11.6087
▁Lasmuigh	-11.6087
▁sconna	-11.6087
▁pianbhreith	-11.6087
▁cógaisíochta	-11.6087
▁páirceála	-11.6088
▁Pobal	-11.6088
▁neamhdhíreach	-11.6088
▁chúitimh	-11.6088
▁déileálfar	-11.6088
▁ingearach	-11.6088
▁shíneadh	-11.6088
▁bhéarfaidh	-11.6088
▁deonú	-11.6088
tho	-11.6088
▁Ghlas	-11.6089
▁céatadán	-11.6089
▁sterling	-11.6089
▁rothair	-11.6091
▁Fuinneog	-11.6091
▁creidimh	-11.6091
▁náisiúin	-11.6091
uid	-11.6092
RU	-11.6092
▁rothaí	-11.6092
▁onóir	-11.6093
▁Cuairt	-11.6094
▁gcaithfear	-11.6095
▁Beartais	-11.6096
▁sásra	-11.6097
▁Srian	-11.6097
▁pháirc	-11.6099
▁mholtaí	-11.61
▁nGrúpa	-11.61
▁fhormáid	-11.6102
▁Cartlann	-11.6102
Johnson	-11.6103
▁daoibh	-11.6105
UT	-11.6105
▁Chinn	-11.6109
▁cáithníní	-11.611
▁hiompar	-11.6111
martin	-11.6114
innealtóireachta	-11.6115
▁uisceadán	-11.6119
erv	-11.6124
imeacht	-11.6126
▁dheon	-11.6137
horásach	-11.6138
alex	-11.6139
adóireachta	-11.614
iah	-11.6144
Caisleán	-11.6147
Police	-11.6147
iri	-11.6148
phoist	-11.6148
chineál	-11.6148
▁fhuinneog	-11.6148
▁marthanacht	-11.6151
lav	-11.6151
police	-11.6152
▁Par	-11.6153
fhreastail	-11.6157
dian	-11.616
bhá	-11.6164
Christopher	-11.6165
Po	-11.6166
lean	-11.6167
▁ghnótha	-11.6172
hair	-11.6172
▁Mhol	-11.6179
gui	-11.6181
hua	-11.6188
▁000	-11.619
▁Brunettes	-11.6193
graf	-11.6194
és	-11.6194
hionann	-11.6197
SV	-11.6198
▁arda	-11.6199
mail	-11.6202
▁85	-11.6209
▁Cruthaitheach	-11.6212
eachtais	-11.6212
éanaimid	-11.6215
uba	-11.622
álach	-11.622
▁chomhroinnt	-11.622
▁Cúig	-11.622
▁96	-11.6226
nóidh	-11.6227
▁Cloch	-11.6234
coin	-11.6234
▁siamsaíocht	-11.6236
▁Ardaithe	-11.6237
▁himeacht	-11.6239
iya	-11.6239
▁comhachta	-11.624
rk	-11.625
fhocal	-11.6255
ology	-11.6262
▁Team	-11.6262
DM	-11.6265
120	-11.6265
▁Strasbourg	-11.6269
▁VEID	-11.6269
▁Vítneam	-11.6269
▁lingerie	-11.6269
▁ngéarchéim	-11.6269
▁theicniúla	-11.6269
▁Albain	-11.6269
▁allmhairithe	-11.6269
digital	-11.6269
▁Trádáil	-11.6269
▁ghairdín	-11.6269
▁Shasana	-11.6269
▁Palace	-11.6269
▁shaothar	-11.6269
▁fiosrú	-11.6269
▁gcaiteachas	-11.6269
▁winter	-11.6269
▁bhfadhb	-11.627
2014	-11.627
▁hAirí	-11.627
▁imoibriú	-11.627
▁RE	-11.627
▁chorpraithe	-11.627
▁oibríochtúil	-11.627
123	-11.627
▁bhfás	-11.6271
▁ardvoltais	-11.6271
▁sciar	-11.6271
▁uaithi	-11.6271
▁forbraíodh	-11.6271
nacht	-11.6272
▁Socraigh	-11.6272
▁shócmhainní	-11.6272
imis	-11.6272
▁92	-11.6272
▁Iaráinis	-11.6272
▁crainn	-11.6272
Patriot	-11.6273
▁thuairiscítear	-11.6273
▁bacainní	-11.6273
▁1984	-11.6274
9001	-11.6274
▁1938	-11.6274
▁toilteanach	-11.6274
▁sráideanna	-11.6276
▁nítrigine	-11.6277
Cl	-11.6279
aontú	-11.6279
▁hOifig	-11.6281
▁clóite	-11.6282
▁Déanaimid	-11.6283
▁zombies	-11.6284
▁Comhionannas	-11.6284
▁2030	-11.6285
▁thionscnaimh	-11.6286
phointe	-11.6286
▁hoideachas	-11.6287
▁inniúlacht	-11.6287
intí	-11.6287
▁Buiséad	-11.6288
▁10%	-11.6288
saí	-11.6289
▁iniúchóir	-11.629
▁@0	-11.629
▁inneachar	-11.6293
UC	-11.6297
▁Bóithre	-11.6297
▁Hospital	-11.6302
▁bhóthair	-11.6302
▁snáitheanna	-11.6304
tosaíonn	-11.6307
▁05	-11.6308
▁aerárthaí	-11.6309
▁thig	-11.6309
▁cánacha	-11.6311
▁dhíoltar	-11.6311
▁cuibhe	-11.6316
ense	-11.6317
▁Cruth	-11.6318
ois	-11.6319
right	-11.632
▁Sraithe	-11.6321
run	-11.6321
▁comhréireach	-11.6323
oiliúint	-11.6326
yan	-11.6327
▁Gníomhaíochtaí	-11.6328
▁mhair	-11.633
iarrachtaí	-11.633
▁chomhpháirt	-11.633
áite	-11.6332
focal	-11.6332
▁pan	-11.6332
▁tocsaineach	-11.634
GO	-11.6345
zi	-11.6346
▁Radio	-11.6347
▁inmharthana	-11.6351
iod	-11.6351
chleachtóir	-11.6352
phe	-11.6353
▁Institiúidí	-11.6362
▁Fada	-11.6362
▁sea	-11.6364
▁radaíocht	-11.6364
▁úra	-11.6365
▁Gaelach	-11.6367
▁fhocail	-11.637
fhir	-11.637
heart	-11.6376
sports	-11.6388
▁@3	-11.6391
ika	-11.6391
▁mball	-11.6392
uth	-11.6402
win	-11.6403
▁Park	-11.6404
▁cent	-11.6404
▁Luach	-11.6408
▁hI	-11.641
▁náisiúntacht	-11.6414
▁gu	-11.6419
FL	-11.642
▁margaíocht	-11.6422
▁Pictiúr	-11.6426
úlacht	-11.6429
idís	-11.6436
▁gcatagóir	-11.6437
▁Innealtóireacht	-11.6437
AV	-11.6443
▁fan	-11.6448
▁fán	-11.6448
▁labhair	-11.6449
▁Crann	-11.645
Ca	-11.645
tóireacht	-11.6451
▁Téacs	-11.6451
▁gabhála	-11.6453
arga	-11.6453
▁préimhe	-11.6453
▁Moscó	-11.6454
▁Sionainne	-11.6454
▁Soilsiú	-11.6454
▁Stiúrtha	-11.6454
▁baincéireachta	-11.6454
▁cadhnaíochta	-11.6454
▁daonlathach	-11.6454
▁fiontar	-11.6454
▁intuigthe	-11.6454
▁maighdean	-11.6454
▁mairteola	-11.6454
▁puiblí	-11.6454
▁pósadh	-11.6454
▁síochána	-11.6454
▁tsoláthair	-11.6454
▁Ildánach	-11.6454
▁Spriocdháta	-11.6454
▁Téama	-11.6454
▁Mionsonraí	-11.6454
billboard	-11.6454
▁chliniciúil	-11.6454
▁tSeanaid	-11.6454
▁bhfeighil	-11.6454
▁Swingers	-11.6454
▁fhisiciúil	-11.6455
▁leapa	-11.6455
▁Spás	-11.6455
▁Cuntais	-11.6455
▁Store	-11.6455
▁mheascadh	-11.6456
▁ghreamú	-11.6456
▁thairgeann	-11.6456
▁Ardoideachais	-11.6457
▁bainistí	-11.6457
other	-11.6457
rúise	-11.6457
▁sháraíonn	-11.6457
▁Airgeadas	-11.6458
▁1966	-11.6458
▁sainordú	-11.6458
▁forlíontaí	-11.6461
▁Rothar	-11.6462
▁fágáil	-11.6462
▁sócmhainn	-11.6462
▁meicníocht	-11.6463
▁péirí	-11.6463
▁cuims	-11.6464
▁aschuir	-11.6464
mall	-11.6465
▁thoghadh	-11.6469
▁Entertainment	-11.6469
▁Teaghlach	-11.6471
▁dinimiciúil	-11.6472
▁cúigiú	-11.6472
▁Mag	-11.6474
▁eaglais	-11.6475
▁ocsaigine	-11.6476
▁73	-11.6478
▁aerfort	-11.6482
▁finger	-11.6482
Cnoc	-11.6482
eth	-11.6485
▁comhchoiteanna	-11.6485
▁teiripe	-11.6485
▁Crios	-11.6485
FP	-11.6487
izer	-11.6487
NWS	-11.6487
▁Museum	-11.6488
▁coigeartú	-11.6489
▁Review	-11.65
▁fhoras	-11.6501
▁ndí	-11.6502
▁Cúige	-11.6504
gel	-11.6505
GH	-11.6509
▁snáithíní	-11.6516
▁Beall	-11.6516
▁Fiche	-11.6517
eitheal	-11.6518
▁eispéireas	-11.6518
AO	-11.6519
tuarascáil	-11.6522
Bhí	-11.6522
▁Care	-11.6523
▁pu	-11.6525
▁láithreacht	-11.6526
eath	-11.653
EV	-11.6531
▁Chomhlachta	-11.6532
▁próiseálaí	-11.6533
▁Language	-11.6535
GN	-11.6535
tag	-11.6544
▁1998,	-11.6544
tory	-11.6546
nasc	-11.6549
líonta	-11.6551
▁Dark	-11.6553
▁mianach	-11.6556
▁gl	-11.6556
uin	-11.6556
adam	-11.6558
▁Feirme	-11.656
carr	-11.6563
▁fhreastal	-11.6564
▁IX	-11.6564
▁lann	-11.6564
ánacha	-11.6565
▁AG	-11.657
ux	-11.6574
stat	-11.6576
▁práinneach	-11.6577
▁Iarrta	-11.6578
Aontas	-11.6582
ui	-11.6583
heath	-11.6586
▁all	-11.66
▁gcuideachtaí	-11.6604
▁todóg	-11.6609
▁dtrácht	-11.6612
▁comp	-11.6613
cum	-11.6619
cháilithe	-11.6619
▁pearsantacht	-11.6621
Aois	-11.6624
▁shealbhóir	-11.6627
▁Chaith	-11.6628
Africa	-11.6629
▁lárnacha	-11.663
leabhair	-11.6631
▁ríocht	-11.6632
▁ceannaitheoir	-11.6632
lick	-11.6636
▁tuarascála	-11.6642
▁Athbhreithnithe	-11.6643
▁Bronnadh	-11.6643
▁Chultúir	-11.6643
▁Hervé	-11.6643
▁chloisteáil	-11.6643
▁exquisite	-11.6643
▁gcomórtas	-11.6643
▁giúmar	-11.6643
▁sreinge	-11.6643
▁tSiria	-11.6643
▁tearmainn	-11.6643
▁sceite	-11.6643
▁amárach	-11.6643
▁grianchloch	-11.6643
▁bPáras	-11.6643
▁handjob	-11.6643
▁duilleoga	-11.6643
▁Cobhsaíochta	-11.6643
▁Talamh	-11.6643
▁spioradálta	-11.6643
▁Sucking	-11.6643
▁Imleabhar	-11.6643
▁ciúin	-11.6643
▁scagtha	-11.6643
fhiontair	-11.6643
▁lamháil	-11.6644
▁gCóras	-11.6644
▁fhorordú	-11.6645
▁cho	-11.6645
▁fáltais	-11.6645
▁bloic	-11.6645
▁éadaigh	-11.6645
▁Comhairliúcháin	-11.6645
▁theip	-11.6645
▁claonadh	-11.6645
▁Feicfi	-11.6645
▁Road	-11.6646
▁Chás	-11.6647
▁80%	-11.6647
▁luafar	-11.6648
▁1941	-11.6648
óireachta	-11.6648
▁gaireas	-11.6649
▁lómhara	-11.6649
INT	-11.6651
▁cainteanna	-11.6652
▁Double	-11.6653
▁Grúpaí	-11.6655
berg	-11.6656
4:	-11.6657
▁síntiús	-11.6658
▁feirmeoireachta	-11.666
▁earraigh	-11.6663
▁earnála	-11.6666
íoctar	-11.6667
▁Bhraithea	-11.6667
▁Léarscáil	-11.6669
▁aontachais	-11.6669
eascair	-11.6671
they	-11.6671
▁FDA	-11.6671
▁shíl	-11.6671
▁fíorais	-11.6673
▁monatóireachta	-11.6676
▁nE	-11.6676
▁duaiseanna	-11.6681
thrá	-11.6681
uga	-11.6684
THE	-11.6687
▁iris	-11.6687
UR	-11.6688
ava	-11.6689
RM	-11.669
▁neodrach	-11.669
▁gcáin	-11.6691
▁Bl	-11.6691
▁speisialtóir	-11.6693
▁Well	-11.6695
ncy	-11.6696
ádh	-11.6697
tis	-11.6699
0000	-11.6701
zer	-11.6701
trans	-11.6702
▁kid	-11.6703
▁Sport	-11.6704
▁Tíre	-11.6706
HI	-11.671
▁Mil	-11.671
Royal	-11.6712
scileanna	-11.6714
iceáil	-11.6716
lár	-11.6717
BM	-11.6721
▁TUAIRIM	-11.6724
Comm	-11.6724
MM	-11.6725
▁bo	-11.6726
rod	-11.6726
▁thionól	-11.6727
▁húdarás	-11.6731
▁straitéise	-11.6733
▁cláraitheoir	-11.6733
▁Tech	-11.6734
pit	-11.6735
scríbhneoireacht	-11.6736
eolaithe	-11.6736
lóidh	-11.6737
fhaibhr	-11.6738
▁neamhniú	-11.6738
lock	-11.6738
igí	-11.6739
▁bi	-11.6746
ock	-11.675
▁Scrúdú	-11.6751
▁2009,	-11.6753
▁masc	-11.6767
ireacht	-11.6769
MD	-11.6774
▁SCE	-11.6776
Gach	-11.6783
▁cothú	-11.679
imint	-11.6791
▁druga	-11.6791
▁chomhall	-11.6793
lithe	-11.6795
▁mín	-11.6797
▁Teachtaireacht	-11.68
▁bu	-11.6801
éinne	-11.6802
▁shubstaint	-11.6807
usel	-11.6811
ranníocach	-11.6813
▁dhearbha	-11.6813
rais	-11.6816
▁fairsing	-11.6818
▁Lú	-11.6818
laíochta	-11.6821
▁shlánú	-11.6822
díolacháin	-11.6823
PO	-11.6824
rl	-11.6824
ife	-11.6825
BH	-11.6827
bhunscoileanna	-11.6827
▁gcreat	-11.6828
IV	-11.6829
▁Je	-11.6832
▁buíoch	-11.6833
▁hais	-11.6833
▁Nádúr	-11.6834
▁Corporation	-11.6835
▁Deireanach	-11.6835
▁Dhomhanda	-11.6835
▁ENISA	-11.6835
▁Laitvia	-11.6835
▁Phearsanta	-11.6835
▁Piguet	-11.6835
▁bainistithe	-11.6835
▁chumhdach	-11.6835
▁ciorcal	-11.6835
▁custam	-11.6835
▁folúntais	-11.6835
▁gCeanada	-11.6835
▁póilíní	-11.6835
▁Cóireála	-11.6835
▁Neamhspleách	-11.6835
Forlíonadh	-11.6835
▁bhronntanas	-11.6835
▁Thiobra	-11.6835
▁waist	-11.6835
▁fócas	-11.6835
▁charger	-11.6835
▁Reatha	-11.6835
▁Joint	-11.6836
▁Clibeanna	-11.6836
▁bhagairt	-11.6836
▁gcodanna	-11.6836
▁dearbhaithe	-11.6836
▁Mullaigh	-11.6836
ying	-11.6836
▁Achoimre	-11.6837
▁ráthaithe	-11.6837
▁Dobhair	-11.6837
▁Eachtraíochta	-11.6837
▁Muirear	-11.6837
▁ardluais	-11.6838
▁gcroílár	-11.6838
▁shannta	-11.6838
▁Lámhach	-11.6839
▁hairíonna	-11.6839
▁tairisceana	-11.6839
▁1982	-11.6839
▁1962	-11.6839
▁Coistí	-11.6839
▁1957	-11.6839
▁gaolta	-11.684
▁Deiridh	-11.684
▁CNCM	-11.6841
▁1931	-11.6842
▁meon	-11.6843
▁tiománaithe	-11.6843
▁Céimeanna	-11.6844
▁saighdiúirí	-11.6845
▁gcomhlachtaí	-11.6845
▁Shanghai	-11.6846
▁caorach	-11.6848
▁bainfidh	-11.6848
▁iompórtáil	-11.6848
▁hoibriú	-11.6849
saorghluaiseacht	-11.685
▁tuile	-11.685
current	-11.685
▁scriosta	-11.6851
▁Leger	-11.6851
▁táibléad	-11.6851
huine	-11.6855
▁muiníneach	-11.6856
▁Santa	-11.6856
▁gunnaí	-11.6856
▁tIonad	-11.6857
▁fucking	-11.6857
▁Maol	-11.6857
▁Laser	-11.6858
▁Street	-11.6858
foirt	-11.6858
4%	-11.6859
▁cathair	-11.686
AND	-11.6861
ston	-11.6876
AK	-11.6877
▁uirbeacha	-11.6878
▁Punt	-11.6879
▁ceangailteach	-11.688
▁Aistriú	-11.6883
▁calaois	-11.6885
▁sonraítear	-11.6887
doiciméad	-11.689
▁Paris	-11.689
▁Ioma	-11.6895
▁Leith	-11.6897
ters	-11.6901
shocruithe	-11.6905
▁Léiriú	-11.6905
óidí	-11.6905
▁Ceist	-11.6906
Daonáirimh	-11.6908
bay	-11.6909
Business	-11.6909
bheag	-11.6909
▁donn	-11.691
ionstraimí	-11.6912
European	-11.6913
▁dhath	-11.6913
pas	-11.6914
iarmhéid	-11.6915
wal	-11.6921
▁bpearsa	-11.6921
▁Pre	-11.6924
▁Bear	-11.6928
Iúil	-11.6931
▁cúr	-11.6931
éigean	-11.6935
aici	-11.6935
lite	-11.6935
chúis	-11.6945
Tu	-11.6948
▁Open	-11.6948
▁gciste	-11.6949
▁theas	-11.6952
▁chiona	-11.6952
oca	-11.6953
▁ndiúlt	-11.6954
▁Schools	-11.6956
▁abairtí	-11.696
▁dearfacha	-11.6962
▁dílse	-11.6965
Press	-11.6967
▁maithe	-11.6967
▁bréag	-11.697
oke	-11.697
ctor	-11.6972
easún	-11.6973
Comhpháirtíochta	-11.6974
▁sainiúla	-11.6974
ped	-11.6974
ots	-11.6975
reideann	-11.6976
miss	-11.6976
Mag	-11.6978
urg	-11.6978
íomar	-11.6979
▁sealadacha	-11.6981
céad	-11.6983
▁eisiata	-11.6984
NBA	-11.6984
Com	-11.6986
▁iomarca	-11.6987
▁thu	-11.6987
▁Spa	-11.6987
▁Per	-11.6989
▁Muir	-11.6989
9/	-11.699
rap	-11.6992
again	-11.6994
race	-11.6996
VE	-11.6999
INE	-11.7001
▁tuig	-11.7001
good	-11.7003
▁Sun	-11.7004
▁contúirteach	-11.7007
▁sona	-11.7012
úl	-11.7013
▁dearthóir	-11.7014
▁Fuar	-11.7017
mhara	-11.7018
▁Togh	-11.702
▁OS	-11.7021
▁oiriúnacha	-11.7025
icéid	-11.7025
ucht	-11.7027
▁theastó	-11.7028
▁Todhchaí	-11.7031
▁scil	-11.7031
▁Shábháil	-11.7031
Variety	-11.7031
fhoillsiú	-11.7031
▁Dramhaíola	-11.7031
▁Iarnróid	-11.7031
▁Miontuairiscí	-11.7031
▁Reifrinn	-11.7031
▁Tiffany	-11.7031
▁VITIM	-11.7031
▁chodladh	-11.7031
▁gnímh	-11.7031
▁hÚcráine	-11.7031
▁súgradh	-11.7031
▁míchuí	-11.7031
▁plúr	-11.7031
▁diamonds	-11.7031
▁Rugadh	-11.7031
▁Ceoil	-11.7031
▁gradam	-11.7031
▁Téip	-11.7031
▁coláiste	-11.7032
▁Iarraidh	-11.7032
▁dhíchur	-11.7032
▁sásúil	-11.7032
▁tuillte	-11.7032
▁torainn	-11.7032
▁míshásta	-11.7032
business	-11.7032
▁caidéal	-11.7033
▁toirmiscthe	-11.7033
▁rubar	-11.7033
▁héifeachtúil	-11.7034
▁chionroinnt	-11.7034
▁stiallacha	-11.7034
▁Croí	-11.7035
▁sainiúil	-11.7035
▁héilimh	-11.7035
ACT	-11.7035
▁coimeádáin	-11.7036
▁forex	-11.7036
▁stóras	-11.7036
▁Déanfaimid	-11.7036
▁thuar	-11.7036
▁cumainn	-11.7037
▁hionaid	-11.7037
▁Rua	-11.7037
▁1965	-11.7038
▁mheánmhéide	-11.704
▁We	-11.7041
▁mil	-11.7042
▁SC	-11.7042
eoltóirí	-11.7043
▁Staff	-11.7045
▁gléasadh	-11.7045
▁uathoibrithe	-11.7045
▁sainithe	-11.7045
▁Buatais	-11.7046
▁lagú	-11.7049
▁Mheitheamh	-11.705
▁Prótacal	-11.705
▁sásraí	-11.7051
▁Áis	-11.7053
▁4)	-11.7054
▁ngrúpaí	-11.7055
(5)	-11.7056
▁Barcelona	-11.7057
▁Táillí	-11.7058
▁Teens	-11.7058
FM	-11.7058
scar	-11.7059
▁Fás	-11.7059
▁struchtúracha	-11.7065
ainmhí	-11.7066
▁Cricket	-11.7067
▁dearaí	-11.7071
▁cothaithe	-11.7074
▁Tom	-11.7076
▁mháistir	-11.7078
▁(3	-11.7079
▁innéacs	-11.7081
CB	-11.7081
▁Fiontraíochta	-11.7082
▁Spins	-11.7086
▁Shocha	-11.7086
▁Central	-11.7086
Aireachta	-11.7091
▁rada	-11.7094
▁Cuideachtan	-11.7096
▁meastóireachta	-11.7096
▁Trump	-11.7101
▁thoir	-11.7102
Cuir	-11.7103
Ph	-11.7104
▁aontaíonn	-11.7106
thrádála	-11.7109
France	-11.711
▁Conservative	-11.711
NBC	-11.7111
▁aerárthach	-11.7111
isteoirí	-11.7115
cúinsí	-11.7119
boy	-11.7123
▁saoráid	-11.713
▁mona	-11.7132
▁iomaíochas	-11.7132
acaíonn	-11.7133
103	-11.7134
▁was	-11.7137
▁críochn	-11.7137
▁Mála	-11.7138
▁dteach	-11.7138
spo	-11.7142
▁140	-11.7144
▁scaoil	-11.715
EW	-11.7151
Scott	-11.7151
▁Alex	-11.7151
150	-11.7152
▁ghrád	-11.7154
▁cumaisc	-11.7154
Joe	-11.7155
shan	-11.7156
▁Sampla	-11.7158
lain	-11.716
▁eas	-11.7163
Air	-11.7167
▁ocsaíd	-11.7169
mhair	-11.7176
ches	-11.7178
gus	-11.7179
▁lí	-11.718
As	-11.7183
FR	-11.7196
▁car	-11.7205
▁breathn	-11.7207
▁Commission	-11.7208
▁chód	-11.7211
réim	-11.7213
▁smaoin	-11.7222
earra	-11.7222
are	-11.7222
éireacht	-11.7223
cach	-11.7225
▁cháipéis	-11.7225
▁Chultúr	-11.723
ular	-11.7231
▁chomhaontaithe	-11.7231
▁cumhdaithe	-11.7231
▁fíricí	-11.7231
▁inmheánaigh	-11.7231
▁Cúltaca	-11.7231
▁hiarmhairtí	-11.7231
▁toghadh	-11.7231
▁chainníocht	-11.7231
▁Mhíchumas	-11.7231
▁chomhdháil	-11.7231
▁ultra	-11.7231
▁Iniúchóirí	-11.7231
▁tuilte	-11.7231
▁craicinn	-11.7231
▁dhíothú	-11.7232
▁gréasán	-11.7232
▁Lovers	-11.7232
▁Scrúduithe	-11.7232
▁Siria	-11.7232
▁shaoire	-11.7232
▁craoladh	-11.7232
▁tuigfear	-11.7232
▁míthreorach	-11.7233
▁brataithe	-11.7233
tithe	-11.7233
▁leabharlainne	-11.7233
▁fearainn	-11.7233
▁rónta	-11.7234
▁iomaíocha	-11.7234
▁tablet	-11.7234
▁údaruithe	-11.7234
▁dteaghlaigh	-11.7235
▁Foirmeacha	-11.7237
▁Ceapadh	-11.7237
▁Alternative	-11.7237
▁tíolacadh	-11.7237
▁báistí	-11.7237
▁teagmhálacha	-11.7237
▁cait	-11.7238
▁dochreidte	-11.7239
▁lúide	-11.7239
▁Samhail	-11.7242
▁Fórsaí	-11.7242
chomhairliúcháin	-11.7242
▁gamers	-11.7243
▁Aude	-11.7244
▁SI	-11.7244
GB	-11.7246
▁countertops	-11.7247
▁Hand	-11.725
▁fhadú	-11.7256
▁chinnfear	-11.7257
▁rialachas	-11.7259
▁bailithe	-11.7259
▁1919	-11.726
▁Cúirteanna	-11.7261
▁OTI	-11.7262
▁General	-11.7262
▁Science	-11.7265
▁aigéid	-11.7265
▁cinnteoireachta	-11.7265
Art	-11.7265
hon	-11.7267
market	-11.7269
imi	-11.7271
▁amhábhar	-11.7272
▁CV	-11.7277
▁bileoga	-11.7277
▁mhonaróirí	-11.7278
▁LEE	-11.7281
Min	-11.7285
isi	-11.7286
▁slua	-11.7289
dí	-11.7289
▁mhargaí	-11.729
▁Lion	-11.7293
/2013	-11.7293
ghrúpa	-11.7295
▁Dó	-11.7296
▁sraithe	-11.7297
▁Du	-11.7304
▁oideas	-11.7305
▁athchúrsáil	-11.7307
▁Online	-11.7309
ative	-11.7309
ardú	-11.7312
▁1,000	-11.7313
Christian	-11.7314
deacair	-11.7314
▁fadtéarmacha	-11.7314
bheart	-11.7315
▁iascach	-11.7316
thóir	-11.7316
DH	-11.7319
reo	-11.7322
umha	-11.7322
Bharra	-11.7324
und	-11.7324
▁marcáilte	-11.7325
vet	-11.7328
rant	-11.7335
éilíonn	-11.7336
AH	-11.734
TP	-11.7348
▁Max	-11.7351
▁mhonara	-11.7351
mhain	-11.7352
▁cuntasach	-11.7352
SW	-11.7353
▁Cam	-11.7355
▁62	-11.7364
IÚ	-11.7364
▁mhais	-11.7366
▁Deis	-11.737
▁Good	-11.7372
▁brón	-11.7373
▁tástálaí	-11.7378
▁easbhrúite	-11.7382
▁éifeachtacha	-11.7382
▁Glaca	-11.7382
▁tho	-11.7382
▁mhéadar	-11.7387
crea	-11.7398
▁comhchoiteann	-11.7402
▁uaillmhianach	-11.7403
▁ubh	-11.7404
▁inacmhainne	-11.7413
▁chomhartha	-11.7416
▁Tithíocht	-11.7418
▁79	-11.7419
▁fiáin	-11.7421
▁measta	-11.7422
smith	-11.7429
▁Feisti	-11.7431
▁priontáil	-11.7432
ullmhúchán	-11.7432
▁bhainistíocht	-11.7435
rist	-11.7435
▁Mhantáin	-11.7435
▁Mheánmhéide	-11.7435
▁Rochtana	-11.7435
▁Singeapór	-11.7435
▁Smaoinigh	-11.7435
▁Veisteanna	-11.7435
▁bhronntanais	-11.7435
▁gaineamh	-11.7435
▁ghualainn	-11.7435
▁mBallstáit	-11.7435
weather	-11.7435
▁Chronograph	-11.7435
▁Gairdín	-11.7435
▁topaic	-11.7435
▁dtabhairt	-11.7435
▁pacáistí	-11.7435
▁seandálaíochta	-11.7435
▁Manchester	-11.7435
▁Programme	-11.7436
▁bhlianta	-11.7436
▁gCumann	-11.7436
▁fíocháin	-11.7436
▁Bainistiú	-11.7436
▁Spórt	-11.7436
▁scéil	-11.7436
▁chaipiteal	-11.7436
▁pháirtnéir	-11.7437
▁PL	-11.7437
óimhéid	-11.7437
neoir	-11.7437
▁léarscáileanna	-11.7438
daily	-11.7438
▁bheir	-11.7438
▁Turas	-11.7438
▁Tógáil	-11.7439
kat	-11.744
▁Atlantaigh	-11.744
▁Thóg	-11.744
▁chaillfidh	-11.7441
▁Lúthchleas	-11.7442
▁dóchúlacht	-11.7442
▁Apple	-11.7442
▁Teilifíse	-11.7442
▁shínigh	-11.7443
▁libh	-11.7443
▁hoifige	-11.7443
▁Nude	-11.7444
▁Púdar	-11.7444
▁Fhostaíocht	-11.7444
teocht	-11.7445
▁gclo	-11.7445
▁Mal	-11.7445
omo	-11.7446
▁earcaíochta	-11.7447
▁iarradh	-11.7448
eolaíoch	-11.7448
▁gháis	-11.7449
▁éireoidh	-11.7449
arb	-11.7449
▁language	-11.7449
▁Pure	-11.745
▁gile	-11.7451
láin	-11.7451
▁ortha	-11.7451
▁dhámhachtain	-11.7452
▁lipéadú	-11.7452
▁éin	-11.7453
▁Muirí	-11.7455
▁“”	-11.7457
oide	-11.7461
ema	-11.7465
▁lé	-11.7467
▁hAon	-11.7468
▁chosanta	-11.7468
▁fhís	-11.747
GT	-11.747
▁contúirteacha	-11.7471
▁Nótaí	-11.7471
Lu	-11.7472
▁Magic	-11.7472
▁Commons	-11.7472
ush	-11.7473
dor	-11.7476
aibidle	-11.7478
▁Blacks	-11.748
▁diúscartha	-11.7481
ij	-11.7481
▁1922	-11.7481
john	-11.7481
▁Fuaime	-11.7482
▁2017)	-11.7484
órais	-11.7485
▁Ligean	-11.7486
▁IWC	-11.7488
▁fite	-11.7489
▁chleachtas	-11.7489
▁she	-11.749
▁linne	-11.749
▁Taispeána	-11.7491
▁SE	-11.7495
▁díon	-11.7497
eva	-11.7498
2000	-11.7498
▁carn	-11.7503
▁Union	-11.7504
▁neamhghnácha	-11.7504
▁EPA	-11.7505
fhostaí	-11.7506
▁theideal	-11.7511
green	-11.7512
athruithe	-11.7516
isteach	-11.7516
óimid	-11.752
▁Pléi	-11.752
▁Gairm	-11.7521
inbhuanaitheacht	-11.7523
téarma	-11.7524
▁67	-11.7524
-01	-11.7529
huile	-11.7531
▁ciona	-11.7536
OB	-11.7543
nm	-11.7543
▁Ko	-11.7545
EE	-11.7547
bla	-11.7556
Leigh	-11.7556
sher	-11.7558
▁this	-11.756
▁urraithe	-11.7565
▁déantóir	-11.7565
▁Gear	-11.7567
▁dóchas	-11.7573
-0	-11.7575
▁gcos	-11.7575
eyed	-11.7576
ode	-11.7581
▁ceangail	-11.7585
▁Tae	-11.7585
pet	-11.7589
▁nEalaíon	-11.759
▁61	-11.7591
▁Up	-11.7592
▁Cheann	-11.7593
fan	-11.7593
elli	-11.7594
ations	-11.7594
▁Gníomhach	-11.7604
▁rabh	-11.7607
▁Char	-11.7609
▁dhéanfa	-11.7609
▁díbhinn	-11.7609
▁Talmhaíocht	-11.761
lp	-11.7611
▁Chustaim	-11.7612
▁High	-11.7612
úsáidfear	-11.7614
▁idirghníomhach	-11.7615
▁Comharthaí	-11.7616
▁núicléach	-11.7616
taithe	-11.762
uigh	-11.7621
▁gcuspóir	-11.7626
▁mbaintea	-11.7626
▁gcustaiméir	-11.7627
▁príomhchuspóir	-11.7627
▁fochuideachta	-11.7628
▁tithíocht	-11.763
▁bhainistí	-11.7635
▁Maoin	-11.7635
▁miotal	-11.7639
▁Leath	-11.764
▁luachan	-11.764
iall	-11.7643
▁Banphrionsa	-11.7644
▁Bhrasaíl	-11.7644
▁Cheanada	-11.7644
▁dtarlódh	-11.7644
▁neamhúdaraithe	-11.7644
▁nuachtlitir	-11.7644
▁streachailt	-11.7644
▁suaimhneas	-11.7644
▁súgartha	-11.7644
▁chistin	-11.7644
▁Diailigh	-11.7644
▁Rannpháirtíocht	-11.7644
▁iondúil	-11.7644
▁ísliú	-11.7644
▁Linbh	-11.7644
▁Brathadóir	-11.7644
▁bungee	-11.7644
▁Thionscail	-11.7644
▁spriocdhírithe	-11.7644
▁mhúchadh	-11.7644
▁anuraidh	-11.7644
▁Licking	-11.7644
▁deonadh	-11.7644
▁Bunreacht	-11.7644
▁Cheathrú	-11.7644
▁bpacáiste	-11.7644
▁gCód	-11.7644
▁shrianadh	-11.7644
▁Leigheas	-11.7644
▁Cúramóra	-11.7645
▁ciallmhar	-11.7645
▁Bhille	-11.7645
▁saibhreas	-11.7645
▁Aifreann	-11.7646
▁cluas	-11.7646
▁cosán	-11.7646
▁Garman	-11.7646
▁chomhdhéanamh	-11.7646
hine	-11.7646
▁Luath	-11.7646
▁urscaoilte	-11.7647
▁haicmí	-11.7647
▁cúnta	-11.7647
LEASÚ	-11.7647
▁nGaeltacht	-11.7647
▁Sonraíochtaí	-11.7647
Phinsean	-11.7648
Medical	-11.7648
▁gcéin	-11.7648
▁Aonaid	-11.7649
▁1908	-11.7651
▁réaltacht	-11.7651
▁ndán	-11.7652
▁gcomhlíonfaidh	-11.7652
▁prostitutes	-11.7653
adáin	-11.7653
▁Cineálacha	-11.7654
bird	-11.7654
bas	-11.7656
▁sócmhainne	-11.7657
▁leabharlanna	-11.7657
▁pants	-11.7657
▁theipeann	-11.7658
▁eagraíochta	-11.7661
-30	-11.7661
▁Dioplóma	-11.7663
▁comhordaithe	-11.7664
▁Glacfai	-11.7664
amhrán	-11.7666
MIT	-11.7666
▁Cosnaíonn	-11.7667
▁Shláinte	-11.7668
hd	-11.7672
▁Fu	-11.7672
▁coibhéiseach	-11.7673
oto	-11.7676
▁fabraicí	-11.7678
▁Shi	-11.7679
▁dathú	-11.7679
▁cholún	-11.7683
▁iontaobhaí	-11.7684
▁dhi	-11.7685
▁trádálaithe	-11.7685
▁shaor	-11.7685
▁dhoiciméad	-11.7685
aging	-11.7685
▁back	-11.7687
MR	-11.7692
▁chaighdeánach	-11.7693
▁365	-11.7693
pal	-11.7695
ING	-11.7702
▁iontaobhaithe	-11.7702
▁imscrúduithe	-11.7702
▁éilítear	-11.7707
▁LM	-11.7707
▁ngníomhaíocht	-11.7708
▁John	-11.7708
chumhachta	-11.7709
zu	-11.7709
report	-11.771
▁bhainistíochta	-11.7711
oibleagáid	-11.7711
rainn	-11.7712
▁oibreoir	-11.7713
▁chine	-11.7715
Údarás	-11.7716
ower	-11.7717
▁Express	-11.7718
▁Wall	-11.7719
3/	-11.7719
▁misin	-11.7721
ender	-11.7721
▁scálaí	-11.7723
ullmhú	-11.7729
oidhreacht	-11.7729
-18	-11.773
Report	-11.7735
▁ucht	-11.7736
íogair	-11.7737
andre	-11.7738
rios	-11.7738
▁Comhpháirtíocht	-11.7742
▁ME	-11.7743
€	-11.7755
fhada	-11.7758
bert	-11.7762
GF	-11.7763
Rob	-11.7765
▁Cíosa	-11.7766
▁aistríodh	-11.7767
▁Line	-11.777
▁socraíochta	-11.777
rog	-11.7773
▁leithroinnt	-11.7775
nit	-11.7784
aitheamh	-11.779
▁tréith	-11.7791
ithníodh	-11.7793
101	-11.7795
ráma	-11.7795
▁sia	-11.7799
▁Socr	-11.7803
▁Ya	-11.7804
▁guí	-11.7807
▁bhfeice	-11.7807
icne	-11.781
▁dhéanaí	-11.7811
park	-11.7812
anga	-11.7814
hoireann	-11.7816
jan	-11.7825
▁anti	-11.7828
opt	-11.7828
DT	-11.7828
but	-11.783
▁corparáideach	-11.7832
▁bhfui	-11.7834
▁Liotuáin	-11.7835
Can	-11.7835
Ta	-11.7836
▁Uirlis	-11.7839
▁Ealaín	-11.784
▁Óráid	-11.7841
uit	-11.7842
scaoileadh	-11.7843
▁Saint	-11.7846
▁Déantóir	-11.7852
▁eisceacht	-11.7853
▁finné	-11.7853
▁tionól	-11.7854
ration	-11.7854
▁Pussy	-11.7856
▁Special	-11.7856
▁Tionscnaimh	-11.7856
▁athbhunú	-11.7856
▁besplatno	-11.7856
▁búcla	-11.7856
▁calafoirt	-11.7856
▁comhfhiosach	-11.7856
▁dtoghchán	-11.7856
▁forfheidhmithe	-11.7856
▁iontaoibh	-11.7856
▁makeup	-11.7856
▁nuashonraithe	-11.7856
▁reáchtála	-11.7856
▁víris	-11.7856
▁Teimpléad	-11.7856
▁loighic	-11.7856
▁tairní	-11.7856
▁fhionnadh	-11.7856
▁tíleanna	-11.7856
▁bailchríoch	-11.7856
▁phacáil	-11.7857
▁Horny	-11.7857
▁Gréine	-11.7857
▁árachaithe	-11.7857
▁chomhlachais	-11.7857
▁toitíní	-11.7857
▁laighead	-11.7857
▁chaitear	-11.7857
▁Cheoil	-11.7857
▁fhorordófar	-11.7857
▁Dinar	-11.7857
▁iomadúla	-11.7857
▁Cúlra	-11.7857
▁Tríocha	-11.7858
▁chomhtháite	-11.7858
▁about	-11.7858
▁príosúnaigh	-11.7858
▁caingean	-11.7858
▁Pearl	-11.7858
▁bhronnadh	-11.7859
▁Breitheamh	-11.7859
▁phaisinéirí	-11.7859
▁téimh	-11.7859
▁ithir	-11.786
▁ciliméadar	-11.786
▁Amplifier	-11.7861
▁gcreideann	-11.7861
▁GMT	-11.7861
▁gceapadh	-11.7861
▁1954	-11.7862
aonaid	-11.7862
▁Luas	-11.7863
▁Dhigiteach	-11.7864
▁ceathrar	-11.7865
▁leataobh	-11.7865
▁reoite	-11.7865
Ka	-11.7866
▁híocadh	-11.7867
▁comhpháirtí	-11.7867
▁cistine	-11.787
▁buaiteoirí	-11.7871
▁gairmeacha	-11.7873
Big	-11.7875
rings	-11.7876
uilt	-11.7877
▁cairdeas	-11.7878
▁chomhdú	-11.7881
ARA	-11.7881
irteagail	-11.789
▁Sol	-11.7891
▁Carr	-11.7893
▁eisiúna	-11.7894
▁phláta	-11.7895
▁léann	-11.7895
▁bhainisteoir	-11.7897
▁Cap	-11.7897
aitheanta	-11.7897
▁Com	-11.7901
inside	-11.7902
▁meánmhéide	-11.7903
▁charbóin	-11.7903
▁Vegas	-11.7903
▁tuilleamh	-11.7903
▁meaisínithe	-11.7903
▁tra	-11.7905
▁Bur	-11.7905
▁360	-11.7907
▁amú	-11.7907
TU	-11.7907
▁Measúnachta	-11.7911
▁Láir	-11.7912
▁ge	-11.7913
eller	-11.7919
▁port	-11.7919
III	-11.792
▁lom	-11.792
DL	-11.7921
▁RSA	-11.7923
▁roghnói	-11.7928
tacht	-11.7928
▁moille	-11.793
▁Seacht	-11.7931
matic	-11.7932
▁1.5	-11.7938
thréimhse	-11.7939
▁chreidmheasa	-11.7943
lip	-11.7949
ionaid	-11.7951
sheirbhís	-11.7951
▁saorga	-11.7953
▁Leanbh	-11.7955
▁Scríbhneoirí	-11.7956
atharú	-11.7957
Open	-11.7962
▁mbunacha	-11.7965
Mil	-11.7965
rival	-11.7974
▁sonraíocht	-11.7976
▁saolré	-11.7976
heng	-11.7976
▁Uair	-11.7977
ogha	-11.7977
bell	-11.7979
▁2007.	-11.7981
▁CSE	-11.7981
▁mas	-11.7982
▁chumarsáide	-11.7983
GI	-11.7987
team	-11.7989
DU	-11.799
▁SD	-11.799
even	-11.7994
▁gabh	-11.7995
álaí	-11.7997
Alt	-11.7998
▁PU	-11.7998
páipéar	-11.8003
ML	-11.8003
Fo	-11.8008
▁bailíocht	-11.8018
▁tóg	-11.802
saor	-11.802
abhartha	-11.802
esh	-11.8021
iúscartha	-11.8028
▁Win	-11.803
(2),	-11.8033
▁Riar	-11.8033
▁Fur	-11.8034
▁Sta	-11.8034
▁68	-11.8036
VC	-11.804
▁cothrománach	-11.8041
rack	-11.8042
▁Chreat	-11.8044
▁dáilte	-11.8052
uite	-11.8054
▁próitéin	-11.8054
tw	-11.8056
▁chustaiméir	-11.8057
▁cheannas	-11.8057
▁bagairt	-11.8059
▁bhrabús	-11.8062
maoin	-11.8063
▁ste	-11.8065
▁sholáthair	-11.8066
▁dall	-11.8066
uestions	-11.8067
PW	-11.807
mhaireacht	-11.8073
▁stéaróid	-11.8074
rdheisceart	-11.8074
▁Analytics	-11.8074
▁Bhulgáir	-11.8074
▁Buntáistí	-11.8074
▁Luimneach	-11.8074
▁Staitisticí	-11.8074
▁baictéir	-11.8074
▁bpríosún	-11.8074
▁dhúchais	-11.8074
▁gheilleagair	-11.8074
▁hachtacháin	-11.8074
▁thionscal	-11.8074
▁tseomra	-11.8074
▁comhshaol	-11.8074
▁tobhaigh	-11.8074
▁thaispeánann	-11.8074
Jimmy	-11.8074
▁teanntachta	-11.8074
▁incháinithe	-11.8074
▁bonneagair	-11.8074
▁dílseacháin	-11.8074
▁Thionó	-11.8074
▁Mheitheal	-11.8074
▁Roghnú	-11.8074
▁fabhrach	-11.8074
▁dineadh	-11.8074
▁chaingean	-11.8075
ability	-11.8075
▁monarú	-11.8075
▁phósadh	-11.8075
▁gceadaítear	-11.8075
▁comhlánaithe	-11.8076
▁sleachta	-11.8076
▁tslándáil	-11.8076
▁morgáistí	-11.8076
▁fóillíochta	-11.8076
▁churaclam	-11.8077
▁háitiúil	-11.8077
▁uasal	-11.8078
▁Chead	-11.8079
▁gCúirteanna	-11.808
▁faireachais	-11.808
▁Chóras	-11.808
ht	-11.808
rush	-11.8081
uer	-11.8082
RB	-11.8082
sed	-11.8083
adar	-11.8083
PG	-11.8083
hanna	-11.8085
▁ABS	-11.8085
▁toirmisc	-11.8085
blue	-11.8085
▁deartháir	-11.8086
▁07	-11.8087
.5%	-11.8088
▁achmair	-11.8088
▁big	-11.8088
▁dtógáil	-11.8089
▁mhaoirseachta	-11.809
▁bhailíocht	-11.809
▁chliceáil	-11.809
▁thuill	-11.8091
▁Hill	-11.8091
▁Mé	-11.8092
▁píolótach	-11.8092
▁sol	-11.8093
THR	-11.8094
▁Ioncam	-11.8094
Uasal	-11.8095
pod	-11.8095
▁dtaighde	-11.8098
fhocail	-11.8098
▁Guy	-11.8099
Atógáil	-11.8099
NF	-11.81
▁TD	-11.8101
▁Luachála	-11.8105
Shéalainne	-11.8105
fast	-11.8105
▁Campaign	-11.8106
bat	-11.811
▁Scaip	-11.8111
▁Fast	-11.8113
try	-11.8113
▁theicneolaíocht	-11.8117
▁ardleibhéal	-11.812
aidreamh	-11.8123
you	-11.8124
asta	-11.8128
▁Cumhachtaí	-11.8129
▁Community	-11.813
mont	-11.813
▁éadroma	-11.8132
▁shín	-11.8132
▁Comhshó	-11.8133
▁Cross	-11.8137
▁éan	-11.8138
7/	-11.8139
Comhchoiste	-11.814
▁Oirthear	-11.814
ndi	-11.8142
▁Work	-11.8143
▁hairgead	-11.8148
institiúid	-11.8149
stad	-11.8149
chruthach	-11.8152
▁125	-11.8154
corn	-11.8155
sol	-11.8162
▁hiar	-11.8166
▁gúnaí	-11.817
▁shlán	-11.8172
Custaiméirí	-11.8173
▁Tax	-11.8173
▁formheas	-11.8174
▁Meaisíní	-11.8174
▁muc	-11.8174
leagan	-11.8175
qu	-11.8177
film	-11.8182
▁dheimhn	-11.8183
CBL	-11.8184
This	-11.8185
▁scrúd	-11.8185
1,000	-11.8186
▁Trans	-11.8187
easc	-11.8188
▁gcríocha	-11.819
tweetáil	-11.819
▁Aos	-11.8194
month	-11.8195
▁úrnua	-11.8202
▁Blondes	-11.8207
▁Tur	-11.8208
AW	-11.8209
▁fála	-11.8213
▁May	-11.8215
ears	-11.8215
etpolice	-11.8217
104	-11.822
gadh	-11.8223
▁Cille	-11.8225
▁5000	-11.8229
▁Cló	-11.8229
▁fheithiclí	-11.823
▁víreas	-11.8232
isce	-11.8235
Australian	-11.8239
ráite	-11.8242
▁Soghluaiste	-11.8245
▁Chorparáid	-11.8245
▁chruinn	-11.8246
fred	-11.8251
with	-11.8255
▁pill	-11.8257
▁líofa	-11.826
▁89	-11.8261
▁shealadach	-11.8262
▁Time	-11.8262
▁2016/	-11.8264
▁baránta	-11.8265
▁forál	-11.8267
▁Forléir	-11.827
príobháideachais	-11.8272
▁armchúirt	-11.8277
luais	-11.8283
▁dóich	-11.8286
▁FM	-11.8287
heil	-11.8287
▁BA	-11.8289
eco	-11.8289
▁maraíodh	-11.8291
▁Ceangail	-11.8292
▁paisean	-11.8294
▁Berk	-11.8295
james	-11.8295
eispéiris	-11.8296
project	-11.8296
tuaisceart	-11.8296
▁Asarbaiseáin	-11.8296
▁Búcairist	-11.8296
▁Ceanainn	-11.8296
▁Comhtháite	-11.8296
▁Doiciméad	-11.8296
▁Fhilipíneacha	-11.8296
▁McHugh	-11.8296
▁Miotail	-11.8296
▁Máistreás	-11.8296
▁NetEnt	-11.8296
▁Ordanáis	-11.8296
▁Samsung	-11.8296
▁Sceidil	-11.8296
▁bPinsean	-11.8296
▁botúin	-11.8296
▁dtorthaí	-11.8296
▁fionnuar	-11.8296
▁gCorcaigh	-11.8296
▁geilleagrach	-11.8296
▁insteallta	-11.8296
▁samhraidh	-11.8296
▁shlándáil	-11.8296
▁teicstíle	-11.8296
▁tomhaltóra	-11.8296
▁Administrat	-11.8296
▁Háise	-11.8296
▁Bhuaigh	-11.8296
▁triomaithe	-11.8296
▁Láithreáin	-11.8296
▁Troid	-11.8296
▁Latex	-11.8296
▁cónascaire	-11.8296
▁Sexy	-11.8296
▁meabhrach	-11.8296
▁Fheidhmeannacht	-11.8297
▁uachtair	-11.8297
▁ceimiceáin	-11.8297
▁eisceachtúil	-11.8297
▁Chóiré	-11.8297
Aighne	-11.8297
▁chumhdaítear	-11.8298
▁ODM	-11.8298
wing	-11.8298
▁gaile	-11.8298
▁scaipthe	-11.8298
▁capall	-11.8299
▁forlíontach	-11.8299
▁GO	-11.83
▁gcumann	-11.83
▁deannaigh	-11.8301
▁lóin	-11.8301
▁fóntais	-11.8301
▁liath	-11.8301
▁chistí	-11.8302
▁dtionscadal	-11.8302
▁tuirseach	-11.8302
▁shaoirse	-11.8302
▁foghlaimeoirí	-11.8303
▁1929	-11.8304
▁bhainne	-11.8306
▁hiad	-11.8306
▁Mheicsiceo	-11.8306
▁leá	-11.8307
")	-11.8307
▁príobháideachta	-11.8308
lfar	-11.8308
▁gléasta	-11.8308
▁deimhniúcháin	-11.8308
▁Cartier	-11.8309
eilg	-11.831
▁thograí	-11.8311
aithin	-11.8312
2010	-11.8313
▁salann	-11.8313
▁bagairtí	-11.8314
▁comhairleoirí	-11.8315
éire	-11.8319
▁Wood	-11.832
▁pháipéir	-11.832
lion	-11.832
▁1918	-11.8321
▁Rachai	-11.8321
▁inniúlachta	-11.8321
▁hathrú	-11.8322
▁phraghsanna	-11.8322
▁2003.	-11.8324
▁98	-11.8325
ghabhálach	-11.8329
▁Cluas	-11.833
ark	-11.8331
oibreoirí	-11.8336
(1)(	-11.8338
▁LA	-11.8339
▁1985	-11.834
▁Porno	-11.8341
▁Rómhánacha	-11.8342
▁fuinneoga	-11.8344
▁93	-11.8344
▁Photo	-11.8344
▁Part	-11.8345
▁aithris	-11.8345
GM	-11.8346
▁Coil	-11.8346
▁aicmiú	-11.8348
isí	-11.8349
dem	-11.8349
DD	-11.835
▁ealaíontóir	-11.8351
▁Brabhsá	-11.8352
▁(€	-11.8354
chuideachta	-11.8355
nse	-11.8356
fhoghlaimeoirí	-11.8357
eán	-11.8358
Sun	-11.8361
een	-11.8367
▁Sochair	-11.8374
FD	-11.8374
neart	-11.8375
taigh	-11.8385
▁04	-11.8385
rug	-11.8388
▁Gnáth	-11.8388
▁Roth	-11.8388
▁USD	-11.8394
álfar	-11.8395
▁infheisteoirí	-11.8396
OK	-11.8396
gy	-11.8398
▁bhfuilimid	-11.8399
orduithe	-11.8402
ullmha	-11.8404
SCO	-11.8406
▁aimsío	-11.8406
Mi	-11.8407
▁PY	-11.8408
neas	-11.841
9%	-11.8415
Steve	-11.842
▁Games	-11.8423
▁díolta	-11.8424
▁Pol	-11.8428
▁TC	-11.8428
may	-11.8428
ota	-11.8429
mina	-11.843
105	-11.8434
▁ceamaraí	-11.8434
mharc	-11.8441
tie	-11.8444
▁ob	-11.8447
HT	-11.8449
CAR	-11.8454
▁hinfheistíocht	-11.846
rose	-11.8461
Ru	-11.8463
hilleadh	-11.8467
▁mhéar	-11.847
some	-11.8482
kel	-11.8482
chumais	-11.8485
▁aipeanna	-11.8486
eofaí	-11.8488
mus	-11.8489
▁sheachtrach	-11.8489
GG	-11.8493
▁Stiúrthóireacht	-11.8495
▁scéala	-11.8497
Tra	-11.8498
)—	-11.8499
bhaint	-11.8499
▁tuisceana	-11.8505
main	-11.8507
léiriú	-11.8507
▁fógraíocht	-11.8508
▁chailín	-11.8508
▁Ban	-11.8512
ias	-11.8517
omhlíonann	-11.852
orbhreathnú	-11.8522
▁gcríochn	-11.8523
Yankees	-11.8523
▁Adobe	-11.8523
▁Cheantar	-11.8523
▁bpobail	-11.8523
▁eachtrannaigh	-11.8523
▁easnaimh	-11.8523
▁lipéid	-11.8523
▁mistéireach	-11.8523
▁opponents	-11.8523
▁seacláide	-11.8523
▁suíochán	-11.8523
▁sÚil	-11.8523
▁teaglaim	-11.8523
▁thaisteal	-11.8523
▁bioráin	-11.8523
▁claochladáin	-11.8523
▁hindíreach	-11.8523
▁Caillteanas	-11.8523
▁práis	-11.8523
▁urraim	-11.8523
▁bhanc	-11.8523
▁hardcore	-11.8523
▁Eastóin	-11.8524
▁comhaontaíodh	-11.8524
▁dhílis	-11.8524
▁feabhsuithe	-11.8524
Archive	-11.8524
▁Townland	-11.8524
▁Provision	-11.8524
▁óstáin	-11.8524
▁díotáil	-11.8524
phearsanra	-11.8524
▁bhileog	-11.8524
▁geallsealbhóirí	-11.8524
▁gcláir	-11.8525
▁fhéile	-11.8526
▁gcórais	-11.8526
▁Relate	-11.8526
▁Aitheantais	-11.8526
ilte	-11.8526
▁cósta	-11.8526
▁breithiúnais	-11.8527
▁formheasta	-11.8527
ept	-11.8527
sia	-11.8527
▁70%	-11.8527
▁OCP	-11.8528
▁múinteoireachta	-11.8528
▁Comhlachtaí	-11.8528
▁clubanna	-11.8529
▁(13)	-11.8529
▁stáitse	-11.8529
▁cadáis	-11.853
▁beimid	-11.853
▁nuachtáin	-11.8531
▁Clárúcháin	-11.8532
▁€8	-11.8532
▁Party	-11.8533
▁ionsaithe	-11.8533
▁hintinn	-11.8533
sie	-11.8534
▁Out	-11.8534
▁Airgeadra	-11.8534
▁creidmheasanna	-11.8534
blog	-11.8534
▁léiriúcháin	-11.8534
▁chaipitil	-11.8536
hit	-11.8537
▁chumhachtaí	-11.8537
▁onnmhairithe	-11.8537
▁blasta	-11.8538
▁tag	-11.8539
neoidh	-11.8541
▁sá	-11.8542
▁speisialtóirí	-11.8544
▁théama	-11.8544
imhe	-11.8544
▁Feithiclí	-11.8545
▁taisceadh	-11.8546
▁Anailíseoir	-11.8546
▁z	-11.8547
rachel	-11.8549
▁fhadtéarmach	-11.855
link	-11.8551
▁ritheadh	-11.8552
▁chomhlíon	-11.8553
▁372	-11.8553
Glactar	-11.8553
▁paitinne	-11.8554
▁albam	-11.8554
Ne	-11.8556
iarracht	-11.8557
athanna	-11.8557
▁Dleachta	-11.8558
md	-11.856
▁ionchais	-11.8562
▁Republic	-11.8565
ÁN	-11.8568
▁choir	-11.8569
lex	-11.857
▁dofheicthe	-11.857
aria	-11.8572
▁siopadóireachta	-11.8575
▁róil	-11.8575
▁09	-11.8576
▁Earth	-11.8579
cio	-11.8582
▁innealtóirí	-11.8584
▁shuim	-11.8584
luas	-11.8584
▁sínío	-11.8584
izz	-11.8585
▁úd	-11.8591
lover	-11.8591
750	-11.8593
oba	-11.8593
bhun	-11.8594
Cruinnithe	-11.8603
▁idirghabhálaí	-11.8604
RR	-11.8605
▁duitse	-11.861
▁foils	-11.8611
AX	-11.8611
▁95	-11.8613
kV	-11.8615
▁ullmha	-11.8616
utter	-11.8616
▁Bonn	-11.8617
mil	-11.8621
▁dheona	-11.8621
,000,000	-11.8622
▁Foils	-11.8625
▁CNN	-11.8627
▁Chathaoirleach	-11.863
PI	-11.8631
Politics	-11.8633
chloch	-11.8634
Watch	-11.8635
Chomhairle	-11.8635
Bun	-11.8637
▁gnócha	-11.8644
▁Áiritheoi	-11.8644
▁RF	-11.8646
▁aíonna	-11.8649
▁vótaíocht	-11.865
▁chlo	-11.8656
▁94	-11.8662
mens	-11.8663
▁Scoláir	-11.8668
rail	-11.867
éist	-11.8673
code	-11.8674
lian	-11.8677
▁chomhfhreagra	-11.8677
IG	-11.8679
astaíochtaí	-11.868
enge	-11.868
lg	-11.8685
mpo	-11.8688
-9	-11.8688
smaointeoireacht	-11.8691
ggy	-11.8691
Cal	-11.8697
arlaíonn	-11.8698
pc	-11.8702
/2009	-11.8703
ofheicthe	-11.8708
maid	-11.8711
▁bróg	-11.8711
mill	-11.8714
▁leanúnacha	-11.8716
▁líníocht	-11.8719
ruthaigh	-11.8719
sna	-11.872
▁dlítheanach	-11.8722
▁rothlach	-11.8722
▁Gaeltacht	-11.8724
pen	-11.8724
Ben	-11.8728
▁Oi	-11.873
▁thionscn	-11.8731
éisteacht	-11.8731
teannas	-11.8735
▁Leon	-11.874
▁Rialaitheoir	-11.8742
/2008	-11.8747
Fox	-11.8747
CBS	-11.8748
▁scaip	-11.8749
▁grúp	-11.8753
▁shéala	-11.8753
▁rátála	-11.8755
▁Caipitil	-11.8756
▁Chailíní	-11.8756
▁Ngéibheann	-11.8756
▁Oilimpeacha	-11.8756
▁Riachtanas	-11.8756
▁Sheachtain	-11.8756
▁Stádas	-11.8756
▁Teastaíonn	-11.8756
▁fhisiceach	-11.8756
▁hEaglaise	-11.8756
▁machnaimh	-11.8756
▁surely	-11.8756
▁naipcín	-11.8756
fhorbartha	-11.8756
▁Cúpó	-11.8756
▁forbróirí	-11.8756
▁Lords	-11.8756
▁maireann	-11.8756
▁tsíocháin	-11.8756
▁Dhéanamh	-11.8756
▁anaithnid	-11.8756
▁bhfeithicil	-11.8756
▁stráice	-11.8756
▁stampáil	-11.8756
▁Pháras	-11.8756
johnson	-11.8757
▁Chomhshaoil	-11.8757
taidhleoireachta	-11.8757
▁cóipcheart	-11.8757
▁feachtais	-11.8757
▁sciúradh	-11.8757
▁Ainmnithe	-11.8757
▁Máithreachais	-11.8757
▁dhílsiú	-11.8757
▁bhreitheamh	-11.8757
▁barraí	-11.8757
▁Míchumais	-11.8758
▁faireacháin	-11.8758
▁Chomhchoiste	-11.8758
▁scanadh	-11.8758
MEX	-11.8759
▁Comhaid	-11.8759
▁haitheantas	-11.8759
▁seasca	-11.8759
▁réamhráite	-11.876
▁suífear	-11.8761
▁chinntí	-11.8761
▁soitheach	-11.8762
díol	-11.8763
▁Vest	-11.8764
eve	-11.8765
▁gairmithe	-11.8765
▁Tógadh	-11.8765
▁Srianta	-11.8767
▁Rialtóirí	-11.8767
▁hEolaíochta	-11.8769
▁Cór	-11.877
▁léasaí	-11.8773
údarú	-11.8774
▁dhiúltaigh	-11.8774
▁FBManna	-11.8775
rimh	-11.8775
▁coir	-11.8776
▁úll	-11.8776
▁háireamh	-11.8777
▁Multi	-11.8777
éine	-11.8778
▁shealbhóirí	-11.8778
▁PET	-11.8779
▁díospóidí	-11.8779
▁Independent	-11.8781
ments	-11.8781
▁Print	-11.8781
hab	-11.8782
▁74	-11.8782
▁téamh	-11.8784
Hz	-11.8788
▁1969	-11.8791
▁ghloine	-11.8792
▁lódáil	-11.8795
tte	-11.8798
▁ÍMAT	-11.8798
Gh	-11.8798
▁2006/	-11.8799
▁Dong	-11.8801
▁Luachan	-11.8801
nat	-11.8802
Ja	-11.8803
▁athbheochan	-11.8804
▁bod	-11.8804
▁iarrataí	-11.8805
abhrú	-11.8806
▁shuíomhanna	-11.8807
▁Grád	-11.881
iki	-11.881
▁fhorais	-11.8811
FOR	-11.8813
▁allmhairí	-11.8813
▁Intreo	-11.8817
uíodh	-11.8818
chríochnaithe	-11.8821
▁deasc	-11.8824
exp	-11.8825
▁CBS	-11.8825
▁Ardán	-11.8826
Iar	-11.8826
▁aistr	-11.8829
▁gcód	-11.883
eek	-11.8831
▁dhearbh	-11.8833
▁siombail	-11.8833
unding	-11.8836
▁Raon	-11.8837
abi	-11.884
School	-11.8841
5/	-11.8841
-25	-11.8842
shláinte	-11.8845
▁steroid	-11.8845
dóireacht	-11.8846
tábla	-11.8847
▁umair	-11.8847
▁gearrthóga	-11.885
ANN	-11.8857
Stiúrthóir	-11.8858
ND	-11.8859
▁Hard	-11.8863
chaite	-11.8867
lare	-11.8868
▁ardaigh	-11.887
▁Stoc	-11.8872
Network	-11.8872
base	-11.8874
fhorchur	-11.8875
fhógra	-11.8875
▁báid	-11.8875
logtha	-11.8875
▁ainmneoi	-11.8875
cheadaithe	-11.8876
aistí	-11.8876
tríú	-11.8877
▁chionta	-11.8877
nut	-11.8877
Agus	-11.8881
▁páirtnéir	-11.8882
made	-11.8886
íocháin	-11.8887
KA	-11.8887
▁sk	-11.8887
tta	-11.8888
EF	-11.8889
kr	-11.889
City	-11.8894
rud	-11.8894
▁béilí	-11.8896
chumhacht	-11.8902
▁Card	-11.8904
▁Peann	-11.8906
▁Geall	-11.8908
OW	-11.8908
▁Dun	-11.8909
olo	-11.891
▁nigh	-11.8911
chód	-11.8913
onus	-11.8916
nger	-11.8917
test	-11.8918
isín	-11.8924
▁Rialála	-11.8924
bun	-11.8925
▁aontas	-11.8926
0%	-11.8926
▁Méada	-11.8931
▁Liam	-11.8934
▁taisc	-11.8935
Sea	-11.8936
2,000	-11.8936
▁ligfea	-11.894
▁time	-11.8948
teastaíonn	-11.8948
▁Pra	-11.8952
▁ionadh	-11.8954
óireacht	-11.8957
▁Bi	-11.8958
INN	-11.8958
jam	-11.8961
edu	-11.8964
▁thá	-11.8964
▁Rún	-11.8967
▁Drive	-11.8967
▁Bus	-11.8968
háin	-11.8969
ouch	-11.8972
▁leaisteacha	-11.8976
▁gineadóir	-11.8976
ante	-11.8979
▁páirte	-11.8983
coll	-11.8986
omhdhlúite	-11.8988
▁inné	-11.8991
▁tuaslag	-11.8992
▁suibscríobh	-11.8994
▁Adamhach	-11.8994
▁Alúmanam	-11.8994
▁Bronntanais	-11.8994
▁Choiriúil	-11.8994
▁Dromchla	-11.8994
▁bruscar	-11.8994
▁chartúin	-11.8994
▁choinníll	-11.8994
▁chothabhála	-11.8994
▁cosmaidí	-11.8994
▁cuimhnigh	-11.8994
▁dámhachtana	-11.8994
▁feisirí	-11.8994
▁leictreoid	-11.8994
▁pléascadh	-11.8994
▁puzzles	-11.8994
▁tiomnaithe	-11.8994
eannteidil	-11.8994
▁Láthair	-11.8994
▁Minicíocht	-11.8994
▁saoirsí	-11.8994
▁teileafón	-11.8994
▁sucks	-11.8994
▁urghabháil	-11.8994
▁anabalacha	-11.8994
▁dhearfach	-11.8994
▁cheamara	-11.8994
▁druileála	-11.8994
▁láimhseála	-11.8994
arúntacht	-11.8994
teigen	-11.8994
▁bhfostaithe	-11.8994
▁chomhchuibhiú	-11.8994
▁Impireacht	-11.8994
▁2014-2020	-11.8994
▁clibeanna	-11.8994
▁dhlínse	-11.8994
▁marthain	-11.8994
▁Stampa	-11.8994
▁iPad	-11.8994
▁cháilíochta	-11.8995
▁Foinse	-11.8995
▁stiúrtha	-11.8995
Ochtú	-11.8995
▁déanmhais	-11.8995
▁Fhorais	-11.8995
▁boilg	-11.8995
count	-11.8996
▁cartán	-11.8996
▁Éisc	-11.8996
▁OLS	-11.8996
▁comhaireamh	-11.8997
▁litríochta	-11.8997
▁shoiléiriú	-11.8997
▁hiontaobhaithe	-11.8997
▁Prada	-11.8997
2013	-11.8997
▁Sheol	-11.8997
▁híomhánna	-11.8998
▁tionóladh	-11.8998
▁bhfón	-11.8998
▁Daonra	-11.8999
afa	-11.9
▁huimhreacha	-11.9001
▁dTeach	-11.9001
▁baintreach	-11.9001
▁1949	-11.9001
▁Déantúsaíochta	-11.9004
▁Tréimhse	-11.9004
▁bhraith	-11.9005
▁Teen	-11.9005
▁Chód	-11.9006
Foireann	-11.9006
▁ceannródaíoch	-11.9007
▁cnaipí	-11.9007
▁Young	-11.9009
▁héadaí	-11.901
dol	-11.9012
▁ingne	-11.9018
If	-11.902
▁Príobháideacha	-11.9021
▁Sórtáil	-11.9023
master	-11.9024
▁réamhscoile	-11.903
Nuashonraithe	-11.9031
ones	-11.9031
▁Dúnta	-11.9034
▁inléite	-11.9035
▁rollaí	-11.9037
▁chraoladh	-11.9038
▁Motor	-11.9039
▁leag	-11.9042
▁rannpháirteacha	-11.9042
▁Fógraí	-11.9042
▁Ghnócha	-11.9046
new	-11.905
▁cóiríochta	-11.9051
▁drámaíochta	-11.9051
Ver	-11.9051
iris	-11.9052
ization	-11.9052
▁feidhmiúil	-11.9052
▁Araibis	-11.9055
▁tsean	-11.9055
▁cheathrú	-11.9058
▁uirí	-11.9059
▁Tig	-11.906
eá	-11.906
▁dhé	-11.9061
▁dheiseanna	-11.907
▁Columbia	-11.907
▁comhlán	-11.9072
▁Spe	-11.9076
▁cheanglas	-11.9076
▁táblaí	-11.9077
2019	-11.9078
mhaoiniú	-11.9079
home	-11.9082
dom	-11.9092
▁scartha	-11.9092
kara	-11.9094
Alb	-11.9095
mike	-11.9097
▁People	-11.9103
▁diagnóis	-11.9108
HRC	-11.9109
▁pha	-11.9111
▁dtóg	-11.9113
Coláiste	-11.9114
chuspóir	-11.9116
▁Comp	-11.9116
scríbhneoirí	-11.9116
oni	-11.9116
osca	-11.9116
fhoráil	-11.9117
University	-11.9117
▁Ghairm	-11.912
EY	-11.9121
Seirbhísí	-11.9122
achtachán	-11.9122
▁Web	-11.9125
NYC	-11.9127
▁margadhluach	-11.9127
fé	-11.9128
102	-11.913
oibleagáidí	-11.913
taobh	-11.9132
chló	-11.9136
▁Fho	-11.9143
lug	-11.9143
thóra	-11.9149
▁iom	-11.915
▁AT	-11.9152
ACHTA	-11.9155
▁tais	-11.9156
▁gclúda	-11.9157
Our	-11.9159
▁cuar	-11.9162
1%	-11.9167
▁bhreathn	-11.9173
Per	-11.9174
MF	-11.9178
fhearr	-11.918
bro	-11.9182
hiailiú	-11.9192
view	-11.9194
▁ionadaíoch	-11.9196
▁Ring	-11.9197
2/	-11.9198
▁Live	-11.9203
▁greann	-11.9204
▁Erotic	-11.9204
▁Taifead	-11.9204
▁Gléas	-11.9204
RL	-11.9204
▁gaolmhar	-11.9205
▁1).	-11.9208
▁grinn	-11.921
▁Turasóireacht	-11.9215
▁Máil	-11.922
▁óil	-11.9221
bheartas	-11.9225
▁Donn	-11.9225
▁Ur	-11.9225
▁Lán	-11.9229
▁€500	-11.9232
▁Wi	-11.9233
gua	-11.9234
▁fó	-11.9235
thfhriotail	-11.9238
▁Bhealtaine	-11.9238
▁Chabhlaigh	-11.9238
▁Dhosmálta	-11.9238
▁Guangdong	-11.9238
▁Rúbal	-11.9238
▁Teagaisc	-11.9238
▁aquarium	-11.9238
▁cheardlann	-11.9238
▁fréamhacha	-11.9238
▁gcraiceann	-11.9238
▁tarmligean	-11.9238
▁thabhú	-11.9238
▁thromchúiseach	-11.9238
▁Prophet	-11.9238
▁mhodhnuithe	-11.9238
▁Facialized	-11.9238
▁Bloomberg	-11.9238
▁mheon	-11.9238
▁mBunscoileanna	-11.9238
▁morálta	-11.9238
▁Cócaireacht	-11.9238
▁1/0	-11.9238
▁homemade	-11.9238
Soccer	-11.9238
▁ladhar	-11.9238
▁eachtrannach	-11.9238
opinion	-11.9238
▁ionchuir	-11.9238
▁brainse	-11.9238
▁Riaracháin	-11.9238
▁contact	-11.9238
▁fhionraí	-11.9238
▁thacú	-11.9238
▁staidreamh	-11.9238
▁bhallóide	-11.9238
▁bardas	-11.9238
▁féidearthachtaí	-11.9238
▁líomhnaithe	-11.9238
▁Múinteoireachta	-11.9239
▁fíorálainn	-11.9239
▁géilleadh	-11.9239
▁Wonder	-11.9239
▁Tascfhórsa	-11.9239
▁Fostaithe	-11.9239
▁Development	-11.9239
▁bhfios	-11.9239
▁Saintréithe	-11.924
▁ghintear	-11.9241
high	-11.9241
▁Fairy	-11.9242
▁chuardaigh	-11.9242
▁IPv	-11.9243
▁Sonic	-11.9243
▁feidhmchláir	-11.9243
▁bhailítear	-11.9244
aidrimh	-11.9244
▁40%	-11.9244
bull	-11.9245
▁brabhsálaí	-11.9246
▁foraoiseachta	-11.9248
▁infhaighteacht	-11.925
Bra	-11.9251
▁bille	-11.9251
▁hiodrálacha	-11.9252
▁25%	-11.9252
▁Mart	-11.9254
▁Ceilteach	-11.9255
Robert	-11.9255
eric	-11.9257
▁samhlaíocht	-11.9257
▁phríosúnacht	-11.9258
▁Cúiteamh	-11.9258
▁micro	-11.9258
▁Síos	-11.9259
▁Stáin	-11.9259
▁ghnímh	-11.9261
▁Shine	-11.9262
ealaithe	-11.9262
▁tonn	-11.9265
íche	-11.9267
▁Products	-11.9267
nách	-11.9268
áireofar	-11.9273
▁pills	-11.9273
▁rolladh	-11.9273
jim	-11.9274
▁DIT	-11.9275
▁dhéanfas	-11.9276
▁agallaimh	-11.9276
▁86	-11.9278
Ros	-11.9281
▁pm	-11.9283
▁10,000	-11.9285
▁monarchana	-11.9285
▁arrow	-11.9286
neofar	-11.9286
tail	-11.9289
▁phleanála	-11.9289
lady	-11.929
▁dídean	-11.929
▁próifílí	-11.929
▁féar	-11.9291
ops	-11.9292
▁mbanc	-11.9292
▁oileáin	-11.9293
LL	-11.9298
▁Uas	-11.9298
tóidh	-11.9301
down	-11.9302
▁teo	-11.9303
▁SO	-11.9307
▁eolach	-11.9307
chomhpháirtíocht	-11.931
▁cruthaitheacha	-11.931
Ath	-11.9312
arán	-11.9314
Vi	-11.9317
Airteagail	-11.9318
▁orgánacha	-11.9319
▁Cosc	-11.9321
▁comhsheasmhacht	-11.9327
▁gcaith	-11.9327
cháilíochta	-11.9329
▁saoránacht	-11.9332
▁chinnte	-11.9334
▁Canada	-11.9334
▁Éireannaigh	-11.9337
scr	-11.9338
▁Thai	-11.9339
ÁIL	-11.9341
▁Ice	-11.9341
óide	-11.9353
▁fhiacha	-11.9356
marc	-11.9357
▁Ceathrú	-11.9359
heal	-11.9359
chiste	-11.936
▁On	-11.9361
▁bhfu	-11.9362
éilí	-11.9363
méad	-11.9363
▁Tweets	-11.9364
ítimí	-11.9365
SN	-11.9365
gcabhair	-11.9365
ghalar	-11.9365
League	-11.9366
Oideachas	-11.9367
▁fhan	-11.9369
reab	-11.9373
▁Eli	-11.9374
éifeachtaí	-11.9376
MG	-11.9376
▁Mario	-11.9378
▁cart	-11.938
▁gram	-11.9382
Ceathrú	-11.9382
nce	-11.9383
▁uacht	-11.9386
▁maid	-11.9388
best	-11.939
▁grian	-11.9391
▁bratach	-11.9392
bor	-11.9399
reasa	-11.94
úinéirí	-11.9403
ghníomhaíochtaí	-11.941
aoise	-11.9417
chro	-11.9417
▁raca	-11.942
hot	-11.9422
olún	-11.9422
Dr	-11.9428
pop	-11.9429
▁sofaisticiúla	-11.9431
erking	-11.9435
1:	-11.9438
▁gcúl	-11.944
maité	-11.9443
PM	-11.9444
▁Leantóir	-11.9444
ily	-11.9444
bhua	-11.9451
▁Pet	-11.9452
js	-11.9452
doc	-11.9453
▁Plaisteach	-11.9454
▁CA	-11.9458
▁Main	-11.9458
ghnó	-11.9466
▁Sho	-11.9466
▁hi	-11.9467
▁cuairte	-11.9467
itz	-11.9468
▁“(2)	-11.9472
ROS	-11.9472
▁Éisteacht	-11.9476
▁Móra	-11.9479
KO	-11.9479
▁Téalainn	-11.9483
▁PC	-11.9485
▁cheannaire	-11.9486
▁breoite	-11.9486
Déan	-11.9488
Thompson	-11.9488
▁ANSEO	-11.9488
▁Aithnítear	-11.9488
▁Chaisleán	-11.9488
▁Curaclaim	-11.9488
▁Cúraim	-11.9488
▁Fiosrúchán	-11.9488
▁Galway	-11.9488
▁Giúdaigh	-11.9488
▁Paróiste	-11.9488
▁Stáisiúin	-11.9488
▁Sualainnis	-11.9488
▁Timberland	-11.9488
▁athchúrsála	-11.9488
▁buiséid	-11.9488
▁daichead	-11.9488
▁fearchéile	-11.9488
▁hIarmhí	-11.9488
▁mheabhrach	-11.9488
▁mhothúchánach	-11.9488
▁muineál	-11.9488
▁ndualgas	-11.9488
▁pornofoto	-11.9488
▁rómánsúil	-11.9488
▁seisear	-11.9488
▁síochánta	-11.9488
▁uasmhéadú	-11.9488
library	-11.9488
▁ceadmhach	-11.9488
▁fiaclóireachta	-11.9488
▁heisiach	-11.9488
▁soilsithe	-11.9488
▁Chróit	-11.9488
▁Páipéir	-11.9488
▁Póca	-11.9488
▁ionfhabhtaithe	-11.9488
▁Litir	-11.9488
▁Thástá	-11.9488
▁nGarda	-11.9488
▁Crown	-11.9488
▁chuaird	-11.9488
craft	-11.9488
▁airbheartóidh	-11.9488
ibility	-11.9488
▁aerárthaigh	-11.9489
▁Mhaoin	-11.9489
▁gcuntar	-11.9489
▁míbhuntáistí	-11.9489
▁Inaistrithe	-11.9489
agra	-11.9489
▁gcósta	-11.9489
▁glaine	-11.949
▁Scáileán	-11.949
▁cuimsiú	-11.949
▁CLG	-11.9491
google	-11.9491
▁Chórais	-11.9491
ister	-11.9492
▁chomhcheangal	-11.9492
▁pornovideo	-11.9492
▁chlúdaíonn	-11.9492
nation	-11.9492
▁Géara	-11.9493
▁uasteorainn	-11.9493
▁TV	-11.9494
▁Moladh	-11.9496
▁champa	-11.9496
frank	-11.9497
▁áiritheoidh	-11.9497
▁bhéarfar	-11.9498
▁1948	-11.9498
▁Peile	-11.9498
▁SP	-11.9498
▁nÓg	-11.9499
▁cluichíochta	-11.9499
▁PSP	-11.95
▁dTreoir	-11.9501
▁Fianaise	-11.9502
▁Teorainneacha	-11.9502
▁léitheoirí	-11.9503
▁leathán	-11.9504
▁220	-11.9505
▁ghalair	-11.9505
▁leigheasanna	-11.9508
▁Tíotáiniam	-11.9508
▁Samplaí	-11.951
▁trua	-11.951
uarthas	-11.9511
▁Cairde	-11.9512
▁Bheith	-11.9514
stores	-11.9516
▁dona	-11.9516
Chomh	-11.9518
▁dheimhnithe	-11.9519
▁ghuth	-11.952
nz	-11.952
▁Ghael	-11.9523
..../200	-11.9523
▁eiseofar	-11.9525
▁luaigh	-11.9526
▁British	-11.9527
mhais	-11.953
▁chúraim	-11.9531
zhou	-11.9532
tachta	-11.9532
imic	-11.9533
self	-11.9533
ACHA	-11.9534
▁Fhoirm	-11.9535
▁mbraithe	-11.9535
angel	-11.9535
▁Róimhe	-11.9537
▁Book	-11.954
deas	-11.9541
▁mhuirir	-11.9541
▁App	-11.9544
eart	-11.955
▁Cath	-11.9551
Lá	-11.9551
eagras	-11.9552
▁chothromaíocht	-11.9552
▁eisceachtaí	-11.9552
iro	-11.9555
▁IS	-11.9555
isti	-11.9555
tics	-11.9556
▁mhuirí	-11.9559
▁stró	-11.956
▁Cóip	-11.9563
aib	-11.9564
gging	-11.9566
▁Digital	-11.9574
▁bhlianacht	-11.9575
gl	-11.9575
▁NI	-11.9582
mair	-11.9582
▁mbunú	-11.9583
mhail	-11.9584
▁Shoot	-11.9585
(6)	-11.9585
▁calaoiseach	-11.9587
▁Scotland	-11.9587
▁Hol	-11.959
▁gCeann	-11.9591
1000	-11.9593
Lo	-11.9601
aschur	-11.9602
unc	-11.9602
úsáideach	-11.9603
▁caoi	-11.9614
dg	-11.9615
▁cáilitheacha	-11.9616
imscrúdú	-11.9618
lab	-11.962
oirfea	-11.962
▁osclaío	-11.9621
únaer	-11.9622
iontráil	-11.9623
stan	-11.9625
anam	-11.9632
TX	-11.9633
ríomh	-11.9633
nstealladh	-11.9639
UL	-11.9639
pping	-11.9639
▁Val	-11.9643
ordaithe	-11.9646
DG	-11.9646
sto	-11.9651
▁ceada	-11.9653
▁naofa	-11.9653
ionadaí	-11.9653
úsáide	-11.9659
athnaíonn	-11.966
▁bhfeirm	-11.9662
▁108	-11.9668
das	-11.9672
shocraigh	-11.9672
urrús	-11.9676
▁fhaillí	-11.9676
▁Sisi	-11.9679
▁Tharla	-11.9681
▁Sim	-11.9682
AJ	-11.9685
▁Ionstraimí	-11.9686
INR	-11.9687
proof	-11.9688
olly	-11.9689
críbhneoireachta	-11.9691
lb	-11.9692
owl	-11.9693
aíochtaí	-11.9695
imigh	-11.9697
...............	-11.97
áide	-11.9701
▁dhear	-11.9702
eagrú	-11.9703
ordaíonn	-11.9704
nasta	-11.9704
coigeartuithe	-11.9705
▁haistriú	-11.971
▁ceardlann	-11.9711
unta	-11.9712
▁saineolaí	-11.9712
▁Bunúsach	-11.9713
KG	-11.9713
▁doimhne	-11.9715
HUN	-11.9721
▁hairí	-11.9721
▁hE	-11.9722
iúl	-11.9722
▁cosantóir	-11.9727
▁Cuspóir	-11.9727
▁mhonaróir	-11.9727
▁cruthaitheacht	-11.9729
Point	-11.9729
▁glacadóir	-11.973
mhuirear	-11.9733
▁uachtaránacht	-11.9735
▁Sale	-11.9735
tik	-11.9735
▁Phlé	-11.9737
ithre	-11.9739
▁dhlúth	-11.974
▁Sprioc	-11.974
oileach	-11.974
ritéir	-11.9741
LR	-11.9741
▁dtagar	-11.9742
▁pacáil	-11.9742
▁comhdhála	-11.9743
▁Bitcoin	-11.9744
▁Freisin	-11.9744
▁Sliotán	-11.9744
▁cumhdach	-11.9744
▁curaclaim	-11.9744
▁gcliaint	-11.9744
▁músaem	-11.9744
▁seirbheála	-11.9744
▁tSamhraidh	-11.9744
▁tSlóvaic	-11.9744
▁tréigthe	-11.9744
▁shemale	-11.9744
people	-11.9744
▁císte	-11.9744
▁Chumhacht	-11.9744
▁fhostóra	-11.9744
▁heochracha	-11.9744
▁Aisghabháil	-11.9744
▁cúlghairm	-11.9744
▁meabhrán	-11.9744
▁sásaimh	-11.9744
riorities	-11.9744
▁dlúithe	-11.9744
▁Aigéin	-11.9744
▁amhábhair	-11.9744
▁Siopadóireacht	-11.9744
▁cháilithigh	-11.9745
▁gcosaint	-11.9745
rust	-11.9745
▁mhionsonraithe	-11.9745
▁Mhná	-11.9745
▁lárionaid	-11.9745
▁Download	-11.9745
▁eisean	-11.9745
▁Tánaiste	-11.9745
▁capaill	-11.9745
▁ciorcaid	-11.9745
▁Spiorad	-11.9745
▁ordacháin	-11.9746
▁ciorcail	-11.9746
▁aerfoirt	-11.9746
▁Soladach	-11.9746
cion	-11.9746
ody	-11.9746
▁grafach	-11.9747
▁testosterone	-11.9747
▁Internet	-11.9747
Complex	-11.9747
▁Clúdach	-11.9748
▁Sandal	-11.9748
▁Koran	-11.9748
ÍOCHT	-11.9748
▁finnéithe	-11.9748
gil	-11.9749
▁Solar	-11.9749
▁dhréachtú	-11.975
▁chíosa	-11.975
eagraigh	-11.9752
▁leabaithe	-11.9752
▁glúin	-11.9752
▁cigireachta	-11.9753
▁géarchéime	-11.9753
▁stua	-11.9754
▁Othar	-11.9754
▁1944	-11.9754
▁ghaolmhara	-11.9754
▁Bheag	-11.9755
oinn	-11.9755
fight	-11.9756
▁1928	-11.9757
▁ceoltóirí	-11.9757
▁coiligh	-11.9758
LM	-11.9758
▁chirt	-11.9758
▁cháilithe	-11.9759
inneallghluaiste	-11.976
Mhéara	-11.9761
▁hidrigine	-11.9761
fheithicil	-11.9762
▁friotaíochta	-11.9763
▁éagórach	-11.9764
From	-11.9764
▁Fágann	-11.9764
▁phróiseála	-11.9764
▁oibreora	-11.9764
▁tosca	-11.9764
Annual	-11.9765
Eoraip	-11.9766
▁dearthóirí	-11.9767
▁coireachta	-11.9768
VI	-11.9769
▁anailísiú	-11.977
▁leochaileacha	-11.977
▁ndoiciméad	-11.9771
▁mbaint	-11.9774
▁Oibríochtaí	-11.9775
▁Cónaidhm	-11.9775
▁Lady	-11.9777
vic	-11.9777
▁sinsearach	-11.9777
maí	-11.9777
ocra	-11.9778
▁Kids	-11.978
▁Buama	-11.978
▁Dan	-11.978
▁éanlaithe	-11.978
▁Danmhairge	-11.978
▁hÓglaigh	-11.9781
▁gluaiseachtaí	-11.9781
▁choláiste	-11.9784
Bernie	-11.9785
▁fhuil	-11.9785
HL	-11.9786
▁dtuairimí	-11.9786
▁hin	-11.9789
▁About	-11.9791
ures	-11.9793
▁spe	-11.9794
▁breiseáin	-11.9794
gro	-11.9794
▁mheáchan	-11.9795
▁ainmniúchán	-11.9795
▁imscaradh	-11.9799
▁éagóir	-11.98
2019.	-11.9812
mhínithe	-11.9815
▁trédhearcachta	-11.9821
▁Bainc	-11.9827
▁meilt	-11.9828
▁teochtaí	-11.9829
american	-11.9831
▁faireacha	-11.9832
gram	-11.9833
▁GF	-11.9835
▁fhuascailt	-11.9835
▁Tiomána	-11.9837
America	-11.9838
▁Nor	-11.9838
▁cobhsaíochta	-11.9839
hun	-11.9842
NH	-11.9843
neacha	-11.9849
▁Páirt	-11.9849
tai	-11.985
▁Ste	-11.9852
tionscnamh	-11.9854
▁tuairisce	-11.9855
▁bead	-11.9855
mini	-11.9856
▁inimirce	-11.9856
▁árthach	-11.9859
iko	-11.9864
▁thimpeallacht	-11.9865
▁Pleananna	-11.9869
lig	-11.9873
stein	-11.9874
▁gcabhair	-11.9874
iomláine	-11.988
▁Australia	-11.9881
éagmais	-11.9884
Michael	-11.9884
▁creidim	-11.9885
Chathaoirleach	-11.9885
▁brúite	-11.9885
Spáinnis	-11.9886
uirlisí	-11.9886
Ju	-11.9887
homhghuaillíocht	-11.9887
Nua	-11.9889
Cuid	-11.9891
neamh	-11.9892
▁creidiúna	-11.9893
▁Pota	-11.9895
áiteanna	-11.9895
huiscí	-11.9897
xx	-11.9899
▁thrádála	-11.9901
▁minicíochta	-11.9903
éasc	-11.9903
airgeann	-11.9907
▁Int	-11.9907
ITHE	-11.991
▁bhunscoileanna	-11.9912
ants	-11.9912
▁dúshlánach	-11.9913
uasmhéid	-11.9915
nick	-11.9916
-100	-11.9921
▁cothromaíochta	-11.9925
▁neamhghníomh	-11.9925
▁réada	-11.9926
imircigh	-11.9929
▁Grianghraf	-11.9929
▁cothaitheach	-11.993
aistriúchán	-11.9933
Uimhir	-11.9935
gain	-11.9935
national	-11.9939
▁freagrachta	-11.9941
▁Product	-11.9942
▁101	-11.9942
serve	-11.9943
shu	-11.9954
▁chas	-11.9955
nni	-11.9957
rimary	-11.9959
uda	-11.9968
▁0.5	-11.9969
aincheisteanna	-11.9971
▁turasóireacht	-11.9974
DF	-11.9982
GP	-11.9983
▁comharba	-11.9985
▁uachtarach	-11.9986
▁CT	-11.9988
777	-11.9989
mouth	-11.9989
▁cistin	-11.9991
▁UPS	-11.9991
▁Mill	-11.9993
▁mbreith	-11.9994
▁ghéar	-11.9995
▁12:	-11.9999
íteas	-12.0001
▁Plan	-12.0001
▁Cumarsáid	-12.0004
culture	-12.0005
▁daingniú	-12.0007
SHENG	-12.0007
íospartach	-12.0007
▁Bhóthar	-12.0007
[...]
