<unk>	0
<s>	0
</s>	0
,	-3.4831
▁an	-3.48471
▁a	-3.49401
▁ar	-3.7561
.	-3.84149
▁agus	-3.98465
▁na	-4.21256
▁	-4.33252
▁le	-4.60187
▁i	-4.61827
-	-4.84609
▁go	-4.95068
▁@	-4.97731
▁seo	-5.01731
▁tú	-5.16333
▁do	-5.1664
▁ag	-5.19012
▁(	-5.25086
▁de	-5.25296
▁nó	-5.25395
r	-5.27862
)	-5.29765
a	-5.32856
▁d	-5.35268
▁bhfuil	-5.37199
▁leis	-5.39773
▁in	-5.50595
▁chun	-5.51139
▁sin	-5.51649
▁An	-5.51654
▁is	-5.51984
s	-5.57882
▁C	-5.64561
'	-5.67449
▁ó	-5.70747
:	-5.73021
▁leat	-5.73588
▁é	-5.80526
?	-5.80616
▁sé	-5.82622
▁gur	-5.86877
▁sa	-5.91993
▁atá	-5.93529
e	-5.94082
▁cosc	-5.94859
▁den	-5.96047
▁Tweetanna	-5.99298
▁mar	-5.9969
í	-6.00202
▁Is	-6.02353
▁-	-6.07037
▁aon	-6.09691
▁féidir	-6.10983
▁mhaith	-6.11661
▁faoi	-6.13533
▁cinnte	-6.13796
▁Tá	-6.14133
▁breathnú	-6.1529
▁Chuir	-6.15936
▁Meáin	-6.17902
▁t	-6.21573
▁n	-6.24698
;	-6.2509
▁eile	-6.28572
▁tá	-6.314
▁dhéanamh	-6.32575
n	-6.33221
▁chur	-6.35738
’	-6.36181
▁bheith	-6.37003
▁ina	-6.38964
▁don	-6.48953
▁duine	-6.49923
▁Tuilleadh	-6.52035
▁maidi	-6.55203
▁F	-6.5561
▁deimhnithe	-6.5663
▁saor	-6.57221
b	-6.57741
▁as	-6.60501
▁níos	-6.61884
▁nasc	-6.62747
▁trí	-6.62935
▁gach	-6.63468
▁aisce	-6.64282
ú	-6.67728
Cuntas	-6.6784
c	-6.67848
▁Ní	-6.68348
▁ón	-6.69437
_	-6.70099
óipeáil	-6.70605
▁san	-6.71191
▁nach	-6.72925
d	-6.76908
▁ná	-6.78284
▁ach	-6.79017
▁porn	-6.7931
▁maith	-6.79354
t	-6.82186
▁haghaidh	-6.83081
▁lena	-6.84238
▁fáil	-6.84696
▁dá	-6.85863
▁mó	-6.86126
▁u	-6.87462
▁Ar	-6.88093
▁chloig	-6.8844
▁D	-6.88546
▁ann	-6.89808
▁leanúna	-6.90277
▁chuid	-6.90576
▁I	-6.90773
▁iad	-6.91102
▁réir	-6.91169
▁shin	-6.91376
▁ní	-6.916
▁h	-6.93377
▁tweet	-6.96312
dh	-6.97055
ach	-6.99474
▁Ag	-7.00288
▁nua	-7.00614
▁amháin	-7.0117
▁alt	-7.02305
▁A	-7.02326
igh	-7.025
▁bheidh	-7.02715
▁úsáid	-7.05399
ir	-7.0546
▁amach	-7.06026
▁uair	-7.06269
▁siad	-7.07482
▁B	-7.08083
▁–	-7.08484
is	-7.08504
i	-7.08682
in	-7.09379
▁líne	-7.09436
▁thabhairt	-7.09802
▁um	-7.10075
▁gan	-7.10436
oisc	-7.11755
▁Cuir	-7.13036
▁1	-7.1319
ch	-7.1417
▁féin	-7.16059
an	-7.1659
▁“	-7.17683
▁Dích	-7.17851
íonn	-7.1814
▁T	-7.18165
alt	-7.18299
▁mór	-7.18416
▁S	-7.18801
▁raibh	-7.19497
m	-7.20349
▁éis	-7.22167
▁faoin	-7.22613
▁cheannach	-7.22627
▁leith	-7.22969
▁cineál	-7.23153
▁chomh	-7.23392
▁lá	-7.23532
▁Féach	-7.24308
/	-7.25194
ann	-7.25501
▁á	-7.25562
▁isteach	-7.26184
▁daoine	-7.27604
▁fháil	-7.27864
il	-7.28255
▁fearr	-7.28951
h	-7.3081
!	-7.31485
▁beidh	-7.31652
▁gcás	-7.32111
▁rud	-7.32983
▁focal	-7.33865
▁bhí	-7.34791
▁2	-7.35282
▁acu	-7.35422
C	-7.35841
l	-7.37157
▁c	-7.37308
▁nGaeilge	-7.37975
▁suíomh	-7.38665
ealaigh	-7.3875
▁Acht	-7.38898
▁freagra	-7.38922
▁HD	-7.39495
▁ár	-7.39616
▁mbeidh	-7.4082
▁tar	-7.41257
A	-7.41494
”	-7.41713
y	-7.42815
▁linn	-7.43976
te	-7.44157
▁sainmhíniú	-7.44206
ta	-7.44268
ic	-7.44391
iallach	-7.44825
▁3	-7.44916
iarratas	-7.44966
▁bríonna	-7.45004
▁fuaimniú	-7.45627
▁fhrithch	-7.46024
▁comhchiallaigh	-7.46159
anna	-7.46689
com	-7.49756
▁má	-7.50317
▁Le	-7.50404
B	-7.50441
▁anseo	-7.50467
▁freisin	-7.50719
▁méid	-7.51232
▁dtí	-7.53619
...	-7.53868
as	-7.54267
ing	-7.54831
▁anois	-7.54869
▁dul	-7.55283
aí	-7.55313
ithe	-7.55421
▁chéad	-7.55832
▁ceart	-7.5604
adh	-7.56096
▁ceal	-7.56406
▁tabhairt	-7.56725
▁duit	-7.56921
▁leanas	-7.56937
bh	-7.5703
▁Mar	-7.5704
▁idir	-7.57381
▁"	-7.59306
▁feitheamh	-7.59477
▁Iarratas	-7.59961
D	-7.60076
▁gá	-7.61054
o	-7.61411
eitheamh	-7.61486
▁ceann	-7.61691
er	-7.6283
▁sna	-7.63353
▁M	-7.637
▁bhaineann	-7.64398
S	-7.64563
▁(2)	-7.6524
f	-7.65242
▁bhainfea	-7.65396
ar	-7.65651
▁bhreathnú	-7.6646
▁ba	-7.66673
▁nuair	-7.6668
g	-7.66959
▁P	-7.6769
▁/	-7.67805
F	-7.68115
▁aghaidh	-7.68252
▁sonraí	-7.68667
G	-7.68678
▁no	-7.68836
▁Eorpach	-7.69642
▁agat	-7.69788
▁iomlán	-7.70534
▁chuig	-7.71047
▁roimh	-7.7108
▁bhaint	-7.71656
▁Gaeilge	-7.71902
aithe	-7.72032
▁roinnt	-7.72478
▁0	-7.72543
al	-7.72648
▁dáta	-7.73426
▁ch	-7.73546
iú	-7.73657
▁5	-7.73735
▁obair	-7.74141
▁4	-7.74204
2	-7.74421
▁Beidh	-7.75677
▁Roinn	-7.75842
▁gréasáin	-7.75927
▁sí	-7.76176
tear	-7.76395
M	-7.76551
▁G	-7.76676
na	-7.76715
ra	-7.77471
le	-7.77623
]	-7.77762
aigh	-7.78389
▁L	-7.78568
▁tréimhse	-7.78706
▁6	-7.79008
▁í	-7.79616
▁cur	-7.79848
▁bhfeidhm	-7.80141
▁hÉireann	-7.80849
▁cluiche	-7.80964
▁éagsúla	-7.80978
3	-7.81331
▁Twitter	-7.82072
▁cheart	-7.82208
T	-7.82384
▁arna	-7.82421
▁b	-7.83365
1	-7.8346
▁físeáin	-7.8376
on	-7.84066
▁[	-7.846
▁dhaoine	-7.84706
P	-7.84877
4	-7.84913
th	-7.84986
▁Aontais	-7.86189
▁síos	-7.86426
▁cinn	-7.86636
▁scoth	-7.86714
▁hEorpa	-7.86755
▁am	-7.86799
ed	-7.87196
▁mé	-7.87293
am	-7.87846
acha	-7.87978
▁caighdeán	-7.88005
▁18	-7.88095
▁chéile	-7.88144
▁Ba	-7.88161
▁Má	-7.88192
▁bith	-7.89001
▁air	-7.8907
▁físeán	-7.89468
▁aige	-7.89526
▁áirithe	-7.89853
▁Lean	-7.8996
EN	-7.9013
án	-7.90252
▁leor	-7.92017
lacha	-7.92268
im	-7.92641
▁10	-7.93245
—	-7.93408
▁E	-7.93489
▁áit	-7.93495
▁8	-7.93929
▁cheann	-7.94816
▁teacht	-7.95102
"	-7.95229
▁Sa	-7.95422
▁Nua	-7.95953
p	-7.96062
aon	-7.9641
R	-7.9689
▁léir	-7.97276
▁fásta	-7.97318
áin	-7.97796
▁mo	-7.97811
▁láthair	-7.97816
▁Go	-7.97929
áirítear	-7.98532
tha	-7.98724
▁bhliain	-7.98849
or	-7.99213
▁leo	-7.99614
▁Aire	-7.9985
▁cheana	-8.00463
▁&	-8.00522
▁bliana	-8.00836
▁7	-8.00922
áil	-8.01667
▁fho	-8.01777
amp	-8.01862
▁féachaint	-8.02107
▁Tweet	-8.02261
▁so	-8.02433
▁Iúil	-8.0294
▁2018	-8.03554
▁Coiscthe	-8.0358
▁(3)	-8.05047
▁thar	-8.0519
atweetá	-8.05613
fidh	-8.06044
▁tAire	-8.06065
▁Porn	-8.06107
▁suas	-8.06216
▁dheis	-8.06417
▁Dé	-8.06659
▁AE	-8.06661
▁chaighdeán	-8.06758
u	-8.06873
▁díreach	-8.06951
la	-8.07337
▁9	-8.08116
▁12	-8.08153
▁cibé	-8.0857
▁Márta	-8.089
▁Deireadh	-8.0892
fhéadfadh	-8.08951
eann	-8.08984
re	-8.09264
▁dhá	-8.09691
E	-8.09723
I	-8.09798
▁Chomhairle	-8.10202
▁ard	-8.10419
▁Chun	-8.10624
▁R	-8.10859
▁gc	-8.10926
▁sórt	-8.11203
K	-8.11258
ais	-8.11337
▁g	-8.12603
▁dó	-8.12922
▁seirbhísí	-8.13302
▁15	-8.14363
N	-8.14596
it	-8.15439
▁p	-8.15813
▁laistigh	-8.15847
▁íoslódáil	-8.1585
▁chóir	-8.16583
▁más	-8.1672
k	-8.17135
▁huaire	-8.17141
ig	-8.17747
▁Comhrá	-8.18007
L	-8.1819
▁ábhar	-8.18208
▁ndáil	-8.18456
▁neamh	-8.18548
W	-8.18622
▁2017	-8.18637
5	-8.18651
es	-8.19126
▁Co	-8.19529
id	-8.19554
▁táirgí	-8.19625
▁leathanach	-8.19879
▁Ch	-8.19962
),	-8.20512
the	-8.20622
V	-8.20651
▁láithreán	-8.21157
▁feadh	-8.21206
os	-8.21294
▁mbaineann	-8.21731
▁iontach	-8.21906
▁Airteagal	-8.22059
▁gcuid	-8.2215
▁fós	-8.2268
acht	-8.22819
mh	-8.22844
8	-8.23797
▁oibre	-8.24128
▁H	-8.24178
▁mbeadh	-8.24419
▁bhíonn	-8.24515
▁Na	-8.24622
H	-8.2471
▁20	-8.25083
▁fad	-8.25433
tar	-8.25544
▁ionad	-8.2568
se	-8.2657
▁s	-8.26953
▁(1)	-8.274
▁gComhairle	-8.27411
eanna	-8.27438
▁The	-8.27565
▁céanna	-8.27877
▁cluichí	-8.28077
▁déanta	-8.28181
▁gheall	-8.2823
st	-8.28547
▁mhí	-8.28708
ie	-8.29078
▁Baile	-8.29088
de	-8.29102
▁eolas	-8.29255
▁fud	-8.29344
▁ainm	-8.29797
each	-8.29876
▁iarraidh	-8.29951
nd	-8.30339
▁Tuga	-8.306
).	-8.30737
▁Agus	-8.3074
▁ordú	-8.30753
gh	-8.30866
▁Atweetáil	-8.31135
O	-8.31765
▁m	-8.31902
▁dóibh	-8.32158
▁féadfaidh	-8.32343
▁rogha	-8.32653
▁Comhairle	-8.32775
▁cuid	-8.32978
▁orthu	-8.33114
▁bhfo	-8.3321
▁mí	-8.33457
6	-8.33462
ítear	-8.33621
▁againn	-8.33639
▁feidhm	-8.33768
▁Fómhair	-8.33822
faidh	-8.34094
uaimniú	-8.34135
▁iarratas	-8.34241
▁liom	-8.35265
▁Rinne	-8.35271
▁gcónaí	-8.35328
▁bliain	-8.35413
ó	-8.35623
▁Leaba	-8.35699
▁uisce	-8.36068
▁cothrom	-8.3612
▁ráta	-8.36218
en	-8.3626
▁De	-8.36447
▁críocha	-8.36775
▁2019	-8.36864
▁24	-8.36914
▁tSín	-8.36989
ciallaíonn	-8.37854
▁tras	-8.38161
▁áireamh	-8.38228
▁Cé	-8.38333
▁fo	-8.38459
▁feidhme	-8.38811
ol	-8.38924
▁Aontaithe	-8.39019
▁Ard	-8.39111
▁scannán	-8.39393
▁iomchuí	-8.39911
▁19	-8.40112
▁gnéas	-8.40121
▁of	-8.40328
nn	-8.40372
▁leibhéal	-8.40375
▁bh	-8.40446
▁ghlacadh	-8.40695
Béarla	-8.4073
é	-8.40738
▁bhun	-8.41066
▁Déan	-8.41281
▁16	-8.4137
▁Eorpaigh	-8.4144
▁fheabhsú	-8.4144
7	-8.41687
▁Féadfaidh	-8.41824
▁Coimisiún	-8.41932
ine	-8.4204
▁mhír	-8.42146
▁fhreagra	-8.42678
▁dlí	-8.42978
▁amhlaidh	-8.42994
▁11	-8.43302
▁14	-8.43554
▁Físeán	-8.43564
▁náisiúnta	-8.43651
▁taobh	-8.43774
▁tríd	-8.44116
▁líon	-8.44273
Acht	-8.4451
▁tráth	-8.44752
ad	-8.44769
ne	-8.44802
el	-8.44937
▁13	-8.4509
uaire	-8.45448
▁athrú	-8.45571
▁muid	-8.45883
▁féach	-8.45902
▁O	-8.46035
▁Rialachán	-8.46051
ith	-8.46387
▁Nach	-8.4702
▁cáilíochta	-8.47074
▁17	-8.47121
far	-8.47473
ainm	-8.47622
▁croí	-8.47948
▁haon	-8.48134
oir	-8.48199
▁mhéid	-8.48773
ear	-8.48849
all	-8.49149
▁íoc	-8.49777
▁Náisiúnta	-8.49865
ion	-8.50266
▁Stáit	-8.50301
▁háirithe	-8.50455
▁fíor	-8.50482
▁Éirinn	-8.50639
us	-8.51102
▁speisialta	-8.51161
▁Oireachtais	-8.51298
▁N	-8.5207
▁V	-8.52087
▁poiblí	-8.52152
▁fógra	-8.52503
ard	-8.52505
U	-8.52565
▁chomhrá	-8.52566
▁rith	-8.52676
▁freagairt	-8.52935
▁(4)	-8.53064
▁mian	-8.5333
▁seirbhís	-8.53429
▁dhéanann	-8.53508
▁rialacha	-8.53671
▁Stát	-8.53689
á	-8.538
10	-8.53803
▁bia	-8.53886
▁Pharlaimint	-8.5412
▁deireadh	-8.54212
▁ansin	-8.54251
▁chlárú	-8.54252
▁sholáthar	-8.54359
ist	-8.5468
▁Ceisteanna	-8.54758
▁luach	-8.54759
▁bhrí	-8.54925
scríobh	-8.55056
▁réimse	-8.55083
w	-8.55363
▁Bhí	-8.56048
▁cuideachta	-8.56091
ca	-8.56175
▁uile	-8.56278
9	-8.56316
▁fhorbairt	-8.56368
sa	-8.56425
▁Dáil	-8.56526
óidh	-8.56547
▁In	-8.56616
aíonn	-8.56682
idh	-8.56757
ag	-8.56809
ip	-8.57077
▁baint	-8.57119
▁Ach	-8.57363
▁th	-8.58616
ála	-8.58874
▁leas	-8.58901
▁áitiúil	-8.58954
▁cuí	-8.58989
▁mura	-8.5907
▁30	-8.59111
▁cosúil	-8.59262
ite	-8.59401
▁údarás	-8.59957
ly	-8.60441
▁imeachta	-8.60824
▁Tithe	-8.60915
J	-8.60955
▁imirt	-8.61293
▁pearsanta	-8.61661
▁déanaí	-8.61671
▁bun	-8.61768
12	-8.61796
▁airgeadra	-8.62488
▁comh	-8.62499
▁Ó	-8.62557
aítear	-8.62579
air	-8.6312
cha	-8.63217
▁praghas	-8.63623
▁airgeadais	-8.64001
▁bunaithe	-8.64189
▁2016	-8.6424
▁Átha	-8.64347
▁ais	-8.64382
▁Gnóthaí	-8.64414
▁Parlaiminte	-8.64659
▁fiú	-8.64872
▁Aontas	-8.6501
▁rá	-8.65015
▁mír	-8.65325
v	-8.65671
ire	-8.65724
▁ort	-8.65836
ac	-8.65998
▁Catagóir	-8.66035
▁beag	-8.66156
▁teanga	-8.66445
▁Mí	-8.66551
▁aonair	-8.6714
▁Ballstáit	-8.67275
▁sheoladh	-8.67382
aois	-8.67383
cht	-8.67458
▁lán	-8.67765
▁W	-8.67838
▁gnó	-8.68223
▁roghnú	-8.68261
▁hiomlán	-8.6829
▁coinníollacha	-8.68375
sh	-8.68475
▁dtagraítear	-8.68553
▁Conas	-8.68669
▁K	-8.68775
▁gcomhréir	-8.68829
▁f	-8.6899
óir	-8.69454
▁shampla	-8.69476
ath	-8.69562
▁Cluichí	-8.69864
▁chosaint	-8.70035
▁domhain	-8.70084
▁roimhe	-8.70269
▁Níl	-8.70321
▁scéim	-8.70446
▁Cliath	-8.70501
▁gcéad	-8.70521
▁gceist	-8.70782
▁lú	-8.70797
▁21	-8.71017
▁os	-8.71473
▁measc	-8.71741
cháin	-8.7193
▁laghdú	-8.72137
▁cé	-8.72715
▁airgead	-8.72788
▁saol	-8.7279
▁tacaíocht	-8.72869
▁23	-8.73155
ers	-8.73396
íodh	-8.73413
▁dtaobh	-8.73964
▁Airgeadais	-8.74128
▁éifeacht	-8.74312
▁22	-8.74354
▁fh	-8.74449
▁cruach	-8.74708
▁scoil	-8.74712
CE	-8.74852
▁iúl	-8.75181
▁chás	-8.75261
▁táirge	-8.75517
20	-8.75547
▁dúinn	-8.75891
▁Cur	-8.76138
at	-8.76325
to	-8.76534
ill	-8.77199
eacht	-8.77207
▁faisnéis	-8.7731
▁gcoinne	-8.77781
imh	-8.77783
▁conas	-8.77806
▁Cad	-8.78269
▁príomh	-8.7844
▁eolais	-8.78498
ia	-8.78751
▁forálacha	-8.78811
ii	-8.78919
achta	-8.78921
▁leanaí	-8.79022
▁clár	-8.79055
▁ghnáth	-8.79104
▁25	-8.79127
▁breise	-8.79248
▁siúl	-8.79274
z	-8.79526
▁láithreach	-8.79935
▁Do	-8.80019
▁Éireann	-8.80045
▁Más	-8.80072
▁idirnáisiúnta	-8.80134
ófar	-8.80245
▁di	-8.80284
▁chroí	-8.80375
▁chuige	-8.80599
▁fé	-8.80988
▁teagmháil	-8.81167
fhonn	-8.81325
▁oiriúnach	-8.8139
▁sláinte	-8.8148
▁laghad	-8.81585
▁thaobh	-8.8169
▁inniu	-8.8169
▁for	-8.81769
▁deis	-8.81968
úil	-8.82115
▁lucht	-8.82407
▁chinntiú	-8.82531
▁ndiaidh	-8.82531
▁leagan	-8.82541
x	-8.82643
▁chruthú	-8.82685
ce	-8.82779
ro	-8.8285
▁Uimh	-8.82916
onn	-8.83014
▁tuilleadh	-8.83381
▁cinneadh	-8.83418
▁ph	-8.83443
▁cuireadh	-8.83506
ur	-8.83834
▁2013	-8.83893
▁bhealach	-8.83929
▁2015	-8.84064
▁nós	-8.84116
▁bearta	-8.84287
▁chineál	-8.84502
▁Chomh	-8.84548
▁aois	-8.84599
▁Seo	-8.84648
▁Bord	-8.84727
▁déanamh	-8.84785
▁rinneadh	-8.84824
▁Sláinte	-8.84991
▁—	-8.85042
▁dara	-8.85155
▁cad	-8.85345
▁Meán	-8.85476
ian	-8.85521
man	-8.8557
eadh	-8.85743
▁cánach	-8.86056
▁Cuntas	-8.86194
19	-8.86366
▁dtugtar	-8.86629
▁dhuine	-8.86656
fear	-8.86668
▁éasca	-8.86759
▁úsáidtear	-8.86764
uireann	-8.86918
▁córas	-8.86962
▁tír	-8.87051
j	-8.87198
An	-8.87231
▁cabhrú	-8.87629
eoidh	-8.87802
▁taighde	-8.87872
0	-8.88006
▁rochtain	-8.88605
▁ath	-8.89193
▁déanfar	-8.89326
▁Achta	-8.89648
▁'	-8.89679
ma	-8.89695
gt	-8.89816
▁tAcht	-8.8985
▁bunaidh	-8.89879
▁riachtanais	-8.89925
▁leanbh	-8.90119
▁2014	-8.90258
eachta	-8.90359
▁rinne	-8.90402
▁dhiaidh	-8.90673
▁Bain	-8.90831
▁Gach	-8.90898
▁Beal	-8.91312
▁(5)	-8.91358
▁léinn	-8.91733
imid	-8.91812
inn	-8.91879
óirí	-8.91932
15	-8.92086
▁chuideachta	-8.92103
▁Treoir	-8.92198
▁súil	-8.92284
▁ailt	-8.92393
sc	-8.92495
ru	-8.92596
▁margadh	-8.92871
▁Oifig	-8.9292
▁Ghaeilge	-8.92939
eacha	-8.92977
▁léi	-8.93002
ain	-8.9313
▁curtha	-8.93214
io	-8.93241
.”	-8.9328
▁soláthraí	-8.93342
▁mbliana	-8.93379
▁mhór	-8.93624
▁déan	-8.93647
▁bhonn	-8.93741
▁dhosmálta	-8.93816
▁Th	-8.93909
▁glacadh	-8.94059
úsáid	-8.9406
▁thíos	-8.94065
▁airde	-8.94099
X	-8.94162
aíocht	-8.94286
ri	-8.94478
uithe	-8.94791
▁mb	-8.94831
lu	-8.95351
▁domhan	-8.95354
▁freastal	-8.95381
▁rialú	-8.95631
▁Sonraí	-8.95802
▁talamh	-8.95847
▁comhlacht	-8.95975
▁catagóirí	-8.96029
11	-8.9605
▁sásta	-8.96196
▁seachas	-8.96519
▁tríú	-8.96601
▁leanúint	-8.9678
▁31	-8.9689
ile	-8.97025
▁forbairt	-8.97059
▁iarratais	-8.971
▁27	-8.97138
▁ábhartha	-8.97263
▁amhail	-8.97291
▁(32	-8.97335
▁Oideachais	-8.97473
▁choinneáil	-8.97558
▁nádúrtha	-8.97605
▁te	-8.97657
nó	-8.97802
▁Sh	-8.97837
▁fhios	-8.97927
ti	-8.97996
▁Saor	-8.98158
▁ábhair	-8.9817
amlíne	-8.98432
ail	-8.98464
▁ndéanfar	-8.98664
▁26	-8.987
me	-8.9873
▁Soláthraithe	-8.98811
▁the	-8.98844
co	-8.98858
et	-8.99149
▁comhrá	-8.99173
▁Gaeltachta	-8.99324
▁chomhlíonadh	-8.99541
ul	-8.99606
▁chuireann	-8.99611
Y	-8.99814
▁arís	-9.00012
lann	-9.0013
▁fhaisnéis	-9.00257
▁Ean	-9.00354
▁min	-9.00414
▁tús	-9.00476
▁Máirt	-9.00569
iúil	-9.00615
AE	-9.00658
▁cead	-9.00931
▁tapa	-9.00967
▁Faigh	-9.01031
údarás	-9.01172
▁istigh	-9.01311
▁fada	-9.0137
▁aird	-9.01543
▁torthaí	-9.01687
ábhar	-9.01884
▁28	-9.01941
▁rialacháin	-9.02329
▁scoile	-9.02358
▁liosta	-9.02473
▁sula	-9.02486
▁gurb	-9.0261
da	-9.02714
▁Ioncaim	-9.02716
go	-9.02752
▁ionas	-9.02999
load	-9.03008
▁nithe	-9.03252
▁comhalta	-9.03382
▁earraí	-9.03383
▁thoradh	-9.03495
ín	-9.03628
▁bhfad	-9.03643
▁clips	-9.03756
▁ama	-9.04241
▁Faoi	-9.04354
íocht	-9.04452
▁nóiméad	-9.04677
▁leasú	-9.04981
▁29	-9.0518
▁ginearálta	-9.05203
▁Úsáid	-9.05409
▁éigin	-9.05466
▁iníoctha	-9.05468
▁inar	-9.05471
eas	-9.0569
▁seirbhíse	-9.06208
▁Sceideal	-9.06403
▁mheas	-9.06549
▁déanfaidh	-9.06564
▁bharr	-9.06735
▁imeachtaí	-9.06853
▁tagairt	-9.06861
Airteagal	-9.06981
▁porno	-9.07257
▁níl	-9.07536
▁Aon	-9.07614
14	-9.0763
▁naisc	-9.07716
▁íseal	-9.07747
(1)	-9.07803
ton	-9.07928
▁iarracht	-9.07938
▁gníomhaíochtaí	-9.07972
▁lorg	-9.0803
um	-9.08087
▁sh	-9.08144
ke	-9.08285
▁airgid	-9.08299
do	-9.08422
▁deara	-9.08484
lo	-9.08825
and	-9.0884
▁Cluiche	-9.08847
▁faisnéise	-9.09118
▁úsáide	-9.09258
▁soláthar	-9.09429
ge	-9.0943
ot	-9.09444
▁cláraithe	-9.09469
▁minic	-9.09503
(	-9.09572
ent	-9.09628
▁gC	-9.09629
ice	-9.09641
▁cearta	-9.09647
▁tháinig	-9.0974
▁scríbhinn	-9.09911
▁dearadh	-9.09913
▁Tar	-9.10067
▁Comment	-9.10308
▁U	-9.10386
▁Meitheamh	-9.1045
16	-9.10501
▁chaitheamh	-9.10516
13	-9.1067
fh	-9.10678
▁sc	-9.11041
▁Eoraip	-9.11285
▁reatha	-9.11353
▁Eanáir	-9.11622
ation	-9.11691
▁Casino	-9.11899
▁dteideal	-9.11918
▁gh	-9.11984
▁mbun	-9.11984
▁J	-9.12129
▁ró	-9.12384
iom	-9.12559
▁Rialtais	-9.12773
▁riachtanach	-9.12867
▁Londain	-9.12915
▁bhf	-9.12998
▁chlár	-9.13106
▁Bealtaine	-9.13202
▁dar	-9.13212
▁gcrích	-9.13345
▁dath	-9.13416
▁scoileanna	-9.13593
▁tionchar	-9.13633
if	-9.1368
▁fheiceáil	-9.13783
▁Nollaig	-9.13815
aíodh	-9.13858
▁dhéantar	-9.13923
▁téarma	-9.13986
be	-9.14219
▁sraith	-9.1423
▁oifig	-9.14389
ab	-9.14462
▁taithí	-9.14503
▁shuíomh	-9.14558
▁Coimisinéirí	-9.14692
▁Contae	-9.14715
▁dhíol	-9.14726
▁chuir	-9.14813
▁Aghaidh	-9.14939
▁Dá	-9.1494
▁ea	-9.15109
▁chinneadh	-9.1524
▁aici	-9.15265
ón	-9.15349
son	-9.15378
▁ngach	-9.15422
Á	-9.15424
land	-9.1547
▁gCoimisiún	-9.15673
▁Re	-9.15702
▁Coiste	-9.15878
▁r	-9.15937
▁bheadh	-9.15999
amh	-9.1605
ph	-9.16068
▁modh	-9.16094
int	-9.1611
▁Maidir	-9.16117
om	-9.16221
mar	-9.1627
▁éileamh	-9.16322
▁tíortha	-9.16411
▁siúd	-9.16411
eofar	-9.1649
▁Bh	-9.16859
▁fanacht	-9.17017
▁rudaí	-9.17046
▁simplí	-9.17074
pe	-9.17127
Naisc	-9.17355
aire	-9.17471
▁Grúpa	-9.17519
▁íocaíocht	-9.17708
ord	-9.17745
▁ríomhaire	-9.17838
▁seoladh	-9.18159
ib	-9.18227
mo	-9.18301
ordú	-9.18626
▁mh	-9.18876
aid	-9.18906
▁meaisín	-9.18968
18	-9.18997
▁thart	-9.19034
▁2020	-9.19117
▁1.	-9.1946
▁dhéanfaidh	-9.19578
▁Á	-9.19594
▁deimhniú	-9.19647
▁anailís	-9.19783
▁gcomparáid	-9.19881
▁fáilte	-9.20033
▁páirt	-9.20035
▁Liosta	-9.20108
▁cás	-9.20127
▁Déanfar	-9.20234
▁choimeád	-9.20254
▁aistriú	-9.20275
24	-9.20359
▁húsáid	-9.2041
▁críche	-9.20497
éad	-9.20634
▁réiteach	-9.20663
▁malairte	-9.20689
▁Comh	-9.20803
▁áirithiú	-9.20811
▁ghabhann	-9.20972
mm	-9.21016
▁cuir	-9.21023
íoc	-9.21117
▁sóisialta	-9.21272
▁toisc	-9.21365
▁oifigeach	-9.21392
▁mná	-9.21908
▁monaróirí	-9.21967
ant	-9.21967
ang	-9.21999
▁dhearna	-9.22059
▁ndáiríre	-9.22367
▁scannáin	-9.22418
▁tacú	-9.22526
▁réamh	-9.22651
no	-9.22851
▁raon	-9.22905
▁Bhaile	-9.22999
▁leagtha	-9.22999
▁Meith	-9.23121
▁Feabh	-9.23125
▁dtaca	-9.23254
ut	-9.23383
▁tAontas	-9.23492
▁leagtar	-9.2365
▁thagann	-9.23964
▁Athraigh	-9.23993
▁tuarascáil	-9.24225
50	-9.24242
▁Aibreán	-9.24251
▁2012	-9.245
17	-9.2454
▁Tweetáil	-9.24868
▁Bainfi	-9.24926
▁tábhachtach	-9.25042
▁Scéim	-9.25118
▁forbartha	-9.2524
▁léamh	-9.25243
▁fén	-9.25243
▁oideachais	-9.25398
ocht	-9.25448
▁limistéar	-9.25607
og	-9.25738
▁freagrach	-9.25769
▁luath	-9.25876
00	-9.259
▁áitiúla	-9.25922
aíochta	-9.26126
▁ionann	-9.26182
▁saothair	-9.26288
age	-9.26778
▁thug	-9.26793
▁faoina	-9.2691
▁ghlac	-9.2697
▁Scoil	-9.27005
▁etc	-9.27371
▁chugainn	-9.27534
iv	-9.27625
▁2009	-9.27644
▁Díle	-9.27678
▁cosanta	-9.28035
▁earnáil	-9.28293
ity	-9.28337
▁óga	-9.28387
▁oibriú	-9.28398
ry	-9.28402
▁bhunú	-9.28445
▁ríomh	-9.28446
éar	-9.28585
▁mhéadú	-9.28601
▁Mór	-9.28628
▁thugann	-9.28773
▁trealamh	-9.28868
▁suim	-9.28918
▁ról	-9.28929
▁cuairt	-9.29002
▁tugadh	-9.29036
un	-9.29093
▁comhairle	-9.29406
lú	-9.29434
▁Chúirt	-9.29487
▁Ph	-9.29705
▁cosaint	-9.29719
▁thoil	-9.30008
tr	-9.30043
▁trádála	-9.3009
▁dháta	-9.30362
▁fáth	-9.30409
▁Feabhra	-9.30439
▁teideal	-9.30733
▁réidh	-9.30749
▁stíl	-9.31053
anta	-9.31065
▁lae	-9.31066
▁Físeáin	-9.31076
▁cion	-9.31178
▁fuair	-9.31281
▁cúig	-9.31549
nna	-9.31657
▁phobal	-9.31671
▁É	-9.31832
▁Ríocht	-9.32032
▁bhaile	-9.32266
22	-9.32286
▁Ealaíon	-9.32645
▁St	-9.32703
▁ráiteas	-9.32813
▁Chuid	-9.32929
▁soiléir	-9.32989
mobi	-9.33089
od	-9.33115
▁phoiblí	-9.33157
▁dochar	-9.33223
Í	-9.33231
▁ndéantar	-9.33333
▁léiriú	-9.33434
▁dt	-9.33485
▁iompar	-9.33526
▁chumhacht	-9.3355
íos	-9.33565
▁fear	-9.33616
▁spraoi	-9.33684
▁2011	-9.33705
▁snáithe	-9.33803
▁For	-9.33866
▁2.	-9.33874
▁(6)	-9.33973
▁álainn	-9.33986
▁bp	-9.34043
▁Seirbhísí	-9.3414
▁to	-9.34175
▁costais	-9.34324
ainneoin	-9.34393
éil	-9.34601
▁leanúnach	-9.34834
▁seomra	-9.34859
▁scileanna	-9.3505
▁neart	-9.35151
eal	-9.35152
▁100	-9.35221
óg	-9.35244
▁nár	-9.35282
▁dáileoir	-9.35285
▁Aib	-9.35288
▁roghanna	-9.35309
Déanfaidh	-9.35474
ise	-9.35475
▁leathan	-9.35491
lach	-9.35526
▁Líne	-9.3554
▁agam	-9.3557
▁€	-9.35726
30	-9.35756
▁e	-9.35801
di	-9.35816
▁chumas	-9.35915
ór	-9.35963
▁Taispeáin	-9.36002
▁Lún	-9.36002
▁dár	-9.3607
▁Rialacháin	-9.36183
oirí	-9.36516
▁phríomh	-9.36542
▁Choimisiún	-9.36726
▁údaráis	-9.36798
▁dteagmháil	-9.3709
▁sonraithe	-9.37095
▁Roimh	-9.371
▁Ná	-9.37165
▁thógáil	-9.37283
▁treoir	-9.37297
▁gnáth	-9.37319
fhéidir	-9.37424
▁crua	-9.37462
▁aer	-9.37517
▁méadú	-9.37675
ime	-9.3786
▁dí	-9.38182
▁sp	-9.38357
ille	-9.38451
▁chomhalta	-9.38489
▁dóigh	-9.38689
▁páistí	-9.38755
▁céim	-9.38789
▁mbíonn	-9.38878
▁fhágáil	-9.38935
artha	-9.39048
▁riamh	-9.39118
▁láidir	-9.39145
▁San	-9.39161
Tá	-9.3924
▁gnéithe	-9.39327
▁cén	-9.39461
▁bogearraí	-9.39492
21	-9.39606
▁Ina	-9.39613
▁cúram	-9.39745
▁fuinnimh	-9.39862
365.	-9.39863
▁tíre	-9.39945
ins	-9.40059
▁cionn	-9.40096
▁Phríomh	-9.40426
▁scaireanna	-9.40436
taí	-9.40453
▁MFómh	-9.40474
▁gcomhair	-9.40774
▁pé	-9.40784
▁deiridh	-9.40813
▁doiciméad	-9.40838
ga	-9.40911
▁meáchan	-9.41183
▁údaraithe	-9.41202
25	-9.41325
oibreoir	-9.41347
▁iompair	-9.41524
▁cumhachta	-9.41597
▁fola	-9.41622
▁Poiblí	-9.41755
▁cheangal	-9.41755
oll	-9.41755
▁re	-9.41801
▁Fáilte	-9.41853
▁cumas	-9.41918
lá	-9.41981
▁toiliú	-9.42062
▁Éire	-9.421
Fómh	-9.42246
▁Electronics	-9.42329
art	-9.42441
▁Údarás	-9.42449
▁chéanna	-9.42522
▁ghnó	-9.42646
▁athbhreithniú	-9.42946
▁beartaithe	-9.43029
tóir	-9.43199
net	-9.43331
▁Clár	-9.43536
▁páirteach	-9.43557
▁gclár	-9.43693
▁aidhm	-9.4379
oc	-9.43884
▁bhráid	-9.43888
▁Déantar	-9.43894
▁dom	-9.43916
▁foirne	-9.44074
ris	-9.44121
▁lasmuigh	-9.44269
▁Freagra	-9.44269
▁díol	-9.44282
▁barr	-9.44325
▁scrúdú	-9.44346
ailt	-9.44351
▁hAchtanna	-9.4448
▁faire	-9.44566
per	-9.44608
tais	-9.44657
▁chluiche	-9.44662
▁áfach	-9.44675
rú	-9.44837
▁Cathrach	-9.44948
▁Seol	-9.45006
▁frith	-9.45063
▁chúis	-9.45126
ive	-9.45138
▁Áitiúil	-9.45258
fho	-9.45311
▁fhógra	-9.45397
▁rún	-9.45459
▁cód	-9.46012
ba	-9.46044
▁Sóisialta	-9.46048
▁coitianta	-9.46248
▁costas	-9.4625
▁luaithe	-9.46278
▁Samh	-9.46404
▁Trádála	-9.46448
▁Sc	-9.46454
▁mion	-9.46492
óra	-9.46526
▁Forbartha	-9.46648
vi	-9.46751
ola	-9.46767
ibh	-9.46879
▁gcuideachta	-9.47
li	-9.47001
▁feabhas	-9.4705
▁fostaíochta	-9.47112
▁son	-9.47206
▁50	-9.47222
em	-9.47229
inne	-9.47411
▁Rialtas	-9.47495
AN	-9.47499
▁be	-9.47527
aimseartha	-9.47604
▁féadfar	-9.47664
▁measfar	-9.4767
▁Gaillimhe	-9.47687
▁Lúnasa	-9.48063
▁fás	-9.48105
▁Gh	-9.48289
▁Leanaí	-9.48323
▁post	-9.48384
▁díobh	-9.4843
▁réimsí	-9.48473
ka	-9.4851
▁éifeachtach	-9.48511
ver	-9.48587
▁cúnamh	-9.48674
▁ceallraí	-9.48687
▁chuirtear	-9.48735
our	-9.48742
▁seachtaine	-9.48792
▁Fh	-9.4884
▁comhaltaí	-9.48857
▁smaoineamh	-9.4888
thar	-9.48984
▁blianta	-9.49085
▁mba	-9.49095
▁gcomhairle	-9.4913
íon	-9.49135
tas	-9.4916
▁Dh	-9.4925
▁togra	-9.49283
▁mBallstát	-9.4929
▁próiseas	-9.4929
▁bhfoirm	-9.49313
▁2010	-9.49573
▁leabhar	-9.49694
▁Samhain	-9.49724
▁feidhmeanna	-9.49762
▁uirthi	-9.49798
ás	-9.49844
▁co	-9.49866
lí	-9.49888
▁téarmaí	-9.49907
gan	-9.5011
▁saoire	-9.50124
23	-9.50251
▁cuma	-9.50389
▁sábháilte	-9.50495
áit	-9.5052
▁ligean	-9.50734
▁nósanna	-9.51151
sp	-9.51288
▁phobail	-9.51372
▁talún	-9.51372
▁ola	-9.51392
▁fir	-9.51397
íochta	-9.51473
ty	-9.51492
▁soláthraithe	-9.51582
▁thaispeáint	-9.51595
▁Príomh	-9.518
▁SMS	-9.51827
▁gruaige	-9.51834
▁ndearnadh	-9.51844
ling	-9.51866
▁tháirgeadh	-9.52016
▁Leis	-9.52154
chta	-9.52258
▁3.	-9.52334
▁cúis	-9.52426
▁mBan	-9.52441
▁teach	-9.52491
iúla	-9.52563
▁dh	-9.52722
ate	-9.52823
ak	-9.52848
▁X	-9.52915
▁Mura	-9.52916
▁Idirnáisiúnta	-9.53069
▁tosaigh	-9.53069
▁ceadúnas	-9.53086
ré	-9.53114
▁tástála	-9.53266
▁saincheaptha	-9.53283
▁fheidhmiú	-9.53375
▁Mo	-9.53483
▁leath	-9.53543
ow	-9.53718
01	-9.53778
eo	-9.5383
▁kashtanka	-9.53928
▁faide	-9.53979
▁beo	-9.5404
▁leasa	-9.54091
▁uimhir	-9.54123
▁ré	-9.54129
▁tionscadal	-9.54144
▁teastáil	-9.54145
▁bhailiú	-9.54151
▁Dlí	-9.5418
▁rialta	-9.54382
ish	-9.54478
▁Nollag	-9.54593
▁Táirgí	-9.54679
▁feidhmiú	-9.5469
▁Leasú	-9.54722
▁theannta	-9.54796
ró	-9.54796
▁Dún	-9.5494
▁rátaí	-9.54956
▁bán	-9.55071
▁Ireland	-9.55152
▁grianghraif	-9.55231
▁seilbh	-9.55233
▁spreagadh	-9.55312
ies	-9.55313
▁Tú	-9.55421
▁chéim	-9.55449
▁bealach	-9.5545
▁anuas	-9.55466
▁bheas	-9.55486
▁meán	-9.55504
▁Óga	-9.55564
IS	-9.55615
▁Baineann	-9.55729
▁mac	-9.55746
ts	-9.55785
▁€1	-9.55819
fe	-9.55888
▁Eachtracha	-9.55891
▁breis	-9.55943
▁II	-9.56024
▁cóip	-9.56048
▁Gnéas	-9.56347
▁Me	-9.56466
ni	-9.56467
irí	-9.56472
eolas	-9.56515
ean	-9.56792
cuirfidh	-9.56826
▁brath	-9.56852
▁ullmhú	-9.56884
▁Lá	-9.56899
▁suite	-9.56972
▁cheapadh	-9.57026
▁óg	-9.57029
▁Bhord	-9.57097
▁dubh	-9.57219
▁siar	-9.5727
úla	-9.57425
▁milliún	-9.57444
▁fhoirm	-9.57453
able	-9.57567
▁cineálacha	-9.5762
▁gníomhú	-9.57623
▁st	-9.57652
▁rialachán	-9.57666
che	-9.57698
▁dtús	-9.57732
ide	-9.57851
ter	-9.58103
▁ceanglais	-9.5812
▁damáiste	-9.58169
▁deiseanna	-9.58171
▁grá	-9.58287
▁Déardaoin	-9.58339
ber	-9.58373
earraí	-9.58464
▁Níor	-9.58483
The	-9.58528
▁Parlaimint	-9.58629
▁Féadfar	-9.58658
▁cuirfea	-9.5868
▁dhéanfar	-9.5871
der	-9.58753
▁Gaillimh	-9.58756
▁ndéanfaidh	-9.58791
▁oscailte	-9.58826
▁cúrsaí	-9.5894
org	-9.58942
▁oiread	-9.59017
▁acmhainní	-9.59183
oil	-9.59205
raí	-9.59343
▁chaoi	-9.59506
▁Moncler	-9.59529
est	-9.59598
▁scéal	-9.59908
▁deimhin	-9.5993
▁maoiniú	-9.60051
Is	-9.60058
▁Ollscoil	-9.60107
▁tacaíochta	-9.60144
íní	-9.60188
▁Vicipéid	-9.60389
▁bhua	-9.60391
▁gníomh	-9.60413
ell	-9.6045
▁Cho	-9.60503
airí	-9.6064
ick	-9.60668
▁mB	-9.60678
▁éadaí	-9.60725
▁Ma	-9.60818
▁sean	-9.60818
▁Seinn	-9.60861
ha	-9.60933
▁2008	-9.60935
▁me	-9.60952
▁dírithe	-9.61326
▁Léir	-9.61443
▁rialaithe	-9.61462
▁Su	-9.61596
▁fostaithe	-9.61609
▁ceaptha	-9.61787
▁ceisteanna	-9.62264
▁Dara	-9.62474
▁téacs	-9.62868
▁Seirbhís	-9.62984
▁video	-9.63154
lena	-9.63169
▁oíche	-9.63191
dá	-9.63205
eir	-9.63218
ora	-9.63317
oth	-9.63376
▁ioncam	-9.63478
ost	-9.63485
▁lenár	-9.63513
tion	-9.63617
▁abairt	-9.63667
▁tionscadail	-9.63902
ko	-9.63954
ós	-9.6398
▁Ionad	-9.64024
▁shocrú	-9.641
▁Dubh	-9.64153
▁Sean	-9.64178
omh	-9.64205
▁chosc	-9.64293
tal	-9.64329
▁Táimid	-9.64353
▁iontu	-9.64385
▁100%	-9.64397
▁Mh	-9.64415
▁Uimhir	-9.64579
▁measúnú	-9.6462
▁Choiste	-9.64631
▁Chonradh	-9.6486
▁doiciméid	-9.6486
▁comhaontú	-9.64863
ara	-9.64897
ap	-9.64997
▁oideachas	-9.65049
▁im	-9.65057
▁Cliceáil	-9.65102
irt	-9.65106
▁gcur	-9.65182
▁fhoghlaim	-9.65192
news	-9.6532
▁bpraghas	-9.65343
▁cláir	-9.6536
▁gheobhaid	-9.65442
▁tuairim	-9.65546
▁mhaithe	-9.65572
▁staid	-9.65581
▁tugtha	-9.65585
▁tseirbhís	-9.65663
▁gníomhartha	-9.65665
▁Cruach	-9.65674
▁Cánach	-9.65676
▁dea	-9.65714
éir	-9.65772
▁Béarla	-9.65781
▁dromchla	-9.65827
ama	-9.65845
▁feiceáil	-9.66072
fa	-9.6608
▁leighis	-9.66085
▁clárú	-9.66146
▁comhlachtaí	-9.6618
▁líonadh	-9.66247
▁oiliúna	-9.66284
▁gcásanna	-9.66419
▁ghairm	-9.66528
▁bhféadfadh	-9.6656
ár	-9.66743
▁tóir	-9.66758
▁pobail	-9.66806
car	-9.66815
▁ceithre	-9.66835
ll	-9.66874
▁stiúir	-9.67052
iar	-9.67172
▁Cuid	-9.67246
▁caillteanas	-9.67296
▁seasamh	-9.67297
isc	-9.6732
É	-9.67444
áilte	-9.6748
▁o	-9.67487
▁Scileanna	-9.67543
▁teaghlaigh	-9.67543
▁Mórdhíol	-9.67546
▁v	-9.67645
▁beartais	-9.67759
07	-9.67789
▁cuntas	-9.67806
▁reachtaíocht	-9.67813
IT	-9.6782
▁shlí	-9.67841
▁br	-9.67862
▁tharraingt	-9.67866
▁Tuarascáil	-9.67898
aithfidh	-9.67989
▁caite	-9.67999
▁tuiscint	-9.6804
▁cúpla	-9.68288
▁mórdhíola	-9.68288
▁ainmnithe	-9.68307
▁oscailt	-9.68323
▁sampla	-9.68367
Moncler	-9.68475
▁sain	-9.68478
▁beaga	-9.68515
▁Déagóirí	-9.68537
éal	-9.68634
fhéadfaí	-9.6879
▁gabháil	-9.68793
bo	-9.68919
▁ceamara	-9.69042
▁iar	-9.69044
éid	-9.69061
ER	-9.69078
▁teocht	-9.69144
▁gcomh	-9.69236
▁thairiscint	-9.69289
▁gceann	-9.693
▁thuas	-9.69312
ana	-9.69399
05	-9.69461
▁Factory	-9.69541
▁Cúirte	-9.69546
▁solas	-9.69569
▁dearg	-9.69726
cl	-9.69756
nach	-9.69766
úcháin	-9.69803
▁oifigiúil	-9.69815
▁iniúchadh	-9.69883
▁lámh	-9.69889
ct	-9.69907
up	-9.69924
▁déag	-9.70013
▁foghlaim	-9.70041
▁ollmhór	-9.70047
▁amuigh	-9.70049
▁Súil	-9.7005
▁infheidhme	-9.70304
▁tharlaíonn	-9.70373
▁eagraíocht	-9.704
▁achomharc	-9.70466
▁chatagóir	-9.70484
▁Noll	-9.705
▁liúntas	-9.7055
▁Theas	-9.70648
vo	-9.70663
ong	-9.70663
▁gcomhar	-9.70672
▁ngníomh	-9.70677
▁múinteoirí	-9.70691
▁slí	-9.70732
ial	-9.70744
och	-9.70819
op	-9.70842
▁bhreise	-9.70994
íoch	-9.71004
▁mhargadh	-9.71027
▁Gan	-9.71052
▁comhair	-9.71125
▁struchtúr	-9.71195
▁ngleic	-9.71322
In	-9.71344
▁(7)	-9.71437
pa	-9.7149
fhiosrúchán	-9.71493
▁on	-9.71514
he	-9.71568
▁ghearradh	-9.7161
iii	-9.71828
▁fhaigheann	-9.71837
▁buan	-9.71838
▁ndaoine	-9.7185
▁ionstraim	-9.71943
▁gcuirfea	-9.72023
▁Céadaoin	-9.72096
▁chinn	-9.72137
▁slán	-9.72138
▁NA	-9.72158
▁teicneolaíocht	-9.72166
▁dearmad	-9.72355
▁flash	-9.72358
ay	-9.72488
):	-9.72531
▁trína	-9.7256
▁mhaoin	-9.72574
tin	-9.72595
▁pictiúir	-9.72614
▁pornhub	-9.72614
min	-9.72823
▁foirm	-9.72856
▁Choimisiúin	-9.72874
▁2007	-9.72914
▁Siar	-9.72966
▁léiríonn	-9.73061
▁w	-9.73072
ki	-9.73111
▁brú	-9.73132
▁phróiseáil	-9.73136
▁gceart	-9.73153
▁staidéar	-9.73215
▁dtáirgí	-9.73397
▁trádáil	-9.73507
▁cheist	-9.73635
▁Li	-9.73744
02	-9.73748
irg	-9.7386
▁eacnamaíoch	-9.73911
▁uathúil	-9.73923
,000	-9.73944
rá	-9.74106
RA	-9.74115
ment	-9.74126
▁foirfe	-9.74187
▁grianghraf	-9.74227
▁móra	-9.74274
▁ham	-9.74308
▁éisteachta	-9.74356
▁cruinniú	-9.74483
▁Sp	-9.74634
▁cairde	-9.74673
ochta	-9.74693
▁cuidiú	-9.74699
▁araon	-9.74708
chán	-9.748
▁glan	-9.74812
AR	-9.74866
▁plé	-9.74877
ous	-9.7489
▁beagnach	-9.75006
▁cumhacht	-9.75104
▁Se	-9.75206
▁gcóras	-9.75251
▁bhreis	-9.75324
ob	-9.75352
▁seach	-9.75382
▁cuspóirí	-9.75458
cho	-9.75489
▁páirtithe	-9.75609
▁tí	-9.75709
▁riaracháin	-9.75785
▁héasca	-9.75808
▁La	-9.75882
0,000	-9.75903
ja	-9.75982
▁adhmaid	-9.76055
ny	-9.76163
▁lár	-9.76172
▁Fo	-9.7622
▁uathoibríoch	-9.76386
au	-9.76488
▁Roinne	-9.76529
▁stair	-9.7662
oo	-9.76667
▁Oidhreachta	-9.76683
con	-9.76869
▁ord	-9.7696
ster	-9.77082
▁Seirbhíse	-9.77089
LA	-9.77115
▁todhchaí	-9.77129
▁orainn	-9.77139
▁cáin	-9.77209
▁oiliúint	-9.77243
▁aistrithe	-9.77248
▁leibhéil	-9.7729
06	-9.77388
▁théann	-9.77409
▁Ábhar	-9.77415
▁thugtar	-9.77452
ness	-9.77537
ho	-9.77575
▁Dhún	-9.77682
”.	-9.77755
▁luas	-9.77879
ina	-9.77917
▁gcion	-9.77962
▁páirtí	-9.77983
▁Be	-9.78113
▁gáis	-9.78167
▁có	-9.78222
▁Chontae	-9.7823
▁Éabhlóid	-9.7823
▁mheán	-9.78232
▁labhairt	-9.78246
▁éisteacht	-9.78282
éis	-9.78343
▁áitreabh	-9.78362
▁Mac	-9.784
▁iasacht	-9.78502
▁tráchtála	-9.78515
▁nGall	-9.78515
▁húdaráis	-9.78535
▁branda	-9.78539
mhar	-9.78585
▁gairmiúla	-9.78607
▁ioncaim	-9.78607
▁Eo	-9.78663
▁taitneamh	-9.78705
▁ísle	-9.78784
▁chóras	-9.78816
▁daltaí	-9.78855
raithe	-9.78884
▁mm	-9.78979
▁sperm	-9.79059
▁Ciste	-9.79085
▁grúpa	-9.79092
▁fhoráil	-9.79156
▁pro	-9.79164
▁Bille	-9.79177
▁Bia	-9.79361
▁gearr	-9.79379
▁scoir	-9.79438
▁fu	-9.79439
▁Ath	-9.7949
tv	-9.7951
▁dhí	-9.79661
04	-9.79812
▁deartha	-9.7985
▁miotail	-9.79895
Roghchlár	-9.79895
▁friotaíocht	-9.79895
▁Cláraigh	-9.79955
▁modhanna	-9.80003
IR	-9.80005
▁caighdeáin	-9.80175
bra	-9.80267
▁déantar	-9.80331
▁hordú	-9.80356
▁bosca	-9.80512
▁sochair	-9.8076
▁Alt	-9.80763
anúint	-9.80825
▁nd	-9.80828
▁Leas	-9.80941
ich	-9.80946
mer	-9.81023
▁fadhbanna	-9.8104
▁Tits	-9.81068
▁eagraíochtaí	-9.81069
hi	-9.81102
aint	-9.81107
▁baile	-9.81194
ní	-9.81252
▁Tabharfa	-9.81326
▁bhain	-9.81349
▁bás	-9.81425
▁Síne	-9.81439
eoir	-9.81483
▁Te	-9.81537
ait	-9.81559
tu	-9.8157
mb	-9.81726
▁monarcha	-9.81829
▁l	-9.81872
▁sreang	-9.81872
▁sheachaint	-9.81873
▁Eorpacha	-9.81875
tí	-9.81892
eamh	-9.81925
▁óir	-9.81951
▁”	-9.8232
▁sheol	-9.82404
▁Ballstát	-9.82445
ata	-9.82449
▁sonrach	-9.82534
▁chóipeáil	-9.82573
ras	-9.82669
▁asal	-9.82683
RE	-9.82689
tra	-9.82764
▁comhaid	-9.82766
▁scéalta	-9.82804
san	-9.82825
so	-9.82923
▁mhalairt	-9.8302
▁laethanta	-9.83021
▁Tabhair	-9.83055
▁míreanna	-9.83129
▁hearraí	-9.83144
▁baill	-9.83183
▁toradh	-9.83311
▁socruithe	-9.83313
▁traidisiúnta	-9.83322
▁timpeall	-9.83353
▁sprioc	-9.83354
▁Con	-9.83542
▁farraige	-9.83599
▁forleathan	-9.83601
▁Leasa	-9.83611
▁Car	-9.83617
▁chustaiméirí	-9.83632
▁chúirt	-9.83636
▁uait	-9.83694
▁cásanna	-9.83707
▁teorainn	-9.83707
▁%	-9.83795
▁spás	-9.83844
ex	-9.83879
▁aithint	-9.83891
Le	-9.83898
▁shonraítear	-9.83931
▁Ro	-9.84034
iam	-9.84088
IO	-9.8414
▁tionscal	-9.84181
▁lonnaithe	-9.84181
▁mBord	-9.84194
▁nochtadh	-9.842
▁luaitear	-9.84208
las	-9.84232
va	-9.84258
of	-9.84292
▁fhoireann	-9.84318
agann	-9.84398
▁spóirt	-9.84474
▁tástáil	-9.84536
▁pleanála	-9.8455
▁oifige	-9.8462
▁Oideachas	-9.84627
▁leabhair	-9.84645
▁Y	-9.84652
ah	-9.84733
▁gairmiúil	-9.84772
Ó	-9.8493
ack	-9.84931
▁íocaíochtaí	-9.84993
▁40	-9.85026
▁To	-9.85055
▁aimsiú	-9.85061
▁teasa	-9.85092
▁neamhspleách	-9.85111
▁foráil	-9.85124
TA	-9.85227
ud	-9.8524
▁cailíní	-9.85302
áis	-9.8536
▁dúirt	-9.85468
▁sábháilteachta	-9.85484
▁tagairtí	-9.85601
Ch	-9.85625
lin	-9.85686
▁tuairisc	-9.85701
ead	-9.85715
▁bord	-9.85734
ala	-9.85816
▁suntasach	-9.85825
▁ng	-9.85859
▁Bhoird	-9.85948
ige	-9.85988
▁himeachtaí	-9.86012
jo	-9.86025
▁Monarcha	-9.86246
▁inár	-9.86247
▁níor	-9.86277
▁taispeáint	-9.86288
▁éifeachtaí	-9.86292
ger	-9.86348
mon	-9.86474
▁críoch	-9.86475
ci	-9.86477
▁ainmhithe	-9.86589
▁scríobh	-9.86641
hu	-9.86722
▁cáilithe	-9.86724
60	-9.86787
Uimh	-9.86794
▁Dúin	-9.86922
▁meas	-9.87039
▁gníomhach	-9.87081
one	-9.87106
▁Gréasáin	-9.87144
▁ndóigh	-9.87144
▁theacht	-9.87199
▁Dia	-9.87293
▁iontaofa	-9.87324
▁Eolas	-9.87452
▁lárnach	-9.87457
SA	-9.8746
▁cailín	-9.87513
▁eisiúint	-9.87561
."	-9.8757
▁réasúnach	-9.87632
▁Fe	-9.87658
▁Act	-9.87713
▁slándála	-9.87748
▁chomhaontú	-9.87764
▁poist	-9.87765
03	-9.87858
▁Trí	-9.87896
▁con	-9.87954
▁thréimhse	-9.88047
▁Speisialta	-9.88051
▁Síochána	-9.88051
▁phróiseas	-9.88054
ES	-9.88054
▁la	-9.88087
▁réitigh	-9.88098
▁Nuacht	-9.88117
tach	-9.88207
▁.—	-9.88269
▁bhean	-9.88316
orálacha	-9.88354
▁shonraí	-9.88404
uk	-9.88462
▁moltaí	-9.88471
oifigeach	-9.88513
we	-9.88623
▁fianaise	-9.88659
▁uaireadóirí	-9.8866
▁cliceáil	-9.8866
eoirí	-9.88815
▁Ár	-9.88861
Ú	-9.88927
ON	-9.88943
IN	-9.88963
▁tsórt	-9.88965
▁gCuid	-9.88968
▁leathnú	-9.88973
▁stóráil	-9.88986
▁socrú	-9.89208
mp	-9.89248
tóirí	-9.8927
▁mbealach	-9.89272
▁íocaíochta	-9.8939
▁foireann	-9.8958
▁bhainistiú	-9.89586
▁chorp	-9.89608
▁Déantóirí	-9.89638
▁ghabháil	-9.89657
▁Táirge	-9.89852
▁samplaí	-9.89885
▁shaol	-9.89939
▁Gnó	-9.89989
ai	-9.90011
▁láimh	-9.90157
▁úr	-9.90209
chaighdeán	-9.90246
bíonn	-9.90409
agus	-9.90434
tre	-9.90435
▁mhéad	-9.90454
40	-9.90484
▁shábháil	-9.90492
▁choinníoll	-9.90494
▁tairbhe	-9.90509
▁tuairimí	-9.90558
▁New	-9.90589
cuirtear	-9.90609
▁cháin	-9.90653
▁éirí	-9.90703
les	-9.90743
▁compordach	-9.9082
▁bainte	-9.90863
AS	-9.9092
ier	-9.90967
mu	-9.91042
(2)	-9.91095
▁Hardcore	-9.91133
▁Tags	-9.91136
FC	-9.91145
▁OÉ	-9.9116
▁leithéid	-9.91222
Re	-9.91351
▁córais	-9.91467
rian	-9.91482
▁dtreo	-9.91559
▁chearta	-9.91646
▁ion	-9.91663
ron	-9.91699
▁riachtanas	-9.91761
▁domhanda	-9.91799
▁cuspóir	-9.91829
iún	-9.91949
▁focail	-9.92076
80	-9.92117
▁áiteanna	-9.92119
ance	-9.92197
▁dathanna	-9.92204
▁Aibí	-9.92284
▁leictreach	-9.92349
ence	-9.92396
▁cónaí	-9.92402
▁hábhair	-9.92439
▁beart	-9.92511
ov	-9.92547
▁leictreonach	-9.92551
▁chó	-9.92659
▁léas	-9.92716
▁Uisce	-9.92716
▁Oifigiúil	-9.92743
airgeadraí	-9.92759
▁cáilíocht	-9.9282
▁ndéanann	-9.92857
▁buntáistí	-9.93028
▁fuaime	-9.93084
▁Fostaíochta	-9.93086
▁Cás	-9.93142
▁réasúnta	-9.93325
▁caitheamh	-9.93365
▁scriosadh	-9.93369
▁dhíth	-9.93392
▁tharla	-9.93395
ub	-9.93432
▁rannpháirtíocht	-9.93435
ná	-9.93459
▁Fearr	-9.9348
▁deich	-9.93486
▁parlaiminteach	-9.93506
▁Oibre	-9.9354
Co	-9.93558
▁cu	-9.93645
▁sheachadadh	-9.93668
▁gearán	-9.93669
▁Praghas	-9.93722
▁thosaigh	-9.93727
▁tuismitheoirí	-9.93759
▁caithfidh	-9.93762
▁réigiún	-9.93854
pi	-9.93945
mi	-9.93952
▁sibhialta	-9.9399
▁déileáil	-9.9399
▁Pobail	-9.93991
CC	-9.94057
▁cho	-9.94067
ús	-9.94112
▁tháirgí	-9.94145
▁taifead	-9.94181
cal	-9.94272
▁tÚdarás	-9.94343
▁gcuirtear	-9.94353
▁Faisnéise	-9.9446
▁cathracha	-9.94578
sk	-9.9458
▁céad	-9.94618
▁Meaisín	-9.94636
▁Ltd	-9.94637
▁aitheanta	-9.94697
100	-9.94861
▁bliantúil	-9.94961
▁bunaíodh	-9.95001
▁Black	-9.95103
▁athruithe	-9.95166
sta	-9.95286
▁Thosaitheoirí	-9.95287
▁bpróifíl	-9.95287
▁hAoine	-9.95287
▁Taighde	-9.95287
▁Aisce	-9.95346
óin	-9.95347
▁2003	-9.95357
▁ardchaighdeán	-9.95381
▁mic	-9.95381
iarr	-9.95387
▁tu	-9.95444
eis	-9.95478
▁ball	-9.95659
gu	-9.95679
▁se	-9.95846
▁plandaí	-9.95968
▁Institiúid	-9.96044
den	-9.96044
ros	-9.96104
▁fios	-9.96175
▁triail	-9.96203
aidh	-9.96243
bi	-9.96253
▁stoc	-9.96269
▁siopa	-9.96355
▁Céim	-9.96421
▁cheadú	-9.9644
▁inmheánach	-9.96449
08	-9.96464
▁tosú	-9.96604
▁dócha	-9.96732
▁Bun	-9.96788
▁úsáideann	-9.96825
gra	-9.96852
aim	-9.9687
▁foghlama	-9.96931
▁inbhuanaithe	-9.96937
▁straitéis	-9.97048
ual	-9.97079
▁faighte	-9.97094
▁táimid	-9.97128
▁Astráil	-9.97264
▁chothabháil	-9.97264
▁thuilleadh	-9.97266
▁Google	-9.97403
port	-9.97412
▁Cabhair	-9.97446
▁cheantar	-9.97523
▁po	-9.97534
▁táille	-9.97568
achas	-9.97742
▁ardú	-9.97773
▁phost	-9.97823
▁phraghas	-9.97863
▁He	-9.97882
▁lig	-9.97908
▁Suíomh	-9.97931
▁fhoilsiú	-9.97932
▁pointe	-9.97941
▁lo	-9.98008
AL	-9.98055
▁li	-9.9809
▁AN	-9.98138
▁chríoch	-9.98227
▁Chosaint	-9.98267
▁shóisialta	-9.98267
▁Dollar	-9.98267
▁gúna	-9.98271
▁Am	-9.98416
▁infheistíochta	-9.98454
▁gluaiseacht	-9.98549
▁Réigiún	-9.9855
óid	-9.98556
▁fíneáil	-9.98604
▁soláthróirí	-9.98659
óga	-9.98687
▁smaointe	-9.987
achán	-9.98736
EA	-9.98749
my	-9.98869
▁4.	-9.99147
▁institiúidí	-9.9919
▁Jackets	-9.99195
▁reáchtáil	-9.9928
▁shuiteáil	-9.99281
▁hamháin	-9.99281
áiste	-9.99327
▁ceol	-9.99407
uair	-9.99448
lia	-9.995
po	-9.99614
▁So	-9.99665
▁Sin	-9.99686
éim	-9.9973
▁líonra	-9.99753
éin	-9.99786
▁aisíoc	-9.99828
▁Daoine	-9.99836
▁éagsúlacht	-9.99903
▁dheireadh	-9.99962
▁ndéanamh	-9.99965
▁Chéad	-10.0002
▁plean	-10.0003
▁Hot	-10.0006
si	-10.0006
naithe	-10.0013
ont	-10.0016
SE	-10.0016
▁orduithe	-10.0018
▁Idir	-10.0019
▁cinntí	-10.0021
▁aice	-10.0022
▁Forbairt	-10.003
official	-10.0031
▁dearbhú	-10.0036
▁táillí	-10.0039
AP	-10.0043
▁árachais	-10.007
▁Ceann	-10.007
▁As	-10.0076
éard	-10.0087
▁su	-10.0095
▁gloine	-10.0099
▁maoin	-10.0099
▁mothú	-10.0101
TE	-10.0102
chtaí	-10.0108
ions	-10.0109
▁difriúil	-10.0111
▁bíodh	-10.0114
▁lámha	-10.0128
nú	-10.0131
▁cónaithe	-10.0131
▁Thuaidh	-10.0134
áth	-10.014
▁arb	-10.0142
úirt	-10.0146
▁bonn	-10.0147
CA	-10.0164
▁Teanga	-10.0167
▁bog	-10.0168
▁Video	-10.0169
du	-10.0171
28	-10.0174
ley	-10.0175
▁leathanaigh	-10.0177
aw	-10.0181
chlár	-10.0187
ker	-10.0188
35	-10.0188
▁k	-10.0204
▁beatha	-10.0204
▁Talmhaíochta	-10.0211
inse	-10.0214
▁Sraith	-10.0216
▁dlite	-10.0226
▁fheidhm	-10.0229
chan	-10.0235
▁cuntais	-10.0238
▁tionscail	-10.0238
▁contae	-10.0238
iste	-10.0239
▁Ta	-10.024
▁cuideachtaí	-10.0242
▁éag	-10.0248
ís	-10.0252
09	-10.0258
▁hiarratas	-10.0259
▁Barr	-10.0264
▁choiste	-10.0273
▁Tugtar	-10.0273
▁teoranta	-10.0273
▁bpróiseas	-10.0274
▁ghnóthú	-10.0274
▁caiteachas	-10.0274
▁imní	-10.0275
▁Stiúrthóir	-10.0282
▁riosca	-10.0287
▁cumhachtaí	-10.0291
▁lua	-10.0295
▁Pro	-10.0303
▁Iris	-10.0305
▁Iar	-10.0305
▁tíotáiniam	-10.0309
su	-10.031
De	-10.0313
log	-10.0313
ria	-10.0328
q	-10.0333
ism	-10.0334
▁sábháilteacht	-10.0336
úint	-10.0339
▁mban	-10.0341
▁Threesome	-10.0344
oifig	-10.0344
▁stát	-10.0346
▁deas	-10.0347
▁ceist	-10.0356
▁neartú	-10.0369
▁News	-10.0373
▁Ráiteas	-10.038
▁meáchain	-10.038
▁pacáiste	-10.038
▁sheiceáil	-10.038
ans	-10.0382
▁Phen	-10.0386
▁Seoladh	-10.0389
sha	-10.039
▁Anois	-10.0397
ary	-10.0403
▁fón	-10.0412
▁rachaidh	-10.0416
AI	-10.042
▁cruinn	-10.0422
▁imeacht	-10.043
arm	-10.0447
line	-10.0449
▁chontae	-10.0451
▁fhadhb	-10.0451
▁bhforáiltear	-10.0451
▁phearsanta	-10.0455
wa	-10.0457
US	-10.0467
▁Im	-10.0468
▁chomhlacht	-10.0475
za	-10.0478
airt	-10.0478
▁bpointe	-10.0487
▁taisteal	-10.0487
▁monatóireacht	-10.0487
▁turas	-10.0487
ya	-10.0489
▁casta	-10.0491
▁dhó	-10.0494
apa	-10.0496
▁English	-10.0497
▁cárta	-10.0498
aistriú	-10.05
lan	-10.0515
▁bpobal	-10.0523
▁méadar	-10.0525
EC	-10.0557
▁breá	-10.0559
▁mBaile	-10.0559
tic	-10.0563
▁talmhaíochta	-10.057
less	-10.057
▁chead	-10.0571
▁mhonarcha	-10.0571
ner	-10.0573
fi	-10.0577
▁chláir	-10.0581
▁and	-10.0581
▁lear	-10.0584
AD	-10.0585
▁mhodh	-10.059
▁Phoiblí	-10.0595
▁National	-10.0598
▁difear	-10.06
lic	-10.0603
▁University	-10.0614
▁ghníomh	-10.0618
▁Play	-10.0618
unt	-10.0622
▁pinsin	-10.0631
▁meáin	-10.0638
Óglaigh	-10.0639
▁III	-10.0643
ME	-10.0645
Ar	-10.0647
phost	-10.0648
▁coiste	-10.0653
▁taisce	-10.0658
▁Pa	-10.0663
▁grúpaí	-10.0664
cre	-10.0664
▁sealadach	-10.0668
▁thuras	-10.067
▁timpeallacht	-10.067
▁ghairmiúil	-10.067
aill	-10.0675
26	-10.0687
▁beagán	-10.0688
▁2006	-10.0697
▁dteannta	-10.0704
▁ndéanfaí	-10.0705
▁Stair	-10.0716
▁Foirm	-10.0719
▁cheap	-10.072
cair	-10.0735
▁Tarraing	-10.0741
que	-10.0742
ee	-10.0747
dy	-10.0749
fháil	-10.0751
▁íoctha	-10.0758
ons	-10.076
▁720	-10.0762
nithe	-10.0765
▁muirear	-10.0777
▁tsuim	-10.0778
▁Teach	-10.0779
▁acmhainn	-10.0781
▁cúrsa	-10.0792
▁ha	-10.0797
▁liúntais	-10.08
▁Tu	-10.08
úradh	-10.0813
▁pinsean	-10.0815
▁tirim	-10.0816
▁Cailíní	-10.0822
▁ócáid	-10.0829
ili	-10.083
▁60	-10.0832
rit	-10.0844
▁teagmhála	-10.085
OS	-10.0852
▁éascú	-10.0852
áid	-10.0853
▁infheistíocht	-10.0864
tur	-10.0865
▁tairiscint	-10.0865
líne	-10.0866
ham	-10.0872
▁iarr	-10.0872
ID	-10.0873
▁Mheiriceá	-10.0875
▁beartas	-10.0878
▁deireanach	-10.089
▁pobal	-10.089
oireacht	-10.0893
ram	-10.0898
chas	-10.0899
▁uirlis	-10.0902
▁ciontach	-10.0902
rm	-10.0904
▁strap	-10.0911
45	-10.0921
▁fuck	-10.0923
tor	-10.0924
▁mhic	-10.0927
▁pictiúr	-10.0927
▁Dearadh	-10.0927
▁fuarthas	-10.0928
▁chothú	-10.0929
▁ceadaithe	-10.094
▁fhorálacha	-10.0943
▁Éireannach	-10.0951
▁@1	-10.0952
Mar	-10.0952
▁maoine	-10.0953
.00	-10.0954
SC	-10.0962
▁bealaí	-10.0965
▁orm	-10.0966
▁chuirfidh	-10.0973
▁próiseála	-10.0978
▁ma	-10.0978
mat	-10.098
▁(8)	-10.098
▁lean	-10.0987
gar	-10.0991
▁Chiste	-10.0996
▁glas	-10.0998
▁€2	-10.1002
▁ghrúpa	-10.1004
▁gcaoi	-10.1004
ok	-10.1023
▁saille	-10.1033
▁láimhe	-10.1034
▁laethúil	-10.104
▁linbh	-10.104
▁éineacht	-10.104
▁aeráide	-10.1046
▁ealaíne	-10.1049
▁scaoileadh	-10.105
rach	-10.1053
ff	-10.1063
27	-10.1063
▁sonracha	-10.1068
▁conradh	-10.1078
tabharfaidh	-10.108
▁thiar	-10.1082
▁scála	-10.1088
har	-10.109
▁príomha	-10.1094
▁idirlín	-10.11
▁chion	-10.11
▁macasamhail	-10.1119
▁cabhair	-10.112
▁cúirte	-10.1121
▁teicneolaíochta	-10.1125
▁nglacfa	-10.1127
▁comhar	-10.1134
▁ngair	-10.1139
▁deacair	-10.1142
▁tionscnamh	-10.1144
airgead	-10.1149
iz	-10.115
▁láithreáin	-10.1155
▁Crua	-10.1155
▁rathúil	-10.1156
▁Ansin	-10.1158
achtaí	-10.1161
▁stádas	-10.1163
▁gné	-10.1166
▁cóir	-10.1168
▁scéimeanna	-10.1171
ec	-10.1174
▁Ra	-10.1176
éileamh	-10.118
ys	-10.1181
▁Post	-10.1191
PS	-10.1191
▁taifid	-10.1193
▁Bónas	-10.1193
▁uaireanta	-10.1193
king	-10.1195
ada	-10.1211
laigh	-10.1218
ng	-10.1224
▁comhionann	-10.1227
▁Straitéis	-10.1235
AC	-10.1239
by	-10.1245
Leasú	-10.1259
▁bua	-10.1262
▁plaisteach	-10.1268
▁thosach	-10.1271
▁Bí	-10.1274
▁Uachtarán	-10.13
99	-10.1304
TS	-10.1304
▁2000	-10.1305
90	-10.1307
▁ca	-10.1308
▁Gharda	-10.131
▁Al	-10.131
▁cartlann	-10.1311
Na	-10.1316
eit	-10.1326
▁bainistíochta	-10.1332
St	-10.1333
▁páipéar	-10.1334
pp	-10.1342
▁méideanna	-10.1345
▁fuar	-10.1346
▁scoláirí	-10.1349
ve	-10.135
▁rannpháirteach	-10.1353
eora	-10.1356
▁céimeanna	-10.1356
▁incháilithe	-10.1367
▁Coláiste	-10.137
CUID	-10.1374
AT	-10.1381
pm	-10.1381
seachas	-10.1385
▁comhlíonadh	-10.1389
▁fi	-10.139
tú	-10.139
▁Cumann	-10.1392
▁béim	-10.1392
ug	-10.1394
▁stáin	-10.1397
LE	-10.1397
▁meascán	-10.1403
IC	-10.1407
▁Il	-10.141
naí	-10.1416
teach	-10.1423
▁Breataine	-10.1427
▁tSeirbhís	-10.1427
▁tseachtain	-10.1427
▁litir	-10.1427
▁Coimirce	-10.1427
▁chiallaíonn	-10.1428
top	-10.1428
▁tiomanta	-10.1429
▁Lu	-10.1429
▁teorainneacha	-10.1429
▁tosach	-10.1435
▁Monaróirí	-10.1436
▁phlé	-10.1439
ilte	-10.1441
ms	-10.1454
200	-10.1464
▁leithligh	-10.1467
▁intinn	-10.1474
▁saothar	-10.1483
oga	-10.149
ure	-10.1493
ted	-10.1495
▁bean	-10.1495
▁ndearna	-10.1497
▁feithiclí	-10.1506
▁links	-10.1507
vel	-10.1507
dú	-10.1508
▁gar	-10.1523
ix	-10.1526
▁Feidhm	-10.1527
rom	-10.1528
ou	-10.1529
mhaith	-10.153
▁seacht	-10.1531
▁háit	-10.1536
▁tré	-10.1537
imp	-10.1549
lán	-10.1549
▁chathair	-10.155
oid	-10.155
▁No	-10.155
áir	-10.1553
▁scéime	-10.1558
istí	-10.156
▁rialtais	-10.1562
earc	-10.1564
nas	-10.1572
▁údarú	-10.1575
ler	-10.1581
eolaíochta	-10.1585
▁inti	-10.1585
▁Cultúir	-10.1586
▁uiscedhíonach	-10.1586
▁Ghníomhaireacht	-10.1586
▁Iompair	-10.1587
▁phlean	-10.1589
chu	-10.1598
▁euro	-10.1601
▁eagrú	-10.1607
▁Chu	-10.161
▁Eacnamaíoch	-10.1621
ionta	-10.1626
▁Tuaithe	-10.1631
▁Plean	-10.1632
▁dheonú	-10.1632
▁custaiméirí	-10.1634
▁blas	-10.1634
▁Ainm	-10.1648
▁óna	-10.1656
▁difríocht	-10.1661
▁feidhmíocht	-10.1666
▁iarbhír	-10.1667
▁theastaíonn	-10.1667
▁thiontú	-10.1667
▁Dearg	-10.1667
▁clasaiceach	-10.1668
▁fág	-10.1668
▁Whats	-10.1671
▁Clárú	-10.1677
▁Banc	-10.1691
ioncam	-10.1698
▁dréacht	-10.1704
▁Bo	-10.1706
▁ghinearálta	-10.1707
▁Íoslódáil	-10.1707
▁rang	-10.171
▁cháilíocht	-10.1719
▁2001	-10.1726
Ma	-10.1727
▁Fostaíocht	-10.174
▁bónas	-10.1748
▁Fógra	-10.1748
▁Moms	-10.1749
▁chuaigh	-10.1751
▁2005	-10.1755
bhunaithe	-10.1763
▁sheirbhísí	-10.1766
reach	-10.177
aibh	-10.177
▁Ós	-10.1774
éirigh	-10.1776
▁oibríonn	-10.1776
▁leasanna	-10.1778
▁2004	-10.1783
▁ealaíon	-10.1788
▁feithicle	-10.1789
▁gcoitinne	-10.1789
▁dearfach	-10.1789
▁Roghnaigh	-10.179
▁coileach	-10.1791
▁cumarsáide	-10.1795
▁óige	-10.1798
▁ithe	-10.1798
▁éagsúil	-10.1807
▁dian	-10.1814
▁Oibr	-10.1816
pl	-10.1819
tro	-10.1825
arna	-10.1827
acasamhail	-10.1827
▁Fhrainc	-10.183
▁srl	-10.183
▁fhor	-10.1834
▁Ghearmáin	-10.1834
▁Euro	-10.1837
▁limistéir	-10.1838
▁vóta	-10.184
▁táirgeadh	-10.1851
5%	-10.1863
ium	-10.1867
▁feistithe	-10.1871
▁chairde	-10.1871
▁Idirlíon	-10.1871
▁Solas	-10.1874
▁cúiseanna	-10.1876
▁Bliain	-10.1883
▁Iarscríbhinn	-10.1887
▁Gu	-10.1889
▁creidmheasa	-10.189
ímid	-10.1893
ps	-10.1906
úin	-10.1909
▁Tionscail	-10.1912
▁codanna	-10.1914
▁tábhachtaí	-10.1917
▁aitheantas	-10.1919
ráid	-10.1923
▁thrí	-10.1923
bu	-10.1924
álta	-10.1924
▁Health	-10.1928
500	-10.1932
UN	-10.1938
▁Irish	-10.194
je	-10.1941
MA	-10.1944
nta	-10.1948
▁Conradh	-10.1954
▁Córas	-10.1954
char	-10.1956
eat	-10.1959
namh	-10.196
luach	-10.196
▁ranganna	-10.196
▁scríofa	-10.1964
▁faoiseamh	-10.197
tán	-10.1991
▁fóill	-10.1995
▁Poblacht	-10.1995
▁chostas	-10.1996
▁Duine	-10.1996
▁díriú	-10.1997
▁ga	-10.2001
nc	-10.2003
anda	-10.2014
▁Bainistíochta	-10.2016
▁dlúth	-10.2018
lon	-10.2021
▁tógála	-10.2021
▁ainmniú	-10.2022
out	-10.2025
▁thuiscint	-10.2026
▁tábla	-10.2027
tugann	-10.2033
▁Cha	-10.2033
aca	-10.2042
▁Ri	-10.2067
▁spéis	-10.2076
▁oifigigh	-10.2078
▁dleathach	-10.2079
▁tslí	-10.2079
▁Pleanála	-10.2084
▁sócmhainní	-10.2085
▁fl	-10.2092
ank	-10.2098
▁Údaráis	-10.2103
iompar	-10.2108
▁pas	-10.2109
▁leigheas	-10.2116
▁bhfianaise	-10.2121
▁Domhanda	-10.2122
▁dteangacha	-10.2123
▁shárú	-10.2128
▁héifeachtach	-10.2128
▁roinn	-10.213
ky	-10.2134
▁gr	-10.2138
▁éadrom	-10.2139
▁achtachán	-10.2144
▁Neamh	-10.2146
▁Leab	-10.215
uck	-10.2152
▁praghsanna	-10.2164
▁romhainn	-10.2164
▁Blonde	-10.2164
▁bronntanas	-10.2164
▁amhras	-10.2164
▁Comhshaoil	-10.2164
▁Áirítear	-10.2165
▁sochar	-10.2167
cc	-10.2168
act	-10.2177
▁Mhaigh	-10.2178
▁Or	-10.2179
▁(1	-10.219
▁CE	-10.2192
▁creat	-10.2192
más	-10.2197
▁cuardach	-10.2206
▁ceapadh	-10.2208
▁Beo	-10.221
▁uirlisí	-10.2213
▁uaidh	-10.222
▁he	-10.2223
▁úinéir	-10.2235
uisce	-10.2239
álacha	-10.2244
▁ríthábhachtach	-10.2249
▁titim	-10.2249
▁féachana	-10.2253
▁asbhaint	-10.2253
ofa	-10.2255
▁Bailiúchán	-10.2271
▁ghearr	-10.2282
32	-10.2283
br	-10.2284
▁Dúiche	-10.2292
ura	-10.2294
▁té	-10.2296
mheas	-10.2302
▁chúram	-10.2304
chair	-10.2305
▁chúrsa	-10.2308
▁cha	-10.2312
háinig	-10.232
qui	-10.232
itheoirí	-10.2325
▁taistil	-10.2335
▁dtíortha	-10.2335
▁thú	-10.2335
▁critéir	-10.2336
tan	-10.2338
▁CO	-10.234
CS	-10.2359
ens	-10.2359
▁Cons	-10.2367
▁Leabhar	-10.2375
▁Afraic	-10.2378
▁teicniúla	-10.2378
▁Cosanta	-10.2378
▁bhféadfaí	-10.2379
▁bhraitheann	-10.2381
▁Dáta	-10.2383
▁sl	-10.2388
▁cruth	-10.2398
36	-10.2401
SS	-10.2403
▁dtabharfar	-10.2404
oibrithe	-10.2407
▁un	-10.2414
form	-10.2414
▁stáit	-10.2421
▁Rátáil	-10.2422
▁deontais	-10.2422
▁thionscnamh	-10.2423
déanann	-10.2423
▁tsraith	-10.2424
ort	-10.2424
▁Socha	-10.2425
▁Tras	-10.2436
▁fiche	-10.2438
▁iasc	-10.2443
▁Rialacha	-10.2444
▁ghníomhaíochtaí	-10.2449
Oifig	-10.2454
▁Ru	-10.2458
sean	-10.2461
reid	-10.2464
ST	-10.2466
▁chórais	-10.2468
▁cultúrtha	-10.2468
▁gCoimisinéirí	-10.2472
▁roghna	-10.2474
▁Ne	-10.2476
▁chuí	-10.2487
▁pa	-10.2491
aol	-10.2496
▁tábhacht	-10.2498
▁rialtas	-10.2499
▁teaghlach	-10.2509
▁dtír	-10.251
▁Seomra	-10.2519
▁dhlí	-10.2521
▁Chlár	-10.2529
▁breith	-10.253
ight	-10.2533
▁dT	-10.2536
29	-10.2538
end	-10.2543
illte	-10.2547
▁fe	-10.2548
▁réigiúin	-10.2553
▁athbhreithnithe	-10.2553
▁mbainfidh	-10.2554
▁staidéir	-10.2555
▁ghlanadh	-10.2555
▁Náisiún	-10.2555
ings	-10.2555
▁tithíochta	-10.2564
HA	-10.2582
iocfaidh	-10.2587
▁huathoibríoch	-10.2598
31	-10.2605
ful	-10.2606
red	-10.2614
▁údar	-10.2623
▁Bhallstáit	-10.2642
▁Mheán	-10.2642
▁bunúsach	-10.2643
▁spins	-10.2644
▁leordhóthanach	-10.2647
íocaíocht	-10.2648
▁Sráid	-10.265
We	-10.2651
▁aeir	-10.2651
▁chuntas	-10.2655
▁teangacha	-10.2657
▁mBéarla	-10.2659
▁eis	-10.2659
▁gcroí	-10.2678
▁chomhairle	-10.2683
▁j	-10.2684
▁gCúirt	-10.2686
▁€3	-10.2686
oma	-10.2687
▁shiúl	-10.2687
nár	-10.2691
▁tionscnaimh	-10.2693
fo	-10.2698
▁dheimhniú	-10.2707
aimh	-10.2709
▁béil	-10.2715
cy	-10.2718
▁bhrú	-10.2721
▁Amateurs	-10.2732
bal	-10.2732
▁ardchaighdeáin	-10.2732
uas	-10.2734
▁Ceannais	-10.2736
▁roghnaigh	-10.2741
▁cruthaithe	-10.2744
85	-10.2746
▁deontas	-10.2749
mad	-10.2761
▁siopaí	-10.2765
▁Lucht	-10.277
CH	-10.2773
▁fuinneamh	-10.2777
▁inmhuirearaithe	-10.2777
▁tugtar	-10.2777
▁reachtúil	-10.2778
▁Edit	-10.2778
News	-10.2781
PA	-10.2784
▁Leabharlann	-10.2784
han	-10.2788
88	-10.2789
▁úsáideoirí	-10.2789
▁Céard	-10.2794
idir	-10.281
▁sho	-10.2817
▁caidreamh	-10.2825
-1	-10.2826
▁pá	-10.2832
▁mhaoiniú	-10.2835
▁pe	-10.284
táin	-10.284
▁carr	-10.2842
ey	-10.2842
faí	-10.2853
ól	-10.2858
▁seachtain	-10.2862
mor	-10.2862
▁fiosrúcháin	-10.2868
▁Imirt	-10.2872
pr	-10.2874
II	-10.2876
leacht	-10.2877
▁sárú	-10.2879
▁fostaí	-10.2883
dr	-10.2884
row	-10.2885
NA	-10.2886
▁críochnaithe	-10.2888
▁gcumas	-10.2892
▁chuma	-10.2906
▁nádúr	-10.291
▁oibrithe	-10.2913
loingseoireachta	-10.2913
▁gcuirfí	-10.2913
▁ceoil	-10.2914
▁cigire	-10.2914
Aibreán	-10.2919
wood	-10.292
▁ionadaithe	-10.2921
▁rí	-10.2922
gal	-10.2927
ock	-10.2938
qu	-10.2938
▁inniúla	-10.2943
55	-10.2944
000	-10.2956
▁dualgais	-10.2959
▁bhfoireann	-10.2959
▁rannpháirtithe	-10.2959
▁dhearadh	-10.2961
▁leanfaidh	-10.2963
▁leasuithe	-10.2966
▁India	-10.2971
▁treoracha	-10.2974
▁múinteoir	-10.2979
IL	-10.2979
▁Léigh	-10.298
▁caighdeánach	-10.2981
iche	-10.2982
lt	-10.2983
▁iarrthóir	-10.2988
▁Bhallstát	-10.3005
▁Oireachtas	-10.3005
▁feistí	-10.3005
▁bhféadfar	-10.3006
▁chiontú	-10.3006
óis	-10.3007
▁Rialú	-10.3018
▁feidhmíochta	-10.3019
▁mholadh	-10.3021
▁Achtanna	-10.3022
▁scor	-10.3025
thóir	-10.3033
for	-10.3052
▁ríomhphost	-10.3052
head	-10.3053
▁tS	-10.306
▁Lo	-10.3069
▁institiúid	-10.3069
ua	-10.3072
▁cuimsitheach	-10.3076
cu	-10.3078
AM	-10.3082
▁Dhá	-10.3095
▁sruth	-10.3097
▁Aistriúchán	-10.3098
▁gcéanna	-10.3098
▁thalamh	-10.3098
achais	-10.3099
▁Super	-10.3099
▁Luain	-10.3101
eachtaí	-10.3107
▁leictreachais	-10.3108
▁ghníomhaíocht	-10.311
70	-10.3117
iúlacht	-10.3121
▁Bra	-10.3121
chuirfear	-10.3122
67	-10.3122
▁dleacht	-10.3138
▁Fir	-10.314
▁Iarratais	-10.3144
▁thuismitheoirí	-10.3147
light	-10.3152
af	-10.3156
▁nD	-10.3159
▁chomhaltaí	-10.316
▁leasaítear	-10.316
ef	-10.3163
éas	-10.3164
ator	-10.3174
89	-10.318
▁srianta	-10.3181
tá	-10.3191
▁fhaightear	-10.3191
oideachas	-10.3192
▁hArd	-10.3192
sí	-10.3194
▁Uathoibríoch	-10.3197
xxx	-10.3198
MS	-10.3198
▁dúshláin	-10.3199
48	-10.3205
▁íomhá	-10.3205
▁Cíocha	-10.3218
naigh	-10.3223
WHO	-10.3239
▁200	-10.3242
▁ranga	-10.3248
▁5.	-10.3249
▁Éisteachta	-10.3249
fimid	-10.3254
▁threoir	-10.3258
▁bhliantúil	-10.3258
▁cíos	-10.3265
);	-10.3267
▁Air	-10.3269
inte	-10.327
▁imscrúdú	-10.3272
▁shláinte	-10.3282
▁Cineál	-10.3282
▁Cumarsáide	-10.3286
▁Spóirt	-10.3286
▁fhianaise	-10.3286
▁galánta	-10.3286
▁pointí	-10.3286
▁thír	-10.3287
".	-10.3292
▁cistí	-10.3293
▁Mu	-10.3293
▁Bosca	-10.3294
▁vótála	-10.3298
▁táirgthe	-10.3299
ds	-10.3302
▁éilimh	-10.3306
Me	-10.3317
its	-10.3319
OR	-10.332
EU	-10.3327
▁bP	-10.3327
▁díospóireacht	-10.3328
▁saincheisteanna	-10.3334
▁Teaghlaigh	-10.334
▁bainistiú	-10.3352
niú	-10.3353
ew	-10.3357
▁cearn	-10.336
ess	-10.3372
▁trá	-10.3373
éiríonn	-10.3375
tho	-10.338
▁teagaisc	-10.3381
▁treoirlínte	-10.3382
▁chuntasaíochta	-10.3382
osc	-10.3383
▁Cuimsiú	-10.3384
▁comhad	-10.3393
lacht	-10.3399
▁catagóir	-10.3405
aitheoir	-10.3407
ound	-10.3409
ET	-10.3416
lac	-10.3416
ghníomh	-10.3426
▁mheasúnachta	-10.3427
▁Ciallaíonn	-10.343
▁sloinne	-10.343
ocsaíd	-10.343
▁greannmhar	-10.343
▁míleata	-10.3431
▁chaomhnú	-10.3431
▁Big	-10.3437
men	-10.344
ks	-10.3443
74	-10.3455
ue	-10.346
lad	-10.3462
▁bhall	-10.3469
▁bháis	-10.3469
fhéadfá	-10.3478
▁Ginearálta	-10.3478
thas	-10.3478
▁bhosca	-10.348
▁spriocanna	-10.3487
▁teas	-10.3488
ting	-10.349
ast	-10.3492
dia	-10.3492
▁chúrsaí	-10.3493
▁bac	-10.3493
▁shain	-10.3494
ze	-10.3495
▁ríomhaireachta	-10.3495
leas	-10.3496
ionad	-10.3497
▁tae	-10.3505
95	-10.3516
az	-10.3517
lean	-10.3525
▁Che	-10.3526
▁dlíthiúil	-10.3526
▁nóim	-10.3528
▁moladh	-10.3533
odh	-10.3537
▁pháirtí	-10.3541
▁Charm	-10.3551
IM	-10.3554
van	-10.3561
▁Inexperienced	-10.3575
▁Liúntas	-10.3575
▁tagtha	-10.3575
▁Áitiúla	-10.3576
▁cathaoirleach	-10.3578
▁theanga	-10.3582
▁taca	-10.3583
▁dhearbhú	-10.3584
▁Samhna	-10.3586
▁easpa	-10.3595
athrú	-10.3595
▁gcríoch	-10.3598
▁haois	-10.3602
▁ionaid	-10.3607
▁cúramach	-10.3607
▁bhF	-10.3623
▁Ailt	-10.3624
▁bualadh	-10.3624
▁corpraithe	-10.3625
iu	-10.3625
▁Fheidhmiú	-10.3626
▁chóireáil	-10.3627
léi	-10.3628
98	-10.3631
ull	-10.3654
▁Star	-10.3658
abhraíonn	-10.3662
▁tine	-10.3665
íd	-10.3668
ánach	-10.367
▁thástáil	-10.3673
RI	-10.3674
SO	-10.3677
▁gléas	-10.3684
-2	-10.3684
isiún	-10.3686
▁suimiúil	-10.3696
▁Chill	-10.3702
ave	-10.3705
bar	-10.3719
ád	-10.3722
▁lascaine	-10.3723
▁brabúis	-10.3724
▁foirmeacha	-10.3725
▁pleananna	-10.3731
▁Scoileanna	-10.3735
▁teilifíse	-10.3739
▁mhargaidh	-10.374
▁bhu	-10.3741
▁bain	-10.3741
▁long	-10.3745
▁oibreacha	-10.3751
▁laghd	-10.3756
▁díolacháin	-10.376
33	-10.3761
La	-10.3762
▁tógáil	-10.3763
▁meicniúil	-10.3773
▁ceadúnais	-10.3773
▁stylish	-10.3773
▁“(	-10.3773
▁gréine	-10.3773
▁mbliain	-10.3773
▁chruinniú	-10.3774
▁beirt	-10.3775
ku	-10.3778
▁gcustaiméirí	-10.3779
eck	-10.378
▁ghnéas	-10.3794
▁Cá	-10.3796
▁gníomhaíochta	-10.3797
eolaíocht	-10.3804
low	-10.3807
tos	-10.3812
mag	-10.3817
▁cl	-10.3818
fhoils	-10.382
Se	-10.3821
▁Chorcaí	-10.3823
▁Grianchloch	-10.3823
▁nuashonrú	-10.3823
▁buiséad	-10.3823
▁chailleadh	-10.3824
ize	-10.3824
▁digiteach	-10.3825
ik	-10.3831
gi	-10.3841
▁aimsire	-10.3845
▁meaisíní	-10.3854
ture	-10.3854
cra	-10.3857
▁Sé	-10.3865
athair	-10.3871
92	-10.3875
▁bpost	-10.3877
fr	-10.3878
▁bunúsacha	-10.3879
▁Mná	-10.388
▁cruinnithe	-10.388
▁dhiailiú	-10.3883
oy	-10.3893
lit	-10.3904
ód	-10.3905
par	-10.391
▁si	-10.3911
neach	-10.3912
ek	-10.3914
fí	-10.3916
ten	-10.3917
▁prionsabal	-10.3923
▁ríomhphoist	-10.3924
▁Éireannacha	-10.3924
▁scaipeadh	-10.3924
▁Rolex	-10.3924
▁mhná	-10.3925
▁iarratasóir	-10.3928
láin	-10.3939
▁aistr	-10.3942
▁smacht	-10.3943
▁World	-10.3943
her	-10.3944
fheidhmiú	-10.3945
96	-10.395
íl	-10.395
aga	-10.3953
osta	-10.3954
▁scair	-10.3955
▁Soláthra	-10.3959
▁seans	-10.3961
▁Iodáil	-10.3962
▁Uaireanta	-10.3974
▁Gluaiseacht	-10.3974
▁pósta	-10.3974
▁inniúil	-10.3975
▁úsáideoir	-10.3979
75	-10.3984
▁fhorléiriú	-10.3985
▁fa	-10.3987
65	-10.3989
als	-10.3996
▁shon	-10.3999
UK	-10.4003
▁spreag	-10.4011
▁sealbhóir	-10.4016
▁daonna	-10.4017
97	-10.4023
▁rath	-10.4025
▁craiceann	-10.4025
▁dualgas	-10.4025
▁gcomhthéacs	-10.4025
▁IV	-10.4026
aird	-10.4028
▁Óige	-10.4028
▁chu	-10.4043
▁liathróid	-10.4045
bhar	-10.4048
▁bainc	-10.4051
▁aicme	-10.4052
CO	-10.4053
▁Áit	-10.4071
eg	-10.4074
▁Bán	-10.4075
▁Trealamh	-10.4076
▁dhiúscairt	-10.4076
▁gníomhaíocht	-10.4077
▁seachadadh	-10.4078
▁thiocfaidh	-10.4079
ionn	-10.408
▁athnuachan	-10.4086
▁mhíchumas	-10.4087
▁saoránaigh	-10.4088
aidhm	-10.409
ning	-10.4099
▁Ni	-10.4119
▁prionsabail	-10.4128
▁siúcra	-10.4128
▁chailleann	-10.4129
▁1998	-10.413
▁Tra	-10.4131
osca	-10.4133
▁deir	-10.4133
▁príobháideach	-10.4139
▁watch	-10.4141
▁rolla	-10.4141
▁saoráidí	-10.4142
ns	-10.4145
ren	-10.4147
ios	-10.415
chur	-10.415
▁sár	-10.4152
fl	-10.4174
34	-10.4176
▁dhaingniú	-10.4181
▁chríochnú	-10.4181
▁comhpháirteanna	-10.4181
▁gov	-10.4181
▁pháistí	-10.4182
▁fhágann	-10.4183
▁bhéal	-10.4185
und	-10.4186
▁shealbhú	-10.4187
▁tomhaltóirí	-10.4191
▁baineann	-10.4192
val	-10.4209
▁íocadh	-10.4216
▁Cód	-10.4216
uff	-10.4221
37	-10.4221
▁ceadú	-10.4222
▁Bréagáin	-10.4232
▁ceangal	-10.4232
▁chomhlánú	-10.4232
▁cialluíonn	-10.4232
▁lógó	-10.4232
▁Tástáil	-10.4232
▁Taithí	-10.4232
▁choigeartú	-10.4233
▁trom	-10.4233
laí	-10.4235
▁áilleacht	-10.4236
táil	-10.4239
▁El	-10.424
▁Teicneolaíochta	-10.425
▁Tír	-10.4254
ric	-10.4255
roll	-10.4255
▁fheithicil	-10.4267
39	-10.4282
▁marc	-10.4284
▁bhformáid	-10.4284
▁Cosaint	-10.4284
▁foilsíodh	-10.4285
▁cliste	-10.4285
▁comhoiriúnacht	-10.4294
med	-10.4301
SI	-10.4302
▁iascaireachta	-10.4302
▁fhomhír	-10.4305
▁snáithín	-10.4312
▁ceangailte	-10.4317
▁athchóiriú	-10.4324
▁bunú	-10.4326
▁mol	-10.4336
▁Raidió	-10.4337
▁bezel	-10.4337
▁clúdach	-10.4337
▁nuacht	-10.4338
ez	-10.4338
▁hainmneacha	-10.434
▁punt	-10.4341
▁chailíní	-10.4343
▁bhfolach	-10.4344
52	-10.4348
DA	-10.4351
▁cionta	-10.4355
real	-10.4362
▁luí	-10.4376
éirí	-10.4379
bl	-10.4379
▁stiúrthóir	-10.438
▁muinín	-10.4382
▁Tuairisc	-10.439
▁foirgneamh	-10.439
▁Airgid	-10.439
▁margaidh	-10.439
▁láidre	-10.439
▁gCoiste	-10.439
olta	-10.439
▁comhshaoil	-10.439
▁suimeanna	-10.44
▁45	-10.4402
▁Pe	-10.4402
94	-10.4406
old	-10.4416
▁ordaithe	-10.4418
ney	-10.4419
fhoireann	-10.442
CP	-10.4423
▁chruth	-10.4426
▁Uí	-10.4432
▁Achomhairc	-10.4443
▁Domhnach	-10.4443
▁Threoir	-10.4443
▁troid	-10.4443
▁Stíl	-10.4444
▁foláir	-10.4447
▁cheadúnas	-10.4448
▁ex	-10.4448
Chúirt	-10.4448
▁Líon	-10.4451
EL	-10.4455
▁Meiriceá	-10.4456
▁stáisiún	-10.4458
▁mais	-10.4462
▁mhalartú	-10.4463
abhróidh	-10.4468
úinéir	-10.4468
▁chos	-10.4472
úsáideoirí	-10.4476
68	-10.4485
▁phointe	-10.4488
▁faisean	-10.4491
chomh	-10.4492
▁35	-10.4494
stra	-10.4496
▁Phobail	-10.4497
▁tharchur	-10.45
▁Rí	-10.45
▁stíleanna	-10.4505
▁snasta	-10.4506
▁féad	-10.4509
▁nu	-10.4509
eithre	-10.4513
▁Rang	-10.4518
▁aonad	-10.4519
obair	-10.4521
ble	-10.4521
▁Watch	-10.4527
áistí	-10.453
▁Mha	-10.4533
▁Gníomh	-10.4536
▁halt	-10.4538
chi	-10.4539
▁Pri	-10.4545
▁cultúr	-10.4547
luais	-10.4547
▁hEORPA	-10.455
▁tréimhsí	-10.455
▁vótáil	-10.455
▁Iarthair	-10.455
▁saineolaithe	-10.4551
▁Soláthraí	-10.4557
tair	-10.4558
▁fr	-10.4563
▁Mhic	-10.4565
▁Brunette	-10.4566
scoil	-10.4571
▁Bu	-10.4572
racha	-10.4572
▁stórála	-10.4579
▁réim	-10.4596
nt	-10.46
▁Ion	-10.4604
▁éigeandála	-10.4604
▁Obair	-10.4604
▁thábhachtach	-10.4605
▁bhféadfaid	-10.461
▁bhaill	-10.4614
▁Ombudsman	-10.4614
▁nuálaíocht	-10.4615
▁áiseanna	-10.4631
▁thiomáint	-10.4634
▁500	-10.4635
▁éifeachtúlacht	-10.464
ring	-10.464
▁droch	-10.4644
OL	-10.4645
▁bailí	-10.4649
mas	-10.4651
▁thabharfai	-10.4656
▁mionsonraithe	-10.4659
▁AGUS	-10.4659
▁Mhárta	-10.4659
▁tsráid	-10.4659
▁Tuirc	-10.4659
▁eitilt	-10.4659
▁cóireáil	-10.4659
▁glactha	-10.4661
▁Méid	-10.4669
▁ceannairí	-10.467
79	-10.4671
dra	-10.4672
▁cum	-10.4678
▁Eile	-10.468
áireamh	-10.468
itheach	-10.4681
▁comhartha	-10.4684
▁dtiocfaidh	-10.4684
▁monaróir	-10.4689
▁Gníomhaíochta	-10.4689
▁Dr	-10.4693
▁Vi	-10.4702
GA	-10.4707
gg	-10.4713
▁phríobháideach	-10.4713
▁voltas	-10.4713
▁Thug	-10.4715
▁1997	-10.4716
▁diúltú	-10.4718
tter	-10.4719
▁Taisce	-10.4723
Chat	-10.4732
yo	-10.4743
▁úinéireacht	-10.4745
PE	-10.4746
▁Spáinn	-10.4747
ED	-10.4749
▁32	-10.4755
ore	-10.4758
raitheann	-10.4763
▁tarraingt	-10.4764
chain	-10.4767
▁34	-10.4768
▁dhliteanas	-10.4768
▁ghréasáin	-10.4768
▁shibhialta	-10.4768
▁Bhean	-10.477
▁aiste	-10.4772
chuid	-10.4774
lag	-10.4776
▁mbaol	-10.4776
▁Coinbhinsiún	-10.4779
▁gceannas	-10.478
TH	-10.4781
▁Fhorbairt	-10.4781
▁Uaireadóirí	-10.4781
▁fianáin	-10.4782
oi	-10.4785
▁Chearta	-10.4786
▁íosta	-10.4786
51	-10.4791
nu	-10.4795
ruth	-10.4796
-19	-10.4798
▁suí	-10.4801
[	-10.4803
▁Fuck	-10.481
▁IP	-10.4812
ódh	-10.4815
▁cumarsáid	-10.4815
▁Mi	-10.4816
ash	-10.482
CT	-10.482
▁bhforbairt	-10.4824
▁próifíl	-10.4824
▁toghcháin	-10.4824
▁sciath	-10.4824
▁Preasráitis	-10.4824
▁billiún	-10.4825
▁dhéag	-10.4825
let	-10.4828
vers	-10.4828
▁cruinneas	-10.4829
ev	-10.4833
▁léasair	-10.4833
▁Jacket	-10.4838
▁hA	-10.4838
úl	-10.4843
ino	-10.4852
rn	-10.4857
fhoirm	-10.4859
▁próiseáil	-10.4864
▁ghá	-10.4865
▁cló	-10.4871
▁soicind	-10.4879
▁redtube	-10.4879
▁sholáthraíonn	-10.488
▁gClár	-10.4881
▁muirir	-10.4882
▁imreoirí	-10.4892
ult	-10.4895
38	-10.4899
mid	-10.49
▁réad	-10.4904
▁Sna	-10.4915
▁Cu	-10.4916
▁aigéad	-10.4925
▁thóg	-10.4926
EM	-10.4927
▁chónaithe	-10.4933
▁Bracelet	-10.4935
▁Masturbate	-10.4935
▁thomhas	-10.4935
▁chúl	-10.4937
ainn	-10.494
87	-10.4942
▁seachtrach	-10.4944
▁sheirbhís	-10.4947
▁Tithíochta	-10.4948
▁American	-10.4949
▁srian	-10.4952
▁tarlú	-10.4956
ser	-10.4959
▁geall	-10.4966
▁ús	-10.4966
isce	-10.497
▁ionadaí	-10.4974
▁Anal	-10.4979
▁scáth	-10.4984
▁chomhlachta	-10.4986
fer	-10.4988
▁oibríochtaí	-10.4991
▁PHARLAIMINT	-10.4991
▁Próifíl	-10.4991
▁saintréithe	-10.4991
▁teicniúil	-10.4991
▁nAchtanna	-10.4991
▁riocht	-10.4992
▁ráitis	-10.4992
▁saoil	-10.5
way	-10.5008
▁Athbhreithniú	-10.5008
ithre	-10.5012
▁Gearmáinis	-10.5013
eadaíonn	-10.5013
day	-10.5018
▁hé	-10.5028
ocha	-10.5037
▁ce	-10.5039
▁Oiliúna	-10.5048
▁ghearrthóg	-10.5048
▁bóithre	-10.5048
ible	-10.505
▁Com	-10.5052
▁tabharfar	-10.5053
▁doras	-10.5054
▁mbunaítear	-10.5055
▁Díol	-10.5056
TV	-10.5059
84	-10.506
▁Sainmhíni	-10.5065
ose	-10.5068
(3)	-10.5084
oibriú	-10.5086
Caibidil	-10.5087
▁bhfaighid	-10.5091
▁gcomhlacht	-10.51
Mo	-10.5104
▁bPríomh	-10.5105
ACHT	-10.5113
▁bhord	-10.5113
▁daingean	-10.5115
▁Críostaí	-10.5116
▁uainn	-10.5116
sy	-10.5122
▁Cinneadh	-10.5123
:00	-10.5129
PR	-10.5134
▁luaite	-10.5134
éag	-10.5134
eli	-10.5137
▁1999	-10.5139
▁fhad	-10.5142
imeachtaí	-10.5143
61	-10.5144
▁Faisnéis	-10.5148
▁cá	-10.5152
tail	-10.5154
▁Bhliantúil	-10.5162
▁bhrabhsálaí	-10.5162
▁scáileán	-10.5162
▁bhfreagra	-10.5162
83	-10.5164
▁freagracht	-10.5164
▁pháiste	-10.5164
▁Cearta	-10.5165
▁oibriúcháin	-10.5167
▁Inter	-10.5185
▁Maith	-10.5186
Comhaontú	-10.519
éan	-10.519
▁comharthaí	-10.5191
▁buí	-10.5192
▁póca	-10.5194
▁fostóir	-10.5194
▁Ais	-10.5203
ici	-10.5209
▁gcúrsa	-10.521
▁Faoin	-10.521
▁she	-10.5211
eep	-10.5213
▁ocht	-10.5217
acháin	-10.5219
▁buataisí	-10.5219
▁polaitiúil	-10.5219
shi	-10.5219
▁fhéadfaidh	-10.522
▁shonrú	-10.522
▁aire	-10.5221
▁Ex	-10.5221
nia	-10.5221
▁gcomhlíonann	-10.5222
hol	-10.5224
▁Aonair	-10.5226
ates	-10.5234
&	-10.5242
▁Mens	-10.5244
▁chor	-10.525
CEE	-10.5257
DE	-10.5267
sia	-10.5269
▁Cáin	-10.527
▁Man	-10.5276
▁comhdhéanta	-10.5278
▁Poist	-10.5279
71	-10.528
ls	-10.5283
TC	-10.5292
aimid	-10.5304
▁feirme	-10.5308
ft	-10.5313
▁Aer	-10.5322
scríofa	-10.5325
▁míle	-10.5326
▁tithe	-10.5327
▁Masturbation	-10.5335
▁fadtéarmach	-10.5335
▁uathu	-10.5335
▁Foilsiú	-10.5336
cas	-10.5337
ious	-10.5337
▁oifigiúla	-10.5338
▁Dath	-10.5338
▁ualach	-10.5342
EI	-10.5348
▁stiúrthóirí	-10.5362
ju	-10.5371
▁saoránach	-10.5375
▁oidhreacht	-10.5378
amar	-10.5383
mhéid	-10.5383
ress	-10.5388
▁Mara	-10.5393
▁Masturbating	-10.5393
▁dúbailte	-10.5393
▁rubair	-10.5393
léargas	-10.5393
▁fhreagairt	-10.5394
▁dáileadh	-10.5394
▁Aims	-10.5394
▁Allah	-10.5394
▁fágtha	-10.5398
▁36	-10.5399
ven	-10.5399
▁comp	-10.5399
▁Teagmháil	-10.5402
▁páirteanna	-10.5403
cor	-10.5409
av	-10.5409
▁33	-10.5409
▁70	-10.5421
adóir	-10.5422
56	-10.5428
▁aimsir	-10.5431
CR	-10.5432
▁Rúis	-10.5434
▁Po	-10.5447
sen	-10.5448
abha	-10.5449
▁thús	-10.5449
▁cothabháil	-10.5452
▁sheirbheáil	-10.5452
▁RTÉ	-10.5452
▁cruthaíodh	-10.5454
▁scór	-10.5456
▁dhul	-10.5456
cent	-10.5457
des	-10.5458
AG	-10.5459
▁Foilsithe	-10.546
uil	-10.5462
▁cathrach	-10.5464
▁dliteanas	-10.5464
Sa	-10.5471
▁ionadaíocht	-10.5476
▁Chuideachta	-10.5476
▁cártaí	-10.5493
▁pháirt	-10.5496
▁City	-10.5497
lor	-10.55
athbhreithniú	-10.5501
▁geal	-10.5502
MI	-10.5502
▁bracelet	-10.5511
▁shóisialaigh	-10.5511
laithe	-10.5512
▁caiteachais	-10.5512
▁foilsithe	-10.5512
▁comhábhair	-10.5513
▁thíortha	-10.5516
▁cóipeanna	-10.5519
▁cúiteamh	-10.5523
PC	-10.5526
▁bainne	-10.5528
cur	-10.5528
▁ghné	-10.5532
▁ÁSPC	-10.5532
▁bí	-10.554
▁thagairt	-10.5548
▁baol	-10.5558
ating	-10.5561
▁SEA	-10.5568
▁Uachtaránacht	-10.5571
▁Tuarascálacha	-10.5571
▁imthosca	-10.5571
▁mBunreacht	-10.5571
▁díolúine	-10.5571
▁shonrófar	-10.5571
▁chruinnithe	-10.5571
▁páipéir	-10.5571
thaí	-10.5571
▁Athrú	-10.5573
▁comhoibriú	-10.5573
▁gás	-10.5575
ries	-10.5575
▁mhian	-10.5578
▁Infheistíochta	-10.5578
▁leanann	-10.5585
lainne	-10.5591
▁choinne	-10.5596
▁cábla	-10.5606
▁teachtaireacht	-10.5609
▁eagla	-10.561
93	-10.5622
▁bainteach	-10.5631
▁bóthair	-10.5631
ricelist	-10.5631
▁dlínse	-10.5631
▁Anseo	-10.5631
rap	-10.5636
▁iascaigh	-10.5637
▁indéanta	-10.5639
▁maoinithe	-10.5641
▁tograí	-10.5643
▁téigh	-10.5643
▁Cuideachta	-10.5644
▁mhúinteoirí	-10.5645
▁Ordú	-10.565
▁rialaitheoir	-10.5665
fu	-10.5668
▁toirt	-10.567
álaithe	-10.5672
76	-10.5675
▁Gra	-10.5681
OP	-10.5686
▁séasúr	-10.5691
▁Rannóg	-10.5691
▁en	-10.5691
▁Tí	-10.5696
▁She	-10.5696
▁bhainfidh	-10.5698
▁ugg	-10.5703
46	-10.5703
▁roghnaithe	-10.5704
dal	-10.5713
▁leathair	-10.5715
▁Deimhniú	-10.5718
▁Cáilíochta	-10.572
▁Oileán	-10.572
ace	-10.5723
47	-10.5726
43	-10.5732
▁línte	-10.5732
scéal	-10.5733
FE	-10.5734
-20	-10.5736
▁fheidhmeanna	-10.5741
▁Saincheaptha	-10.5752
▁achomhairc	-10.5752
▁healaíona	-10.5752
▁bhíthin	-10.5752
▁bhfuair	-10.5755
▁Gr	-10.5759
▁sceimhlitheoir	-10.5761
ond	-10.5761
▁mheasúnú	-10.5771
ova	-10.5772
▁Beartas	-10.5775
▁cáil	-10.5777
uc	-10.5778
▁Bunaío	-10.5799
▁nG	-10.5799
ini	-10.5802
▁Ón	-10.5804
SP	-10.5807
▁Pandora	-10.5813
▁Rúipí	-10.5813
▁cothabhála	-10.5813
▁gcinn	-10.5813
▁cleachtais	-10.5815
▁Cuardaigh	-10.5817
gram	-10.5818
under	-10.5824
▁oiriúnú	-10.5829
ame	-10.5836
maid	-10.5849
▁Sea	-10.5852
▁imreoir	-10.5853
fadh	-10.5858
▁ceannas	-10.586
▁Bre	-10.586
▁ardán	-10.5862
fhág	-10.5865
dom	-10.5869
ves	-10.5872
▁Domhnaigh	-10.5874
▁gcuntas	-10.5874
▁chon	-10.5881
▁trácht	-10.5883
▁poll	-10.5885
▁gearradh	-10.5886
rio	-10.5889
▁sm	-10.5889
hathanna	-10.5889
rus	-10.5891
▁gé	-10.5891
aireacht	-10.5896
▁réigiúnach	-10.5897
▁bhia	-10.59
eáil	-10.59
gníomhaireachtaí	-10.5904
press	-10.5906
▁sha	-10.5906
Gaeilge	-10.5909
▁dochtúir	-10.5911
reo	-10.5918
FA	-10.5927
ica	-10.5927
oise	-10.5928
▁Tionól	-10.5936
▁brabús	-10.5936
▁mháthair	-10.5936
▁gearrthóg	-10.5936
▁Téigh	-10.5936
63	-10.5936
▁bhreith	-10.5937
▁(9)	-10.5938
can	-10.5939
▁reacht	-10.594
▁dóiteáin	-10.5942
▁tuaithe	-10.5944
ball	-10.5945
▁céile	-10.595
▁heagraíochtaí	-10.5954
othair	-10.5955
ump	-10.5964
▁90	-10.5965
▁Cumhacht	-10.5966
▁hair	-10.597
▁Bhr	-10.5971
seirbhís	-10.5972
Stiúrthóireacht	-10.5977
RT	-10.5992
sco	-10.5995
arra	-10.5996
▁gheimhridh	-10.5998
▁láimhseáil	-10.5998
▁gCuideachtaí	-10.5999
▁buíochas	-10.6
▁galar	-10.6001
dar	-10.6002
óige	-10.6004
ung	-10.6005
▁gcuirfidh	-10.6008
abhra	-10.6016
kin	-10.6017
rin	-10.6018
▁treo	-10.6023
éara	-10.6027
insí	-10.6028
▁cáilitheach	-10.6029
▁astu	-10.6029
mharc	-10.6033
77	-10.6049
Ní	-10.6053
▁difriúla	-10.606
▁luxurious	-10.606
▁tSeapáin	-10.606
▁rugadh	-10.606
.—	-10.606
▁agóid	-10.6064
▁soghluaiste	-10.6066
▁choinníollacha	-10.6068
▁Réamh	-10.607
▁bogadh	-10.607
vis	-10.607
gha	-10.6073
▁cara	-10.6073
▁suíomhanna	-10.6077
▁Leag	-10.6088
ráma	-10.6093
rais	-10.6095
▁Ghaeltacht	-10.6096
44	-10.6103
▁Tacaíocht	-10.6104
▁fostaíocht	-10.6108
▁mbeart	-10.6109
▁ainmneacha	-10.6116
eng	-10.6119
▁uachtar	-10.6122
▁Facebook	-10.6123
▁Phlean	-10.6124
▁Seachtain	-10.6125
▁Oíche	-10.6125
▁dtagann	-10.6125
cla	-10.6128
▁Taca	-10.613
▁80	-10.6142
▁cath	-10.6142
ors	-10.6147
▁Glas	-10.6147
lár	-10.6149
▁ionsaí	-10.615
Al	-10.6151
▁Scoile	-10.6155
tions	-10.6156
úis	-10.6159
▁x	-10.6164
▁You	-10.6169
▁méad	-10.6172
▁físe	-10.6173
▁Preas	-10.6179
▁machnamh	-10.6187
▁próisis	-10.6187
▁tobac	-10.6187
▁máthair	-10.6187
▁comhaontuithe	-10.6188
▁caipitil	-10.6188
aer	-10.6188
NI	-10.6197
▁Rátaí	-10.6207
mhais	-10.6209
▁oibleagáid	-10.6214
▁Mon	-10.6217
iki	-10.6228
lais	-10.6228
wo	-10.6228
▁leictreacha	-10.6237
▁eacnamaíocha	-10.6239
▁Nós	-10.6242
▁MP	-10.6246
oin	-10.6248
▁Choláiste	-10.625
▁tsaoil	-10.625
▁Choinbhinsiún	-10.6251
idí	-10.6254
▁MB	-10.6255
▁míniú	-10.6255
▁Cumas	-10.6256
▁Foghlaim	-10.626
abhair	-10.626
▁margaí	-10.6261
ough	-10.6262
▁ceannach	-10.6263
62	-10.6263
▁beacht	-10.6268
ale	-10.6269
▁dlíthe	-10.6275
▁Ha	-10.6283
DC	-10.6287
liú	-10.6288
▁rioscaí	-10.6289
ánaigh	-10.629
▁luachanna	-10.6296
▁straitéisí	-10.6298
othar	-10.6303
▁per	-10.6303
▁folctha	-10.6314
▁hEilvéise	-10.6314
▁maireachtáil	-10.6314
▁moncler	-10.6314
▁pionós	-10.6314
▁thíolacadh	-10.6314
▁riail	-10.6315
▁Gearr	-10.6315
▁eol	-10.6316
▁gCiste	-10.6316
▁shíniú	-10.6317
▁chomhshaoil	-10.6317
▁Chathair	-10.6318
▁bheag	-10.6318
ane	-10.6324
leabhar	-10.6324
álaí	-10.6331
▁iniúchta	-10.6336
91	-10.6338
▁Cruinniú	-10.6344
▁VI	-10.6345
wi	-10.6347
3.	-10.6351
▁Réalta	-10.6355
▁“...	-10.6358
▁cuimhne	-10.6378
▁Seice	-10.6378
▁Sóisialaí	-10.6379
▁Scannán	-10.6379
▁criostail	-10.6379
▁chostais	-10.638
▁cóireála	-10.6381
▁Linn	-10.6381
▁thaifeadadh	-10.6382
sw	-10.6386
▁Ins	-10.6389
illeadh	-10.639
▁taise	-10.6395
east	-10.6401
▁Services	-10.6406
tóra	-10.6411
ireacht	-10.6414
▁Times	-10.6417
▁solúbtha	-10.6419
iot	-10.6423
▁ceachta	-10.6424
▁dho	-10.6428
ical	-10.643
▁mórán	-10.6431
aoi	-10.6438
tacht	-10.6438
íocha	-10.6442
▁bhrath	-10.6444
▁soláthair	-10.6444
suas	-10.6444
▁1952	-10.6447
TR	-10.6447
igi	-10.6447
▁clárúcháin	-10.6452
saí	-10.6463
▁www	-10.6464
▁bhóthar	-10.647
SAMH	-10.6475
Ro	-10.6478
fhostaithe	-10.6481
▁léirithe	-10.6481
▁cos	-10.6482
▁rianú	-10.6484
▁píosa	-10.6485
▁Dial	-10.6485
íochtaí	-10.6491
óil	-10.65
▁Cinn	-10.65
▁EU	-10.6501
ábhair	-10.6506
€	-10.6508
▁raidió	-10.6509
▁tiomáint	-10.6509
▁tagartha	-10.6509
▁chúlghairm	-10.6509
▁Léinn	-10.651
▁forordaithe	-10.651
▁Gnéithe	-10.6512
ations	-10.6513
▁foinse	-10.6513
▁Naomh	-10.6516
▁Council	-10.652
▁fíorúil	-10.6522
▁uasta	-10.6524
▁2016.	-10.6525
▁úsáideora	-10.6527
lot	-10.6527
gle	-10.6531
▁gníomhaire	-10.6533
▁Tóg	-10.6539
DH	-10.6541
▁measúnachta	-10.6544
itheoir	-10.6553
roinn	-10.6557
iarratasóir	-10.6564
59	-10.6566
oideachais	-10.6571
▁coinníoll	-10.6571
▁Bhain	-10.6571
▁gcruinniú	-10.6575
▁carbóin	-10.6575
▁aigne	-10.6576
▁thabharfar	-10.6576
▁sochaí	-10.6576
▁formhór	-10.6577
▁dé	-10.6579
▁Indiach	-10.6586
▁úsáideach	-10.6587
ken	-10.6587
▁rialála	-10.6592
86	-10.6593
▁Diamond	-10.6594
▁míre	-10.6597
pt	-10.6604
▁iomaíocht	-10.6604
ealaíon	-10.661
eu	-10.6612
▁cúraim	-10.6617
she	-10.6618
ward	-10.6625
zz	-10.6626
CI	-10.6628
▁coinn	-10.6632
aoin	-10.6636
49	-10.6636
▁Answers	-10.6641
▁Feirste	-10.6641
▁Toscaireacht	-10.6641
Official	-10.6641
▁éarlais	-10.6641
▁mílte	-10.6641
▁saoirse	-10.6641
▁fostú	-10.6641
▁leideanna	-10.6642
▁Óir	-10.6642
▁Tacaíochta	-10.6643
▁gnólachtaí	-10.6644
▁réigiúnacha	-10.6644
▁Nó	-10.6648
Con	-10.6652
▁tionsclaíoch	-10.6653
▁chonradh	-10.6656
▁fórsaí	-10.6658
uni	-10.6659
bail	-10.6666
▁LE	-10.6669
sho	-10.667
▁bu	-10.667
intí	-10.6671
▁dlús	-10.6672
▁Life	-10.6674
adáin	-10.6675
▁iomaíoch	-10.668
▁iomláine	-10.6684
▁leabharlann	-10.669
54	-10.6694
73	-10.6703
eagraíochtaí	-10.6705
▁inarb	-10.6708
▁Shóisialaigh	-10.6708
▁Tríonóide	-10.6708
▁sheepskin	-10.6708
▁York	-10.6708
▁daonra	-10.6708
lainn	-10.6709
▁naked	-10.6709
▁1976	-10.671
Ba	-10.6714
42	-10.6717
▁Jo	-10.6718
▁conarthaí	-10.672
▁gaolmhara	-10.6721
▁fhi	-10.6723
ett	-10.6726
▁tromchúiseach	-10.6727
▁híoc	-10.6728
fhorbairt	-10.6729
áite	-10.6732
66	-10.6733
rk	-10.6737
yu	-10.6737
▁tri	-10.6738
▁Eolaíochta	-10.6742
▁charm	-10.6746
▁38	-10.6747
▁44	-10.6749
NE	-10.6752
love	-10.6755
gin	-10.6756
fheidhm	-10.6762
▁cheangla	-10.6764
▁theicniúil	-10.6775
▁Ghlac	-10.6776
▁molta	-10.6777
▁stop	-10.6778
▁Oscailte	-10.6778
▁Múinteoirí	-10.678
▁breithe	-10.6782
▁tuarascálacha	-10.6786
trí	-10.6786
use	-10.6789
asach	-10.6791
ike	-10.6793
▁maoirseachta	-10.6797
▁idirdhealú	-10.6804
aíochtaí	-10.6807
IP	-10.6817
lus	-10.6819
▁luch	-10.6821
78	-10.6822
▁Eagraíocht	-10.6822
▁bpáirt	-10.6838
isghairtear	-10.6843
▁Feidhmiúcháin	-10.6843
▁Sóisialai	-10.6843
▁Thuaisceart	-10.6843
▁vidio	-10.6843
▁saibhir	-10.6843
chleachtas	-10.6843
▁glasraí	-10.6844
▁tábhachtacha	-10.6847
▁lánaimseartha	-10.6848
▁gcúirt	-10.6848
▁super	-10.6849
liant	-10.6849
▁ngnó	-10.6852
▁1916	-10.6854
▁Rúisis	-10.6855
cus	-10.6856
▁roinnte	-10.6858
ali	-10.6859
▁úis	-10.6859
▁lch	-10.6863
▁eagar	-10.6863
Be	-10.6864
▁áis	-10.6865
ari	-10.6866
▁Data	-10.687
▁bhfaigh	-10.6872
▁6.	-10.6876
mpl	-10.6882
sal	-10.6882
▁Fuair	-10.6889
▁aithne	-10.6898
ctor	-10.69
tom	-10.6901
urg	-10.6904
▁Department	-10.6911
▁ceanglas	-10.6911
▁gcuimhne	-10.6911
▁hAlban	-10.6911
▁taispeántas	-10.6911
▁bheatha	-10.6911
▁Gar	-10.6911
▁sláintiúil	-10.6913
▁boinn	-10.6914
▁teagasc	-10.6915
▁aistriúcháin	-10.6918
▁hiarratais	-10.6919
abhar	-10.692
LC	-10.6921
▁Caighdeán	-10.6929
▁dtéann	-10.6933
82	-10.6933
éigean	-10.6933
own	-10.6933
▁gairm	-10.6937
eála	-10.6938
IA	-10.6944
cs	-10.6948
cle	-10.6948
▁hu	-10.6948
▁gCo	-10.6962
elle	-10.6968
▁seachtracha	-10.697
SD	-10.6971
lm	-10.6971
▁Bail	-10.6975
▁Teo	-10.6975
▁dramhaíola	-10.6979
▁Áilleacht	-10.6979
▁Home	-10.6979
▁dliteanais	-10.6979
▁Fúinn	-10.698
▁insint	-10.698
▁ceiliúradh	-10.6982
▁idirlíon	-10.6984
▁marbh	-10.6985
uimhir	-10.6986
taithe	-10.6986
▁Oral	-10.6986
58	-10.6989
▁Football	-10.6998
▁caol	-10.6998
▁Ú	-10.7
Sh	-10.7
▁teochta	-10.7002
albhaigh	-10.7006
▁(1),	-10.7007
▁cobhsaíocht	-10.7008
▁múnla	-10.7009
RC	-10.701
▁pleanáil	-10.7011
▁Mam	-10.7015
▁CH	-10.7019
▁Sula	-10.7022
▁íogair	-10.703
▁chomhair	-10.7032
éile	-10.7033
▁Páirtí	-10.7033
cast	-10.7036
▁..	-10.704
íocfaidh	-10.7041
▁CBL	-10.7043
▁Taispeán	-10.7046
▁Blowjob	-10.7048
▁Chomhphobail	-10.7048
▁Pinsean	-10.7048
▁Rochtain	-10.7048
▁slabhra	-10.7048
▁áisiúil	-10.7049
▁chaidreamh	-10.7052
anga	-10.7054
▁foirmiúil	-10.7054
▁Sain	-10.7054
MP	-10.7057
▁drugaí	-10.7057
▁saill	-10.7057
tle	-10.7059
nes	-10.7064
pla	-10.7071
AIR	-10.7073
▁urscaoileadh	-10.7074
fin	-10.7075
aireachta	-10.7079
▁astaíochtaí	-10.7089
▁gceantar	-10.7091
Sc	-10.7093
▁Port	-10.7095
lucht	-10.7098
Te	-10.7103
▁EUR	-10.7104
▁iarnróid	-10.7117
▁dhaltaí	-10.7117
▁Aoine	-10.7118
▁Margadh	-10.7118
▁Fiontar	-10.7118
pro	-10.7118
▁Fomhair	-10.7118
▁trasteorann	-10.7118
aiste	-10.7121
▁dtugann	-10.7127
▁chlog	-10.7129
▁Mol	-10.7132
iteach	-10.714
▁Gael	-10.7141
líon	-10.7143
▁fógraí	-10.7147
▁nascadh	-10.7149
▁cat	-10.715
▁MO	-10.715
ept	-10.716
72	-10.7161
PP	-10.7177
ceann	-10.718
▁Digiteach	-10.7187
▁Erasmus	-10.7187
▁dTuaisceart	-10.7187
▁tsochaí	-10.7187
▁gnách	-10.7187
▁Cárta	-10.7189
▁Glacann	-10.7189
▁sreabhadh	-10.7189
▁tógadh	-10.7192
▁hacmhainní	-10.7193
read	-10.7193
▁mam	-10.7198
Go	-10.7203
lanna	-10.7213
▁innealra	-10.7214
▁amharc	-10.7218
úsáidtear	-10.7223
▁Cirt	-10.7223
▁vótaí	-10.7228
▁chois	-10.7228
ál	-10.723
▁earra	-10.7243
Tu	-10.7244
dro	-10.7248
lamh	-10.7257
▁calories	-10.7258
▁comhtháite	-10.7258
▁stoic	-10.7258
▁dháileadh	-10.7258
▁foirgnimh	-10.7258
▁Glao	-10.7259
▁othar	-10.7263
▁mianraí	-10.7264
bas	-10.7267
▁deacrachtaí	-10.7267
▁thuairim	-10.7267
inc	-10.7268
video	-10.7268
▁Washington	-10.7271
▁Eis	-10.7272
▁dúradh	-10.7278
lip	-10.7278
▁En	-10.7281
▁ionsú	-10.7281
▁fhostaíocht	-10.729
AA	-10.7295
uma	-10.7309
▁European	-10.7314
▁boscaí	-10.732
▁oibleagáidí	-10.7324
▁gl	-10.7329
:—	-10.7329
▁37	-10.7329
▁diúité	-10.7329
▁taispeántais	-10.7329
▁Next	-10.7329
ozrel	-10.7329
▁International	-10.7329
▁carachtair	-10.7331
▁1967	-10.7332
aghaidh	-10.7333
▁misean	-10.7333
▁DO	-10.7335
oidh	-10.7337
NT	-10.7338
ding	-10.7339
len	-10.7342
▁Soláthar	-10.7342
▁réaltaí	-10.7344
▁bainisteoir	-10.7344
▁ve	-10.7348
adóireachta	-10.735
▁substaintí	-10.735
▁Cl	-10.7354
▁bhail	-10.7355
▁Dír	-10.7355
▁oll	-10.7357
▁Fraincis	-10.7365
pri	-10.7368
▁tréithe	-10.7371
▁dúnta	-10.7371
▁foclóir	-10.7375
▁socraithe	-10.7381
▁ghnótha	-10.7383
▁tarraingteach	-10.7389
lain	-10.7393
▁spórt	-10.74
▁luaidhe	-10.74
▁gComhphobal	-10.74
times	-10.7401
▁shots	-10.7401
▁dheasca	-10.7404
ánta	-10.741
just	-10.7427
▁Ball	-10.7434
▁nasctha	-10.7438
▁Deir	-10.744
met	-10.744
▁chaith	-10.7441
now	-10.7447
▁pláta	-10.7447
dd	-10.7451
arrann	-10.7453
▁cloí	-10.7454
▁ionstraimí	-10.746
▁Íocaíocht	-10.7462
▁suirbhé	-10.7466
▁dteanga	-10.747
▁breosla	-10.7472
▁dhualgas	-10.7472
▁gcluiche	-10.7472
▁mhaolú	-10.7472
▁Sathairn	-10.7472
▁Athchóirithe	-10.7472
bert	-10.7472
▁seiceáil	-10.7473
▁gContae	-10.7473
▁bainise	-10.7473
▁gcaitheamh	-10.7474
▁1963	-10.7475
▁Líonra	-10.7476
▁coimeád	-10.7476
▁comhpháirtithe	-10.7476
▁Atha	-10.7481
lúthpháirtíochta	-10.7482
DR	-10.7482
▁bhearta	-10.7482
▁gorm	-10.7487
ula	-10.7488
▁Acmhainní	-10.7491
fhó	-10.7491
asta	-10.7496
▁chuspóir	-10.7498
roíthe	-10.7502
▁Rómáin	-10.7518
ano	-10.753
illí	-10.7532
raic	-10.7532
iúir	-10.7532
oibrigh	-10.7545
▁bParlaimint	-10.7545
▁cnaipe	-10.7545
▁neamhchoitianta	-10.7545
▁Íseal	-10.7545
▁Dublin	-10.7545
▁eochair	-10.7545
▁chuardach	-10.7546
▁Chláir	-10.7546
▁mícheart	-10.7546
▁ailse	-10.7547
▁Tábla	-10.7548
iomlán	-10.7548
▁chabhair	-10.755
▁crios	-10.755
▁scrúduithe	-10.7552
▁iomlána	-10.7553
▁rial	-10.756
éireoidh	-10.7561
▁ro	-10.7564
pho	-10.7576
▁cáilíochtaí	-10.758
▁fheidhmíocht	-10.7582
▁2002	-10.7583
▁bhalla	-10.7584
▁chúig	-10.7591
▁léim	-10.7605
▁par	-10.7605
vin	-10.761
▁Déanta	-10.761
ithí	-10.7613
▁Bhruiséil	-10.7618
▁Danmhairg	-10.7618
▁mhuintir	-10.7618
▁léirmheasanna	-10.7618
▁faisin	-10.7618
▁fisiciúil	-10.7618
▁Ghnóthaí	-10.7618
▁Ainmneacha	-10.7618
▁Bogearraí	-10.7618
▁Ríoga	-10.7618
▁Bliana	-10.7618
▁chonartha	-10.7619
▁fhéadfar	-10.7619
▁OEM	-10.762
ats	-10.762
▁laghdaithe	-10.7621
▁mhíniú	-10.7622
▁ranníocaíochtaí	-10.7622
▁eolaíochta	-10.7623
▁brí	-10.7627
▁you	-10.7629
▁gcúrsaí	-10.7629
▁dteastaíonn	-10.7632
▁vitimíní	-10.7632
gú	-10.7638
▁Amach	-10.7638
▁Creat	-10.764
Sp	-10.764
▁só	-10.7647
iarratasóirí	-10.7648
▁cruinne	-10.7649
▁réasún	-10.7651
▁Rial	-10.7653
▁athraithe	-10.7654
nigh	-10.7657
▁Mhuir	-10.7659
▁féideartha	-10.7664
▁riachtanacha	-10.7666
81	-10.7667
▁Cheann	-10.7668
▁príobháideacha	-10.7676
get	-10.7679
▁airm	-10.7683
▁fhás	-10.7683
▁sheachtain	-10.769
▁Buíochas	-10.7691
▁Lesbians	-10.7691
▁bhfíric	-10.7691
▁chaiteachas	-10.7691
▁bhuiséad	-10.7691
▁saghas	-10.7691
▁Dheirea	-10.7691
▁ábalta	-10.7692
eáin	-10.7692
▁inslithe	-10.7692
▁shonraithe	-10.7692
▁tomhais	-10.7692
▁leasmhara	-10.7692
▁ndéanfadh	-10.7693
▁Di	-10.7693
▁solais	-10.7695
▁daor	-10.77
earnálacha	-10.7711
▁dúshlán	-10.7712
hea	-10.7713
iasc	-10.7715
itear	-10.7716
▁orgánach	-10.7721
over	-10.7726
▁Cead	-10.7726
ford	-10.7737
▁Christian	-10.774
▁PDF	-10.7741
lín	-10.7746
back	-10.775
▁Teicneolaíocht	-10.7756
údar	-10.7757
zo	-10.7758
anais	-10.7759
▁Game	-10.776
Uachtarán	-10.7763
▁Foclóir	-10.7765
▁Sibhialta	-10.7765
▁polaitiúla	-10.7765
▁polasaí	-10.7765
▁spriocdháta	-10.7765
▁bailiúchán	-10.7766
▁comhairliúcháin	-10.7766
▁Bhreithiúnais	-10.7766
▁Tráchtála	-10.7766
hal	-10.7767
▁faireachán	-10.7767
▁more	-10.7769
▁chathaoirleach	-10.7769
▁mála	-10.7771
▁Story	-10.7772
key	-10.7774
▁mhuirearú	-10.7776
bur	-10.7783
▁Hu	-10.7783
mhair	-10.7783
All	-10.7784
Chiste	-10.7784
yn	-10.7786
▁Cas	-10.7788
mark	-10.7791
ani	-10.7793
▁chreid	-10.7796
▁Tríú	-10.7796
.30	-10.7803
▁mara	-10.7803
▁2017.	-10.7812
▁39	-10.7817
▁feasacht	-10.7817
bor	-10.7821
▁chánach	-10.7822
▁seic	-10.7834
una	-10.7836
▁toil	-10.7838
▁ANKO	-10.784
▁áitribh	-10.784
▁fhógairt	-10.784
▁rialáil	-10.7841
▁seasta	-10.7841
▁comhairimh	-10.7844
▁hinstitiúidí	-10.7846
▁State	-10.7848
▁olc	-10.7848
líonta	-10.7849
57	-10.7851
▁aitheantais	-10.7859
▁Microsoft	-10.7861
▁All	-10.7863
▁meastar	-10.7865
▁bhféad	-10.7867
▁Oileáin	-10.7874
tis	-10.7879
ple	-10.7883
▁Mat	-10.7885
▁éilíonn	-10.7889
▁Ráta	-10.789
▁Loch	-10.7891
▁iarrthóirí	-10.7893
▁hábhar	-10.7897
▁tráchta	-10.7905
pin	-10.7909
del	-10.7914
▁Comhionannais	-10.7915
▁Eorpaí	-10.7915
▁Iascaigh	-10.7915
▁achoimre	-10.7915
▁creimeadh	-10.7915
▁Comhdháil	-10.7915
▁ballóide	-10.7915
▁bhreithniú	-10.7916
▁faigheann	-10.7917
▁filleadh	-10.7917
ole	-10.7917
pre	-10.7921
▁rothar	-10.7923
▁géar	-10.7926
▁bheartais	-10.7926
▁cruthú	-10.7937
▁híocaíochtaí	-10.7939
▁corp	-10.7944
ncy	-10.795
▁bhuaigh	-10.7951
▁málaí	-10.7952
▁300	-10.7952
▁Cum	-10.7958
live	-10.7959
lé	-10.7959
▁sine	-10.7961
▁rásaí	-10.797
▁41	-10.7974
rainn	-10.7978
▁Chuarda	-10.7979
sport	-10.7989
▁Caiteachais	-10.7991
▁Committee	-10.7991
▁Limistéar	-10.7991
▁Lucsamburg	-10.7991
▁Slándála	-10.7991
▁dtuairim	-10.7991
▁hachomair	-10.7991
▁Iorua	-10.7991
▁seamhan	-10.7991
OT	-10.7991
bre	-10.7991
▁Power	-10.7994
▁théarmaí	-10.7995
LI	-10.7997
▁meastóireacht	-10.8002
▁ghrá	-10.8004
▁Gold	-10.8004
uin	-10.8005
▁feic	-10.8005
▁han	-10.8005
▁diúscairt	-10.8005
▁sínithe	-10.8007
▁48	-10.8009
leibhéal	-10.8009
▁pian	-10.8015
cadóirí	-10.8016
▁lasc	-10.8019
▁píosaí	-10.8019
▁Free	-10.8025
▁rapóirtéir	-10.8026
aitheoirí	-10.8031
éifeacht	-10.8037
MC	-10.8039
uireadh	-10.8041
fort	-10.8051
GB	-10.8057
▁inneall	-10.806
play	-10.8066
itch	-10.8066
▁Deontais	-10.8067
▁oiriúint	-10.8067
▁tuairisceán	-10.8067
▁United	-10.8067
▁Ábhair	-10.8068
▁Páirteanna	-10.8068
▁galair	-10.8068
▁Ceamara	-10.8068
▁cheiliúradh	-10.807
▁caith	-10.8075
nit	-10.8077
▁Bhun	-10.808
▁Den	-10.808
Chúirte	-10.808
▁Bhainc	-10.8082
▁Turasóireachta	-10.8082
▁ru	-10.8085
▁Coinn	-10.8089
▁forais	-10.8092
lla	-10.8094
col	-10.81
thraíonn	-10.8104
ye	-10.811
▁luachmhar	-10.8121
▁shu	-10.8121
ita	-10.8125
▁tionónta	-10.8127
▁líonraí	-10.8131
sing	-10.8137
▁áthas	-10.8139
▁Páirc	-10.8144
rum	-10.8144
▁Luan	-10.8145
▁phróisis	-10.8146
▁scrios	-10.8148
▁Togra	-10.8149
▁gairid	-10.815
mission	-10.8152
▁Coda	-10.8152
úlacht	-10.8157
▁lasta	-10.8165
osa	-10.8166
▁bróga	-10.8166
chúrsa	-10.8168
yan	-10.8169
ique	-10.817
rist	-10.8175
▁maidin	-10.8176
▁léirítear	-10.8186
▁2019.	-10.8186
gua	-10.8188
▁tiomána	-10.8191
▁AC	-10.8193
▁str	-10.8206
EO	-10.8208
▁42	-10.8213
▁Ríomh	-10.8214
reg	-10.8214
haibidil	-10.8215
▁bpríomh	-10.8216
lis	-10.8218
cer	-10.8218
ero	-10.8221
▁Author	-10.8222
▁Ghrúpa	-10.8222
▁chomhshaol	-10.8222
▁chreidiúint	-10.8222
▁sloinnte	-10.8222
▁clúdaithe	-10.8222
▁soladach	-10.8222
▁Eolais	-10.8222
▁airíonna	-10.8222
pdf	-10.8223
work	-10.8224
oide	-10.8224
▁cáiliúla	-10.8224
So	-10.8225
km	-10.8227
▁cuairteoirí	-10.8231
▁cleachtas	-10.8232
▁43	-10.8236
lite	-10.8236
álach	-10.8237
oinn	-10.8241
▁CC	-10.8242
▁dtabharfaidh	-10.8243
py	-10.8243
ally	-10.8244
▁ráthaíocht	-10.8246
bhrú	-10.8247
CD	-10.8249
▁inchurtha	-10.8249
▁deonacha	-10.8253
NC	-10.8253
tim	-10.8255
línte	-10.8256
▁Inn	-10.8258
▁urrús	-10.8261
▁moill	-10.8278
IE	-10.828
▁bheaga	-10.828
ji	-10.829
▁Dul	-10.829
▁éifeachtacht	-10.8295
hall	-10.8298
isteach	-10.8298
LT	-10.8299
▁Fhaisnéis	-10.83
▁dhiúltú	-10.83
▁ghruaig	-10.83
▁soilse	-10.83
▁mhoill	-10.83
▁Taispeántas	-10.83
▁neamhdhleathach	-10.8301
▁gcineál	-10.8301
▁bhfaigheann	-10.8303
▁cáiliúil	-10.8306
bheart	-10.8308
Su	-10.831
▁cheadúnais	-10.8311
▁feithicil	-10.8313
▁dlífear	-10.8315
▁téama	-10.8317
▁seolta	-10.8318
▁mbearta	-10.8318
▁onnmhairiú	-10.8327
oibríonn	-10.8327
pan	-10.8329
PDF	-10.8329
▁Char	-10.8336
ófaí	-10.8339
RS	-10.8345
41	-10.8346
lar	-10.8346
▁clog	-10.8347
64	-10.8353
▁píopa	-10.8354
▁Imeachta	-10.8357
69	-10.8365
2019	-10.8369
nic	-10.8373
magazine	-10.8378
▁sláintíochta	-10.8378
▁Scheme	-10.8378
▁dearcadh	-10.8378
▁caipitiúil	-10.8379
__	-10.838
ghnéithe	-10.838
▁Riail	-10.8381
feadh	-10.8381
▁ullmhaithe	-10.8382
▁choir	-10.8387
FI	-10.8388
don	-10.8389
▁Féile	-10.8395
▁tógtha	-10.84
▁dhíreach	-10.8403
▁cháil	-10.8404
▁dhéanfa	-10.8405
▁Mhór	-10.8405
achomharc	-10.8406
▁séala	-10.8407
▁thacaíocht	-10.8407
▁erotic	-10.8409
ines	-10.841
▁mall	-10.8412
OM	-10.8413
▁phá	-10.8414
53	-10.8416
▁Club	-10.8424
6/	-10.8443
▁Soláthair	-10.8447
▁díola	-10.8452
els	-10.8453
gre	-10.8454
ift	-10.8457
▁Android	-10.8458
▁samhail	-10.8459
▁seachtainiúil	-10.846
▁spreagúil	-10.846
▁Scéal	-10.846
▁ainmniúcháin	-10.8461
▁hathruithe	-10.8462
▁thit	-10.8463
bhuirg	-10.8469
yl	-10.847
▁Long	-10.8471
▁tabhair	-10.8472
▁Rúise	-10.8472
▁2014.	-10.8473
BO	-10.8486
Ireland	-10.8487
graf	-10.8488
▁seomraí	-10.8489
sea	-10.8491
dor	-10.8492
▁súile	-10.8494
dan	-10.8497
OC	-10.85
wh	-10.8501
▁Network	-10.8502
▁Modh	-10.8502
▁chlé	-10.8505
▁Foireann	-10.8505
▁fhear	-10.8506
▁barra	-10.851
trans	-10.851
▁fabraic	-10.8513
roinnt	-10.8517
illa	-10.852
▁Tri	-10.8525
léas	-10.8527
▁shár	-10.8527
▁fadhb	-10.8532
▁ceannais	-10.8533
▁Fraince	-10.8538
▁Kashtanka	-10.8538
▁pussy	-10.8538
▁sainráite	-10.8538
▁tapúla	-10.8538
▁dlíthiúla	-10.8538
▁Frith	-10.8539
chuideachta	-10.8539
▁cadhnraí	-10.8539
▁eisíodh	-10.8541
▁Bhéal	-10.8541
▁feabhsaithe	-10.8541
vision	-10.8544
▁Ola	-10.8544
loc	-10.8547
▁cumann	-10.8559
pot	-10.857
▁oibrí	-10.8571
reasa	-10.858
DI	-10.8581
▁cobhsaí	-10.8585
pal	-10.8592
▁Coimisinéir	-10.8594
▁can	-10.8597
CM	-10.8604
-10	-10.8604
▁hoibre	-10.8607
▁Sho	-10.8617
▁Iomlán	-10.8618
▁foirgníochta	-10.8618
▁litríocht	-10.8618
▁cuardaigh	-10.8619
óireacht	-10.8619
▁Halla	-10.862
▁caint	-10.8621
▁téip	-10.8622
Pro	-10.8624
hui	-10.8625
oideas	-10.8626
ilium	-10.8635
bhunscoileanna	-10.8636
▁Education	-10.8638
hóiste	-10.8641
ory	-10.8641
▁cóid	-10.8642
▁roth	-10.8643
▁chumasú	-10.8646
ever	-10.8648
cáin	-10.865
eur	-10.8655
star	-10.8656
▁mhac	-10.8669
time	-10.867
▁ghrúpaí	-10.8673
aitheanta	-10.8678
▁chónaí	-10.8679
aib	-10.8684
▁resistant	-10.8686
8/	-10.8687
▁hard	-10.8689
chat	-10.8689
NY	-10.8697
eirmeach	-10.8699
agairt	-10.8699
▁dtimpeallacht	-10.87
▁Ceanada	-10.87
▁síneadh	-10.87
▁feadán	-10.87
▁bhriseadh	-10.87
▁150	-10.8701
▁nótaí	-10.8703
▁gcomhaontú	-10.8704
▁Leathar	-10.8705
SM	-10.8708
▁fhíorú	-10.8711
▁55	-10.8717
▁sibh	-10.872
▁(31	-10.8723
tech	-10.8725
iff	-10.8725
▁trédhearcach	-10.8726
▁Phoblacht	-10.8727
qua	-10.8728
uit	-10.8735
▁Human	-10.8737
eadúnas	-10.8739
MB	-10.8739
▁aonaid	-10.8739
mhairc	-10.8742
▁gha	-10.8749
▁theach	-10.8751
ois	-10.8754
▁substaint	-10.8756
emi	-10.877
▁Gabh	-10.8773
cia	-10.8774
▁bhuail	-10.8774
▁dheisiú	-10.8774
▁Limited	-10.8782
▁German	-10.8782
▁Taobh	-10.8782
▁forléireo	-10.8782
▁Thairis	-10.8782
▁mhonarú	-10.8782
▁hOllscoile	-10.8782
▁coiteann	-10.8782
▁Chomhaontú	-10.8783
▁giorra	-10.8783
nóidh	-10.8783
▁Fho	-10.8784
▁creidiúnaithe	-10.8785
▁Leictreach	-10.8785
▁riaradh	-10.8787
▁gnóthaí	-10.8787
gen	-10.8788
caire	-10.8789
NO	-10.879
▁síniú	-10.8791
ml	-10.8794
isiúin	-10.8794
▁cas	-10.8795
RO	-10.8798
▁mhó	-10.88
▁Aonad	-10.8803
mal	-10.8803
burg	-10.8805
▁War	-10.8809
▁PE	-10.8811
▁gceanta	-10.8813
▁tóg	-10.8814
ghrúpa	-10.8816
imic	-10.882
CF	-10.882
▁iontrála	-10.8821
▁Nuálaíochta	-10.8828
sch	-10.883
▁stór	-10.883
▁chláraithe	-10.8833
íocaíochtaí	-10.8835
▁mp	-10.8839
▁Íoc	-10.8841
róidh	-10.8848
▁ban	-10.8848
avi	-10.8853
▁Bar	-10.8858
ainmniú	-10.886
lio	-10.8863
fheithiclí	-10.8864
▁Eilvéis	-10.8864
▁dílsithe	-10.8864
▁FÁS	-10.8864
▁damhsa	-10.8865
▁sucking	-10.8865
▁forlámhas	-10.8865
▁thuaidh	-10.8865
▁shásamh	-10.8865
mhór	-10.8866
▁Treoirlínte	-10.8866
▁bláthanna	-10.8867
▁cuntasaíochta	-10.8867
Car	-10.8871
▁1923	-10.8874
▁iarrachtaí	-10.8874
gio	-10.8877
▁1924	-10.8877
rid	-10.888
▁Leath	-10.8881
▁éisc	-10.8881
▁bunscoile	-10.8887
▁uimhreacha	-10.889
▁Imeachtaí	-10.8891
rios	-10.8893
▁Aeir	-10.8897
chláir	-10.8903
(4)	-10.8907
DS	-10.891
ichi	-10.8914
▁cealla	-10.8918
▁comhpháirteach	-10.8919
bri	-10.8927
▁gcomhpháirt	-10.8928
▁mona	-10.8933
MH	-10.8933
▁Fág	-10.8941
▁Coitianta	-10.8948
▁dhlíthiúil	-10.8948
▁tabhaíodh	-10.8948
▁déanmhas	-10.8948
▁thosú	-10.8948
▁fhorlíonadh	-10.8948
▁bhuachan	-10.8949
▁Inc	-10.895
▁(10)	-10.8951
▁1988	-10.8952
▁gabhálais	-10.8952
▁chomhlíonann	-10.8953
▁aisling	-10.8956
▁Seacha	-10.8958
▁breithiúnas	-10.8958
▁riar	-10.896
▁táirgeachta	-10.8961
▁fhéidir	-10.8962
Gene	-10.8965
cadh	-10.8967
ets	-10.8969
sex	-10.8971
▁Nasc	-10.8972
▁idirbheart	-10.8974
tel	-10.8975
▁Struchtúr	-10.8977
Eabhrac	-10.898
▁bainistíocht	-10.8984
Ghaeilge	-10.8985
▁phleanáil	-10.8985
▁Aois	-10.8986
▁inmheánacha	-10.8986
▁malartú	-10.8989
▁Oifigeach	-10.899
▁chomhar	-10.8991
▁bréagach	-10.8993
▁ghníomhaire	-10.8995
ado	-10.8999
▁breac	-10.9012
▁US	-10.9014
Com	-10.9017
▁Féad	-10.9018
media	-10.9019
▁braiteoir	-10.9023
mes	-10.9023
▁Dleacht	-10.9023
AO	-10.9024
▁Strap	-10.9024
▁comhla	-10.9028
eolaithe	-10.9029
▁Fuinnimh	-10.9032
▁Pearsanta	-10.9032
▁pionóis	-10.9032
▁Pháirtí	-10.9032
▁fionraí	-10.9032
athnuaite	-10.9032
▁Asraon	-10.9032
▁bpáistí	-10.9033
cheathrú	-10.9033
▁Iarthar	-10.9034
▁saineolas	-10.9034
▁chomhrac	-10.9035
Tra	-10.9039
win	-10.9052
▁Un	-10.9053
ionsaithe	-10.9054
éamh	-10.9059
lie	-10.9064
mars	-10.9065
▁Suas	-10.9066
rop	-10.9069
▁Tre	-10.9073
▁iontráil	-10.9075
easc	-10.9085
▁shonróid	-10.9095
aidreamh	-10.9102
ban	-10.9106
▁Cúram	-10.9116
▁tasc	-10.9116
▁bronntanais	-10.9116
▁chugat	-10.9116
▁iontaobhais	-10.9116
▁pacáistiú	-10.9116
▁sciorta	-10.9116
▁bhuíochas	-10.9116
▁Laidin	-10.9117
▁stampa	-10.9117
▁ngnáth	-10.9117
▁suimiúla	-10.912
▁glaoch	-10.9121
▁Iarr	-10.9121
▁guth	-10.9122
nny	-10.9126
▁cothromaíocht	-10.9127
▁Per	-10.9128
▁gearrtha	-10.9128
▁sub	-10.9129
RP	-10.9132
thi	-10.9136
▁Asal	-10.914
;&	-10.9145
▁2015.	-10.9145
HS	-10.9149
▁mhion	-10.915
5,000	-10.9151
▁straitéiseach	-10.9164
▁Nio	-10.9164
▁Airteagail	-10.9165
▁uas	-10.9165
▁locht	-10.9167
bit	-10.9168
▁suntasacha	-10.917
▁Seas	-10.917
▁dráma	-10.9173
sky	-10.9174
easún	-10.9186
uinn	-10.9186
chuir	-10.9188
▁iomarcach	-10.9188
ship	-10.9196
▁Shaorá	-10.9202
europapress	-10.9202
▁Pacáistiú	-10.9202
▁tarmligthe	-10.9202
▁bhfógra	-10.9202
▁slándáil	-10.9202
▁tráthnóna	-10.9202
▁TSín	-10.9202
▁seaicéid	-10.9202
▁shaoránaigh	-10.9202
▁chomaoin	-10.9202
▁ceantair	-10.9203
▁Bhuel	-10.9203
▁lampa	-10.9203
▁bplean	-10.9203
▁chultúrtha	-10.9204
▁Téarmaí	-10.9207
▁1990	-10.9207
ated	-10.9207
laíonn	-10.9209
agraíonn	-10.9212
▁Cumhachta	-10.9214
▁háiteanna	-10.9215
▁Ad	-10.9215
▁gcoimeád	-10.9217
adán	-10.9221
▁Fad	-10.9227
▁rochtana	-10.923
Ho	-10.9232
▁Féin	-10.9232
▁dtabharfa	-10.9235
▁Day	-10.9242
▁Lig	-10.9243
cothaithe	-10.9243
gl	-10.9243
▁gcóir	-10.9246
▁Cruth	-10.9247
ax	-10.925
▁ainmhí	-10.9274
oke	-10.9276
▁chúiseanna	-10.928
óidí	-10.9281
▁Ros	-10.9282
▁gcos	-10.9284
▁pill	-10.9286
▁Éil	-10.9287
▁tSualainn	-10.9288
▁thrádáil	-10.9288
▁triúr	-10.9288
▁rannóg	-10.9288
▁Institute	-10.9288
▁asraon	-10.929
▁mhealladh	-10.929
▁Taoiseach	-10.9293
▁Ilghnéitheacha	-10.9297
▁hAcht	-10.9304
▁Office	-10.9305
▁tosaíochta	-10.9307
rang	-10.9308
TI	-10.9311
▁chomhpháirt	-10.9313
ofar	-10.9316
▁Óg	-10.9316
EP	-10.9316
▁College	-10.932
▁School	-10.9322
fhreagra	-10.9324
▁Omega	-10.9326
xi	-10.9326
▁CNC	-10.9327
▁Treoracha	-10.9329
ski	-10.9329
400	-10.9332
pat	-10.9332
ative	-10.9333
▁fonn	-10.9333
▁aisíocaíocht	-10.9334
▁fán	-10.9339
▁Reacht	-10.934
▁Franc	-10.9344
ones	-10.935
▁tuismitheoir	-10.935
▁Comhar	-10.935
▁oileán	-10.9353
▁mbarr	-10.9357
BA	-10.9361
lum	-10.9375
world	-10.9375
▁Gheobhaidh	-10.9375
▁Phortaingéil	-10.9375
▁aicrileach	-10.9375
▁morgáiste	-10.9375
▁PVC	-10.9375
▁Ollmhór	-10.9375
book	-10.9377
▁gcinneadh	-10.9377
▁fráma	-10.9377
▁Moltar	-10.9378
▁Ghnó	-10.9379
▁gcomhlíonadh	-10.9379
ibé	-10.9383
inntíonn	-10.9386
▁fhoirceannadh	-10.939
▁Ka	-10.939
lib	-10.9393
Uni	-10.9396
▁fhreagracht	-10.9403
▁malartacha	-10.9405
▁Report	-10.9405
▁Ben	-10.941
▁díoltóir	-10.941
loo	-10.9417
dhéanta	-10.9417
aicme	-10.9421
bel	-10.9424
▁teorann	-10.9427
▁Just	-10.9427
▁aschur	-10.9432
well	-10.9434
▁balla	-10.9435
▁scoláire	-10.9436
▁oifigí	-10.9437
▁íon	-10.944
adóireacht	-10.9446
imis	-10.945
SL	-10.9454
▁hi	-10.9458
▁gcó	-10.946
▁75	-10.9462
cricket	-10.9463
▁Eaglais	-10.9463
▁trealaimh	-10.9463
▁bónais	-10.9463
▁Minister	-10.9463
▁dtéarmaí	-10.9464
fhocail	-10.9465
▁logáil	-10.9466
▁hI	-10.9466
▁1996	-10.9467
▁shraith	-10.9467
imir	-10.9468
▁cainteoirí	-10.9472
▁gnéasach	-10.9472
▁Ceannaigh	-10.9474
other	-10.9476
uan	-10.9478
▁Sampla	-10.9479
▁Cuims	-10.9482
ition	-10.9482
BH	-10.9494
▁ranníocaíocht	-10.9494
áitreabh	-10.9509
▁mhuirear	-10.9509
▁Fan	-10.9512
▁Add	-10.9521
▁tra	-10.9524
▁Pol	-10.9527
▁Gairm	-10.9532
800	-10.9532
únta	-10.9536
▁Met	-10.9537
▁cumhachtach	-10.954
oireachta	-10.9543
2018	-10.9544
▁2)	-10.9544
▁66	-10.9545
▁feiste	-10.9547
▁col	-10.9549
▁fan	-10.9551
▁jewelry	-10.9551
▁Talún	-10.9551
▁tionchair	-10.9551
▁caillteanais	-10.9551
▁chucu	-10.9552
▁Socruithe	-10.9553
▁aisghabháil	-10.9553
▁scíth	-10.9555
▁info	-10.9556
ionscnamh	-10.9562
▁gairme	-10.9563
▁grád	-10.9566
▁úsáideadh	-10.9568
▁eacnamaíochta	-10.9571
▁thionscadail	-10.9572
▁éirigh	-10.9572
▁Ionstraim	-10.9572
ionann	-10.9573
▁DE	-10.9578
ailís	-10.9579
▁Ceart	-10.9582
▁foclóirí	-10.9582
right	-10.9584
faimid	-10.9585
inger	-10.9586
uth	-10.9587
▁thagairtí	-10.9588
oibrí	-10.959
▁cearnach	-10.9591
tábhachtach	-10.9603
▁Art	-10.9607
ized	-10.9608
▁gcorp	-10.961
▁trédhearcacht	-10.9612
▁reachtach	-10.9612
▁fhostaí	-10.9614
▁Sta	-10.9618
▁leictreachas	-10.9619
ux	-10.9628
LO	-10.9631
▁mil	-10.9636
▁lúb	-10.9638
▁Service	-10.9638
▁Leispiacha	-10.9641
▁Technology	-10.9641
▁strainséir	-10.9641
▁timthriall	-10.9641
▁Bileog	-10.9641
▁Shábháilteacht	-10.9641
▁sexy	-10.9641
▁Spáinnis	-10.9641
▁trastomhas	-10.9642
▁cuimhneamh	-10.9642
▁1992	-10.9645
game	-10.9645
▁comhréireachta	-10.9646
cul	-10.9646
▁dhroim	-10.9651
▁Ré	-10.9654
▁aibí	-10.9658
throm	-10.9659
erry	-10.966
▁ionchur	-10.9661
Bo	-10.9663
▁TFC	-10.9667
álfar	-10.9674
▁cruthaitheach	-10.9676
PL	-10.9679
Éirinn	-10.968
▁comhpháirtíocht	-10.9682
▁seachadta	-10.9686
▁íocfar	-10.9693
duine	-10.9696
▁Éirí	-10.9699
▁tairiscintí	-10.97
eath	-10.9708
▁TG	-10.9712
▁hais	-10.9712
ink	-10.9715
▁ionchúiseamh	-10.9716
isín	-10.9718
▁breithiúnach	-10.972
▁Ur	-10.9723
gas	-10.9727
TO	-10.9729
▁Miotal	-10.9731
▁abhaile	-10.9731
▁seánra	-10.9731
▁fúthu	-10.9731
▁siopadóireacht	-10.9731
▁bhfaisnéis	-10.9731
▁éinní	-10.9731
▁luaidhtear	-10.9732
▁chónaíonn	-10.9732
cher	-10.9733
▁cheanglaítear	-10.9734
▁strus	-10.9734
▁chúnamh	-10.9734
▁bhFear	-10.9734
▁Tuairimí	-10.9736
▁Leighis	-10.9737
▁Red	-10.9738
▁Ja	-10.974
▁China	-10.9741
▁shealbh	-10.9745
▁thuairisc	-10.9747
▁hobair	-10.9747
▁dheon	-10.9747
▁gcomhaltaí	-10.9748
VA	-10.9752
▁tUachtarán	-10.9755
▁bus	-10.9756
▁phrionsaba	-10.9757
▁316	-10.9757
▁sceideal	-10.9758
▁íomhánna	-10.9763
▁éigeantach	-10.9765
UA	-10.9765
áirt	-10.9767
▁Iompar	-10.977
▁Thar	-10.9772
▁ST	-10.9773
To	-10.9773
éadaí	-10.9775
▁leictreonacha	-10.9778
▁íocann	-10.9778
rod	-10.978
-5	-10.9789
dhíol	-10.9789
Am	-10.9791
VI	-10.9801
aonar	-10.9801
▁Chur	-10.9806
ife	-10.981
▁Feidhmeanna	-10.9812
▁iasachta	-10.9814
GO	-10.9816
▁reachtaíochta	-10.9818
▁Tac	-10.9819
▁COVID	-10.9822
▁alúmanam	-10.9822
▁cúnaimh	-10.9822
▁himthosca	-10.9822
▁mheaitseáil	-10.9822
▁praiticiúil	-10.9822
▁litiam	-10.9822
▁thaighde	-10.9822
▁tiubh	-10.9822
▁tsamhail	-10.9822
▁gcumhacht	-10.9822
▁imeall	-10.9822
▁fomhír	-10.9822
▁reachtúla	-10.9823
FF	-10.9824
téarma	-10.9825
▁iasachtaí	-10.9826
Comh	-10.9827
▁méadaithe	-10.9828
ogha	-10.9829
▁Tin	-10.9829
gs	-10.9829
▁éinne	-10.9836
▁Thoir	-10.9837
▁mheasfaidh	-10.9838
▁Mal	-10.9841
▁man	-10.9847
eolaíoch	-10.9847
▁fheice	-10.9848
▁Cogadh	-10.9851
luíonn	-10.9852
▁ceannaigh	-10.9852
▁Beaga	-10.9857
▁UN	-10.9857
athraigh	-10.9861
▁crann	-10.9861
▁caillte	-10.9863
▁Sábháilteacht	-10.9866
▁chiste	-10.9872
▁glac	-10.9876
▁Cill	-10.9879
▁freagraí	-10.9883
▁cheisteanna	-10.9884
uille	-10.9888
▁Press	-10.9891
aonad	-10.9891
▁1)	-10.9902
▁dheimhn	-10.9902
huile	-10.9904
láintiúil	-10.991
lock	-10.9911
isi	-10.9912
▁pre	-10.9912
eilg	-10.9913
▁Amaitéarach	-10.9913
▁Fhionlainn	-10.9913
▁Leibhéal	-10.9913
▁Trenbolone	-10.9913
▁chaiteachais	-10.9913
▁Éasca	-10.9913
▁intíre	-10.9913
▁ghearán	-10.9913
▁oireann	-10.9914
▁thosaíonn	-10.9915
gro	-10.9915
▁comhiomlán	-10.9916
▁coinneáil	-10.9917
▁ríomhairí	-10.9917
▁tarchur	-10.9921
▁stua	-10.9922
▁Cinnte	-10.9922
▁chuirimid	-10.9922
▁brunettes	-10.9925
euro	-10.9926
▁scar	-10.9928
lex	-10.9928
▁Eas	-10.9929
app	-10.9935
▁Socr	-10.994
▁1000	-10.9944
▁ndí	-10.9946
▁príosúnacht	-10.9948
eagraíocht	-10.9962
mill	-10.9965
iall	-10.9966
–	-10.9968
ration	-10.9971
ionadaithe	-10.9976
chúis	-10.9977
▁Police	-10.9982
FS	-10.9991
maoin	-10.9992
úsáideann	-10.9992
▁chomhlachtaí	-10.9994
▁Foundation	-10.9996
fhan	-10.9999
▁bheart	-11.0001
▁ghléas	-11.0003
▁léarscáil	-11.0003
▁rannpháirtí	-11.0003
▁Barbour	-11.0006
▁Mheithimh	-11.0006
▁cultúir	-11.0006
▁hAstráile	-11.0006
▁mionsonraí	-11.0006
▁shainaithint	-11.0006
▁buntáiste	-11.0006
▁Torthaí	-11.0006
▁fuinneog	-11.0006
▁ghluaiseacht	-11.0007
▁sliocht	-11.0008
▁shoot	-11.0008
▁tarraingthe	-11.001
▁1994	-11.001
▁chothrom	-11.0011
▁Díbh	-11.0012
mis	-11.0012
▁stopadh	-11.0013
▁Fiú	-11.0014
▁Pá	-11.0016
▁by	-11.0016
▁iarrtha	-11.0019
porn	-11.0019
▁bunús	-11.0023
▁tráthúil	-11.0025
▁cois	-11.003
▁bhfear	-11.0038
ower	-11.0043
rug	-11.0044
▁Arm	-11.0044
FT	-11.0049
lig	-11.0053
▁Gall	-11.0054
Th	-11.0056
AF	-11.006
oiliúint	-11.0062
▁cóiríocht	-11.0062
▁sú	-11.0065
▁Cathair	-11.0071
▁madra	-11.0075
cibé	-11.0076
▁DC	-11.0076
féach	-11.0076
Ag	-11.0077
eve	-11.0079
▁CY	-11.0084
cheann	-11.0093
inniúlacht	-11.0099
▁Bhéarla	-11.0099
▁Pholainn	-11.0099
▁Polasaí	-11.0099
▁acadúil	-11.0099
▁dúchais	-11.0099
▁fiontair	-11.0099
▁muintir	-11.0099
▁urrúis	-11.0099
▁Ísiltír	-11.0099
▁Úcráin	-11.0099
▁ndearadh	-11.0099
▁boird	-11.0099
▁díbhinn	-11.01
▁leithdháileadh	-11.01
▁sonraíochtaí	-11.0102
▁púdar	-11.0103
▁1995	-11.0104
▁casadh	-11.0106
▁Gníomhaireacht	-11.0107
▁inrochtana	-11.0109
▁bianna	-11.0111
▁FC	-11.0113
▁beann	-11.0114
▁MA	-11.0116
▁turasóireachta	-11.0117
▁Lár	-11.0121
cm	-11.0122
▁Har	-11.0124
▁eagraithe	-11.0126
scr	-11.0126
mic	-11.0134
▁AR	-11.0136
▁plátáilte	-11.0139
PT	-11.0147
údaráis	-11.0148
mit	-11.015
▁eachtrach	-11.0151
▁Los	-11.0153
▁fá	-11.0156
eisiúint	-11.0157
info	-11.0157
▁clú	-11.0158
eolaí	-11.016
kh	-11.0161
scail	-11.0165
▁Dea	-11.0167
nce	-11.0167
liosta	-11.0167
mos	-11.0169
Po	-11.0173
room	-11.0175
IÚ	-11.0176
▁cor	-11.0177
fheistiú	-11.0178
neoir	-11.0178
▁idirghabhála	-11.0183
▁Rómhánach	-11.0194
▁sorcóir	-11.0194
▁toirmeasc	-11.0194
▁Bóthar	-11.0194
▁Europol	-11.0194
▁ceadúnaithe	-11.0195
▁tiús	-11.0196
▁baineadh	-11.0197
▁daite	-11.0197
▁sách	-11.0201
online	-11.0207
2014	-11.021
girl	-11.0213
▁snámha	-11.0216
rick	-11.0217
rob	-11.0219
▁thionchar	-11.0221
▁Anailís	-11.0221
▁déantúsaíochta	-11.0225
íche	-11.0226
▁tosaíochtaí	-11.0226
▁céadta	-11.0235
neas	-11.0237
▁fosta	-11.0237
▁Sábháilteachta	-11.0244
tory	-11.0244
ette	-11.0246
▁fhorchur	-11.0247
▁Corparáideach	-11.0253
▁socr	-11.0259
▁tarraing	-11.0263
▁sá	-11.0269
last	-11.027
▁ranníoc	-11.0276
▁choinn	-11.0278
▁leasaithe	-11.0282
éireacht	-11.0286
▁we	-11.0286
ater	-11.0289
ordaithe	-11.0289
▁Dhaoine	-11.0289
▁comórtas	-11.0289
▁thorthaí	-11.0289
football	-11.0289
▁reiligiún	-11.0289
▁bóthar	-11.029
▁Local	-11.029
▁over	-11.029
▁foriomlán	-11.0291
▁Phort	-11.0291
▁mhainn	-11.0292
▁míosa	-11.0292
▁dorcha	-11.0293
▁déantúsóirí	-11.0294
▁charr	-11.0294
▁USB	-11.0296
▁Eacnamaíochta	-11.0303
▁struchtúir	-11.0305
▁chlúdach	-11.0305
▁mheastar	-11.0308
▁dhóigh	-11.0313
ray	-11.0313
▁gnóthas	-11.0314
die	-11.0314
▁Dar	-11.0316
▁Public	-11.0317
▁alos	-11.0318
▁tiománaí	-11.0319
▁Straitéiseach	-11.032
▁Rialaithe	-11.0323
FP	-11.0325
▁infheistiú	-11.033
▁inscne	-11.033
▁coinne	-11.0331
▁maisiú	-11.0335
▁Bainistíocht	-11.0337
▁nóta	-11.0338
▁Pleanáil	-11.0343
▁suiteáil	-11.0345
obhach	-11.0346
side	-11.035
iniúchadh	-11.0353
fhorálacha	-11.0354
▁fórsa	-11.036
▁leacht	-11.0364
llo	-11.0364
oifigigh	-11.0365
▁minicíocht	-11.0366
▁líonta	-11.0369
pháirtí	-11.037
▁SAM	-11.037
It	-11.0372
▁Muir	-11.0374
ming	-11.0375
wing	-11.0377
Do	-11.0379
▁gComh	-11.0382
▁eascraíonn	-11.0385
▁miondíola	-11.0385
▁stáisiúin	-11.0385
▁Tiarna	-11.0385
▁roisín	-11.0385
▁naimhde	-11.0386
▁seisiún	-11.0386
▁Óstán	-11.0386
▁Bheilg	-11.0386
▁Earraigh	-11.0387
▁dhúnadh	-11.0387
▁breithniú	-11.0387
▁Old	-11.0387
▁EP	-11.0389
▁foinsí	-11.0389
▁1956	-11.0389
▁1927	-11.0391
ters	-11.0392
agra	-11.0392
▁House	-11.0396
úchán	-11.0399
thú	-11.0399
lithe	-11.04
▁coda	-11.0404
Cha	-11.0405
▁tháirge	-11.0405
▁ISO	-11.0406
tóireacht	-11.0411
▁120	-11.0414
▁eolaíocht	-11.0415
off	-11.0419
▁dheas	-11.0421
▁carn	-11.0423
pol	-11.0423
cháilithe	-11.0424
▁SCEIDEAL	-11.0424
▁micrea	-11.0427
▁tosaíocht	-11.0429
▁hOifige	-11.0442
ella	-11.0444
▁hath	-11.0445
▁péint	-11.0449
ska	-11.0451
▁chreat	-11.0451
▁ngá	-11.0454
▁phoist	-11.0455
pit	-11.046
SU	-11.0468
cheart	-11.0471
▁bhfeidhmiú	-11.0473
▁Trans	-11.0473
▁Trá	-11.0476
▁luacháil	-11.0481
▁Inmheánach	-11.0482
▁Páipéar	-11.0482
▁feistis	-11.0482
▁gceangal	-11.0482
▁shaincheapadh	-11.0482
▁tairseach	-11.0482
▁Silver	-11.0482
▁cainníocht	-11.0482
▁thuilleamh	-11.0482
▁turais	-11.0483
▁thaisceadh	-11.0483
▁bréagáin	-11.0484
▁nglacadh	-11.0486
▁Coats	-11.0486
▁buille	-11.0488
▁feidhmiúcháin	-11.049
▁sraitheanna	-11.05
▁atmaisféar	-11.05
▁margaíochta	-11.0508
heideal	-11.0515
adóirí	-11.0517
▁leagfa	-11.0523
elli	-11.0523
/1	-11.0529
íocfar	-11.0532
▁taitneamhach	-11.0532
riachtanach	-11.0541
mair	-11.0542
▁eisithe	-11.0547
Iarscríbhinn	-11.0552
▁rásaíocht	-11.0552
▁fís	-11.0557
▁Críost	-11.056
cháil	-11.0565
▁oidhreachta	-11.0568
▁2012.	-11.057
ithigh	-11.0572
▁ársa	-11.0578
att	-11.0578
ped	-11.0579
▁Ghréig	-11.058
▁Liotuáin	-11.058
▁Oiliúint	-11.058
▁Tionscadail	-11.058
▁bharántas	-11.058
▁idéalach	-11.058
▁sapphire	-11.058
▁Angeles	-11.058
▁Center	-11.058
innéacs	-11.058
▁mhíleata	-11.0581
Faoiseamh	-11.0582
▁ráthú	-11.0582
▁1961	-11.0584
▁liachta	-11.0585
▁aiseolas	-11.059
▁comhordú	-11.0592
▁Chat	-11.0594
▁Cultúr	-11.0595
Acad	-11.0596
tréimhse	-11.0599
▁árachas	-11.06
!!!	-11.0602
agtar	-11.0608
▁feasach	-11.0611
▁nuachta	-11.0617
▁rúnda	-11.0618
▁46	-11.0619
▁Inis	-11.0621
▁My	-11.0622
▁mhol	-11.0622
sl	-11.0623
▁Geo	-11.0623
▁dátaí	-11.0625
pur	-11.0625
▁ghníomhaireacht	-11.0632
iarratais	-11.0638
tern	-11.0639
eisigh	-11.0641
óireachta	-11.0642
BC	-11.0644
▁íos	-11.0647
BE	-11.0648
DM	-11.0649
▁Comp	-11.065
SF	-11.0652
luas	-11.0653
earra	-11.0654
▁ranníoca	-11.0657
▁gal	-11.0664
▁dalta	-11.0667
aontaigh	-11.0667
rim	-11.0668
▁cloch	-11.0671
RG	-11.0674
▁measa	-11.0677
▁dtiocfa	-11.0677
▁Foilseacháin	-11.0679
▁Teagasc	-11.0679
▁mullaigh	-11.0679
▁sliotán	-11.0679
▁staitisticí	-11.0679
▁paisinéirí	-11.0679
▁cartúin	-11.0679
▁mhúineadh	-11.068
▁mhilliún	-11.068
▁stiúradh	-11.068
▁dífhostaithe	-11.0681
▁ghlao	-11.0681
▁Cheap	-11.0682
▁comhlíonta	-11.0682
▁diosca	-11.0682
▁leithne	-11.0683
No	-11.0688
free	-11.069
▁hoibreacha	-11.069
▁difríochtaí	-11.0693
var	-11.0695
▁America	-11.0697
▁bhog	-11.0699
anach	-11.0701
dis	-11.0702
▁Cathaoirleach	-11.0707
▁ealaíontóirí	-11.071
▁€4	-11.0712
chruinn	-11.0712
ridge	-11.0718
nis	-11.0726
▁déine	-11.0729
war	-11.0729
SB	-11.0734
▁coiriúla	-11.0738
caireacht	-11.0743
▁tonna	-11.0746
▁fíon	-11.0748
▁Cháin	-11.0754
▁vótaíochta	-11.0755
áidí	-11.0755
▁AD	-11.0761
▁Sín	-11.0763
▁dír	-11.0764
TT	-11.0765
▁Teas	-11.0766
▁cúirt	-11.0769
ology	-11.0769
tch	-11.0774
▁Údar	-11.0778
iompróir	-11.0779
▁Breasts	-11.0779
▁Doiciméid	-11.0779
▁Músaem	-11.0779
▁Tiontaire	-11.0779
▁muscle	-11.0779
▁Cairdeas	-11.0779
▁fashion	-11.0779
▁phinsin	-11.0779
▁ndíol	-11.0779
▁Cúnamh	-11.0779
▁frása	-11.0779
▁Ostair	-11.078
phointí	-11.078
▁Ardchaighdeáin	-11.078
▁tanaí	-11.0781
house	-11.0781
▁hoibleagáidí	-11.0783
teicneolaíochtaí	-11.0784
▁caill	-11.0784
▁Tairiscintí	-11.0786
▁chruthaíonn	-11.0786
pping	-11.0791
▁fisiceach	-11.08
ithníonn	-11.0801
▁Sheirbhísí	-11.0803
▁May	-11.081
▁litreacha	-11.0813
▁Béal	-11.0814
▁Gníomhaireachta	-11.0817
▁Dála	-11.0826
new	-11.0826
oscailt	-11.0827
▁Comhalta	-11.0829
los	-11.0834
▁báis	-11.0839
ealaíontóirí	-11.0841
▁díobháil	-11.0841
▁too	-11.0843
vent	-11.085
chúram	-11.0851
cro	-11.0852
opa	-11.0853
▁Du	-11.0861
▁imirce	-11.0876
▁scriú	-11.088
▁Láithreán	-11.088
▁creideamh	-11.088
▁fulaingt	-11.088
▁chleachtadh	-11.088
▁toghchán	-11.088
▁Athruithe	-11.088
▁rannán	-11.088
▁cúltaca	-11.088
▁leispiacha	-11.088
FCBarcelona	-11.0881
▁namhaid	-11.0881
▁samhlacha	-11.0881
scartha	-11.0882
▁cháilitheach	-11.0883
▁lag	-11.0886
▁iarrtar	-11.0888
board	-11.0889
▁fachtóirí	-11.0889
icéad	-11.0891
▁bhás	-11.0892
▁Aicm	-11.0892
▁feirmeoirí	-11.0894
▁LED	-11.0896
bhá	-11.0905
OLA	-11.091
▁bheartas	-11.0911
▁Áise	-11.0913
▁White	-11.0915
▁65	-11.0915
▁cúraimí	-11.0918
▁Dí	-11.0919
not	-11.0921
▁eolaíoch	-11.0924
▁South	-11.0925
▁fhiach	-11.0926
▁(2	-11.0928
Fi	-11.093
▁bhac	-11.0932
▁Brú	-11.0933
▁Treorach	-11.0934
▁Mhuire	-11.0937
▁charms	-11.0938
othú	-11.0941
uain	-11.0941
▁fáis	-11.095
▁Sá	-11.0959
▁dhe	-11.096
▁bhforál	-11.096
aoise	-11.0963
Book	-11.0966
ghabhála	-11.0967
▁reachta	-11.0974
fheidhmeannach	-11.0982
Atlantic	-11.0982
Mhúsaem	-11.0982
▁Seapáinis	-11.0982
▁Shóisialta	-11.0982
▁Tionscadal	-11.0982
▁conclúidí	-11.0982
▁nDaonlathaithe	-11.0982
▁neamhfhoirmiúil	-11.0982
▁scáileáin	-11.0982
▁Inscne	-11.0982
▁carachtar	-11.0982
▁próitéin	-11.0982
▁Aistriúcháin	-11.0982
▁cistiú	-11.0983
▁scilling	-11.0983
▁mharú	-11.0983
▁bhfostaíocht	-11.0983
▁cuimilteora	-11.0984
▁borradh	-11.0984
▁Bearta	-11.0984
▁iarainn	-11.0984
▁uasghrádú	-11.0985
▁Uachtarach	-11.0986
101	-11.0987
▁Saoránach	-11.0987
▁1989	-11.0987
▁Pu	-11.0989
▁1980	-11.099
▁chomhionann	-11.0991
▁sráide	-11.0992
▁pearsa	-11.0995
▁mhúinteoir	-11.0999
ori	-11.1001
hl	-11.1004
▁Díreach	-11.1008
Comm	-11.1022
▁Chumann	-11.1024
roma	-11.1025
▁foirceannadh	-11.1027
uporn	-11.1028
▁App	-11.1032
▁ndlí	-11.1037
▁salach	-11.1037
▁shaor	-11.1049
▁ste	-11.1052
Football	-11.1057
ston	-11.1061
▁Nóta	-11.107
fas	-11.1075
▁Op	-11.1075
▁Hi	-11.1076
fhógair	-11.1085
orporate	-11.1085
▁Comhphobail	-11.1085
▁JavaScript	-11.1085
▁Mhúinteoirí	-11.1085
▁Organization	-11.1085
▁alcóil	-11.1085
▁chúiteamh	-11.1085
▁thomhaltóirí	-11.1085
▁Ceantair	-11.1085
▁Conarthaí	-11.1085
▁mogalra	-11.1085
▁teaghais	-11.1085
▁Bhliain	-11.1085
BS	-11.1087
▁Féadtar	-11.1089
▁ngairmtear	-11.1089
▁1993	-11.1089
▁50%	-11.109
▁chuims	-11.1091
▁glúine	-11.1096
▁Clo	-11.1098
▁féile	-11.1101
▁naoi	-11.1102
▁háite	-11.1107
▁scaoilte	-11.1108
ery	-11.111
▁chíos	-11.1112
▁County	-11.1114
▁Mhá	-11.1114
▁luadh	-11.1114
teachtaireachtaí	-11.1122
▁Pé	-11.1124
field	-11.1124
▁iontaofacht	-11.1127
▁Bunaithe	-11.1128
▁forála	-11.1128
▁Eagr	-11.1132
▁Mini	-11.1133
LF	-11.1136
▁Sol	-11.114
▁dhír	-11.114
▁Pas	-11.1143
osach	-11.1148
▁lánúin	-11.1148
▁chuairt	-11.1156
eagar	-11.1157
BB	-11.1161
▁fó	-11.1161
cat	-11.1164
Im	-11.1164
▁athair	-11.1168
▁Ráth	-11.1174
▁comhoiriúnach	-11.1174
gov	-11.1176
▁oibríocht	-11.1177
Open	-11.1177
▁comhshocraíocht	-11.118
▁Je	-11.1182
uítear	-11.1183
UC	-11.1185
▁corparáide	-11.1186
▁soiléire	-11.1188
▁pornozal	-11.1189
▁Bhreatain	-11.119
▁eatarthu	-11.119
▁phionós	-11.119
▁toirchis	-11.119
tz	-11.119
▁Costais	-11.119
▁Uladh	-11.1191
▁bhabhta	-11.1191
▁clo	-11.1192
▁ngníomhaíochtaí	-11.1193
▁fholaíonn	-11.1193
▁iontas	-11.1194
▁pu	-11.1194
▁gcúis	-11.1195
▁taos	-11.1196
▁Braiteoir	-11.1196
INT	-11.1197
NG	-11.1202
▁teip	-11.1208
▁cuims	-11.1211
lús	-11.1213
Oibreacha	-11.1213
MO	-11.1215
▁taifeadta	-11.1215
hua	-11.1218
▁cheantair	-11.1222
vy	-11.1222
▁spéir	-11.1224
▁ciste	-11.1225
LV	-11.1234
mhara	-11.1236
kar	-11.1237
3%	-11.1237
ladh	-11.1238
▁Thiar	-11.1239
▁gléasra	-11.1241
▁aistriúchán	-11.1246
▁fireann	-11.1252
count	-11.1258
▁€5	-11.126
scaoileadh	-11.1264
▁ollscoil	-11.1266
▁TR	-11.1267
▁Cúirt	-11.1269
watch	-11.127
▁snámh	-11.127
▁47	-11.1272
▁moltar	-11.1275
▁SA	-11.1276
thor	-11.1277
▁Top	-11.1277
unk	-11.128
oileáin	-11.1282
▁Don	-11.1283
óide	-11.1284
IB	-11.1285
▁ceap	-11.1287
▁Leagan	-11.129
▁Pacáiste	-11.1295
▁romhat	-11.1295
▁theaghlach	-11.1295
▁blonde	-11.1295
▁díolmhaithe	-11.1295
▁Fianáin	-11.1295
▁Coiriúil	-11.1295
▁deonaíodh	-11.1295
▁eisiach	-11.1295
▁Láirge	-11.1295
airgeadra	-11.1296
▁Réamhrá	-11.1296
▁tromlach	-11.1297
▁leantóirí	-11.1297
▁bréagán	-11.1297
▁ceantar	-11.1297
▁gcaidreamh	-11.1299
▁gComhaontú	-11.1301
▁comhaimseartha	-11.1304
ghabháil	-11.1304
CL	-11.1304
▁faiseanta	-11.1306
imint	-11.131
foirt	-11.1311
▁tosaithe	-11.1313
ben	-11.1318
▁IN	-11.1319
▁Árann	-11.132
icéid	-11.1323
ilín	-11.1324
▁Shot	-11.1327
▁dhi	-11.1333
lian	-11.1337
▁Caith	-11.1347
▁hailt	-11.1348
ify	-11.1352
▁Monaróir	-11.1376
▁fhreastal	-11.1377
▁fhiosrú	-11.1377
▁Sheirbhís	-11.1382
aithfear	-11.1388
eodh	-11.1389
oz	-11.1391
▁leisce	-11.1394
▁ghníomhach	-11.1396
▁cheannaigh	-11.1397
▁Príobháideach	-11.1399
▁Corcaigh	-11.1401
▁Ghinearálta	-11.1401
▁Voyeurism	-11.1401
▁dífhostaíochta	-11.1401
▁gheimhreadh	-11.1401
▁ngréasán	-11.1401
▁Priontáil	-11.1401
▁iliomad	-11.1401
▁Faisean	-11.1401
▁Sonrú	-11.1401
▁thaithí	-11.1401
▁Blue	-11.1402
▁Domhain	-11.1403
▁(11)	-11.1404
stone	-11.1407
▁rátáil	-11.1408
▁Fireann	-11.1409
▁Ciorclán	-11.141
istic	-11.1412
▁treocht	-11.1413
-0	-11.1413
▁Deimhnithe	-11.1414
▁Sasana	-11.1414
▁2021	-11.1416
hair	-11.1416
▁éifeachtúil	-11.1418
gue	-11.1419
▁Bunscoile	-11.1422
▁ól	-11.1423
oh	-11.1424
▁inghlactha	-11.1425
éine	-11.1425
▁dhigiteach	-11.1428
▁diúltach	-11.1429
eallraí	-11.143
▁píopaí	-11.1435
▁gaire	-11.1437
▁rian	-11.1439
ardaigh	-11.144
mari	-11.1442
cheap	-11.1455
▁chóip	-11.1455
▁cúl	-11.1458
íomar	-11.1459
othaithe	-11.1459
GE	-11.1462
▁Céad	-11.1469
▁01	-11.1474
aka	-11.1474
post	-11.1478
▁tromchúiseacha	-11.1478
▁nea	-11.148
FB	-11.148
▁críochnú	-11.1484
BL	-11.1486
▁timpeallachta	-11.1487
cháilíocht	-11.1487
Treoir	-11.1488
▁sheas	-11.149
aille	-11.1492
▁lipéad	-11.1496
▁pró	-11.1498
▁dick	-11.1508
▁radharc	-11.1509
▁coincheap	-11.1509
▁scratch	-11.1509
▁aighneachtaí	-11.1509
▁polaitíochta	-11.1509
▁tsamhraidh	-11.1509
▁Saoirse	-11.1509
▁chorparáide	-11.1509
▁dúlra	-11.1509
laíochta	-11.1509
▁uaslódáil	-11.1509
▁cinntiú	-11.1509
▁orlach	-11.1509
▁ospidéil	-11.1509
▁chustaiméara	-11.151
▁mhodhnú	-11.151
▁coistí	-11.1511
▁ghrian	-11.1513
▁dílse	-11.1513
▁suímh	-11.1514
acmhainn	-11.1515
BBC	-11.1516
▁Tuig	-11.1518
▁cainte	-11.152
▁Maoiniú	-11.1522
oli	-11.1525
%	-11.153
▁Fu	-11.1531
▁here	-11.1532
thrá	-11.1547
▁tuairisciú	-11.1548
dity	-11.155
▁fhoirgneamh	-11.156
eofaí	-11.1568
▁cóta	-11.1577
▁fuaim	-11.1578
údair	-11.1579
0.	-11.1579
thu	-11.158
ACHA	-11.1584
▁Airm	-11.1586
teacht	-11.1588
HR	-11.1591
▁banc	-11.1591
aidí	-11.1604
institiúidí	-11.1604
▁stad	-11.1604
▁chrua	-11.1607
mhain	-11.1609
▁custaim	-11.1616
roulette	-11.1617
▁Leictreonach	-11.1617
▁Riachtanais	-11.1617
▁chogaidh	-11.1617
▁mheaisín	-11.1617
▁mhúnla	-11.1617
▁shuntasach	-11.1617
▁Méadú	-11.1617
▁Lárionad	-11.1618
▁sceitheadh	-11.1618
▁míonna	-11.1618
▁Uachtaráin	-11.1618
▁bhfomhír	-11.1618
▁eachtraíochta	-11.1619
▁Pacáil	-11.1619
black	-11.162
▁Sports	-11.1621
▁gníomhairí	-11.1621
sain	-11.1622
▁chuntais	-11.1627
▁cliant	-11.1628
▁tástálacha	-11.1633
pu	-11.1636
CU	-11.1638
▁mhair	-11.1644
▁tríocha	-11.1645
Tele	-11.1649
uid	-11.1653
fri	-11.1654
GN	-11.1659
▁400	-11.1661
aontuithe	-11.1663
éire	-11.167
ces	-11.1671
▁chló	-11.168
▁Omeg	-11.1681
▁suiteáilte	-11.1682
2015	-11.1688
Chu	-11.1695
uri	-11.1696
like	-11.1696
▁bhealaí	-11.1704
▁thuairisciú	-11.1705
aistrithe	-11.1706
Rúnaí	-11.1706
doiciméad	-11.1707
iarraidh	-11.1708
Má	-11.1715
▁aerach	-11.1716
▁Gné	-11.1718
▁dhiúlta	-11.1718
▁amhrán	-11.1726
▁bhfeic	-11.1726
▁Credits	-11.1727
▁Firefox	-11.1727
▁Phobal	-11.1727
▁Teoranta	-11.1727
▁Spying	-11.1727
▁0/0	-11.1727
▁comparáid	-11.1727
▁dollar	-11.1728
▁Teastas	-11.1728
▁Spreag	-11.1728
▁gcostas	-11.1728
▁coiriúil	-11.1728
▁Mír	-11.1729
▁rialuithe	-11.1729
▁rúin	-11.1733
▁chuimsiú	-11.1734
▁gheofar	-11.1736
▁thógann	-11.1741
▁comhionannas	-11.1743
▁Gear	-11.1745
fach	-11.1747
▁Áras	-11.1751
will	-11.1751
éifeachtach	-11.1751
▁inmhuirir	-11.1756
▁chárta	-11.1758
izer	-11.176
▁Foras	-11.1763
▁imscrúdaithe	-11.1764
ardchaighdeán	-11.1765
▁aturnae	-11.1768
chód	-11.177
▁CRO	-11.178
life	-11.1784
1,000	-11.1786
▁scrúdaithe	-11.1786
▁bheirt	-11.1787
▁comhréir	-11.179
▁phearsa	-11.18
2016	-11.18
▁(19	-11.1802
▁Lae	-11.1804
▁Roinnt	-11.1805
tiocfaidh	-11.1809
▁Spe	-11.1809
▁Catagóirí	-11.181
▁Pre	-11.1814
DP	-11.1814
neamh	-11.1815
fhostaíocht	-11.1824
éasca	-11.1828
For	-11.1832
iarrthóirí	-11.1833
hosaigh	-11.1834
▁tiomantas	-11.1834
▁Fón	-11.1835
itt	-11.1835
spidéil	-11.1838
náisiúnaigh	-11.1838
▁Monatóireacht	-11.1838
▁Phacastáin	-11.1838
▁tairbhí	-11.1838
caomhnóir	-11.1838
▁aláraim	-11.1838
▁gairdín	-11.1839
▁urlár	-11.1839
▁Bróga	-11.1839
▁eadhon	-11.1839
Royal	-11.1839
▁leagadh	-11.1839
▁dearthóir	-11.1839
▁dámhachtain	-11.1839
▁Stocaí	-11.1841
▁Forex	-11.1842
zu	-11.1844
▁tarchurtha	-11.1848
▁Glan	-11.1849
frik	-11.1853
▁cheadaíonn	-11.1853
has	-11.1855
▁Gáis	-11.1855
▁glanadh	-11.186
▁riarachán	-11.1865
▁iniompartha	-11.1869
PD	-11.1872
ríomh	-11.1877
▁leaganacha	-11.1879
ami	-11.19
▁France	-11.1901
órais	-11.1901
Alex	-11.1903
hat	-11.1904
dsm	-11.1904
choda	-11.1907
hen	-11.1909
▁ROS	-11.191
PO	-11.1912
▁Maigh	-11.1916
▁Hua	-11.1921
iad	-11.1925
▁deacra	-11.1933
AB	-11.1936
▁49	-11.1941
éachtaí	-11.1944
▁nGael	-11.1944
bot	-11.1946
▁mball	-11.1948
ville	-11.195
▁seirbhíseach	-11.1951
thrádála	-11.1951
▁alúmanaim	-11.1951
▁cairdiúil	-11.1951
▁hAfraice	-11.1951
▁mBúcairist	-11.1951
▁Athchóiriú	-11.1951
▁Leabharlainne	-11.1951
▁fáinne	-11.1952
▁Manufacturers	-11.1952
▁buartha	-11.1952
▁YA	-11.1953
▁Meiriceánach	-11.1953
▁coimhdeachta	-11.1954
▁gcoinníollacha	-11.1955
▁cheapfar	-11.1957
dian	-11.1961
▁tArd	-11.1961
bol	-11.1963
▁hAchta	-11.1966
▁barántas	-11.197
▁olann	-11.1971
▁héifeacht	-11.1974
▁thogh	-11.1976
▁Áir	-11.1982
▁GA	-11.1982
▁eastát	-11.1983
aontaíonn	-11.1988
▁Nu	-11.1991
Chris	-11.1995
▁liostaithe	-11.1997
▁ghabh	-11.1998
fhéach	-11.1999
▁trádálaí	-11.2002
▁allmhairiú	-11.2006
unc	-11.201
ACH	-11.2012
▁cm	-11.2013
▁Nuad	-11.2015
▁ceimiceach	-11.2016
▁liathróidí	-11.202
dícheall	-11.2023
iarrthóir	-11.2024
OU	-11.2025
Li	-11.2026
▁ucht	-11.2031
ainmhithe	-11.2038
▁cheol	-11.2039
▁earráid	-11.204
▁tomhaltóir	-11.204
mór	-11.2042
▁England	-11.2042
glacfaidh	-11.2043
▁Seanad	-11.2053
IRE	-11.2055
▁digiteacha	-11.206
MD	-11.2061
Daonáirimh	-11.2064
TUAIRIM	-11.2064
▁Oiriúnach	-11.2064
▁buidéal	-11.2064
▁dheireanach	-11.2064
▁scagaire	-11.2064
▁fiosrúchán	-11.2065
▁chigire	-11.2065
▁comhtháthú	-11.2065
▁léirigh	-11.2065
▁gCoinbhinsiún	-11.2065
▁soláthairtí	-11.2066
▁forbairtí	-11.2067
▁painéal	-11.2067
▁Cabhra	-11.2069
▁bhunaidh	-11.2072
▁bhfocal	-11.2074
▁fhocal	-11.2076
▁PA	-11.2077
▁Oifigí	-11.2077
ement	-11.2077
▁Sínis	-11.2078
▁Buan	-11.2078
▁fhéad	-11.2082
▁nuálaíochta	-11.2084
▁folamh	-11.2084
▁pháipéar	-11.2085
TM	-11.2086
▁huisce	-11.2091
umha	-11.2092
luain	-11.2092
▁teirmeach	-11.2093
▁Mion	-11.2094
▁nuálach	-11.2099
▁Women	-11.2102
▁out	-11.2105
▁52	-11.2107
aans	-11.2108
AU	-11.2117
▁dhlíthe	-11.2117
EE	-11.2121
▁League	-11.2125
▁shé	-11.2129
▁nGníomhaireacht	-11.2129
oda	-11.2131
nal	-11.2131
▁Tré	-11.2134
▁seal	-11.2137
SH	-11.214
tube	-11.2142
Di	-11.2143
▁Mil	-11.2147
▁chara	-11.2151
CB	-11.2161
oiriúnach	-11.2163
bhealach	-11.2164
▁Ceol	-11.2169
leá	-11.2171
▁gcoinníoll	-11.2175
▁laoch	-11.2178
Mhúinteoireachta	-11.2179
▁Iosrael	-11.2179
▁Luimnigh	-11.2179
▁chailliúint	-11.2179
▁comhaontaithe	-11.2179
▁dhromchla	-11.2179
▁geografach	-11.2179
▁teileafóin	-11.2179
▁threisiú	-11.2179
▁Éigeandála	-11.2179
▁Product	-11.2179
▁Chustaiméirí	-11.2179
▁tiarna	-11.218
▁Gúna	-11.218
▁tailte	-11.218
▁shúchán	-11.2181
▁Winx	-11.2181
ofheicthe	-11.2181
▁Meastar	-11.2182
▁gcathair	-11.2186
▁páiste	-11.219
ghalar	-11.2193
......	-11.2197
▁Uni	-11.2197
▁béal	-11.2199
▁Glaca	-11.2199
itis	-11.2201
▁Plaisteacha	-11.2202
ular	-11.2202
▁Rud	-11.2205
▁teagmhas	-11.2206
▁off	-11.2208
vil	-11.2215
▁Caibidil	-11.2215
▁Ealaíne	-11.2217
sur	-11.2218
▁CUID	-11.222
▁measctha	-11.2221
bháil	-11.2224
▁Orduithe	-11.2226
▁seó	-11.2228
any	-11.2228
▁chiall	-11.2229
itheora	-11.2237
NU	-11.2238
▁clocha	-11.2238
▁Freastal	-11.2241
uel	-11.2247
úsáideoir	-11.2252
idi	-11.2253
arán	-11.2255
▁Pra	-11.2258
fhostóir	-11.2262
nua	-11.2276
▁Réigiúnach	-11.2279
▁em	-11.2281
▁náisiúnach	-11.2281
▁thá	-11.2282
ullmhú	-11.2282
éagsúlacht	-11.2284
set	-11.2288
▁cine	-11.2292
▁trasna	-11.2294
▁Ioncuim	-11.2296
▁Ungáir	-11.2296
▁codlata	-11.2296
▁iargúlta	-11.2296
▁theaghlaigh	-11.2296
▁thoirmeasc	-11.2296
▁féilire	-11.2296
▁Foirne	-11.2296
▁allmhairí	-11.2296
▁dTeangacha	-11.2296
▁chuici	-11.2296
▁Daonna	-11.2296
▁bailíodh	-11.2296
▁matáin	-11.2297
▁Measfar	-11.2298
▁Neart	-11.2298
▁mbosca	-11.2299
▁ciseal	-11.2299
▁1978	-11.23
▁huirlisí	-11.23
▁1968	-11.2301
▁stairiúil	-11.2301
má	-11.2302
▁Dearbhú	-11.2303
▁gnóchain	-11.2303
▁leaba	-11.2304
iel	-11.2307
ACHTA	-11.2307
▁Mhí	-11.2308
▁Comhroinn	-11.231
▁thu	-11.2313
▁tuarastail	-11.2313
onchúiseamh	-11.2314
▁taiscí	-11.2318
▁phriontáil	-11.232
▁Bear	-11.2322
ppe	-11.2323
▁ealaín	-11.2323
▁freagrachtaí	-11.2334
CN	-11.2334
▁chineálacha	-11.2338
exp	-11.2343
▁uibheacha	-11.2344
bona	-11.2351
▁chomhordú	-11.2352
GC	-11.2356
▁táthú	-11.2357
▁Bailte	-11.2359
▁comhpháirt	-11.236
▁coir	-11.2365
deireadh	-11.2366
▁áireofar	-11.2368
inéir	-11.2371
tweet	-11.2375
▁59	-11.238
▁pri	-11.2384
NS	-11.2384
ode	-11.2388
▁slat	-11.239
ualach	-11.2393
▁BR	-11.2394
House	-11.24
▁Breise	-11.2401
scrúduithe	-11.2402
▁Parlaiminteach	-11.2405
▁breoite	-11.2413
▁Bhóithre	-11.2413
▁geimhreadh	-11.2413
▁samhradh	-11.2413
▁Deontas	-11.2413
▁scuab	-11.2413
▁peataí	-11.2413
▁chách	-11.2413
▁[...]	-11.2413
▁sneachta	-11.2413
▁agallamh	-11.2413
▁Leathanach	-11.2414
▁ceathrú	-11.2414
racial	-11.2414
▁Airgeadaíochta	-11.2414
jp	-11.2414
▁aonfhoirmeach	-11.2414
oibhneas	-11.2414
▁gCathair	-11.2416
▁grafaicí	-11.2418
▁Dó	-11.2419
▁himreoirí	-11.2421
▁1926	-11.2421
▁fhoinse	-11.2425
▁choirp	-11.2425
▁1925	-11.2427
▁Tor	-11.2429
▁draíochta	-11.2432
▁réalta	-11.2432
▁sea	-11.2435
▁mótair	-11.2437
300	-11.2441
▁nglacfaidh	-11.2442
001	-11.2444
▁oibríochta	-11.2444
▁Bl	-11.2452
Aonad	-11.2455
ráta	-11.2455
2017	-11.2455
eolaíocha	-11.2456
▁fuaraithe	-11.2457
▁Corparáide	-11.2457
ghrád	-11.2459
▁rac	-11.246
CBS	-11.2465
▁Corr	-11.2467
▁neamhspleáchas	-11.247
chóras	-11.247
churtha	-11.2472
▁trialacha	-11.2476
▁tinn	-11.2478
aki	-11.2484
vid	-11.2487
▁fillte	-11.2489
scéim	-11.2489
▁cúinsí	-11.2492
▁Caisleán	-11.25
cking	-11.25
▁dhear	-11.2504
▁thabha	-11.2507
urra	-11.2515
▁hainm	-11.2516
réitigh	-11.252
▁fiacha	-11.2521
late	-11.2524
▁peann	-11.2525
El	-11.2526
town	-11.2526
▁fhéin	-11.253
oinnigh	-11.253
▁ranníocaí	-11.2531
▁Siopa	-11.2532
▁Sláintíochta	-11.2532
▁Gearmáine	-11.2532
▁Teagmhála	-11.2532
▁Windows	-11.2532
▁hiondúil	-11.2532
▁phacáiste	-11.2532
▁phinsean	-11.2532
▁praiticiúla	-11.2532
▁tháirgtear	-11.2532
▁tsuímh	-11.2532
▁Adhmaid	-11.2532
▁ceirde	-11.2532
▁gearáin	-11.2532
▁nDún	-11.2532
▁árasán	-11.2532
▁fhorordaithe	-11.2533
▁Shaoránaigh	-11.2533
▁fliuch	-11.2533
tie	-11.2533
▁greamaigh	-11.2535
▁sáruithe	-11.2535
▁mheasúnacht	-11.2538
UM	-11.2538
▁1970	-11.2538
▁gcruth	-11.2539
▁Mad	-11.2543
▁othair	-11.2545
▁Light	-11.2545
▁fhada	-11.2548
▁Amharc	-11.2549
IG	-11.2554
▁malart	-11.2557
▁Ioma	-11.2558
▁Chlárú	-11.2565
▁BBC	-11.2569
▁fógraíochta	-11.2571
▁Rialáil	-11.2573
aerárthach	-11.2573
▁cumais	-11.2575
▁Val	-11.2577
0%	-11.2577
▁theas	-11.2577
díol	-11.2577
..../201	-11.258
▁rialtóir	-11.2585
▁Daily	-11.2586
▁cúlra	-11.259
Éire	-11.2597
-12	-11.2598
▁gcáil	-11.2602
▁chultúr	-11.2603
rey	-11.2604
▁mBanc	-11.2604
hai	-11.2605
▁Corn	-11.2609
▁ócáidí	-11.2613
▁Business	-11.2613
▁deonach	-11.2614
fhorbair	-11.262
▁03	-11.2621
▁pearsan	-11.2622
Shéalainn	-11.2626
▁achar	-11.2627
▁mótar	-11.2627
▁cíosa	-11.2629
▁deoch	-11.2631
eamar	-11.2633
▁gcuma	-11.2636
▁bloc	-11.2636
Team	-11.2636
▁infheistíochtaí	-11.2638
cum	-11.2639
Institiúid	-11.2644
▁Breathn	-11.2647
eaglais	-11.265
▁ngeall	-11.2653
Parliament	-11.2653
Scríbhneoirí	-11.2653
▁Bíobla	-11.2653
▁alcól	-11.2653
▁athsholáthar	-11.2653
▁gcomhshaol	-11.2653
▁silicone	-11.2653
▁taispeána	-11.2653
▁Feisirí	-11.2653
▁gaoithe	-11.2653
▁dtuig	-11.2653
▁Téann	-11.2653
▁labhartha	-11.2653
▁Montblanc	-11.2654
▁aoisliúntais	-11.2654
▁athchóirithe	-11.2654
▁shábháilteacht	-11.2654
▁sheasamh	-11.2654
▁Rúnaí	-11.2655
▁poker	-11.2655
aisíoc	-11.2655
▁briste	-11.2656
▁1979	-11.2658
Sraith	-11.2658
Aire	-11.2659
▁shuim	-11.2659
▁Seiceáil	-11.266
▁hinfheistíocht	-11.266
▁PR	-11.266
sed	-11.2661
▁1935	-11.2661
▁sult	-11.2661
▁gaol	-11.2661
▁1960	-11.2662
▁airgeadaíochta	-11.2665
more	-11.2668
▁iomaí	-11.2671
neacha	-11.2672
lg	-11.2672
cheall	-11.2672
tsu	-11.2674
INE	-11.2676
▁Scair	-11.2678
▁Gairmiúla	-11.2679
▁imithe	-11.2684
aimsir	-11.2684
Sha	-11.2688
ito	-11.269
▁Sun	-11.2691
▁Read	-11.2694
▁mhéideanna	-11.2694
▁Arna	-11.2694
▁dochair	-11.2698
NL	-11.27
uill	-11.2701
▁bplé	-11.2704
▁agaibh	-11.2705
méad	-11.2706
íchumasaithe	-11.2707
stát	-11.271
ware	-11.2714
▁móide	-11.2716
▁ullmha	-11.2719
RU	-11.2719
▁chionn	-11.272
aims	-11.2724
▁chaill	-11.2724
fish	-11.2724
fra	-11.2725
▁gcoi	-11.2726
▁Leith	-11.273
MT	-11.2734
oill	-11.2735
▁dúil	-11.2738
lóidh	-11.2738
dem	-11.2739
mus	-11.274
▁bheo	-11.2741
▁feabhsú	-11.2741
▁Leigh	-11.2744
▁gníomhaireacht	-11.2745
▁híocaíochta	-11.2752
hill	-11.2753
▁áitiú	-11.2765
National	-11.2768
▁shean	-11.2769
chéim	-11.277
▁Arts	-11.2771
▁mhóra	-11.2772
▁Massage	-11.2775
▁Réitigh	-11.2775
▁fhírinne	-11.2775
▁hEalaíona	-11.2775
▁meicniúla	-11.2775
▁speisialaithe	-11.2775
▁briseadh	-11.2775
▁optúla	-11.2775
▁thairbh	-11.2775
▁pholasaí	-11.2775
▁loinge	-11.2775
▁modúl	-11.2775
▁Scríobh	-11.2775
▁chumann	-11.2775
Online	-11.2776
▁babhta	-11.2776
▁Auto	-11.2776
ML	-11.2777
▁feoil	-11.2777
▁mblianta	-11.2777
▁Cónaithe	-11.2778
▁heilimintí	-11.2778
▁ghnólachtaí	-11.2779
▁1958	-11.2779
▁1977	-11.2779
bus	-11.278
led	-11.278
▁armtha	-11.278
▁dhíriú	-11.278
▁Saoire	-11.278
▁Leasuithe	-11.278
▁himeacht	-11.2781
Trump	-11.2781
▁Togh	-11.2781
radaim	-11.2783
chead	-11.2787
▁féinfhostaithe	-11.2789
▁Bunacha	-11.2794
▁Cúrsa	-11.2798
▁cheapann	-11.2799
ika	-11.28
▁Mhacha	-11.2801
tag	-11.2804
▁súl	-11.2804
▁Win	-11.2808
▁gealltanas	-11.2813
2011	-11.2815
▁Oi	-11.2817
▁chuideachtaí	-11.2818
chéime	-11.2819
inter	-11.2822
▁Chomhar	-11.2826
▁Chríost	-11.2827
▁Páirtithe	-11.283
▁Green	-11.2842
pha	-11.2843
▁SE	-11.2844
▁Straitéise	-11.2847
Ceist	-11.285
ese	-11.2851
▁tacaíochtaí	-11.2854
áras	-11.2854
rialacha	-11.2855
▁aontú	-11.2856
▁Fair	-11.2857
imreoir	-11.2866
OB	-11.2868
▁vitimín	-11.2873
▁foras	-11.2877
▁Airgead	-11.2878
gp	-11.2879
▁star	-11.2882
Chathaoirleach	-11.2882
uz	-11.2885
esh	-11.2885
▁Laghd	-11.2885
RD	-11.2887
▁rúnaí	-11.2892
▁comhoiriúnachta	-11.2895
▁sholáthrói	-11.2895
▁Teacht	-11.2898
▁Aicrileach	-11.2898
▁Limistéir	-11.2898
▁Phrótacal	-11.2898
▁Riachtanach	-11.2898
▁Schengen	-11.2898
▁figiúr	-11.2898
▁gluaisteáin	-11.2898
▁vuku	-11.2898
▁Phoist	-11.2898
▁oiriúnaí	-11.2898
▁sciála	-11.2898
▁fheictear	-11.2898
▁Tosaigh	-11.2898
▁chuairteoirí	-11.2899
▁Idirlín	-11.2899
▁rás	-11.2899
▁torann	-11.2899
▁thógaint	-11.2899
▁chomhtháthú	-11.29
teoir	-11.2901
▁rialaíonn	-11.2902
▁1972	-11.2902
▁cleachtadh	-11.2903
▁idirghníomhach	-11.2903
▁1974	-11.2904
San	-11.2906
ush	-11.2907
▁tascanna	-11.2907
acmhainní	-11.291
▁Uirlisí	-11.2913
▁Buiséad	-11.2916
CNN	-11.2916
reath	-11.2918
pcs	-11.2918
▁buachaillí	-11.2918
▁cabhrach	-11.2919
Ceathrú	-11.2919
▁halla	-11.292
▁Fhine	-11.2922
▁Philippe	-11.2922
▁Dhia	-11.2923
▁Thai	-11.2927
▁siúil	-11.2932
ceart	-11.2939
▁FSS	-11.294
state	-11.295
▁Cúig	-11.2951
▁Coimeád	-11.2956
ister	-11.2958
▁áititheoir	-11.2963
ruthaíonn	-11.2967
▁By	-11.2968
▁chum	-11.2968
▁Ró	-11.2969
omhrac	-11.2969
eascair	-11.2976
▁shonracha	-11.2978
bell	-11.2981
▁corda	-11.2981
2010	-11.2984
▁Cheartas	-11.2984
aistí	-11.2989
athaoirleach	-11.2994
scoileanna	-11.2995
Cúrsaí	-11.2999
▁shocr	-11.3008
fá	-11.3008
7%	-11.3009
ITHE	-11.3012
▁bhliana	-11.3015
▁56	-11.3016
▁Tour	-11.302
▁duais	-11.3021
▁Manufactur	-11.3022
omhdhlúite	-11.3023
▁Ambasáid	-11.3023
▁barántúla	-11.3023
▁cóimhiotail	-11.3023
▁dtuismitheoirí	-11.3023
▁lesbians	-11.3023
▁ngabhann	-11.3023
▁phláinéid	-11.3023
▁speiceas	-11.3023
▁tOireachtas	-11.3023
▁Taistil	-11.3023
▁shimplí	-11.3023
▁Bónais	-11.3023
▁hÁise	-11.3023
▁líomatáiste	-11.3023
▁ghlúin	-11.3023
▁CFAE	-11.3023
▁Cosúil	-11.3023
phlé	-11.3023
▁Aeráide	-11.3023
▁Cóirithe	-11.3023
school	-11.3023
ealraíonn	-11.3024
▁Inniu	-11.3024
▁Bhunreacht	-11.3024
▁riarthóir	-11.3024
▁gnáthchónaí	-11.3024
▁staidrimh	-11.3024
▁Staidrimh	-11.3024
▁fhág	-11.3025
Beidh	-11.3025
▁ordachán	-11.3025
▁1975	-11.3029
▁Flash	-11.3032
▁plaisteacha	-11.3032
▁sholáthr	-11.3033
▁mbord	-11.3034
John	-11.3034
▁sheirbhíse	-11.3037
▁chinneann	-11.3039
▁kg	-11.3039
▁suiteála	-11.304
▁greamaithe	-11.304
olaíochtaí	-11.3049
▁ospidéal	-11.3049
chánach	-11.305
róise	-11.3053
▁choill	-11.3055
leabhair	-11.3056
▁bó	-11.3057
Aighne	-11.3059
▁eachtraí	-11.306
▁shaothrú	-11.3061
▁Os	-11.3064
rmhór	-11.3065
Ard	-11.307
600	-11.3071
heart	-11.3077
▁ceimiceacha	-11.3077
▁Thithe	-11.308
▁théarma	-11.3084
▁láithreacha	-11.3086
public	-11.3088
▁bhunúsach	-11.3093
bhreith	-11.3101
▁eachtra	-11.3104
ments	-11.3104
▁nuálacha	-11.3112
▁muc	-11.3114
iceáil	-11.3114
▁déantóir	-11.3115
FOR	-11.3123
▁dhea	-11.3125
Sport	-11.3125
▁Táim	-11.313
▁dtrí	-11.3136
▁sos	-11.3136
eitheal	-11.3136
bhliain	-11.3137
lay	-11.3142
▁thaifead	-11.3145
▁lom	-11.3146
thábhacht	-11.3147
▁fhostóir	-11.3149
▁Téacs	-11.3149
▁máil	-11.3149
▁Pádraig	-11.315
▁Tuaisceart	-11.315
▁bliantúla	-11.315
▁bronnadh	-11.315
▁bándearg	-11.315
▁geilleagar	-11.315
▁hAeráide	-11.315
▁Measúnú	-11.315
▁cogaidh	-11.315
▁Samhraidh	-11.315
▁chríche	-11.315
▁durable	-11.315
People	-11.315
▁Taoisigh	-11.315
▁cáiliú	-11.315
▁shroich	-11.3151
athaoirligh	-11.3151
▁dtosach	-11.3151
radio	-11.3152
▁Dóiteáin	-11.3152
▁caidéil	-11.3153
▁Duais	-11.3153
▁spáis	-11.3153
▁Bhinse	-11.3154
▁thuig	-11.3154
▁Painéal	-11.3154
▁dleachta	-11.3154
▁Classic	-11.3154
▁cruthúnas	-11.3154
▁1946	-11.3155
▁thacaíonn	-11.3157
▁rópa	-11.3157
▁ceannaitheoir	-11.3158
▁séalaithe	-11.3159
▁gcéim	-11.3161
▁táirgeoirí	-11.3161
▁58	-11.3162
▁Feirme	-11.3164
▁péire	-11.3164
▁braite	-11.3165
arga	-11.3165
▁foilsiú	-11.3166
▁Eanair	-11.3167
rich	-11.3168
▁(“	-11.3171
▁Meas	-11.3172
kan	-11.3173
▁Scéimeanna	-11.3174
maí	-11.3179
ocra	-11.3179
▁léitheoireachta	-11.3182
▁69	-11.3187
▁iarann	-11.319
▁bád	-11.3194
but	-11.3198
▁Hol	-11.3205
▁cheartú	-11.3206
▁corr	-11.3207
lb	-11.3208
part	-11.3209
▁seachtainí	-11.3219
tw	-11.3223
▁sástacht	-11.3223
pie	-11.3224
▁ghiniúint	-11.3224
▁racha	-11.3226
▁inter	-11.3227
▁bhunaigh	-11.3228
▁Fear	-11.3228
▁fhíor	-11.3232
!!	-11.3236
ude	-11.3249
andy	-11.3249
▁bhfís	-11.3252
▁formáid	-11.3253
▁Log	-11.3258
hon	-11.3259
▁neamhghnách	-11.3259
law	-11.326
▁Bonn	-11.326
mara	-11.3264
ody	-11.3265
▁cli	-11.3266
▁eagr	-11.3269
▁Fíor	-11.3269
náisiúnta	-11.3271
▁traidisiún	-11.3272
▁Ceap	-11.3273
▁oibreoidh	-11.3275
▁bailiú	-11.3276
Féach	-11.3276
thuarascáil	-11.3278
▁Association	-11.3278
▁Cearnóg	-11.3278
▁Choimisinéara	-11.3278
▁Foirgníochta	-11.3278
▁Oisrí	-11.3278
▁constaicí	-11.3278
▁infheidhmithe	-11.3278
▁máistir	-11.3278
john	-11.3278
▁feachtas	-11.3278
▁convert	-11.3278
▁déileál	-11.3279
▁comhdhéanamh	-11.3279
▁gColáiste	-11.328
▁Chuige	-11.328
▁tharlóidh	-11.3281
▁110	-11.3283
▁1939	-11.3284
▁nuachtán	-11.3287
▁inchinn	-11.3292
inneall	-11.3293
▁gléasanna	-11.3293
▁Gorm	-11.3295
▁51	-11.3296
▁Feidhme	-11.3304
▁Beag	-11.3304
▁thur	-11.3307
▁Real	-11.3309
▁250	-11.3309
lee	-11.3309
▁Project	-11.3312
▁Rose	-11.3313
Sports	-11.3314
▁Group	-11.3317
zy	-11.3319
ender	-11.3322
COM	-11.3332
▁mise	-11.3335
▁bailithe	-11.3337
UR	-11.3338
band	-11.3343
ants	-11.3348
▁tuairiscí	-11.3351
▁leithead	-11.3351
NBC	-11.3353
▁lámhach	-11.3356
▁€7	-11.3362
ists	-11.3362
▁UV	-11.3362
stein	-11.3369
onic	-11.3369
gcabhair	-11.3373
▁áite	-11.3383
▁gcomhalta	-11.3385
▁chomhartha	-11.3389
aoil	-11.3389
ghnó	-11.3391
túir	-11.3394
▁Saol	-11.3395
2%	-11.3395
▁thogra	-11.3398
RM	-11.34
▁bhuan	-11.3401
chleachtais	-11.3407
▁bannaí	-11.3407
▁Laoghaire	-11.3408
fhreastail	-11.3408
▁Chultúr	-11.3408
▁EUROPA	-11.3408
▁Talmhan	-11.3408
▁comhéadan	-11.3408
▁cúitimh	-11.3408
▁dlisteanach	-11.3408
▁feabhais	-11.3408
▁frithpháirteach	-11.3408
▁gConradh	-11.3408
▁smachtbhannaí	-11.3408
▁Shamhna	-11.3408
▁fheiste	-11.3408
▁ndaltaí	-11.3408
▁sonrófar	-11.3408
ócáid	-11.3408
▁faoisimh	-11.3409
▁Fhéile	-11.3409
▁Róimh	-11.341
▁Earraí	-11.3411
fhocal	-11.3411
▁measartha	-11.3412
▁oilte	-11.3412
▁1942	-11.3412
▁1986	-11.3412
▁colún	-11.3413
▁cáipéisí	-11.3414
▁mothúcháin	-11.3414
▁gnóthais	-11.3414
▁conartha	-11.3418
▁Grá	-11.3424
▁Cairt	-11.3426
▁taisc	-11.3427
▁Léarscáil	-11.3428
▁teicnící	-11.3435
▁luchtú	-11.3435
Express	-11.3436
▁Liúntais	-11.3438
infheisteoirí	-11.3441
TL	-11.3449
▁neamhspleácha	-11.3454
▁voltais	-11.3458
▁Ról	-11.346
▁uiscí	-11.346
▁aontaithe	-11.3461
▁Dámhachtain	-11.3461
OPE	-11.3461
▁dhé	-11.3461
▁Social	-11.3465
▁bhfoils	-11.3466
AW	-11.3467
▁bhainc	-11.3467
olaimid	-11.3468
tti	-11.3469
▁57	-11.3472
▁Ghael	-11.3474
▁suime	-11.3476
▁ionra	-11.3484
▁cháis	-11.3485
fheirm	-11.3486
▁Cat	-11.349
▁Fiontraíocht	-11.3491
▁trátha	-11.3493
▁gceap	-11.3494
aoiseach	-11.3496
▁threo	-11.3506
riot	-11.3508
▁Fís	-11.351
áirith	-11.3514
faoi	-11.3514
▁Xi	-11.3515
bhunscoile	-11.3521
▁Bog	-11.3522
ches	-11.3523
▁Cuarda	-11.3524
(1)(	-11.3524
▁Luach	-11.3527
scrúdú	-11.3538
▁Domhan	-11.3538
▁Leit	-11.3539
ima	-11.3539
Democrat	-11.3539
eileachumarsáide	-11.3539
▁Information	-11.3539
▁Meáchan	-11.3539
▁Semester	-11.3539
▁Staidéar	-11.3539
▁Timpeall	-11.3539
▁fhorghníomhú	-11.3539
▁gcuspóir	-11.3539
▁inphinsin	-11.3539
▁meitibileach	-11.3539
▁patrúin	-11.3539
▁soilsiú	-11.3539
▁bhranda	-11.3539
▁forlíontach	-11.3539
▁Orgy	-11.3539
▁Bharraigh	-11.354
▁dóthain	-11.354
fhiontair	-11.354
▁bolg	-11.354
▁insliú	-11.354
▁gcaighdeán	-11.354
▁feasta	-11.354
▁Coinníollacha	-11.354
▁EURES	-11.354
thréimhse	-11.3541
▁ghuthán	-11.3541
▁Nádúrtha	-11.3542
▁uilíoch	-11.3543
▁UK	-11.3543
mail	-11.3543
▁Cóta	-11.3544
▁hionstraimí	-11.3546
▁háiseanna	-11.3547
▁LCD	-11.3548
▁Grand	-11.3548
ING	-11.3549
▁ullmhúcháin	-11.3549
▁hainmhithe	-11.3551
▁hiarrthóirí	-11.3551
▁Teangacha	-11.3553
liúntas	-11.3557
phe	-11.3561
táirge	-11.3562
▁deochanna	-11.3562
▁cúirteanna	-11.3563
VE	-11.3564
▁Bunúsacha	-11.3564
▁ceardlanna	-11.3564
▁thoir	-11.3576
▁AS	-11.3577
▁Dis	-11.3578
▁(30	-11.3578
phone	-11.3581
▁coil	-11.3582
cheangailte	-11.3582
▁toirte	-11.3591
▁costaisí	-11.3592
▁UM	-11.3595
aithin	-11.3595
Aois	-11.3596
Ass	-11.3597
▁One	-11.3606
pop	-11.3621
▁trialach	-11.3624
LD	-11.3625
ánacha	-11.3627
▁tharraing	-11.3632
▁Pla	-11.3634
▁fearais	-11.3642
▁earnálacha	-11.3645
▁víosa	-11.3648
eek	-11.3651
▁Garda	-11.3652
music	-11.3653
▁chlo	-11.3653
mac	-11.3654
jack	-11.3656
list	-11.366
leath	-11.3661
BR	-11.3663
▁Críoch	-11.3667
▁dálaí	-11.3667
Bar	-11.3667
soc	-11.3671
▁dhoiciméad	-11.3673
íospartaigh	-11.3673
▁Gruaige	-11.3673
▁Shibhialta	-11.3673
▁chomórtas	-11.3673
▁fairsing	-11.3673
▁meicníocht	-11.3673
▁seiceálacha	-11.3673
▁fáinní	-11.3673
▁fianán	-11.3673
▁html	-11.3673
▁greanta	-11.3673
▁tiúchan	-11.3673
▁cogadh	-11.3673
Politics	-11.3673
▁pacála	-11.3673
▁DVD	-11.3673
▁árasáin	-11.3673
▁chealú	-11.3673
▁iarchéime	-11.3673
▁feadáin	-11.3674
▁fhorfheidhmiú	-11.3674
lódáil	-11.3674
▁teoiric	-11.3674
▁Cailín	-11.3674
▁Toghcháin	-11.3675
▁ardleibhéil	-11.3675
ombre	-11.3675
▁faillí	-11.3675
mc	-11.3675
▁fochuideachta	-11.3677
▁hOileáin	-11.3677
▁ESB	-11.3678
▁foraoise	-11.3678
▁chúlra	-11.3679
iod	-11.3679
álann	-11.3681
▁Doras	-11.3681
▁dhoiciméid	-11.3681
▁dtóg	-11.3681
▁Oifigiúla	-11.3681
▁Europa	-11.3682
▁Íocaíochtaí	-11.3683
▁héifeachtaí	-11.3685
▁ngrá	-11.3686
adam	-11.3686
▁clainne	-11.3687
▁chomhroinnt	-11.3688
aingne	-11.369
▁mheasfar	-11.3694
▁oibreoirí	-11.3695
hromlach	-11.3695
▁fide	-11.3699
láir	-11.3699
▁mis	-11.37
▁céime	-11.3701
▁Shi	-11.3703
▁Iodáilis	-11.3706
▁dtosaíonn	-11.3707
▁Chóir	-11.371
▁radaíocht	-11.3716
▁mhargaí	-11.3721
▁Réaltaí	-11.3724
fc	-11.3727
▁lón	-11.3732
▁Bean	-11.3733
▁tonn	-11.3736
PG	-11.3738
▁sealbhóirí	-11.3739
▁Park	-11.3741
▁uaim	-11.3743
bhua	-11.3744
▁eachtracha	-11.3744
▁Chríostaí	-11.375
chris	-11.3752
kg	-11.3754
▁táim	-11.3754
Man	-11.376
reideann	-11.3764
store	-11.3765
PW	-11.3765
try	-11.3766
▁solúbthacht	-11.377
▁ngairm	-11.3774
▁€6	-11.3774
▁tráthanna	-11.378
▁gruaig	-11.3782
osaíonn	-11.3787
Oifigeach	-11.3793
▁iniúchóir	-11.3797
neart	-11.3804
▁Comhlacht	-11.3806
▁theagasc	-11.3808
▁Nuashonrú	-11.3808
▁caomhnú	-11.3808
▁fógartha	-11.3808
▁traenáil	-11.3808
▁scagadh	-11.3808
home	-11.3808
▁níolón	-11.3808
Central	-11.3808
▁Fiontair	-11.3808
▁Rights	-11.3808
▁chonaic	-11.3808
▁chlub	-11.3808
▁Earná	-11.3808
▁thairis	-11.3808
▁bonneagar	-11.3808
▁choróin	-11.3809
▁doirse	-11.3809
▁Water	-11.3811
▁shín	-11.3811
▁1959	-11.3813
▁Rogha	-11.3813
▁Support	-11.3813
▁laochra	-11.3813
▁chruthaitheach	-11.3813
▁chósta	-11.3814
▁íoctar	-11.3814
chúraim	-11.3815
íseal	-11.3815
▁1936	-11.3815
▁Cásca	-11.3817
boy	-11.3822
ND	-11.3828
▁dramhaíl	-11.3828
aontú	-11.3829
▁Ospidéal	-11.3829
▁Bell	-11.3833
▁formáidí	-11.3834
▁fhoirmle	-11.3836
III	-11.3839
france	-11.3842
ghníomhach	-11.3844
▁fhormheas	-11.3848
▁iontaobhas	-11.3849
▁díobhálacha	-11.385
▁áirith	-11.385
▁Help	-11.3851
down	-11.3861
▁Tionsclaíocht	-11.3861
▁éide	-11.3862
▁comhréireach	-11.3864
bhainistíocht	-11.3867
▁kb	-11.3867
▁Mag	-11.3867
USA	-11.387
zer	-11.387
▁measúnacht	-11.3872
Via	-11.3877
▁comhlán	-11.3878
▁Cáilíocht	-11.3881
▁fuil	-11.3883
choiste	-11.3883
▁Bainisteoir	-11.3886
UI	-11.3893
éilithe	-11.3894
▁diúltacha	-11.3895
scéalta	-11.3895
▁Mont	-11.3899
▁láithr	-11.39
erv	-11.3919
▁thaca	-11.3924
ghluaiste	-11.3928
very	-11.3934
théacs	-11.3934
FM	-11.3937
▁Magic	-11.3938
bya	-11.3941
▁Cap	-11.3942
▁bhéarfa	-11.3943
▁54	-11.3944
▁préimhe	-11.3945
▁Comhairliúchán	-11.3945
▁Cuimhnigh	-11.3945
▁Otslaivanie	-11.3945
▁Stiúrthóra	-11.3945
▁chronograph	-11.3945
▁gcatagóir	-11.3945
▁mhíbhuntáiste	-11.3945
▁milliúin	-11.3945
▁pholaitiúil	-11.3945
▁tairbhiúil	-11.3945
▁thriail	-11.3945
Aistriú	-11.3945
▁uilig	-11.3945
▁rince	-11.3945
▁diúlt	-11.3945
▁Tur	-11.3945
▁Machine	-11.3946
▁reifreann	-11.3946
▁caife	-11.3946
network	-11.3946
▁gleoite	-11.3946
▁1971	-11.395
Canada	-11.3951
▁brón	-11.3952
▁coimeádán	-11.3952
▁fhoinsí	-11.3953
pedia	-11.3953
▁Dréacht	-11.3953
berg	-11.3955
▁my	-11.3957
▁poly	-11.3958
▁éagtha	-11.3959
▁California	-11.3961
▁drámaíocht	-11.3961
▁dTithe	-11.3962
▁deacracht	-11.3964
▁dearaidh	-11.3965
▁Droichead	-11.3966
▁Bheaga	-11.3971
▁sonrú	-11.3974
nacht	-11.3974
▁guys	-11.3977
point	-11.3979
▁53	-11.3981
▁scríbhneoir	-11.4002
▁Comhairleach	-11.4002
▁cúr	-11.4004
uch	-11.4007
▁Eolaíocht	-11.4008
SR	-11.4011
▁shuí	-11.4016
▁Music	-11.4019
chóiriú	-11.402
▁úinéirí	-11.4026
night	-11.4028
▁erotica	-11.4029
▁spéise	-11.4031
▁straitéiseacha	-11.4032
▁Fás	-11.4032
líocht	-11.4042
mont	-11.4046
gus	-11.4049
Ju	-11.405
árthach	-11.4051
▁mear	-11.4051
▁Oifigigh	-11.4051
gcomhpháirtíocht	-11.4052
▁chine	-11.4055
▁onnmhair	-11.4059
▁custaiméir	-11.406
IGH	-11.4065
▁brandaí	-11.4069
▁Land	-11.407
▁77	-11.4071
matic	-11.4075
aitheamh	-11.4075
ghairm	-11.4079
rátaí	-11.4081
▁glao	-11.4084
hejiang	-11.4084
▁Sloinnte	-11.4084
▁bhfoghlaim	-11.4084
▁coigríche	-11.4084
▁comhairliúchán	-11.4084
▁gluaisteán	-11.4084
▁massage	-11.4084
▁spéaclaí	-11.4084
▁tomhaltas	-11.4084
▁bríomhar	-11.4084
▁phlandaí	-11.4084
▁sliseanna	-11.4084
Scotland	-11.4084
comóradh	-11.4084
▁Léann	-11.4084
▁Fisting	-11.4084
▁Company	-11.4084
▁figiúirí	-11.4084
▁dtarlaíonn	-11.4084
▁Iarmhéid	-11.4085
▁ghlan	-11.4086
▁comhthéacs	-11.4086
▁bródúil	-11.4086
▁bhfabhar	-11.4086
▁stairiúla	-11.4088
▁Chéile	-11.4089
▁chluas	-11.409
Custaiméirí	-11.409
▁hiarrachtaí	-11.4091
▁neamhaird	-11.4091
▁dheonadh	-11.4092
oibreoidh	-11.4093
▁Áiseanna	-11.4094
▁táscairí	-11.4094
▁taighdeoirí	-11.4095
Baile	-11.4095
Bra	-11.4096
chiste	-11.4096
▁Uile	-11.4098
▁mbonn	-11.4101
chleachtóir	-11.4103
▁seirbhísigh	-11.4103
aithn	-11.4104
▁Imir	-11.4106
▁Táirgeadh	-11.4108
ranníocach	-11.4109
▁húsáideoirí	-11.4114
▁threalamh	-11.4118
WS	-11.4121
▁Rith	-11.4125
▁mas	-11.4128
▁umar	-11.413
master	-11.4133
▁thionscadal	-11.4133
▁Nuálaíocht	-11.4145
▁fearas	-11.4147
▁fíona	-11.4152
▁fiach	-11.4152
▁King	-11.4155
icne	-11.4158
▁athúsáid	-11.416
spo	-11.4163
rialta	-11.417
íocháin	-11.4172
▁míchumas	-11.4173
▁iascaireacht	-11.4177
tics	-11.4179
▁76	-11.4183
▁Stiúrthóirí	-11.4183
▁brea	-11.419
▁gcruthú	-11.4191
▁ranna	-11.4197
▁SF	-11.42
▁díospóid	-11.42
▁ngrúpa	-11.42
eoltóirí	-11.421
Star	-11.421
institiúid	-11.4211
▁Europe	-11.4211
iontaobhaithe	-11.4215
wan	-11.4219
Oirthear	-11.4225
isciplín	-11.4225
▁Amazon	-11.4225
▁Louboutin	-11.4225
▁admháil	-11.4225
▁bhóithre	-11.4225
▁patrún	-11.4225
▁webcam	-11.4225
▁íosluchtaigh	-11.4225
▁Battery	-11.4225
▁Breosla	-11.4225
▁Gloine	-11.4225
▁iPhone	-11.4225
▁Litríocht	-11.4225
▁Éadaí	-11.4225
▁dtáirgeadh	-11.4225
▁Satharn	-11.4225
▁bhoird	-11.4225
iarsmaí	-11.4225
▁bhfíor	-11.4225
▁Centre	-11.4225
▁boladh	-11.4225
▁shúile	-11.4225
▁comhshó	-11.4225
▁eisiamh	-11.4225
▁iarrthóra	-11.4225
▁Crann	-11.4225
▁sheilbh	-11.4225
▁gnólacht	-11.4225
SCÁIL	-11.4226
▁bailiúcháin	-11.4226
▁fhorchuirtear	-11.4227
▁chosnaíonn	-11.4227
▁sheachtainiúil	-11.4227
▁Ionaid	-11.4227
▁comhsheasmhach	-11.4227
▁éalú	-11.4228
▁Daonlathaithe	-11.4229
▁coirp	-11.4229
▁1991	-11.423
▁Cóiré	-11.423
wal	-11.423
samh	-11.4231
▁cheadaítear	-11.4232
▁ardoideachais	-11.4232
▁para	-11.4234
▁1940	-11.4235
▁linksoflondon	-11.4237
▁thras	-11.4238
▁hÉirinn	-11.424
laith	-11.4244
▁leathar	-11.4247
bro	-11.4247
▁fhéach	-11.4247
▁Tairseach	-11.4248
▁acmhainne	-11.4252
▁Tríd	-11.4252
▁dhochtúir	-11.4254
▁fheidhmíonn	-11.4256
Mu	-11.4258
teistiméireachta	-11.4258
American	-11.4261
rest	-11.4261
sun	-11.4261
▁cirt	-11.4263
HL	-11.4264
shláinte	-11.4266
scal	-11.427
intinn	-11.4271
▁Reachtaíocht	-11.4271
shire	-11.4275
▁Rock	-11.4282
andre	-11.4282
scot	-11.4284
▁fostóirí	-11.4286
▁ardaíonn	-11.4286
lav	-11.4286
▁idirbhearta	-11.4291
Mon	-11.4297
▁únaer	-11.4298
▁Liostaí	-11.43
▁síol	-11.4306
▁Branda	-11.4315
▁nglac	-11.4318
▁calaois	-11.4319
▁West	-11.432
pen	-11.4324
bun	-11.4328
▁cart	-11.4329
test	-11.4334
▁Bur	-11.4337
▁ocsaigin	-11.4341
acmhainneacht	-11.4348
pon	-11.4354
▁iníon	-11.4358
GR	-11.4359
aidrimh	-11.4359
▁creidiúna	-11.4362
fhreagair	-11.4367
orbhreathnú	-11.4367
▁Accessories	-11.4367
▁Brexit	-11.4367
▁Déantúsóirí	-11.4367
▁Taifead	-11.4367
▁Tionscal	-11.4367
▁bprionsabal	-11.4367
▁cóimhiotal	-11.4367
▁gconradh	-11.4367
▁núicléach	-11.4367
▁paraiméadair	-11.4367
▁scríbe	-11.4367
▁Custam	-11.4367
▁Dragon	-11.4367
▁modhnuithe	-11.4367
▁thaispeántar	-11.4367
▁Aibreáin	-11.4368
▁corraitheach	-11.4368
▁damáistí	-11.4368
▁Cábla	-11.4368
▁comhlachais	-11.4368
▁Electric	-11.4368
▁thráth	-11.4368
Michael	-11.4368
▁sásamh	-11.4368
▁Boird	-11.4368
▁ultra	-11.4368
▁pics	-11.4368
▁todóg	-11.4368
sher	-11.4368
▁threorú	-11.4368
proof	-11.4369
Tiontaigh	-11.4369
▁uaillmhianach	-11.4369
▁Great	-11.437
england	-11.437
run	-11.437
álfaidh	-11.437
▁uigeacht	-11.437
▁adhmad	-11.437
▁bhfostóir	-11.4371
▁Bhanc	-11.4371
▁Breithiúnais	-11.4373
AMH	-11.4373
ities	-11.4373
▁idirphlé	-11.4373
▁1933	-11.4374
▁Pink	-11.4376
▁thaisc	-11.4377
Reachtaire	-11.4379
▁Breithe	-11.4379
▁Mamaí	-11.438
fhoghlaim	-11.438
▁gcleachtas	-11.438
▁Leabhair	-11.438
ITE	-11.4381
LS	-11.4382
▁cheaptha	-11.4383
▁Billí	-11.4385
Trans	-11.4386
chumhachta	-11.4386
▁garbh	-11.4387
fheabhs	-11.4389
(5)	-11.4389
▁Álainn	-11.4395
▁Energy	-11.4397
▁ticéad	-11.4399
Déan	-11.44
▁imr	-11.4401
▁Hand	-11.4401
▁78	-11.4401
▁sealbh	-11.4404
ART	-11.4404
hot	-11.4406
▁Pat	-11.441
Níl	-11.441
▁ballaí	-11.4416
▁plátaí	-11.4417
▁fhoirgnimh	-11.4419
▁Crios	-11.4431
chaint	-11.4433
TU	-11.4447
ouch	-11.445
▁réit	-11.4455
▁gcionta	-11.4455
▁réasúnacha	-11.4461
▁déantúsaíocht	-11.4464
▁Not	-11.4465
mheasann	-11.4466
▁club	-11.4472
▁64	-11.4474
▁leithreas	-11.4478
liocht	-11.4479
▁Pop	-11.4481
▁gcionn	-11.4485
ucht	-11.4489
rush	-11.449
▁liostaí	-11.4491
▁Gaelscoil	-11.4493
HE	-11.4497
▁Media	-11.4498
▁soghluaisteacht	-11.4502
eola	-11.4503
tric	-11.4505
chó	-11.4507
▁ardaithe	-11.4511
iméadar	-11.4512
▁Datejust	-11.4512
▁Innealra	-11.4512
▁Liospóin	-11.4512
▁acadúla	-11.4512
▁chaillteanas	-11.4512
▁gealltanais	-11.4512
▁measúnaithe	-11.4512
▁randamach	-11.4512
▁trahtube	-11.4512
▁troscán	-11.4512
▁furasta	-11.4512
▁Chartlann	-11.4512
▁fhíneáil	-11.4512
▁ndeachaigh	-11.4512
▁Chonartha	-11.4512
neamhdhíobhálach	-11.4512
▁bpróiseáil	-11.4513
▁thuasluaite	-11.4513
▁uafásach	-11.4513
aethanta	-11.4513
▁tobann	-11.4513
▁Transport	-11.4513
▁dhíscaoileadh	-11.4513
Africa	-11.4514
▁túisce	-11.4514
ÁIL	-11.4515
box	-11.4515
▁Baintrí	-11.4515
▁mhaireann	-11.4517
▁gceadúnas	-11.4518
▁ceachtanna	-11.4519
▁idirghabháil	-11.4519
▁tOrdú	-11.452
iniúna	-11.452
IWC	-11.4521
▁poill	-11.4528
fhostú	-11.4528
▁Ranna	-11.4529
HC	-11.4535
▁micro	-11.4545
▁1920	-11.4546
▁charachtar	-11.4547
chosúil	-11.4547
▁téacsanna	-11.4548
gent	-11.4558
Ex	-11.4562
▁mhéara	-11.4564
▁leanfar	-11.4566
▁cáblaí	-11.4573
ij	-11.458
▁múnlaí	-11.4583
▁cosa	-11.4585
web	-11.4588
▁tofa	-11.4588
meter	-11.459
▁Tiomána	-11.4595
▁coigilt	-11.4596
GT	-11.46
Ph	-11.4601
dóireacht	-11.4602
ggy	-11.4602
uarastail	-11.4603
pple	-11.4607
▁réaltacht	-11.4607
▁Ollscoile	-11.4608
▁bileog	-11.4611
▁maoirseacht	-11.4611
▁treorach	-11.4612
▁304	-11.4613
ueen	-11.4613
ott	-11.4614
▁bhfeidhmeanna	-11.4615
Sean	-11.4616
▁Rún	-11.4624
▁Save	-11.4624
▁gclo	-11.4627
▁72	-11.4629
caithfear	-11.4631
oilseofar	-11.4639
▁meastóireachta	-11.4639
tré	-11.4643
JM	-11.4644
▁mhionn	-11.4646
▁ócáideach	-11.4653
▁shoiléir	-11.4656
▁mhaisiú	-11.4656
cio	-11.4657
Columbia	-11.4659
fhuascailt	-11.4659
▁Dúbailte	-11.4659
▁chraiceann	-11.4659
▁contrártha	-11.4659
▁folláine	-11.4659
▁Comhlachais	-11.4659
▁Pinsin	-11.4659
▁Agallamh	-11.466
▁Máistir	-11.466
▁urláir	-11.466
Digital	-11.466
▁robot	-11.466
▁gcoiste	-11.466
Lakers	-11.466
equired	-11.466
Vegas	-11.466
▁glaonna	-11.466
▁Aiseolas	-11.4661
▁iarmhar	-11.4661
▁macánta	-11.4661
▁tuigthe	-11.4662
▁gcolún	-11.4662
▁cailleadh	-11.4663
script	-11.4663
▁pacáil	-11.4664
▁cainéal	-11.4666
North	-11.4667
▁PCB	-11.4667
▁lé	-11.4671
▁Mp	-11.4672
▁fhoirmiú	-11.4672
▁lgh	-11.4674
Eanáir	-11.4677
Media	-11.4677
▁marcanna	-11.4677
chumann	-11.4677
▁bheartaithe	-11.4678
▁BIA	-11.4678
oiliúna	-11.4679
▁ACHT	-11.4679
chomhalta	-11.4679
choiteann	-11.468
taobh	-11.4682
▁taifeadadh	-11.4684
▁léasa	-11.4692
íneach	-11.4694
▁Comhaltaí	-11.4696
PM	-11.4698
▁Brown	-11.4698
▁madraí	-11.4699
▁rathúla	-11.4703
stand	-11.4703
photo	-11.4704
again	-11.4706
▁inchánach	-11.4707
iscint	-11.4708
▁Chlé	-11.4716
ainéal	-11.4717
▁diagnóis	-11.4718
▁teiripe	-11.472
▁úsáidfear	-11.4723
▁pócaí	-11.4723
▁Ghaeltachta	-11.4724
▁Christ	-11.4729
▁creidmheas	-11.473
▁eilimintí	-11.473
▁Réigiúnacha	-11.4738
▁plu	-11.4741
chomhar	-11.4745
▁phas	-11.4751
atharú	-11.4752
▁rannchuid	-11.4755
▁Pan	-11.4756
scála	-11.4757
city	-11.4765
eangacha	-11.4765
▁fara	-11.4765
▁chinnte	-11.4766
olly	-11.4776
▁bhunús	-11.4779
omo	-11.4782
isteoirí	-11.4783
▁scannánú	-11.4786
oto	-11.4786
graph	-11.4787
amhail	-11.4789
▁Glacfai	-11.4795
▁spiorad	-11.4808
▁DRÉACHT	-11.4809
Community	-11.4809
iomportáil	-11.4809
nstealladh	-11.4809
▁Bailiúcháin	-11.4809
▁Erotic	-11.4809
▁Léirmheasanna	-11.4809
▁Orgasms	-11.4809
▁cearrbhachais	-11.4809
▁chomóradh	-11.4809
▁droichead	-11.4809
▁tionóisc	-11.4809
▁tipiciúil	-11.4809
▁Chiarraí	-11.4809
▁hoifigiúil	-11.4809
▁phóca	-11.4809
▁Acadamh	-11.4809
▁BDSM	-11.4809
▁Ráitis	-11.4809
▁priontáil	-11.4809
▁mhaireachtála	-11.4809
▁Prionsa	-11.4809
▁tnúth	-11.4809
▁Chomhdháil	-11.4809
▁shannadh	-11.4809
▁dhaonna	-11.4809
▁seaicéad	-11.4809
▁bhfuarthas	-11.4809
▁gráin	-11.4809
▁Dearbhuithe	-11.481
▁innill	-11.481
▁ciorcad	-11.4811
▁Teachtaireacht	-11.4812
▁soláthróir	-11.4813
▁1981	-11.4813
▁pearsanra	-11.4814
▁modhnú	-11.4815
▁chaitheann	-11.4816
▁chomhthéacs	-11.4817
▁Óráid	-11.4817
jan	-11.4818
▁Mair	-11.4818
▁fionna	-11.4819
▁VII	-11.482
oibreacha	-11.4822
▁dóich	-11.4824
▁Cloch	-11.4826
▁iarratasóra	-11.4828
▁cláruithe	-11.4828
▁struchtúrtha	-11.4829
▁níocháin	-11.483
▁Naofa	-11.4831
stat	-11.4832
▁ghlactar	-11.4833
▁gabhála	-11.4834
PN	-11.4834
utter	-11.4834
▁Ko	-11.4838
▁Wire	-11.4839
scríbhinní	-11.4841
dul	-11.4842
▁siamsaíochta	-11.4849
▁spreagtha	-11.4853
▁náisiún	-11.4855
▁seoltaí	-11.4857
stud	-11.4857
▁gcuir	-11.4857
▁frithsheasmhach	-11.4859
▁mhíreanna	-11.4864
▁600	-11.4865
▁gnóthach	-11.487
▁Cuideachtaí	-11.4873
PH	-11.4874
▁caibidlíochta	-11.4877
▁dleachtanna	-11.4878
▁Leagann	-11.488
▁bhFo	-11.4886
chloch	-11.4886
▁Áirithe	-11.4886
▁States	-11.4888
▁Mála	-11.4895
GH	-11.4899
▁tionóntacht	-11.49
▁shonrach	-11.4902
heal	-11.4902
▁tomhas	-11.4908
▁uirbeach	-11.4912
▁forfheidhmiú	-11.4912
▁muirí	-11.4912
▁mhíle	-11.4915
HI	-11.4916
▁mbaile	-11.4917
Share	-11.4924
Jo	-11.493
▁cith	-11.4937
KB	-11.4938
▁Buail	-11.494
▁Cistí	-11.494
▁Tástála	-11.4944
téann	-11.4947
put	-11.4947
▁Roll	-11.4949
cóip	-11.495
▁Mor	-11.4951
▁dhearbha	-11.4955
AIL	-11.4957
▁tarchuir	-11.4958
scríbhinn	-11.4959
▁bronnta	-11.496
▁Brasaíle	-11.496
▁ITBÁC	-11.496
▁Rannpháirtithe	-11.496
▁cóimheas	-11.496
▁dheiridh	-11.496
▁fharraige	-11.496
▁gheilleagar	-11.496
▁laethúla	-11.496
▁nGaillimh	-11.496
▁ngeilleagar	-11.496
▁polasaithe	-11.496
▁seisean	-11.496
▁shealadach	-11.496
▁speicis	-11.496
▁theorannú	-11.496
▁thionól	-11.496
▁víreas	-11.496
▁Téalainn	-11.496
▁shubstaint	-11.496
▁Taisteal	-11.496
▁ilbhliantúil	-11.496
▁pháirc	-11.496
Laistigh	-11.4961
▁óstán	-11.4961
▁Bunreacht	-11.4961
▁gcruthófar	-11.4962
▁caoga	-11.4962
▁lárionad	-11.4962
▁déanfaimid	-11.4963
▁gafa	-11.4963
IANNA	-11.4963
nasc	-11.4964
▁ailtireacht	-11.4966
izz	-11.4967
▁ghathanna	-11.4968
▁gasta	-11.4969
▁bhuachaillí	-11.497
▁Maoine	-11.497
▁lochtanna	-11.497
▁fiáin	-11.4974
▁milis	-11.4975
ainmneacha	-11.4975
aoibh	-11.4977
▁coinneála	-11.4977
ocsa	-11.4977
▁earrach	-11.4977
chomhairle	-11.4982
▁cheanglais	-11.4982
mhargadh	-11.4983
▁Cong	-11.4984
▁drochuair	-11.4987
▁roghnúcháin	-11.4987
▁tuairiscithe	-11.4988
▁dhíon	-11.4988
Jul	-11.4988
▁TF	-11.499
eagrú	-11.499
rack	-11.4991
▁ráthaíochtaí	-11.4993
▁gnéis	-11.4994
▁Spyder	-11.4994
▁Lab	-11.4994
choimeád	-11.4994
phil	-11.4997
Aerfort	-11.4999
▁trua	-11.5005
▁from	-11.5009
Pleananna	-11.5014
cheadaithe	-11.5016
Mag	-11.5021
▁mhara	-11.5021
▁Brand	-11.5028
TF	-11.5028
1%	-11.5035
áide	-11.504
pas	-11.5047
mhuirir	-11.5049
chumais	-11.5056
▁uillinn	-11.5058
▁fóin	-11.506
▁maisithe	-11.506
▁teilifís	-11.5063
▁Casinos	-11.5065
bhun	-11.5068
▁maighnéadach	-11.5069
imín	-11.507
Ardionadaí	-11.507
OW	-11.5074
ense	-11.5076
▁malartach	-11.5077
▁áille	-11.5082
▁buachaill	-11.5089
stri	-11.5101
stan	-11.5102
▁rada	-11.5106
saor	-11.5107
▁hearnála	-11.5107
charbóin	-11.5113
Wimbledon	-11.5114
▁Bluetooth	-11.5114
▁Caipitiúil	-11.5114
▁Pháirc	-11.5114
▁Pictiúir	-11.5114
▁Teideal	-11.5114
▁bhfoirgneamh	-11.5114
▁miotal	-11.5114
▁roghchlár	-11.5114
▁teagmhais	-11.5114
▁cliniciúla	-11.5114
▁Gnáth	-11.5114
▁scothaosta	-11.5114
▁eisiata	-11.5114
▁Sreang	-11.5114
▁paisean	-11.5114
▁lasair	-11.5114
tuilleamh	-11.5114
▁bunachar	-11.5115
▁gceanglaítear	-11.5115
fheirmeoirí	-11.5115
▁Chomhphobal	-11.5115
▁Roghanna	-11.5115
▁príomhchuspóir	-11.5115
▁hiasachta	-11.5116
▁Breathnaíonn	-11.5117
▁staire	-11.5117
▁ceapfar	-11.5117
▁mbeifear	-11.5117
▁foréigean	-11.5117
▁comhraic	-11.5118
▁páirtnéir	-11.5119
Daniel	-11.5119
▁1964	-11.5119
▁dúnadh	-11.5119
▁peile	-11.5119
▁sholáthraithe	-11.5119
▁thagartha	-11.512
▁(12)	-11.512
bhair	-11.5121
▁Strapon	-11.5121
▁Cruthaigh	-11.5122
▁1932	-11.5122
james	-11.5122
▁1945	-11.5124
reab	-11.5125
▁bhogadh	-11.5126
▁banna	-11.5126
oidí	-11.5127
▁fhreagraíonn	-11.5128
▁hoibríochtaí	-11.513
▁Will	-11.5131
uga	-11.5132
▁faigh	-11.5134
▁Deartha	-11.5135
▁Out	-11.5135
▁20%	-11.5137
amhrán	-11.5138
phointe	-11.5139
road	-11.5139
▁neamhrialta	-11.514
▁víosaí	-11.5143
▁leantach	-11.5143
▁mbreith	-11.5144
▁spásanna	-11.5145
lp	-11.5147
▁chuirfea	-11.5148
▁cré	-11.5149
▁Chomhalta	-11.515
mens	-11.515
mheán	-11.5152
▁greann	-11.5152
▁muir	-11.5153
▁cáis	-11.5157
fheic	-11.5159
gri	-11.516
water	-11.5163
▁sheomra	-11.5165
▁cleachtaí	-11.5167
fhir	-11.5171
▁Paris	-11.5174
▁Roth	-11.5175
▁siombail	-11.5182
▁heolas	-11.5183
▁Comhpháirt	-11.5183
▁Global	-11.5188
owl	-11.5193
▁fírinneach	-11.5193
▁parlaiminteacha	-11.5193
▁aithnítear	-11.5194
gel	-11.5195
▁ghníomhartha	-11.5197
▁chuimsitheach	-11.5199
▁chabhra	-11.52
▁ghníomhacha	-11.5202
▁amanna	-11.5209
▁reachtacha	-11.5211
▁scaoil	-11.5212
▁nochta	-11.5212
▁chionta	-11.5215
8%	-11.5218
▁dearbh	-11.522
▁Athraío	-11.5225
ficial	-11.5226
▁iarmhéid	-11.5227
▁choim	-11.5234
bby	-11.5234
mhaireacht	-11.5239
▁fhorála	-11.5244
▁Airí	-11.5245
job	-11.5245
▁luachála	-11.5247
▁bhainisteoir	-11.5252
▁Spáinne	-11.5252
Marvel	-11.5264
ddle	-11.5265
Jun	-11.5267
Kensington	-11.527
▁Foghlama	-11.527
▁Tomhaltóirí	-11.527
▁chultúir	-11.527
▁craolacháin	-11.527
▁dhomhanda	-11.527
▁máinliacht	-11.527
▁phróifíl	-11.527
▁radhairc	-11.527
▁thriomú	-11.527
▁Thrácht	-11.527
▁tarrthála	-11.527
mhorgáiste	-11.527
▁Thaighde	-11.527
▁amhráin	-11.527
iontaobhaí	-11.527
▁Sealadach	-11.527
▁dáiríre	-11.527
▁eastáit	-11.527
▁fiacla	-11.527
▁hiontach	-11.527
▁caipín	-11.527
▁This	-11.5271
impleachtaí	-11.5271
▁cnámh	-11.5271
▁phíosa	-11.5271
mhuinín	-11.5271
▁fhaoiseamh	-11.5271
▁ocras	-11.5271
▁múineadh	-11.5271
▁chuala	-11.5272
▁Státchiste	-11.5273
▁feabhsúcháin	-11.5273
▁míchumais	-11.5273
Earth	-11.5275
▁fónamh	-11.5276
aicmiú	-11.5276
eadar	-11.5277
▁caidrimh	-11.5277
pé	-11.5279
idirbheart	-11.528
▁fhís	-11.528
▁30%	-11.528
▁Fáilt	-11.5282
▁sheachtrach	-11.5284
▁leithroinnt	-11.5286
▁meall	-11.5286
▁cuain	-11.5287
▁gCill	-11.5288
▁bhailíocht	-11.5289
▁phola	-11.529
▁cruthanna	-11.5291
▁mhéadaithe	-11.5294
▁Atá	-11.5294
had	-11.5294
FL	-11.5295
▁athuair	-11.5296
▁cuairteanna	-11.5297
School	-11.5297
resistant	-11.5297
FR	-11.53
chineál	-11.5301
▁gabha	-11.5302
▁breathn	-11.5304
▁orgasms	-11.5304
▁with	-11.5306
▁dheonach	-11.5307
▁corparáideach	-11.5314
imreoirí	-11.5319
evan	-11.5323
code	-11.5323
▁Library	-11.5324
▁breiseán	-11.5327
Victor	-11.533
▁Scol	-11.5331
lick	-11.5341
cap	-11.5347
Comhchoiste	-11.5349
▁paitinn	-11.535
illiún	-11.5354
paráid	-11.5354
shruth	-11.5357
ithníodh	-11.536
imeacht	-11.5362
▁longa	-11.5367
▁Náisiú	-11.5373
250	-11.5375
▁ghlas	-11.5377
▁Plé	-11.5377
odanna	-11.5378
▁Uas	-11.5378
▁talmhaíocht	-11.5381
▁brathadóir	-11.5382
Cé	-11.5383
rúd	-11.539
▁diaper	-11.5391
▁Theach	-11.5395
▁KB	-11.54
▁iomaíochta	-11.5401
▁gunna	-11.5404
▁aisti	-11.5406
▁faid	-11.5416
▁bhreathn	-11.5417
shop	-11.5422
▁foirmiú	-11.5425
▁cithfholc	-11.5429
Campaign	-11.5429
▁Breitling	-11.5429
▁Comórtas	-11.5429
▁Hollywood	-11.5429
▁Nuachtlitir	-11.5429
▁Shóisearach	-11.5429
▁bPoblacht	-11.5429
▁casinos	-11.5429
▁cruithneacht	-11.5429
▁foilseacháin	-11.5429
▁hIodáile	-11.5429
▁hidirnáisiúnta	-11.5429
▁thosnú	-11.5429
▁Simplí	-11.5429
▁tiontaire	-11.5429
▁fhinné	-11.5429
▁trucail	-11.5429
▁easnamh	-11.5429
▁cluaise	-11.5429
Climate	-11.5429
▁tamall	-11.5429
rúisis	-11.5429
▁thrácht	-11.5429
▁cloiche	-11.543
▁Costas	-11.543
▁seisiúin	-11.543
▁folúntas	-11.543
▁chleachtais	-11.543
▁Árachais	-11.5431
▁teastas	-11.5432
▁seasmhach	-11.5433
oibleagáid	-11.5433
▁feola	-11.5434
▁mhaisiúil	-11.5437
▁bhfu	-11.5437
▁gceanglas	-11.5437
▁fút	-11.5438
▁treochtaí	-11.5438
▁chinnidh	-11.5442
▁mainn	-11.5446
ures	-11.5447
íteas	-11.5449
▁thoiliú	-11.5449
▁singil	-11.545
Gov	-11.5453
NR	-11.5457
Twitter	-11.5459
▁Gardaí	-11.5459
▁tuarastal	-11.546
fhás	-11.5461
▁Mhol	-11.5461
▁fuaimeanna	-11.5462
▁Bank	-11.5463
comhpháirtíochta	-11.5464
▁earráidí	-11.5464
▁Sim	-11.5465
▁Magazine	-11.5473
▁bPlean	-11.5475
▁dream	-11.5476
▁rangú	-11.5479
idís	-11.548
neofar	-11.5485
Europ	-11.5486
▁Comhaltas	-11.549
▁leachtach	-11.5498
Foundation	-11.5498
▁ciall	-11.5501
irín	-11.5501
▁dtréimhse	-11.5507
corn	-11.5507
▁ob	-11.5507
▁achainí	-11.5513
rust	-11.5521
Athair	-11.5532
éilitheoir	-11.5536
▁Oidhreacht	-11.5537
rianta	-11.5539
▁scríbhneoirí	-11.5545
▁gabh	-11.5548
view	-11.5548
▁Bunscoil	-11.5549
▁guy	-11.5553
▁cheachta	-11.5558
oscail	-11.5559
iasacht	-11.5561
▁deimhn	-11.5564
▁lionsa	-11.5565
agrafaíocht	-11.5576
ogra	-11.5578
▁Geall	-11.5581
chasta	-11.5586
dteicneolaíochta	-11.5589
Barcelona	-11.559
pharlaimint	-11.559
▁Conclúidí	-11.559
▁Fhuinneamh	-11.559
▁Próiseas	-11.559
▁Seapáine	-11.559
▁Tionóil	-11.559
▁Tíortha	-11.559
▁coirníní	-11.559
▁elegance	-11.559
▁neamhbhailí	-11.559
▁searmanas	-11.559
eitéareolaíochta	-11.559
▁Ceangail	-11.559
▁Chainnigh	-11.559
▁Seachadadh	-11.559
▁painéil	-11.559
▁chomhshó	-11.559
▁comhleanúnach	-11.559
▁Chipir	-11.559
▁Friotaíocht	-11.559
▁ceardaíocht	-11.559
▁atáirgeadh	-11.5591
ark	-11.5591
éagmais	-11.5591
grúp	-11.5591
gui	-11.5591
Araibis	-11.5591
Arsenal	-11.5592
▁geata	-11.5592
▁buailte	-11.5592
▁More	-11.5593
▁Society	-11.5593
lonnú	-11.5593
▁Árachas	-11.5593
▁gcló	-11.5594
▁scrúd	-11.5595
▁roghnaíodh	-11.5596
riathar	-11.5597
▁1934	-11.5598
Archive	-11.5598
▁scaradh	-11.56
▁tuath	-11.56
lection	-11.5601
▁Chairt	-11.5606
▁Méada	-11.5606
▁rátála	-11.5606
▁healaíontóirí	-11.5606
▁hoifigigh	-11.5607
▁neamhréir	-11.5608
▁ghnóthais	-11.5609
▁iomarca	-11.5613
▁rialúcháin	-11.5614
ARD	-11.5614
▁chruach	-11.5615
▁mhodhanna	-11.5616
▁Maisiú	-11.5616
▁foirmle	-11.5616
▁chomhlíon	-11.5618
England	-11.5622
▁fhuinneamh	-11.5622
LP	-11.5623
ghearr	-11.5625
.........	-11.5626
Fheis	-11.5626
▁léigh	-11.5635
iúchán	-11.5637
porno	-11.564
▁maolú	-11.5645
▁iomaíocha	-11.5645
▁aicmí	-11.5646
uite	-11.5647
▁Sonra	-11.5649
Iar	-11.565
chláraithe	-11.5654
▁banda	-11.5654
NH	-11.5663
▁High	-11.5665
leachtanna	-11.5665
carr	-11.5666
american	-11.5667
▁fírinne	-11.5671
DU	-11.5673
▁Labhair	-11.5674
▁Obs	-11.5674
Leas	-11.5674
▁chumainn	-11.5677
▁clé	-11.5678
▁innealtóireacht	-11.5679
lop	-11.5681
KE	-11.5684
Our	-11.5692
AND	-11.5695
ava	-11.5704
900	-11.5706
▁loch	-11.5708
ONS	-11.5711
▁éadach	-11.5711
▁Breis	-11.5718
INN	-11.5721
ionadaí	-11.5724
iomaíochas	-11.5726
OG	-11.5727
▁teicníc	-11.5729
▁heagraíochta	-11.573
▁Maoin	-11.5738
sign	-11.574
phy	-11.5741
▁Síor	-11.5742
agha	-11.5745
▁trádmharc	-11.5749
▁Suirbhé	-11.5754
▁sona	-11.5754
▁Amhráin	-11.5754
▁Comhshaol	-11.5754
▁cailciam	-11.5754
▁cosmaideacha	-11.5754
▁gcnaipe	-11.5754
▁giotár	-11.5754
▁maireachtála	-11.5754
▁míochaine	-11.5754
▁Fionlainne	-11.5754
▁Spraoi	-11.5754
▁mainneachtain	-11.5754
▁shaibhir	-11.5754
▁Ainmhithe	-11.5754
▁Choimisinéir	-11.5754
▁Cuspóir	-11.5754
▁dtaithí	-11.5754
▁ionchasach	-11.5754
▁Dildo	-11.5754
▁Scaip	-11.5754
▁cheoil	-11.5754
▁Gréige	-11.5754
▁bpearsa	-11.5754
▁Íomhánna	-11.5755
▁Réiteach	-11.5755
▁sainmhínithe	-11.5755
▁ceapacháin	-11.5755
Capital	-11.5755
▁ceapachán	-11.5755
▁rollta	-11.5755
▁sparán	-11.5756
▁tuairisceáin	-11.5756
▁tinneas	-11.5756
▁Creative	-11.5756
▁dílis	-11.5757
iamh	-11.5757
▁Shráid	-11.5759
▁bhailiúchán	-11.5759
▁1983	-11.5761
▁cluas	-11.5766
▁tusa	-11.5767
▁Chéim	-11.5767
▁2016/	-11.5771
▁Hong	-11.5771
▁1930	-11.5775
lyn	-11.5775
Gradam	-11.5777
▁ionfhabhtú	-11.5777
▁€20	-11.5778
uba	-11.5779
▁Tráth	-11.5779
▁chompord	-11.578
dhéanamh	-11.578
▁seoltóir	-11.5782
You	-11.5784
IV	-11.5785
▁Law	-11.5787
bhealaí	-11.5788
iompair	-11.5789
struchtúr	-11.5789
▁ollscoile	-11.579
phraghas	-11.579
▁breitheamh	-11.579
▁urramú	-11.5791
alex	-11.5796
▁doimhneacht	-11.5799
▁Cláir	-11.58
▁próiseáilte	-11.58
fhostóirí	-11.5804
▁téamaí	-11.5807
▁Rómáine	-11.5814
▁bhíodh	-11.5817
fair	-11.5818
▁USA	-11.5818
9%	-11.5821
▁ghaol	-11.5823
IST	-11.5825
2,000	-11.5828
▁eintiteas	-11.5829
enci	-11.5833
annta	-11.5835
▁Creidmheasa	-11.5835
RL	-11.5842
ritic	-11.5844
▁uasmhéid	-11.5845
▁caoi	-11.5847
2.5	-11.5849
6%	-11.585
iya	-11.5851
▁Scéime	-11.5851
leathan	-11.5852
▁ráithe	-11.5854
▁chosa	-11.5858
RN	-11.5863
▁leanfa	-11.5888
eric	-11.5889
▁180	-11.5889
▁pháirtithe	-11.5894
▁bod	-11.5894
▁gcomhlíon	-11.5897
uíodh	-11.5902
▁cuntasach	-11.5904
itz	-11.5908
▁Caol	-11.591
lúdaíonn	-11.5911
omi	-11.5911
▁Téarma	-11.5912
▁chúraim	-11.5912
▁theorainn	-11.592
Gailearaí	-11.5921
athbheochan	-11.5921
▁Ceadúnais	-11.5921
▁Fuinneamh	-11.5921
▁Lascaine	-11.5921
▁Míleata	-11.5921
▁Slándáil	-11.5921
▁Sóisialach	-11.5921
▁Weather	-11.5921
▁dealraitheach	-11.5921
▁lóistín	-11.5921
▁mhúnlú	-11.5921
▁pornorolik	-11.5921
▁theoranta	-11.5921
▁Íoslainn	-11.5921
▁traenála	-11.5921
▁gcúram	-11.5921
▁Leideanna	-11.5921
▁Suiteáil	-11.5921
▁Fóram	-11.5921
▁Cruinne	-11.5921
Glactar	-11.5921
▁máithreacha	-11.5921
húnamh	-11.5921
▁meastachán	-11.5921
▁cheilt	-11.5922
▁Iarchéime	-11.5922
▁Comhphobal	-11.5922
▁fóram	-11.5922
▁dlítheanach	-11.5922
▁Republic	-11.5922
▁dhéanaimid	-11.5922
▁mharcáil	-11.5923
▁dhúshlá	-11.5923
bheartaíonn	-11.5923
▁óstáil	-11.5923
▁glacfar	-11.5925
imirceach	-11.5925
anríon	-11.5925
location	-11.5925
▁1973	-11.5927
▁féilte	-11.5927
▁sholáthraítear	-11.5927
▁1987	-11.5928
▁Glos	-11.5929
▁chíche	-11.5929
Thu	-11.593
▁sceidealta	-11.5932
▁Mhóir	-11.5932
▁truailliú	-11.5937
▁Margaí	-11.5937
▁shl	-11.5939
123	-11.5939
▁Peso	-11.594
▁síolta	-11.5942
▁fhuaim	-11.5943
bhaint	-11.595
áthas	-11.5952
▁ráite	-11.5956
▁shamhlú	-11.5956
▁luchtaithe	-11.5957
mbo	-11.5959
sheirbhís	-11.5959
triail	-11.596
▁Ráthaíocht	-11.596
▁Feidhmeannacht	-11.5961
rochtain	-11.5963
chúiseanna	-11.5963
▁dóchas	-11.5963
▁inmhianaithe	-11.5965
wall	-11.5968
áititheoir	-11.5972
▁Pet	-11.5974
▁Léim	-11.5977
▁forlíonadh	-11.5978
▁rannchuidi	-11.5982
roghnach	-11.5982
▁luibh	-11.5986
▁sealbhú	-11.5988
trac	-11.5991
ARA	-11.5991
tógáil	-11.5994
▁ráthaíochta	-11.6001
Ranníocach	-11.6001
bhanna	-11.6009
eva	-11.6017
stad	-11.6019
choláiste	-11.6019
▁chásanna	-11.602
▁críochnaitheach	-11.6025
Angel	-11.6026
▁ló	-11.6027
lfar	-11.6028
even	-11.6028
bank	-11.6031
▁bailíocht	-11.6031
▁tosca	-11.6031
atek	-11.6035
ANNA	-11.6035
Lu	-11.6036
cheantar	-11.6038
UL	-11.6039
phlean	-11.6043
▁tionsclaíocha	-11.6044
▁díobhálach	-11.6048
▁1950	-11.605
▁conarthach	-11.605
▁Part	-11.6057
gné	-11.606
▁Seacht	-11.6061
▁eilimint	-11.6066
▁sholáthraí	-11.6066
▁BCE	-11.6068
▁fhostú	-11.6072
SCO	-11.6074
árthaí	-11.6075
lva	-11.6079
▁tuirse	-11.6081
▁Atlanta	-11.6081
▁éifeachtúla	-11.6084
▁líníocht	-11.6086
▁tairg	-11.6087
zhen	-11.6088
▁mbeif	-11.609
▁Chaomhnú	-11.609
▁Cúntóirí	-11.609
▁Fabraic	-11.609
▁Stáisiún	-11.609
▁breataine	-11.609
▁daonlathas	-11.609
▁gcluichí	-11.609
▁leathanbhanda	-11.609
▁phraiticiúil	-11.609
▁priontála	-11.609
▁sleamhnáin	-11.609
▁tuaslag	-11.609
▁cliniciúil	-11.609
▁rompu	-11.609
▁scamall	-11.609
▁théama	-11.609
eintitis	-11.609
▁Skills	-11.609
▁Soilse	-11.609
▁optúil	-11.609
▁turraing	-11.609
▁bairille	-11.609
▁déiríochta	-11.609
▁Deiseanna	-11.6091
▁Tús	-11.6091
▁dátheangach	-11.6091
Íos	-11.6091
▁phróiseála	-11.6091
▁Bheatha	-11.6091
▁fhuinneog	-11.6091
▁4-6	-11.6091
inchoigeartaithe	-11.6091
▁sparkl	-11.6092
▁Fhoras	-11.6092
▁theorainneacha	-11.6092
▁Comhoibriú	-11.6093
▁Bhearta	-11.6094
▁caipiteal	-11.6094
▁díolachán	-11.6096
▁Food	-11.6096
▁1947	-11.6097
▁phunt	-11.6097
▁1937	-11.6098
▁Nike	-11.6099
▁mbéal	-11.6099
▁chríochnaigh	-11.61
▁bheartaítear	-11.61
▁candy	-11.61
▁gair	-11.61
▁cadás	-11.6102
▁Gearradh	-11.6104
▁bhforas	-11.6106
▁Mesa	-11.6107
▁bailte	-11.611
ssion	-11.6113
úchadh	-11.6114
▁iarmhairtí	-11.6114
▁cháipéis	-11.6114
▁Cláraithe	-11.6117
▁scairchaipiteal	-11.6117
▁tapaidh	-11.6118
▁stocaí	-11.6119
UT	-11.6128
aigéad	-11.6131
police	-11.6134
chónaí	-11.6135
▁leathadh	-11.6135
▁eagrán	-11.6137
▁dtithe	-11.6144
color	-11.6151
▁stró	-11.6154
eisceachtaí	-11.6157
iléir	-11.6159
hraith	-11.6161
▁Aireacht	-11.6164
▁mheastóireacht	-11.6165
▁Care	-11.617
Paul	-11.6171
▁chomhaid	-11.6172
fast	-11.6172
▁London	-11.6174
▁Action	-11.6174
▁Spa	-11.618
▁pras	-11.618
▁dochtúirí	-11.6186
saorghluaiseacht	-11.6188
▁comharba	-11.6191
▁uachtarach	-11.6192
bull	-11.6193
cious	-11.6195
▁béile	-11.6201
HT	-11.6208
oundation	-11.621
íocóir	-11.6213
Frank	-11.6213
▁cócaireacht	-11.6217
eri	-11.6223
▁Fola	-11.6231
▁hOifig	-11.6233
/2013	-11.6236
▁gnótha	-11.6237
▁maol	-11.6242
main	-11.6242
club	-11.6244
Australia	-11.6245
ides	-11.6249
▁chomhad	-11.6255
sheasmhach	-11.6256
▁minice	-11.6261
Cho	-11.6261
▁dún	-11.6261
ÍMAT	-11.6263
▁Bliantúil	-11.6263
▁Loingseoireacht	-11.6263
▁YouTube	-11.6263
▁comórtais	-11.6263
▁gcontae	-11.6263
▁hiodrálach	-11.6263
▁mbuiséad	-11.6263
▁tharmligean	-11.6263
mscaradh	-11.6263
▁Altranais	-11.6263
▁ateangaireacht	-11.6263
▁gameplay	-11.6263
Journal	-11.6263
▁dtarlóidh	-11.6263
▁saothrú	-11.6263
▁truaillithe	-11.6263
▁Plandaí	-11.6263
▁Finance	-11.6263
▁dtalamh	-11.6263
▁gineadóir	-11.6263
mhiotail	-11.6263
▁tuisceana	-11.6263
▁abhainn	-11.6263
▁eisceachtúla	-11.6263
▁troigh	-11.6264
▁Work	-11.6264
▁Ghairmiúil	-11.6264
▁ngearr	-11.6264
▁leaisteacha	-11.6264
▁bhrabúis	-11.6264
▁phósta	-11.6265
pháirtithe	-11.6265
▁aisghairm	-11.6265
▁caitheadh	-11.6266
▁rabhadh	-11.6267
▁earcú	-11.6267
▁Fásta	-11.627
▁horduithe	-11.627
▁1955	-11.6271
▁páirtaimseartha	-11.6272
▁Saothair	-11.6273
▁Plus	-11.6276
▁múnlaithe	-11.6276
▁bpáirtithe	-11.6277
▁sruthán	-11.6277
▁traein	-11.6279
ochtú	-11.628
▁fiachais	-11.628
▁Scoir	-11.6281
mheáchan	-11.6284
▁Málta	-11.6286
Ionad	-11.6288
▁scáthán	-11.6291
self	-11.6294
oghachán	-11.6294
▁ticéid	-11.6296
céad	-11.6297
▁hoibrithe	-11.6302
▁Cláraitheoir	-11.6302
may	-11.6304
fhaisnéis	-11.6307
fhada	-11.6313
▁scoláireacht	-11.6315
▁airteagal	-11.6315
kat	-11.6317
rannchur	-11.6317
▁tuig	-11.6319
▁mean	-11.632
▁theicneolaíoch	-11.6323
▁chuspóirí	-11.6323
▁mbainfea	-11.6323
▁chuimhne	-11.6325
▁rothlach	-11.6335
▁ionadaíoch	-11.6335
▁lámhaigh	-11.6337
gnó	-11.6344
statach	-11.635
oileán	-11.6354
Enter	-11.6355
▁ghnóthas	-11.6358
shaoil	-11.6361
azi	-11.6362
▁leithscéal	-11.6367
▁Plan	-11.6369
éisteacht	-11.6374
MIT	-11.6374
▁chumarsáid	-11.6375
astic	-11.6378
uaileann	-11.6379
chumas	-11.638
▁Aonach	-11.6381
vet	-11.6386
íonachta	-11.639
▁Eachtra	-11.6394
▁úsáideacha	-11.6396
theanga	-11.6398
▁orgasm	-11.64
Gníomhaithe	-11.6401
cut	-11.6408
bheag	-11.6408
athchóiriú	-11.6409
▁iomláin	-11.6412
▁gCoimisinéir	-11.6414
▁thuairimí	-11.6414
▁Oibríocht	-11.6418
▁mbua	-11.642
rock	-11.6427
infheistíocht	-11.643
▁gcearta	-11.6431
▁bláth	-11.6433
▁ghabha	-11.6433
▁bhronn	-11.6433
▁stiall	-11.6436
2020	-11.6437
▁Ghníomh	-11.6438
Toirmeasc	-11.6438
▁Crystal	-11.6438
▁Industry	-11.6438
▁chliaint	-11.6438
▁léirmhíniú	-11.6438
▁pacáistithe	-11.6438
▁sráidbhaile	-11.6438
Marquette	-11.6438
thionónta	-11.6438
▁Uilíoch	-11.6438
▁chúinsí	-11.6438
▁cupán	-11.6438
▁sweetie	-11.6438
▁eagarthóireacht	-11.6438
▁comhardaithe	-11.6438
▁comhdháil	-11.6438
▁tamaill	-11.6438
▁líofa	-11.6438
▁Aragon	-11.6438
▁Pearl	-11.6438
▁altranais	-11.6438
▁Hood	-11.6439
▁fhéidearthacht	-11.6439
▁Lámhleabhar	-11.6439
▁Móire	-11.6439
▁shainmhínítear	-11.6439
▁Caife	-11.6439
▁fiontraíochta	-11.6439
▁heels	-11.6439
▁comhlachas	-11.644
▁ghéarchéim	-11.644
▁sicín	-11.644
▁lámhleabhar	-11.644
▁dícháilithe	-11.644
▁íoslaghdú	-11.644
▁sannadh	-11.6441
▁labhraíonn	-11.6442
▁tOmbudsman	-11.6443
▁mBéal	-11.6443
▁marcóirí	-11.6443
▁1953	-11.6444
▁Comharthaí	-11.6444
▁ghort	-11.6444
▁Cultúrtha	-11.6444
▁Leictreachais	-11.6445
▁gcomhrá	-11.6445
▁Box	-11.6445
▁bhfeirm	-11.6447
▁Sonraíocht	-11.6448
▁Traen	-11.6448
aici	-11.6449
▁cíche	-11.645
▁chaibidil	-11.6453
▁Laghdú	-11.6456
▁Tom	-11.6461
oibre	-11.6461
▁Cuairt	-11.6464
▁Chúirteanna	-11.6466
▁gcomhlíonfa	-11.6473
vic	-11.6475
éanaimid	-11.6479
▁Chinn	-11.6479
▁diapers	-11.6481
▁comhachta	-11.6481
thuiscint	-11.6485
olaíocht	-11.6486
horásach	-11.6486
▁09:	-11.6487
▁cócaireachta	-11.6489
▁Ranná	-11.6493
▁seam	-11.6494
▁neamhní	-11.6495
▁speisialtóir	-11.6497
▁teen	-11.6499
▁brúigh	-11.65
rings	-11.6504
▁fhoilsithe	-11.6506
oibríochtaí	-11.6511
▁chaighdeáin	-11.6513
croílár	-11.6516
▁oiriúnaithe	-11.6525
▁Léirigh	-11.6526
Tour	-11.6527
Innealtóireachta	-11.6535
▁hEagraíochta	-11.6536
glo	-11.6539
▁Wall	-11.655
▁ndeon	-11.6552
▁dodhéanta	-11.6555
▁Feist	-11.6558
▁rúndacht	-11.6561
▁bá	-11.6562
▁gcáin	-11.6563
bet	-11.6563
2000	-11.6567
▁rothaí	-11.6576
oinbhinsiún	-11.6577
nico	-11.6578
▁sásra	-11.6592
mhaoinithe	-11.6592
▁cuar	-11.6593
office	-11.6595
aoire	-11.6596
mpo	-11.6596
edu	-11.6599
▁aeráid	-11.6599
▁sreabh	-11.6603
brand	-11.6603
heapacháin	-11.6604
ACT	-11.6604
ifreann	-11.6611
▁Tech	-11.6614
fhulaing	-11.6617
▁coimisiún	-11.6617
Christopher	-11.6617
Dioplóma	-11.6617
▁Choinbhinsiúin	-11.6617
▁Dhírigh	-11.6617
▁Gheimhridh	-11.6617
▁Inbhuanaithe	-11.6617
▁Language	-11.6617
▁Lasmuigh	-11.6617
▁Pictiúr	-11.6617
▁chúitimh	-11.6617
▁cáithníní	-11.6617
▁deireanaí	-11.6617
▁dhualgais	-11.6617
▁dtrácht	-11.6617
▁fhormáid	-11.6617
▁fíochán	-11.6617
▁gcultúr	-11.6617
▁ildaite	-11.6617
▁mbóthar	-11.6617
▁neamhdhíreach	-11.6617
▁phiocadh	-11.6617
▁platanam	-11.6617
▁tsláinte	-11.6617
▁Slabhra	-11.6617
▁dtionscal	-11.6617
▁díolúintí	-11.6617
▁Chúram	-11.6617
▁míosúil	-11.6617
▁Cleachtais	-11.6617
▁ingearach	-11.6617
Abrán	-11.6617
▁cuibhe	-11.6617
▁páirceála	-11.6617
▁coiscthe	-11.6617
▁dúiche	-11.6617
▁pianbhreith	-11.6617
▁Cartlann	-11.6617
▁cógaisíochta	-11.6617
▁Cruthaitheach	-11.6617
▁cliaint	-11.6618
▁sconna	-11.6618
▁Pobal	-11.6618
Johnson	-11.6618
▁shíneadh	-11.6619
▁sterling	-11.6619
▁céatadán	-11.6619
▁bhéarfaidh	-11.662
▁déileálfar	-11.662
▁Chomhlachta	-11.662
▁deonú	-11.662
▁Ghlas	-11.6622
▁uisceadán	-11.6622
▁creidimh	-11.6622
▁shéala	-11.6623
Ocean	-11.6623
▁Fuinneog	-11.6623
▁rothair	-11.6626
▁gcaithfear	-11.6629
▁nGrúpa	-11.6629
▁onóir	-11.663
fhill	-11.6632
▁Beartais	-11.6633
▁mholtaí	-11.6635
▁náisiúin	-11.6641
iteoirí	-11.6651
▁Srian	-11.6655
hogadh	-11.6656
Eorpach	-11.6657
▁hiompar	-11.6659
martin	-11.6662
omhlíonfaidh	-11.6664
Caisleán	-11.6666
Police	-11.6667
some	-11.6667
fhógra	-11.6668
phoist	-11.667
íogair	-11.6671
▁daoibh	-11.6674
▁Buí	-11.6678
▁chomhréir	-11.668
coin	-11.6685
stuithe	-11.6688
eolaire	-11.6691
fhearr	-11.6697
▁Rolla	-11.6697
óilín	-11.6698
▁Innealtóireacht	-11.67
olún	-11.6701
▁Seasam	-11.6706
▁marthanacht	-11.6713
tús	-11.6718
▁báid	-11.6719
chónaitheoirí	-11.672
▁Trácht	-11.6734
▁inmharthana	-11.6738
ways	-11.674
▁Brunettes	-11.6745
hionann	-11.6745
▁críochn	-11.6748
▁siamsaíocht	-11.6751
Chi	-11.6754
▁déanach	-11.6758
▁slua	-11.6761
▁thairg	-11.6763
▁Oll	-11.6764
▁Time	-11.6771
0000	-11.6775
treo	-11.6785
▁Daonlatha	-11.6793
▁sinsearach	-11.6797
▁thiocf	-11.6798
▁Comhionannas	-11.6799
▁Strasbourg	-11.6799
▁Vítneam	-11.6799
▁allmhairithe	-11.6799
▁bacainní	-11.6799
▁ghairdín	-11.6799
▁lingerie	-11.6799
▁ngéarchéim	-11.6799
▁theicniúla	-11.6799
▁toilteanach	-11.6799
▁Bóithre	-11.6799
▁Conservative	-11.6799
▁VEID	-11.6799
▁bhfág	-11.6799
▁Iaráinis	-11.6799
▁Palace	-11.6799
▁ilghnéitheach	-11.6799
▁Albain	-11.6799
▁Trádáil	-11.6799
digital	-11.6799
▁Shasana	-11.6799
▁gcaiteachas	-11.6799
▁cosantóir	-11.6799
▁inneachar	-11.6799
phíopa	-11.6799
▁shaothar	-11.6799
▁eitneach	-11.68
▁winter	-11.68
▁aerárthaí	-11.68
▁ardvoltais	-11.68
▁bhfadhb	-11.6801
▁forbraíodh	-11.6801
▁imoibriú	-11.6801
▁hAirí	-11.6801
▁fiosrú	-11.6801
▁oibríochtúil	-11.6801
▁shócmhainní	-11.6802
▁chorpraithe	-11.6802
▁uaithi	-11.6802
▁thuairiscítear	-11.6804
▁Fur	-11.6805
▁1984	-11.6806
▁1938	-11.6806
▁Socraigh	-11.6807
▁bhfás	-11.6808
▁sciar	-11.6809
Patriot	-11.6809
▁sráideanna	-11.6809
▁Lámh	-11.681
ional	-11.681
▁nítrigine	-11.6812
▁crainn	-11.6814
liz	-11.6815
▁Déanaimid	-11.6816
▁zombies	-11.6817
▁thionscnaimh	-11.6817
OK	-11.682
9001	-11.6822
▁2030	-11.6825
look	-11.6827
▁10%	-11.6827
▁clóite	-11.6828
Fox	-11.6829
fhostaí	-11.683
▁dhíoltar	-11.6832
▁Hospital	-11.6834
▁bhóthair	-11.6834
▁hoideachas	-11.6837
dev	-11.6838
health	-11.6842
áirithe	-11.6844
▁Band	-11.6844
iarrachtaí	-11.6848
film	-11.6849
shealbh	-11.685
chuspóir	-11.6851
focal	-11.6852
iarmhéid	-11.6853
íoslódáil	-11.6854
▁snáitheanna	-11.6859
bheartas	-11.6864
MSU	-11.6868
▁tocsaineach	-11.6876
▁bialann	-11.688
▁Gníomhaíochtaí	-11.6883
▁chabhr	-11.6884
MX	-11.6887
ghlactha	-11.6902
▁Ardaithe	-11.6907
you	-11.6908
▁príosún	-11.691
▁tort	-11.6912
▁Bhraithea	-11.6915
▁2015/	-11.6924
▁margaíocht	-11.6939
▁Institiúidí	-11.6939
HP	-11.6948
▁Acmhainn	-11.6959
roy	-11.696
▁thig	-11.6961
elect	-11.6964
sports	-11.6964
▁Eco	-11.6968
▁Radio	-11.697
dict	-11.6973
THR	-11.6974
▁labhair	-11.6976
▁Éifeacht	-11.6977
▁Fada	-11.6978
díolacháin	-11.6978
▁Sli	-11.6978
▁thionscn	-11.6982
▁Entertainment	-11.6984
▁Mionsonraí	-11.6984
▁Sionainne	-11.6984
▁Soilsiú	-11.6984
▁Spriocdháta	-11.6984
▁Stiúrtha	-11.6984
▁Swingers	-11.6984
▁Teaghlach	-11.6984
▁bhfeighil	-11.6984
▁cadhnaíochta	-11.6984
▁chliniciúil	-11.6984
▁daonlathach	-11.6984
▁dinimiciúil	-11.6984
▁eispéireas	-11.6984
▁fhisiciúil	-11.6984
▁ghreamú	-11.6984
▁intuigthe	-11.6984
▁maighdean	-11.6984
▁mairteola	-11.6984
▁puiblí	-11.6984
▁tSeanaid	-11.6984
▁tsoláthair	-11.6984
billboard	-11.6984
▁Moscó	-11.6984
▁Téama	-11.6984
▁baincéireachta	-11.6984
▁forlíontaí	-11.6984
▁pósadh	-11.6984
▁síochána	-11.6984
▁Ildánach	-11.6984
imircigh	-11.6984
▁Mótar	-11.6984
▁fiontar	-11.6984
▁Cuntais	-11.6984
▁uachtaránacht	-11.6984
arachtair	-11.6985
innealtóir	-11.6985
▁Review	-11.6985
▁ballraíocht	-11.6986
▁aerfort	-11.6986
▁mheascadh	-11.6987
▁géarchéime	-11.6987
▁finger	-11.6988
David	-11.6988
▁Store	-11.6988
▁sháraíonn	-11.6988
▁Spás	-11.6989
▁bainistí	-11.6989
▁thairgeann	-11.6989
▁Sraithe	-11.6989
▁1966	-11.699
▁Ardoideachais	-11.699
AX	-11.6991
▁sainordú	-11.6992
▁Airgeadas	-11.6992
▁Gaelach	-11.6992
▁thoghadh	-11.6992
▁Arabach	-11.6994
rúise	-11.6997
▁fágáil	-11.6999
▁leithleach	-11.7001
▁péirí	-11.7001
good	-11.7004
▁Rothar	-11.7004
▁coigeartú	-11.7005
git	-11.7008
Cuir	-11.701
éadach	-11.7015
▁aschuir	-11.7016
▁ocsaigine	-11.7018
Space	-11.7019
▁Museum	-11.702
▁bulaíocht	-11.7024
▁comhchoiteanna	-11.7028
▁fhoras	-11.703
▁Rua	-11.7031
▁cúigiú	-11.7031
▁Comhpháirtíocht	-11.7035
meg	-11.7037
tuarascáil	-11.7041
fheidhmeanna	-11.7041
Bhí	-11.7042
tábla	-11.7043
ailín	-11.7044
chruthach	-11.7045
imscrúdú	-11.7046
▁práinneach	-11.7047
▁Feidhmíocht	-11.7048
▁siúlóid	-11.7049
▁Íocfa	-11.7049
▁Áis	-11.7049
Ion	-11.705
NWS	-11.7056
▁Butt	-11.7059
attle	-11.706
▁húdar	-11.7061
▁Saint	-11.7064
airgeann	-11.7066
Alb	-11.7066
Cnoc	-11.707
▁snáithíní	-11.7072
▁was	-11.7074
▁cruthaitheacht	-11.7082
miss	-11.7084
luck	-11.7085
▁Dark	-11.7088
thóra	-11.7092
▁mbia	-11.7093
▁Cúige	-11.7094
link	-11.7098
2004	-11.7098
íniú	-11.7099
4%	-11.7099
▁Beall	-11.7101
▁gcaithf	-11.7103
▁próiseálaí	-11.7108
▁Fiche	-11.7108
▁ainmneoi	-11.7111
mheasta	-11.7112
scríbhneoireacht	-11.7115
eller	-11.7117
▁gcoinn	-11.7118
íoctar	-11.7128
oop	-11.7129
▁Max	-11.7132
▁sócmhainn	-11.7138
ndust	-11.7139
▁náisiúntacht	-11.7141
▁bhainea	-11.7142
▁IX	-11.7145
▁shealbhóir	-11.7151
AST	-11.7159
Aontas	-11.7166
▁earnála	-11.7171
▁tuarascála	-11.7171
▁ghnólacht	-11.7172
▁Lúthchleas	-11.7173
▁síntiús	-11.7173
▁Athbhreithnithe	-11.7173
▁Bronnadh	-11.7173
▁Chultúir	-11.7173
▁Double	-11.7173
▁Hervé	-11.7173
▁chloisteáil	-11.7173
▁duilleoga	-11.7173
▁déthaobhach	-11.7173
▁exquisite	-11.7173
▁gcomórtas	-11.7173
▁handjob	-11.7173
▁neodrach	-11.7173
▁scagtha	-11.7173
▁sreinge	-11.7173
▁tearmainn	-11.7173
▁tSiria	-11.7173
▁Custom	-11.7173
▁Scrúdú	-11.7173
▁giúmar	-11.7173
▁gCóras	-11.7173
▁amárach	-11.7173
▁bhréag	-11.7173
▁grianchloch	-11.7173
▁sceite	-11.7173
▁Cobhsaíochta	-11.7173
▁lómhara	-11.7173
▁aontachais	-11.7173
▁easbhrúite	-11.7173
▁spioradálta	-11.7173
▁bPáras	-11.7173
▁fáltais	-11.7173
▁Sucking	-11.7174
▁éadaigh	-11.7174
▁Talamh	-11.7174
▁Imleabhar	-11.7174
▁feirmeoireachta	-11.7174
▁ciúin	-11.7176
▁bloic	-11.7176
▁lamháil	-11.7177
▁claonadh	-11.7177
▁fhorordú	-11.7177
▁1941	-11.7178
▁shíl	-11.7179
▁80%	-11.7179
▁Comhairliúcháin	-11.7181
▁snow	-11.7181
cover	-11.7183
▁gaireas	-11.7183
▁luafar	-11.7184
▁neamhniú	-11.7184
▁Feicfi	-11.7185
▁Road	-11.7187
▁chomhfhreagra	-11.7189
▁cainteanna	-11.7189
▁cothú	-11.7189
▁theip	-11.7189
aging	-11.7192
▁Drámaí	-11.7193
icnic	-11.7196
▁Chás	-11.7197
▁earraigh	-11.7197
▁láithreacht	-11.7198
▁Seán	-11.7198
▁mianach	-11.7201
nik	-11.7201
rud	-11.7202
▁kid	-11.7202
XI	-11.7205
park	-11.7206
▁Cricket	-11.721
▁ríocht	-11.7213
▁Well	-11.7216
▁duaiseanna	-11.7216
▁Luas	-11.7218
▁hoifige	-11.7222
olláin	-11.7225
▁FDA	-11.7226
scileanna	-11.7233
chothrom	-11.7236
glas	-11.7238
chabhrach	-11.724
▁ghlacfa	-11.7241
▁gcreat	-11.7242
▁Ligean	-11.7245
▁Main	-11.7246
▁fíorais	-11.7248
usel	-11.7259
mhaoiniú	-11.7267
néise	-11.7268
enz	-11.7271
▁cláraitheoir	-11.7272
▁Tíre	-11.7275
▁masc	-11.7279
tosaíonn	-11.729
méid	-11.7305
fhaibhr	-11.7308
ócmhainneacht	-11.7308
▁straitéise	-11.7311
▁pearsantacht	-11.7318
Bun	-11.7319
▁húdarás	-11.7321
shocraigh	-11.7321
▁SCE	-11.7322
▁infheicthe	-11.7324
Ver	-11.7327
▁moille	-11.7327
▁druga	-11.7329
maité	-11.7332
india	-11.7342
earth	-11.7343
choistí	-11.7344
bay	-11.7345
▁shlánú	-11.7347
▁Chaith	-11.735
▁chomhall	-11.7355
▁Custaim	-11.7356
ochrach	-11.7358
▁mheall	-11.736
▁Nádúr	-11.7361
ghabhálach	-11.7362
▁buíoch	-11.7362
ability	-11.7365
▁Thiobra	-11.7365
Independent	-11.7365
▁Achoimre	-11.7365
▁Corporation	-11.7365
▁Deireanach	-11.7365
▁Dhomhanda	-11.7365
▁ENISA	-11.7365
▁Grianghraf	-11.7365
▁Laitvia	-11.7365
▁Neamhspleách	-11.7365
▁Phearsanta	-11.7365
▁Piguet	-11.7365
▁Shanghai	-11.7365
▁Tattoo	-11.7365
▁bhronntanas	-11.7365
▁chumhdach	-11.7365
▁ciorcal	-11.7365
▁deirfiúr	-11.7365
▁folúntais	-11.7365
▁gCeanada	-11.7365
▁ndiúlt	-11.7365
▁tairisceana	-11.7365
▁thiomána	-11.7365
▁táibléad	-11.7365
▁vacsaín	-11.7365
ealsúnacht	-11.7365
▁Mullaigh	-11.7365
▁bainistithe	-11.7365
▁dúchasach	-11.7365
▁iompórtáil	-11.7365
▁póilíní	-11.7365
▁Clibeanna	-11.7365
▁Street	-11.7365
▁custam	-11.7365
▁Brabhsá	-11.7365
▁charger	-11.7365
▁réamhaisnéis	-11.7365
Forlíonadh	-11.7365
▁ráthaithe	-11.7365
▁Cóireála	-11.7365
▁hairíonna	-11.7365
▁caorach	-11.7365
▁waist	-11.7365
▁fócas	-11.7365
System	-11.7366
▁Reatha	-11.7366
current	-11.7366
▁eatramhach	-11.7367
▁Dobhair	-11.7367
AIN	-11.7367
▁Laser	-11.7367
▁Eachtraíochta	-11.7368
▁Joint	-11.7368
▁gcodanna	-11.7369
▁Muirear	-11.7369
▁gcroílár	-11.7369
▁bhagairt	-11.737
▁dearbhaithe	-11.737
▁Deiridh	-11.737
▁1957	-11.7371
▁1982	-11.7372
▁1962	-11.7372
▁shannta	-11.7372
▁Web	-11.7372
NBA	-11.7373
▁Croí	-11.7373
▁tuile	-11.7373
▁CNCM	-11.7374
▁Lámhach	-11.7375
▁1931	-11.7375
▁shainiú	-11.7376
▁gaolta	-11.7376
▁ardluais	-11.7377
▁bainfidh	-11.7378
▁tiománaithe	-11.7378
▁Coistí	-11.7378
▁Direct	-11.7379
▁saighdiúirí	-11.7379
thosaíocht	-11.738
▁Céimeanna	-11.738
▁polai	-11.7381
▁Roghna	-11.7382
▁gcomhlachtaí	-11.7383
▁theastó	-11.7385
▁tIonad	-11.7388
▁hAon	-11.7389
▁muiníneach	-11.7392
▁fucking	-11.7393
ogen	-11.7395
▁cathair	-11.7395
▁gunnaí	-11.7395
Press	-11.7396
▁Punt	-11.7396
ABC	-11.7398
▁hoibriú	-11.7398
▁mháistir	-11.74
▁meon	-11.7401
▁Leger	-11.7401
▁shlán	-11.7407
▁bhris	-11.7412
▁urraithe	-11.7414
View	-11.7418
▁scriosta	-11.7419
▁Maol	-11.7419
erking	-11.7423
▁áisiúla	-11.7425
▁uirbeacha	-11.7427
Business	-11.7428
fheithicil	-11.7429
European	-11.743
EY	-11.743
▁athchúrsáil	-11.7434
▁Forbraío	-11.7436
Idir	-11.7436
ionstraimí	-11.744
kel	-11.7441
isinéirí	-11.7441
▁Chreat	-11.7443
iompraíocht	-11.7443
ainmhí	-11.7445
▁bréag	-11.745
▁Schools	-11.7451
átrún	-11.7452
▁PU	-11.7463
▁Line	-11.7464
shocruithe	-11.7466
Inside	-11.7467
boot	-11.7468
iah	-11.7471
Bharra	-11.7472
▁Léiriú	-11.7473
mate	-11.7474
▁ceangailteach	-11.7478
▁gciste	-11.7482
▁Sen	-11.7484
▁dhath	-11.7486
Iúil	-11.7486
scoile	-11.7493
cheangail	-11.7498
▁cait	-11.7501
City	-11.7502
haire	-11.7508
lare	-11.7517
▁140	-11.752
▁mheá	-11.7521
tta	-11.7523
éinne	-11.7523
▁Mill	-11.7527
iko	-11.7531
huine	-11.7532
they	-11.7534
▁Elec	-11.7535
▁Fuar	-11.7536
▁hÉ	-11.7537
▁contúirteach	-11.7538
óimid	-11.7539
▁foils	-11.7541
▁leithdháilt	-11.7545
change	-11.7547
shan	-11.7549
▁Iarrta	-11.7553
ÍOCHT	-11.7555
▁Todhchaí	-11.7561
▁Shábháil	-11.7561
Philadelphia	-11.7561
▁VITIM	-11.7561
Variety	-11.7561
fhoillsiú	-11.7561
iompórtála	-11.7561
▁Dramhaíola	-11.7561
▁Iarnróid	-11.7561
▁Miontuairiscí	-11.7561
▁Reifrinn	-11.7561
▁Tiffany	-11.7561
▁chodladh	-11.7561
▁diamonds	-11.7561
▁hÚcráine	-11.7561
▁súgradh	-11.7561
▁caidéal	-11.7561
▁gnímh	-11.7561
▁uathoibrithe	-11.7561
▁Buatais	-11.7561
▁sásúil	-11.7561
▁Rugadh	-11.7561
▁mheánmhéide	-11.7561
▁míchuí	-11.7561
▁véarsa	-11.7561
business	-11.7561
▁Téip	-11.7561
▁coimirc	-11.7561
Guardian	-11.7561
▁Payment	-11.7561
Stanford	-11.7561
▁plúr	-11.7561
▁roghnói	-11.7561
▁gradam	-11.7562
▁Pláta	-11.7562
▁rubar	-11.7562
▁Ceoil	-11.7562
▁chionroinnt	-11.7562
▁Staff	-11.7562
▁Iarraidh	-11.7562
▁coláiste	-11.7562
▁Prótacal	-11.7562
▁míshásta	-11.7562
▁dhíchur	-11.7563
▁torainn	-11.7563
▁toirmiscthe	-11.7563
▁héifeachtúil	-11.7564
▁tuillte	-11.7564
EV	-11.7564
glactar	-11.7564
fred	-11.7565
▁stiallacha	-11.7566
▁Déanfaimid	-11.7566
white	-11.7567
▁héilimh	-11.7567
▁1965	-11.757
▁hionaid	-11.757
▁coimeádáin	-11.757
▁forex	-11.7571
▁Santa	-11.7571
▁sainiúil	-11.7571
▁shaincheist	-11.7572
▁stóras	-11.7574
▁cumainn	-11.7575
idirghabhálaí	-11.7577
ruthúnas	-11.758
▁gléasadh	-11.7582
heil	-11.7582
usta	-11.7586
▁cumaisc	-11.7588
▁sásraí	-11.7588
▁lagú	-11.7588
▁Slot	-11.7591
▁struchtúracha	-11.7591
▁Teens	-11.7595
▁ngrúpaí	-11.7596
chompordach	-11.7597
▁Mheitheamh	-11.7601
▁sainithe	-11.7605
Scott	-11.7607
chríochnaithe	-11.7607
▁thuar	-11.7607
Ros	-11.761
▁Táillí	-11.7623
EW	-11.7624
tomhas	-11.7628
mhuirear	-11.7629
láithreach	-11.763
France	-11.763
▁2006/	-11.7632
▁Fiontraíochta	-11.7634
arlaíonn	-11.7635
▁fre	-11.7643
▁Cuideachtan	-11.7646
▁zip	-11.7653
innealtóireachta	-11.7654
inniúlachtaí	-11.7658
cúinsí	-11.7669
▁geo	-11.767
150	-11.7672
truc	-11.768
údarú	-11.7682
▁nuálaíoch	-11.7686
ircea	-11.769
▁práinn	-11.7694
soft	-11.7703
ÁN	-11.7717
jam	-11.7718
Org	-11.7728
▁guí	-11.7736
▁chreidmheasa	-11.7739
▁Iomp	-11.7741
▁€8	-11.7742
Point	-11.7742
▁saoráid	-11.7743
▁fál	-11.7748
▁comharsana	-11.7749
▁séarach	-11.775
▁Lán	-11.7753
▁smaoin	-11.7756
▁Ghairm	-11.776
Environment	-11.7761
UNESCO	-11.7761
▁Alternative	-11.7761
▁Cúltaca	-11.7761
▁Fórsaí	-11.7761
▁Iniúchóirí	-11.7761
▁Scrúduithe	-11.7761
▁craicinn	-11.7761
▁craoladh	-11.7761
▁cumhdaithe	-11.7761
▁dochreidte	-11.7761
▁dteaghlaigh	-11.7761
▁fíricí	-11.7761
▁gréasán	-11.7761
▁toghthóir	-11.7761
▁tíolacadh	-11.7761
▁Comhshó	-11.7761
▁Tháirg	-11.7761
▁chomhaontaithe	-11.7761
▁inmheánaigh	-11.7761
▁lamhálta	-11.7761
▁brataithe	-11.7761
▁gamers	-11.7761
▁hiarmhairtí	-11.7761
▁toghadh	-11.7761
▁chainníocht	-11.7761
▁Pósta	-11.7761
▁Mhíchumas	-11.7761
éagumas	-11.7761
▁Siria	-11.7761
▁chomhdháil	-11.7761
▁dhíothú	-11.7762
▁Lovers	-11.7762
▁shaoire	-11.7762
▁amhábhar	-11.7762
▁conraitheoir	-11.7763
▁tuigfear	-11.7763
▁míthreorach	-11.7763
▁year	-11.7763
▁tuilte	-11.7763
▁leabharlainne	-11.7764
▁tablet	-11.7764
▁marcáilte	-11.7764
▁fearainn	-11.7764
▁Berk	-11.7765
▁OTI	-11.7766
▁rónta	-11.7767
▁Men	-11.7767
▁údaruithe	-11.7767
ÍOCHTA	-11.7767
▁Foirmeacha	-11.7768
▁Ceapadh	-11.7769
▁teagmhálacha	-11.7771
▁Aude	-11.7776
▁lúide	-11.7777
Info	-11.7777
vey	-11.7777
▁LEE	-11.7778
▁báistí	-11.7778
▁mbaintea	-11.7778
blue	-11.7779
▁countertops	-11.778
frank	-11.778
▁mhonaróirí	-11.778
▁Samhail	-11.7784
▁ragha	-11.7786
iarrfa	-11.7789
▁chinnfear	-11.7792
▁1919	-11.7803
▁fhadú	-11.7806
▁cinnteoireachta	-11.7812
▁Cúirteanna	-11.7812
Euro	-11.7822
chomhairliúcháin	-11.7826
▁bileoga	-11.7828
▁sainiúla	-11.783
▁bolt	-11.7831
Christian	-11.7833
deacair	-11.7833
leictreach	-11.7834
laistigh	-11.7835
rimary	-11.7835
immer	-11.7835
edge	-11.7837
▁pacáistí	-11.7837
sound	-11.7839
ountain	-11.7841
market	-11.7846
unding	-11.7846
árachóir	-11.7848
▁Shocha	-11.7852
▁bhainistí	-11.7856
lake	-11.7857
▁mhonara	-11.7859
asha	-11.7867
merc	-11.7871
hine	-11.7874
uilt	-11.7876
▁mhéadar	-11.7901
▁Tithíocht	-11.7917
éilíonn	-11.7918
▁Chorparáid	-11.7918
▁comhchoiteann	-11.7919
RAM	-11.7919
eyed	-11.7928
ouncil	-11.7932
iontrálacha	-11.7933
▁bhonneaga	-11.7933
▁inacmhainne	-11.7947
wear	-11.7949
mura	-11.7952
▁ndeimhn	-11.7956
human	-11.7957
Institut	-11.7965
▁thíola	-11.7965
aibidle	-11.7965
weather	-11.7965
▁Ioslam	-11.7965
▁Manchester	-11.7965
▁Mheánmhéide	-11.7965
▁Programme	-11.7965
▁Singeapór	-11.7965
▁Veisteanna	-11.7965
▁athshlánú	-11.7965
▁bhronntanais	-11.7965
▁cheimiceach	-11.7965
▁craoltóir	-11.7965
▁dtabhairt	-11.7965
▁fhairsing	-11.7965
▁ghualainn	-11.7965
▁language	-11.7965
▁mBallstáit	-11.7965
▁réadmhaoin	-11.7965
▁seandálaíochta	-11.7965
▁Fhostaíocht	-11.7965
▁Mhantáin	-11.7965
▁Rochtana	-11.7965
▁Smaoinigh	-11.7965
▁Spórt	-11.7965
▁dóchúlacht	-11.7965
▁gCumann	-11.7965
▁gaineamh	-11.7965
▁Bainistiú	-11.7965
▁Commons	-11.7965
▁bhlianta	-11.7965
▁Chronograph	-11.7965
▁ngearán	-11.7965
▁topaic	-11.7965
▁ndéileál	-11.7965
▁Gairdín	-11.7965
▁dhéileál	-11.7965
▁earcaíochta	-11.7965
LAS	-11.7966
▁Scrúda	-11.7966
athbhreithn	-11.7966
craft	-11.7967
Anderson	-11.7967
▁fíocháin	-11.7968
▁pháirtnéir	-11.7968
▁chaipiteal	-11.7968
óimhéid	-11.7969
report	-11.7969
daily	-11.7969
▁chaillfidh	-11.797
▁léarscáileanna	-11.7971
Discover	-11.7972
ánfhásta	-11.7972
Invest	-11.7974
uestions	-11.7974
smith	-11.7975
▁Tógáil	-11.7976
▁Teilifíse	-11.7976
▁Atlantaigh	-11.7976
▁Turas	-11.7976
▁scéil	-11.7978
▁Púdar	-11.7978
▁Nude	-11.7978
▁shínigh	-11.7979
dhearcadh	-11.7983
▁Thóg	-11.7983
▁ortha	-11.7984
▁lipéadú	-11.7989
▁measta	-11.799
▁Apple	-11.7991
▁1922	-11.7993
▁Stoc	-11.7994
▁iarradh	-11.7995
ization	-11.7998
▁scoilbhlia	-11.7999
▁campa	-11.7999
▁Pure	-11.8001
▁dhámhachtain	-11.8002
▁libh	-11.8003
▁gháis	-11.8004
▁diúscartha	-11.801
▁Bainistí	-11.8017
▁gile	-11.8017
▁contúirteacha	-11.8017
▁Nótaí	-11.8017
green	-11.802
▁Muirí	-11.8023
▁Lion	-11.8029
athruithe	-11.8032
▁fite	-11.8039
Daoine	-11.8042
Ealaíontóirí	-11.8043
▁dídean	-11.8044
▁Cíosa	-11.805
▁Cóip	-11.8054
úsáidfear	-11.8065
heath	-11.8072
chaite	-11.8076
ullmhúchán	-11.8077
240	-11.8078
▁nEalaíon	-11.8079
▁Fuaime	-11.808
bhunscoil	-11.8085
Miss	-11.8086
▁eisceacht	-11.809
horn	-11.8091
chro	-11.8092
obar	-11.8101
▁sócmhainne	-11.8101
▁Chustaim	-11.8104
Leigh	-11.8109
▁neamhghníomh	-11.8113
zzle	-11.8117
UE	-11.8125
▁Talmhaíocht	-11.8125
▁tithíocht	-11.8125
▁ceangail	-11.8129
▁sulf	-11.8137
▁ndearbh	-11.814
▁contúirt	-11.8145
Aireachta	-11.8148
▁gcustaiméir	-11.8149
▁365	-11.8149
▁fhrith	-11.8159
Chang	-11.8159
▁Pléi	-11.8165
amharc	-11.8166
kha	-11.8166
style	-11.817
▁comhordaithe	-11.8173
Foirgnimh	-11.8173
LEASÚ	-11.8173
▁Banphrionsa	-11.8173
▁Bhrasaíl	-11.8173
▁Cheanada	-11.8173
▁Rannpháirtíocht	-11.8173
▁Thionscail	-11.8173
▁bpacáiste	-11.8173
▁dtarlódh	-11.8173
▁neamhúdaraithe	-11.8173
▁nuachtlitir	-11.8173
▁prostitutes	-11.8173
▁shrianadh	-11.8173
▁spriocdhírithe	-11.8173
▁streachailt	-11.8173
▁suaimhneas	-11.8173
▁súgartha	-11.8173
▁tírdhreach	-11.8173
▁Diailigh	-11.8173
▁iondúil	-11.8173
▁Brathadóir	-11.8173
▁ísliú	-11.8173
▁chistin	-11.8173
▁bungee	-11.8174
service	-11.8174
▁shíor	-11.8174
▁Linbh	-11.8174
Phinsean	-11.8174
▁anuraidh	-11.8174
Medical	-11.8174
ítimí	-11.8174
▁nGaeltacht	-11.8174
zhou	-11.8174
▁Licking	-11.8174
▁mhúchadh	-11.8175
▁deonadh	-11.8175
▁Cheathrú	-11.8175
▁ciallmhar	-11.8175
▁Cúramóra	-11.8175
▁urscaoilte	-11.8175
▁Leigheas	-11.8175
ANN	-11.8176
▁saibhreas	-11.8176
▁Teocht	-11.8177
▁bhainistíochta	-11.8178
▁Garman	-11.8178
▁gCód	-11.8178
▁haicmí	-11.8178
▁cholún	-11.8179
▁Sonraíochtaí	-11.818
izing	-11.818
Art	-11.8181
▁comhoibrithe	-11.8182
▁gcomhlíonfaidh	-11.8182
▁Luath	-11.8183
▁chomhdhéanamh	-11.8183
▁Aifreann	-11.8184
▁Bhille	-11.8184
▁cosán	-11.8186
bird	-11.8186
▁1908	-11.8188
▁theipeann	-11.8189
▁cúnta	-11.8189
▁Aonaid	-11.8189
▁Cineálacha	-11.8191
▁gcéin	-11.8192
▁this	-11.8194
▁Cosnaíonn	-11.8199
iseán	-11.8203
▁ndán	-11.8204
▁neamhghnácha	-11.8204
▁rabh	-11.8206
dhílse	-11.8207
▁pants	-11.8213
▁Dearbh	-11.8214
Ru	-11.8214
▁coibhéiseach	-11.8217
▁socraíochta	-11.8217
▁scil	-11.8219
▁thuarasta	-11.8224
Údarás	-11.8234
▁Up	-11.8234
▁fabraicí	-11.8239
▁trádálaithe	-11.824
▁Chláraithe	-11.8241
▁Tae	-11.8243
oidhreacht	-11.8245
páipéar	-11.8254
chultúr	-11.8255
Report	-11.8257
áireofar	-11.8259
▁dhin	-11.8266
Joe	-11.8278
▁marcaíocht	-11.829
hoireann	-11.8291
▁ngníomhaíocht	-11.8296
thrach	-11.8298
2013	-11.8301
ídeanaithe	-11.8304
▁tréith	-11.831
▁feirmeoir	-11.832
nasctha	-11.834
▁rib	-11.8342
▁Hard	-11.8348
▁Som	-11.8349
▁dhéanaí	-11.835
teocht	-11.8352
▁mbunacha	-11.8357
▁Ealaín	-11.836
Game	-11.836
▁Uirlis	-11.8361
▁finné	-11.8381
▁tionól	-11.8381
upport	-11.8384
iméadrach	-11.8385
▁Sleamhná	-11.8386
▁Special	-11.8386
▁Teimpléad	-11.8386
▁Tionscnaimh	-11.8386
▁athbhunú	-11.8386
▁besplatno	-11.8386
▁calafoirt	-11.8386
▁ceathrar	-11.8386
▁comhfhiosach	-11.8386
▁dtoghchán	-11.8386
▁forfheidhmithe	-11.8386
▁iomadúla	-11.8386
▁makeup	-11.8386
▁nuashonraithe	-11.8386
▁reáchtála	-11.8386
▁toitíní	-11.8386
▁Horny	-11.8386
▁Pussy	-11.8386
▁bailchríoch	-11.8386
▁ciliméadar	-11.8386
▁iontaoibh	-11.8386
▁phaisinéirí	-11.8386
▁Bronnta	-11.8386
▁búcla	-11.8386
▁phacáil	-11.8386
▁víris	-11.8386
▁loighic	-11.8386
▁meánmhéide	-11.8386
▁fhionnadh	-11.8386
▁laighead	-11.8386
▁Cúlra	-11.8386
▁tairní	-11.8386
▁tíleanna	-11.8386
UEFA	-11.8386
▁chomhlachais	-11.8386
▁árachaithe	-11.8387
▁Gréine	-11.8387
▁fhorordófar	-11.8387
▁reoite	-11.8387
▁Dinar	-11.8387
▁chaitear	-11.8387
▁chomhtháite	-11.8388
▁dealbh	-11.8388
▁Tríocha	-11.8388
▁filíocht	-11.8388
▁about	-11.8389
▁Cheoil	-11.8389
▁Déantóir	-11.8391
▁Breitheamh	-11.8391
▁Amplifier	-11.8391
▁gcreideann	-11.8391
▁príosúnaigh	-11.8391
▁caingean	-11.8391
▁comhpháirtí	-11.8392
▁bhronnadh	-11.8393
▁1954	-11.8394
mhínítear	-11.8394
▁téimh	-11.8394
Gaming	-11.8394
▁GMT	-11.8394
▁gceapadh	-11.8395
▁ithir	-11.8395
▁seastá	-11.8396
▁Dhigiteach	-11.8397
inside	-11.8398
▁gairmeacha	-11.84
▁híocadh	-11.8403
aught	-11.8404
▁saolré	-11.8406
▁buaiteoirí	-11.8406
▁cistine	-11.8407
▁dtuairisc	-11.8408
Australian	-11.8408
▁meath	-11.8409
▁leataobh	-11.8411
▁360	-11.8413
irteagail	-11.8413
gene	-11.8414
teannas	-11.8421
▁misin	-11.8421
oast	-11.8428
▁cairdeas	-11.843
chen	-11.8432
▁léann	-11.8434
▁chomhdú	-11.8436
hem	-11.8437
▁bhfui	-11.8452
ogue	-11.8455
▁Measúnachta	-11.8457
ija	-11.8459
▁meaisínithe	-11.8462
eoimid	-11.8464
▁labhr	-11.8464
rival	-11.847
barr	-11.8474
uardaitheora	-11.8475
éifeachtaí	-11.8477
chríoch	-11.8478
▁1.5	-11.848
▁Gníomhach	-11.8482
inder	-11.8486
▁bocht	-11.8489
ionaid	-11.849
▁Láir	-11.8493
éist	-11.8496
ealaithe	-11.8499
▁Clúda	-11.85
▁sheach	-11.8518
▁Cló	-11.8519
▁Kit	-11.8523
▁chinntí	-11.8523
hilleadh	-11.8532
NASA	-11.8538
▁chumarsáide	-11.8539
▁gcúl	-11.8541
smaointeoireacht	-11.8551
uimsítear	-11.8552
▁deasc	-11.8552
▁ranníocóir	-11.8553
▁Riar	-11.8555
▁bhrabús	-11.8561
▁bpróis	-11.8561
naisc	-11.8563
iúscartha	-11.8565
ghluaiseacht	-11.857
▁Photo	-11.8575
▁cothrománach	-11.8578
▁sholáthair	-11.8579
▁chustaiméir	-11.8579
abhartha	-11.858
ruailliú	-11.8581
▁ndea	-11.8585
▁bagairt	-11.859
▁Foils	-11.8593
inbhuanaitheacht	-11.86
▁deartháir	-11.8602
easpórtála	-11.8604
iarnród	-11.8604
rdheisceart	-11.8604
▁Analytics	-11.8604
▁Bhulgáir	-11.8604
▁Buntáistí	-11.8604
▁Luimneach	-11.8604
▁Roghnú	-11.8604
▁baictéir	-11.8604
▁ceasaíneo	-11.8604
▁comhshaol	-11.8604
▁dhúchais	-11.8604
▁gceadaítear	-11.8604
▁gheilleagair	-11.8604
▁morgáistí	-11.8604
▁sofaisticiúla	-11.8604
▁teanntachta	-11.8604
▁thionscal	-11.8604
▁tseomra	-11.8604
▁tslándáil	-11.8604
▁Staitisticí	-11.8604
▁bpríosún	-11.8604
▁phósadh	-11.8604
▁stéaróid	-11.8604
▁Ioncam	-11.8604
▁tobhaigh	-11.8604
▁hachtacháin	-11.8604
allmhaireoir	-11.8604
▁thaispeánann	-11.8604
▁Conarthach	-11.8604
▁Chóras	-11.8604
Jimmy	-11.8604
Telegraph	-11.8604
▁bonneagair	-11.8604
▁mhaoirseachta	-11.8604
▁incháinithe	-11.8604
▁dílseacháin	-11.8604
▁Mheitheal	-11.8605
▁hollscoile	-11.8605
▁úrnua	-11.8605
▁dineadh	-11.8605
▁Thionó	-11.8605
▁fabhrach	-11.8605
ified	-11.8605
Tíreolaíocht	-11.8605
▁chliceáil	-11.8605
▁bhfeice	-11.8606
▁Cross	-11.8607
▁chaingean	-11.8607
▁fóillíochta	-11.8608
[1]	-11.8608
▁monarú	-11.8608
▁churaclam	-11.8608
▁lamhálfa	-11.8608
▁háitiúil	-11.861
▁comhlánaithe	-11.8611
▁sleachta	-11.8611
▁ardleibhéal	-11.8613
▁faireachais	-11.8615
▁uasal	-11.8615
▁fhaillí	-11.8616
Italia	-11.8616
▁gCúirteanna	-11.8616
eachtanna	-11.8617
fhóin	-11.8618
▁ABS	-11.8623
▁píolótach	-11.8626
▁dtaighde	-11.8628
▁hairgead	-11.8634
▁achmair	-11.8635
Comhpháirtíochta	-11.8637
lore	-11.865
déan	-11.8651
Shéalainne	-11.8652
▁Luachála	-11.866
▁Áiritheoi	-11.866
▁thuill	-11.866
▁Hill	-11.8662
review	-11.8662
▁litearthacht	-11.8668
▁dtógáil	-11.8671
Uasal	-11.8671
ghné	-11.8674
astaíochtaí	-11.868
cheisteanna	-11.8682
sms	-11.8683
▁Cumhachtaí	-11.8687
teorann	-11.8692
leagan	-11.8694
Luc	-11.8694
sócmhainn	-11.8695
eanglais	-11.8699
▁Fast	-11.8699
▁big	-11.8702
▁toirmisc	-11.8706
▁Soghluaiste	-11.8707
liúntais	-11.8707
(6)	-11.871
CBL	-11.8713
▁formheas	-11.8714
Clár	-11.8715
Atógáil	-11.8719
This	-11.8719
angel	-11.8728
orbraíochta	-11.8728
Foireann	-11.8728
max	-11.8729
▁Guy	-11.8735
▁Ranníocaíocht	-11.8739
Love	-11.8754
▁múin	-11.876
▁féar	-11.8761
▁Uair	-11.8762
month	-11.8764
etpolice	-11.8773
▁Stra	-11.8776
iontú	-11.8776
▁iolra	-11.8785
▁armchúirt	-11.8786
▁Forléir	-11.8788
▁baránta	-11.8788
Oibrithe	-11.8788
Girl	-11.8798
1000	-11.88
▁Tax	-11.8802
Net	-11.8803
hleachta	-11.8809
reidmheasanna	-11.881
with	-11.8813
▁Aitheanta	-11.8817
▁Oscail	-11.8822
iorra	-11.8823
▁5000	-11.8824
▁ceant	-11.8824
úsaeim	-11.8825
Birmingham	-11.8826
Chronicle	-11.8826
eispéiris	-11.8826
project	-11.8826
▁Administrat	-11.8826
▁Asarbaiseáin	-11.8826
▁Búcairist	-11.8826
▁Comhtháite	-11.8826
▁Doiciméad	-11.8826
▁Fhilipíneacha	-11.8826
▁Láithreáin	-11.8826
▁McHugh	-11.8826
▁Miotail	-11.8826
▁Máistreás	-11.8826
▁NetEnt	-11.8826
▁Ordanáis	-11.8826
▁Samsung	-11.8826
▁abhcóide	-11.8826
▁bPinsean	-11.8826
▁cónascaire	-11.8826
▁dtionscadal	-11.8826
▁fionnuar	-11.8826
▁gCorcaigh	-11.8826
▁geilleagrach	-11.8826
▁insteallta	-11.8826
▁samhraidh	-11.8826
▁shaoirse	-11.8826
▁shlándáil	-11.8826
▁teicstíle	-11.8826
▁teidlíocht	-11.8826
▁tomhaltóra	-11.8826
Conference	-11.8826
tuaisceart	-11.8826
▁Ceanainn	-11.8826
▁Sceidil	-11.8826
▁botúin	-11.8826
▁dtorthaí	-11.8826
▁Latex	-11.8826
▁triomaithe	-11.8826
▁Cartier	-11.8826
▁Sexy	-11.8826
▁Bhuaigh	-11.8826
▁Háise	-11.8826
▁capall	-11.8826
▁Fheidhmeannacht	-11.8826
▁pháipéir	-11.8826
▁Sealbhói	-11.8826
▁uachtair	-11.8826
▁Troid	-11.8826
▁Wood	-11.8826
▁meabhrach	-11.8826
Voice	-11.8827
▁eisceachtúil	-11.8827
mhiotal	-11.8828
▁scaipthe	-11.8828
▁ceimiceáin	-11.8829
▁chumhdaítear	-11.8829
▁Chóiré	-11.8829
▁gcumann	-11.883
▁foghlaimeoirí	-11.883
▁ODM	-11.8831
▁fóntais	-11.8831
▁deannaigh	-11.8835
▁gaile	-11.8835
raein	-11.8836
▁sonraíocht	-11.8836
▁1985	-11.8837
▁comhairleoirí	-11.8837
athnaíonn	-11.8837
▁liath	-11.8838
▁1929	-11.8838
▁tuirseach	-11.8838
▁héisteacht	-11.8839
%)	-11.884
Alt	-11.8841
▁lóin	-11.8841
▁bhainne	-11.8844
▁síceolaíoch	-11.8844
chóirithe	-11.8845
▁créachta	-11.8846
▁thograí	-11.8846
▁deimhniúcháin	-11.885
▁bagairtí	-11.8851
▁hiad	-11.8852
▁príobháideachta	-11.8852
▁gléasta	-11.8852
▁chistí	-11.8856
▁1918	-11.886
lug	-11.8862
Tiomna	-11.8865
▁hathrú	-11.8873
EIT	-11.8873
▁Head	-11.8876
tweetáil	-11.8881
olo	-11.8882
gging	-11.8884
aithne	-11.8889
ionstraim	-11.8896
▁Uath	-11.8896
ffer	-11.8907
▁Rachai	-11.8908
▁Cluas	-11.8908
▁Rad	-11.891
▁PY	-11.891
etty	-11.8917
dheontas	-11.8917
ghiniúint	-11.892
▁USD	-11.892
▁gream	-11.8922
opt	-11.8929
ullmha	-11.8929
orduithe	-11.8931
▁fála	-11.8933
chumhacht	-11.8933
léiriú	-11.8943
fhoghlaimeoirí	-11.8947
CAR	-11.8964
▁Phlé	-11.8965
NF	-11.8966
trip	-11.8968
thaispeán	-11.897
▁Measc	-11.8979
▁glio	-11.8984
pod	-11.8987
▁€500	-11.8988
ónasctha	-11.899
▁mhéar	-11.8991
mind	-11.9009
plan	-11.9009
Steve	-11.9011
iseal	-11.902
abhrach	-11.9025
▁chailín	-11.9035
juli	-11.9042
▁fógraíocht	-11.9044
▁Breithiúna	-11.9045
omhlíonann	-11.9048
dhleathach	-11.9049
Revolution	-11.9053
Yankees	-11.9053
▁Caillteanas	-11.9053
▁Townland	-11.9053
▁bioráin	-11.9053
▁bpobail	-11.9053
▁chaipitil	-11.9053
▁comhaontaíodh	-11.9053
▁eachtrannaigh	-11.9053
▁easnaimh	-11.9053
▁geallsealbhóirí	-11.9053
▁hardcore	-11.9053
▁hindíreach	-11.9053
▁mistéireach	-11.9053
▁opponents	-11.9053
▁seacláide	-11.9053
▁suíochán	-11.9053
Progressive	-11.9053
▁Eastóin	-11.9053
▁díotáil	-11.9053
▁fhadtéarmach	-11.9053
▁phictiúr	-11.9053
▁teaglaim	-11.9053
▁thaisteal	-11.9053
Cruinnithe	-11.9053
▁bochtaineacht	-11.9053
▁sÚil	-11.9053
▁Adobe	-11.9053
▁Cheantar	-11.9053
▁bhileog	-11.9053
▁lipéid	-11.9053
fhuinnimh	-11.9053
▁práis	-11.9053
▁claochladáin	-11.9053
▁albam	-11.9053
Family	-11.9053
▁urraim	-11.9053
▁idirmheánach	-11.9053
▁snáth	-11.9053
▁innealtóirí	-11.9053
▁bhanc	-11.9053
▁feabhsuithe	-11.9054
▁óstáin	-11.9054
▁Provision	-11.9054
▁dhílis	-11.9055
▁Eochair	-11.9056
Movie	-11.9057
phearsanra	-11.9057
▁cósta	-11.9058
▁COMH	-11.9058
▁gcláir	-11.9058
▁fhéile	-11.9058
▁(13)	-11.9059
▁breithiúnais	-11.9059
▁70%	-11.906
▁gcórais	-11.906
▁Relate	-11.906
▁múinteoireachta	-11.906
▁formheasta	-11.9061
▁Bride	-11.9061
▁Party	-11.9061
▁onnmhairithe	-11.9061
▁Aitheantais	-11.9062
▁Comhlachtaí	-11.9062
▁clubanna	-11.9062
▁OCP	-11.9063
▁PET	-11.9063
peitriliam	-11.9064
▁cadáis	-11.9064
▁stáitse	-11.9067
▁nuachtáin	-11.9068
▁beimid	-11.9069
▁clamp	-11.9069
▁hintinn	-11.907
▁Clárúcháin	-11.907
▁Airgeadra	-11.9073
▁creidmheasanna	-11.9074
00%	-11.9074
▁léiriúcháin	-11.9075
rachel	-11.9076
▁cool	-11.9081
aláram	-11.9083
▁speisialtóirí	-11.9085
▁soithí	-11.9086
▁blasta	-11.9087
▁Anailíseoir	-11.9088
▁372	-11.9088
▁taisceadh	-11.9089
▁chumhachtaí	-11.9089
▁ritheadh	-11.9096
▁úd	-11.9096
Sun	-11.9099
▁aimsío	-11.9102
iarracht	-11.9103
▁mheabhair	-11.9104
rchuirtear	-11.9128
eagán	-11.9129
▁rothaíocht	-11.9133
THE	-11.9136
leibhéil	-11.915
▁vótaíocht	-11.9151
Údaráis	-11.9154
Chomhairle	-11.9154
earnáil	-11.9154
Watch	-11.9155
▁Scoláir	-11.9158
aireachas	-11.9163
▁gclúda	-11.9165
▁paitinne	-11.9168
▁phar	-11.9174
unny	-11.9183
▁Fran	-11.9194
Club	-11.9197
fainn	-11.9198
▁sheacht	-11.9201
Play	-11.9206
▁Gaeltacht	-11.9212
NYC	-11.9218
ceanglófar	-11.9229
▁bróg	-11.9229
haill	-11.9234
Phil	-11.9259
ALL	-11.9265
kV	-11.9265
/2008	-11.9265
irleacan	-11.9265
kara	-11.9269
▁Rialaitheoir	-11.9269
▁sínío	-11.9271
omhlíonadh	-11.9274
Fheidhm	-11.9274
▁scaip	-11.9277
lash	-11.928
iotáille	-11.9281
blog	-11.9283
▁Print	-11.9284
library	-11.9286
taidhleoireachta	-11.9286
▁Caipitil	-11.9286
▁FBManna	-11.9286
▁Máithreachais	-11.9286
▁Ngéibheann	-11.9286
▁Oilimpeacha	-11.9286
▁Riachtanas	-11.9286
▁Stádas	-11.9286
▁Sórtáil	-11.9286
▁fhisiceach	-11.9286
▁hEaglaise	-11.9286
▁machnaimh	-11.9286
▁stráice	-11.9286
chomhairliúchán	-11.9286
▁dhlúth	-11.9286
▁sciúradh	-11.9286
▁surely	-11.9286
▁Chailíní	-11.9286
▁Teastaíonn	-11.9286
▁réamhráite	-11.9286
▁Forlíontach	-11.9286
▁Sheachtain	-11.9286
▁forbróirí	-11.9286
▁steroid	-11.9286
oblagáid	-11.9286
▁feachtais	-11.9286
▁naipcín	-11.9286
▁scanadh	-11.9286
▁haitheantas	-11.9286
▁Cúpó	-11.9286
▁tsíocháin	-11.9286
/2006	-11.9286
▁maireann	-11.9286
fhorbartha	-11.9286
▁Lords	-11.9286
▁Multi	-11.9286
▁hEolaíochta	-11.9286
Aigéan	-11.9286
Little	-11.9286
▁bhfeithicil	-11.9286
▁dhílsiú	-11.9286
▁anaithnid	-11.9286
▁Dhéanamh	-11.9287
culture	-11.9287
▁stampáil	-11.9287
▁cóipcheart	-11.9287
▁Pháras	-11.9287
▁Liobáin	-11.9287
▁Chomhshaoil	-11.9288
johnson	-11.9288
▁Ainmnithe	-11.9288
▁Chomhchoiste	-11.9288
▁Míchumais	-11.9288
▁Intreo	-11.9288
▁bhreitheamh	-11.9289
Connect	-11.9289
▁faireacháin	-11.9289
▁díleá	-11.929
▁suífear	-11.9292
▁seasca	-11.9292
Eagarthóir	-11.9292
▁1969	-11.9292
▁mhótar	-11.9293
MEX	-11.9294
▁pant	-11.93
▁soitheach	-11.93
▁Comhaid	-11.9301
▁Rialtóirí	-11.9303
▁gairmithe	-11.9304
▁Tógadh	-11.9305
▁dhiúltaigh	-11.9305
▁Srianta	-11.9305
▁Vest	-11.9307
▁Drive	-11.9307
▁garda	-11.9309
shocraíochtaí	-11.9314
▁forál	-11.9314
chainteoirí	-11.9314
▁fhorais	-11.9316
,000,000	-11.9318
▁ghéar	-11.9319
▁shealbhóirí	-11.932
▁sineirgí	-11.9326
▁carb	-11.9327
▁díospóidí	-11.9327
PRO	-11.9327
▁háireamh	-11.9328
▁Grád	-11.9332
▁úll	-11.9334
loic	-11.9336
Arab	-11.9342
▁léasaí	-11.9343
▁mbaint	-11.9348
▁téamh	-11.9349
She	-11.936
west	-11.936
urance	-11.9364
/2009	-11.937
Stiúrthóir	-11.9379
▁gcód	-11.9384
Network	-11.9392
Casino	-11.9392
Úsáid	-11.9392
dlúth	-11.9393
fhorchur	-11.9395
uji	-11.9399
hóilíneach	-11.94
2009	-11.9404
Agus	-11.9408
hood	-11.9413
▁díolta	-11.9415
▁meánscoile	-11.9425
step	-11.9427
uro	-11.943
1999	-11.9431
eagair	-11.9441
ELL	-11.9455
logtha	-11.9456
bhailte	-11.9458
tress	-11.9463
uachtar	-11.9468
teastaíonn	-11.948
Mich	-11.9484
▁Teen	-11.9508
▁ndéanf	-11.952
▁Liam	-11.9521
▁creidim	-11.9521
▁Chónaidhm	-11.9524
▁suibscríobh	-11.9524
Cambridge	-11.9524
Nuashonraithe	-11.9524
▁Adamhach	-11.9524
▁Alúmanam	-11.9524
▁Chumarsáid	-11.9524
▁Dromchla	-11.9524
▁Déantúsaíochta	-11.9524
▁Tréimhse	-11.9524
▁bruscar	-11.9524
▁ceannródaíoch	-11.9524
▁chartúin	-11.9524
▁choinníll	-11.9524
▁chraoladh	-11.9524
▁cnaipí	-11.9524
▁cosmaidí	-11.9524
▁cuimhnigh	-11.9524
▁dámhachtana	-11.9524
▁feisirí	-11.9524
▁leictreoid	-11.9524
▁pléascadh	-11.9524
▁puzzles	-11.9524
▁teileafón	-11.9524
▁Éigipt	-11.9524
▁Bronntanais	-11.9524
▁Indinéis	-11.9524
▁Minicíocht	-11.9524
▁clibeanna	-11.9524
▁2014-2020	-11.9524
▁Choiriúil	-11.9524
▁anabalacha	-11.9524
▁boilg	-11.9524
▁tiomnaithe	-11.9524
eannteidil	-11.9524
▁Láthair	-11.9524
▁chothabhála	-11.9524
▁dhlínse	-11.9524
▁saoirsí	-11.9524
▁sucks	-11.9524
▁dhroch	-11.9524
▁bhfostaithe	-11.9524
▁comhfhreagrach	-11.9524
▁druileála	-11.9524
▁urghabháil	-11.9524
teigen	-11.9524
▁cheamara	-11.9524
▁Impireacht	-11.9524
▁dhearfach	-11.9524
▁láimhseála	-11.9524
arúntacht	-11.9524
▁Daonra	-11.9524
ROS	-11.9524
▁Fhorais	-11.9524
▁Stampa	-11.9525
▁iPad	-11.9525
▁marthain	-11.9525
▁Young	-11.9525
▁stiúrtha	-11.9526
▁chomhchuibhiú	-11.9526
▁aistarraingt	-11.9526
▁Prada	-11.9527
▁ingne	-11.9527
▁inné	-11.9527
eorpa	-11.9527
▁Shoot	-11.9527
▁OLS	-11.9528
▁Foinse	-11.9528
Ochtú	-11.9528
▁déanmhais	-11.9529
▁comhaireamh	-11.9529
▁Motor	-11.9529
▁huimhreacha	-11.9529
▁tionóladh	-11.953
▁híomhánna	-11.953
▁cartán	-11.953
▁shoiléiriú	-11.9531
▁shamhla	-11.9531
▁margadhluach	-11.9532
▁1949	-11.9532
▁Éisc	-11.9533
▁Sheol	-11.9536
▁Chód	-11.9537
▁Fál	-11.9537
▁baintreach	-11.9538
luaite	-11.9538
shocraíocht	-11.954
▁hiontaobhaithe	-11.954
Bhunscoileanna	-11.9541
dding	-11.9541
▁bhfón	-11.9542
Stud	-11.9545
endo	-11.9548
▁héadaí	-11.955
chorraithe	-11.955
▁bhraith	-11.9553
▁rite	-11.9566
▁Rialála	-11.9566
Bhail	-11.9578
▁Gléas	-11.9578
jim	-11.9583
▁réamhscoile	-11.9584
mike	-11.9586
threorach	-11.9587
shrianta	-11.9592
Martin	-11.96
iasachtóir	-11.9606
paper	-11.961
chomhpháirtíocht	-11.9613
▁Dheis	-11.9613
Iris	-11.9626
Coláiste	-11.9633
scríbhneoirí	-11.9635
chuimsitheach	-11.9635
Seirbhísí	-11.9636
théarma	-11.9636
University	-11.9636
fhoráil	-11.9636
uasmhéid	-11.9636
▁Job	-11.9637
▁Dúnta	-11.9637
▁€25	-11.9637
leanúna	-11.9638
arbhán	-11.964
750	-11.9646
West	-11.9647
Chúrsaí	-11.9651
▁gcríochn	-11.9654
chló	-11.9655
oibleagáidí	-11.9663
file	-11.9664
Lá	-11.9665
achtachán	-11.9669
have	-11.9675
TAIS	-11.9682
▁éigeanta	-11.9682
▁Aistritheoir	-11.9684
HRC	-11.9703
kill	-11.9704
▁Éisteacht	-11.9714
▁Amharclann	-11.9715
▁Turasóireacht	-11.9719
▁gaolmhar	-11.972
hiailiú	-11.9726
tarraingt	-11.9736
Cheannaigh	-11.9742
▁mhalart	-11.9748
▁Ceimic	-11.9748
híortha	-11.975
▁teagascóir	-11.9752
fheistí	-11.9753
Baill	-11.9753
rógra	-11.9754
▁grinn	-11.9754
▁TUA	-11.9757
..../200	-11.9759
▁páirc	-11.9766
▁Ghnócha	-11.9766
▁Cuimhne	-11.9767
▁camchuairt	-11.9768
thfhriotail	-11.9768
▁Bhealtaine	-11.9768
▁Bloomberg	-11.9768
▁Chabhlaigh	-11.9768
▁Cúiteamh	-11.9768
▁Development	-11.9768
▁Dhosmálta	-11.9768
▁Facialized	-11.9768
▁Guangdong	-11.9768
▁Saintréithe	-11.9768
▁Tascfhórsa	-11.9768
▁Teagaisc	-11.9768
▁Thalmhaíocht	-11.9768
▁aquarium	-11.9768
▁cheardlann	-11.9768
▁fréamhacha	-11.9768
▁gcraiceann	-11.9768
▁ghnímh	-11.9768
▁homemade	-11.9768
▁lúthchleasa	-11.9768
▁mBunscoileanna	-11.9768
▁tarmligean	-11.9768
▁thromchúiseach	-11.9768
facebook	-11.9768
ibility	-11.9768
▁Ceilteach	-11.9768
▁dronuilleog	-11.9768
[...]
