<unk>	0
<s>	0
</s>	0
▁a	-3.55659
,	-3.56192
▁an	-3.56218
▁ar	-3.83386
.	-3.90333
▁agus	-4.0639
▁	-4.24839
▁na	-4.29005
▁le	-4.66103
▁i	-4.68387
-	-4.91173
a	-4.98004
▁go	-5.02927
r	-5.03217
▁@	-5.05712
▁seo	-5.09653
▁do	-5.23689
▁tú	-5.23988
▁ag	-5.26364
s	-5.26817
▁de	-5.29871
▁(	-5.31264
▁nó	-5.31923
▁d	-5.34627
)	-5.36088
e	-5.44621
▁bhfuil	-5.45123
▁leis	-5.47615
í	-5.51689
▁in	-5.53746
▁C	-5.53951
▁An	-5.58012
▁chun	-5.58715
▁sin	-5.58723
▁is	-5.60555
'	-5.7524
▁ó	-5.77436
:	-5.79872
▁leat	-5.81433
▁é	-5.84853
n	-5.86553
?	-5.8854
▁sé	-5.90152
▁gur	-5.94745
▁sa	-5.9727
▁atá	-6.01376
▁mar	-6.02173
▁cosc	-6.02788
▁den	-6.04251
▁t	-6.06547
▁Tweetanna	-6.07225
▁Is	-6.10118
▁-	-6.15413
▁aon	-6.16422
▁féidir	-6.18906
▁mhaith	-6.19415
▁Tá	-6.20865
▁cinnte	-6.21366
▁faoi	-6.2154
▁breathnú	-6.23214
▁Chuir	-6.23862
▁Meáin	-6.25827
d	-6.26193
▁n	-6.26713
ú	-6.28951
c	-6.30039
;	-6.31326
b	-6.31852
▁tá	-6.36304
▁eile	-6.36497
▁dhéanamh	-6.40491
t	-6.40673
▁F	-6.41212
▁chur	-6.43698
’	-6.44104
▁bheith	-6.44926
▁ina	-6.47262
▁h	-6.47913
ach	-6.49615
is	-6.50844
▁don	-6.57334
▁duine	-6.57848
▁D	-6.59373
▁Tuilleadh	-6.59959
▁maidi	-6.6176
l	-6.62665
m	-6.63236
ch	-6.63853
in	-6.64081
▁saor	-6.64536
▁deimhnithe	-6.64553
an	-6.66067
▁nasc	-6.67608
▁c	-6.68282
▁trí	-6.69678
▁níos	-6.69833
▁gach	-6.7142
▁as	-6.71674
▁aisce	-6.72251
_	-6.72544
as	-6.72658
▁ón	-6.74504
Cuntas	-6.75639
▁Ní	-6.76036
▁S	-6.77034
i	-6.77216
igh	-6.77347
óipeáil	-6.78468
▁san	-6.78912
▁A	-6.79763
C	-6.80075
y	-6.80177
ar	-6.80726
▁B	-6.81422
▁nach	-6.81716
ic	-6.82845
ir	-6.83155
▁ná	-6.84156
▁u	-6.84193
adh	-6.86939
▁maith	-6.87035
▁porn	-6.87145
▁ach	-6.87866
▁Ar	-6.88653
▁mó	-6.89282
bh	-6.89862
▁haghaidh	-6.91007
▁dá	-6.92202
▁lena	-6.9239
▁fáil	-6.92643
B	-6.93445
ithe	-6.94221
▁I	-6.94958
il	-6.95596
▁T	-6.95618
ann	-6.96087
▁chloig	-6.96363
aí	-6.96418
▁leanúna	-6.98214
▁chuid	-6.98392
▁shin	-6.98496
▁réir	-6.991
▁iad	-6.99336
▁ní	-6.99685
▁ann	-7.01565
iú	-7.02625
ta	-7.02641
dh	-7.03719
al	-7.03975
▁tweet	-7.04239
▁P	-7.04691
M	-7.04945
S	-7.0524
anna	-7.06258
▁Ag	-7.06898
o	-7.07272
ra	-7.07292
▁nua	-7.07668
u	-7.0832
▁amháin	-7.09094
▁alt	-7.1007
im	-7.10189
▁chomh	-7.10297
▁úsáid	-7.10338
▁bheidh	-7.10638
▁ch	-7.11693
/	-7.11841
or	-7.12289
A	-7.1232
le	-7.12539
D	-7.13022
▁1	-7.13556
▁amach	-7.13988
▁uair	-7.14226
▁M	-7.14636
g	-7.14988
te	-7.15164
▁siad	-7.15404
▁–	-7.1641
oisc	-7.16789
▁um	-7.17203
▁19	-7.17261
▁líne	-7.17371
▁thabhairt	-7.17724
▁gan	-7.18001
F	-7.18081
íonn	-7.1844
aithe	-7.18736
▁Cuir	-7.18738
th	-7.19502
alt	-7.20992
ing	-7.21717
▁féin	-7.21773
▁b	-7.22317
p	-7.22953
▁leith	-7.23296
G	-7.24523
tha	-7.24981
▁mór	-7.25154
▁Dích	-7.25741
▁“	-7.25772
P	-7.26547
h	-7.2658
f	-7.27056
▁raibh	-7.27423
áil	-7.2749
er	-7.28484
▁éis	-7.28686
T	-7.29361
▁faoin	-7.29893
▁cineál	-7.30493
▁cheannach	-7.30593
▁á	-7.30724
▁gc	-7.30753
▁lá	-7.30835
▁Féach	-7.32233
án	-7.32257
áin	-7.33223
L	-7.33611
▁isteach	-7.3415
▁daoine	-7.3552
on	-7.35769
▁fháil	-7.35823
!	-7.35834
▁2	-7.36415
aigh	-7.36827
▁fearr	-7.36933
na	-7.37527
it	-7.3768
re	-7.37809
▁p	-7.38411
▁L	-7.39426
▁beidh	-7.39576
▁gcás	-7.40025
▁3	-7.40768
▁rud	-7.40846
▁G	-7.41359
▁ár	-7.41563
▁focal	-7.41773
”	-7.42146
▁bhí	-7.42727
▁freagra	-7.4297
I	-7.43206
▁acu	-7.43267
la	-7.44267
▁Ch	-7.44313
▁nGaeilge	-7.45898
▁suíomh	-7.46553
▁Acht	-7.46638
ealaigh	-7.46661
▁HD	-7.47458
acha	-7.47685
▁tar	-7.48173
O	-7.48353
am	-7.48743
▁mbeidh	-7.48743
ol	-7.50191
▁R	-7.50719
R	-7.50797
N	-7.51118
ais	-7.51375
iallach	-7.51425
▁linn	-7.51918
▁sainmhíniú	-7.52129
iarratas	-7.52689
▁bríonna	-7.52927
▁fuaimniú	-7.5356
▁fhrithch	-7.53925
▁má	-7.53999
▁Le	-7.54021
▁comhchiallaigh	-7.54082
▁ceann	-7.54287
▁dtí	-7.55271
ad	-7.55493
com	-7.55686
▁idir	-7.55899
...	-7.55932
▁E	-7.56201
▁Mar	-7.56876
mh	-7.58114
▁anseo	-7.58394
▁freisin	-7.58642
▁méid	-7.59142
▁ceal	-7.60851
E	-7.6097
▁anois	-7.62692
▁ba	-7.62945
▁gá	-7.63121
▁dul	-7.63297
ig	-7.63335
▁ceart	-7.63655
▁chéad	-7.638
eitheamh	-7.64276
gh	-7.64445
▁5	-7.64625
id	-7.64643
▁tabhairt	-7.64644
▁duit	-7.64825
▁leanas	-7.64858
ear	-7.65892
ith	-7.66409
eanna	-7.67236
2	-7.67259
▁4	-7.67303
▁"	-7.67399
each	-7.67413
▁feitheamh	-7.67425
▁Iarratas	-7.67878
acht	-7.68247
ne	-7.68319
ó	-7.69979
se	-7.70426
▁th	-7.7045
▁s	-7.70908
▁sna	-7.71162
▁H	-7.71775
▁bhaineann	-7.72326
▁(2)	-7.72771
1	-7.73019
▁sí	-7.73333
▁bhainfea	-7.73679
▁iomlán	-7.73835
▁bhreathnú	-7.74385
▁nuair	-7.74671
air	-7.74774
ist	-7.74866
ion	-7.74907
▁sonraí	-7.75089
▁roinnt	-7.75481
▁no	-7.75622
en	-7.7588
▁/	-7.76105
▁aghaidh	-7.76202
ed	-7.76237
▁Eorpach	-7.77364
▁agat	-7.77918
▁dáta	-7.78144
▁bh	-7.78268
el	-7.78422
▁0	-7.78617
▁chuig	-7.7881
▁roimh	-7.78833
▁6	-7.79185
▁bhaint	-7.79515
▁Gaeilge	-7.79833
oir	-7.80054
é	-7.80359
▁Roinn	-7.80374
▁Ba	-7.80375
st	-7.80908
▁f	-7.81131
▁bhfeidhm	-7.81762
ine	-7.82034
3	-7.82058
▁obair	-7.82073
aon	-7.82226
4	-7.82264
ill	-7.8251
▁Beidh	-7.83607
▁gréasáin	-7.83851
ag	-7.8395
eann	-7.84947
]	-7.85021
á	-7.85947
tar	-7.86099
ála	-7.8622
▁tréimhse	-7.86678
▁Lean	-7.86713
▁cur	-7.86775
W	-7.86826
▁cheart	-7.86848
tear	-7.87918
ac	-7.87936
the	-7.87943
H	-7.87946
—	-7.88209
os	-7.88243
amp	-7.8853
▁hÉireann	-7.88772
imh	-7.88828
lacha	-7.88882
▁cluiche	-7.88887
▁éagsúla	-7.889
▁air	-7.88945
▁Twitter	-7.89999
▁í	-7.90046
ur	-7.90302
all	-7.90444
▁arna	-7.9162
▁físeáin	-7.91685
▁[	-7.92222
ro	-7.92478
V	-7.92623
▁dhaoine	-7.92629
▁Má	-7.92694
w	-7.92707
▁cinn	-7.92823
U	-7.92894
"	-7.94061
▁Aontais	-7.94116
▁mé	-7.94129
▁áit	-7.94218
▁síos	-7.94387
es	-7.94402
▁scoth	-7.94645
▁hEorpa	-7.94678
▁18	-7.94824
▁am	-7.95046
▁cheann	-7.95429
▁bith	-7.95565
▁caighdeán	-7.95834
▁chéile	-7.96085
▁áirithe	-7.96086
de	-7.96102
EN	-7.96329
▁neamh	-7.96435
▁fho	-7.96994
▁físeán	-7.97393
▁Sa	-7.97671
▁aige	-7.98005
fidh	-7.98238
ard	-7.98401
▁m	-7.99106
▁O	-7.99315
▁so	-7.9932
k	-7.99336
▁8	-7.99428
▁fh	-7.99715
▁mo	-7.99825
▁10	-8.00542
ath	-8.00566
▁leor	-8.0144
▁léir	-8.01536
▁Co	-8.01799
ip	-8.02229
far	-8.02328
▁ard	-8.02392
▁teacht	-8.03141
▁Nua	-8.03144
at	-8.03636
aíonn	-8.03906
▁7	-8.03988
ite	-8.04452
▁fásta	-8.05248
K	-8.05699
▁Aire	-8.05719
▁láthair	-8.05725
us	-8.06063
▁In	-8.06183
▁Go	-8.06185
sh	-8.06393
áirítear	-8.06462
▁thar	-8.0664
▁bhliain	-8.06775
sc	-8.07822
▁g	-8.07837
▁cheana	-8.08386
▁&	-8.08455
éad	-8.08478
▁dheis	-8.08511
▁W	-8.0858
▁leo	-8.08701
▁bliana	-8.08759
sa	-8.08952
▁féachaint	-8.10036
▁Tweet	-8.10108
▁2018	-8.10368
5	-8.10822
▁Iúil	-8.10871
▁comh	-8.11435
▁Coiscthe	-8.11504
atweetá	-8.11668
óidh	-8.12042
ie	-8.12615
▁(3)	-8.12995
▁Dé	-8.13331
ítear	-8.13838
▁tAire	-8.1398
▁Porn	-8.14032
▁suas	-8.14174
▁12	-8.14313
▁ph	-8.14346
▁AE	-8.14744
▁chaighdeán	-8.14765
▁díreach	-8.14874
▁dhá	-8.15124
óir	-8.15548
▁cibé	-8.16505
▁9	-8.16656
▁dó	-8.16686
▁De	-8.16688
▁Márta	-8.16824
▁Deireadh	-8.16825
fhéadfadh	-8.16874
▁mí	-8.16935
ire	-8.17199
▁N	-8.1785
▁gh	-8.17949
ile	-8.18104
▁Chomhairle	-8.18128
▁fo	-8.18181
▁2017	-8.18465
▁Chun	-8.18658
achta	-8.19074
▁sórt	-8.19126
ice	-8.20281
cháin	-8.21019
▁seirbhísí	-8.21352
▁mh	-8.21451
▁15	-8.22464
om	-8.22906
íocht	-8.23045
),	-8.23104
▁laistigh	-8.23735
▁íoslódáil	-8.23735
ia	-8.23813
▁bhfo	-8.23969
iúil	-8.24034
▁Na	-8.24163
▁sh	-8.24177
▁chóir	-8.24493
ce	-8.24511
inn	-8.24557
cht	-8.24728
▁más	-8.24991
▁huaire	-8.25107
▁(1)	-8.25199
úil	-8.2541
▁oibre	-8.2565
▁for	-8.25736
8	-8.25774
nd	-8.25894
▁Comhrá	-8.25937
▁ábhar	-8.26223
▁ndáil	-8.26353
▁V	-8.26513
6	-8.27037
▁The	-8.27158
20	-8.27489
▁táirgí	-8.27548
▁leathanach	-8.27821
artha	-8.27923
li	-8.28626
ail	-8.28761
▁20	-8.28816
eachta	-8.28912
▁láithreán	-8.2908
▁feadh	-8.29276
▁mhí	-8.29546
▁mbaineann	-8.29654
faidh	-8.29762
▁iontach	-8.29835
eacha	-8.29906
▁Airteagal	-8.30035
▁gcuid	-8.30077
x	-8.30118
ca	-8.30672
▁fós	-8.30689
eacht	-8.30771
fh	-8.31355
▁K	-8.319
▁fad	-8.32128
▁mbeadh	-8.32354
▁bhíonn	-8.3252
un	-8.3266
▁Th	-8.32774
ín	-8.32818
uithe	-8.32855
z	-8.33228
iste	-8.33446
▁cluichí	-8.33584
).	-8.33804
ri	-8.34019
▁bhun	-8.34023
▁gheall	-8.34124
▁ionad	-8.34292
ain	-8.34765
▁st	-8.34824
▁2019	-8.34992
▁U	-8.35257
▁gComhairle	-8.35334
▁bhf	-8.35418
▁céanna	-8.35824
▁sc	-8.35861
▁déanta	-8.35966
▁Comhairle	-8.36129
▁ainm	-8.36221
od	-8.36272
ib	-8.36417
▁Baile	-8.3684
10	-8.3717
▁fud	-8.37321
▁eolas	-8.37344
um	-8.37476
J	-8.37599
rú	-8.37832
▁iarraidh	-8.37883
amh	-8.37952
▁iarratas	-8.38127
▁feidhm	-8.38587
▁Tuga	-8.38611
▁Agus	-8.3867
v	-8.38706
ul	-8.38804
▁ordú	-8.38966
and	-8.39009
▁Atweetáil	-8.39056
aíocht	-8.39504
ru	-8.3986
▁dóibh	-8.40095
▁Ard	-8.40153
▁féadfaidh	-8.40266
▁tras	-8.40291
▁mb	-8.4035
▁Mh	-8.40372
cha	-8.40424
▁uisce	-8.40512
▁gnéas	-8.40526
ot	-8.40528
▁rogha	-8.40577
eas	-8.4075
▁cuid	-8.40855
▁cothrom	-8.40902
▁fógra	-8.41036
▁orthu	-8.41045
ás	-8.41671
▁againn	-8.41736
▁Fómhair	-8.41746
▁íoc	-8.41806
▁Déan	-8.41848
uaimniú	-8.41968
▁tráth	-8.42406
nn	-8.42731
▁scannán	-8.42789
et	-8.42862
if	-8.43099
▁liom	-8.43204
▁Rinne	-8.43223
▁gcónaí	-8.43256
▁bliain	-8.43316
Acht	-8.4337
▁ráta	-8.43928
aítear	-8.44058
7	-8.441
ph	-8.44296
▁24	-8.44539
▁críocha	-8.44859
▁tSín	-8.44919
ly	-8.45265
▁mhír	-8.4567
ciallaíonn	-8.45719
▁cáilíochta	-8.45809
ma	-8.45966
▁fhreagra	-8.46198
▁áireamh	-8.46264
▁Cé	-8.46364
▁of	-8.46853
▁feidhme	-8.46873
▁Aontaithe	-8.46941
▁Leaba	-8.47607
▁dlí	-8.47788
▁iomchuí	-8.47834
▁náisiúnta	-8.47842
▁leibhéal	-8.48357
ang	-8.48417
idh	-8.48483
Béarla	-8.48517
io	-8.48644
▁ghlacadh	-8.4865
onn	-8.49112
aid	-8.4921
▁Eorpaigh	-8.49364
▁fheabhsú	-8.49364
aois	-8.49532
▁16	-8.49602
pe	-8.49618
▁St	-8.4964
ainm	-8.49661
▁líon	-8.49688
▁Féadfaidh	-8.49715
▁Coimisiún	-8.49855
▁11	-8.50008
▁rá	-8.50057
lo	-8.50156
▁luach	-8.50194
▁14	-8.50405
▁mhéid	-8.50752
▁amhlaidh	-8.50917
▁fíor	-8.51462
▁Sh	-8.51475
▁Físeán	-8.51488
fear	-8.51666
▁taobh	-8.51958
lu	-8.52171
▁tríd	-8.52492
eadh	-8.53115
▁Ó	-8.53155
▁seirbhís	-8.53277
uaire	-8.53285
▁athrú	-8.53627
▁muid	-8.53811
12	-8.53874
▁féach	-8.53918
▁Rialachán	-8.53953
ation	-8.53998
▁13	-8.54235
▁gC	-8.54499
éir	-8.54524
▁haon	-8.54925
▁2016	-8.5496
íos	-8.55136
▁Nach	-8.5516
to	-8.55388
▁17	-8.55807
lú	-8.55854
▁croí	-8.5588
▁Stát	-8.5612
0	-8.56153
ófar	-8.56197
ge	-8.56203
ers	-8.56425
og	-8.56471
art	-8.56611
▁mian	-8.57182
▁rith	-8.57334
eir	-8.57347
▁bia	-8.57669
ord	-8.57672
óirí	-8.57674
▁br	-8.57685
▁Náisiúnta	-8.57796
▁Mí	-8.58146
ocht	-8.58207
▁Stáit	-8.5823
▁háirithe	-8.58374
▁Éirinn	-8.58652
▁dt	-8.5893
áis	-8.58946
▁speisialta	-8.59066
▁Oireachtais	-8.59221
▁baint	-8.59286
▁30	-8.59563
íodh	-8.60003
▁Chomh	-8.60058
▁poiblí	-8.60075
ian	-8.60158
▁bun	-8.60364
óg	-8.60452
▁chomhrá	-8.60528
ide	-8.60592
▁Bh	-8.60609
▁te	-8.60612
▁freagairt	-8.60858
tr	-8.60883
▁(4)	-8.60999
op	-8.61065
▁dhéanann	-8.61409
▁lú	-8.61444
▁rialacha	-8.61548
scríobh	-8.61644
▁mír	-8.61658
▁Ach	-8.61729
▁ath	-8.61769
▁r	-8.61841
▁uile	-8.6198
▁Pharlaimint	-8.62043
▁deireadh	-8.62144
▁ansin	-8.62233
▁sholáthar	-8.62282
▁chlárú	-8.62293
ón	-8.62323
ibh	-8.6238
▁gnó	-8.62452
9	-8.62455
▁Bhí	-8.62499
▁Ceisteanna	-8.62682
▁bhrí	-8.62842
ré	-8.62862
▁Re	-8.62957
▁réimse	-8.63011
omh	-8.63658
▁cuideachta	-8.63844
éal	-8.6392
X	-8.64081
éil	-8.64138
▁fhorbairt	-8.64307
▁Dáil	-8.64926
int	-8.6513
▁co	-8.65135
oll	-8.65186
▁pearsanta	-8.65196
▁leas	-8.6537
▁Comh	-8.6557
▁Parlaiminte	-8.66136
▁Oifig	-8.66171
▁Catagóir	-8.66184
ts	-8.66446
▁áitiúil	-8.66904
▁mura	-8.66942
▁cosúil	-8.6719
▁cuí	-8.67194
j	-8.67346
▁ais	-8.67482
▁údarás	-8.68031
CE	-8.68137
▁éifeacht	-8.68276
me	-8.68477
▁imeachta	-8.68655
ab	-8.68853
▁Tithe	-8.69172
▁imirt	-8.69224
ár	-8.69345
▁déanaí	-8.6965
▁airgeadra	-8.70017
▁roghnú	-8.7033
▁ort	-8.71107
ró	-8.7126
▁praghas	-8.71547
▁fiú	-8.71751
▁measc	-8.71761
▁dí	-8.71813
▁airgeadais	-8.71952
man	-8.7205
▁bunaithe	-8.72171
aíochta	-8.72213
▁Átha	-8.72312
▁déan	-8.72326
▁Gnóthaí	-8.72337
ead	-8.72767
tais	-8.72914
▁Aontas	-8.72944
▁€	-8.73148
▁airgead	-8.73191
▁fé	-8.73235
ent	-8.73277
▁Do	-8.73409
éar	-8.73737
▁cé	-8.73768
▁beag	-8.73853
oc	-8.73938
▁to	-8.74256
che	-8.74273
▁teanga	-8.74362
▁Bain	-8.74373
ut	-8.74572
▁os	-8.74622
ti	-8.74727
▁Sc	-8.74856
oil	-8.74903
19	-8.74909
▁2015	-8.75079
▁príomh	-8.75099
íochta	-8.7513
▁láithreach	-8.75186
▁Ballstáit	-8.75198
▁lán	-8.75309
▁sheoladh	-8.75322
▁aonair	-8.75418
ean	-8.75443
eal	-8.75466
Y	-8.75514
ob	-8.75636
▁the	-8.75639
▁táirge	-8.75932
nó	-8.76112
▁hiomlán	-8.76225
▁coinníollacha	-8.76301
▁dtagraítear	-8.76476
▁Conas	-8.76628
▁gcomhréir	-8.76752
▁saol	-8.76999
▁lucht	-8.77115
ant	-8.77324
sp	-8.77333
▁shampla	-8.774
▁clár	-8.77503
isc	-8.77588
▁chás	-8.77611
▁Cluichí	-8.77771
▁tacaíocht	-8.7794
▁chosaint	-8.7796
▁domhain	-8.78061
▁scéim	-8.78088
iúla	-8.78194
▁Cliath	-8.78424
och	-8.78528
▁dh	-8.78558
▁gcéad	-8.78559
▁Ph	-8.78575
▁roimhe	-8.78652
▁Níl	-8.78681
▁gceist	-8.78706
▁21	-8.78854
▁l	-8.79284
eoir	-8.79373
ry	-8.7959
óra	-8.79811
▁laghdú	-8.80085
úsáid	-8.80184
▁leagan	-8.8051
iom	-8.8072
éin	-8.80881
▁breise	-8.80895
ille	-8.80943
lann	-8.80977
▁scoil	-8.81253
aire	-8.81513
Á	-8.81781
▁siúl	-8.81856
▁23	-8.81872
▁dtaobh	-8.82003
ter	-8.8203
▁Airgeadais	-8.82058
co	-8.8209
▁Cur	-8.82244
▁22	-8.82382
▁cruach	-8.8267
▁cad	-8.83326
▁iúl	-8.83463
ity	-8.83517
▁chineál	-8.83647
▁dúinn	-8.83818
▁J	-8.83836
▁Dh	-8.83899
ise	-8.84025
▁25	-8.84148
▁2014	-8.84783
mo	-8.84842
da	-8.84932
eoidh	-8.8494
▁faisnéis	-8.84987
▁gcoinne	-8.85023
ton	-8.85118
▁conas	-8.85793
00	-8.86102
▁Á	-8.86125
imid	-8.86195
inne	-8.86244
▁eolais	-8.86429
est	-8.86551
▁súil	-8.8662
▁forálacha	-8.86748
▁Cad	-8.8692
▁leanaí	-8.86937
▁ghnáth	-8.87027
taí	-8.87174
▁mheas	-8.8722
oth	-8.87539
irt	-8.87572
ii	-8.87734
▁Éireann	-8.87901
▁taighde	-8.88054
▁idirnáisiúnta	-8.88058
▁léi	-8.88225
▁deis	-8.88287
▁chroí	-8.88311
▁Más	-8.88486
▁di	-8.88758
▁chuige	-8.8904
▁teagmháil	-8.8909
fhonn	-8.8929
▁Uimh	-8.89335
▁oiriúnach	-8.89367
▁sláinte	-8.89404
rá	-8.89439
▁laghad	-8.89508
▁thaobh	-8.89613
▁inniu	-8.89614
oirí	-8.89981
▁ndiaidh	-8.90454
▁chinntiú	-8.90455
▁For	-8.90515
hu	-8.90624
▁Meán	-8.90692
ilte	-8.90734
uireann	-8.90734
▁me	-8.90758
aint	-8.90945
▁nd	-8.90979
30	-8.91192
▁chruthú	-8.91217
▁tuilleadh	-8.91309
▁cinneadh	-8.91358
▁cuireadh	-8.91423
11	-8.91708
▁2013	-8.91753
úla	-8.91782
▁bhealach	-8.91871
aíodh	-8.91878
▁chuideachta	-8.91896
▁bp	-8.91903
▁liosta	-8.91919
▁Beal	-8.91998
▁bearta	-8.9205
chta	-8.92291
go	-8.92423
anta	-8.92434
▁aois	-8.92496
▁Seo	-8.92607
▁déanamh	-8.92727
▁Bord	-8.92752
▁rinneadh	-8.92797
íoc	-8.92835
▁Sláinte	-8.92914
.”	-8.92935
▁mhór	-8.92978
eofar	-8.93179
▁ailt	-8.93248
▁dara	-8.93366
▁—	-8.9346
ke	-8.93516
ime	-8.93696
▁cánach	-8.93971
(	-8.94146
▁sp	-8.94279
aill	-8.94523
▁dtugtar	-8.94552
▁dhuine	-8.94552
An	-8.94664
▁éasca	-8.94701
▁úsáidtear	-8.94702
▁forbairt	-8.94772
eo	-8.94815
▁córas	-8.94896
▁ca	-8.94899
▁tír	-8.94923
▁sásta	-8.95
▁Cuntas	-8.95224
▁Lá	-8.95386
▁cabhrú	-8.95551
mar	-8.95994
▁margadh	-8.95995
úint	-8.96023
ras	-8.96499
▁rochtain	-8.96601
ochta	-8.96615
▁fi	-8.96631
▁rialú	-8.97021
irg	-8.97144
50	-8.97207
ell	-8.9723
▁déanfar	-8.97271
▁nós	-8.97306
gu	-8.97403
eoirí	-8.97596
▁soláthraí	-8.97683
ap	-8.97701
ont	-8.97752
▁riachtanais	-8.97796
▁bunaidh	-8.97811
▁tAcht	-8.97859
▁leanbh	-8.98034
▁w	-8.98071
gt	-8.98142
ábhar	-8.98183
▁rinne	-8.98294
▁Aon	-8.98366
15	-8.98481
▁dhiaidh	-8.98598
son	-8.987
▁Se	-8.9877
ate	-8.98922
▁Achta	-8.99
▁cho	-8.99076
ris	-8.99096
▁Ean	-8.9911
per	-8.99253
▁Gach	-8.99263
▁(5)	-8.99291
▁léinn	-8.99659
▁Saor	-8.99758
▁Treoir	-9.00141
ich	-9.00177
lé	-9.00237
pa	-9.00298
ór	-9.00327
ait	-9.0061
cl	-9.00657
ordú	-9.00823
sta	-9.00845
▁Ghaeilge	-9.0088
▁iarracht	-9.00964
▁'	-9.0097
Í	-9.01048
▁bhonn	-9.01221
▁curtha	-9.01255
▁mbliana	-9.01267
▁aer	-9.01401
▁To	-9.01542
▁tapa	-9.0172
▁dhosmálta	-9.01739
raí	-9.01805
▁glacadh	-9.02001
ay	-9.02036
▁thíos	-9.02049
do	-9.02075
tóir	-9.02118
▁airde	-9.02221
údarás	-9.02457
▁réamh	-9.02475
▁Me	-9.02609
bo	-9.02661
▁dhí	-9.02674
acháin	-9.0275
▁fhios	-9.0279
istí	-9.02825
▁riachtanach	-9.03031
▁domhan	-9.03277
▁freastal	-9.03288
▁Sp	-9.03289
▁Gh	-9.03439
▁tu	-9.03555
13	-9.03663
▁Sonraí	-9.03716
▁talamh	-9.03772
▁comhlacht	-9.03845
ola	-9.03891
▁catagóirí	-9.03992
▁fear	-9.04091
▁leanúint	-9.04255
▁cead	-9.04379
▁seachas	-9.04557
ige	-9.04789
iún	-9.04792
▁ma	-9.04793
▁Ma	-9.04831
ka	-9.0488
be	-9.04903
▁iarratais	-9.05039
▁tríú	-9.05101
éis	-9.05118
AN	-9.05126
▁ábhartha	-9.05274
▁(32	-9.05296
▁Oideachais	-9.05351
land	-9.05373
▁ró	-9.05374
▁amhail	-9.05401
▁31	-9.05463
▁choinneáil	-9.05492
▁nádúrtha	-9.05493
▁Tar	-9.05671
íon	-9.05903
▁ea	-9.05941
AE	-9.05982
load	-9.06099
▁Fh	-9.06235
▁27	-9.06255
▁ábhair	-9.06266
lá	-9.06357
amlíne	-9.06362
áid	-9.06475
▁ndéanfar	-9.06585
▁ion	-9.06717
▁se	-9.06737
▁Soláthraithe	-9.06744
▁oifig	-9.06789
▁26	-9.06838
IN	-9.06849
▁seirbhíse	-9.069
▁Te	-9.07112
▁comhrá	-9.07127
▁Gaeltachta	-9.07208
nna	-9.07232
▁deara	-9.07284
lach	-9.07313
Ch	-9.07352
▁arís	-9.07363
▁chomhlíonadh	-9.07466
las	-9.0758
▁chuireann	-9.07591
ll	-9.07992
▁fhaisnéis	-9.0819
▁min	-9.08285
▁éigin	-9.08347
▁Máirt	-9.08542
▁sraith	-9.08543
lí	-9.08551
▁porno	-9.08698
ub	-9.08896
▁cl	-9.08931
athair	-9.08936
iv	-9.09135
▁dhíol	-9.09198
▁istigh	-9.09244
▁Faigh	-9.094
(1)	-9.09591
▁torthaí	-9.0961
tas	-9.09765
▁fada	-9.09821
▁mbun	-9.09882
ud	-9.09884
▁modh	-9.09933
▁minic	-9.09942
▁bhfad	-9.09962
ha	-9.09974
▁28	-9.10054
ga	-9.10161
▁rialacháin	-9.10255
▁aird	-9.10262
▁sula	-9.10295
▁Iar	-9.10363
▁Li	-9.10396
▁scoile	-9.104
▁Ioncaim	-9.10639
ba	-9.10682
éan	-9.10762
▁úsáide	-9.10856
úin	-9.10856
▁Casino	-9.10898
14	-9.10942
▁ionas	-9.11036
▁La	-9.11122
▁comhalta	-9.11153
nach	-9.11282
▁im	-9.11397
▁thoradh	-9.11418
▁earraí	-9.11471
▁Bu	-9.11501
ex	-9.11547
▁clips	-9.11679
▁cláraithe	-9.11791
em	-9.11893
▁gurb	-9.11934
▁tábhachtach	-9.12048
▁Faoi	-9.12177
▁íseal	-9.12212
▁nithe	-9.12401
ive	-9.12446
our	-9.12501
abhair	-9.1252
▁nóiméad	-9.12598
▁díobh	-9.12601
▁Scéim	-9.12743
▁díol	-9.12936
▁leasú	-9.13043
▁ginearálta	-9.13126
▁29	-9.13152
▁Úsáid	-9.13259
▁iníoctha	-9.13392
achas	-9.13561
raithe	-9.13842
no	-9.13891
ish	-9.13926
inse	-9.13942
ins	-9.14035
▁Sceideal	-9.14326
ast	-9.14351
▁ga	-9.14378
airí	-9.14424
▁déanfaidh	-9.14498
▁tagairt	-9.14686
Airteagal	-9.1478
▁ama	-9.14785
ber	-9.14789
▁bharr	-9.14791
ment	-9.14913
▁tús	-9.14925
▁ghlac	-9.14945
▁imeachtaí	-9.15073
eamh	-9.15228
der	-9.15342
▁fhor	-9.15564
ial	-9.1561
ni	-9.15782
▁gníomhaíochtaí	-9.15951
▁lorg	-9.15962
▁níl	-9.16122
áth	-9.16131
▁airgid	-9.16224
▁chinn	-9.16409
di	-9.16474
▁có	-9.16659
▁Cluiche	-9.1677
▁naisc	-9.16794
17	-9.16849
▁scríbhinn	-9.17049
irí	-9.17169
▁trádála	-9.17184
▁Ro	-9.17196
▁2012	-9.17232
▁soláthar	-9.17321
▁faisnéise	-9.17348
fa	-9.17373
ho	-9.17525
hi	-9.17659
▁tháinig	-9.17674
▁inar	-9.17677
16	-9.17679
▁Liosta	-9.17741
ster	-9.17754
18	-9.17826
▁dearadh	-9.17845
éid	-9.17855
▁Comment	-9.18158
aim	-9.18335
rach	-9.18418
01	-9.18422
▁chaitheamh	-9.18437
▁mB	-9.18476
▁Meitheamh	-9.18532
▁re	-9.18577
achán	-9.18756
áiste	-9.18812
▁sain	-9.18851
ní	-9.18986
▁páirt	-9.19129
▁Eoraip	-9.19135
▁cearta	-9.19149
achais	-9.19218
▁reatha	-9.19277
▁1.	-9.19412
we	-9.19504
▁Eanáir	-9.19565
▁Be	-9.19729
▁chu	-9.19811
▁dteideal	-9.19841
▁meaisín	-9.19865
▁e	-9.19946
úcháin	-9.20492
▁É	-9.20591
▁Rialtais	-9.20703
ty	-9.20789
ainn	-9.20827
▁Londain	-9.20838
▁deimhniú	-9.20838
aidh	-9.20995
▁chlár	-9.21018
áilte	-9.21021
áir	-9.21075
▁Bealtaine	-9.21125
▁gcrích	-9.21268
fe	-9.21301
▁cuairt	-9.21411
▁chuir	-9.21529
▁tionchar	-9.21557
▁scoileanna	-9.21681
▁fheiceáil	-9.21712
▁mba	-9.21746
▁Nollaig	-9.2175
▁téarma	-9.2179
▁dhéantar	-9.21848
▁Dá	-9.21907
ong	-9.22057
thar	-9.22179
▁fe	-9.2227
▁dath	-9.22314
IS	-9.22406
▁shuíomh	-9.22425
▁taithí	-9.22426
▁Contae	-9.22571
▁seomra	-9.22625
▁Coimisinéirí	-9.22643
unt	-9.22691
AR	-9.22828
chán	-9.22855
▁Aghaidh	-9.22863
mi	-9.22865
tí	-9.22888
ost	-9.22897
▁chinneadh	-9.23177
▁aici	-9.23355
▁ngach	-9.23431
ies	-9.23541
▁gCoimisiún	-9.23596
▁bhain	-9.23626
▁dar	-9.23714
mm	-9.23727
▁Coiste	-9.23826
▁bheadh	-9.2398
▁Maidir	-9.24043
▁chumas	-9.24173
▁éileamh	-9.24294
▁cu	-9.24324
▁tíortha	-9.24334
▁siúd	-9.24335
▁leath	-9.24439
ak	-9.24589
ailt	-9.24643
24	-9.24759
éim	-9.24837
▁simplí	-9.24929
▁fanacht	-9.2493
▁suim	-9.25008
naithe	-9.25183
▁rudaí	-9.25243
oo	-9.25368
▁soiléir	-9.2538
▁íocaíocht	-9.2552
fhéidir	-9.25528
▁Grúpa	-9.2557
vi	-9.25596
▁ríomhaire	-9.25791
▁seoladh	-9.25991
ick	-9.26313
▁bhunú	-9.26411
▁be	-9.26802
tach	-9.26822
▁2020	-9.26956
port	-9.2698
25	-9.27108
Naisc	-9.27126
iam	-9.27206
▁húsáid	-9.27235
▁thart	-9.27246
▁Clár	-9.27463
▁dhéanfaidh	-9.27501
uair	-9.27552
airt	-9.27729
▁gcomparáid	-9.27804
so	-9.27844
▁thoil	-9.2785
▁fáilte	-9.2797
▁choimeád	-9.28026
▁Chúirt	-9.28121
▁Déanfar	-9.2819
mer	-9.28268
▁cás	-9.28333
▁aistriú	-9.2834
▁anailís	-9.28356
mhair	-9.28385
▁críche	-9.2842
▁son	-9.28506
▁malairte	-9.28574
▁réiteach	-9.28578
▁dtaca	-9.28599
tre	-9.28604
▁áirithiú	-9.28729
▁ghabhann	-9.2891
▁gr	-9.29096
▁sóisialta	-9.29195
▁Feabh	-9.29388
▁oifigeach	-9.29452
reid	-9.29556
▁toisc	-9.29626
▁costais	-9.29671
22	-9.29765
▁mná	-9.29854
▁monaróirí	-9.29935
▁dhearna	-9.29997
▁comhairle	-9.30056
óid	-9.30198
▁ndáiríre	-9.3029
▁scannáin	-9.30291
éile	-9.30291
ling	-9.30305
▁faire	-9.30371
▁tacú	-9.30454
▁luath	-9.30457
ny	-9.30477
▁cúig	-9.30608
▁suite	-9.30797
tion	-9.30888
▁raon	-9.30895
▁Bhaile	-9.30923
▁leagtha	-9.30925
age	-9.31317
▁Meith	-9.31383
▁leagtar	-9.314
▁tAontas	-9.31418
ens	-9.31456
▁barr	-9.31495
inte	-9.31525
▁chumhacht	-9.31786
ná	-9.31804
he	-9.31857
▁Athraigh	-9.31877
▁thagann	-9.31902
▁freagrach	-9.31966
fho	-9.32048
▁Ár	-9.32115
up	-9.32125
▁tuarascáil	-9.32159
▁Aibreán	-9.32218
▁X	-9.323
▁pé	-9.32366
net	-9.3237
mhar	-9.32372
tic	-9.32393
▁cha	-9.32396
▁snáithe	-9.32518
álta	-9.32613
▁chúis	-9.32651
mp	-9.32898
▁Tweetáil	-9.32912
mu	-9.32947
▁forbartha	-9.33164
▁léamh	-9.3317
▁o	-9.33275
▁v	-9.3331
▁fén	-9.33357
▁Pa	-9.33388
▁limistéar	-9.33488
▁léiriú	-9.33664
▁con	-9.33733
able	-9.33759
▁oideachais	-9.33776
▁lo	-9.33785
▁áitiúla	-9.33876
▁Bun	-9.33911
▁ionann	-9.33975
▁grá	-9.34184
▁saothair	-9.34303
▁cuir	-9.34356
tal	-9.3454
íoch	-9.34552
▁céim	-9.34558
ós	-9.34638
▁Scoil	-9.34675
▁thug	-9.34694
ja	-9.34695
▁gcomh	-9.347
▁ríomh	-9.34801
eis	-9.34818
ov	-9.34821
pp	-9.3497
▁Mo	-9.34983
▁Díle	-9.35143
▁etc	-9.35299
▁chugainn	-9.35457
▁2009	-9.35481
íní	-9.35592
▁cosanta	-9.35963
▁earnáil	-9.36122
▁iasacht	-9.3618
80	-9.36493
ráid	-9.36522
ow	-9.36547
▁Mór	-9.36583
▁mhéadú	-9.36591
▁thugann	-9.36721
par	-9.36782
▁trealamh	-9.36791
▁oibriú	-9.36802
▁ról	-9.36807
áit	-9.36942
▁tugadh	-9.3696
▁óga	-9.37064
ight	-9.37122
ama	-9.3723
tin	-9.37451
▁iar	-9.376
▁cosaint	-9.37642
▁2.	-9.37653
óin	-9.37667
niú	-9.37688
▁faoina	-9.37712
ara	-9.38
▁fhoirm	-9.38041
▁Cho	-9.38144
eolas	-9.38262
▁cion	-9.38356
▁fáth	-9.38365
achtaí	-9.38401
▁rún	-9.38406
▁dháta	-9.38412
▁Feabhra	-9.38414
Tá	-9.38418
▁stair	-9.38503
▁teideal	-9.38656
▁réidh	-9.38677
▁ng	-9.38719
▁2011	-9.38868
▁meas	-9.38967
▁stíl	-9.38976
ora	-9.3898
▁Físeáin	-9.38999
▁crua	-9.3913
▁lae	-9.39256
ver	-9.39307
▁foirm	-9.39465
lac	-9.39511
▁phobal	-9.39515
▁fuair	-9.39685
▁po	-9.39733
úl	-9.39769
mb	-9.40033
▁Ealaíon	-9.40514
▁tuairisc	-9.40556
▁bhaile	-9.40621
▁ráiteas	-9.4073
▁ghnó	-9.40861
▁Chuid	-9.40899
▁fola	-9.40989
ai	-9.41065
▁phoiblí	-9.4108
mobi	-9.41112
▁ndéantar	-9.41256
▁Ta	-9.41303
cho	-9.41398
▁dochar	-9.41429
▁spraoi	-9.41608
rian	-9.41659
▁iompar	-9.41711
▁Ríocht	-9.4176
▁(6)	-9.41793
▁Fo	-9.41842
IT	-9.41959
eat	-9.4197
▁álainn	-9.41977
ual	-9.42004
ád	-9.42153
min	-9.42154
▁Seirbhísí	-9.42189
RA	-9.42205
ct	-9.42249
aimseartha	-9.42269
ainneoin	-9.42315
gan	-9.42349
▁leanúnach	-9.42506
▁ullmhú	-9.42564
▁100	-9.42802
▁neart	-9.42847
ada	-9.42893
▁scileanna	-9.42982
▁phríomh	-9.43032
▁Im	-9.43046
racha	-9.43139
▁dáileoir	-9.43213
▁roghanna	-9.43238
▁San	-9.43258
É	-9.43299
▁leathan	-9.43352
▁Tu	-9.43359
▁Líne	-9.43391
▁sl	-9.43433
▁ré	-9.43483
▁gcomhair	-9.43531
Déanfaidh	-9.43544
▁Aib	-9.43634
car	-9.43636
▁Cl	-9.43842
▁Taispeáin	-9.43925
▁Lún	-9.43928
org	-9.43943
pho	-9.43981
▁Su	-9.44095
▁gnáth	-9.44103
▁Rialacháin	-9.44113
▁Chu	-9.44264
▁mBan	-9.44275
▁Ná	-9.44559
▁Choimisiún	-9.44649
▁agam	-9.4471
▁údaráis	-9.44753
▁nár	-9.45003
▁dteagmháil	-9.45013
▁sonraithe	-9.45027
▁Roimh	-9.45065
21	-9.45131
aoin	-9.45229
▁thógáil	-9.45234
▁treoir	-9.4525
iarr	-9.4537
▁mion	-9.4539
cal	-9.4557
▁frith	-9.45599
▁méadú	-9.45623
nú	-9.45698
ala	-9.45733
úirt	-9.46033
óis	-9.46054
▁seach	-9.46279
▁chomhalta	-9.46281
▁dár	-9.46569
imp	-9.46655
▁dóigh	-9.46721
▁páistí	-9.46728
▁fhágáil	-9.46853
▁mbíonn	-9.46904
▁riamh	-9.47041
▁láidir	-9.47071
char	-9.4712
In	-9.47165
▁Gr	-9.47179
▁gnéithe	-9.47284
▁lámh	-9.47284
▁bogearraí	-9.47415
▁cuma	-9.47542
tú	-9.47546
▁cúram	-9.476
▁Phríomh	-9.47601
▁cén	-9.47629
aird	-9.47647
▁eis	-9.47762
▁fuinnimh	-9.47786
365.	-9.47787
oibreoir	-9.47823
Ar	-9.47831
▁tíre	-9.4819
▁cionn	-9.48198
▁leabhar	-9.48305
%	-9.48309
▁scaireanna	-9.48373
0%	-9.48417
▁MFómh	-9.48427
ve	-9.48581
▁mac	-9.48596
ack	-9.48637
▁beo	-9.48685
▁cóip	-9.48717
▁deiridh	-9.48729
ance	-9.48773
▁doiciméad	-9.48784
tair	-9.48792
▁Al	-9.48804
tu	-9.49091
▁meáchan	-9.49106
▁údaraithe	-9.49147
▁k	-9.49222
dy	-9.49449
▁iompair	-9.49461
▁cumhachta	-9.49488
▁Fáilte	-9.49518
▁Ina	-9.49529
ci	-9.49553
▁Poiblí	-9.49678
▁cheangal	-9.49678
▁toiliú	-9.49691
▁Bre	-9.49704
▁bhailiú	-9.49726
aol	-9.49733
▁he	-9.4982
▁fu	-9.49853
▁Ath	-9.50035
▁Éire	-9.50118
▁brath	-9.50148
Fómh	-9.50218
▁Electronics	-9.50253
▁cumas	-9.50281
▁Údarás	-9.50387
tóirí	-9.50436
▁cheap	-9.50443
▁chéanna	-9.50445
iar	-9.50472
▁50	-9.50566
23	-9.50579
iche	-9.50591
ki	-9.50632
▁bhua	-9.50697
▁Samh	-9.50747
▁athbhreithniú	-9.50912
own	-9.50946
▁Bainfi	-9.50948
du	-9.50957
▁beartaithe	-9.51052
tra	-9.51071
abhra	-9.51313
▁páirteach	-9.5152
▁gclár	-9.51648
po	-9.51683
reo	-9.51684
▁aidhm	-9.51849
▁bhráid	-9.51852
▁reachtaíocht	-9.51871
▁Déantar	-9.51899
▁ball	-9.51916
▁foirne	-9.51997
▁Dlí	-9.52049
leacht	-9.52168
▁Tú	-9.52169
▁lasmuigh	-9.52192
▁Freagra	-9.52193
▁hAchtanna	-9.52389
▁scrúdú	-9.52538
▁chluiche	-9.52585
▁áfach	-9.52586
▁Cathrach	-9.52789
▁struchtúr	-9.52812
▁Seol	-9.52872
▁fhógra	-9.53177
▁Áitiúil	-9.53188
▁Ollscoil	-9.53375
▁la	-9.5341
vers	-9.53437
▁leasa	-9.53483
by	-9.53491
IR	-9.53553
▁li	-9.53573
ili	-9.53609
▁2010	-9.53655
fr	-9.53733
,000	-9.53799
▁téacs	-9.53886
rit	-9.53914
gra	-9.53921
bra	-9.53971
▁Sóisialta	-9.53971
▁coitianta	-9.54171
▁neamhspleách	-9.54171
▁costas	-9.5418
les	-9.54218
▁luaithe	-9.54265
▁Léir	-9.54276
▁cód	-9.54365
▁Trádála	-9.54371
▁Y	-9.54418
▁Po	-9.54444
▁Forbartha	-9.54571
iz	-9.54669
▁ord	-9.5486
▁gcuideachta	-9.54941
ria	-9.54964
▁feabhas	-9.54973
▁fostaíochta	-9.55117
álacha	-9.55234
nu	-9.55262
ound	-9.5533
▁Rialtas	-9.55385
▁féadfar	-9.55592
▁measfar	-9.55618
▁Gaillimhe	-9.55763
ence	-9.55779
▁breis	-9.55796
▁brú	-9.55816
▁Lúnasa	-9.55987
▁fás	-9.56025
▁post	-9.56201
chtaí	-9.56378
▁réimsí	-9.56396
▁Leanaí	-9.56516
▁dom	-9.56536
▁éifeachtach	-9.56583
▁cúnamh	-9.56598
▁ceallraí	-9.56622
▁chuirtear	-9.56652
▁smaoineamh	-9.56804
▁seachtaine	-9.56894
▁tacaíochta	-9.56918
lan	-9.56923
asta	-9.56993
▁blianta	-9.57008
▁comhaltaí	-9.57026
▁togra	-9.57035
▁gcomhairle	-9.57101
▁mBallstát	-9.57214
▁próiseas	-9.57214
▁bhfoirm	-9.57214
aibh	-9.57452
▁glan	-9.57463
▁uirthi	-9.57626
ER	-9.57641
▁Samhain	-9.57668
ans	-9.57697
▁feidhmeanna	-9.57854
lean	-9.57927
aca	-9.57952
▁saoire	-9.5805
▁téarmaí	-9.58079
ey	-9.5811
rom	-9.58181
▁ligean	-9.58304
▁fir	-9.58312
▁tS	-9.58358
▁Car	-9.58362
▁sábháilte	-9.58383
▁hA	-9.58487
▁Dún	-9.58504
▁su	-9.58653
▁sean	-9.58681
ánach	-9.58774
▁lár	-9.58796
of	-9.58845
▁Príomh	-9.58893
nc	-9.58972
▁nósanna	-9.5907
ata	-9.59266
óga	-9.59266
▁phobail	-9.59295
▁talún	-9.59296
▁soláthraithe	-9.59505
▁thaispeáint	-9.59505
▁lua	-9.59653
▁taifead	-9.59716
▁ndearnadh	-9.59764
ofa	-9.59765
▁gruaige	-9.59784
▁SMS	-9.5979
90	-9.59826
king	-9.5986
▁gcion	-9.59923
▁3.	-9.59934
▁tháirgeadh	-9.59951
▁gléas	-9.60166
▁cúis	-9.60311
ód	-9.60312
bheart	-9.60313
▁meán	-9.60339
con	-9.60346
éas	-9.60348
aitheoir	-9.6039
sk	-9.60578
▁Leis	-9.60669
áistí	-9.60814
▁Mura	-9.60856
▁ola	-9.60935
▁Idirnáisiúnta	-9.60992
▁tosaigh	-9.60994
▁Che	-9.61016
▁ceadúnas	-9.61056
60	-9.61117
ff	-9.61173
▁tástála	-9.61185
SA	-9.61206
▁saincheaptha	-9.61206
fo	-9.61272
▁rialaithe	-9.61328
36	-9.61392
eolaíochta	-9.6159
va	-9.61604
▁taitneamh	-9.61635
ions	-9.61671
▁teach	-9.61677
ric	-9.61702
lena	-9.61757
TE	-9.6177
▁cuntas	-9.61835
▁kashtanka	-9.61851
▁faide	-9.61872
arra	-9.62025
▁tionscadal	-9.62067
▁teastáil	-9.6207
▁uimhir	-9.62086
▁fheidhmiú	-9.62153
oi	-9.62186
scoil	-9.62232
▁Ion	-9.62238
▁plé	-9.62316
▁Táirgí	-9.62506
▁Nollag	-9.62534
▁rialta	-9.62538
▁theannta	-9.62718
▁gníomh	-9.62724
lán	-9.62737
▁Leasú	-9.62841
ok	-9.62913
▁ngníomh	-9.62929
ort	-9.62935
▁Óga	-9.63
▁Ireland	-9.63109
▁ha	-9.63112
AS	-9.63149
▁grianghraif	-9.63154
▁seilbh	-9.63154
▁rátaí	-9.63209
▁spreagadh	-9.63222
▁bealach	-9.63373
▁bán	-9.63474
▁feidhmiú	-9.63489
▁Cha	-9.63517
▁bheas	-9.63522
ess	-9.63576
40	-9.63576
eolaíocht	-9.6363
▁fa	-9.63675
▁Baineann	-9.63686
▁anuas	-9.63766
▁suntasach	-9.63812
▁Eachtracha	-9.63817
av	-9.63892
ON	-9.6395
▁chéim	-9.63988
out	-9.63994
▁He	-9.63995
The	-9.64004
▁éag	-9.64015
ism	-9.64088
eath	-9.64175
▁Gnéas	-9.64285
▁Parlaimint	-9.64381
cuirfidh	-9.64411
uil	-9.6442
nithe	-9.64484
íl	-9.6451
neach	-9.64622
▁Leas	-9.64651
CC	-9.6469
▁Ionad	-9.64699
reach	-9.64726
▁2008	-9.64732
oga	-9.64774
lainne	-9.64782
RE	-9.64876
sha	-9.64916
▁II	-9.64959
▁Bhord	-9.64971
▁cheapadh	-9.65038
▁dubh	-9.6515
mharc	-9.65186
liant	-9.6519
▁siar	-9.6521
IL	-9.65224
uck	-9.65251
▁sha	-9.65277
▁milliún	-9.65364
ron	-9.6542
oireacht	-9.65441
mheas	-9.65454
▁rialachán	-9.65593
▁dtús	-9.65612
▁gníomhú	-9.65618
▁Cúirte	-9.65619
log	-9.65679
ah	-9.65716
▁cineálacha	-9.65754
tur	-9.65796
US	-9.65825
▁Trí	-9.65851
NA	-9.65851
▁damáiste	-9.66037
▁ceanglais	-9.66053
ánta	-9.66082
one	-9.66127
▁deiseanna	-9.66147
▁chó	-9.66193
earc	-9.66257
earraí	-9.66261
▁Déardaoin	-9.66262
▁bP	-9.66268
▁Féadfar	-9.66488
▁Gaillimh	-9.66509
ier	-9.66569
▁dhéanfar	-9.66675
▁cuirfea	-9.66691
ger	-9.66711
▁ndéanfaidh	-9.66714
lacht	-9.6674
tro	-9.66837
▁oscailte	-9.66866
▁oiread	-9.66942
▁cúrsaí	-9.6695
▁acmhainní	-9.67059
lin	-9.67063
▁foghlaim	-9.67168
▁gceart	-9.67188
▁Níor	-9.67271
▁gcur	-9.67342
aireacht	-9.67351
OR	-9.67548
▁Moncler	-9.67566
▁chaoi	-9.67778
▁deimhin	-9.67857
▁maoiniú	-9.67914
eáil	-9.67953
ko	-9.67958
ous	-9.68068
su	-9.68091
▁Or	-9.68098
si	-9.68116
▁scéal	-9.68169
▁mhéad	-9.68263
▁Vicipéid	-9.68312
lia	-9.68314
▁branda	-9.68333
ness	-9.68359
▁Sean	-9.68553
▁Seinn	-9.68827
▁éadaí	-9.68837
▁óg	-9.68866
▁ce	-9.68867
ros	-9.68938
idí	-9.68963
▁comhair	-9.68986
LA	-9.69
dá	-9.6914
▁dT	-9.69194
illeadh	-9.69221
▁Dara	-9.69236
▁dírithe	-9.69239
▁on	-9.69247
ev	-9.69286
ank	-9.69303
mon	-9.69319
aithfidh	-9.694
▁bhall	-9.69513
▁fostaithe	-9.69542
▁€1	-9.69631
▁ceaptha	-9.69749
▁fhoghlaim	-9.69803
éara	-9.69907
ús	-9.69934
▁NA	-9.70057
Is	-9.7015
▁gheobhaid	-9.7017
▁ceisteanna	-9.70201
▁leictreonach	-9.70405
bu	-9.70481
ghníomh	-9.70501
▁Seirbhís	-9.70566
04	-9.70645
▁Pe	-9.70667
▁Eo	-9.70682
65	-9.70737
Re	-9.70809
▁lenár	-9.70893
OS	-9.70947
▁cairde	-9.70992
Ú	-9.70995
chur	-9.71047
▁oíche	-9.71113
▁inmheánach	-9.71116
▁léas	-9.71119
▁video	-9.71257
AL	-9.71415
▁ioncam	-9.71478
eora	-9.71587
▁abairt	-9.71597
▁ócáid	-9.71611
▁chion	-9.71677
ina	-9.71779
31	-9.71785
▁tionscadail	-9.71825
ner	-9.72054
▁Dubh	-9.72066
aw	-9.7207
▁shocrú	-9.72183
03	-9.72216
09	-9.72268
▁Táimid	-9.72307
laigh	-9.72318
▁chosc	-9.7232
▁iontu	-9.72322
▁100%	-9.72358
▁measúnú	-9.72543
▁Uimhir	-9.72558
▁Choiste	-9.72578
07	-9.72601
oid	-9.72735
▁Chonradh	-9.72783
▁doiciméid	-9.72783
dú	-9.72787
▁comhaontú	-9.72792
▁Lo	-9.72916
▁Cliceáil	-9.73024
▁tí	-9.73028
▁fr	-9.73052
news	-9.73071
▁Bo	-9.73094
▁críoch	-9.73173
▁chead	-9.73187
chaighdeán	-9.73253
▁bpraghas	-9.73266
▁tuairim	-9.73269
TA	-9.73298
06	-9.73305
▁Cánach	-9.73314
▁oideachas	-9.73316
▁cláir	-9.7334
▁staid	-9.73475
▁tugtha	-9.73508
▁gníomhartha	-9.73537
▁Cruach	-9.73571
end	-9.73604
▁tseirbhís	-9.7362
ure	-9.73644
▁dromchla	-9.73751
airgead	-9.73834
33	-9.73838
▁líonra	-9.73872
▁feiceáil	-9.73997
▁leighis	-9.74034
chair	-9.74064
08	-9.74075
▁Béarla	-9.74146
ock	-9.74191
▁comhlachtaí	-9.74193
▁oiliúna	-9.7423
illte	-9.74311
▁líonadh	-9.74358
▁Con	-9.74393
▁gceann	-9.74419
cair	-9.74465
▁bhféadfadh	-9.74482
fhiosrúchán	-9.74485
▁spás	-9.74533
uc	-9.74552
▁clárú	-9.74562
▁gcásanna	-9.74655
naigh	-9.74661
▁pobail	-9.74728
▁ceithre	-9.74791
▁Cuid	-9.74884
▁stiúir	-9.74988
aga	-9.75093
othar	-9.75125
▁ghairm	-9.75207
▁caillteanas	-9.75219
▁seasamh	-9.7522
ture	-9.75294
▁teaghlaigh	-9.75466
▁Scileanna	-9.75467
▁Mórdhíol	-9.75469
léi	-9.7562
▁tharraingt	-9.75734
▁shlí	-9.75769
ug	-9.75785
▁Tuarascáil	-9.75831
▁beartais	-9.75853
▁caite	-9.75912
▁tuiscint	-9.75968
aimh	-9.76053
▁oscailt	-9.76157
▁sampla	-9.76177
▁cúpla	-9.76211
▁mórdhíola	-9.76211
ore	-9.76226
▁ainmnithe	-9.76243
Moncler	-9.76274
75	-9.76373
▁Déagóirí	-9.7646
▁2007	-9.76499
▁teocht	-9.7653
iall	-9.76598
▁tóir	-9.76631
200	-9.76644
chan	-9.76703
fhéadfaí	-9.7671
▁gabháil	-9.76715
ocha	-9.76853
ST	-9.76897
39	-9.76898
▁bhearta	-9.76915
▁uait	-9.76941
▁chatagóir	-9.76961
▁ceamara	-9.76962
▁beaga	-9.77017
Ó	-9.77032
anda	-9.77059
▁réasúnach	-9.77106
▁thairiscint	-9.77212
▁thuas	-9.77249
▁Factory	-9.77464
bal	-9.77527
FC	-9.7753
▁solas	-9.77538
▁Táirge	-9.77758
▁oifigiúil	-9.77771
▁iniúchadh	-9.7784
▁bhF	-9.77858
):	-9.77872
fheidhmiú	-9.77883
▁ollmhór	-9.7797
▁amuigh	-9.77975
lic	-9.78102
▁déag	-9.78104
aíochtaí	-9.78164
▁teicneolaíocht	-9.78191
▁infheidhme	-9.78231
▁tharlaíonn	-9.78305
▁fios	-9.78329
gen	-9.78329
olta	-9.78384
▁eagraíocht	-9.78416
chlár	-9.78421
▁achomharc	-9.78432
▁Noll	-9.78451
Le	-9.78459
▁dearg	-9.78481
▁Súil	-9.78506
02	-9.7859
▁liúntas	-9.78628
▁monarcha	-9.78734
▁múinteoirí	-9.78746
▁As	-9.78752
▁bhreise	-9.78828
pl	-9.7888
▁buan	-9.78899
easc	-9.78927
▁mhargadh	-9.78973
pi	-9.79058
▁Pro	-9.79079
oireachta	-9.79115
▁gcomhar	-9.79134
▁slí	-9.79146
tabharfaidh	-9.79178
55	-9.79233
▁ngleic	-9.79245
▁(7)	-9.79256
▁gearr	-9.79326
▁nuacht	-9.79354
▁cheist	-9.79378
ky	-9.79545
othair	-9.79547
aoi	-9.79554
▁Theas	-9.79558
▁ghearradh	-9.79565
UN	-9.79614
EA	-9.79631
▁mhaoin	-9.79631
▁ghrúpa	-9.79696
▁ndaoine	-9.7976
▁fhaigheann	-9.7976
▁mhaithe	-9.79822
▁chríoch	-9.79872
iii	-9.79876
ou	-9.79941
▁Céadaoin	-9.80019
▁ionstraim	-9.80021
▁gcuirfea	-9.80039
uisce	-9.8011
isiún	-9.80124
▁slán	-9.80177
▁Lu	-9.8022
nta	-9.80263
▁dearmad	-9.80278
lon	-9.80279
▁flash	-9.80281
▁pro	-9.80287
▁Sho	-9.80418
▁pictiúir	-9.80537
▁pornhub	-9.80538
▁dhó	-9.80559
▁Ru	-9.80608
chu	-9.80618
AT	-9.80634
ól	-9.8067
au	-9.80718
eachtaí	-9.80778
▁Choimisiúin	-9.80798
▁Dia	-9.80862
▁Gan	-9.80872
ft	-9.80908
▁ghníomh	-9.80958
▁Feidhm	-9.80982
▁Siar	-9.80984
▁bua	-9.80997
▁léiríonn	-9.81005
05	-9.81011
▁trína	-9.81011
ult	-9.81053
▁phróiseáil	-9.81059
▁staidéar	-9.81079
▁láimh	-9.81085
▁Fu	-9.81192
▁Cás	-9.81202
itheoirí	-9.81298
▁dtáirgí	-9.8132
▁trádáil	-9.81321
uk	-9.81357
ary	-9.81498
amar	-9.81599
▁eacnamaíoch	-9.81601
▁chorp	-9.81653
vo	-9.81734
▁gl	-9.81738
▁Ceann	-9.81764
jo	-9.81791
ker	-9.81826
▁tairiscint	-9.81846
▁uathúil	-9.81846
éirigh	-9.81898
▁aistrithe	-9.82103
▁grianghraf	-9.8211
▁foirfe	-9.8211
▁mhodh	-9.82121
dia	-9.82185
cu	-9.82406
▁cruinniú	-9.82441
Co	-9.82454
▁fón	-9.82473
PS	-9.8249
▁éisteachta	-9.82547
0,000	-9.82553
▁ham	-9.8257
▁parlaiminteach	-9.82641
▁cumhacht	-9.82672
▁tré	-9.82761
▁mic	-9.82762
▁cuidiú	-9.82898
▁príobháideach	-9.82899
48	-9.82901
▁todhchaí	-9.82907
▁beagnach	-9.8294
▁acmhainn	-9.82953
38	-9.82991
▁luas	-9.831
ik	-9.83138
▁gcóras	-9.83181
oibrithe	-9.83339
▁bhreis	-9.83341
▁cuspóirí	-9.83513
cra	-9.83547
▁So	-9.83581
▁páirtithe	-9.83624
▁riaracháin	-9.83714
olún	-9.83741
▁héasca	-9.83747
ainéal	-9.83867
St	-9.83885
over	-9.83958
▁adhmaid	-9.83979
SE	-9.84099
35	-9.84153
eolaíoch	-9.84178
▁uathoibríoch	-9.84246
namh	-9.84382
37	-9.8443
26	-9.84465
san	-9.84516
CA	-9.84533
▁Fe	-9.84558
fi	-9.84623
AD	-9.8463
▁Oidhreachta	-9.84641
▁háit	-9.84723
▁araon	-9.84882
▁fuaime	-9.84943
ál	-9.85054
IO	-9.85057
MA	-9.85059
▁leibhéil	-9.8506
▁orainn	-9.8507
▁oiliúint	-9.85205
▁Seirbhíse	-9.85225
bar	-9.85242
trí	-9.85248
▁No	-9.85257
▁infheistíochta	-9.8526
▁théann	-9.85332
▁Ábhar	-9.85345
▁Am	-9.85383
▁thugtar	-9.85397
▁mothú	-9.85416
ES	-9.85462
ys	-9.85475
ull	-9.85479
ize	-9.85513
▁stoc	-9.85529
▁lámha	-9.85531
▁pe	-9.85578
▁Dhún	-9.85606
arm	-9.85677
▁móra	-9.85684
itheoir	-9.85709
oibriú	-9.85784
▁Roinne	-9.85784
▁cáin	-9.85929
ings	-9.86031
▁Síne	-9.86089
▁éisteacht	-9.86111
▁Éabhlóid	-9.86154
▁Chontae	-9.86154
▁labhairt	-9.86154
▁áitreabh	-9.86325
▁páirtí	-9.8633
▁fhoráil	-9.86367
▁timpeallacht	-9.86415
▁ioncaim	-9.86429
har	-9.86446
▁nGall	-9.86462
▁tráchtála	-9.86466
▁húdaráis	-9.86474
▁mheán	-9.86518
▁gairmiúla	-9.86583
▁ísle	-9.86711
▁daltaí	-9.86825
▁gáis	-9.86829
▁grúpa	-9.8686
▁chóras	-9.8686
Oifig	-9.86936
▁sperm	-9.86983
osc	-9.87152
▁scoir	-9.87172
▁Bille	-9.87313
▁straitéis	-9.87395
qu	-9.87433
itheach	-9.87439
ráma	-9.87574
▁dócha	-9.8758
▁Institiúid	-9.8759
▁Chlár	-9.87595
AC	-9.87601
únta	-9.87755
▁baile	-9.8776
▁Plean	-9.87813
▁miotail	-9.87818
▁friotaíocht	-9.87818
Roghchlár	-9.87818
77	-9.8787
▁mm	-9.87871
▁Bia	-9.87897
▁Cláraigh	-9.87935
ms	-9.8797
▁Ciste	-9.87989
▁modhanna	-9.88008
▁caighdeáin	-9.88098
▁Mac	-9.88155
▁Stiúrthóir	-9.88159
tá	-9.88227
▁bosca	-9.88326
ID	-9.88393
íochtaí	-9.8845
▁fheidhm	-9.88458
▁hordú	-9.88472
ond	-9.88504
wa	-9.8853
-20	-9.88623
eit	-9.88676
▁sochair	-9.88701
ec	-9.8875
erv	-9.88861
thu	-9.88879
▁Tits	-9.8895
▁fadhbanna	-9.88974
▁déantar	-9.88978
adóir	-9.89021
▁Céim	-9.89026
▁eagraíochtaí	-9.89096
▁shain	-9.89163
bi	-9.89195
rio	-9.89246
▁roth	-9.89256
luais	-9.89284
▁Tabharfa	-9.89285
▁Oibre	-9.89434
▁deartha	-9.89503
▁bás	-9.89556
lian	-9.89665
▁Alt	-9.89668
AI	-9.8971
▁sheachaint	-9.89796
▁sreang	-9.89796
áite	-9.8983
gar	-9.89921
▁Rial	-9.8998
▁socrú	-9.89984
▁comhionann	-9.90084
my	-9.90092
▁timpeall	-9.90096
▁sonrach	-9.90153
▁iarrthóir	-9.90274
pol	-9.90284
ya	-9.90289
gl	-9.90302
▁sheol	-9.90344
▁difríocht	-9.90368
▁Ballstát	-9.90369
46	-9.90403
ress	-9.90407
▁asal	-9.90531
ace	-9.90655
ionad	-9.90705
úradh	-9.90762
▁comhaid	-9.90781
▁mhalairt	-9.90943
▁laethanta	-9.90946
▁gar	-9.90958
agann	-9.90991
▁40	-9.90991
Sh	-9.91006
▁scéalta	-9.91014
▁míreanna	-9.91118
▁hearraí	-9.91141
▁sprioc	-9.91145
▁Tabhair	-9.91155
▁té	-9.91168
ios	-9.91213
tor	-9.91241
▁toradh	-9.91241
▁socruithe	-9.91247
▁traidisiúnta	-9.91253
▁leictreach	-9.91325
▁chóipeáil	-9.91393
isiúin	-9.91458
▁sholáthr	-9.9149
▁teorainn	-9.91497
▁Eorpacha	-9.91515
▁chustaiméirí	-9.91522
▁farraige	-9.91522
▁forleathan	-9.91522
▁baill	-9.9154
▁theacht	-9.9158
ps	-9.9161
▁chúirt	-9.91653
▁%	-9.91655
▁cásanna	-9.91687
▁tiomanta	-9.91813
▁aithint	-9.91818
▁shonraítear	-9.9185
tv	-9.91877
líonta	-9.92053
SS	-9.9209
▁tionscal	-9.92104
▁lonnaithe	-9.92105
▁nochtadh	-9.92106
▁mBord	-9.92144
▁luaitear	-9.92166
▁fhoireann	-9.92309
▁Oideachas	-9.92397
▁spóirt	-9.92397
CUID	-9.924
▁tástáil	-9.92401
oibrí	-9.92407
(2)	-9.92457
▁pleanála	-9.92495
mat	-9.92522
díol	-9.92568
rk	-9.92694
▁gairmiúil	-9.92709
▁”	-9.92713
▁fuar	-9.92961
▁oifige	-9.92973
▁Straitéis	-9.92978
▁aimsiú	-9.92984
▁Gu	-9.93154
72	-9.93156
ionta	-9.93171
▁foráil	-9.93185
los	-9.93194
▁céad	-9.93198
▁ranníoc	-9.93238
ink	-9.93243
▁íocaíochtaí	-9.93301
iteach	-9.9331
45	-9.93319
gal	-9.93322
ionn	-9.93341
▁cailíní	-9.93377
▁teasa	-9.93425
RO	-9.93429
▁Fho	-9.93474
▁plaisteach	-9.93575
▁sábháilteachta	-9.93596
▁cúirte	-9.93601
lt	-9.93657
iot	-9.93673
▁dúirt	-9.93753
▁Air	-9.93763
act	-9.93779
illí	-9.93838
▁Act	-9.93858
▁tagairtí	-9.93867
▁bord	-9.93872
▁Bhoird	-9.93872
▁leabhair	-9.9391
▁himeachtaí	-9.93976
▁cruth	-9.94009
af	-9.94117
▁taispeáint	-9.94169
▁Monarcha	-9.94169
▁gluaiseacht	-9.9417
▁lig	-9.94171
▁éifeachtaí	-9.94215
eng	-9.94216
42	-9.94302
▁seachtain	-9.94332
▁inár	-9.94395
▁Euro	-9.94415
▁ngair	-9.94442
▁cáilithe	-9.94471
▁cheadú	-9.94493
cre	-9.94541
ilín	-9.94542
▁bonn	-9.94782
Uimh	-9.94815
oideachais	-9.94841
▁ainmhithe	-9.94876
oifig	-9.94983
luach	-9.94984
▁Gréasáin	-9.95068
▁ndóigh	-9.95068
▁Dúin	-9.95096
▁scríobh	-9.95101
▁níor	-9.95112
oifigeach	-9.95187
▁iontaofa	-9.95208
."	-9.9528
▁cailín	-9.95283
▁trácht	-9.95293
EC	-9.95376
▁Eolas	-9.95386
▁lárnach	-9.95393
Mar	-9.95396
for	-9.95538
▁Gnó	-9.95574
▁shu	-9.95579
▁.—	-9.95599
az	-9.95616
▁óir	-9.95657
▁slándála	-9.95671
▁eisiúint	-9.95685
▁chomhaontú	-9.95701
000	-9.95709
28	-9.95715
▁poist	-9.95749
je	-9.95911
▁Speisialta	-9.95974
▁Síochána	-9.95974
▁phróiseas	-9.95974
▁thréimhse	-9.95999
▁réitigh	-9.96202
▁shonraí	-9.96211
den	-9.96417
▁Nuacht	-9.96425
▁fl	-9.96445
LE	-9.9651
▁moltaí	-9.96582
▁cliceáil	-9.96583
▁fianaise	-9.96583
▁uaireadóirí	-9.96583
vel	-9.96622
tos	-9.96715
▁gníomhach	-9.96821
▁gné	-9.9685
cuirtear	-9.96885
▁tsórt	-9.96889
▁gCuid	-9.96898
▁leathnú	-9.96908
▁Leasa	-9.96934
nas	-9.97001
que	-9.97089
▁stóráil	-9.97119
▁mbealach	-9.97195
▁New	-9.9732
roinnt	-9.97358
cc	-9.9746
▁bhainistiú	-9.97503
▁foireann	-9.97504
▁Déantóirí	-9.97539
▁bhean	-9.97546
▁CO	-9.97558
44	-9.97606
▁íocaíochta	-9.97624
▁tosaíocht	-9.97652
orálacha	-9.97667
eagar	-9.97752
▁2006	-9.97861
áirt	-9.97912
▁samplaí	-9.98001
▁Aibí	-9.98022
▁shaol	-9.98039
eála	-9.98053
▁links	-9.98121
▁Foirm	-9.98124
▁she	-9.98274
▁shábháil	-9.98285
agus	-9.98313
▁fó	-9.98322
▁choinníoll	-9.98347
CO	-9.98367
▁tairbhe	-9.98432
MH	-9.98442
▁cáilíocht	-9.98444
66	-9.98591
▁ghabháil	-9.98621
ET	-9.98671
chas	-9.98672
fhoils	-9.98726
▁tuairimí	-9.9874
▁compordach	-9.98743
iompar	-9.98913
iúlacht	-9.98943
CH	-9.98983
▁úr	-9.98995
58	-9.99008
▁Barr	-9.99026
▁Hardcore	-9.99056
▁coimeád	-9.99056
▁Tags	-9.99061
70	-9.99077
▁OÉ	-9.99117
▁Sraith	-9.992
▁leithéid	-9.99221
taobh	-9.99309
▁éirí	-9.99315
▁€2	-9.99359
▁teagmhála	-9.99369
▁próiseála	-9.9937
ted	-9.99382
▁iarr	-9.99411
▁cónaithe	-9.99428
▁fuck	-9.99432
▁córais	-9.99452
▁dtreo	-9.99526
ons	-9.99542
▁cuspóir	-9.99597
▁bainte	-9.99675
▁riachtanas	-9.99684
▁domhanda	-9.99735
▁comhar	-9.99742
▁deich	-9.99821
aistriú	-9.99829
59	-9.99854
▁stát	-9.99866
álaí	-9.99971
▁focail	-10
▁saothar	-10.0001
éag	-10.0002
▁turas	-10.0004
▁áiteanna	-10.0006
▁beart	-10.0009
▁dathanna	-10.0019
47	-10.0021
▁Teanga	-10.0029
▁Ainm	-10.0033
▁cónaí	-10.0034
SP	-10.0036
▁hábhair	-10.0043
▁Uisce	-10.0066
▁Oifigiúil	-10.0074
▁bain	-10.0076
▁ndéanann	-10.0076
▁nG	-10.0086
▁buntáistí	-10.0095
▁rang	-10.0096
▁phearsanta	-10.0096
99	-10.0097
asach	-10.01
éigean	-10.0106
ghabháil	-10.0109
naí	-10.0113
osca	-10.0115
▁Fostaíochta	-10.0117
▁réasúnta	-10.0123
▁caitheamh	-10.0128
▁Fearr	-10.0128
▁scriosadh	-10.0134
▁rannpháirtíocht	-10.0138
▁dhíth	-10.0147
100	-10.0152
▁taisce	-10.0155
▁Praghas	-10.0159
▁sheachadadh	-10.0159
▁gearán	-10.0159
▁iasc	-10.0162
▁tharla	-10.0164
▁thosaigh	-10.0166
▁ex	-10.0166
78	-10.0168
airgeadraí	-10.0168
▁réigiún	-10.0169
▁tuismitheoirí	-10.0174
▁caithfidh	-10.0179
han	-10.0181
▁Leab	-10.0185
▁sibhialta	-10.0191
▁Pobail	-10.0191
▁déileáil	-10.0191
uas	-10.0193
▁spéis	-10.0195
▁cháin	-10.02
32	-10.0207
▁tháirgí	-10.0208
▁dleacht	-10.0209
less	-10.0212
▁tÚdarás	-10.0227
▁gcuirtear	-10.0228
▁un	-10.0245
▁Faisnéise	-10.0248
▁chearta	-10.0251
▁AN	-10.0256
▁Meaisín	-10.0256
▁Ltd	-10.0256
▁Gael	-10.0261
▁cathracha	-10.0262
AP	-10.0268
500	-10.0269
▁aitheanta	-10.0282
tter	-10.0283
phost	-10.0286
▁bliantúil	-10.0288
▁Black	-10.0288
▁athruithe	-10.0288
▁aisíoc	-10.0289
▁Réigiún	-10.0291
▁ardchaighdeán	-10.0293
▁bunaíodh	-10.0294
tan	-10.0297
▁Ri	-10.0299
▁thóg	-10.0302
IA	-10.0312
her	-10.0317
▁Thosaitheoirí	-10.0321
▁bpróifíl	-10.0321
▁hAoine	-10.0321
▁Taighde	-10.0321
▁úinéir	-10.0325
PE	-10.0327
▁2003	-10.0327
fheidhm	-10.0331
▁Aisce	-10.0335
táil	-10.0355
isce	-10.0357
▁plandaí	-10.0386
▁muirear	-10.0389
▁inbhuanaithe	-10.0397
▁margaí	-10.0399
▁dheon	-10.0401
II	-10.0402
▁siopa	-10.0412
▁triail	-10.0416
▁faighte	-10.0421
TH	-10.0428
▁chomhlacht	-10.0428
ireacht	-10.0428
▁Phen	-10.0437
lamh	-10.0441
▁tosú	-10.0453
▁fág	-10.0479
▁foghlama	-10.0485
gg	-10.0492
ike	-10.0495
▁fhad	-10.0496
▁úsáideann	-10.0503
▁táimid	-10.051
▁4.	-10.0511
▁Idir	-10.0517
▁Astráil	-10.0519
▁chothabháil	-10.0519
▁Google	-10.0519
▁thuilleadh	-10.0519
▁spreag	-10.0539
▁smaointe	-10.0544
lár	-10.0549
▁ceol	-10.0559
▁cheantar	-10.0563
men	-10.0571
74	-10.0579
▁dhlí	-10.0579
ino	-10.0579
▁táille	-10.058
▁phraghas	-10.0581
▁Suíomh	-10.0585
▁Video	-10.0586
▁fhoilsiú	-10.0586
▁droch	-10.0588
▁pointe	-10.0589
abhar	-10.0601
▁phost	-10.0607
▁Cabhair	-10.0618
▁shóisialta	-10.0619
▁Chosaint	-10.0619
▁Dollar	-10.0619
▁gúna	-10.062
▁beatha	-10.0621
▁mhic	-10.0628
laí	-10.0629
▁fíneáil	-10.0653
▁soláthróirí	-10.0653
ette	-10.0673
lag	-10.0679
▁institiúidí	-10.0682
▁roghna	-10.0691
fhostaíocht	-10.0693
▁Jackets	-10.072
▁reáchtáil	-10.072
▁shuiteáil	-10.072
▁hamháin	-10.072
easún	-10.0728
abhraíonn	-10.073
igi	-10.0735
athrú	-10.0737
chuir	-10.0748
oideachas	-10.0748
apa	-10.0749
▁Tra	-10.0751
Uni	-10.0751
▁ardú	-10.0753
▁Daoine	-10.0754
CP	-10.0758
aitheoirí	-10.0762
PA	-10.0763
ren	-10.0763
▁plean	-10.0779
▁cíos	-10.0779
OL	-10.0782
▁cos	-10.0786
▁dheireadh	-10.0789
▁ndéanamh	-10.0789
▁bunú	-10.079
▁orduithe	-10.0793
▁bheag	-10.0794
▁teas	-10.0798
▁éagsúlacht	-10.0806
▁Hot	-10.0812
oma	-10.0814
aireachta	-10.0814
▁Forbairt	-10.0823
official	-10.0824
▁@1	-10.0827
EI	-10.0828
▁Chéad	-10.0832
▁blas	-10.0833
léas	-10.0835
▁phlean	-10.0839
▁dearbhú	-10.084
oy	-10.0842
▁táillí	-10.0844
líne	-10.0868
éifeacht	-10.0872
▁árachais	-10.0872
way	-10.0874
▁difriúil	-10.0892
▁gloine	-10.0892
údar	-10.0899
▁maoin	-10.0918
▁bíodh	-10.0925
ME	-10.0925
▁Thuaidh	-10.0926
ven	-10.0927
▁Cons	-10.0935
▁sho	-10.0941
▁digiteach	-10.0961
táin	-10.0962
MS	-10.0966
▁cinntí	-10.0972
▁leathanaigh	-10.0973
▁chreid	-10.0979
▁cor	-10.0979
tacht	-10.0984
▁News	-10.1001
▁Talmhaíochta	-10.1007
pla	-10.1009
mhara	-10.1012
ful	-10.1016
láin	-10.102
thóir	-10.1026
▁tiomána	-10.1031
▁tionscail	-10.1031
▁cuntais	-10.1031
▁contae	-10.1031
war	-10.1032
▁choiste	-10.1033
▁fóill	-10.1035
▁dlite	-10.1036
uth	-10.1039
▁seacht	-10.1059
DA	-10.106
ave	-10.1061
▁rath	-10.1061
▁riosca	-10.1065
intí	-10.1065
▁bpróiseas	-10.1066
▁Tugtar	-10.1066
▁teoranta	-10.1066
▁ghnóthú	-10.1066
▁caiteachas	-10.1067
68	-10.1068
▁imní	-10.107
ímid	-10.1072
▁bog	-10.1091
ix	-10.1091
▁Iris	-10.1094
áireamh	-10.1098
▁liathróid	-10.1101
▁tíotáiniam	-10.1101
▁cuideachtaí	-10.1102
gi	-10.1107
agairt	-10.1109
▁sábháilteacht	-10.1111
IC	-10.1114
▁Teach	-10.1115
▁cumhachtaí	-10.1118
sco	-10.1122
ghairm	-10.1125
AM	-10.1131
▁Threesome	-10.1136
▁thuairisc	-10.1136
ump	-10.1138
loc	-10.1144
q	-10.1145
▁infheistíocht	-10.1146
49	-10.1149
▁Cuideachta	-10.115
▁hiarratas	-10.1153
29	-10.1157
79	-10.1158
▁ceap	-10.1158
ley	-10.1168
line	-10.1171
▁meáchain	-10.1172
▁sheiceáil	-10.1172
▁Ráiteas	-10.1172
▁pacáiste	-10.1172
▁faisean	-10.1172
▁imeacht	-10.1173
▁neartú	-10.1173
▁Anois	-10.1173
▁cruinn	-10.1177
▁Seoladh	-10.1191
lucht	-10.1194
SC	-10.1195
▁ceist	-10.1201
▁rachaidh	-10.1208
pt	-10.121
▁thagairt	-10.1212
▁bean	-10.1223
▁Tóg	-10.124
▁Sin	-10.1241
▁bhforáiltear	-10.1243
▁chontae	-10.1243
▁fhadhb	-10.1243
CS	-10.1245
rios	-10.125
▁Il	-10.1256
rus	-10.1259
cas	-10.1265
▁cárta	-10.1275
▁English	-10.1279
▁taisteal	-10.1279
▁monatóireacht	-10.1279
▁críochnaithe	-10.128
▁teicneolaíochta	-10.1282
▁bpointe	-10.1283
▁gcruth	-10.1285
▁casta	-10.129
▁ainmniú	-10.1314
▁bpobal	-10.1315
lit	-10.1316
▁Mhuir	-10.1317
Uachtarán	-10.1317
▁méadar	-10.1322
ogha	-10.1323
pri	-10.1332
arna	-10.1348
▁mhonarcha	-10.1351
▁breá	-10.1351
ithre	-10.1351
▁leigheas	-10.1352
▁mBaile	-10.1352
▁Mi	-10.136
▁nglacfa	-10.1365
▁talmhaíochta	-10.1367
óireachta	-10.1367
▁mban	-10.1372
chain	-10.1385
▁Phoiblí	-10.1387
▁University	-10.1387
▁Play	-10.1388
óireacht	-10.1389
work	-10.1391
▁Bhr	-10.1391
luas	-10.1391
▁National	-10.1393
▁Bra	-10.1394
▁difear	-10.1395
▁rí	-10.1407
▁III	-10.1408
▁chláir	-10.1413
fí	-10.1413
-1	-10.1416
▁vóta	-10.1421
▁pinsin	-10.1424
Óglaigh	-10.1424
top	-10.1443
▁j	-10.1444
▁meáin	-10.1447
éirí	-10.1449
▁coiste	-10.1454
▁údar	-10.1455
▁pá	-10.1455
▁seal	-10.1456
ding	-10.1457
wi	-10.1459
▁thuras	-10.146
▁sealadach	-10.146
raic	-10.146
▁feirme	-10.1463
▁ghairmiúil	-10.1464
▁stáit	-10.1465
▁grúpaí	-10.1477
aimid	-10.1477
▁oibríocht	-10.1488
col	-10.1491
▁beagán	-10.1495
ham	-10.1497
▁ndéanfaí	-10.1497
▁dteannta	-10.1497
▁phlé	-10.1499
88	-10.15
▁sruth	-10.1502
▁oidhreacht	-10.1504
rug	-10.1508
▁Cum	-10.1511
red	-10.1511
85	-10.1518
inneall	-10.1518
ze	-10.1532
▁múnla	-10.1534
▁Tarraing	-10.1534
▁Iodáil	-10.1534
▁720	-10.1545
fort	-10.1549
▁deas	-10.1555
▁Spáinn	-10.1566
▁cúrsa	-10.1569
▁liúntais	-10.157
▁tsuim	-10.1571
▁sealbhóir	-10.1571
▁Ais	-10.1571
fhág	-10.1571
▁íoctha	-10.1574
▁Stair	-10.1584
fháil	-10.1589
▁nuálaíocht	-10.1589
ator	-10.1607
▁pinsean	-10.1607
▁tirim	-10.1609
▁strap	-10.1611
▁gCúirt	-10.1611
▁Cailíní	-10.1619
uin	-10.1622
De	-10.1633
▁Mheiriceá	-10.1638
ler	-10.164
▁60	-10.1642
▁éascú	-10.1645
▁nD	-10.1649
▁Clárú	-10.1651
tle	-10.1652
abha	-10.1655
▁saille	-10.1672
▁laghd	-10.1676
▁chos	-10.1677
lex	-10.1677
nia	-10.1679
▁uirlis	-10.1679
▁comhoiriúnacht	-10.1681
▁deireanach	-10.1682
▁pobal	-10.1683
adán	-10.1688
34	-10.1691
27	-10.17
▁ciontach	-10.1701
leabhar	-10.1707
54	-10.171
UK	-10.1717
▁pictiúr	-10.1719
▁fuarthas	-10.1719
▁Dearadh	-10.172
▁breith	-10.1723
▁scáth	-10.1726
▁beartas	-10.1726
▁chothú	-10.1726
chúis	-10.1728
▁Éireannach	-10.1728
row	-10.1731
ailís	-10.1738
▁ceadaithe	-10.1743
▁fhorálacha	-10.1744
▁incháilithe	-10.1744
ical	-10.1747
▁bealaí	-10.1757
▁(8)	-10.1759
faí	-10.176
▁orm	-10.1761
▁maoine	-10.1763
▁chuirfidh	-10.1766
▁scair	-10.1778
faimid	-10.1788
▁glas	-10.1788
▁long	-10.1801
qui	-10.1801
aithn	-10.1801
▁gcaoi	-10.1805
íocháin	-10.1808
56	-10.1815
▁béil	-10.1817
lainn	-10.1823
▁Chiste	-10.1829
▁ealaíne	-10.1833
▁laethúil	-10.1833
▁aeráide	-10.1833
▁linbh	-10.1833
▁éineacht	-10.1833
ruth	-10.1835
▁láimhe	-10.1857
insí	-10.1861
Caibidil	-10.1871
▁conradh	-10.1871
PDF	-10.1876
▁Leag	-10.1877
▁thiar	-10.1881
▁idirlín	-10.1884
úchán	-10.1886
5%	-10.1897
Chat	-10.1897
GA	-10.1901
▁sonracha	-10.1904
▁múinteoir	-10.1907
chánach	-10.1909
▁deacair	-10.191
▁Chearta	-10.191
▁macasamhail	-10.1912
▁chomhlachta	-10.1916
▁earra	-10.1918
▁scaoileadh	-10.192
▁tionscnamh	-10.1922
ealaíontóirí	-10.1928
▁scála	-10.1941
▁Crua	-10.1945
▁cabhair	-10.1946
▁stádas	-10.1947
▁láithreáin	-10.1947
▁rathúil	-10.195
▁Ansin	-10.1954
seachas	-10.1958
▁Jo	-10.1959
▁Mon	-10.196
éileamh	-10.1968
71	-10.1969
▁ghnótha	-10.1969
CT	-10.1971
teach	-10.1971
.00	-10.1973
kin	-10.1974
▁scéimeanna	-10.1975
graf	-10.1977
van	-10.198
líon	-10.1982
bas	-10.1982
▁taifid	-10.1986
▁Bónas	-10.1986
▁Mheán	-10.1986
▁uaireanta	-10.1986
▁Post	-10.1989
TS	-10.1989
▁príomha	-10.1991
scr	-10.1992
▁ló	-10.2
▁pháirt	-10.2008
▁Sol	-10.2011
▁Tras	-10.2014
▁sheirbhís	-10.2017
PR	-10.2017
52	-10.2018
low	-10.202
▁cóir	-10.2022
▁bhail	-10.2026
▁creat	-10.2028
▁Cineál	-10.2034
Leasú	-10.2036
acmhainn	-10.2036
64	-10.2041
ting	-10.2041
east	-10.205
▁2000	-10.205
57	-10.2057
▁thosach	-10.2063
real	-10.2069
43	-10.2076
íocaíocht	-10.2083
▁mil	-10.2083
laithe	-10.2083
▁Hu	-10.2084
oise	-10.2085
Al	-10.2085
▁Mhaigh	-10.2102
▁Gharda	-10.2102
▁cartlann	-10.2107
▁carr	-10.2118
und	-10.2125
▁Inter	-10.2127
▁páipéar	-10.2128
▁bainistíochta	-10.2134
▁treo	-10.2139
▁rannpháirteach	-10.2141
▁scoláirí	-10.2141
▁Coláiste	-10.2141
light	-10.2151
chead	-10.2152
▁céimeanna	-10.2152
iarrthóir	-10.2156
▁chúl	-10.216
▁Uachtarán	-10.2165
▁méideanna	-10.2167
▁comhlíonadh	-10.2184
ble	-10.2185
▁Cumann	-10.2191
▁dhe	-10.2196
odh	-10.2199
▁béim	-10.22
▁meascán	-10.221
fhostaithe	-10.2218
▁Breataine	-10.222
▁chiallaíonn	-10.222
▁tSeirbhís	-10.222
▁tseachtain	-10.222
▁Tuairisc	-10.222
▁Coimirce	-10.222
▁litir	-10.222
▁tosach	-10.2221
▁ráthaíocht	-10.2221
▁teorainneacha	-10.2223
uan	-10.2225
▁stáin	-10.2229
ium	-10.2234
▁Monaróirí	-10.2234
ax	-10.2237
tán	-10.2239
ánaigh	-10.2239
69	-10.225
▁foclóir	-10.2259
▁leithligh	-10.2259
▁dréacht	-10.2263
form	-10.2266
▁col	-10.2283
íocha	-10.2285
▁Ex	-10.2285
▁ndearna	-10.229
uid	-10.2295
ious	-10.2296
▁feithiclí	-10.2299
▁intinn	-10.2301
91	-10.2312
laíonn	-10.232
tóireacht	-10.232
▁scor	-10.2321
IM	-10.2331
iúir	-10.2337
adáin	-10.2338
val	-10.2346
rainn	-10.2361
idir	-10.2364
▁chathair	-10.2364
mor	-10.2367
▁rialtais	-10.2368
ks	-10.2373
▁údarú	-10.2377
▁cúraim	-10.2379
▁uiscedhíonach	-10.2379
▁Cultúir	-10.2379
▁Ghníomhaireacht	-10.2379
▁Iompair	-10.2381
▁srianta	-10.2383
wh	-10.2383
▁Oibr	-10.2396
▁géar	-10.2399
▁clo	-10.2405
▁euro	-10.2405
▁Eacnamaíoch	-10.241
▁mais	-10.2416
▁custaiméirí	-10.2419
▁scéime	-10.242
▁Cruth	-10.2422
▁Trá	-10.2429
83	-10.2431
▁creidmheasa	-10.2433
▁Tuaithe	-10.2436
▁dheonú	-10.2441
▁feidhmíocht	-10.2448
▁inti	-10.2451
53	-10.2455
▁reacht	-10.2459
▁Whats	-10.2459
▁clasaiceach	-10.2459
▁iarbhír	-10.2459
▁theastaíonn	-10.2459
▁thiontú	-10.2459
▁pearsa	-10.2459
▁Dearg	-10.246
úsáideoirí	-10.2472
▁charm	-10.2476
ioncam	-10.2478
DE	-10.2483
▁díospóireacht	-10.25
▁ghinearálta	-10.25
▁Íoslódáil	-10.25
za	-10.2511
▁Fostaíocht	-10.2512
▁2001	-10.2519
eck	-10.252
▁Banc	-10.2528
▁(1	-10.2533
84	-10.2538
▁tionsclaíoch	-10.254
▁bónas	-10.254
▁Fógra	-10.2541
▁gcríoch	-10.2542
▁Moms	-10.2542
álach	-10.2544
▁Díol	-10.2545
▁2005	-10.2547
▁2004	-10.2548
▁cúl	-10.255
▁chuaigh	-10.2559
sean	-10.2562
▁cháilíocht	-10.2567
▁ealaíon	-10.2568
scéal	-10.2569
▁eagrú	-10.257
▁oibríonn	-10.2574
mhéid	-10.2578
▁feithicle	-10.2581
▁gcoitinne	-10.2581
▁dearfach	-10.2581
▁éagsúil	-10.2581
▁coileach	-10.2581
▁sheirbhísí	-10.2583
▁fostóir	-10.2584
▁Roghnaigh	-10.2584
▁leasanna	-10.2589
álaithe	-10.259
▁inniúla	-10.2597
▁cumarsáide	-10.2602
▁Tír	-10.2604
▁dian	-10.2615
acasamhail	-10.2619
▁Fhrainc	-10.2622
▁Ghearmáin	-10.2622
▁limistéir	-10.2622
▁snáithín	-10.2622
▁Ailt	-10.2623
▁srl	-10.2623
HA	-10.2641
pre	-10.2654
▁trá	-10.2657
ash	-10.2663
▁tromchúiseach	-10.2663
Football	-10.2663
▁feistithe	-10.2663
▁Bliain	-10.2663
chomh	-10.2663
▁chairde	-10.2663
▁Idirlíon	-10.2664
oidh	-10.2664
bhunaithe	-10.2665
▁táirgeadh	-10.2669
▁cúiseanna	-10.2672
ACHT	-10.2673
87	-10.2678
▁Solas	-10.2678
ppe	-10.2679
fl	-10.2679
▁óige	-10.268
▁Iarscríbhinn	-10.2683
51	-10.2687
▁choir	-10.2697
86	-10.2698
lor	-10.2699
▁sm	-10.2704
▁Tionscail	-10.2704
▁póca	-10.2704
▁Health	-10.2704
▁gream	-10.2705
yo	-10.2705
▁codanna	-10.2705
▁Irish	-10.2713
mad	-10.2714
▁tábhachtaí	-10.2714
▁ceangailte	-10.2717
▁bailí	-10.2721
▁toirt	-10.2729
▁aitheantas	-10.2729
▁thrí	-10.2734
off	-10.2735
▁Bí	-10.2736
▁Ós	-10.2739
▁Brunette	-10.2746
▁muinín	-10.2746
▁Conradh	-10.2746
▁próiseáil	-10.2746
▁faoiseamh	-10.2746
▁Córas	-10.2747
▁Mol	-10.2755
▁ranganna	-10.2758
mhaith	-10.276
▁Gníomh	-10.2763
OP	-10.277
▁scríofa	-10.2774
▁leictreacha	-10.2781
maid	-10.2784
▁Poblacht	-10.2788
▁thuiscint	-10.2788
▁Duine	-10.2788
▁dlúth	-10.2788
▁díriú	-10.2788
▁tógála	-10.2788
▁chostas	-10.2789
ábhair	-10.2804
▁molta	-10.2811
▁Bainistíochta	-10.2817
▁tábla	-10.2822
tugann	-10.2828
▁cáil	-10.2835
eadaíonn	-10.2836
▁gairm	-10.2851
▁roinn	-10.286
▁dleathach	-10.2871
▁sócmhainní	-10.2872
▁tslí	-10.2872
isteach	-10.2873
▁Pleanála	-10.2882
▁Neamh	-10.2883
▁Seice	-10.2883
urra	-10.2885
más	-10.2887
▁cruthaithe	-10.2888
stra	-10.2897
fhoirm	-10.2897
▁Údaráis	-10.2898
▁Gníomhaíochta	-10.2906
▁gcroí	-10.2908
▁bhfianaise	-10.2914
▁éadrom	-10.2914
▁Domhanda	-10.2914
▁achtachán	-10.2914
▁dteangacha	-10.2916
▁oifigigh	-10.2927
▁shárú	-10.2928
▁cló	-10.2938
News	-10.294
fhreagra	-10.2941
76	-10.2944
▁praghsanna	-10.2956
▁romhainn	-10.2956
▁Áirítear	-10.2956
▁Blonde	-10.2956
▁cábla	-10.2956
▁bronntanas	-10.2956
▁Comhshaoil	-10.2957
▁amhras	-10.2957
▁sochar	-10.2964
pm	-10.2966
arga	-10.2974
▁She	-10.2994
▁cuardach	-10.2999
caire	-10.301
▁ceapadh	-10.3011
▁uaidh	-10.3031
▁ghearr	-10.3032
▁gé	-10.3032
▁Ne	-10.3037
▁ríthábhachtach	-10.3041
▁titim	-10.3042
▁féachana	-10.3042
▁asbhaint	-10.3043
▁ionadaí	-10.3048
▁rolla	-10.3049
▁IP	-10.3051
▁“(	-10.3051
▁héifeachtach	-10.3064
▁Bailiúchán	-10.3065
▁uirlisí	-10.3077
▁héifeacht	-10.308
▁Dúiche	-10.3084
▁chúrsa	-10.3087
hósta	-10.3089
att	-10.3093
▁Beo	-10.3101
▁chúram	-10.3102
ici	-10.3102
▁Gearr	-10.3104
▁chuma	-10.3107
aithfear	-10.3109
▁tábhacht	-10.3109
rick	-10.3121
▁critéir	-10.3127
▁taistil	-10.3127
háinig	-10.3127
▁dtíortha	-10.3127
graph	-10.3137
uinn	-10.3137
▁Mu	-10.3141
use	-10.3146
scaoileadh	-10.3158
ghluaiste	-10.3167
gram	-10.3168
▁Leabhar	-10.317
▁bhféadfaí	-10.3171
▁teicniúla	-10.3171
▁Afraic	-10.3171
▁Cosanta	-10.3171
▁bhraitheann	-10.3175
▁bhféadfaid	-10.3178
▁Dáta	-10.3188
▁dtabharfar	-10.3204
▁mol	-10.3205
▁Rátáil	-10.3214
▁deontais	-10.3214
▁tsraith	-10.3215
▁Réalta	-10.3216
▁thionscnamh	-10.3218
98	-10.3222
▁ceadú	-10.3224
▁ghníomhaíochtaí	-10.3224
▁Comhalta	-10.3225
▁pas	-10.3226
▁Lucht	-10.3228
▁thú	-10.3243
▁buí	-10.3243
▁Un	-10.3244
éamh	-10.3245
éiríonn	-10.3246
▁solúbtha	-10.3258
▁soghluaiste	-10.3261
▁sár	-10.3262
▁thír	-10.3263
▁cultúrtha	-10.3264
▁chórais	-10.3265
▁gCoimisinéirí	-10.3268
pro	-10.3273
ali	-10.3279
lot	-10.3282
▁Dath	-10.3292
hathanna	-10.3293
96	-10.3294
▁teaghlach	-10.3302
iocfaidh	-10.3302
▁Seomra	-10.3302
▁rial	-10.3303
73	-10.3303
▁Rialacha	-10.3304
▁gcomhlacht	-10.3304
tern	-10.3305
▁rialtas	-10.332
eadúnas	-10.3325
▁suí	-10.3325
ek	-10.3327
▁fiche	-10.3342
▁Náisiún	-10.3344
▁réigiúin	-10.3346
▁ghlanadh	-10.3346
▁mbainfidh	-10.3346
▁athbhreithnithe	-10.3346
▁tithíochta	-10.3346
▁Ghaeltacht	-10.3346
ates	-10.3348
▁Super	-10.3349
▁staidéir	-10.3349
hal	-10.3371
chothrom	-10.3384
▁chuí	-10.3385
▁Socha	-10.3386
▁huathoibríoch	-10.339
▁bunúsach	-10.3411
éireacht	-10.3412
EL	-10.3427
▁Bhallstáit	-10.3434
▁leordhóthanach	-10.3434
▁spins	-10.3439
hui	-10.3451
▁mBéarla	-10.3457
▁teangacha	-10.346
Sp	-10.3462
fimid	-10.3464
bíonn	-10.3464
▁Sráid	-10.3466
▁Com	-10.3473
fhostóir	-10.3475
▁tionscnaimh	-10.3479
▁shiúl	-10.348
▁dheimhniú	-10.3483
▁chuntas	-10.3486
▁bhu	-10.3486
▁chomhairle	-10.3494
▁Ré	-10.3502
▁Pol	-10.3517
lite	-10.3518
óil	-10.352
▁Amateurs	-10.3524
▁deontas	-10.3524
▁daonna	-10.3525
▁ardchaighdeáin	-10.3525
▁Ceannais	-10.3535
▁roghnaigh	-10.3539
▁Céard	-10.3547
hol	-10.355
62	-10.3556
othú	-10.356
▁fuinneamh	-10.3569
▁inmhuirearaithe	-10.3569
▁tugtar	-10.3569
▁Edit	-10.3571
▁reachtúil	-10.3572
▁Leabharlann	-10.3577
ning	-10.3578
▁siopaí	-10.3579
ju	-10.3585
met	-10.359
EU	-10.3592
aidhm	-10.3593
mpl	-10.3595
▁bhrú	-10.3598
FA	-10.3598
▁idirbheart	-10.3606
▁píopa	-10.3614
▁dochtúir	-10.3614
▁Ríomh	-10.3614
▁bpáirt	-10.3616
89	-10.3618
tions	-10.362
head	-10.3623
▁caidreamh	-10.3623
sport	-10.3626
▁mhaoiniú	-10.3627
feadh	-10.3627
gre	-10.3656
▁El	-10.3658
▁fiosrúcháin	-10.366
▁Imirt	-10.3663
▁úsáideoirí	-10.3668
shi	-10.3681
▁sárú	-10.3681
▁Dhá	-10.3682
▁fostaí	-10.3683
▁eol	-10.3697
mhais	-10.3698
▁nádúr	-10.3698
Aibreán	-10.3699
loingseoireachta	-10.3705
▁gcuirfí	-10.3705
▁cigire	-10.3708
wood	-10.3708
▁ceoil	-10.3709
íocfar	-10.3711
▁gcumas	-10.3714
chumann	-10.3729
ves	-10.3738
▁India	-10.3749
▁dualgais	-10.3751
▁rannpháirtithe	-10.3751
▁bhfoireann	-10.3751
▁Léigh	-10.3751
▁treoracha	-10.3752
▁ionadaithe	-10.3753
▁leanfaidh	-10.3754
▁uachtar	-10.3755
ung	-10.376
▁dhearadh	-10.376
▁réim	-10.3762
81	-10.3763
▁leasuithe	-10.3766
▁cum	-10.3767
Con	-10.3784
▁gcinn	-10.3788
▁Bhallstát	-10.3797
▁Oireachtas	-10.3797
▁bhféadfar	-10.3797
▁chiontú	-10.3799
▁feistí	-10.3801
ations	-10.3806
▁mholadh	-10.3808
▁oibrithe	-10.3814
iu	-10.3815
▁Cinn	-10.3816
▁luí	-10.3828
sw	-10.3828
▁feidhmíochta	-10.3841
ett	-10.3844
▁cuimsitheach	-10.3844
▁ríomhphost	-10.3845
▁ceachta	-10.3853
ten	-10.3854
Gníomhaireacht	-10.3854
All	-10.3855
med	-10.3857
▁caighdeánach	-10.3871
▁Achtanna	-10.3871
▁mhol	-10.3877
▁Bhain	-10.3882
▁Aistriúchán	-10.389
▁gcéanna	-10.389
▁Sábháilteacht	-10.389
▁thalamh	-10.389
▁Luain	-10.39
óidí	-10.3901
earnálacha	-10.3908
▁iomaíoch	-10.3908
infheist	-10.391
RI	-10.3912
▁ghníomhaíocht	-10.3912
▁gníomhaire	-10.3912
▁leictreachais	-10.3915
▁Rialú	-10.3928
▁institiúid	-10.3934
▁Pri	-10.3935
théacs	-10.3936
fadh	-10.3936
▁thuismitheoirí	-10.3937
xxx	-10.3937
▁Iarratais	-10.3937
▁Treorach	-10.3937
▁bpost	-10.3941
▁leasaítear	-10.3957
▁CE	-10.396
▁Fir	-10.3973
ez	-10.3974
▁Reacht	-10.3978
▁comp	-10.3982
▁íomhá	-10.3983
▁Uathoibríoch	-10.3984
▁dúshláin	-10.3984
▁fhaightear	-10.3984
▁Éisteachta	-10.3984
▁hArd	-10.3984
▁ngnó	-10.3988
▁socr	-10.3992
▁chomhaltaí	-10.3992
▁thá	-10.3999
eep	-10.4004
itear	-10.401
zz	-10.4017
67	-10.4019
▁tri	-10.4019
aipiteal	-10.4031
▁bhliantúil	-10.4031
▁threoir	-10.4031
WHO	-10.4031
▁imscrúdú	-10.4032
▁Cíocha	-10.4032
eirmeach	-10.4046
scail	-10.4048
▁Mam	-10.4049
Th	-10.406
now	-10.406
osta	-10.4066
oinn	-10.4077
▁Cumarsáide	-10.4078
▁fhianaise	-10.4078
▁Spóirt	-10.4078
▁galánta	-10.4078
▁táirgthe	-10.4078
▁éilimh	-10.4079
▁pointí	-10.408
ghníomhach	-10.4085
▁Íocaíocht	-10.409
chuirfear	-10.4094
82	-10.4095
▁Bosca	-10.4096
▁vótála	-10.4102
▁ghnéas	-10.4104
▁200	-10.4116
▁Áit	-10.4116
▁shláinte	-10.4117
raitheann	-10.4125
▁saoránach	-10.4126
▁Teaghlaigh	-10.4126
▁bainistiú	-10.4126
▁saincheisteanna	-10.4127
iki	-10.413
▁cistí	-10.413
bhar	-10.4134
úinéir	-10.4136
EM	-10.4137
innealtóir	-10.4138
TR	-10.4142
▁cearn	-10.4147
▁mhion	-10.4153
mhain	-10.4153
▁glac	-10.4156
Ro	-10.4158
lanna	-10.4161
▁Cá	-10.4164
she	-10.4165
roll	-10.4173
America	-10.4173
▁teagaisc	-10.4174
▁pláta	-10.4174
▁treoirlínte	-10.4174
▁chuntasaíochta	-10.4176
ji	-10.4176
▁ranga	-10.4178
▁Cuimsiú	-10.418
▁catagóir	-10.4182
lm	-10.4184
▁Ni	-10.4189
ainmhí	-10.4198
chumas	-10.4199
▁coir	-10.4199
▁chaomhnú	-10.4222
▁greannmhar	-10.4222
▁sloinne	-10.4222
▁Ciallaíonn	-10.4222
ocsaíd	-10.4222
▁míleata	-10.4224
▁aistr	-10.4226
Euro	-10.4226
▁comhad	-10.4227
▁mheasúnachta	-10.423
cheart	-10.4236
▁bac	-10.4254
▁mona	-10.4259
▁haois	-10.4263
fhéadfá	-10.427
▁Ginearálta	-10.427
▁sheachtain	-10.427
▁Omeg	-10.4271
▁Muir	-10.4273
▁bhosca	-10.4277
gas	-10.4279
tho	-10.428
▁dhi	-10.4281
▁spriocanna	-10.4285
mair	-10.4285
▁ríomhaireachta	-10.4296
fheistiú	-10.4296
▁iomaíocht	-10.4298
iscint	-10.4302
▁chúrsaí	-10.4308
▁cheangla	-10.4309
▁tae	-10.4317
eve	-10.4318
▁dlíthiúil	-10.4319
▁chónaithe	-10.4326
▁moladh	-10.433
▁Charm	-10.4331
▁bháis	-10.4331
bert	-10.4334
▁Coinn	-10.4336
cor	-10.4348
▁Port	-10.4357
▁scrios	-10.4361
▁CH	-10.4366
▁Inexperienced	-10.4367
▁Liúntas	-10.4367
▁dhearbhú	-10.4367
tail	-10.4368
▁tagtha	-10.4368
▁easpa	-10.4368
▁Áitiúla	-10.4369
ney	-10.4373
▁ionaid	-10.4376
▁cathaoirleach	-10.4379
▁pháirtí	-10.4379
DH	-10.4381
▁Samhna	-10.4384
ED	-10.4385
▁fíon	-10.4389
fhó	-10.4399
ctor	-10.4402
▁tuig	-10.4403
UA	-10.441
▁cúramach	-10.4416
▁bualadh	-10.4417
▁corpraithe	-10.4417
OT	-10.4419
▁Fheidhmiú	-10.4423
▁chóireáil	-10.4423
scaoilte	-10.4429
ncy	-10.4436
▁€3	-10.4436
▁Sé	-10.4442
mhairc	-10.4447
▁sá	-10.445
▁Seas	-10.4456
déanann	-10.4456
▁thástáil	-10.4466
▁foilsithe	-10.4466
bhrú	-10.4469
▁suimiúil	-10.4475
▁chaith	-10.4483
órais	-10.4484
▁eachtra	-10.4489
▁freagracht	-10.449
róise	-10.4501
leas	-10.4505
▁LE	-10.4506
▁Big	-10.4507
▁taca	-10.4514
▁mhargaidh	-10.4515
▁lascaine	-10.4515
chi	-10.4518
▁brabúis	-10.4519
▁díolacháin	-10.452
▁foirmeacha	-10.4523
▁pleananna	-10.4528
▁teilifíse	-10.4529
▁Scoileanna	-10.4536
mhór	-10.4537
▁Aer	-10.4539
95	-10.4546
▁Chill	-10.4548
HR	-10.4554
cul	-10.4556
chuideachta	-10.4561
anais	-10.4564
▁meicniúil	-10.4565
▁stylish	-10.4565
▁mbliain	-10.4565
▁snámh	-10.4565
▁ceadúnais	-10.4565
▁gréine	-10.4565
▁chruinniú	-10.4565
ball	-10.4569
▁iarratasóir	-10.4569
▁beirt	-10.4571
▁oibreacha	-10.4572
▁gcustaiméirí	-10.4575
▁comhartha	-10.4581
▁bainc	-10.4594
▁gníomhaíochta	-10.4595
So	-10.4596
▁Rang	-10.4606
▁Chorcaí	-10.4615
▁Grianchloch	-10.4615
▁nuashonrú	-10.4615
▁buiséad	-10.4615
▁meastóireacht	-10.4616
▁chailleadh	-10.4617
qua	-10.4619
▁tógáil	-10.4624
▁You	-10.464
bel	-10.4643
old	-10.4648
▁tine	-10.4648
bhreith	-10.4648
▁Star	-10.4651
▁aimsire	-10.4652
▁Rómáin	-10.4665
▁dhiailiú	-10.4665
▁erotic	-10.4665
▁thuairim	-10.4665
400	-10.4667
▁tasc	-10.4674
▁cruinnithe	-10.4679
▁gComh	-10.4686
▁híoc	-10.469
▁Mná	-10.469
▁Creat	-10.469
▁bunúsacha	-10.4692
rap	-10.4699
AIR	-10.47
seirbhís	-10.4701
▁meaisíní	-10.4707
▁Gar	-10.4713
▁World	-10.4716
▁prionsabal	-10.4716
▁ríomhphoist	-10.4716
▁scaipeadh	-10.4717
▁séala	-10.4717
▁Rolex	-10.4717
▁mhná	-10.4725
▁State	-10.4725
sia	-10.4728
▁1999	-10.4728
óide	-10.4728
óige	-10.4731
▁coinn	-10.4734
▁úsáideoir	-10.4736
tory	-10.4746
fer	-10.475
ible	-10.4754
▁seans	-10.4754
fhocal	-10.4755
ódh	-10.4755
▁Éireannacha	-10.4756
▁cá	-10.4757
▁smacht	-10.4757
▁IV	-10.4766
▁Uaireanta	-10.4767
▁Gluaiseacht	-10.4767
▁pósta	-10.4767
onchúiseamh	-10.4767
▁fhorléiriú	-10.4767
▁inniúil	-10.4768
adóirí	-10.4769
▁chomhpháirt	-10.4771
mór	-10.4776
▁Soláthra	-10.478
ries	-10.478
aitheanta	-10.478
chéime	-10.4786
BBC	-10.4789
▁choinne	-10.4792
NE	-10.4813
▁theanga	-10.4814
▁dualgas	-10.4818
▁craiceann	-10.4818
▁gcomhthéacs	-10.4818
▁Óige	-10.4826
institiúid	-10.4828
▁trom	-10.4833
▁tionónta	-10.4834
(3)	-10.4835
92	-10.4839
neamh	-10.4846
▁gníomhaíocht	-10.4848
lip	-10.4851
▁aicme	-10.4852
uff	-10.4853
▁chuspóir	-10.4854
▁500	-10.4863
▁Sheirbhís	-10.4869
▁athnuachan	-10.4869
▁dhiúscairt	-10.4869
▁Trealamh	-10.4869
▁seachadadh	-10.4869
urg	-10.4872
▁thiocfaidh	-10.4874
AO	-10.4883
▁mhíchumas	-10.4886
▁saoránaigh	-10.4886
ated	-10.4897
tóra	-10.4898
dro	-10.4904
94	-10.4904
▁bhreith	-10.4906
▁prionsabail	-10.492
▁siúcra	-10.492
▁chailleann	-10.492
▁saoráidí	-10.4921
uain	-10.4922
amhrán	-10.4923
itheora	-10.4926
▁1998	-10.4929
▁watch	-10.4939
▁dhaingniú	-10.4972
▁Nuálaíocht	-10.4972
▁fhágann	-10.4972
▁shealbhú	-10.4972
▁chríochnú	-10.4974
▁seolta	-10.4974
▁comhpháirteanna	-10.4975
▁pháistí	-10.498
▁tomhaltóirí	-10.4991
▁baineann	-10.4996
▁bhéal	-10.5
▁chon	-10.5002
▁Bréagáin	-10.5024
▁choigeartú	-10.5024
▁cialluíonn	-10.5024
▁ceangal	-10.5024
▁lógó	-10.5024
▁chomhlánú	-10.5024
▁Taithí	-10.5024
▁Tástáil	-10.5025
▁áilleacht	-10.5025
▁Bán	-10.5032
[	-10.5038
abhróidh	-10.5041
▁gov	-10.5042
▁chruth	-10.5047
▁íocadh	-10.5057
▁Vi	-10.5057
▁fheithicil	-10.5063
▁cionta	-10.5065
▁Teicneolaíochta	-10.5065
▁Cód	-10.5069
▁bhformáid	-10.5077
▁foilsíodh	-10.5077
▁fhomhír	-10.5077
▁Cosaint	-10.5077
:00	-10.5077
▁iascaireachta	-10.5077
hea	-10.5078
▁athchóiriú	-10.5078
▁ollscoil	-10.5083
▁cliste	-10.5087
▁ghá	-10.5089
▁shon	-10.5095
97	-10.5101
▁gCo	-10.5108
NY	-10.5118
ating	-10.5122
▁Raidió	-10.5129
▁bezel	-10.5129
▁chailíní	-10.5129
▁clúdach	-10.5129
▁geall	-10.5139
▁hainmneacha	-10.5139
▁bhfolach	-10.5141
▁stiúrthóir	-10.5142
vision	-10.5143
▁ordaithe	-10.515
lais	-10.5151
▁punt	-10.5152
▁gcó	-10.5158
▁pre	-10.5165
▁Sna	-10.5173
Aonad	-10.5176
▁foirgneamh	-10.5182
▁Airgid	-10.5182
▁margaidh	-10.5182
▁láidre	-10.5182
▁comhshaoil	-10.5184
▁gCoiste	-10.5185
úlacht	-10.5185
▁Deir	-10.5185
▁astu	-10.5188
▁téama	-10.5189
ófaí	-10.5189
álann	-10.5189
House	-10.519
▁riar	-10.5194
fhoireann	-10.5198
▁suimeanna	-10.5199
Chúirt	-10.5214
eithre	-10.522
Mo	-10.5226
don	-10.523
▁cuimhne	-10.5233
▁Meiriceá	-10.5234
▁Achomhairc	-10.5235
▁stáisiún	-10.5235
▁teagasc	-10.5235
▁Domhnach	-10.5235
▁phointe	-10.5235
▁Threoir	-10.5235
▁Páirc	-10.5236
▁troid	-10.5236
▁gcomhalta	-10.524
▁Stíl	-10.5242
obair	-10.5244
▁foláir	-10.5245
▁cheadúnas	-10.5246
▁Ur	-10.5248
▁mhalartú	-10.5251
▁Líon	-10.5251
Fraincis	-10.5253
TC	-10.527
▁pian	-10.5283
resistant	-10.5289
▁Phobail	-10.5289
uimhreacha	-10.5289
▁Watch	-10.5289
▁Strap	-10.5292
▁tharchur	-10.5296
▁stíleanna	-10.5304
scríofa	-10.5307
ku	-10.531
▁snasta	-10.5311
▁comharthaí	-10.5314
▁Soláthraí	-10.5314
▁eagr	-10.5321
pit	-10.5322
▁cultúr	-10.5336
haibidil	-10.5343
▁hEORPA	-10.5343
▁tréimhsí	-10.5343
▁vótáil	-10.5343
▁Iarthair	-10.5343
▁saineolaithe	-10.5344
▁thabharfai	-10.5356
ACH	-10.5359
▁féad	-10.5362
rialta	-10.538
mag	-10.539
Christian	-10.5397
▁thiomáint	-10.5397
▁éigeandála	-10.5397
▁Obair	-10.5397
▁áiseanna	-10.5397
▁thábhachtach	-10.5398
▁éifeachtúlacht	-10.5398
▁straitéiseach	-10.54
▁Taca	-10.5401
mal	-10.5403
love	-10.5409
foirt	-10.5411
tréimhse	-10.5416
▁stórála	-10.5425
iff	-10.5428
athaoirleach	-10.5436
▁bhaill	-10.5436
▁dhé	-10.5443
▁32	-10.5444
▁45	-10.5448
▁hé	-10.5449
des	-10.5451
▁mionsonraithe	-10.5451
▁AGUS	-10.5451
▁Mhárta	-10.5451
▁Tuirc	-10.5451
▁tsráid	-10.5451
▁Ombudsman	-10.5452
▁eitilt	-10.5452
▁cóireáil	-10.5453
▁caith	-10.5454
▁glactha	-10.5459
▁locht	-10.546
▁monaróir	-10.5466
cia	-10.5467
Éirinn	-10.5472
▁ceannairí	-10.5473
gú	-10.5476
▁dtiocfaidh	-10.5478
Tu	-10.548
-19	-10.5481
▁Méid	-10.5482
▁Uí	-10.5491
eek	-10.5493
▁aonad	-10.5496
▁phríobháideach	-10.5506
▁voltas	-10.5506
▁Taisce	-10.5507
▁halt	-10.5509
▁Thug	-10.5511
▁1997	-10.5514
▁diúltú	-10.5517
▁taisc	-10.5523
video	-10.5529
▁bhfaigh	-10.5529
bháil	-10.5538
cheann	-10.5545
▁úinéireacht	-10.5555
▁Fhorbairt	-10.5561
▁Uaireadóirí	-10.5561
▁dhliteanas	-10.5561
▁ghréasáin	-10.5561
▁shibhialta	-10.5561
▁fianáin	-10.5561
▁Breathn	-10.5561
▁Franc	-10.5562
▁tarraingt	-10.5567
▁íosta	-10.5569
chuid	-10.557
▁Coinbhinsiún	-10.5573
▁dhear	-10.5578
▁cainte	-10.5582
fá	-10.5582
vis	-10.5583
▁brí	-10.5587
▁cumarsáid	-10.5587
▁mbaol	-10.5589
▁gceannas	-10.5589
▁Mal	-10.559
▁Eile	-10.5593
cur	-10.5603
▁Fuck	-10.5603
cent	-10.5604
▁Mhic	-10.561
ghabhála	-10.5611
▁bhforbairt	-10.5616
▁próifíl	-10.5616
▁billiún	-10.5616
▁toghcháin	-10.5616
▁sciath	-10.5616
▁Jacket	-10.5616
stát	-10.5617
▁Preasráitis	-10.5618
aoibh	-10.5622
▁dho	-10.5623
▁dhéag	-10.5623
chónaí	-10.5624
▁35	-10.5624
▁comhpháirtíocht	-10.5624
▁cloch	-10.5628
▁cruinneas	-10.5629
▁léasair	-10.5629
áirith	-10.5634
▁Bhean	-10.5648
dar	-10.5649
▁imreoirí	-10.5652
SO	-10.5666
▁réad	-10.567
▁redtube	-10.5671
▁soicind	-10.5671
▁American	-10.5672
▁aigéad	-10.5673
▁gClár	-10.5675
▁sholáthraíonn	-10.5678
side	-10.5678
▁muirir	-10.568
▁Mad	-10.5688
61	-10.5692
caireacht	-10.5709
▁seachtrach	-10.5717
▁chomhair	-10.5719
▁Airgead	-10.572
▁rada	-10.5722
▁méad	-10.5724
▁shár	-10.5726
▁Bracelet	-10.5727
▁Leictreach	-10.5727
▁Masturbate	-10.5727
▁Tithíochta	-10.5727
▁thomhas	-10.5727
ants	-10.5732
▁Comhpháirt	-10.5738
▁2002	-10.5739
▁srian	-10.5743
▁shín	-10.5747
leibhéal	-10.5753
▁Tri	-10.5756
BH	-10.5758
▁Íoc	-10.5761
chláir	-10.5766
▁tarlú	-10.5772
▁cart	-10.5783
▁Athbhreithniú	-10.5783
▁Gearmáinis	-10.5783
▁PHARLAIMINT	-10.5783
▁Próifíl	-10.5783
▁saintréithe	-10.5783
▁teicniúil	-10.5783
▁ráitis	-10.5784
▁nAchtanna	-10.5784
uarastail	-10.5784
▁riocht	-10.5785
▁34	-10.5787
▁eachtrach	-10.5789
just	-10.5802
▁Gra	-10.5804
elle	-10.5813
EP	-10.5817
UM	-10.5818
▁Sain	-10.583
éanaimid	-10.5835
▁Oiliúna	-10.584
▁bóithre	-10.584
▁ghearrthóg	-10.584
▁tabharfar	-10.584
▁Foilsithe	-10.584
▁Sainmhíni	-10.5841
▁oibríochtaí	-10.5841
láir	-10.5845
ush	-10.5847
▁mbeart	-10.5849
▁mbunaítear	-10.585
▁féideartha	-10.5865
dom	-10.5874
▁Críostaí	-10.5879
ally	-10.5884
▁saoil	-10.5884
eolaithe	-10.5885
▁gcos	-10.5893
mark	-10.5895
▁suirbhé	-10.5897
▁Ú	-10.5897
▁bPríomh	-10.5897
▁Cinneadh	-10.59
▁ghabh	-10.5902
aghaidh	-10.591
▁Faisnéis	-10.5911
▁bhord	-10.5929
wo	-10.593
imeachtaí	-10.5932
▁ús	-10.5939
▁uainn	-10.5941
▁daingean	-10.5942
▁gcúrsa	-10.5953
▁Taispeán	-10.5953
▁Bhliantúil	-10.5954
▁bhrabhsálaí	-10.5954
▁déantúsaíocht	-10.5954
▁scáileán	-10.5954
▁bhfreagra	-10.5954
▁madra	-10.5959
▁luaite	-10.5961
iniúchóir	-10.5962
▁oibriúcháin	-10.5963
▁pháiste	-10.5968
CEE	-10.5975
TV	-10.6004
chumais	-10.6011
▁polaitiúil	-10.6011
▁dúshlán	-10.6011
▁fhéadfaidh	-10.6011
▁buataisí	-10.6011
▁Maith	-10.6012
▁gcomhlíonann	-10.6013
▁shonrú	-10.6015
&	-10.6023
Comhaontú	-10.6033
▁Aonair	-10.6033
▁doras	-10.6036
Trans	-10.6036
▁Mens	-10.6042
▁ghníomhach	-10.6044
▁scar	-10.6061
▁fabraic	-10.6069
▁ualach	-10.6072
▁comhdhéanta	-10.6072
▁Cearta	-10.6074
oileán	-10.6081
▁Poist	-10.6082
iomlán	-10.6083
bri	-10.6084
▁Faoin	-10.6088
ough	-10.6095
cheap	-10.6096
▁dearbh	-10.6101
▁úsáideach	-10.6118
▁Foilsiú	-10.6127
▁Masturbation	-10.6127
▁scoláire	-10.6127
▁fadtéarmach	-10.6127
▁uathu	-10.6128
▁oifigiúla	-10.6135
▁70	-10.6154
▁teachtaireacht	-10.6154
▁Rúis	-10.6161
▁míle	-10.6163
▁stiúrthóirí	-10.6172
▁Cumhacht	-10.6185
▁Masturbating	-10.6186
▁Teagmháil	-10.6186
▁dúbailte	-10.6186
▁rubair	-10.6186
léargas	-10.6186
▁Allah	-10.6186
▁fhreagairt	-10.6186
▁dáileadh	-10.6186
▁Aims	-10.6188
▁ghné	-10.6188
93	-10.6191
Foireann	-10.6195
▁fágtha	-10.6198
dhéanta	-10.6205
▁páirteanna	-10.6206
▁eagla	-10.6215
▁aimsir	-10.6215
▁Áise	-10.6215
▁bhfaighid	-10.6218
▁cuims	-10.6224
Rúnaí	-10.6235
▁cathrach	-10.6236
iasc	-10.6241
▁cothabháil	-10.6245
▁sheirbheáil	-10.6245
▁RTÉ	-10.6245
▁dliteanas	-10.6245
▁cruthaíodh	-10.6247
IP	-10.6255
▁scór	-10.6257
Sports	-10.6258
▁dhul	-10.626
▁Feidhmeanna	-10.6262
▁thús	-10.6269
▁Chuideachta	-10.6271
▁reachtach	-10.6278
athbhreithniú	-10.6281
▁ionadaíocht	-10.6295
▁SEA	-10.6299
▁Infheistíochta	-10.6304
▁bracelet	-10.6304
▁cúiteamh	-10.6304
▁shóisialaigh	-10.6304
▁ÁSPC	-10.6304
▁caiteachais	-10.6306
▁comhábhair	-10.6308
▁thíortha	-10.6309
▁cártaí	-10.6311
▁cóipeanna	-10.6319
▁Teo	-10.632
last	-10.6332
nasc	-10.6334
fheirm	-10.6334
▁geal	-10.6336
eilimintí	-10.6342
▁bainne	-10.6343
ceann	-10.6345
key	-10.6347
ova	-10.6349
▁só	-10.6358
▁Tuarascálacha	-10.6363
▁ceimiceach	-10.6363
▁imthosca	-10.6363
▁mBunreacht	-10.6363
▁páipéir	-10.6363
▁shonrófar	-10.6363
▁díolúine	-10.6363
▁chruinnithe	-10.6363
Network	-10.6363
▁City	-10.6365
▁CNC	-10.6365
▁leanann	-10.6369
▁stór	-10.6369
▁comhoibriú	-10.637
▁Athrú	-10.6371
▁Uachtaránacht	-10.6383
▁mhian	-10.6388
ude	-10.6392
FE	-10.6401
▁School	-10.6418
▁Op	-10.6421
oifigigh	-10.6423
rapóirtéir	-10.6423
ricelist	-10.6423
▁bóthair	-10.6423
▁indéanta	-10.6423
▁mhúinteoirí	-10.6423
▁dlínse	-10.6423
▁Just	-10.6423
▁Anseo	-10.6425
▁Ordú	-10.6425
▁nuálach	-10.6429
▁iascaigh	-10.6435
▁maoinithe	-10.644
▁thogh	-10.6441
ucht	-10.6442
▁coinne	-10.6442
▁baol	-10.6444
adóireachta	-10.6447
▁téigh	-10.6448
club	-10.645
ghnéithe	-10.6451
▁Eagraíocht	-10.6454
▁Man	-10.6469
▁tograí	-10.6481
▁Deimhniú	-10.6483
▁Cúram	-10.6483
▁Oileán	-10.6483
▁séasúr	-10.6483
▁Rannóg	-10.6484
▁rialaitheoir	-10.6484
Íos	-10.6485
info	-10.6489
▁bainteach	-10.6491
cháilithe	-10.6493
▁fheidhmeanna	-10.6497
▁bhainfidh	-10.6497
aingean	-10.6499
▁ugg	-10.6504
▁roghnaithe	-10.6508
▁bhfu	-10.6518
▁cháil	-10.6521
ainmhithe	-10.6522
shealbh	-10.6524
63	-10.6531
▁Ball	-10.6533
▁Cáilíochta	-10.6541
▁sceimhlitheoir	-10.6544
▁Saincheaptha	-10.6544
▁mheasúnú	-10.6544
▁achomhairc	-10.6544
▁healaíona	-10.6544
▁bhíthin	-10.6545
▁bhrath	-10.6545
▁línte	-10.6546
▁dílse	-10.6552
gníomhaireachtaí	-10.6556
▁moill	-10.6565
amhail	-10.6565
burg	-10.6578
▁rabh	-10.6587
ghluaiseacht	-10.6591
▁Beartas	-10.6593
▁bhfuair	-10.6598
▁custaim	-10.6605
mhuirear	-10.6605
▁Rúipí	-10.6605
▁cothabhála	-10.6605
▁oiriúnú	-10.6605
▁Pandora	-10.6605
▁cleachtais	-10.6605
▁Socr	-10.6611
▁Cuardaigh	-10.6612
▁comhréir	-10.6618
▁gaol	-10.6619
▁chor	-10.6636
▁diúltach	-10.6657
zo	-10.6657
▁Domhnaigh	-10.6666
▁gcuntas	-10.6666
mheán	-10.6667
▁clú	-10.6675
▁réigiúnach	-10.6677
chruinn	-10.6678
Gaeilge	-10.6689
▁gearradh	-10.6691
▁imreoir	-10.6692
▁ardán	-10.6713
▁Ón	-10.6714
▁Luach	-10.6716
▁poll	-10.672
▁MP	-10.6721
under	-10.6722
▁Tionól	-10.6728
▁brabús	-10.6728
▁mháthair	-10.6728
▁dóiteáin	-10.6728
▁gearrthóg	-10.6728
view	-10.6728
▁Téigh	-10.6728
▁(9)	-10.673
▁deacra	-10.6734
▁Ghnó	-10.6736
▁Nu	-10.6739
▁Long	-10.6755
▁heagraíochtaí	-10.6758
▁tuaithe	-10.6769
Police	-10.6778
▁malart	-10.6786
▁buíochas	-10.679
▁gheimhridh	-10.679
▁láimhseáil	-10.679
▁galar	-10.6791
▁gCuideachtaí	-10.6791
▁Iomp	-10.6794
▁laoch	-10.6796
▁céile	-10.6797
▁gcuirfidh	-10.6801
ford	-10.6801
▁hath	-10.6802
itch	-10.6803
albhaigh	-10.6809
▁VI	-10.6813
Stiúrthóireacht	-10.6817
press	-10.6821
▁Tacaíocht	-10.683
gle	-10.6831
reasa	-10.6832
LI	-10.6833
▁mhó	-10.6846
▁bhia	-10.685
▁difriúla	-10.6853
▁luxurious	-10.6853
▁tSeapáin	-10.6853
▁corparáide	-10.6853
▁rugadh	-10.6853
▁trialach	-10.6858
▁comhla	-10.6861
▁EU	-10.6863
▁choinníollacha	-10.6865
▁Réamh	-10.6868
▁cáilitheach	-10.6868
▁bogadh	-10.6871
▁substaint	-10.6875
▁fostaíocht	-10.6879
fhéach	-10.6892
glacfaidh	-10.6893
aidreamh	-10.6911
fheithiclí	-10.6916
▁Cultúr	-10.6916
▁Facebook	-10.6916
▁Oíche	-10.6916
▁Fág	-10.6916
▁Seachtain	-10.6918
▁ceannas	-10.692
▁dtagann	-10.692
▁Phlean	-10.692
▁gcomhpháirt	-10.6925
▁suíomhanna	-10.6946
▁físe	-10.6951
▁Glas	-10.6961
▁feic	-10.6961
▁ainmneacha	-10.6964
▁ionsaí	-10.6964
aidrimh	-10.6975
cothaithe	-10.6976
▁caipitil	-10.6979
▁próisis	-10.6979
▁machnamh	-10.6979
▁tobac	-10.6979
▁máthair	-10.6979
▁comhaontuithe	-10.6981
▁cara	-10.6987
▁Preas	-10.6987
ward	-10.6989
▁comhlán	-10.6989
▁shaor	-10.7008
▁Scoile	-10.701
▁Rátaí	-10.7013
▁rianú	-10.7014
▁Cheann	-10.7016
porn	-10.7023
▁rúnda	-10.7033
▁oibleagáid	-10.7033
▁Teas	-10.7037
mhuirir	-10.7043
▁Foghlaim	-10.7043
▁léarscáil	-10.7043
▁Choláiste	-10.7043
▁tsaoil	-10.7043
▁Choinbhinsiún	-10.7045
maoin	-10.7047
▁Nós	-10.705
▁míniú	-10.7054
uni	-10.7057
▁Cumas	-10.7065
chomhar	-10.7066
▁eisceacht	-10.7067
▁dlíthe	-10.7078
▁eacnamaíocha	-10.7081
stat	-10.709
▁sea	-10.7101
▁Tre	-10.7103
▁folctha	-10.7107
▁hEilvéise	-10.7107
▁moncler	-10.7107
▁thíolacadh	-10.7107
▁maireachtáil	-10.7107
▁pionós	-10.7107
▁Chríost	-10.7107
▁riail	-10.7108
▁rioscaí	-10.7108
▁chomhshaoil	-10.7112
▁iniúchta	-10.7114
▁shlán	-10.7117
▁shíniú	-10.7117
▁luachanna	-10.7122
Ag	-10.7123
▁gCiste	-10.7128
▁Thar	-10.7128
▁Ráth	-10.7133
▁straitéisí	-10.7135
▁Chathair	-10.7136
éadaí	-10.7137
▁Cruinniú	-10.7139
▁réasún	-10.7142
cheisteanna	-10.7145
▁“...	-10.7146
uill	-10.7152
▁Services	-10.7171
▁Sóisialaí	-10.7171
▁Scannán	-10.7171
▁gceap	-10.7171
▁criostail	-10.7171
▁Times	-10.7172
bhealaí	-10.7172
▁Ceap	-10.7173
▁chostais	-10.7174
▁cóireála	-10.7176
▁thaifeadadh	-10.7176
5,000	-10.7188
▁Aois	-10.7188
tsu	-10.719
ken	-10.7197
▁Bearta	-10.7198
▁taise	-10.7201
▁cath	-10.7207
thrá	-10.7209
NI	-10.721
lum	-10.7216
eilg	-10.7217
▁vótaí	-10.7227
▁soláthair	-10.7235
▁www	-10.7236
▁bhóthar	-10.7236
▁páirc	-10.7237
▁fhear	-10.7246
ever	-10.7247
▁1952	-10.7249
▁clárúcháin	-10.7251
fhostaí	-10.7259
▁píosa	-10.7262
▁chrua	-10.7285
▁Riar	-10.7286
€	-10.7287
▁réalta	-10.7288
▁sráide	-10.7292
suas	-10.7296
oide	-10.7297
▁raidió	-10.7301
▁tiomáint	-10.7301
▁forordaithe	-10.7302
▁tagartha	-10.7302
▁Léinn	-10.7302
SAMH	-10.7302
▁chúlghairm	-10.7302
▁Cumhachta	-10.7302
▁Gnéithe	-10.7307
▁Council	-10.7314
▁foinse	-10.7315
unc	-10.7317
osnaíonn	-10.732
▁mórán	-10.7322
icéid	-10.7323
▁Naomh	-10.7323
▁beacht	-10.7323
▁fíorúil	-10.7326
chat	-10.7326
▁úsáideora	-10.733
▁uasta	-10.7336
ealaíon	-10.734
▁cat	-10.7343
túir	-10.7344
fra	-10.7346
úsáidtear	-10.7349
RP	-10.7351
tógáil	-10.7357
▁léirithe	-10.7357
▁coinníoll	-10.7361
iarratasóir	-10.7365
▁measúnachta	-10.7365
phrionsaba	-10.7367
▁Diamond	-10.7367
▁gcruinniú	-10.7367
▁thabharfar	-10.7367
▁formáid	-10.7367
▁carbóin	-10.7368
▁sochaí	-10.7369
▁aigne	-10.737
▁formhór	-10.7371
▁Indiach	-10.7386
▁rialála	-10.7398
álfar	-10.7428
▁Feirste	-10.7434
▁Answers	-10.7434
▁Toscaireacht	-10.7434
Official	-10.7434
▁gnólachtaí	-10.7434
▁éarlais	-10.7434
▁chonradh	-10.7434
▁mílte	-10.7434
▁earráid	-10.7434
▁saoirse	-10.7434
▁fostú	-10.7434
▁Nó	-10.7434
▁leideanna	-10.7435
▁dlús	-10.7436
▁Life	-10.744
▁fórsaí	-10.7461
▁réigiúnacha	-10.7468
▁Óir	-10.7468
▁Linn	-10.7472
ionscnamh	-10.7472
eagraíochtaí	-10.7482
bhunscoil	-10.7482
▁Tacaíochta	-10.7486
▁leabharlann	-10.7487
▁Eolaíochta	-10.7496
England	-10.75
▁Shóisialaigh	-10.75
▁Tríonóide	-10.75
▁sheepskin	-10.75
▁conarthaí	-10.75
▁York	-10.75
▁gaolmhara	-10.7501
▁daonra	-10.7501
day	-10.7501
▁breithe	-10.7502
▁naked	-10.7503
pat	-10.7504
▁Report	-10.7508
▁Power	-10.7509
fhorbairt	-10.7512
▁1976	-10.7512
▁treocht	-10.7518
▁iomláine	-10.7521
thraíonn	-10.7522
▁Dial	-10.7548
RT	-10.7553
▁cruthaitheach	-10.7558
théarma	-10.7564
▁Oscailte	-10.7567
▁theicniúil	-10.7567
Phoblacht	-10.7567
▁bheatha	-10.7568
▁tuarascálacha	-10.7568
▁bailiú	-10.757
▁Ghlac	-10.7572
rianta	-10.7578
▁luch	-10.7579
▁Leath	-10.758
▁inarb	-10.7585
▁Múinteoirí	-10.7586
▁stop	-10.7587
▁maoirseachta	-10.7599
▁idirdhealú	-10.7599
ghlactha	-10.7607
▁bhog	-10.7623
isghairtear	-10.7635
▁Sóisialai	-10.7635
▁Thuaisceart	-10.7635
▁Feidhmiúcháin	-10.7635
▁ngnáth	-10.7635
▁vidio	-10.7635
▁saibhir	-10.7635
chleachtas	-10.7637
▁glasraí	-10.7637
▁super	-10.7639
▁lánaimseartha	-10.7641
Pro	-10.7642
get	-10.7642
▁feiste	-10.7647
oibreoidh	-10.7654
▁Rúisis	-10.7655
▁gcúirt	-10.766
▁1916	-10.7673
dhlíthe	-10.7675
eolaí	-10.7679
vent	-10.7687
▁Data	-10.7688
ower	-10.7689
chumainn	-10.769
ux	-10.769
▁gaire	-10.7691
▁Cuims	-10.7693
aistrithe	-10.77
▁Caighdeán	-10.7703
▁Department	-10.7703
▁ceanglas	-10.7703
▁feabhsú	-10.7703
▁gcuimhne	-10.7703
▁hAlban	-10.7703
▁taispeántas	-10.7703
iúscartha	-10.7703
▁sláintiúil	-10.7707
well	-10.771
▁hiarratais	-10.7714
▁boinn	-10.7714
▁aistriúcháin	-10.7715
arrann	-10.7718
▁dtéann	-10.7721
▁Sula	-10.773
▁lch	-10.7738
Acad	-10.7741
▁Gairm	-10.7754
uimhir	-10.7766
▁Loch	-10.7767
▁ceiliúradh	-10.7771
▁dramhaíola	-10.7771
▁Áilleacht	-10.7771
▁buachaill	-10.7771
▁dliteanais	-10.7772
▁Páirtí	-10.7772
sócmhainn	-10.7772
▁Home	-10.7772
▁CBL	-10.7773
▁Fúinn	-10.7773
mission	-10.7774
▁íogair	-10.7774
▁insint	-10.7775
2019	-10.7775
▁ghléas	-10.7777
▁idirlíon	-10.7781
throm	-10.7782
▁seachtracha	-10.7788
▁shonrach	-10.7793
▁Oral	-10.7799
▁cobhsaíocht	-10.7816
▁aithne	-10.7817
iel	-10.7836
▁Blowjob	-10.784
▁Chomhphobail	-10.784
▁drugaí	-10.784
▁Pinsean	-10.784
▁Rochtain	-10.784
▁urscaoileadh	-10.7841
▁áisiúil	-10.7841
▁astaíochtaí	-10.7841
obhach	-10.7843
▁pleanáil	-10.7843
▁slabhra	-10.7843
VI	-10.7848
▁chaidreamh	-10.7849
▁foirmiúil	-10.7851
▁chois	-10.786
uille	-10.7865
▁caol	-10.7869
back	-10.7871
imreoir	-10.7875
▁Éil	-10.7891
▁gceantar	-10.7896
▁EUR	-10.7897
aingne	-10.7899
▁Nóta	-10.7902
eisiúint	-10.7908
▁iarnróid	-10.791
▁trasteorann	-10.791
▁dhaltaí	-10.791
▁Aoine	-10.791
▁Margadh	-10.791
▁Fiontar	-10.791
▁Fomhair	-10.7914
▁dtugann	-10.792
▁teochta	-10.7923
cast	-10.7925
▁chlog	-10.7936
Com	-10.7941
ones	-10.7947
íocfaidh	-10.7948
time	-10.7949
Fheidhm	-10.7971
▁Réigiúnach	-10.7973
adóireacht	-10.7974
roíthe	-10.7977
▁Erasmus	-10.798
▁dTuaisceart	-10.798
▁innealra	-10.798
▁tsochaí	-10.798
▁Digiteach	-10.798
▁gnách	-10.798
▁hacmhainní	-10.798
▁tógadh	-10.798
▁Glacann	-10.7981
▁Frith	-10.7982
▁Cárta	-10.7983
▁sreabhadh	-10.7986
Comm	-10.7999
▁Je	-10.8025
▁gcóir	-10.8037
trans	-10.8043
scríbhinn	-10.8047
tmaisféar	-10.805
▁Washington	-10.805
▁calories	-10.805
▁foirgnimh	-10.805
public	-10.805
▁European	-10.805
▁comhtháite	-10.805
▁dháileadh	-10.805
▁lipéad	-10.805
▁stoic	-10.805
íocaíochtaí	-10.8051
▁deacrachtaí	-10.8051
Chris	-10.8053
▁Glao	-10.8054
isín	-10.8054
▁chóip	-10.806
línte	-10.8061
▁mianraí	-10.8062
▁mhainn	-10.8065
▁oibleagáidí	-10.8095
▁ionsú	-10.8096
bur	-10.8097
▁dúradh	-10.8097
2018	-10.8099
times	-10.8103
▁Fuair	-10.8111
kg	-10.8111
▁onnmhair	-10.8112
▁chlé	-10.8114
▁International	-10.8121
▁Soláthar	-10.8121
▁carachtair	-10.8121
▁diúité	-10.8121
▁taispeántais	-10.8121
▁Next	-10.8121
▁misean	-10.8121
▁ábalta	-10.8121
ozrel	-10.8121
▁bainisteoir	-10.8121
▁chúig	-10.8124
▁mam	-10.8126
▁aisíocaíocht	-10.813
▁1967	-10.8133
▁Dír	-10.8136
▁boscaí	-10.8152
▁Cinnte	-10.8153
▁tréithe	-10.8154
▁réaltaí	-10.8165
▁substaintí	-10.8167
▁gorm	-10.8167
▁maisiú	-10.8171
▁Fad	-10.8172
uz	-10.8179
▁tarraingteach	-10.8186
▁gComhphobal	-10.8192
▁spórt	-10.8193
▁luaidhe	-10.8193
Caisleán	-10.8193
▁víosa	-10.8193
chleachtais	-10.8194
▁dheasca	-10.8196
▁shots	-10.8196
▁glao	-10.822
ship	-10.823
oz	-10.823
▁socraithe	-10.8234
▁dúnta	-10.8242
▁ionstraimí	-10.8251
▁gairme	-10.8255
▁dteanga	-10.8262
plátáilte	-10.8264
▁Athchóirithe	-10.8264
▁breosla	-10.8264
▁dhualgas	-10.8264
▁gContae	-10.8264
ramhaíl	-10.8264
▁gcluiche	-10.8264
▁gcaitheamh	-10.8264
▁mhaolú	-10.8264
▁Sathairn	-10.8265
▁seiceáil	-10.8265
ative	-10.8266
▁scrúduithe	-10.8266
▁bainise	-10.8268
▁1963	-10.8274
▁comhpháirtithe	-10.8276
lúthpháirtíochta	-10.8279
▁Acmhainní	-10.828
▁Líonra	-10.828
éireoidh	-10.829
600	-10.8302
gro	-10.8313
oibrigh	-10.8337
▁bParlaimint	-10.8337
▁cnaipe	-10.8337
▁neamhchoitianta	-10.8337
▁teicníc	-10.8337
▁Íseal	-10.8337
▁Dublin	-10.8337
▁chuardach	-10.8337
ruailliú	-10.8337
▁eochair	-10.8337
▁Laghd	-10.8337
▁Tábla	-10.834
▁mícheart	-10.8341
▁ailse	-10.8345
▁Chláir	-10.8345
▁fheidhmíocht	-10.8348
roinn	-10.8351
▁Garda	-10.8355
▁crios	-10.8364
live	-10.8372
▁Coda	-10.8374
▁cloí	-10.8378
▁chabhair	-10.8383
▁nGael	-10.8402
▁Bhruiséil	-10.841
▁Danmhairg	-10.841
▁dteastaíonn	-10.841
▁fisiciúil	-10.841
▁mhuintir	-10.841
▁Bogearraí	-10.841
▁fhéadfar	-10.841
▁léirmheasanna	-10.841
▁Ainmneacha	-10.841
▁Ghnóthaí	-10.841
▁Ríoga	-10.841
▁faisin	-10.841
cadóirí	-10.8412
▁Bliana	-10.8413
▁chonartha	-10.8414
▁OEM	-10.8415
▁dorcha	-10.8417
▁bhfeic	-10.8418
▁ranníocaíochtaí	-10.8419
leachtanna	-10.8421
▁mhíniú	-10.8421
▁athraithe	-10.8423
chéim	-10.8428
Comh	-10.8431
▁vitimíní	-10.8434
▁you	-10.8437
▁Déanta	-10.8441
▁fhás	-10.8449
▁laghdaithe	-10.8451
▁Amach	-10.8452
▁cruthú	-10.8468
▁léim	-10.8476
▁Mini	-10.8478
▁muir	-10.8478
▁Lesbians	-10.8483
▁chaiteachas	-10.8483
▁ndéanfadh	-10.8483
▁bhuiséad	-10.8483
▁Buíochas	-10.8483
▁bhfíric	-10.8483
▁orgánach	-10.8483
▁inslithe	-10.8484
▁saghas	-10.8484
▁scriú	-10.8485
▁gcúrsaí	-10.8485
▁shonraithe	-10.8485
John	-10.8485
▁tomhais	-10.8486
scrúdú	-10.8486
▁Dheirea	-10.8487
▁leasmhara	-10.8487
▁solais	-10.8489
▁Meas	-10.8489
▁cruinne	-10.8491
▁Teicneolaíocht	-10.85
oke	-10.8501
▁daor	-10.8504
▁Brand	-10.8506
▁Game	-10.8511
▁Rún	-10.8514
kh	-10.8528
Media	-10.854
▁more	-10.8554
SCEIDEAL	-10.8557
▁Bhreithiúnais	-10.8557
▁Sibhialta	-10.8557
▁Tráchtála	-10.8557
▁comhairliúcháin	-10.8557
▁polaitiúla	-10.8557
▁spriocdháta	-10.8557
Business	-10.8558
▁polasaí	-10.8558
▁Foclóir	-10.8558
▁mhuirearú	-10.8558
▁bailiúchán	-10.8559
▁faireachán	-10.8562
▁guy	-10.8565
▁chathaoirleach	-10.8569
▁Story	-10.8575
Chiste	-10.8577
▁leanfa	-10.8583
cúinsí	-10.8587
OLA	-10.8605
▁Tríú	-10.8619
▁ANKO	-10.8632
▁Microsoft	-10.8632
▁dhiúlta	-10.8632
chúraim	-10.8632
▁Oileáin	-10.8632
▁Ealaín	-10.8632
▁hinstitiúidí	-10.8632
▁fhógairt	-10.8632
▁áitribh	-10.8632
▁bpríomh	-10.8632
▁feasacht	-10.8633
▁éilíonn	-10.8634
eangacha	-10.8635
▁seasta	-10.8639
▁déileál	-10.8643
vin	-10.8643
▁comhairimh	-10.8644
▁meastar	-10.865
▁olc	-10.8654
▁aitheantais	-10.8667
▁Ráta	-10.8667
▁Rialaithe	-10.8674
▁Cúig	-10.8675
▁mála	-10.8676
eodh	-10.8691
▁Comhionannais	-10.8707
▁Eorpaí	-10.8707
▁Iascaigh	-10.8707
▁achoimre	-10.8707
▁creimeadh	-10.8707
▁Comhdháil	-10.8707
▁faigheann	-10.8707
▁ballóide	-10.8708
▁bhreithniú	-10.8709
▁théarmaí	-10.8711
ceart	-10.8714
áireofar	-10.8717
iarratasóirí	-10.8719
▁filleadh	-10.8721
▁hábhar	-10.8734
▁rásaí	-10.8742
▁seic	-10.8744
▁corp	-10.8745
▁rothar	-10.8746
▁híocaíochtaí	-10.875
▁bheartais	-10.8753
▁rialáil	-10.8754
ardaigh	-10.8763
▁bhuaigh	-10.8764
ition	-10.8768
▁málaí	-10.877
play	-10.8776
▁Chuarda	-10.8781
ruthúnas	-10.8781
▁Caiteachais	-10.8783
▁Committee	-10.8783
▁Limistéar	-10.8783
▁Lucsamburg	-10.8783
▁Slándála	-10.8783
▁diúscairt	-10.8783
▁hachomair	-10.8783
▁dtuairim	-10.8783
▁Iorua	-10.8783
▁seamhan	-10.8783
▁comhpháirt	-10.8784
▁Free	-10.8791
fri	-10.8793
ibé	-10.8799
▁Gold	-10.8804
▁lasc	-10.8806
▁sínithe	-10.8813
USA	-10.8817
ACHA	-10.8817
UR	-10.8819
▁péint	-10.8824
▁píosaí	-10.883
inniúlacht	-10.885
iméadar	-10.8859
chumarsáid	-10.8859
foirceannadh	-10.8859
▁Páirteanna	-10.8859
▁oiriúint	-10.8859
▁Deontais	-10.8859
▁Ábhair	-10.8859
▁United	-10.8859
chultúr	-10.8859
▁tuairisceán	-10.886
▁galair	-10.886
phointí	-10.8861
▁cheiliúradh	-10.8862
▁áthas	-10.8862
▁Ceamara	-10.8863
laíochta	-10.8864
▁Add	-10.8866
ique	-10.8877
▁Turasóireachta	-10.8881
▁Bhainc	-10.889
▁Bhun	-10.8895
▁mhaisiú	-10.8904
▁phróisis	-10.8936
▁gairid	-10.8937
▁forais	-10.8938
▁Mat	-10.8938
▁Togra	-10.8941
▁bróga	-10.8943
▁mhac	-10.8946
▁Críoch	-10.8947
éagsúlacht	-10.8947
chúrsa	-10.8948
riachtanach	-10.8948
áititheoir	-10.8954
▁luachmhar	-10.8975
elect	-10.8989
▁léirítear	-10.8989
▁Luan	-10.899
Chúirte	-10.8993
▁lasta	-10.8994
▁Author	-10.9014
Shéalainn	-10.9014
▁Ghrúpa	-10.9014
▁chreidiúint	-10.9014
▁sloinnte	-10.9014
▁soladach	-10.9014
▁urrús	-10.9014
▁chomhshaol	-10.9014
fhoirgneamh	-10.9014
▁clúdaithe	-10.9014
▁inchurtha	-10.9014
▁cleachtas	-10.9014
▁Eolais	-10.9015
▁airíonna	-10.9015
▁cáiliúla	-10.9017
pdf	-10.902
▁cuairteoirí	-10.9021
lódáil	-10.9021
chóiriú	-10.9029
cháilíocht	-10.9033
▁bhéarfa	-10.9034
rchuirtear	-10.9045
▁deonacha	-10.9059
▁báis	-10.9062
bhunscoileanna	-10.9066
media	-10.9078
▁ghrá	-10.9084
▁Fhaisnéis	-10.9092
▁Uirlis	-10.9092
▁dhiúltú	-10.9092
▁feithicil	-10.9092
▁ghruaig	-10.9092
▁Nádúr	-10.9092
▁cheadúnais	-10.9092
▁mhoill	-10.9092
▁soilse	-10.9092
▁Taispeántas	-10.9094
▁neamhdhleathach	-10.9094
▁gcineál	-10.9096
League	-10.9096
▁cáiliúil	-10.9097
▁clog	-10.9097
▁bhfaigheann	-10.9098
fhostú	-10.9101
▁onnmhairiú	-10.9103
▁Thiar	-10.9105
ionstraim	-10.9105
▁Soláthair	-10.911
oibríonn	-10.9111
▁dlífear	-10.9115
bhuirg	-10.9119
ghrád	-10.912
▁Airm	-10.9136
▁Imeachta	-10.9142
eitheal	-10.9153
magazine	-10.9171
▁Fiontraíocht	-10.9171
▁caipitiúil	-10.9171
▁rannchuid	-10.9171
▁sláintíochta	-10.9171
iompróir	-10.9171
▁Plaisteach	-10.9171
▁Scheme	-10.9171
cheangail	-10.9171
▁ullmhaithe	-10.9171
▁tógtha	-10.9171
▁dearcadh	-10.9171
▁thacaíocht	-10.9172
▁éifeachtacht	-10.9174
▁Riail	-10.9177
▁dhíreach	-10.9177
▁dhéanfa	-10.9183
ullmha	-10.9185
▁taos	-10.9185
shláinte	-10.9186
achomharc	-10.9186
▁sub	-10.9188
bhreithiúna	-10.9205
scéalta	-10.9206
▁Amharc	-10.9212
▁gcuma	-10.9213
▁Daonlatha	-10.925
▁fírinne	-10.925
▁neamhghnách	-10.925
▁teagmhas	-10.925
▁hathruithe	-10.925
fhreastal	-10.925
▁Android	-10.925
▁Féile	-10.9251
téarma	-10.9253
▁ainmniúcháin	-10.9256
▁spreagúil	-10.9256
▁samhail	-10.9257
▁seachtainiúil	-10.9257
▁mall	-10.9259
Spáinnis	-10.9262
▁Scéal	-10.9266
Ireland	-10.9267
uirlisí	-10.9268
▁Glan	-10.928
▁Mhór	-10.9289
▁Modh	-10.9311
▁Ioma	-10.9318
▁fadhb	-10.9322
▁scaip	-10.9328
▁Fraince	-10.933
▁Kashtanka	-10.933
▁cadhnraí	-10.933
▁feabhsaithe	-10.933
▁pussy	-10.933
▁fhíorú	-10.933
▁sainráite	-10.933
▁tapúla	-10.933
▁dlíthiúla	-10.9331
▁eisíodh	-10.9338
▁Rúise	-10.9343
▁Bhéal	-10.9348
▁Gníomhaireachta	-10.9352
▁cobhsaí	-10.9358
▁cumann	-10.936
inntíonn	-10.9364
▁Coimisinéir	-10.9371
▁Leagan	-10.9386
▁mball	-10.9394
▁Education	-10.9411
▁foirgníochta	-10.9411
▁ocsaigin	-10.9411
▁Iomlán	-10.9411
▁litríocht	-10.9411
▁mbeif	-10.9411
▁cuardaigh	-10.9412
▁Halla	-10.9414
▁Human	-10.9414
féach	-10.9415
eofaí	-10.9416
▁téip	-10.942
▁gnóthaí	-10.942
▁150	-10.943
oideas	-10.9434
board	-10.9435
ilium	-10.944
▁coda	-10.9447
▁shonróid	-10.9453
▁trédhearcach	-10.9484
ghiniúint	-10.9492
ÍOCHT	-10.9492
▁dtimpeallacht	-10.9492
▁bhriseadh	-10.9492
▁Ceanada	-10.9492
▁síneadh	-10.9492
▁feadán	-10.9494
ainmneacha	-10.9497
▁phá	-10.9497
vid	-10.9499
▁aibí	-10.95
▁gcomhaontú	-10.9501
▁cóid	-10.9504
▁Leathar	-10.9506
▁iontrála	-10.9509
oibríochtaí	-10.9512
réitigh	-10.9512
▁Siopa	-10.9514
▁hoibre	-10.9519
ainmniú	-10.9524
dhíol	-10.9525
▁thras	-10.9534
aontú	-10.9537
▁sibh	-10.9545
Eabhrac	-10.9568
▁leaba	-10.9572
▁Limited	-10.9574
▁hOllscoile	-10.9574
▁mhonarú	-10.9574
▁siamsaíocht	-10.9574
▁giorra	-10.9574
▁German	-10.9574
▁Taobh	-10.9574
▁forléireo	-10.9574
.........	-10.9574
▁thogra	-10.9575
▁ngrúpa	-10.9575
▁Chomhaontú	-10.9576
pple	-10.9576
▁coiteann	-10.9576
▁creidiúnaithe	-10.958
▁riaradh	-10.959
bhainistíocht	-10.9594
ghrúpa	-10.9594
▁gceanta	-10.9595
▁síniú	-10.9597
liosta	-10.9602
▁Gabh	-10.9604
IÚ	-10.9614
▁chláraithe	-10.9614
aontuithe	-10.9615
▁Thairis	-10.9616
▁shocr	-10.9622
▁sheas	-10.963
▁Roll	-10.965
▁polai	-10.9654
▁Eilvéis	-10.9657
▁dílsithe	-10.9657
▁forlámhas	-10.9657
▁orgasm	-10.9657
▁shásamh	-10.9657
▁sucking	-10.9657
▁thuaidh	-10.9657
▁FÁS	-10.9657
john	-10.9657
▁damhsa	-10.9657
▁Treoirlínte	-10.9658
▁bláthanna	-10.9661
▁cuntasaíochta	-10.9663
ender	-10.9667
chuspóir	-10.9681
▁bunscoile	-10.9685
(4)	-10.9688
▁1923	-10.969
ept	-10.9691
▁Ola	-10.9697
INT	-10.9699
▁1924	-10.97
▁Imeachtaí	-10.9702
ionadaithe	-10.9702
éachtaí	-10.9727
▁cumais	-10.9734
▁ghníomhaire	-10.9735
hóiste	-10.9736
▁spiorad	-10.974
▁Coitianta	-10.974
▁Struchtúr	-10.974
▁fhorlíonadh	-10.974
▁claochl	-10.974
▁dhlíthiúil	-10.974
▁tabhaíodh	-10.974
▁déanmhas	-10.974
▁bréagach	-10.974
▁thosú	-10.974
▁diaper	-10.974
▁breac	-10.9741
▁South	-10.9742
▁bhuachan	-10.9743
▁chomhlíonann	-10.9743
▁(10)	-10.9744
▁gabhálais	-10.9749
▁aisling	-10.9752
▁bainistíocht	-10.9755
▁1988	-10.9758
Ghaeilge	-10.9765
scoileanna	-10.9765
▁táirgeachta	-10.9766
▁comhpháirteach	-10.9772
▁breithiúnas	-10.9773
other	-10.9789
▁Nasc	-10.979
choiste	-10.9791
▁phleanáil	-10.9796
▁braiteoir	-10.9815
▁malartú	-10.9822
▁gcoimeád	-10.9824
athnuaite	-10.9824
▁Pearsanta	-10.9824
▁pionóis	-10.9824
▁Fuinnimh	-10.9824
▁theorainn	-10.9824
▁Pháirtí	-10.9824
▁Asraon	-10.9824
▁fionraí	-10.9824
▁saineolas	-10.9829
▁bpáistí	-10.9829
IRE	-10.983
cheathrú	-10.9831
▁chomhrac	-10.9831
▁Iarthar	-10.9833
▁dtabharfa	-10.9866
▁aschur	-10.9874
▁idirghabhála	-10.9888
▁fhrith	-10.9896
Tele	-10.9897
iarmhéid	-10.9901
▁bhuíochas	-10.9909
▁iontaobhais	-10.9909
▁pacáistiú	-10.9909
▁sciorta	-10.9909
▁bronntanais	-10.9909
▁chugat	-10.9909
▁uirbeach	-10.9909
▁bileog	-10.9909
▁Laidin	-10.991
▁stampa	-10.9912
▁Suas	-10.9913
▁suimiúla	-10.9918
▁Airteagail	-10.992
Daily	-10.9921
▁Comhlacht	-10.9922
▁Eagr	-10.9924
▁glaoch	-10.9924
▁guth	-10.9927
;&	-10.9936
▁gearrtha	-10.9936
▁Asal	-10.9942
▁bhuail	-10.9957
ionsaithe	-10.9961
will	-10.9983
▁choinn	-10.9986
NO	-10.9993
▁Shaorá	-10.9994
thaispeán	-10.9994
▁caibidlí	-10.9994
europapress	-10.9994
▁Pacáistiú	-10.9994
▁tarmligthe	-10.9994
▁rochtana	-10.9994
▁tráthnóna	-10.9994
▁ceantair	-10.9994
▁slándáil	-10.9994
▁Bhuel	-10.9994
▁bhfógra	-10.9994
▁chultúrtha	-10.9994
▁TSín	-10.9994
▁seaicéid	-10.9995
▁shaoránaigh	-10.9995
▁chomaoin	-10.9996
▁lampa	-10.9998
▁bplean	-11
tomhas	-11.0008
▁háiteanna	-11.0009
▁Téarmaí	-11.0014
▁iomarcach	-11.0017
▁1990	-11.0024
Green	-11.0034
átrún	-11.0061
euro	-11.0067
▁Ilghnéitheacha	-11.008
▁Office	-11.008
▁mhealladh	-11.008
▁tSualainn	-11.008
▁thrádáil	-11.008
▁Taoiseach	-11.008
▁Institute	-11.0081
▁rannóg	-11.0081
▁triúr	-11.0081
▁asraon	-11.0083
▁Comp	-11.0084
▁ionchur	-11.0085
▁cothromaíocht	-11.0086
▁foraoise	-11.0094
▁seó	-11.0096
ombie	-11.0103
oiriúnach	-11.0112
▁tuismitheoir	-11.0127
pháirtithe	-11.0134
íonachta	-11.0142
Ceist	-11.0146
world	-11.0167
▁Gheobhaidh	-11.0167
▁Ollmhór	-11.0167
▁Phortaingéil	-11.0167
▁aicrileach	-11.0167
▁fhoirceannadh	-11.0167
▁morgáiste	-11.0167
▁ceardlann	-11.0167
▁PVC	-11.0168
▁Bunúsach	-11.0168
▁gunna	-11.0168
Páirtithe	-11.0169
▁cócaireacht	-11.017
▁fonn	-11.0171
▁gcinneadh	-11.0171
▁gcomhlíonadh	-11.0172
book	-11.0174
▁malartacha	-11.0176
▁Moltar	-11.0176
▁fráma	-11.018
rust	-11.0181
▁Ceart	-11.0181
▁fhreagracht	-11.0192
aicme	-11.0201
irteagail	-11.0244
▁Eaglais	-11.0255
▁díospóid	-11.0255
▁trealaimh	-11.0255
▁Breithiúna	-11.0255
cricket	-11.0255
▁bónais	-11.0255
▁Minister	-11.0256
▁dtéarmaí	-11.0257
▁cainteoirí	-11.0257
fhocail	-11.026
▁logáil	-11.0262
▁shraith	-11.0267
▁1996	-11.0271
▁díoltóir	-11.0273
lock	-11.0274
▁Ceannaigh	-11.0279
▁Sampla	-11.0279
áitreabh	-11.0289
Éire	-11.0315
▁mbarr	-11.032
intinn	-11.0336
▁Bunaío	-11.0336
▁thabha	-11.0337
▁jewelry	-11.0344
▁Ionstraim	-11.0344
▁Talún	-11.0344
iontaobhaithe	-11.0344
▁tionchair	-11.0344
oibhneas	-11.0344
▁caillteanais	-11.0344
▁Socruithe	-11.0347
▁chucu	-11.0347
▁aisghabháil	-11.035
▁scíth	-11.0357
▁1000	-11.0367
▁ranníocaíocht	-11.0373
▁eacnamaíochta	-11.0374
eagair	-11.0377
tábhachtach	-11.0378
thábhacht	-11.0379
▁cumhachtach	-11.038
800	-11.0384
Music	-11.0393
▁cearnach	-11.0396
▁Caith	-11.0411
ocsa	-11.0432
▁Leispiacha	-11.0433
▁Technology	-11.0433
▁strainséir	-11.0433
▁Shábháilteacht	-11.0433
▁timthriall	-11.0433
▁dhroim	-11.0433
▁sexy	-11.0433
▁Bileog	-11.0433
éatadán	-11.0433
▁trastomhas	-11.0435
▁comhréireachta	-11.0437
▁cuimhneamh	-11.0437
▁trédhearcacht	-11.0442
▁1992	-11.0447
▁TFC	-11.0468
“	-11.047
liúntas	-11.0481
duine	-11.0493
▁Éirí	-11.05
▁gcorp	-11.052
▁Public	-11.0523
▁Tuairimí	-11.0523
▁bhfaisnéis	-11.0523
▁luaidhtear	-11.0523
▁Miotal	-11.0523
▁éigeantach	-11.0523
▁siopadóireacht	-11.0523
▁chónaíonn	-11.0523
▁abhaile	-11.0523
thrádála	-11.0523
ITHE	-11.0523
▁seánra	-11.0524
▁Leighis	-11.0524
▁fúthu	-11.0524
▁comhsheasmhach	-11.0525
▁íomhánna	-11.0525
▁thairg	-11.0525
▁éinní	-11.0525
▁cheanglaítear	-11.0528
▁caillte	-11.0529
▁strus	-11.053
▁chúnamh	-11.053
▁bhFear	-11.054
athraigh	-11.0541
field	-11.0545
▁hobair	-11.0549
▁China	-11.0552
Ionad	-11.0561
▁316	-11.0567
▁scríbhneoir	-11.0572
2014	-11.0598
▁mbearta	-11.0601
ology	-11.0608
éabhlóid	-11.0614
▁COVID	-11.0614
▁alúmanam	-11.0614
▁cúnaimh	-11.0614
▁fomhír	-11.0614
▁himthosca	-11.0614
▁mheaitseáil	-11.0614
▁praiticiúil	-11.0614
▁speisialtóir	-11.0614
▁litiam	-11.0614
▁tiubh	-11.0614
▁thaighde	-11.0614
▁gcumhacht	-11.0614
▁tsamhail	-11.0614
▁shoiléir	-11.0614
▁calaois	-11.0614
únaer	-11.0614
▁Cogadh	-11.0615
Social	-11.0615
▁imeall	-11.0616
▁Eachtra	-11.0616
▁reachtúla	-11.0617
▁Beaga	-11.0618
pháirtí	-11.0621
▁charr	-11.0623
▁méadaithe	-11.0627
Gene	-11.063
▁mheasfaidh	-11.0636
fhiosrú	-11.0638
▁Press	-11.0642
▁fheice	-11.0643
▁Grá	-11.0643
game	-11.0646
▁breithiúnach	-11.0647
idirbheart	-11.0655
▁crann	-11.0658
mheasta	-11.066
▁Mhá	-11.0691
▁dheimhn	-11.0697
láintiúil	-11.0701
▁thionscn	-11.0703
▁Amaitéarach	-11.0706
▁Fhionlainn	-11.0706
▁Leibhéal	-11.0706
▁Trenbolone	-11.0706
▁chaiteachais	-11.0706
▁thosaíonn	-11.0706
▁Éasca	-11.0706
▁intíre	-11.0706
▁Ghael	-11.0706
▁ghearán	-11.0706
▁oireann	-11.0707
▁comhiomlán	-11.071
▁ríomhairí	-11.0712
▁chuirimid	-11.0715
▁coinneáil	-11.0717
▁tarchur	-11.0721
eagraíocht	-11.0738
▁stua	-11.0747
–	-11.0748
▁rannpháirtí	-11.0766
▁Cheap	-11.0771
úsáideann	-11.0786
▁príosúnacht	-11.079
rabúis	-11.0791
▁diúlt	-11.0794
▁Atlanta	-11.0798
▁Barbour	-11.0798
▁Mheithimh	-11.0798
▁Torthaí	-11.0798
▁hAstráile	-11.0798
▁mionsonraí	-11.0798
▁shainaithint	-11.0798
▁cultúir	-11.0798
▁fuinneog	-11.0798
▁buntáiste	-11.0798
▁sliocht	-11.0798
▁Ghairm	-11.0798
▁Díbh	-11.0802
▁tarraingthe	-11.0804
▁shoot	-11.0806
▁1994	-11.0812
▁stopadh	-11.0813
▁iarrtha	-11.0831
▁tráthúil	-11.0836
oiliúint	-11.0842
cibé	-11.0865
paráid	-11.0878
uporn	-11.0886
▁dúchais	-11.0892
▁inrochtana	-11.0892
▁leithdháileadh	-11.0892
▁muintir	-11.0892
▁urrúis	-11.0892
▁Ísiltír	-11.0892
▁Úcráin	-11.0892
▁Bhéarla	-11.0892
▁acadúil	-11.0892
▁Pholainn	-11.0892
▁Polasaí	-11.0892
▁fiontair	-11.0892
▁ndearadh	-11.0892
▁sonraíochtaí	-11.0892
▁boird	-11.0892
▁paitinn	-11.0892
▁díbhinn	-11.0892
▁turasóireachta	-11.0893
▁casadh	-11.0894
▁sásra	-11.0894
eoltóirí	-11.0901
▁bheirt	-11.0904
▁eagraithe	-11.0905
▁1995	-11.0906
▁bianna	-11.0907
▁púdar	-11.0909
France	-11.091
▁cóiríocht	-11.0922
údaráis	-11.0926
▁chreat	-11.0939
▁Nio	-11.0969
agraíonn	-11.0981
free	-11.0982
▁Rómhánach	-11.0986
▁sorcóir	-11.0986
▁toirmeasc	-11.0986
▁thionchar	-11.0986
▁Bóthar	-11.0986
gealltanas	-11.0986
▁Europol	-11.0988
▁ceadúnaithe	-11.0988
online	-11.0988
▁baineadh	-11.0992
▁fhorchur	-11.0993
▁tiús	-11.0993
▁daite	-11.0995
point	-11.0997
2016	-11.1003
girl	-11.1009
▁sách	-11.1012
chuimsitheach	-11.1012
▁fosta	-11.103
▁céadta	-11.1043
▁fís	-11.1045
▁Corparáideach	-11.106
▁soláthrói	-11.1081
football	-11.1081
▁chlúdach	-11.1081
▁comórtas	-11.1081
▁déantúsóirí	-11.1081
▁struchtúir	-11.1081
▁thorthaí	-11.1081
Australia	-11.1081
▁bóthar	-11.1081
▁Dhaoine	-11.1081
▁gnóthas	-11.1082
▁reiligiún	-11.1082
▁hOifige	-11.1082
▁USB	-11.1082
▁míosa	-11.1082
▁Straitéiseach	-11.1083
▁Local	-11.1085
▁foriomlán	-11.1086
▁Phort	-11.1088
▁tarraing	-11.1095
▁fillte	-11.1097
▁Eacnamaíochta	-11.1103
▁Bainistíocht	-11.1109
▁SAM	-11.1116
▁mheastar	-11.112
lúdaíonn	-11.1121
oibleagáid	-11.113
iniúchadh	-11.113
▁fórsa	-11.1137
fhorálacha	-11.1138
chóras	-11.1164
▁tháirge	-11.1168
▁dhúnadh	-11.1177
▁eascraíonn	-11.1177
▁stáisiúin	-11.1177
▁dámhachtain	-11.1177
▁miondíola	-11.1177
▁Earraigh	-11.1177
▁Tiarna	-11.1177
▁roisín	-11.1177
▁tuirse	-11.1178
▁bhronn	-11.1178
▁Óstán	-11.1178
▁naimhde	-11.1179
ifreann	-11.1179
▁breithniú	-11.118
▁Bheilg	-11.118
mhínítear	-11.1181
▁seisiún	-11.1182
▁Old	-11.1183
▁foinsí	-11.1185
▁láithr	-11.1187
umha	-11.1188
▁fhiach	-11.119
▁ISO	-11.1196
▁1927	-11.1198
▁1956	-11.1198
▁ndlí	-11.1204
▁micrea	-11.1216
jack	-11.1254
▁Sonraíocht	-11.1266
▁carn	-11.1268
▁Páipéar	-11.1274
▁bréagáin	-11.1274
▁gceangal	-11.1274
▁shaincheapadh	-11.1274
▁thuilleamh	-11.1274
▁nglacadh	-11.1274
▁Inmheánach	-11.1275
▁feistis	-11.1275
▁tairseach	-11.1275
▁Silver	-11.1275
▁Coats	-11.1275
▁turais	-11.1276
▁thaisceadh	-11.1276
▁cainníocht	-11.1276
▁comhchoiteann	-11.1276
▁buille	-11.1286
▁feidhmiúcháin	-11.1287
▁ghrian	-11.1291
raein	-11.1295
heideal	-11.1301
2015	-11.1318
Iarscríbhinn	-11.1327
éisteacht	-11.133
▁rásaíocht	-11.1333
▁minicíocht	-11.1361
innéacs	-11.1373
▁Liotuáin	-11.1373
▁Oiliúint	-11.1373
▁Tionscadail	-11.1373
▁bharántas	-11.1373
▁sapphire	-11.1373
▁Ghréig	-11.1373
▁maighnéad	-11.1373
▁mhíleata	-11.1373
▁idéalach	-11.1373
▁Angeles	-11.1373
!!!	-11.1373
▁Ceol	-11.1373
▁Center	-11.1373
▁ráthú	-11.1373
▁comhshocraíocht	-11.1375
uasmhéid	-11.1375
Faoiseamh	-11.1376
▁feasach	-11.1377
▁Auto	-11.138
▁chuairt	-11.138
▁príosún	-11.1381
▁dheas	-11.1382
▁aiseolas	-11.1386
▁1961	-11.1386
▁liachta	-11.1387
asbhain	-11.1391
▁tonna	-11.1397
▁comhordú	-11.14
▁ngá	-11.1402
▁Críost	-11.1403
oscailt	-11.1404
fheabhs	-11.141
iarratais	-11.1412
choimeád	-11.1427
aontaigh	-11.1431
▁Cuarda	-11.1432
▁scaoil	-11.1445
▁dalta	-11.1451
▁dtiocfa	-11.1469
▁Foilseacháin	-11.1472
▁Teagasc	-11.1472
▁mhúineadh	-11.1472
▁sliotán	-11.1472
▁staitisticí	-11.1472
▁mhilliún	-11.1472
▁mullaigh	-11.1472
▁stiúradh	-11.1472
▁paisinéirí	-11.1472
Global	-11.1472
▁cartúin	-11.1474
▁dífhostaithe	-11.1476
▁diosca	-11.1477
▁hoibreacha	-11.1479
▁comhlíonta	-11.1482
ridge	-11.1487
▁ghlao	-11.1488
▁vótaíochta	-11.1495
▁ghníomhaireacht	-11.1497
1,000	-11.151
izz	-11.1512
▁fuaim	-11.1519
fhoghlaim	-11.1528
chumhacht	-11.1529
rochtain	-11.1535
▁Údar	-11.1568
eacnama	-11.157
▁Doiciméid	-11.1572
▁Músaem	-11.1572
▁Tairiscintí	-11.1572
▁Tionsclaíoch	-11.1572
▁imscrúdaithe	-11.1572
▁litreacha	-11.1572
▁muscle	-11.1572
▁Tiontaire	-11.1572
▁fashion	-11.1572
▁fisiceach	-11.1572
▁phinsin	-11.1572
▁Breasts	-11.1572
▁Cairdeas	-11.1572
▁hoibleagáidí	-11.1572
▁Ostair	-11.1572
▁Cúnamh	-11.1572
▁frása	-11.1572
▁imirce	-11.1573
▁Ardchaighdeáin	-11.1574
▁tanaí	-11.1575
shaoil	-11.1577
▁chruthaíonn	-11.1578
▁comhoiriúnach	-11.1579
▁coiriúla	-11.159
house	-11.1622
chúram	-11.163
omhlíonfaidh	-11.1638
ithníonn	-11.1639
▁iomarca	-11.1645
▁contúirteach	-11.1669
thionscadal	-11.1673
▁Láithreán	-11.1673
▁creideamh	-11.1673
▁fulaingt	-11.1673
▁toghchán	-11.1673
fhulaing	-11.1673
▁chleachtadh	-11.1673
▁White	-11.1673
▁fachtóirí	-11.1673
▁Athruithe	-11.1673
▁leispiacha	-11.1673
▁rannán	-11.1673
▁cúltaca	-11.1673
FCBarcelona	-11.1673
▁samhlacha	-11.1673
▁namhaid	-11.1674
aithin	-11.1675
teiripe	-11.1676
▁feirmeoirí	-11.1676
▁cháilitheach	-11.1679
▁iarrtar	-11.1686
▁Aicm	-11.1698
▁LED	-11.1703
ullmhú	-11.1735
▁leagfa	-11.1762
fheidhmeannach	-11.1769
▁toirmisc	-11.1775
Atlantic	-11.1775
Mhúsaem	-11.1775
siombail	-11.1775
▁Freastal	-11.1775
▁Seapáinis	-11.1775
▁Shóisialta	-11.1775
▁Tionscadal	-11.1775
▁borradh	-11.1775
▁conclúidí	-11.1775
▁nDaonlathaithe	-11.1775
▁neamhfhoirmiúil	-11.1775
▁próitéin	-11.1775
▁radharc	-11.1775
▁scáileáin	-11.1775
▁uasghrádú	-11.1775
Project	-11.1775
▁Uachtarach	-11.1775
▁Aistriúcháin	-11.1775
▁Inscne	-11.1775
▁carachtar	-11.1775
▁scilling	-11.1775
▁bhfostaíocht	-11.1775
▁cistiú	-11.1775
▁cuimilteora	-11.1775
▁ndeon	-11.1776
▁chomhionann	-11.1776
▁mharú	-11.1777
▁iarainn	-11.1784
▁Saoránach	-11.1785
▁lánúin	-11.1788
▁1989	-11.1793
▁Díreach	-11.1805
▁phearsa	-11.1821
ACHTA	-11.1831
luain	-11.1863
shruth	-11.1865
Book	-11.1869
fhoirgnimh	-11.1878
▁Comhphobail	-11.1878
▁JavaScript	-11.1878
▁Mhúinteoirí	-11.1878
▁Organization	-11.1878
▁alcóil	-11.1878
▁chúiteamh	-11.1878
▁teaghais	-11.1878
▁thomhaltóirí	-11.1878
orporate	-11.1878
▁mogalra	-11.1878
▁ngairmtear	-11.1878
▁Ceantair	-11.1878
▁County	-11.1878
▁Conarthaí	-11.1878
fhógair	-11.1878
▁glúine	-11.1878
▁iniompartha	-11.1878
▁Féadtar	-11.1878
▁Bhliain	-11.1878
▁VII	-11.1878
▁líníocht	-11.1879
▁Bunscoile	-11.1885
▁1993	-11.1891
▁críochnú	-11.1892
ficial	-11.1928
▁iontaofacht	-11.1933
choda	-11.1934
Oibreacha	-11.1946
táirge	-11.1966
ríomh	-11.1977
▁Bhreatain	-11.1982
▁Coimeád	-11.1982
▁bhabhta	-11.1982
▁eatarthu	-11.1982
▁pornozal	-11.1982
▁toirchis	-11.1982
▁trádmharc	-11.1982
▁cheantair	-11.1982
▁phionós	-11.1982
▁Braiteoir	-11.1982
▁Uladh	-11.1982
▁Costais	-11.1983
▁gcúis	-11.1983
London	-11.1983
▁ngníomhaíochtaí	-11.1985
▁shealbhóir	-11.1987
▁aistriúchán	-11.1989
▁iarmhar	-11.199
CBS	-11.199
▁fholaíonn	-11.1991
hraith	-11.1991
▁iontas	-11.1997
▁spéir	-11.2001
▁Príobháideach	-11.2013
zhen	-11.2038
watch	-11.205
croílár	-11.205
▁fireann	-11.2061
néise	-11.2063
eallraí	-11.2075
eintiteas	-11.2087
▁bréagán	-11.2087
▁theaghlach	-11.2087
▁romhat	-11.2087
▁Pacáiste	-11.2087
▁blonde	-11.2087
▁díolmhaithe	-11.2087
▁Láirge	-11.2087
▁Fianáin	-11.2087
▁ceantar	-11.2087
▁deonaíodh	-11.2087
▁Coiriúil	-11.2087
ndúireacht	-11.2088
▁leantóirí	-11.2088
▁eisiach	-11.2088
▁Réamhrá	-11.209
▁tromlach	-11.209
script	-11.209
▁gComhaontú	-11.2093
oileáin	-11.2094
▁gcaidreamh	-11.2098
▁comhaimseartha	-11.2105
bhua	-11.2108
▁tosaithe	-11.2131
Open	-11.2131
▁chabhr	-11.2142
▁Monaróir	-11.2153
údair	-11.2161
íomar	-11.2166
éasca	-11.2171
▁Corcaigh	-11.2193
▁Ghinearálta	-11.2193
▁Voyeurism	-11.2193
▁dhigiteach	-11.2193
▁gheimhreadh	-11.2193
▁iliomad	-11.2193
▁ngréasán	-11.2193
▁Deimhnithe	-11.2194
▁Priontáil	-11.2194
▁dífhostaíochta	-11.2194
▁Faisean	-11.2194
▁Éifeacht	-11.2194
oiriúnaithe	-11.2194
▁thaithí	-11.2194
▁Sonrú	-11.2194
▁Blue	-11.2195
▁(11)	-11.2196
▁Domhain	-11.2197
▁Fireann	-11.2204
▁Sasana	-11.2207
▁rátáil	-11.2208
▁2021	-11.2209
▁Cóip	-11.2231
gio	-11.2261
Treoir	-11.2274
▁sreabh	-11.2291
▁chuims	-11.2299
▁aighneachtaí	-11.2301
▁chustaiméara	-11.2301
▁coincheap	-11.2301
▁polaitíochta	-11.2301
▁scratch	-11.2301
▁tsamhraidh	-11.2301
▁uaslódáil	-11.2301
▁Maoiniú	-11.2301
▁chorparáide	-11.2301
▁Saoirse	-11.2301
▁dúlra	-11.2301
▁cinntiú	-11.2302
▁ospidéil	-11.2302
▁orlach	-11.2302
▁mhodhnú	-11.2304
▁suiteáilte	-11.2308
▁suímh	-11.2314
▁coistí	-11.2318
radaim	-11.2318
count	-11.2345
aontaíonn	-11.2356
cheantar	-11.2375
bhealach	-11.2376
▁Feist	-11.2378
teachtaireachtaí	-11.2392
▁Leictreonach	-11.241
▁Riachtanais	-11.241
▁Uachtaráin	-11.241
▁bhfomhír	-11.241
▁sceitheadh	-11.241
▁shuntasach	-11.241
▁mheaisín	-11.241
▁mhúnla	-11.241
▁Suirbhé	-11.241
roulette	-11.241
▁chogaidh	-11.241
▁Lárionad	-11.241
▁fiontraí	-11.241
▁Méadú	-11.241
sign	-11.2411
▁míonna	-11.2412
náisiúnaigh	-11.2412
▁eachtraíochta	-11.2413
álfaidh	-11.2414
▁gníomhairí	-11.2415
▁Pacáil	-11.2418
black	-11.2418
▁tástálacha	-11.2422
tweet	-11.2438
doiciméad	-11.2486
iarraidh	-11.2493
chineál	-11.2499
▁breathn	-11.2501
▁Gné	-11.2506
▁Oibríocht	-11.2507
▁Credits	-11.252
▁Firefox	-11.252
charbóin	-11.252
▁Phobal	-11.252
▁Teoranta	-11.252
▁0/0	-11.252
▁Spying	-11.252
▁comparáid	-11.252
▁chárta	-11.252
▁dollar	-11.2521
▁Spreag	-11.2522
▁Teastas	-11.2522
▁gcostas	-11.2522
▁rialuithe	-11.2526
▁coiriúil	-11.2526
▁chuimsiú	-11.2529
fhormheas	-11.2546
▁bhforál	-11.2579
Grúpa	-11.2599
life	-11.2624
spidéil	-11.263
▁Phacastáin	-11.2631
▁Stocaí	-11.2631
▁tairbhí	-11.2631
▁Monatóireacht	-11.2631
Library	-11.2631
▁aláraim	-11.2631
caomhnóir	-11.2631
▁gairdín	-11.2631
▁dearthóir	-11.2631
▁Bróga	-11.2631
▁urlár	-11.2631
▁eadhon	-11.2632
▁riarachán	-11.2633
sheomra	-11.2634
▁leagadh	-11.2634
Royal	-11.2634
▁thuar	-11.2635
▁tarchurtha	-11.2639
▁Forex	-11.2643
hosaigh	-11.2654
▁Cúrsa	-11.266
▁fhís	-11.2688
▁scrúdaithe	-11.269
chaighdeáin	-11.2737
Léarscáil	-11.2743
▁alúmanaim	-11.2743
▁coimhdeachta	-11.2743
▁hAfraice	-11.2743
▁mBúcairist	-11.2743
▁mhonaróir	-11.2743
umhdaítear	-11.2743
▁cairdiúil	-11.2743
▁Bronnta	-11.2743
▁tionól	-11.2743
dícheall	-11.2743
▁Aitheanta	-11.2743
▁fáinne	-11.2743
▁buartha	-11.2744
▁Athchóiriú	-11.2744
▁Leabharlainne	-11.2745
▁Manufacturers	-11.2745
▁eastát	-11.2746
▁Meiriceánach	-11.2747
▁gcoinníollacha	-11.2749
▁olann	-11.2773
tiocfaidh	-11.2791
3%	-11.2798
▁tomhaltóir	-11.2816
fhuaim	-11.2853
Daonáirimh	-11.2857
TUAIRIM	-11.2857
▁Oiriúnach	-11.2857
▁buidéal	-11.2857
▁comhtháthú	-11.2857
▁dheireanach	-11.2857
▁pháipéar	-11.2857
▁fiosrúchán	-11.2857
▁scagaire	-11.2857
▁Women	-11.2857
▁gCoinbhinsiún	-11.2858
▁chigire	-11.2858
▁soláthairtí	-11.286
scríbhneoirí	-11.2876
thosaíocht	-11.2892
frik	-11.2918
deireadh	-11.2945
▁cheol	-11.2956
▁gcoinníoll	-11.2966
Mhúinteoireachta	-11.2972
▁Iosrael	-11.2972
▁Luimnigh	-11.2972
▁Product	-11.2972
▁chailliúint	-11.2972
▁comhaontaithe	-11.2972
▁dhromchla	-11.2972
▁geografach	-11.2972
▁teileafóin	-11.2972
▁threisiú	-11.2972
▁Éigeandála	-11.2972
▁Chorparáid	-11.2972
tocsaineach	-11.2972
▁Winx	-11.2972
▁Chustaiméirí	-11.2972
▁tiarna	-11.2972
▁náisiúnach	-11.2972
▁Gúna	-11.2974
ofheicthe	-11.2974
▁tailte	-11.2976
▁Meastar	-11.2978
▁Fíor	-11.2979
▁shúchán	-11.298
ghalar	-11.2983
▁Seanad	-11.2984
North	-11.2997
iasacht	-11.3004
Radio	-11.3053
aimsir	-11.3085
isciplín	-11.3088
▁Dearbhú	-11.3088
▁Ioncuim	-11.3088
▁Ungáir	-11.3088
▁codlata	-11.3088
▁iargúlta	-11.3088
▁phriontáil	-11.3088
▁theaghlaigh	-11.3088
▁thoirmeasc	-11.3088
▁finné	-11.3088
▁féilire	-11.3088
▁Foirne	-11.3088
▁ciseal	-11.3088
forlíonadh	-11.3088
▁allmhairí	-11.3089
rúisis	-11.3089
▁dTeangacha	-11.3089
▁bailíodh	-11.3089
▁Daonna	-11.3089
proof	-11.309
▁chuici	-11.3091
▁matáin	-11.3093
▁Measfar	-11.3093
▁gnóchain	-11.3094
▁Neart	-11.3094
▁Cuairt	-11.3095
▁mbosca	-11.3097
ndust	-11.3101
eagán	-11.3128
▁Clúda	-11.316
▁táthú	-11.3172
íchumasaithe	-11.3175
tarraingt	-11.3182
▁Bhóithre	-11.3206
▁geimhreadh	-11.3206
▁grafaicí	-11.3206
▁samhradh	-11.3206
▁scuab	-11.3206
▁breoite	-11.3206
▁Leathanach	-11.3206
▁Deontas	-11.3206
▁[...]	-11.3206
▁himreoirí	-11.3206
▁peataí	-11.3206
▁chách	-11.3206
▁sneachta	-11.3206
racial	-11.3206
▁agallamh	-11.3206
▁aonfhoirmeach	-11.3207
iompraío	-11.3207
▁smaoin	-11.3207
▁ceathrú	-11.3208
▁Airgeadaíochta	-11.3209
▁draíochta	-11.321
ART	-11.3223
tube	-11.3223
▁cistin	-11.323
▁Corparáide	-11.3232
Action	-11.3239
▁Glaca	-11.3255
▁creidmheas	-11.3265
change	-11.3274
oidhreacht	-11.3303
▁mheasúnacht	-11.3303
▁Comhroinn	-11.3319
Magazine	-11.3325
▁Gearmáine	-11.3325
▁Sláintíochta	-11.3325
▁Teagmhála	-11.3325
▁Windows	-11.3325
▁hiondúil	-11.3325
▁praiticiúla	-11.3325
▁tháirgtear	-11.3325
▁tsuímh	-11.3325
▁fhorordaithe	-11.3325
▁phacáiste	-11.3325
▁fliuch	-11.3325
▁Adhmaid	-11.3325
▁phinsean	-11.3325
▁gearáin	-11.3325
▁ceirde	-11.3325
▁nDún	-11.3325
▁árasán	-11.3325
▁buaiteoir	-11.3325
▁Shaoránaigh	-11.3325
▁sáruithe	-11.3331
..../201	-11.3357
▁iomaí	-11.3376
aerárthach	-11.3377
▁rialtóir	-11.3402
▁deonach	-11.3403
fhorbair	-11.3408
Institiúid	-11.3423
Parliament	-11.3445
Scríbhneoirí	-11.3445
▁Bíobla	-11.3445
▁Montblanc	-11.3445
▁alcól	-11.3445
▁aoisliúntais	-11.3445
▁athchóirithe	-11.3445
▁athsholáthar	-11.3445
▁gcomhshaol	-11.3445
▁silicone	-11.3445
▁taispeána	-11.3445
▁Feisirí	-11.3445
▁labhartha	-11.3445
▁gaoithe	-11.3445
▁ngeall	-11.3445
▁dtuig	-11.3445
▁Téann	-11.3446
▁frithsheasmhach	-11.3446
▁shábháilteacht	-11.3446
▁sheasamh	-11.3449
▁poker	-11.3449
Sraith	-11.3457
▁Corn	-11.3464
oilseofar	-11.3475
Frank	-11.3475
▁Gairmiúla	-11.3477
gné	-11.3481
ssion	-11.3482
volt	-11.3502
▁híocaíochta	-11.3531
chomhairle	-11.3546
National	-11.3547
ríobh	-11.3557
▁duais	-11.3562
▁Dámhachtain	-11.3567
▁Massage	-11.3567
▁fhírinne	-11.3567
▁hEalaíona	-11.3567
▁meicniúla	-11.3567
▁nítrigin	-11.3567
▁optúla	-11.3567
▁pholasaí	-11.3567
▁saighdiúir	-11.3567
▁speisialaithe	-11.3567
▁ghnólachtaí	-11.3567
▁Réitigh	-11.3567
▁briseadh	-11.3567
▁mblianta	-11.3567
▁thairbh	-11.3567
▁modúl	-11.3568
▁dhíriú	-11.3568
▁Saoire	-11.3568
▁loinge	-11.3568
▁lionsa	-11.3568
Online	-11.3569
▁Scríobh	-11.3569
▁babhta	-11.3569
▁himeacht	-11.3573
▁Cónaithe	-11.3575
Trump	-11.3578
some	-11.359
▁vitimín	-11.365
struchtúr	-11.3671
luaite	-11.3673
▁vuku	-11.369
▁Aicrileach	-11.3691
▁Limistéir	-11.3691
▁Phrótacal	-11.3691
▁Riachtanach	-11.3691
▁Schengen	-11.3691
▁Téacs	-11.3691
▁chomhtháthú	-11.3691
▁figiúr	-11.3691
▁gluaisteáin	-11.3691
airteagal	-11.3691
▁Idirlín	-11.3691
▁Tiomána	-11.3691
▁Scoláir	-11.3691
iotáille	-11.3691
▁fheictear	-11.3691
▁Buiséad	-11.3691
▁Phoist	-11.3691
▁sciála	-11.3691
▁cleachtadh	-11.3691
▁oiriúnaí	-11.3691
▁cabhrach	-11.3691
▁coigilt	-11.3691
▁Tosaigh	-11.3691
▁chuairteoirí	-11.3692
▁torann	-11.3694
oimhneacht	-11.3695
▁thógaint	-11.3696
▁bhunúsach	-11.3702
éagumas	-11.3702
pcs	-11.3705
▁corda	-11.3723
▁halla	-11.3727
eaglais	-11.3755
Ceathrú	-11.3764
CNN	-11.3782
Beidh	-11.3804
▁Manufactur	-11.3814
▁Ambasáid	-11.3816
▁barántúla	-11.3816
▁cóimhiotail	-11.3816
▁dtuismitheoirí	-11.3816
▁lesbians	-11.3816
▁líomatáiste	-11.3816
▁ngabhann	-11.3816
▁phláinéid	-11.3816
▁speiceas	-11.3816
▁tOireachtas	-11.3816
▁shimplí	-11.3816
inmhianaithe	-11.3816
omhdhlúite	-11.3816
▁Aeráide	-11.3816
▁Taistil	-11.3816
▁hÁise	-11.3816
▁Inniu	-11.3816
▁Bónais	-11.3816
▁CFAE	-11.3816
▁Cosúil	-11.3816
▁Flash	-11.3816
▁ghlúin	-11.3816
ealraíonn	-11.3816
▁Bhunreacht	-11.3816
▁Cóirithe	-11.3816
▁riarthóir	-11.3817
school	-11.3817
▁gnáthchónaí	-11.3817
▁Staidrimh	-11.382
▁staidrimh	-11.382
Caomhn	-11.3827
Aighne	-11.3895
▁thaifead	-11.3932
athaoirligh	-11.3942
▁Classic	-11.3942
▁Dóiteáin	-11.3942
▁Pádraig	-11.3942
▁Tuaisceart	-11.3942
▁bándearg	-11.3942
▁foilsiú	-11.3942
▁geilleagar	-11.3942
▁hAeráide	-11.3942
▁léitheoireachta	-11.3942
▁bliantúla	-11.3942
▁chríche	-11.3942
▁bronnadh	-11.3942
▁cogaidh	-11.3942
▁Measúnú	-11.3942
▁Samhraidh	-11.3942
▁caidéil	-11.3942
▁shroich	-11.3942
▁durable	-11.3942
▁Taoisigh	-11.3942
▁dtosach	-11.3943
People	-11.3943
▁Duais	-11.3943
huraclam	-11.3943
▁thuig	-11.3943
infheisteoirí	-11.3946
radio	-11.3953
▁braite	-11.3961
▁bhfís	-11.3967
▁Feirme	-11.3968
uaileann	-11.4002
Adv	-11.4005
chleachtóir	-11.401
náisiúnta	-11.405
Chathaoirleach	-11.4056
Féach	-11.4056
▁traidisiún	-11.4061
shocraíocht	-11.4066
thuarascáil	-11.407
▁Association	-11.407
▁Cearnóg	-11.407
▁Choimisinéara	-11.407
▁Foirgníochta	-11.407
▁comhdhéanamh	-11.407
▁constaicí	-11.407
mhaoirseacht	-11.407
▁Oisrí	-11.407
▁gColáiste	-11.407
ability	-11.407
▁infheidhmithe	-11.407
▁máistir	-11.4071
▁convert	-11.4071
▁feachtas	-11.4071
mhiotail	-11.4072
▁Gorm	-11.4077
NBC	-11.4081
▁inchinn	-11.41
▁breithiúna	-11.4103
▁bannaí	-11.4108
▁Tástála	-11.4112
▁bailithe	-11.4133
▁scrúd	-11.4152
omhrac	-11.4161
ócáid	-11.4188
fhreastail	-11.42
▁Chultúr	-11.42
▁EUROPA	-11.42
▁Laoghaire	-11.42
▁Talmhan	-11.42
▁cúitimh	-11.42
▁dlisteanach	-11.42
▁feabhais	-11.42
▁frithpháirteach	-11.42
▁gConradh	-11.42
▁smachtbhannaí	-11.42
▁Shamhna	-11.42
▁Róimh	-11.42
▁comhéadan	-11.42
▁ndaltaí	-11.42
▁voltais	-11.42
▁sonrófar	-11.42
▁Earraí	-11.42
▁gnóthais	-11.42
▁fheiste	-11.4201
▁faoisimh	-11.4204
▁cáipéisí	-11.4207
▁Europa	-11.4221
Express	-11.4234
stein	-11.4265
thréimhse	-11.432
dhleathach	-11.433
▁Domhan	-11.4331
▁Timpeall	-11.4332
Democrat	-11.4332
eileachumarsáide	-11.4332
▁Coinníollacha	-11.4332
▁Information	-11.4332
▁Meáchan	-11.4332
▁Semester	-11.4332
▁deartháir	-11.4332
▁gcaighdeán	-11.4332
▁gcuspóir	-11.4332
▁inphinsin	-11.4332
▁meitibileach	-11.4332
▁patrúin	-11.4332
▁soilsiú	-11.4332
▁Staidéar	-11.4332
▁fhorghníomhú	-11.4332
▁ghuthán	-11.4332
▁Orgy	-11.4332
▁insliú	-11.4332
▁Bharraigh	-11.4332
▁bhranda	-11.4332
▁forlíontach	-11.4332
▁dóthain	-11.4332
▁bolg	-11.4332
fhiontair	-11.4332
▁deochanna	-11.4332
▁hionstraimí	-11.4333
▁EURES	-11.4333
▁Aistrithe	-11.4333
Aois	-11.4334
▁uilíoch	-11.434
▁Cóta	-11.4344
Earth	-11.4354
teicneolaíochtaí	-11.4361
horchur	-11.4363
▁Cailín	-11.4426
fheic	-11.4441
íseal	-11.4447
7%	-11.4453
▁tharraing	-11.4455
iomláine	-11.4456
Politics	-11.4465
onfhabhtú	-11.4465
íospartaigh	-11.4465
▁Gruaige	-11.4465
▁Shibhialta	-11.4465
▁chomórtas	-11.4465
▁countertop	-11.4465
▁dhoiciméad	-11.4465
▁dhoiciméid	-11.4465
▁fairsing	-11.4465
▁html	-11.4465
▁meicníocht	-11.4465
▁seiceálacha	-11.4465
▁fáinní	-11.4465
▁tiúchan	-11.4465
▁greanta	-11.4465
▁fianán	-11.4465
ombre	-11.4465
▁DVD	-11.4465
▁cogadh	-11.4466
▁pacála	-11.4466
▁árasáin	-11.4466
isinéirí	-11.4466
▁ESB	-11.4466
▁uillinn	-11.4467
▁chealú	-11.4467
▁iarchéime	-11.4468
▁teoiric	-11.4468
▁feadáin	-11.4469
▁faillí	-11.4475
maité	-11.4483
bhliain	-11.4491
hromlach	-11.4497
▁bhfoils	-11.4538
▁gruaig	-11.4557
omhlíonadh	-11.4576
úsaeim	-11.46
▁Nuashonrú	-11.46
▁caomhnú	-11.46
▁theagasc	-11.46
▁traenáil	-11.46
▁Support	-11.46
▁fógartha	-11.46
▁níolón	-11.46
▁scagadh	-11.46
▁Fiontair	-11.46
Central	-11.46
▁Rights	-11.4601
▁chlub	-11.4601
▁chonaic	-11.4601
▁Bainisteoir	-11.4601
▁thairis	-11.4601
▁Water	-11.4601
▁Earná	-11.4601
▁Innealtóireacht	-11.4602
▁bonneagar	-11.4602
▁choróin	-11.4602
IGH	-11.4603
▁chruthaitheach	-11.4603
▁drámaíocht	-11.4603
▁doirse	-11.4604
▁measúnacht	-11.4604
▁Magic	-11.4604
▁Dréacht	-11.4612
▁Cáilíocht	-11.4614
▁mbreith	-11.4628
▁Polai	-11.4652
reidmheasanna	-11.4668
eabhsaíonn	-11.4714
Team	-11.4719
▁Comhairliúchán	-11.4737
▁Cuimhnigh	-11.4737
▁Otslaivanie	-11.4737
▁Stiúrthóra	-11.4737
▁brabhsála	-11.4737
▁chronograph	-11.4737
▁gcatagóir	-11.4737
▁gleoite	-11.4737
▁mhíbhuntáiste	-11.4737
▁milliúin	-11.4737
▁pholaitiúil	-11.4737
▁préimhe	-11.4737
▁tairbhiúil	-11.4737
▁seasmhach	-11.4737
▁thriail	-11.4737
▁caife	-11.4737
▁rince	-11.4737
Aistriú	-11.4738
▁Machine	-11.4738
▁uilig	-11.4738
▁reifreann	-11.4739
▁boilg	-11.4739
▁Eolaíocht	-11.4748
Canada	-11.4754
Cúrsaí	-11.484
árthach	-11.4868
Ombudsman	-11.4872
Baile	-11.4873
hejiang	-11.4876
mplifier	-11.4876
▁Sloinnte	-11.4876
▁bhfoghlaim	-11.4876
▁bródúil	-11.4876
▁coigríche	-11.4876
▁comhairliúchán	-11.4876
▁figiúirí	-11.4876
▁gluaisteán	-11.4876
▁massage	-11.4876
▁spéaclaí	-11.4876
▁tomhaltas	-11.4876
▁Company	-11.4876
▁phlandaí	-11.4876
▁bríomhar	-11.4876
▁sliseanna	-11.4876
▁dtarlaíonn	-11.4876
Scotland	-11.4876
comóradh	-11.4877
▁Léann	-11.4877
▁Fisting	-11.4877
hogadh	-11.4882
Custaiméirí	-11.4884
árthaigh	-11.4889
▁Ligean	-11.4953
Angel	-11.496
▁Múinteoir	-11.4977
lection	-11.5003
SCÁIL	-11.5017
aipitiúla	-11.5017
▁Amazon	-11.5017
▁Louboutin	-11.5017
▁dhochtúir	-11.5017
▁díograis	-11.5017
▁iPhone	-11.5017
▁inmharthana	-11.5017
▁patrún	-11.5017
▁webcam	-11.5017
▁íosluchtaigh	-11.5017
Oirthear	-11.5017
▁bhóithre	-11.5017
▁iarrthóra	-11.5017
iarsmaí	-11.5017
▁Battery	-11.5017
▁admháil	-11.5017
▁eisiamh	-11.5017
▁Gloine	-11.5017
▁sheilbh	-11.5017
▁Breosla	-11.5017
▁dtáirgeadh	-11.5017
▁Éadaí	-11.5017
▁Satharn	-11.5017
▁Litríocht	-11.5017
▁bhoird	-11.5017
▁boladh	-11.5017
▁Centre	-11.5018
▁comhshó	-11.5018
▁bhfíor	-11.5018
▁shúile	-11.5018
zhou	-11.5018
2%	-11.5029
▁Cóiré	-11.503
▁comhdhála	-11.5053
gcomhpháirtíocht	-11.5054
▁Bhei	-11.51
ranníocach	-11.5113
▁Roghna	-11.5149
▁creidiúna	-11.515
sheasmhach	-11.5158
▁Sábháil	-11.5159
Environment	-11.516
orbhreathnú	-11.516
▁Accessories	-11.516
▁Cuimhne	-11.516
▁Custam	-11.516
▁Dragon	-11.516
▁Déantúsóirí	-11.516
▁Electric	-11.516
▁Taifead	-11.516
▁Tionscal	-11.516
▁bprionsabal	-11.516
▁cóimhiotal	-11.516
▁daingniú	-11.516
▁diagnóis	-11.516
▁gconradh	-11.516
▁núicléach	-11.516
▁paraiméadair	-11.516
▁scríbe	-11.516
▁Brexit	-11.516
▁idirphlé	-11.516
▁corraitheach	-11.516
▁Aibreáin	-11.516
▁gcleachtas	-11.516
▁Cábla	-11.516
▁sásamh	-11.516
▁modhnuithe	-11.516
▁thaispeántar	-11.516
Michael	-11.516
▁damáistí	-11.516
▁comhlachais	-11.516
fhreagair	-11.516
▁thráth	-11.516
▁Boird	-11.5161
▁ultra	-11.5161
▁uaillmhianach	-11.5162
▁todóg	-11.5162
Tiontaigh	-11.5163
▁adhmad	-11.5163
▁Geall	-11.5164
▁bhfostóir	-11.5165
▁uigeacht	-11.5166
▁Print	-11.5168
▁gnóthach	-11.5169
(5)	-11.5172
▁Bhanc	-11.5175
▁thaisc	-11.5186
Reachtaire	-11.5188
phearsan	-11.5235
▁leithreas	-11.5272
▁gabhála	-11.5297
aethanta	-11.5303
▁trahtube	-11.5305
neamhdhíobhálach	-11.5305
▁Datejust	-11.5305
▁Innealra	-11.5305
▁Liospóin	-11.5305
▁bpróiseáil	-11.5305
▁chaillteanas	-11.5305
▁gealltanais	-11.5305
▁randamach	-11.5305
▁tOrdú	-11.5305
▁troscán	-11.5305
▁uafásach	-11.5305
▁Teilifís	-11.5305
▁acadúla	-11.5305
▁fhíneáil	-11.5305
▁charachtar	-11.5305
▁measúnaithe	-11.5305
▁Transport	-11.5305
▁Chartlann	-11.5305
▁furasta	-11.5305
▁ndeachaigh	-11.5305
▁cuimilt	-11.5305
▁Chonartha	-11.5305
▁mhaireann	-11.5305
▁thuasluaite	-11.5305
Africa	-11.5306
▁tobann	-11.5307
eagrú	-11.5314
IWC	-11.5326
iniúna	-11.5332
chloch	-11.5354
▁carb	-11.5374
▁maoirseacht	-11.5383
chosúil	-11.5386
teistiméireachta	-11.541
Columbia	-11.5452
fhuascailt	-11.5452
▁Dúbailte	-11.5452
▁chraiceann	-11.5452
▁contrártha	-11.5452
▁folláine	-11.5452
▁freagartha	-11.5452
▁infhaighte	-11.5452
▁píolóta	-11.5452
▁robot	-11.5452
▁Agallamh	-11.5452
▁Comhlachais	-11.5452
▁Pinsin	-11.5452
▁gcoiste	-11.5452
▁Máistir	-11.5452
Digital	-11.5452
▁urláir	-11.5452
William	-11.5452
equired	-11.5452
▁PCB	-11.5453
Lakers	-11.5453
Vegas	-11.5454
Eanáir	-11.5457
oiliúna	-11.546
chomhalta	-11.546
▁pacáil	-11.5465
▁gcomhlíonfa	-11.5505
choiteann	-11.5568
Innealtóir	-11.5599
Community	-11.5601
nstealladh	-11.5601
▁BDSM	-11.5601
▁Bailiúcháin	-11.5601
▁Dearbhuithe	-11.5601
▁Léirmheasanna	-11.5601
▁Orgasms	-11.5601
▁cearrbhachais	-11.5601
▁chomóradh	-11.5601
▁droichead	-11.5601
▁priontáil	-11.5601
▁tionóisc	-11.5601
▁tipiciúil	-11.5601
▁DRÉACHT	-11.5601
▁mhaireachtála	-11.5601
▁seaicéad	-11.5601
iomportáil	-11.5601
▁Erotic	-11.5601
▁hoifigiúil	-11.5601
▁bhfuarthas	-11.5601
▁phóca	-11.5601
▁Chiarraí	-11.5601
▁Acadamh	-11.5601
▁Ráitis	-11.5601
▁Chomhdháil	-11.5601
▁Prionsa	-11.5601
▁tnúth	-11.5601
▁dhaonna	-11.5601
▁Teachtaireacht	-11.5601
▁shannadh	-11.5602
Idir	-11.561
duaiseanna	-11.561
▁dhearbha	-11.5616
Comhpháirtíochta	-11.563
▁urraithe	-11.564
▁fionna	-11.5663
atharú	-11.5699
iomaíochas	-11.5735
▁gcuir	-11.5744
▁Brasaíle	-11.5753
▁ITBÁC	-11.5753
▁bhuachaillí	-11.5753
▁fharraige	-11.5753
▁gheilleagar	-11.5753
▁ilbhliantúil	-11.5753
▁nGaillimh	-11.5753
▁ngeilleagar	-11.5753
▁shealadach	-11.5753
▁speicis	-11.5753
▁theorannú	-11.5753
mháistir	-11.5753
▁Rannpháirtithe	-11.5753
▁laethúla	-11.5753
▁polasaithe	-11.5753
▁shubstaint	-11.5753
▁thionól	-11.5753
▁víreas	-11.5753
▁cóimheas	-11.5753
▁dheiridh	-11.5753
▁Téalainn	-11.5753
▁Taisteal	-11.5753
▁seisean	-11.5753
▁pháirc	-11.5753
Ardionadaí	-11.5753
▁bronnta	-11.5753
▁óstán	-11.5754
▁Bunreacht	-11.5755
Laistigh	-11.5757
mhargadh	-11.5762
léiriú	-11.5776
▁eilimint	-11.5808
gcabhair	-11.5813
▁Creidim	-11.5814
Aerfort	-11.5833
▁teilifís	-11.5863
Tech	-11.5869
Wimbledon	-11.5906
▁Bluetooth	-11.5906
▁Caipitiúil	-11.5906
▁Chomhphobal	-11.5906
▁Pictiúir	-11.5906
▁bhfoirgneamh	-11.5906
▁cliniciúla	-11.5906
▁gceanglaítear	-11.5906
▁roghchlár	-11.5906
▁teagmhais	-11.5906
Eagarthóir	-11.5906
▁Teideal	-11.5906
▁Pháirc	-11.5906
▁miotal	-11.5906
▁thagartha	-11.5906
▁scothaosta	-11.5906
▁Sreang	-11.5907
▁paisean	-11.5907
▁Gnáth	-11.5907
▁eisiata	-11.5907
▁lasair	-11.5908
▁bunachar	-11.5908
tuilleamh	-11.5908
Daniel	-11.5909
▁hiasachta	-11.591
▁páirtnéir	-11.5916
mhaoiniú	-11.5919
arsanacht	-11.5944
▁Chomhalta	-11.5965
dhílse	-11.5995
/2013	-11.602
Kensington	-11.6063
▁Foghlama	-11.6063
▁Tomhaltóirí	-11.6063
▁craolacháin	-11.6063
▁dhomhanda	-11.6063
▁phróifíl	-11.6063
▁radhairc	-11.6063
▁thriomú	-11.6063
▁chultúir	-11.6063
▁fhaoiseamh	-11.6063
▁múineadh	-11.6063
▁Sealadach	-11.6063
▁máinliacht	-11.6063
▁tarrthála	-11.6063
▁Thrácht	-11.6063
▁Thaighde	-11.6063
▁eastáit	-11.6063
▁amhráin	-11.6063
▁dáiríre	-11.6063
mhorgáiste	-11.6063
mhuinín	-11.6063
▁hiontach	-11.6063
▁caipín	-11.6063
▁fiacla	-11.6063
▁sintéise	-11.6063
iontaobhaí	-11.6063
▁sheachtrach	-11.6063
▁ocras	-11.6063
▁dhréacht	-11.6063
impleachtaí	-11.6063
▁cnámh	-11.6064
▁phíosa	-11.6065
aicmiú	-11.6076
School	-11.6077
▁talmhaíocht	-11.6153
Victor	-11.6158
ithníodh	-11.6189
▁Sonra	-11.6198
▁bhreathn	-11.6203
Campaign	-11.6221
iorcaid	-11.6221
▁Comórtas	-11.6221
▁Hollywood	-11.6221
▁Nuachtlitir	-11.6221
▁Shóisearach	-11.6221
▁bPoblacht	-11.6221
▁casinos	-11.6221
▁cithfholc	-11.6221
▁foilseacháin	-11.6221
▁hIodáile	-11.6221
▁hidirnáisiúnta	-11.6221
iorcail	-11.6221
▁Breitling	-11.6221
▁cruithneacht	-11.6221
▁trucail	-11.6221
▁Simplí	-11.6221
▁thosnú	-11.6221
▁fhinné	-11.6221
▁tiontaire	-11.6221
▁easnamh	-11.6222
▁cluaise	-11.6222
Climate	-11.6222
▁tamall	-11.6222
▁thrácht	-11.6222
▁Costas	-11.6223
Connect	-11.6228
Twitter	-11.6239
▁Athraío	-11.624
▁Oidhreacht	-11.6308
▁chuirfea	-11.6321
▁chomhréir	-11.6325
dteicneolaíochta	-11.6352
▁fút	-11.6358
▁chompord	-11.6367
agrafaíocht	-11.6376
imirceach	-11.638
Barcelona	-11.6382
eitéareolaíochta	-11.6383
pharlaimint	-11.6383
▁Conclúidí	-11.6383
▁Fhuinneamh	-11.6383
▁Friotaíocht	-11.6383
▁Prótaca	-11.6383
▁Seachadadh	-11.6383
▁Seapáine	-11.6383
▁Society	-11.6383
▁Tíortha	-11.6383
▁comhleanúnach	-11.6383
▁dhúshlá	-11.6383
▁elegance	-11.6383
▁searmanas	-11.6383
▁Ceangail	-11.6383
▁coirníní	-11.6383
▁comhbhrúite	-11.6383
▁neamhbhailí	-11.6383
▁Tionóil	-11.6383
american	-11.6383
▁painéil	-11.6383
▁Próiseas	-11.6383
▁Chainnigh	-11.6383
▁chomhshó	-11.6383
Araibis	-11.6383
▁Chipir	-11.6383
Arsenal	-11.6383
▁ceardaíocht	-11.6383
▁atáirgeadh	-11.6383
éagmais	-11.6385
▁geata	-11.6387
Archive	-11.6393
grúp	-11.6406
▁gcló	-11.6412
Pleananna	-11.6415
▁neamhréir	-11.6422
▁rátála	-11.6425
chríochnaithe	-11.6472
Athair	-11.6476
▁Maisiú	-11.6485
▁heagraíochta	-11.6507
Comhchoiste	-11.6518
▁hearnála	-11.6535
▁Amhráin	-11.6547
▁cailciam	-11.6547
▁cosmaideacha	-11.6547
▁gcnaipe	-11.6547
▁giotár	-11.6547
▁mainneachtain	-11.6547
▁sainmhínithe	-11.6547
▁urramú	-11.6547
▁Íomhánna	-11.6547
omhchuibhiú	-11.6547
▁dtaithí	-11.6547
▁maireachtála	-11.6547
▁míochaine	-11.6547
▁Comhshaol	-11.6547
▁Gréige	-11.6547
▁Cuspóir	-11.6547
▁Ainmhithe	-11.6547
▁shaibhir	-11.6547
▁Fionlainne	-11.6547
Capital	-11.6547
▁Spraoi	-11.6547
▁Choimisinéir	-11.6547
▁Dildo	-11.6547
▁ionchasach	-11.6547
▁tuairisceáin	-11.6547
▁bpearsa	-11.6547
▁Scaip	-11.6547
▁tinneas	-11.6547
▁cheoil	-11.6548
▁rollta	-11.6548
Gradam	-11.6551
▁mbainfea	-11.6554
phraghas	-11.6569
iompair	-11.6569
▁Téarma	-11.6675
Ranníocach	-11.6713
athbheochan	-11.6713
▁Ceadúnais	-11.6713
▁Comhphobal	-11.6713
▁Lascaine	-11.6713
▁Slándáil	-11.6713
▁Sóisialach	-11.6713
▁dealraitheach	-11.6713
▁hidrigin	-11.6713
▁mhúnlú	-11.6713
▁pornorolik	-11.6713
▁traenála	-11.6713
Gailearaí	-11.6713
réimhsiúil	-11.6713
▁Fuinneamh	-11.6713
▁Míleata	-11.6713
▁gcúram	-11.6713
▁Weather	-11.6713
▁theoranta	-11.6713
▁Íoslainn	-11.6713
▁lóistín	-11.6713
▁meastachán	-11.6713
▁Suiteáil	-11.6713
▁Leideanna	-11.6714
▁Cruinne	-11.6714
▁Fóram	-11.6714
▁luibh	-11.6714
▁máithreacha	-11.6714
▁dlítheanach	-11.6714
Glactar	-11.6715
▁Foilsío	-11.6717
▁cheilt	-11.6717
▁mharcáil	-11.6721
húnamh	-11.6725
sheirbhís	-11.6738
triail	-11.6746
choláiste	-11.6799
▁Margaí	-11.683
▁seoltóir	-11.6838
▁Chustaim	-11.6882
▁Chaomhnú	-11.6883
▁Cúntóirí	-11.6883
▁Skills	-11.6883
▁breataine	-11.6883
▁cliniciúil	-11.6883
▁daonlathas	-11.6883
▁fhuinneog	-11.6883
▁gcluichí	-11.6883
▁optúil	-11.6883
▁phraiticiúil	-11.6883
▁priontála	-11.6883
▁rompu	-11.6883
▁sleamhnáin	-11.6883
eintitis	-11.6883
▁Fabraic	-11.6883
▁leathanbhanda	-11.6883
▁tuaslag	-11.6883
▁Stáisiún	-11.6883
▁sparkl	-11.6883
▁scamall	-11.6883
▁turraing	-11.6883
▁théama	-11.6883
▁Soilse	-11.6883
▁bairille	-11.6883
▁déiríochta	-11.6883
▁Deiseanna	-11.6883
▁phróiseála	-11.6883
▁dátheangach	-11.6883
▁Bheatha	-11.6884
inchoigeartaithe	-11.6886
▁Bhearta	-11.6888
▁leithdháilt	-11.6889
dheontas	-11.6923
▁theicneolaíoch	-11.6949
Fheis	-11.6956
rannchur	-11.6982
earrbhachas	-11.7055
mheáchan	-11.7055
▁Loingseoireacht	-11.7055
▁YouTube	-11.7055
▁comórtais	-11.7055
▁dtarlóidh	-11.7055
▁hiodrálach	-11.7055
▁mbuiséad	-11.7055
▁tharmligean	-11.7055
▁truaillithe	-11.7055
Journal	-11.7055
▁Altranais	-11.7055
▁ateangaireacht	-11.7055
▁gameplay	-11.7055
▁gcontae	-11.7055
▁Bliantúil	-11.7055
▁infheicthe	-11.7055
▁horduithe	-11.7055
▁ndearbh	-11.7055
▁tuisceana	-11.7055
▁saothrú	-11.7055
▁Plandaí	-11.7055
mscaradh	-11.7055
▁Finance	-11.7055
▁gineadóir	-11.7056
▁leaisteacha	-11.7056
▁dtalamh	-11.7056
▁Fásta	-11.7056
▁ngearr	-11.7057
▁Work	-11.7061
Enter	-11.7067
fhaisnéis	-11.7086
mheasann	-11.7106
▁iomláin	-11.7188
▁gCoimisinéir	-11.719
▁gcomhaont	-11.7212
▁bláth	-11.7223
oigeartaithe	-11.7227
▁Ghníomh	-11.723
Toirmeasc	-11.7231
▁Crystal	-11.7231
▁Industry	-11.7231
▁Lámhleabhar	-11.7231
▁eagarthóireacht	-11.7231
▁fhéidearthacht	-11.7231
▁léirmhíniú	-11.7231
▁pacáistithe	-11.7231
▁sráidbhaile	-11.7231
▁sweetie	-11.7231
▁íoslaghdú	-11.7231
▁ghéarchéim	-11.7231
▁ndeimhn	-11.7231
Marquette	-11.7231
▁chliaint	-11.7231
▁Uilíoch	-11.7231
▁Caife	-11.7231
▁chúinsí	-11.7231
thionónta	-11.7231
▁cupán	-11.7231
▁comhardaithe	-11.7231
▁hEagraíochta	-11.7231
▁altranais	-11.7231
▁comhdháil	-11.7231
▁Hood	-11.7231
▁líofa	-11.7231
▁Aragon	-11.7231
▁tamaill	-11.7231
▁sinsearach	-11.7232
Region	-11.7234
▁sicín	-11.7234
▁Réims	-11.7238
Invest	-11.724
eanglais	-11.7242
▁Comharthaí	-11.7242
▁bhfeirm	-11.7255
oinbhinsiún	-11.7362
▁scoilbhlia	-11.7362
horásach	-11.7374
▁Ranná	-11.7392
Christopher	-11.7409
Dioplóma	-11.7409
▁Choinbhinsiúin	-11.7409
▁Fuinneog	-11.7409
▁Gheimhridh	-11.7409
▁Inbhuanaithe	-11.7409
▁Language	-11.7409
▁Lasmuigh	-11.7409
▁Pictiúr	-11.7409
▁chúitimh	-11.7409
▁cáithníní	-11.7409
▁deireanaí	-11.7409
▁dhualgais	-11.7409
▁gcultúr	-11.7409
▁ildaite	-11.7409
▁neamhdhíreach	-11.7409
▁phiocadh	-11.7409
▁phríosúnach	-11.7409
▁platanam	-11.7409
▁pribhléid	-11.7409
▁tsláinte	-11.7409
▁Chúram	-11.7409
▁Dhírigh	-11.7409
▁coimisiún	-11.7409
▁dtrácht	-11.7409
▁mbóthar	-11.7409
▁dtionscal	-11.7409
▁fhormáid	-11.7409
▁pacáistí	-11.7409
Abrán	-11.7409
▁fíochán	-11.7409
▁míosúil	-11.7409
▁díolúintí	-11.7409
▁Slabhra	-11.7409
▁sterling	-11.7409
▁ingearach	-11.7409
▁Cleachtais	-11.7409
▁Cartlann	-11.741
▁cuibhe	-11.741
▁Cruthaitheach	-11.7412
uimsítear	-11.7416
▁Chomhlachta	-11.7418
Ocean	-11.743
Eorpach	-11.7437
téann	-11.7519
parlaimint	-11.759
▁thiocf	-11.759
▁Comhionannas	-11.7591
▁Strasbourg	-11.7591
▁Vítneam	-11.7591
▁allmhairithe	-11.7591
▁ardvoltais	-11.7591
▁forbraíodh	-11.7591
▁gcaiteachas	-11.7591
▁lingerie	-11.7591
▁ngéarchéim	-11.7591
▁theicniúla	-11.7591
▁toilteanach	-11.7591
idirdhealaithe	-11.7591
▁Conservative	-11.7591
▁VEID	-11.7591
▁bacainní	-11.7591
▁Bóithre	-11.7591
▁ghairdín	-11.7591
▁ilghnéitheach	-11.7591
▁Albain	-11.7591
▁Shasana	-11.7591
Patriot	-11.7591
▁bhfág	-11.7591
▁Iaráinis	-11.7591
▁eitneach	-11.7591
▁Palace	-11.7591
digital	-11.7591
▁Trádáil	-11.7591
▁inneachar	-11.7591
▁cosantóir	-11.7592
phíopa	-11.7592
▁hidrea	-11.7592
▁snáth	-11.7593
roghnach	-11.7615
health	-11.7624
scríbhneoireacht	-11.7643
mhaoinithe	-11.7648
glactar	-11.7666
▁Náisiú	-11.7697
Fox	-11.7717
Point	-11.7732
▁Acmhainn	-11.7736
▁Entertainment	-11.7776
▁Mionsonraí	-11.7776
▁Sionainne	-11.7776
▁Soilsiú	-11.7776
▁Spriocdháta	-11.7776
▁Stiúrtha	-11.7776
▁Swingers	-11.7776
▁Teaghlach	-11.7776
▁bhfeighil	-11.7776
▁cadhnaíochta	-11.7776
▁chliniciúil	-11.7776
▁coigeartú	-11.7776
▁daonlathach	-11.7776
▁dinimiciúil	-11.7776
▁fhisiciúil	-11.7776
▁ghreamú	-11.7776
▁intuigthe	-11.7776
▁maighdean	-11.7776
▁mairteola	-11.7776
▁práinneach	-11.7776
▁puiblí	-11.7776
▁tSeanaid	-11.7776
▁tsoláthair	-11.7776
imircigh	-11.7776
▁Ildánach	-11.7776
▁Museum	-11.7776
▁baincéireachta	-11.7776
▁síochána	-11.7776
▁Moscó	-11.7776
▁forlíontaí	-11.7776
billboard	-11.7776
▁pósadh	-11.7776
▁Téama	-11.7776
▁mheabhair	-11.7776
▁Mótar	-11.7776
▁fiontar	-11.7777
▁uachtaránacht	-11.7777
fhaibhr	-11.778
▁bulaíocht	-11.7782
▁ballraíocht	-11.7782
David	-11.7784
NWS	-11.7788
Aontas	-11.78
tuarascáil	-11.7821
tábla	-11.7827
dirghníomhaíocht	-11.7848
eisceachtaí	-11.7892
hleachta	-11.7904
▁earnála	-11.7906
▁ainmneoi	-11.7917
▁tuarascála	-11.7963
▁Lúthchleas	-11.7965
▁Athbhreithnithe	-11.7965
▁Bronnadh	-11.7965
▁Cobhsaíochta	-11.7965
▁Custom	-11.7965
▁Scrúdú	-11.7965
▁chloisteáil	-11.7965
▁déthaobhach	-11.7965
▁easbhrúite	-11.7965
▁exquisite	-11.7965
▁gcomórtas	-11.7965
▁grianchloch	-11.7965
▁handjob	-11.7965
▁sreinge	-11.7965
▁síntiús	-11.7965
▁tearmainn	-11.7965
▁Chultúir	-11.7965
▁Hervé	-11.7965
▁duilleoga	-11.7965
▁neodrach	-11.7965
▁Double	-11.7965
▁tSiria	-11.7965
▁giúmar	-11.7965
▁fáltais	-11.7965
▁scagtha	-11.7965
▁amárach	-11.7965
▁bhréag	-11.7965
▁bloic	-11.7965
▁Todhchaí	-11.7966
tréidlia	-11.7966
scileanna	-11.8013
chruthach	-11.8031
▁Forbraío	-11.8035
▁Feicfi	-11.8048
chabhrach	-11.8048
▁nuálaíoch	-11.8059
▁mhalart	-11.8102
ócmhainneacht	-11.8122
▁athchúrsáil	-11.8147
▁Custaim	-11.8147
▁reilig	-11.8156
ealsúnacht	-11.8157
▁Achoimre	-11.8157
▁Corporation	-11.8157
▁Dhomhanda	-11.8157
▁ENISA	-11.8157
▁Grianghraf	-11.8157
▁Laitvia	-11.8157
▁Neamhspleách	-11.8157
▁Phearsanta	-11.8157
▁Piguet	-11.8157
▁Shanghai	-11.8157
▁bhronntanas	-11.8157
▁chumhdach	-11.8157
▁ciorcal	-11.8157
▁eatramhach	-11.8157
▁gCeanada	-11.8157
▁iompórtáil	-11.8157
▁póilíní	-11.8157
▁tairisceana	-11.8157
▁vacsaín	-11.8157
Independent	-11.8157
▁Clibeanna	-11.8157
▁Deireanach	-11.8157
▁Tattoo	-11.8157
▁Thiobra	-11.8157
▁ceolchoirm	-11.8157
▁deirfiúr	-11.8157
▁folúntais	-11.8157
▁ndiúlt	-11.8157
▁bainistithe	-11.8157
▁dúchasach	-11.8157
System	-11.8157
▁thiomána	-11.8157
▁custam	-11.8157
▁Mullaigh	-11.8157
▁Street	-11.8157
▁Dobhair	-11.8157
▁réamhaisnéis	-11.8157
▁Brabhsá	-11.8157
▁charger	-11.8157
Forlíonadh	-11.8158
▁Cóireála	-11.8158
▁caorach	-11.8159
current	-11.816
View	-11.8162
▁ghéill	-11.8162
▁Direct	-11.8168
▁mbaintea	-11.818
ountain	-11.8191
▁theastó	-11.8208
fheithicil	-11.8209
▁Shábháil	-11.8353
business	-11.8353
Philadelphia	-11.8353
Variety	-11.8353
fhoillsiú	-11.8353
iompórtála	-11.8353
▁Dramhaíola	-11.8353
▁Iarnróid	-11.8353
▁Miontuairiscí	-11.8353
▁Reifrinn	-11.8353
▁Tiffany	-11.8353
▁chodladh	-11.8353
▁diamonds	-11.8353
▁hÚcráine	-11.8353
▁súgradh	-11.8353
▁VITIM	-11.8353
▁coimirc	-11.8353
▁roghnói	-11.8353
▁véarsa	-11.8353
▁Payment	-11.8353
▁gnímh	-11.8353
▁uathoibrithe	-11.8353
▁mheánmhéide	-11.8353
▁caidéal	-11.8353
▁sásúil	-11.8353
▁Rugadh	-11.8353
Guardian	-11.8353
Stanford	-11.8354
▁míchuí	-11.8355
▁Pláta	-11.8355
Scott	-11.8358
Gníomhaithe	-11.8403
láithreach	-11.8411
shocruithe	-11.8419
shocraigh	-11.8489
Saoráid	-11.8494
Bharra	-11.8528
UNESCO	-11.8553
▁Alternative	-11.8553
▁Cúltaca	-11.8553
▁Fórsaí	-11.8553
▁Iniúchóirí	-11.8553
▁Scrúduithe	-11.8553
▁armchúirt	-11.8553
▁chomhaontaithe	-11.8553
▁craoladh	-11.8553
▁cumhdaithe	-11.8553
▁dochreidte	-11.8553
▁dteaghlaigh	-11.8553
▁fíricí	-11.8553
▁hiarmhairtí	-11.8553
▁toghthóir	-11.8553
▁tíolacadh	-11.8553
▁gréasán	-11.8553
▁craicinn	-11.8553
▁Comhshó	-11.8553
chomhairliúcháin	-11.8553
▁brataithe	-11.8553
▁inmheánaigh	-11.8553
@	-12.8806
