<unk>	0
<s>	0
</s>	0
,	-3.40286
▁an	-3.40372
▁a	-3.42586
▁ar	-3.67322
.	-3.78314
▁agus	-3.89934
▁na	-4.12927
▁	-4.51463
▁le	-4.52629
▁i	-4.5463
-	-4.79429
▁go	-4.86892
▁@	-4.90342
▁seo	-4.93391
▁tú	-5.07906
▁do	-5.09141
▁ag	-5.10801
▁nó	-5.17189
▁(	-5.1839
▁de	-5.18726
)	-5.23827
▁bhfuil	-5.28865
▁leis	-5.31247
▁d	-5.34803
▁chun	-5.42678
▁is	-5.43084
▁sin	-5.43402
▁An	-5.44464
▁in	-5.45936
r	-5.5863
'	-5.59343
▁ó	-5.63694
▁leat	-5.65194
:	-5.72341
?	-5.72684
▁C	-5.7347
▁é	-5.74416
▁sé	-5.74632
▁gur	-5.78464
▁atá	-5.85093
▁cosc	-5.8648
▁sa	-5.86631
▁den	-5.87344
▁Tweetanna	-5.90768
▁mar	-5.92598
▁Is	-5.94325
▁-	-5.97936
a	-5.99739
s	-6.01155
▁aon	-6.02339
▁féidir	-6.02457
▁mhaith	-6.0332
▁faoi	-6.05015
▁cinnte	-6.05454
▁Tá	-6.06399
▁breathnú	-6.06764
▁Chuir	-6.0741
▁Meáin	-6.09374
;	-6.1815
▁eile	-6.20048
▁n	-6.22453
▁tá	-6.23809
▁dhéanamh	-6.24043
▁chur	-6.27179
’	-6.27771
▁bheith	-6.28477
▁ina	-6.29926
▁t	-6.31607
▁don	-6.40882
▁duine	-6.41392
▁Tuilleadh	-6.43511
▁maidi	-6.46844
▁deimhnithe	-6.48126
▁saor	-6.4988
▁as	-6.50177
▁níos	-6.5334
▁gach	-6.54926
▁trí	-6.55183
▁nasc	-6.5519
▁aisce	-6.55699
í	-6.5699
Cuntas	-6.59859
▁Ní	-6.59965
▁ón	-6.61427
óipeáil	-6.62239
▁san	-6.63279
▁nach	-6.63598
_	-6.65053
▁ach	-6.68983
▁ná	-6.70251
e	-6.70836
▁porn	-6.71229
▁maith	-6.71693
▁haghaidh	-6.74554
▁lena	-6.76369
▁F	-6.76453
▁fáil	-6.76804
▁dá	-6.78679
▁mó	-6.79358
▁ann	-6.79464
▁chloig	-6.79914
n	-6.81911
▁leanúna	-6.82178
▁iad	-6.82405
▁réir	-6.8264
▁chuid	-6.82743
▁shin	-6.83172
▁ní	-6.83365
▁Ar	-6.84542
▁u	-6.87188
▁tweet	-6.87793
▁amháin	-6.92646
▁nua	-6.93179
▁Ag	-6.93344
▁bheidh	-6.94189
b	-6.94284
▁alt	-6.94721
dh	-6.95606
▁amach	-6.97465
▁I	-6.97524
▁uair	-6.98027
▁úsáid	-6.98704
▁siad	-6.99302
▁–	-6.99953
▁thabhairt	-7.01276
▁líne	-7.01896
▁gan	-7.02189
▁um	-7.02205
oisc	-7.05941
▁D	-7.0703
▁Cuir	-7.08192
▁féin	-7.09057
▁Dích	-7.09504
▁raibh	-7.10971
▁mór	-7.12003
▁“	-7.1218
▁éis	-7.13853
▁cheannach	-7.1406
▁faoin	-7.14464
▁cineál	-7.14778
íonn	-7.14985
▁leith	-7.15897
▁lá	-7.16372
▁Féach	-7.16763
▁isteach	-7.17612
alt	-7.17707
▁daoine	-7.19077
▁á	-7.19078
▁fháil	-7.19362
▁fearr	-7.20404
▁beidh	-7.23128
▁gcás	-7.23614
!	-7.24002
▁rud	-7.24477
▁1	-7.25233
▁focal	-7.25335
▁acu	-7.26806
▁bhí	-7.27334
▁chomh	-7.28878
▁A	-7.29414
▁nGaeilge	-7.29449
▁suíomh	-7.30168
▁Acht	-7.30668
▁freagra	-7.30754
ú	-7.30891
▁ár	-7.32267
▁mbeidh	-7.32294
ealaigh	-7.32438
▁HD	-7.32509
igh	-7.34634
▁sainmhíniú	-7.3568
▁bríonna	-7.36478
iallach	-7.36681
iarratas	-7.36725
c	-7.36898
▁linn	-7.36982
▁fuaimniú	-7.37097
▁fhrithch	-7.37524
▁tar	-7.37606
▁comhchiallaigh	-7.37633
”	-7.40561
▁anseo	-7.41962
▁freisin	-7.42194
▁2	-7.42377
▁méid	-7.43385
▁má	-7.43416
▁dtí	-7.45868
▁anois	-7.46269
▁dul	-7.46832
▁chéad	-7.47869
▁tabhairt	-7.48197
▁leanas	-7.4841
d	-7.49162
▁duit	-7.49705
▁ceal	-7.49763
i	-7.50027
▁3	-7.50531
▁"	-7.50929
▁ceart	-7.5094
▁feitheamh	-7.50941
ann	-7.51581
▁Iarratas	-7.51622
▁Le	-7.52338
...	-7.52475
com	-7.53309
▁idir	-7.53395
eitheamh	-7.53716
▁gá	-7.54067
▁sna	-7.55842
▁bhaineann	-7.55872
▁bhainfea	-7.56887
▁(2)	-7.56921
▁bhreathnú	-7.57932
▁nuair	-7.58067
▁T	-7.58255
▁/	-7.58501
▁B	-7.58678
▁ceann	-7.59838
▁aghaidh	-7.6079
▁Eorpach	-7.61335
▁agat	-7.61584
▁Mar	-7.62408
▁sonraí	-7.62566
▁chuig	-7.62659
▁Gaeilge	-7.63675
▁roimh	-7.63852
▁roinnt	-7.6419
▁no	-7.64362
▁iomlán	-7.64594
▁dáta	-7.649
▁bhaint	-7.65031
▁obair	-7.65582
▁Beidh	-7.67143
ir	-7.67155
▁gréasáin	-7.67401
▁Roinn	-7.69314
▁ba	-7.6975
▁í	-7.70072
▁tréimhse	-7.7026
/	-7.70908
an	-7.70973
tear	-7.72083
▁arna	-7.72416
▁cur	-7.7243
▁cluiche	-7.72441
▁éagsúla	-7.7262
▁hÉireann	-7.72717
▁0	-7.72746
▁bhfeidhm	-7.73269
▁Twitter	-7.73541
]	-7.73655
▁sí	-7.7401
▁5	-7.7479
▁h	-7.75102
▁físeáin	-7.75236
▁cheart	-7.75308
▁dhaoine	-7.76183
▁Aontais	-7.77665
▁síos	-7.77881
▁scoth	-7.78186
▁[	-7.78222
▁hEorpa	-7.78229
▁am	-7.7844
▁chéile	-7.79618
▁4	-7.79677
▁aige	-7.80615
▁air	-7.80827
▁mé	-7.80831
▁6	-7.80916
▁físeán	-7.80951
▁áirithe	-7.81292
▁cinn	-7.82079
▁caighdeán	-7.82193
▁Má	-7.83291
▁leor	-7.83955
▁bith	-7.84206
h	-7.86083
▁Nua	-7.86535
in	-7.86591
▁áit	-7.87238
▁teacht	-7.87249
—	-7.87888
▁fásta	-7.88782
▁láthair	-7.89281
EN	-7.89372
▁Lean	-7.90034
▁bhliain	-7.90289
t	-7.90436
lacha	-7.90484
"	-7.9076
▁leo	-7.90868
▁cheana	-7.91937
▁&	-7.91978
▁Aire	-7.9256
▁féachaint	-7.93578
m	-7.94319
▁Iúil	-7.94373
▁léir	-7.94625
▁Coiscthe	-7.9506
▁Ba	-7.95225
áirítear	-7.95385
▁Go	-7.95512
▁bliana	-7.95726
▁Tweet	-7.95791
▁cheann	-7.96271
▁(3)	-7.97048
atweetá	-7.9711
▁S	-7.97339
A	-7.97466
▁tAire	-7.97538
▁suas	-7.97664
▁AE	-7.9819
▁8	-7.99697
▁cibé	-8.0003
▁díreach	-8.00078
▁Porn	-8.00342
▁Márta	-8.00379
▁Deireadh	-8.0039
fhéadfadh	-8.00425
▁dheis	-8.0066
▁thar	-8.00673
▁Dé	-8.02088
▁Chomhairle	-8.0257
▁chaighdeán	-8.02695
▁fho	-8.0292
▁sórt	-8.02986
▁10	-8.03209
▁mo	-8.03376
▁2018	-8.04445
▁dhá	-8.04664
▁seirbhísí	-8.04725
fidh	-8.05189
▁Chun	-8.05223
C	-8.06826
▁Sa	-8.07115
▁laistigh	-8.07295
▁íoslódáil	-8.07339
▁más	-8.07969
▁dó	-8.0899
is	-8.09006
idh	-8.09021
▁huaire	-8.09345
▁Comhrá	-8.09491
▁ábhar	-8.09556
aon	-8.10332
▁táirgí	-8.11109
▁chóir	-8.11187
▁ndáil	-8.11196
▁leathanach	-8.11336
ing	-8.1233
▁láithreán	-8.12633
▁18	-8.12761
▁feadh	-8.12785
▁mbaineann	-8.13205
▁Airteagal	-8.13441
▁gcuid	-8.13775
▁fós	-8.14133
▁ard	-8.14238
▁7	-8.14327
▁so	-8.14987
▁12	-8.15068
il	-8.15091
amp	-8.15232
▁mbeadh	-8.15887
▁oibre	-8.15924
▁bhíonn	-8.1593
▁iontach	-8.17137
2	-8.17282
▁15	-8.18468
▁gComhairle	-8.18885
),	-8.18974
▁cluichí	-8.19563
▁déanta	-8.19764
▁2017	-8.19877
3	-8.20314
▁(1)	-8.20472
▁fud	-8.20793
▁9	-8.20838
▁fad	-8.2085
▁c	-8.21271
▁Baile	-8.21307
▁iarraidh	-8.214
▁céanna	-8.21821
▁gheall	-8.21965
▁ionad	-8.22036
eann	-8.22081
▁Agus	-8.22164
▁eolas	-8.22329
▁Atweetáil	-8.22641
▁ordú	-8.23075
4	-8.23232
▁dóibh	-8.23632
▁M	-8.23818
▁féadfaidh	-8.23824
▁rogha	-8.24148
▁ainm	-8.24176
▁orthu	-8.24585
▁Fómhair	-8.25296
▁cuid	-8.25449
ach	-8.25503
▁iarratas	-8.25545
l	-8.25741
▁Comhairle	-8.25918
▁b	-8.26281
▁Tuga	-8.26333
▁gcónaí	-8.26817
▁againn	-8.26829
▁Rinne	-8.2687
▁bliain	-8.27214
adh	-8.27697
▁ráta	-8.27709
uaimniú	-8.27845
1	-8.27911
▁mhí	-8.282
▁tSín	-8.28466
▁liom	-8.28656
▁The	-8.28878
anna	-8.289
▁críocha	-8.29466
▁Aontaithe	-8.30493
ciallaíonn	-8.30533
▁2019	-8.30545
).	-8.30764
▁feidhme	-8.30803
▁áireamh	-8.3113
▁iomchuí	-8.31386
▁Cé	-8.31605
▁leibhéal	-8.31774
ch	-8.32027
▁ghlacadh	-8.32161
▁gnéas	-8.32286
▁of	-8.32308
Béarla	-8.32424
▁uisce	-8.32516
S	-8.32706
▁cothrom	-8.32728
▁Eorpaigh	-8.32921
▁fheabhsú	-8.33
▁Féadfaidh	-8.33293
▁scannán	-8.33344
▁Coimisiún	-8.3341
▁Leaba	-8.33435
nn	-8.33478
▁feidhm	-8.33498
▁24	-8.33588
▁mhír	-8.33749
▁amhlaidh	-8.34473
▁fhreagra	-8.34534
y	-8.34953
▁Físeán	-8.35041
▁tríd	-8.35257
▁náisiúnta	-8.35335
aigh	-8.35401
▁dlí	-8.35481
▁taobh	-8.35821
B	-8.36276
▁athrú	-8.36985
▁20	-8.37372
▁Rialachán	-8.3752
▁muid	-8.38305
▁Nach	-8.38346
▁féach	-8.38507
▁cáilíochta	-8.38601
▁tras	-8.38894
▁líon	-8.39422
▁Na	-8.40074
▁mhéid	-8.40139
▁croí	-8.40305
ithe	-8.41028
g	-8.41079
▁mí	-8.41258
Acht	-8.41457
▁háirithe	-8.41926
▁Éirinn	-8.42095
▁Stáit	-8.42313
▁Náisiúnta	-8.42383
▁bhfo	-8.42442
▁Oireachtais	-8.42772
▁tráth	-8.42986
uaire	-8.43385
▁Déan	-8.43631
▁fógra	-8.43945
▁haon	-8.44131
▁chomhrá	-8.44194
▁freagairt	-8.44409
▁bhun	-8.44617
▁(4)	-8.44702
▁dhéanann	-8.44978
▁speisialta	-8.45046
▁P	-8.45424
▁Pharlaimint	-8.45594
▁deireadh	-8.45671
▁sholáthar	-8.4584
▁ansin	-8.45867
▁seirbhís	-8.4592
ainm	-8.4615
▁G	-8.46153
▁Ceisteanna	-8.46242
▁poiblí	-8.46313
▁Ard	-8.46469
▁réimse	-8.46563
o	-8.4661
▁rith	-8.46776
ar	-8.47332
▁bhrí	-8.47462
▁g	-8.47466
▁14	-8.47621
▁fhorbairt	-8.47805
▁Bhí	-8.48047
▁íoc	-8.48361
▁uile	-8.48802
▁bia	-8.48847
D	-8.4888
ítear	-8.48906
▁11	-8.49071
scríobh	-8.49626
▁chlárú	-8.49939
▁16	-8.50039
▁cuí	-8.50404
▁áitiúil	-8.50408
▁Stát	-8.50491
▁Ach	-8.50506
▁baint	-8.50604
▁cuideachta	-8.50664
▁cosúil	-8.5075
F	-8.51126
faidh	-8.51832
▁rialacha	-8.52058
▁Dáil	-8.52068
▁m	-8.52226
▁Tithe	-8.5223
te	-8.52323
▁imeachta	-8.52359
▁údarás	-8.52557
▁imirt	-8.52779
▁déanaí	-8.5312
▁mura	-8.53144
▁luach	-8.53526
ed	-8.54041
▁pearsanta	-8.54241
▁mian	-8.5439
▁13	-8.54835
▁17	-8.54903
▁ais	-8.55057
▁praghas	-8.55102
▁airgeadra	-8.55142
▁fo	-8.55405
▁airgeadais	-8.5546
▁bunaithe	-8.55586
▁Átha	-8.55808
▁fíor	-8.55828
▁Gnóthaí	-8.55899
▁Parlaiminte	-8.56425
▁Aontas	-8.56478
▁leas	-8.56851
▁mír	-8.57118
▁30	-8.57345
▁Catagóir	-8.57621
na	-8.57672
▁teanga	-8.58218
▁Co	-8.58271
▁aonair	-8.58466
8	-8.58561
▁fiú	-8.58671
▁Ballstáit	-8.58754
▁sheoladh	-8.58855
aí	-8.5899
▁beag	-8.59159
▁ort	-8.59487
▁roghnú	-8.59745
▁hiomlán	-8.59755
▁coinníollacha	-8.59852
ic	-8.59857
▁dtagraítear	-8.60027
▁Conas	-8.6015
▁gcomhréir	-8.60303
f	-8.61001
▁Cluichí	-8.61341
▁roimhe	-8.61366
▁Níl	-8.6149
▁chosaint	-8.61523
tar	-8.6167
▁domhain	-8.61992
▁scéim	-8.62015
▁Cliath	-8.62032
▁lú	-8.6284
nd	-8.62913
▁gnó	-8.62956
▁L	-8.63063
▁19	-8.63083
▁Ó	-8.63168
▁laghdú	-8.63597
▁gceist	-8.63764
▁gcéad	-8.64249
▁tacaíocht	-8.6457
▁measc	-8.64724
▁shampla	-8.64953
▁saol	-8.65348
▁dtaobh	-8.65417
▁Airgeadais	-8.656
▁cruach	-8.66355
▁2016	-8.66471
▁iúl	-8.66513
▁dúinn	-8.67416
▁Mí	-8.67572
▁éifeacht	-8.67623
M	-8.67727
▁os	-8.68071
▁neamh	-8.68111
▁airgead	-8.68179
▁chás	-8.6823
▁rá	-8.68445
5	-8.68727
▁conas	-8.69261
▁faisnéis	-8.69369
▁cé	-8.69401
▁gcoinne	-8.69498
6	-8.69842
▁eolais	-8.69972
▁forálacha	-8.70276
I	-8.70421
▁leanaí	-8.70497
▁nós	-8.70927
▁lán	-8.71047
▁Más	-8.71195
▁Cur	-8.7125
▁siúl	-8.71497
▁idirnáisiúnta	-8.71608
▁chuige	-8.71658
▁láithreach	-8.71775
ie	-8.71968
▁21	-8.71973
▁táirge	-8.72517
▁scoil	-8.72582
▁Cad	-8.72595
▁teagmháil	-8.72641
fhonn	-8.72786
▁laghad	-8.73059
▁inniu	-8.73167
▁thaobh	-8.73169
▁chroí	-8.7341
▁chinntiú	-8.74005
▁ndiaidh	-8.74006
▁leagan	-8.74555
T	-8.74793
▁tuilleadh	-8.74858
▁cinneadh	-8.74877
▁cuireadh	-8.74971
▁ghnáth	-8.74978
▁clár	-8.74981
ii	-8.753
▁bhealach	-8.75359
▁chruthú	-8.75403
▁bun	-8.75607
▁breise	-8.75732
▁sláinte	-8.76033
am	-8.76053
▁23	-8.76099
▁—	-8.76202
▁Uimh	-8.76222
▁déanamh	-8.76252
▁dara	-8.76261
▁rinneadh	-8.76273
▁lucht	-8.76376
▁cad	-8.76538
G	-8.76569
▁De	-8.76896
▁Bord	-8.77067
▁Éireann	-8.77299
▁chineál	-8.77321
7	-8.77326
▁Sláinte	-8.77348
▁deis	-8.77882
▁Seo	-8.7803
▁dtugtar	-8.78107
▁dhuine	-8.78125
▁úsáidtear	-8.78199
aois	-8.78457
▁25	-8.78506
▁'	-8.79068
▁cabhrú	-8.79101
▁22	-8.79154
▁bearta	-8.79364
▁2015	-8.7959
▁Cuntas	-8.79764
▁rochtain	-8.80014
▁éasca	-8.8038
▁taighde	-8.80457
óidh	-8.80577
er	-8.80595
▁Achta	-8.80707
▁oiriúnach	-8.80724
▁déanfar	-8.80802
▁tAcht	-8.81276
▁bunaidh	-8.81348
▁córas	-8.81779
▁rinne	-8.81907
gt	-8.81987
▁s	-8.82123
▁dhiaidh	-8.82147
▁Gach	-8.82258
▁tír	-8.82302
▁riachtanais	-8.82381
▁leanbh	-8.82619
▁fé	-8.82708
▁(5)	-8.82793
▁léinn	-8.83206
▁Beal	-8.83215
▁aois	-8.83267
▁chuideachta	-8.83476
aíonn	-8.84065
CE	-8.8415
the	-8.84199
▁margadh	-8.84282
▁curtha	-8.84618
▁ch	-8.84624
▁mbliana	-8.84844
ta	-8.84959
▁soláthraí	-8.85141
p	-8.85175
▁dhosmálta	-8.85291
▁glacadh	-8.85532
▁thíos	-8.85532
▁bhonn	-8.857
▁súil	-8.85766
▁Treoir	-8.8583
▁Oifig	-8.85855
▁tús	-8.85943
▁Ghaeilge	-8.86265
▁Meán	-8.86294
▁ailt	-8.87085
▁Sonraí	-8.87093
▁rialú	-8.8712
uireann	-8.87173
▁talamh	-8.87337
▁tríú	-8.87459
▁catagóirí	-8.8748
▁2014	-8.87663
E	-8.87758
▁cánach	-8.87779
▁seachas	-8.87905
▁sásta	-8.88099
▁leanúint	-8.8825
le	-8.88529
▁iarratais	-8.88529
▁forbairt	-8.8865
10	-8.88728
▁(32	-8.88797
▁amhail	-8.88808
▁Oideachais	-8.8894
▁choinneáil	-8.89027
▁nádúrtha	-8.89055
os	-8.89322
9	-8.89335
▁airde	-8.89475
▁ábhair	-8.89526
.”	-8.89672
▁domhan	-8.89752
amlíne	-8.89896
▁ndéanfar	-8.90138
▁Soláthraithe	-8.90275
▁2013	-8.90439
acha	-8.90562
▁fhios	-8.90907
▁chomhlíonadh	-8.91021
▁chuireann	-8.91046
▁31	-8.91415
▁arís	-8.91472
▁gurb	-8.91474
▁In	-8.91716
▁ábhartha	-8.91756
▁di	-8.91781
▁Gaeltachta	-8.91881
▁E	-8.91882
▁gc	-8.91988
▁Ean	-8.92084
▁fada	-8.92294
▁tapa	-8.92427
▁aird	-8.92795
▁istigh	-8.92801
▁torthaí	-8.93168
as	-8.93431
▁fhaisnéis	-8.935
▁scoile	-8.93608
far	-8.93641
údarás	-8.93684
▁ama	-8.93757
▁nithe	-8.9378
R	-8.93806
▁rialacháin	-8.93812
▁sula	-8.93829
▁comhrá	-8.93896
▁léi	-8.94007
▁freastal	-8.94184
▁Ioncaim	-8.9419
▁liosta	-8.94242
▁ionas	-8.94474
▁earraí	-8.9461
P	-8.94669
▁comhlacht	-8.9474
▁Faigh	-8.94902
▁inar	-8.94947
▁thoradh	-8.94972
▁mhór	-8.94983
▁bhfad	-8.951
▁clips	-8.95238
▁Chomh	-8.95449
▁nóiméad	-8.96154
▁Máirt	-8.96546
▁ginearálta	-8.96679
▁26	-8.96849
▁iníoctha	-8.96951
▁éigin	-8.96955
▁Faoi	-8.96998
aítear	-8.97002
▁leasú	-8.97079
12	-8.97358
▁seirbhíse	-8.97541
▁déanfaidh	-8.98042
▁imeachtaí	-8.98088
▁min	-8.98119
▁27	-8.98407
▁tagairt	-8.98411
▁naisc	-8.9867
Airteagal	-8.98672
▁Sceideal	-8.98674
▁níl	-8.9891
es	-8.99129
▁porno	-8.99367
▁iarracht	-8.99398
▁gníomhaíochtaí	-8.99418
▁comhalta	-8.99502
load	-8.99618
▁airgid	-8.99793
▁úsáide	-8.99863
▁Cluiche	-9.00332
▁déan	-9.00467
▁Saor	-9.01068
▁lorg	-9.0113
▁tháinig	-9.01207
▁dearadh	-9.01387
▁soláthar	-9.01567
▁minic	-9.01708
▁Meitheamh	-9.01837
▁faisnéise	-9.01966
▁chaitheamh	-9.02022
▁Comment	-9.0205
▁íseal	-9.02631
▁Eoraip	-9.02736
▁Bain	-9.0279
K	-9.02798
al	-9.02802
▁reatha	-9.02837
▁cláraithe	-9.03006
▁Eanáir	-9.03072
▁scríbhinn	-9.03138
▁dteideal	-9.03395
▁28	-9.03408
An	-9.03444
▁mheas	-9.04065
▁Rialtais	-9.04253
▁Casino	-9.04337
▁Londain	-9.04389
▁riachtanach	-9.04487
▁Bealtaine	-9.04686
▁gcrích	-9.04821
▁scoileanna	-9.04894
▁tionchar	-9.05126
▁fheiceáil	-9.05252
▁Nollaig	-9.05295
▁cuir	-9.05345
▁dhéantar	-9.05414
▁oifig	-9.0584
AE	-9.05878
▁cearta	-9.05896
ábhar	-9.05956
▁taithí	-9.06
▁R	-9.06063
▁aici	-9.06125
▁Coimisinéirí	-9.0615
▁Contae	-9.06177
▁Do	-9.06433
▁Aghaidh	-9.06434
▁29	-9.06542
▁deara	-9.06695
▁chinneadh	-9.06728
▁ngach	-9.06861
▁téarma	-9.06884
▁Tar	-9.07041
la	-9.07061
▁gCoimisiún	-9.07148
▁Coiste	-9.07418
▁bheadh	-9.07448
▁Maidir	-9.07606
▁éileamh	-9.07655
Naisc	-9.07755
▁siúd	-9.07885
▁tíortha	-9.07908
▁Bainfi	-9.08097
▁bharr	-9.0813
▁rudaí	-9.08318
▁fanacht	-9.08481
▁dar	-9.08635
▁íocaíocht	-9.09159
▁seoladh	-9.09579
N	-9.09656
▁thart	-9.10281
▁príomh	-9.10398
▁meaisín	-9.10588
áin	-9.10598
▁modh	-9.1071
▁dhéanfaidh	-9.1105
▁gcomparáid	-9.11355
▁cás	-9.11542
▁aistriú	-9.1156
▁Déanfar	-9.11708
▁Liosta	-9.1171
▁Aon	-9.11855
▁simplí	-9.11858
▁críche	-9.11974
▁ríomhaire	-9.1212
▁réiteach	-9.12142
▁malairte	-9.12167
▁áirithiú	-9.12293
▁H	-9.12309
▁cead	-9.12328
k	-9.12355
▁chuir	-9.12387
▁shuíomh	-9.12436
▁ghabhann	-9.12454
▁oifigeach	-9.12623
▁toisc	-9.12662
▁sóisialta	-9.1275
fear	-9.12994
▁deimhniú	-9.13099
imid	-9.13149
▁mná	-9.13371
▁monaróirí	-9.13416
▁dhearna	-9.13527
▁ndáiríre	-9.13843
▁scannáin	-9.13877
▁húsáid	-9.13896
aithe	-9.14084
▁Úsáid	-9.14209
▁fáilte	-9.14252
▁raon	-9.14384
▁Bhaile	-9.14472
▁leagtha	-9.14473
▁tAontas	-9.14964
▁leagtar	-9.15112
▁thagann	-9.15429
▁Athraigh	-9.1546
▁faoina	-9.15545
de	-9.15551
▁tacú	-9.15566
▁Aibreán	-9.15649
▁tuarascáil	-9.1568
L	-9.16046
▁Tweetáil	-9.16257
▁Dá	-9.16337
▁oideachais	-9.16625
▁fén	-9.16626
▁tábhachtach	-9.16679
▁dtaca	-9.16696
▁forbartha	-9.16714
▁chlár	-9.16739
▁limistéar	-9.17072
▁Grúpa	-9.17284
▁áitiúla	-9.17371
▁Scéim	-9.17434
ordú	-9.17504
▁saothair	-9.17731
▁Meith	-9.17744
V	-9.17883
▁sraith	-9.17991
▁léamh	-9.18257
▁thug	-9.18275
▁Díle	-9.18428
▁freagrach	-9.18474
▁etc	-9.18858
▁óga	-9.18897
▁choimeád	-9.18924
▁chugainn	-9.19008
▁dhíol	-9.19514
▁ea	-9.19623
▁oibriú	-9.19674
▁páirt	-9.19696
▁Feabh	-9.19752
▁bhunú	-9.19843
W	-9.20031
▁mhéadú	-9.20045
▁thugann	-9.2023
úsáid	-9.20312
▁trealamh	-9.20354
▁earnáil	-9.20388
▁tugadh	-9.20511
▁suim	-9.20902
eoidh	-9.20908
íodh	-9.21309
▁2012	-9.21372
▁cosanta	-9.21496
▁dháta	-9.21632
▁trádála	-9.21704
▁thoil	-9.21716
▁Chúirt	-9.21739
▁Feabhra	-9.21884
▁teideal	-9.22217
▁réidh	-9.22254
nó	-9.22311
(1)	-9.22415
▁ionann	-9.22549
▁Físeáin	-9.22554
▁dath	-9.22579
▁Ríocht	-9.22675
▁the	-9.23022
▁phobal	-9.231
▁lae	-9.23284
▁ról	-9.23447
▁V	-9.23479
▁p	-9.23494
bh	-9.24001
▁ráiteas	-9.24319
th	-9.24373
▁fuair	-9.24418
▁Chuid	-9.24452
▁dochar	-9.245
▁phoiblí	-9.24647
▁ghlac	-9.24672
▁ndéantar	-9.24812
▁stíl	-9.24825
▁luath	-9.25076
▁spraoi	-9.25173
▁cosaint	-9.252
▁Scoil	-9.25236
▁iompar	-9.25319
▁snáithe	-9.25334
▁N	-9.25407
▁(6)	-9.25434
▁Seirbhísí	-9.25518
▁léiriú	-9.25595
▁dár	-9.256
▁fáth	-9.25842
ainneoin	-9.25866
▁costais	-9.25902
▁bhaile	-9.25959
▁seomra	-9.26442
▁scileanna	-9.26457
Déanfaidh	-9.26582
▁álainn	-9.2666
14	-9.26689
▁dáileoir	-9.2676
▁roghanna	-9.26779
▁Mór	-9.27047
▁2020	-9.27467
▁Lún	-9.27485
▁cuairt	-9.27522
▁Rialacháin	-9.27675
▁neart	-9.27852
▁Líne	-9.28088
▁Choimisiún	-9.28205
▁Aib	-9.28206
▁údaráis	-9.28229
▁agam	-9.28313
▁mbun	-9.28423
▁dteagmháil	-9.28569
▁sonraithe	-9.28574
▁Roimh	-9.28586
▁thógáil	-9.28757
fhéidir	-9.29113
▁méadú	-9.29145
▁for	-9.29623
▁leathan	-9.2976
mobi	-9.29952
▁dóigh	-9.30056
▁Ina	-9.30058
▁cúig	-9.30104
▁fear	-9.30116
▁Taispeáin	-9.30198
▁páistí	-9.30219
▁mbíonn	-9.3026
▁fhágáil	-9.30414
▁riamh	-9.3059
▁láidir	-9.30648
▁gnéithe	-9.30796
▁cén	-9.30803
▁nár	-9.30859
▁bogearraí	-9.30976
▁fuinnimh	-9.31336
15	-9.31379
▁cionn	-9.31437
365.	-9.3144
▁te	-9.31595
▁Phríomh	-9.31912
▁tíre	-9.31916
▁scaireanna	-9.31921
▁MFómh	-9.31925
u	-9.32055
▁gcomhair	-9.32264
▁deiridh	-9.32299
▁meáchan	-9.32657
▁údaraithe	-9.32674
(	-9.32675
ra	-9.32794
▁iompair	-9.32915
▁comhairle	-9.32984
▁chumas	-9.33012
▁chomhalta	-9.33051
▁Poiblí	-9.33233
▁cheangal	-9.33282
▁cumhachta	-9.33383
▁100	-9.33648
▁leanúnach	-9.337
▁Fáilte	-9.33792
▁Electronics	-9.33808
▁Éire	-9.33841
▁Údarás	-9.33903
▁Ealaíon	-9.33971
us	-9.34144
▁athbhreithniú	-9.34275
▁beartaithe	-9.34425
id	-9.34642
▁treoir	-9.34831
▁soiléir	-9.34995
▁páirteach	-9.35011
▁Ná	-9.35189
▁Déantar	-9.35322
▁bhráid	-9.3536
▁foirne	-9.35548
▁lasmuigh	-9.35743
▁Á	-9.35845
▁hAchtanna	-9.35948
▁pé	-9.36053
▁fola	-9.36116
▁áfach	-9.36138
▁chluiche	-9.36148
▁Áitiúil	-9.36728
▁faire	-9.36894
▁Cathrach	-9.37144
▁anailís	-9.37229
▁San	-9.37358
▁Sóisialta	-9.37522
Fómh	-9.37695
▁coitianta	-9.37723
▁luaithe	-9.3773
on	-9.37782
▁Trádála	-9.37922
▁ríomh	-9.38034
▁Forbartha	-9.38122
13	-9.38194
▁fostaíochta	-9.38471
▁feabhas	-9.38524
onn	-9.38603
ófar	-9.38884
▁Rialtas	-9.38963
▁chéanna	-9.39016
▁dom	-9.39036
▁Gaillimhe	-9.39037
▁measfar	-9.39141
▁féadfar	-9.39152
eofar	-9.39176
▁Clár	-9.39199
▁Lúnasa	-9.39551
▁ró	-9.39613
▁Leanaí	-9.39647
▁aidhm	-9.39722
▁toiliú	-9.39929
▁réimsí	-9.39975
tha	-9.40128
▁comhaltaí	-9.40155
▁ceallraí	-9.40155
▁cúnamh	-9.40161
▁Seol	-9.40188
▁seachtaine	-9.40203
▁chuirtear	-9.40207
▁smaoineamh	-9.40373
16	-9.40476
▁blianta	-9.40559
▁gcomhairle	-9.406
▁mBallstát	-9.40765
▁próiseas	-9.4077
▁fás	-9.40794
▁bh	-9.40802
▁togra	-9.40845
▁díobh	-9.4087
▁r	-9.4091
11	-9.40932
▁feidhmeanna	-9.41111
▁Samhain	-9.41186
▁uirthi	-9.41252
▁cúram	-9.41325
▁cód	-9.41498
▁saoire	-9.4161
▁scrúdú	-9.41624
▁ligean	-9.41639
▁chumhacht	-9.41709
mm	-9.41872
x	-9.42001
▁sábháilte	-9.42014
20	-9.42015
Tá	-9.42157
▁téarmaí	-9.42414
▁nósanna	-9.42557
▁talún	-9.42846
▁phobail	-9.42877
st	-9.42972
áil	-9.43055
▁soláthraithe	-9.43061
▁thaispeáint	-9.4312
▁SMS	-9.43272
▁gruaige	-9.43286
▁ndearnadh	-9.43318
iú	-9.4341
▁leabhar	-9.43434
▁tháirgeadh	-9.43495
▁2011	-9.43604
▁mBan	-9.43766
▁50	-9.43853
eadh	-9.4408
▁ghnó	-9.44224
▁gclár	-9.44387
▁1.	-9.44408
▁Idirnáisiúnta	-9.44551
▁tosaigh	-9.44558
▁cumas	-9.44566
▁2009	-9.4458
▁ceadúnas	-9.44593
▁teach	-9.44674
▁saincheaptha	-9.44757
▁crua	-9.44834
▁kashtanka	-9.45402
▁faide	-9.45427
▁uimhir	-9.4546
▁cuma	-9.45477
▁teastáil	-9.45618
▁tionscadal	-9.45631
H	-9.45767
íoc	-9.45828
▁díol	-9.45928
▁Leasú	-9.45953
▁rátaí	-9.45963
▁Nollag	-9.46059
▁anuas	-9.46115
▁Táirgí	-9.46134
▁fhógra	-9.46175
or	-9.46181
▁theannta	-9.46269
▁son	-9.46445
▁Ireland	-9.46557
▁grianghraif	-9.46711
▁spreagadh	-9.46735
▁Leis	-9.46839
▁II	-9.46876
▁comh	-9.46879
eanna	-9.46906
▁bealach	-9.46924
▁bheas	-9.46926
▁doiciméad	-9.46938
▁Óga	-9.47202
▁Baineann	-9.47224
▁aer	-9.47309
▁Eachtracha	-9.47374
▁Samh	-9.47478
ly	-9.47501
▁barr	-9.4757
▁chúis	-9.47634
▁rialta	-9.47997
U	-9.48032
aimseartha	-9.48096
▁rún	-9.48241
▁ullmhú	-9.48371
▁brath	-9.48406
▁cheapadh	-9.48499
▁Bhord	-9.48542
▁cineálacha	-9.48832
▁milliún	-9.48915
▁gníomhú	-9.48995
▁siar	-9.49099
▁costas	-9.49116
▁rialachán	-9.49148
▁dtús	-9.49153
▁dea	-9.49238
▁gcuideachta	-9.49246
▁Gnéas	-9.49356
▁éifeachtach	-9.49504
▁Níor	-9.49525
▁ceanglais	-9.49589
▁bán	-9.49623
▁deiseanna	-9.49627
▁damáiste	-9.49633
O	-9.49654
▁Déardaoin	-9.49822
▁leasa	-9.49866
▁bhfoirm	-9.49877
▁fir	-9.49937
▁dhéanfar	-9.5008
▁Féadfar	-9.50115
▁ola	-9.50138
▁ndéanfaidh	-9.50268
▁Parlaimint	-9.5037
▁Gaillimh	-9.5038
▁fheidhmiú	-9.50384
▁céim	-9.50461
▁oiread	-9.50503
▁acmhainní	-9.50546
▁dubh	-9.50801
▁Moncler	-9.50806
▁cóip	-9.50822
▁óg	-9.50982
▁seilbh	-9.5105
▁Dlí	-9.51065
▁Freagra	-9.51177
▁tacaíochta	-9.51186
▁deimhin	-9.51409
▁Tú	-9.51437
▁oscailte	-9.51534
ard	-9.51676
▁Vicipéid	-9.51863
18	-9.51948
▁bhailiú	-9.52085
▁éadaí	-9.52142
▁cúrsaí	-9.52187
im	-9.52203
▁mac	-9.52268
▁Dún	-9.52294
▁Seinn	-9.52334
cuirfidh	-9.52407
▁suite	-9.52473
▁mhaithe	-9.52486
▁dírithe	-9.52804
▁cuirfea	-9.53013
▁cion	-9.53029
▁fostaithe	-9.53075
▁chaoi	-9.53132
▁ceaptha	-9.53254
▁Dara	-9.5332
▁ceisteanna	-9.53726
19	-9.53885
▁post	-9.53997
▁O	-9.54239
v	-9.54414
go	-9.54598
▁ioncam	-9.54677
▁Seirbhís	-9.54784
oibreoir	-9.54875
▁gnáth	-9.54969
▁lenár	-9.55079
▁feidhmiú	-9.55184
▁Ollscoil	-9.55272
Is	-9.55287
▁tionscadail	-9.5538
▁shocrú	-9.55496
▁chosc	-9.55696
▁Táimid	-9.55849
▁iontu	-9.55854
▁100%	-9.55896
▁fhoirm	-9.56004
▁Dubh	-9.56042
mar	-9.56047
▁Uimhir	-9.56058
▁measúnú	-9.56095
▁Choiste	-9.56188
▁oíche	-9.56315
▁Chonradh	-9.56334
▁doiciméid	-9.56343
▁comhaontú	-9.56355
▁Cliceáil	-9.56587
▁gcur	-9.56611
▁bpraghas	-9.56817
▁cláir	-9.56838
▁breis	-9.56868
▁tugtha	-9.57066
ailt	-9.5708
▁2.	-9.57084
▁tseirbhís	-9.57121
▁gníomhartha	-9.57147
▁téacs	-9.57152
▁Béarla	-9.57234
▁ré	-9.57244
17	-9.57254
▁clárú	-9.57387
24	-9.57441
▁tástála	-9.57537
▁feiceáil	-9.57545
▁leighis	-9.57558
▁gcásanna	-9.57563
▁oiliúna	-9.57599
▁rialaithe	-9.57617
▁comhlachtaí	-9.57623
▁líonadh	-9.57644
▁maoiniú	-9.5788
▁bhféadfadh	-9.58034
▁Príomh	-9.58132
▁pobail	-9.58288
▁ceithre	-9.58309
▁Mura	-9.58381
▁beo	-9.58427
▁stiúir	-9.58524
▁Cuid	-9.58633
▁seasamh	-9.5877
▁caillteanas	-9.58788
▁fhoghlaim	-9.58949
▁Scileanna	-9.59017
▁teaghlaigh	-9.59027
▁2010	-9.59044
▁beartais	-9.59089
▁shlí	-9.59299
▁beaga	-9.59329
▁Tuarascáil	-9.59354
▁caite	-9.5945
▁tuiscint	-9.59525
▁reachtaíocht	-9.59527
▁tóir	-9.59678
▁mórdhíola	-9.59776
▁cúpla	-9.59782
0	-9.59884
▁Déagóirí	-9.60011
Moncler	-9.60165
fhéadfaí	-9.60261
▁gabháil	-9.60277
▁oscailt	-9.60492
án	-9.60802
lena	-9.60823
▁Cruach	-9.60988
▁Cúirte	-9.61019
▁Factory	-9.61028
▁solas	-9.6103
▁video	-9.61201
▁iniúchadh	-9.61232
▁oifigiúil	-9.61289
▁amuigh	-9.61524
▁tharlaíonn	-9.61843
▁liúntas	-9.61866
▁Noll	-9.61956
ca	-9.62
▁múinteoirí	-9.62104
▁Súil	-9.62109
▁slí	-9.62139
eolas	-9.62286
▁tharraingt	-9.62379
▁chéim	-9.62484
éard	-9.62587
▁móra	-9.62654
▁Léir	-9.6266
22	-9.62726
▁ngleic	-9.62796
▁tuairim	-9.63064
▁ghearradh	-9.63081
▁fhaigheann	-9.63311
▁ndaoine	-9.63325
▁trína	-9.6349
▁Céadaoin	-9.63569
The	-9.63669
▁thuas	-9.63829
sa	-9.63856
▁pornhub	-9.64091
▁Ch	-9.64114
▁(7)	-9.64174
▁on	-9.64192
▁Choimisiúin	-9.64348
▁Siar	-9.64368
▁gcuirfea	-9.64371
▁teocht	-9.64438
▁araon	-9.64443
▁léiríonn	-9.64515
▁infheidhme	-9.64614
▁staidéar	-9.64662
▁thairiscint	-9.64747
▁Gan	-9.64804
▁K	-9.64845
cháin	-9.64858
▁f	-9.64879
▁dtáirgí	-9.64896
▁trádáil	-9.64896
iii	-9.64931
▁dromchla	-9.65007
▁dearmad	-9.65381
▁uathúil	-9.65416
▁mba	-9.65486
▁teicneolaíocht	-9.65603
▁éisteachta	-9.65689
▁scéal	-9.65744
▁cuidiú	-9.65874
▁and	-9.65905
▁ollmhór	-9.65935
▁cruinniú	-9.65941
▁gceart	-9.66129
▁flash	-9.66169
▁cairde	-9.66179
▁dearg	-9.6638
▁mhargadh	-9.66482
▁beagnach	-9.66523
▁Lá	-9.6659
▁bhua	-9.66594
▁leath	-9.66608
▁Mórdhíol	-9.66638
▁phróiseáil	-9.6672
▁gcóras	-9.66724
▁achomharc	-9.66734
▁cuspóirí	-9.66842
▁pictiúir	-9.66845
▁chatagóir	-9.66863
▁Roinne	-9.67
▁páirtithe	-9.67026
▁riaracháin	-9.6727
▁Theas	-9.675
▁adhmaid	-9.67528
▁Ionad	-9.67604
▁foghlaim	-9.6781
▁cumhacht	-9.67819
▁óir	-9.67826
▁chinn	-9.67914
▁stair	-9.67966
▁ainmnithe	-9.68087
earraí	-9.68097
▁Oidhreachta	-9.68115
▁brú	-9.68224
fhiosrúchán	-9.68271
▁grianghraf	-9.68294
):	-9.68314
▁Seirbhíse	-9.68333
▁héasca	-9.68346
▁oiliúint	-9.6847
▁orainn	-9.68611
▁todhchaí	-9.68615
▁leibhéil	-9.68685
▁meán	-9.68797
▁théann	-9.68882
▁thugtar	-9.68913
▁gáis	-9.6915
▁bhreise	-9.69422
▁mm	-9.69454
▁frith	-9.69472
▁gcomhar	-9.69664
▁Chontae	-9.69704
▁Éabhlóid	-9.69704
▁labhairt	-9.6971
▁déag	-9.69799
▁páirtí	-9.69892
▁fhoráil	-9.69912
▁bhain	-9.69951
▁húdaráis	-9.69993
▁tráchtála	-9.7
▁ioncaim	-9.70021
bíonn	-9.70024
▁branda	-9.70115
▁éisteacht	-9.70161
▁Ciste	-9.70183
▁tí	-9.70241
▁abairt	-9.70262
▁staid	-9.7028
▁ísle	-9.70292
▁Cánach	-9.70299
▁daltaí	-9.70307
▁cúis	-9.70403
w	-9.7044
”.	-9.7047
▁struchtúr	-9.705
▁foirfe	-9.70525
▁deartha	-9.70613
▁Bille	-9.70654
eachta	-9.70697
▁NA	-9.707
▁grúpa	-9.7071
▁Dhún	-9.70783
▁”	-9.70811
▁nGall	-9.70817
▁déantar	-9.71158
▁áitreabh	-9.71248
▁sperm	-9.71343
▁miotail	-9.71369
Roghchlár	-9.71373
▁modhanna	-9.71415
▁Cláraigh	-9.71416
net	-9.71469
▁Eorpacha	-9.71506
▁caighdeáin	-9.71654
23	-9.71709
▁hordú	-9.71732
▁lár	-9.71897
▁oideachas	-9.71904
▁gairmiúla	-9.72033
▁bosca	-9.72072
▁sochair	-9.72236
▁ceamara	-9.72366
▁cuntas	-9.7239
▁eagraíochtaí	-9.72414
▁asal	-9.72446
▁fadhbanna	-9.72508
▁Tits	-9.72512
▁eacnamaíoch	-9.7276
ais	-9.72766
▁ionstraim	-9.72868
j	-9.72924
▁Leasa	-9.72994
anúint	-9.7316
▁comhair	-9.73336
▁sheachaint	-9.73346
man	-9.73372
▁chóipeáil	-9.73394
▁aistrithe	-9.73698
▁iasacht	-9.73827
▁3.	-9.73862
▁Ballstát	-9.7393
▁uathoibríoch	-9.73995
▁scéalta	-9.74005
▁chóras	-9.74027
▁sampla	-9.74063
▁o	-9.74068
▁comhaid	-9.74238
▁sonrach	-9.74264
en	-9.74305
▁taitneamh	-9.74492
▁mhalairt	-9.74494
▁baile	-9.74495
▁míreanna	-9.74531
▁laethanta	-9.74535
▁Tabhair	-9.7454
▁baill	-9.7454
▁hearraí	-9.74548
▁grá	-9.74643
▁arb	-9.74686
▁bhreis	-9.74704
▁toradh	-9.74786
▁socruithe	-9.7479
▁traidisiúnta	-9.74791
▁Ábhar	-9.7485
▁timpeall	-9.74985
▁uait	-9.75071
▁farraige	-9.75073
▁forleathan	-9.75073
▁chustaiméirí	-9.75093
▁cásanna	-9.75121
▁shonraítear	-9.75413
▁scoir	-9.75415
▁aithint	-9.75435
▁leabhair	-9.75511
▁cheist	-9.75639
▁fhoireann	-9.75644
▁mBord	-9.75657
▁tionscal	-9.75663
▁luaitear	-9.75667
▁nochtadh	-9.75702
▁lonnaithe	-9.75708
▁gcion	-9.7571
▁réamh	-9.75795
▁ham	-9.7588
▁oifige	-9.75919
▁teorainn	-9.75923
▁spóirt	-9.75956
▁pleanála	-9.7597
▁Sean	-9.76055
▁Oideachas	-9.76076
▁íocaíochtaí	-9.76087
▁ngníomh	-9.76128
▁gairmiúil	-9.76241
gh	-9.76341
▁foráil	-9.76344
▁phríomh	-9.76415
▁teasa	-9.76493
▁gheobhaid	-9.76619
▁aimsiú	-9.7663
▁cailíní	-9.76672
▁sábháilteachta	-9.76746
▁dúirt	-9.76871
▁tagairtí	-9.76893
▁luas	-9.77031
cht	-9.77176
▁níor	-9.77277
▁tástáil	-9.77453
▁Bhoird	-9.77454
▁himeachtaí	-9.77458
▁suntasach	-9.77525
▁bord	-9.77557
▁€	-9.77576
▁éifeachtaí	-9.77611
▁taispeáint	-9.77756
▁mhaoin	-9.77808
21	-9.77817
▁ainmhithe	-9.77996
▁gníomh	-9.78157
▁Dúin	-9.78326
cha	-9.7844
▁2008	-9.78473
▁Gréasáin	-9.78618
▁ndóigh	-9.78618
▁eisiúint	-9.78834
se	-9.78887
▁iontaofa	-9.78931
▁Eolas	-9.78969
▁scríobh	-9.7899
▁to	-9.79073
▁cailín	-9.79097
▁slándála	-9.79233
▁poist	-9.79234
▁chomhaontú	-9.79244
▁réitigh	-9.79265
▁réasúnach	-9.79305
▁thréimhse	-9.79394
orálacha	-9.79449
▁Speisialta	-9.79525
▁Síochána	-9.79536
▁.—	-9.79545
▁phróiseas	-9.7955
▁neamhspleách	-9.79574
mh	-9.79879
▁W	-9.79881
▁moltaí	-9.79893
▁Bia	-9.80026
▁uaireadóirí	-9.80135
▁fianaise	-9.80147
▁cliceáil	-9.80196
."	-9.80321
▁eagraíocht	-9.80416
▁tsórt	-9.80439
▁leathnú	-9.8046
▁cáilithe	-9.80541
▁íocaíochta	-9.80555
ne	-9.80574
▁lámh	-9.80585
▁mbealach	-9.80746
J	-9.80795
▁ghabháil	-9.80839
aithfidh	-9.80875
▁ghairm	-9.81003
▁foireann	-9.81063
▁bhainistiú	-9.81067
▁Déantóirí	-9.8108
▁cáin	-9.81084
▁Leab	-9.81106
▁samplaí	-9.81205
▁bainte	-9.81209
▁Trí	-9.81296
▁Táirge	-9.81351
▁Monarcha	-9.81459
▁bhean	-9.81705
▁monarcha	-9.81961
▁choinníoll	-9.82036
▁shaol	-9.82082
▁buan	-9.8216
agus	-9.82212
▁bás	-9.82239
▁compordach	-9.823
▁éirí	-9.82561
▁Hardcore	-9.82607
▁OÉ	-9.8262
▁Tags	-9.82654
▁plé	-9.82659
acht	-9.827
▁sprioc	-9.8285
▁córais	-9.82926
▁friotaíocht	-9.83002
▁tuairimí	-9.83014
▁foirm	-9.83141
▁%	-9.83156
▁riachtanas	-9.83257
▁cuspóir	-9.83422
▁áiteanna	-9.83429
▁focail	-9.8355
▁Aibí	-9.83654
▁dathanna	-9.83656
▁U	-9.83674
cuirtear	-9.83857
▁hábhair	-9.8388
▁inár	-9.83898
▁leictreach	-9.83945
▁cónaí	-9.83956
sh	-9.8408
▁Oifigiúil	-9.8419
▁gceann	-9.84211
▁leictreonach	-9.84254
▁ndéanann	-9.84311
▁Fostaíochta	-9.84378
▁40	-9.84395
▁spás	-9.84447
▁buntáistí	-9.84502
▁fuaime	-9.84556
▁ath	-9.84727
▁scriosadh	-9.84832
▁caitheamh	-9.84836
▁Alt	-9.84858
▁rannpháirtíocht	-9.84864
▁Fearr	-9.84895
dá	-9.85099
▁domhanda	-9.85128
▁sheachadadh	-9.85146
▁tharla	-9.85182
▁caithfidh	-9.85182
▁thosaigh	-9.85183
▁Praghas	-9.85187
▁tuismitheoirí	-9.85194
▁parlaiminteach	-9.85214
▁shábháil	-9.85461
▁déileáil	-9.85464
▁Pobail	-9.85505
▁tháirgí	-9.85506
▁Leas	-9.85643
▁mheán	-9.85806
▁gcuirtear	-9.85811
▁tÚdarás	-9.85814
▁Faisnéise	-9.85856
▁cathracha	-9.85923
▁aitheanta	-9.85949
▁Ltd	-9.86148
▁bliantúil	-9.86451
▁bunaíodh	-9.86457
▁Mac	-9.86559
▁athruithe	-9.86606
re	-9.86719
▁bpróifíl	-9.86761
▁Thosaitheoirí	-9.86761
▁hAoine	-9.86761
▁New	-9.86763
▁Aisce	-9.86766
▁ardchaighdeán	-9.86767
▁Taighde	-9.86806
▁aice	-9.8687
▁socrú	-9.87108
agann	-9.87159
▁ardú	-9.87263
▁plandaí	-9.87447
▁triail	-9.87483
▁cháin	-9.87501
news	-9.87621
▁taifead	-9.87683
▁slán	-9.87691
▁siopa	-9.87964
▁réasúnta	-9.88063
▁tosú	-9.88075
▁úsáideann	-9.88086
▁cáilíocht	-9.88134
▁inmheánach	-9.88161
▁chearta	-9.88297
uithe	-9.88302
▁mion	-9.88343
▁Ár	-9.88345
▁foghlama	-9.88405
▁mhéad	-9.88455
▁Oibre	-9.88495
▁glan	-9.88598
▁táimid	-9.88609
▁láimh	-9.8869
▁Astráil	-9.88738
▁thuilleadh	-9.88739
▁chothabháil	-9.88758
▁Cabhair	-9.88792
▁táille	-9.88801
▁cheantar	-9.8882
▁Google	-9.88854
tv	-9.88959
▁stóráil	-9.89112
X	-9.89217
▁phraghas	-9.89305
▁Suíomh	-9.8943
▁fhoilsiú	-9.89482
▁éagsúlacht	-9.89611
▁Chosaint	-9.8975
▁shóisialta	-9.89754
▁Dollar	-9.89781
▁inbhuanaithe	-9.89804
▁infheistíochta	-9.89882
▁cinntí	-9.89952
▁fíneáil	-9.90102
▁soláthróirí	-9.90115
▁sheol	-9.90188
airgeadraí	-9.90462
▁2007	-9.90482
▁críoch	-9.90486
▁institiúidí	-9.90495
▁Nuacht	-9.90578
▁Jackets	-9.90594
▁shonraí	-9.90681
▁dhíth	-9.90753
▁hamháin	-9.90756
▁reáchtáil	-9.90771
▁shuiteáil	-9.90772
ion	-9.90787
▁straitéis	-9.9079
▁réigiún	-9.91053
▁Daoine	-9.91202
▁Institiúid	-9.91422
▁dheireadh	-9.91436
▁ndéanamh	-9.91438
▁chorp	-9.91479
z	-9.91591
▁orduithe	-9.91606
▁dearbhú	-9.91804
▁táillí	-9.91825
▁seach	-9.92149
▁árachais	-9.92151
▁tairbhe	-9.92195
▁Síne	-9.92202
oirí	-9.923
▁lámha	-9.92326
Uimh	-9.92365
▁maoin	-9.92376
▁lear	-9.92436
▁smaointe	-9.92472
▁gloine	-9.92481
▁bíodh	-9.92524
▁chúirt	-9.92563
▁difriúil	-9.92567
▁mic	-9.92731
▁plean	-9.92792
▁Tabharfa	-9.92803
▁Thuaidh	-9.92813
▁Cás	-9.93021
ag	-9.93036
▁Teanga	-9.93205
▁leathanaigh	-9.93246
▁cuideachtaí	-9.93399
▁Talmhaíochta	-9.9355
▁dlite	-9.93581
▁Eo	-9.93788
▁Réigiún	-9.93836
▁bonn	-9.93905
▁AN	-9.93908
▁sreang	-9.93909
▁tionscail	-9.93915
▁deich	-9.93966
▁leithéid	-9.94117
▁cumhachtaí	-9.9414
▁bpróiseas	-9.94209
▁ghnóthú	-9.94223
▁caiteachas	-9.9424
▁Tugtar	-9.94246
▁teoranta	-9.94265
▁riosca	-9.94466
▁Gnó	-9.94528
▁tíotáiniam	-9.94575
▁Act	-9.9471
▁Threesome	-9.94917
oifigeach	-9.94925
▁Sraith	-9.94991
▁sábháilteacht	-9.95029
▁meas	-9.9504
Y	-9.95041
▁neartú	-9.95046
▁dócha	-9.95047
▁Stiúrthóir	-9.95197
ers	-9.95254
▁sheiceáil	-9.95269
▁pointe	-9.95285
▁Ráiteas	-9.95287
▁pacáiste	-9.95306
▁Seoladh	-9.95329
▁Anois	-9.95345
fho	-9.95558
▁rachaidh	-9.95634
▁imeacht	-9.95918
▁cruinn	-9.95919
▁imní	-9.95986
▁bhforáiltear	-9.95987
▁deas	-9.96135
▁bpointe	-9.96341
▁English	-9.96426
▁lárnach	-9.96492
▁chomhlacht	-9.96492
▁Forbairt	-9.96572
▁hiarratas	-9.96579
▁cárta	-9.96605
▁dtreo	-9.96621
gan	-9.96642
thar	-9.96643
▁Céim	-9.9667
▁bpobal	-9.96701
▁Chéad	-9.96737
▁méadar	-9.96767
▁Video	-9.96841
▁mBaile	-9.97066
▁talmhaíochta	-9.97118
▁mhonarcha	-9.97168
▁chláir	-9.97286
▁phost	-9.97324
▁céad	-9.97331
▁Phoiblí	-9.97424
▁Phen	-9.97445
▁difear	-9.97455
▁coiste	-9.97512
▁University	-9.97587
▁III	-9.97673
▁chontae	-9.97682
▁meáin	-9.97795
official	-9.97984
▁grúpaí	-9.97988
▁ghairmiúil	-9.98169
▁beagán	-9.98258
chaighdeán	-9.9832
▁cuntais	-9.98383
▁líonra	-9.98417
▁dteannta	-9.98518
▁ndéanfaí	-9.98522
▁ball	-9.98588
▁breá	-9.98877
▁phearsanta	-9.98883
▁cheadú	-9.98977
▁íoctha	-9.99024
▁choiste	-9.99101
▁720	-9.99114
▁timpeallacht	-9.99168
▁tsuim	-9.99262
▁liúntais	-9.99364
ó	-9.99372
▁beatha	-9.99603
▁gCuid	-9.99622
fháil	-9.99677
▁pinsean	-9.99685
▁Cailíní	-9.99691
▁beartas	-9.99714
el	-9.99784
▁meáchain	-9.99835
▁gníomhach	-9.99946
▁News	-9.9998
▁éascú	-10.0001
▁Uisce	-10.0007
▁infheistíocht	-10.0019
▁tairiscint	-10.0024
▁iar	-10.0024
▁gearán	-10.0032
▁ciontach	-10.0046
▁uirlis	-10.0064
▁stoc	-10.0075
▁fuarthas	-10.0075
▁chothú	-10.0078
▁Dearadh	-10.0078
▁National	-10.0079
▁ceadaithe	-10.0079
▁fhorálacha	-10.008
▁maoine	-10.0082
▁Éireannach	-10.0095
▁Mheiriceá	-10.0111
▁taisteal	-10.0111
▁ghrúpa	-10.0113
▁bealaí	-10.0118
▁chuirfidh	-10.012
▁fuck	-10.012
▁(8)	-10.0128
▁sean	-10.0129
▁Chiste	-10.013
▁príomha	-10.013
▁taisce	-10.0137
▁cúrsa	-10.0144
▁theacht	-10.0146
▁sibhialta	-10.0149
phost	-10.0153
▁scaoileadh	-10.0155
▁É	-10.0159
▁láimhe	-10.0164
▁gcaoi	-10.0168
ru	-10.0179
▁linbh	-10.0188
▁éineacht	-10.0188
▁laethúil	-10.0189
▁aeráide	-10.019
▁ealaíne	-10.0194
á	-10.0208
▁óna	-10.021
▁conradh	-10.0227
▁Foirm	-10.0245
▁nglacfa	-10.0248
▁60	-10.025
▁idirlín	-10.0252
▁sonracha	-10.0259
▁cabhair	-10.0264
▁stát	-10.0265
▁cúirte	-10.0265
▁macasamhail	-10.0266
▁tionscnamh	-10.0287
▁deacair	-10.0288
▁gné	-10.03
▁láithreáin	-10.0303
▁rathúil	-10.0305
▁stádas	-10.0309
▁tuairisc	-10.0312
▁scéimeanna	-10.0313
do	-10.0313
▁Crua	-10.0314
▁Ansin	-10.0317
▁Bónas	-10.0341
▁taifid	-10.0342
▁gluaiseacht	-10.0355
▁uaireanta	-10.0355
▁casta	-10.0358
▁ócáid	-10.0361
▁beart	-10.0363
▁tirim	-10.0369
▁pobal	-10.0381
▁Meaisín	-10.0405
▁thosach	-10.0418
Leasú	-10.0427
▁acmhainn	-10.0431
eacht	-10.0433
▁plaisteach	-10.0443
▁Uachtarán	-10.0446
▁Gharda	-10.0458
▁teagmhála	-10.0464
▁méideanna	-10.0468
▁bainistíochta	-10.0469
é	-10.0472
▁pictiúr	-10.0497
aíodh	-10.0497
▁scoláirí	-10.0497
▁céimeanna	-10.0498
▁Coláiste	-10.0514
▁comhlíonadh	-10.0535
▁stáin	-10.0536
▁orm	-10.0538
▁béim	-10.0539
▁meascán	-10.0539
CUID	-10.0543
▁mhic	-10.0548
seachas	-10.0564
nár	-10.0574
▁Breataine	-10.0575
▁chiallaíonn	-10.0575
▁teorainneacha	-10.0575
▁tseachtain	-10.0575
▁Hot	-10.0575
▁tSeirbhís	-10.0577
▁litir	-10.0578
▁tosach	-10.0579
▁Monaróirí	-10.058
▁leithligh	-10.0614
▁inti	-10.0627
▁gúna	-10.064
▁ndearna	-10.0644
▁scéime	-10.065
▁links	-10.0654
▁feithiclí	-10.0655
▁teicneolaíochta	-10.0657
▁páipéar	-10.0674
▁mhodh	-10.0689
▁ceol	-10.069
▁rialtais	-10.0704
▁chathair	-10.0707
▁deireanach	-10.071
▁Cultúir	-10.0734
▁uiscedhíonach	-10.0734
▁Iompair	-10.0734
▁pinsin	-10.0735
▁Ghníomhaireacht	-10.0736
each	-10.0739
▁contae	-10.0763
▁bean	-10.0766
▁fios	-10.0772
▁Coimirce	-10.0772
▁Tuaithe	-10.0774
▁fhadhb	-10.0774
▁dheonú	-10.0775
▁custaiméirí	-10.0778
tabharfaidh	-10.08
▁Iris	-10.0806
▁Dearg	-10.0814
▁thiontú	-10.0814
▁theastaíonn	-10.0815
▁iarbhír	-10.0815
▁fág	-10.0817
▁faighte	-10.0825
▁feidhmíocht	-10.0831
▁aisíoc	-10.0836
▁óige	-10.0852
▁ghinearálta	-10.0855
▁Bí	-10.0859
▁Íoslódáil	-10.0859
▁bónas	-10.0895
▁chuaigh	-10.0896
▁Moms	-10.0896
▁oibríonn	-10.0906
▁sheirbhísí	-10.0908
▁Fostaíocht	-10.0914
▁leasanna	-10.0914
▁fón	-10.0921
▁cumarsáide	-10.0921
▁gcoitinne	-10.0936
▁coileach	-10.0936
▁Roghnaigh	-10.0938
▁Dia	-10.0942
it	-10.0943
▁éagsúil	-10.0946
acasamhail	-10.0975
▁srl	-10.098
▁limistéir	-10.0983
▁táirgeadh	-10.0988
iarr	-10.0993
oir	-10.1004
▁Iarscríbhinn	-10.1014
▁mothú	-10.1018
▁feistithe	-10.1018
▁thuras	-10.1019
▁cúiseanna	-10.1019
▁Solas	-10.1021
▁Plean	-10.1022
▁Idirlíon	-10.1025
▁Black	-10.1027
▁Bliain	-10.1029
▁creidmheasa	-10.1029
▁próiseála	-10.1046
iv	-10.1046
▁aitheantas	-10.1059
▁Clárú	-10.106
▁codanna	-10.106
▁Tionscail	-10.106
▁tábhachtaí	-10.1061
▁turas	-10.1063
▁tiomanta	-10.1077
▁Irish	-10.108
▁scríofa	-10.1089
▁ithe	-10.1092
▁ngair	-10.1093
▁Cumann	-10.1101
▁Córas	-10.1107
▁ranganna	-10.1108
▁Conradh	-10.1109
▁faoiseamh	-10.1114
▁údarú	-10.1132
▁thiar	-10.1136
▁muirear	-10.1137
▁Duine	-10.1143
▁díriú	-10.1144
▁thuiscint	-10.1153
▁Bainistíochta	-10.1154
IO	-10.1171
▁saille	-10.1176
▁chairde	-10.1183
▁difríocht	-10.12
▁chostas	-10.1201
▁oifigigh	-10.1204
▁fóill	-10.122
▁tslí	-10.1227
▁Pleanála	-10.1227
▁sócmhainní	-10.1233
▁Údaráis	-10.1238
▁bhfianaise	-10.1269
▁Domhanda	-10.127
▁dteangacha	-10.127
▁shárú	-10.1271
▁Whats	-10.1272
▁saothar	-10.128
▁achtachán	-10.1288
▁ceist	-10.1292
Óglaigh	-10.131
▁bronntanas	-10.1311
▁romhainn	-10.1311
▁sochar	-10.1312
▁Comhshaoil	-10.1312
▁Mhaigh	-10.1313
▁Áirítear	-10.1313
▁aeir	-10.1315
▁praghsanna	-10.1319
airgead	-10.1319
▁ord	-10.1325
▁clasaiceach	-10.1328
no	-10.1335
▁uirlisí	-10.1345
▁cuardach	-10.1354
▁ceapadh	-10.1354
▁uaidh	-10.1357
▁úinéir	-10.1384
▁euro	-10.1385
▁feithicle	-10.139
▁thú	-10.1391
▁féachana	-10.1397
▁titim	-10.1399
▁léas	-10.1402
▁Bailiúchán	-10.1407
éirigh	-10.1407
▁Dúiche	-10.144
▁mban	-10.1448
tugann	-10.1448
▁Health	-10.1453
▁phlé	-10.1456
▁bhf	-10.1456
▁cónaithe	-10.146
▁e	-10.1463
háinig	-10.1464
▁Beo	-10.1468
▁chúrsa	-10.1481
▁taistil	-10.1482
▁critéir	-10.1483
▁dtíortha	-10.1485
▁Dáta	-10.1502
▁Afraic	-10.1526
▁Cosanta	-10.1526
▁bhféadfaí	-10.1526
▁teicniúla	-10.1526
▁bhraitheann	-10.1527
▁Post	-10.1532
▁Leabhar	-10.1534
lann	-10.1535
▁dtabharfar	-10.1545
▁tsraith	-10.1571
▁deontais	-10.1572
▁thionscnamh	-10.1573
▁fheidhm	-10.1579
▁eagrú	-10.1584
▁gearr	-10.1587
▁J	-10.1587
▁ghníomhaíochtaí	-10.1591
▁Play	-10.1599
▁2006	-10.1601
▁Banc	-10.1604
▁Teach	-10.1609
▁cultúrtha	-10.1614
▁Mo	-10.1614
▁gCoimisinéirí	-10.1616
▁rialtas	-10.1618
iocfaidh	-10.1619
▁chórais	-10.162
▁cartlann	-10.1633
▁thrí	-10.1641
▁tábhacht	-10.1656
▁teaghlach	-10.1658
▁Seomra	-10.166
▁stáit	-10.1661
▁leigheas	-10.1668
▁dleathach	-10.1675
▁dtír	-10.1683
ad	-10.1684
▁Fhrainc	-10.1698
▁mbainfidh	-10.1701
▁réigiúin	-10.1703
▁ghlanadh	-10.1705
▁athbhreithnithe	-10.1706
▁tithíochta	-10.1706
▁staidéir	-10.1707
▁Náisiún	-10.171
ma	-10.1721
▁fuar	-10.1727
▁Th	-10.1736
▁huathoibríoch	-10.1745
▁monatóireacht	-10.1748
▁2003	-10.1769
▁Bhallstáit	-10.1789
▁spins	-10.179
▁teangacha	-10.1796
▁mBéarla	-10.1802
▁bunúsach	-10.181
50	-10.1817
▁gcroí	-10.1822
▁Fo	-10.1823
▁Tarraing	-10.183
▁comhar	-10.1831
▁gCúirt	-10.1834
▁tionscnaimh	-10.1835
▁dheimhniú	-10.184
éileamh	-10.1852
más	-10.1875
▁Rátáil	-10.1878
▁ardchaighdeáin	-10.1879
▁Ceannais	-10.188
▁Amateurs	-10.1881
▁roghnaigh	-10.1885
100	-10.1891
▁Poblacht	-10.1894
▁siopaí	-10.1898
▁úsáideoirí	-10.1899
▁sealadach	-10.1899
▁incháilithe	-10.1906
▁cóir	-10.1914
▁tugtar	-10.1924
▁fuinneamh	-10.1925
▁inmhuirearaithe	-10.1925
▁reachtúil	-10.1926
▁deontas	-10.1931
▁@1	-10.1942
▁Céard	-10.1946
ip	-10.1952
▁mhaoiniú	-10.1953
▁bog	-10.1963
▁caidreamh	-10.197
▁X	-10.1994
úirt	-10.1998
▁roinn	-10.2003
▁fiosrúcháin	-10.2016
▁Imirt	-10.2016
▁sárú	-10.2019
▁seachtain	-10.2039
▁fostaí	-10.2041
▁críochnaithe	-10.2054
▁ceoil	-10.2061
▁gcuirfí	-10.2061
▁nádúr	-10.2062
▁Lucht	-10.2063
▁chuí	-10.2064
aistriú	-10.2084
▁Ainm	-10.2086
Aibreán	-10.2088
▁phlean	-10.2092
▁chúram	-10.2097
▁bhfoireann	-10.2106
▁rannpháirtithe	-10.2108
▁dhearadh	-10.2111
▁treoracha	-10.2119
▁Straitéis	-10.2121
▁Léigh	-10.2124
▁Achtanna	-10.2125
▁leanfaidh	-10.2125
ála	-10.2128
▁feidhmíochta	-10.2136
▁Ghearmáin	-10.2146
▁scála	-10.2148
▁Sin	-10.2149
▁leasuithe	-10.2151
▁Bhallstát	-10.2152
▁feistí	-10.2152
▁chiontú	-10.2153
▁bhféadfar	-10.2153
▁chead	-10.2154
▁Oireachtas	-10.2155
▁mholadh	-10.2158
▁héifeachtach	-10.2159
▁shiúl	-10.2192
▁sh	-10.2192
▁háit	-10.2196
úradh	-10.22
▁ríomhphost	-10.2201
mo	-10.2204
▁glas	-10.2212
▁intinn	-10.2217
▁chríoch	-10.2232
▁cruth	-10.2232
▁gcéanna	-10.2245
▁Aistriúchán	-10.2245
▁thalamh	-10.2247
▁leictreachais	-10.2248
▁rang	-10.2251
▁Luain	-10.2253
▁Barr	-10.2264
▁dleacht	-10.2275
▁vóta	-10.2277
▁chomhaltaí	-10.2285
▁Stair	-10.2288
▁Iarratais	-10.2293
▁thuismitheoirí	-10.2293
▁leasaítear	-10.2303
▁seacht	-10.2304
▁bhrú	-10.2318
úil	-10.2326
▁rannpháirteach	-10.2329
▁fhaightear	-10.2339
▁dúshláin	-10.2343
▁Uathoibríoch	-10.2343
▁Cíocha	-10.2343
loingseoireachta	-10.2344
da	-10.2355
▁gcumas	-10.2365
▁chuntas	-10.239
▁bhliantúil	-10.239
▁shláinte	-10.2405
▁imscrúdú	-10.2408
▁tógála	-10.241
▁múinteoir	-10.2422
▁fiche	-10.2433
▁galánta	-10.2433
▁Mheán	-10.2433
▁cistí	-10.2434
▁táirgthe	-10.2434
▁pointí	-10.2434
▁Bosca	-10.2436
▁Cumarsáide	-10.2437
▁Spóirt	-10.2437
▁fhianaise	-10.2439
▁éilimh	-10.245
pm	-10.2458
iompar	-10.2463
▁ainmniú	-10.2465
co	-10.2467
▁saincheisteanna	-10.2481
▁Teaghlaigh	-10.2486
▁iarrthóir	-10.2487
▁bainistiú	-10.2496
".	-10.2501
to	-10.2512
▁strap	-10.2528
▁Cineál	-10.2529
▁chuntasaíochta	-10.2529
▁Cuimsiú	-10.2529
▁teagaisc	-10.2531
▁comhad	-10.2532
▁treoirlínte	-10.2532
▁dhlí	-10.2542
áit	-10.2552
▁mheasúnachta	-10.2556
▁chaomhnú	-10.2577
▁greannmhar	-10.2579
▁Ciallaíonn	-10.258
▁Rialú	-10.2582
▁roghna	-10.261
fhéadfá	-10.2625
▁míleata	-10.2625
▁Ginearálta	-10.2626
▁pháirtí	-10.2627
▁th	-10.2627
▁íomhá	-10.2628
▁2000	-10.2634
▁ríomhaireachta	-10.2636
▁spriocanna	-10.2638
▁comhionann	-10.2645
▁dlíthiúil	-10.2674
▁moladh	-10.2676
▁Charm	-10.2677
▁chúrsaí	-10.2687
▁tine	-10.27
▁lean	-10.271
▁Inexperienced	-10.2723
▁Áitiúla	-10.2723
▁tagtha	-10.2723
▁Liúntas	-10.2725
▁cathaoirleach	-10.2726
▁dhearbhú	-10.2726
▁Samhna	-10.2727
▁gar	-10.273
▁cúramach	-10.2734
▁l	-10.2742
▁ionaid	-10.2747
▁Rialacha	-10.2754
▁cruthaithe	-10.2769
▁corpraithe	-10.2772
▁bualadh	-10.2772
▁Ailt	-10.2778
▁Eacnamaíoch	-10.2793
▁2004	-10.28
▁thír	-10.28
▁Euro	-10.2806
▁chóireáil	-10.2811
▁thástáil	-10.2823
▁Ós	-10.2825
▁Chill	-10.283
▁Edit	-10.2835
ite	-10.2837
▁suimiúil	-10.2838
▁catagóir	-10.2843
eacha	-10.2844
▁Comh	-10.285
▁gléas	-10.2857
▁easpa	-10.2867
▁lascaine	-10.287
▁foirmeacha	-10.2871
▁tógáil	-10.2874
▁tae	-10.2874
▁aire	-10.2874
▁pleananna	-10.2874
▁brabúis	-10.2874
▁mhargaidh	-10.2879
▁Scoileanna	-10.288
AN	-10.2899
▁díolacháin	-10.2899
▁ghníomhaíocht	-10.2904
▁ranga	-10.2914
▁stylish	-10.292
▁meicniúil	-10.292
▁gréine	-10.292
▁mbliain	-10.292
▁gcustaiméirí	-10.2923
▁gníomhaíochta	-10.293
▁chruinniú	-10.2932
nach	-10.2946
▁200	-10.2959
▁meaisíní	-10.2966
at	-10.2966
▁Grianchloch	-10.297
▁Chorcaí	-10.2971
▁chailleadh	-10.2972
▁nuashonrú	-10.2972
▁aimsire	-10.299
chuirfear	-10.2994
▁digiteach	-10.2995
▁Cá	-10.2997
▁bunúsacha	-10.2999
▁bhall	-10.3004
fimid	-10.3014
▁sloinne	-10.3019
ll	-10.3019
▁amhras	-10.302
▁Éireannacha	-10.3021
▁dian	-10.3021
▁Mná	-10.3023
▁cruinnithe	-10.3025
▁caighdeánach	-10.3026
▁threoir	-10.3027
▁mb	-10.303
▁dhiailiú	-10.303
▁nóim	-10.3044
▁ríthábhachtach	-10.3046
▁Ceann	-10.3061
▁tábla	-10.3066
▁Soláthra	-10.3067
▁prionsabal	-10.3071
▁mhná	-10.3071
▁ríomhphoist	-10.3071
▁bpost	-10.3072
▁scaipeadh	-10.3072
▁Rolex	-10.3072
▁Super	-10.3082
▁Big	-10.3086
▁gov	-10.3092
▁úsáideoir	-10.3109
▁Iodáil	-10.3117
▁dhó	-10.3119
▁Uaireanta	-10.3122
▁inniúil	-10.3125
▁Gluaiseacht	-10.3126
▁fhorléiriú	-10.313
▁Bán	-10.3133
▁IV	-10.3149
▁oibreacha	-10.316
▁sealbhóir	-10.3162
▁craiceann	-10.3173
▁dualgas	-10.3174
▁gcomhthéacs	-10.3177
▁Óige	-10.3183
▁spéis	-10.3189
▁aicme	-10.3191
▁ghnéas	-10.3204
▁ghníomh	-10.3222
▁thiocfaidh	-10.3225
▁dhiúscairt	-10.3225
▁seachadadh	-10.3225
▁beirt	-10.3225
▁saoránaigh	-10.3226
▁Trealamh	-10.3227
▁mhíchumas	-10.3235
déanann	-10.3242
▁blas	-10.3247
▁gníomhaíocht	-10.3252
▁chailleann	-10.3277
▁prionsabail	-10.3278
▁saoráidí	-10.3279
▁teilifíse	-10.3281
▁gC	-10.3294
▁oibrithe	-10.3303
me	-10.3307
▁dearfach	-10.3308
WHO	-10.3319
▁pháistí	-10.3327
▁chríochnú	-10.3327
▁comhpháirteanna	-10.3328
▁fhágann	-10.3329
▁shealbhú	-10.3332
▁tomhaltóirí	-10.3334
▁Leabharlann	-10.3347
▁Teicneolaíochta	-10.3349
▁íocadh	-10.335
▁cíos	-10.3356
▁seans	-10.336
▁ionadaithe	-10.3361
▁Cód	-10.3363
▁bháis	-10.3367
News	-10.3369
▁bunú	-10.3377
▁Taithí	-10.3379
▁choigeartú	-10.338
▁cialluíonn	-10.338
▁chomhlánú	-10.338
▁Bréagáin	-10.3381
▁Tástáil	-10.3383
▁áilleacht	-10.3385
uk	-10.339
▁World	-10.3395
▁scor	-10.3396
▁fheithicil	-10.3401
ist	-10.3409
▁cearn	-10.341
▁úr	-10.3426
▁daonna	-10.3431
▁bhformáid	-10.3432
▁cliste	-10.3432
▁foilsíodh	-10.3432
▁Cosaint	-10.344
▁éadrom	-10.3441
▁iascaireachta	-10.3441
▁athchóiriú	-10.3449
▁hArd	-10.3453
▁comhoiriúnacht	-10.3461
▁Blonde	-10.3464
▁long	-10.3476
▁bezel	-10.3484
▁bhfolach	-10.3485
▁Raidió	-10.3485
▁hainmneacha	-10.3486
▁punt	-10.3487
▁chailíní	-10.3488
▁clúdach	-10.349
org	-10.3493
▁ordaithe	-10.3494
▁Uí	-10.3508
▁aonad	-10.3526
▁halt	-10.3536
▁Bunaío	-10.3537
▁Airgid	-10.3537
▁margaidh	-10.3537
▁foirgneamh	-10.3539
▁gCoiste	-10.3539
▁comhshaoil	-10.3539
ol	-10.354
▁suimeanna	-10.3541
xxx	-10.3547
▁Fheidhmiú	-10.3566
pe	-10.3568
▁Chlár	-10.3576
ioncam	-10.3579
land	-10.3586
▁Threoir	-10.359
▁Stíl	-10.3591
▁Domhnach	-10.3591
▁Achomhairc	-10.3592
▁rath	-10.3596
▁mhalartú	-10.3597
▁cheadúnas	-10.3599
▁stáisiún	-10.3603
▁phointe	-10.3614
▁príobháideach	-10.3619
▁As	-10.362
▁stiúrthóir	-10.3628
Chúirt	-10.3629
▁deir	-10.3632
▁Éisteachta	-10.3638
ian	-10.3639
▁faisean	-10.3642
▁Phobail	-10.3644
úsáideoirí	-10.3644
▁Feidhm	-10.3645
imh	-10.3646
▁stíleanna	-10.3646
ka	-10.3648
▁snasta	-10.3654
▁ceangailte	-10.3659
▁iarratasóir	-10.3665
▁Watch	-10.3669
▁éag	-10.3671
▁cuimsitheach	-10.3679
nna	-10.369
▁bhosca	-10.3693
▁Iarthair	-10.3698
▁vótáil	-10.3698
▁saineolaithe	-10.3698
▁hEORPA	-10.3698
▁cultúr	-10.3698
▁tréimhsí	-10.3699
ia	-10.3699
▁stórála	-10.3706
▁Brunette	-10.3727
▁liathróid	-10.3727
▁údar	-10.3738
▁dlúth	-10.3744
▁dhaingniú	-10.3751
▁srianta	-10.3754
▁éigeandála	-10.3755
▁Obair	-10.3757
▁Ombudsman	-10.376
▁bhaill	-10.3761
▁4.	-10.377
▁áiseanna	-10.3772
um	-10.3773
▁asbhaint	-10.3801
▁inniúla	-10.3805
▁Mhárta	-10.3806
▁mionsonraithe	-10.3806
▁AGUS	-10.3806
▁glactha	-10.3806
▁tsráid	-10.3807
▁ceannairí	-10.381
▁Tír	-10.3812
▁teas	-10.3827
▁dtiocfaidh	-10.3831
▁tharchur	-10.3833
▁chomhairle	-10.3842
▁dualgais	-10.3848
▁Gníomhaíochta	-10.385
▁monaróir	-10.3851
▁thiomáint	-10.3856
▁fhomhír	-10.386
▁diúltú	-10.3863
▁Taisce	-10.3864
▁Thug	-10.3866
▁voltas	-10.3868
25	-10.3884
▁díospóireacht	-10.389
▁comhartha	-10.3905
▁bac	-10.3906
▁dhliteanas	-10.3916
▁mbaol	-10.3916
▁ghréasáin	-10.3917
▁gceannas	-10.3918
▁bainc	-10.3921
▁breith	-10.3924
▁Fhorbairt	-10.3926
▁Uaireadóirí	-10.3926
▁fianáin	-10.3927
▁Coinbhinsiún	-10.3929
▁theanga	-10.3932
▁suí	-10.3942
▁leordhóthanach	-10.3944
▁Chearta	-10.3946
▁bhéal	-10.3948
▁Am	-10.395
▁bhféadfaid	-10.395
▁Eile	-10.395
▁bhforbairt	-10.3971
▁Preasráitis	-10.3971
▁toghcháin	-10.3972
▁billiún	-10.3974
▁léasair	-10.3974
▁shon	-10.3974
▁cruinneas	-10.3976
ine	-10.3979
▁spreag	-10.3987
▁béil	-10.3991
▁cumarsáid	-10.3994
▁próiseáil	-10.3995
▁aiste	-10.3995
▁Anal	-10.3997
▁Jacket	-10.4
▁thabharfai	-10.4005
);	-10.4019
▁imreoirí	-10.4022
ke	-10.4025
▁redtube	-10.4026
▁sholáthraíonn	-10.4027
▁íosta	-10.4027
▁soicind	-10.403
▁muirir	-10.4034
ce	-10.4045
▁té	-10.4072
fhoireann	-10.4076
▁nuacht	-10.408
▁thomhas	-10.4082
▁Bracelet	-10.4082
▁ceangal	-10.4087
▁tarlú	-10.4087
▁saoil	-10.4088
▁Tithíochta	-10.4089
eithre	-10.4097
▁35	-10.4097
ire	-10.4099
▁ionadaí	-10.4101
▁chomhlachta	-10.4107
▁doras	-10.4109
▁dréacht	-10.4112
▁seachtrach	-10.4114
▁oibríochtaí	-10.4125
▁PHARLAIMINT	-10.4139
▁teicniúil	-10.4139
▁lógó	-10.4139
▁saintréithe	-10.4141
▁ráitis	-10.4141
▁Mhic	-10.4142
▁nAchtanna	-10.4143
▁Gearmáinis	-10.415
be	-10.4153
▁Athbhreithniú	-10.4153
▁mh	-10.4165
▁Dhá	-10.4166
▁nuálaíocht	-10.4173
▁watch	-10.418
athrú	-10.4192
▁ghearrthóg	-10.4195
▁bóithre	-10.4195
▁Fir	-10.4198
▁Oiliúna	-10.4198
▁mbunaítear	-10.4199
▁tabharfar	-10.4199
▁IP	-10.4202
able	-10.4206
▁Bun	-10.4207
▁Mara	-10.4208
líne	-10.4215
▁tithe	-10.4227
▁snáithín	-10.4239
ies	-10.424
▁gcomhlacht	-10.425
Caibidil	-10.4256
▁luaite	-10.4258
▁daingean	-10.4259
▁bhord	-10.4261
▁shibhialta	-10.4261
▁Bhean	-10.4262
▁uainn	-10.4264
▁Cinneadh	-10.4267
▁baineann	-10.428
▁500	-10.4282
▁Spáinn	-10.4293
▁ceadúnais	-10.4295
▁cháilíocht	-10.4295
and	-10.4302
▁sruth	-10.4307
▁Faisnéis	-10.4307
ro	-10.4308
▁pháiste	-10.4309
▁Bhliantúil	-10.4309
▁bhrabhsálaí	-10.4311
▁oibriúcháin	-10.4311
▁scáileán	-10.4312
Comhaontú	-10.4313
▁Faoin	-10.4318
▁haois	-10.4344
▁lig	-10.4345
Chat	-10.435
▁póca	-10.4352
▁fostóir	-10.4356
eadaíonn	-10.436
▁polaitiúil	-10.4366
▁buataisí	-10.4367
▁fhéadfaidh	-10.4367
▁Aonair	-10.4368
▁gcomhlíonann	-10.4369
▁2001	-10.4369
▁shonrú	-10.437
▁Mens	-10.438
▁comharthaí	-10.4381
▁bain	-10.4383
▁bailí	-10.4396
▁Meiriceá	-10.44
&	-10.441
▁siúcra	-10.441
▁Poist	-10.4424
▁comhdhéanta	-10.4424
Á	-10.443
▁Dath	-10.4434
éiríonn	-10.4438
▁chuma	-10.4443
▁luí	-10.4443
▁Maith	-10.4448
▁lua	-10.4465
óir	-10.4473
▁riocht	-10.4481
▁Masturbation	-10.4482
▁uathu	-10.4482
▁Foilsiú	-10.4483
▁oifigiúla	-10.4483
ig	-10.4497
▁stiúrthóirí	-10.4498
▁Socha	-10.4508
▁Críostaí	-10.4515
▁muinín	-10.4525
▁City	-10.4531
▁Masturbating	-10.4541
▁fágtha	-10.4542
▁rubair	-10.4543
▁dáileadh	-10.4543
▁páirteanna	-10.4544
▁Teagmháil	-10.4544
▁Allah	-10.4545
▁fhreagairt	-10.4545
imeachtaí	-10.4546
▁aimsir	-10.4547
▁carr	-10.4548
▁dúbailte	-10.4551
▁American	-10.4566
▁thús	-10.4575
▁iasc	-10.4583
▁choinne	-10.4589
▁cothabháil	-10.46
▁sheirbheáil	-10.46
▁bPríomh	-10.46
▁cruthaíodh	-10.46
▁RTÉ	-10.4603
▁foláir	-10.4603
▁dhul	-10.4608
▁dliteanas	-10.461
▁creat	-10.4622
▁cártaí	-10.4623
Í	-10.4629
▁cathrach	-10.4634
▁Próifíl	-10.4648
son	-10.4649
óirí	-10.4656
▁shóisialaigh	-10.4659
▁caiteachais	-10.4659
▁cóipeanna	-10.4661
▁comhábhair	-10.4661
▁thíortha	-10.4665
Na	-10.4665
▁bainne	-10.4665
▁cúiteamh	-10.4668
▁ÁSPC	-10.4676
mhaith	-10.4682
30	-10.4682
▁Cáin	-10.4684
ith	-10.4699
▁thagairt	-10.4704
▁mara	-10.471
▁foilsithe	-10.4715
▁smacht	-10.4718
▁mBunreacht	-10.4718
▁páipéir	-10.4718
▁shonrófar	-10.4719
▁comhoibriú	-10.4719
▁díolúine	-10.4719
▁Tuarascálacha	-10.4721
▁chruinnithe	-10.4723
II	-10.4726
▁Athrú	-10.4731
▁imthosca	-10.4734
▁leanann	-10.4751
▁tograí	-10.4762
▁Fógra	-10.4763
▁cábla	-10.4764
▁leathair	-10.4766
▁maoinithe	-10.4771
▁saoránach	-10.4777
▁bóthair	-10.4778
▁dlínse	-10.4778
▁scór	-10.4781
▁Anseo	-10.4784
▁Méid	-10.4786
▁Star	-10.4787
▁téigh	-10.4787
▁iascaigh	-10.4789
▁Ordú	-10.4789
▁mhúinteoirí	-10.479
▁línte	-10.4804
ricelist	-10.4811
▁chion	-10.4815
▁Cuideachta	-10.4817
▁45	-10.4834
▁ugg	-10.484
▁pháirt	-10.4841
▁Rannóg	-10.4841
▁pas	-10.4844
▁bhainfidh	-10.4845
UK	-10.4849
▁pá	-10.4849
▁Oileán	-10.485
▁roghnaithe	-10.4854
▁ús	-10.4864
▁fheidhmeanna	-10.4866
▁éifeachtúlacht	-10.4879
chán	-10.4879
▁Sráid	-10.4881
ling	-10.4882
▁Ón	-10.4892
▁cóireáil	-10.4898
▁bhíthin	-10.4899
▁healaíona	-10.4899
▁Saincheaptha	-10.49
▁troid	-10.4902
▁achomhairc	-10.4902
abhraíonn	-10.4905
▁mheasúnú	-10.4909
▁Idir	-10.4912
▁Beartas	-10.4915
▁bhfuair	-10.4924
air	-10.493
Oifig	-10.4936
▁Rúis	-10.4945
▁gcúrsa	-10.4946
CEE	-10.4946
▁institiúid	-10.4957
▁réim	-10.4959
▁Rúipí	-10.496
▁buí	-10.496
▁cleachtais	-10.496
▁cothabhála	-10.4961
▁Pandora	-10.4962
We	-10.4963
▁Cuardaigh	-10.4966
abhróidh	-10.4968
▁34	-10.4973
▁míle	-10.4973
▁oiriúnú	-10.4974
01	-10.4981
▁ardán	-10.4987
▁Masturbate	-10.4996
▁imreoir	-10.5
▁re	-10.5007
▁gcuntas	-10.5022
▁Domhnaigh	-10.5022
▁gearradh	-10.5029
▁32	-10.5035
US	-10.5039
▁sine	-10.506
▁réigiúnach	-10.5067
Gaeilge	-10.5077
▁80	-10.5078
▁tuaithe	-10.5084
▁céile	-10.5085
▁Tionól	-10.5085
▁dóiteáin	-10.5086
▁mháthair	-10.5086
gníomhaireachtaí	-10.5087
▁Téigh	-10.5088
▁heagraíochtaí	-10.5093
▁(9)	-10.5093
íochta	-10.5119
▁70	-10.5123
▁Sna	-10.5142
▁indéanta	-10.5142
▁láimhseáil	-10.5145
▁gheimhridh	-10.5146
▁suíomhanna	-10.5146
▁buíochas	-10.5146
▁gCuideachtaí	-10.5148
▁galar	-10.515
▁gcuirfidh	-10.5152
ear	-10.5152
▁Cumhacht	-10.5163
▁bracelet	-10.5183
▁athnuachan	-10.5188
▁ceadú	-10.5196
▁SEA	-10.5196
▁rugadh	-10.5208
▁luxurious	-10.5209
▁difriúla	-10.521
▁bogadh	-10.5213
▁gás	-10.5215
▁choinníollacha	-10.5221
▁(1	-10.523
▁tSeapáin	-10.5232
▁astu	-10.5237
ha	-10.5238
▁ainmneacha	-10.5251
▁Scoile	-10.5255
▁ualach	-10.5268
▁dtagann	-10.5271
▁Sainmhíni	-10.5272
▁Facebook	-10.5272
▁Oíche	-10.5275
▁Ghaeltacht	-10.5279
hathanna	-10.5288
▁soghluaiste	-10.5292
▁fostaíocht	-10.5292
▁ionsaí	-10.5315
▁bainteach	-10.5317
▁eacnamaíocha	-10.5326
▁tobac	-10.5334
▁caipitil	-10.5334
▁comhaontuithe	-10.5334
▁próisis	-10.5334
▁chónaithe	-10.535
▁Rátaí	-10.5355
▁oidhreacht	-10.5359
▁leictreacha	-10.5362
▁baol	-10.5371
▁un	-10.538
▁Soláthraí	-10.5389
▁tsaoil	-10.5398
▁bhfaigh	-10.5398
▁Choláiste	-10.5402
▁gcríoch	-10.5403
▁Choinbhinsiún	-10.5404
all	-10.5411
ty	-10.5416
▁margaí	-10.542
▁cheap	-10.542
▁rioscaí	-10.5423
▁straitéisí	-10.5424
uireadh	-10.5436
▁luachanna	-10.5439
▁láidre	-10.5442
ton	-10.5447
Ní	-10.5457
▁moncler	-10.5462
▁folctha	-10.5462
▁maireachtáil	-10.5462
▁hEilvéise	-10.5462
▁gCiste	-10.5462
▁Chathair	-10.5462
▁thíolacadh	-10.5462
▁pionós	-10.5464
▁chomhshaoil	-10.5464
▁shíniú	-10.5465
▁Nós	-10.5476
▁mórán	-10.5484
▁Cruinniú	-10.5487
▁“...	-10.5503
▁vótála	-10.5504
▁gClár	-10.5505
of	-10.5506
scríofa	-10.5518
▁Sóisialaí	-10.5526
▁cóireála	-10.5527
▁thaifeadadh	-10.5527
▁criostail	-10.5532
▁físe	-10.5538
di	-10.5546
▁MP	-10.5548
▁Services	-10.5548
▁ghné	-10.5549
aire	-10.5549
achta	-10.5557
suas	-10.5563
▁90	-10.5566
▁tarraingt	-10.5571
▁Neamh	-10.5572
▁trá	-10.5572
▁Tacaíocht	-10.5576
▁Times	-10.5582
EU	-10.5588
▁soláthair	-10.5591
▁1952	-10.5592
▁freagracht	-10.5594
▁clárúcháin	-10.5594
▁solúbtha	-10.5598
▁www	-10.5608
▁bhóthar	-10.5611
▁2016.	-10.5612
▁míre	-10.5618
▁Sh	-10.5624
▁úinéireacht	-10.5639
san	-10.5646
▁píosa	-10.5648
▁tagartha	-10.5657
▁Naomh	-10.5657
▁Gnéithe	-10.5658
thas	-10.5659
▁uasta	-10.5659
▁fíorúil	-10.566
3.	-10.5661
▁forordaithe	-10.5661
▁foinse	-10.5662
▁úsáideora	-10.5664
▁Léinn	-10.5667
▁chaith	-10.5668
▁Council	-10.5673
ionad	-10.5674
▁úsáideach	-10.5678
▁chúlghairm	-10.5697
▁Cumas	-10.5699
▁tré	-10.5704
SAMH	-10.5705
▁Foghlaim	-10.5719
▁ceachta	-10.572
▁gcruinniú	-10.5722
▁formhór	-10.5724
▁thabharfar	-10.5724
▁Indiach	-10.5725
▁rialála	-10.5726
▁carbóin	-10.5726
▁India	-10.5731
▁aigne	-10.5732
▁Diamond	-10.5738
▁roinnte	-10.574
▁CO	-10.5745
▁Óir	-10.5758
▁réigiúnacha	-10.5761
▁Réalta	-10.5763
▁iomaíocht	-10.5773
▁aigéad	-10.5774
▁cúraim	-10.5775
▁gníomhaire	-10.5782
▁Feirste	-10.5789
▁mílte	-10.5789
▁fostú	-10.5789
▁leideanna	-10.5789
▁Answers	-10.5789
▁gnólachtaí	-10.579
▁saoirse	-10.5792
▁éarlais	-10.5795
▁chonradh	-10.5797
▁fórsaí	-10.5798
▁Uachtaránacht	-10.5806
▁eol	-10.5808
▁oibleagáid	-10.581
ín	-10.5813
▁Eolaíochta	-10.5819
▁iomláine	-10.5821
▁bhrath	-10.5822
▁ghearr	-10.5832
▁inarb	-10.5837
▁bheag	-10.584
▁33	-10.5842
▁36	-10.5851
▁eagla	-10.5852
▁ceannach	-10.5854
▁máthair	-10.5854
▁Tríonóide	-10.5855
▁sheepskin	-10.5855
▁daonra	-10.5855
▁Shóisialaigh	-10.5856
▁raidió	-10.5856
▁naked	-10.5857
▁gaolmhara	-10.5862
▁riail	-10.5862
▁conarthaí	-10.5862
▁Tras	-10.5864
▁úis	-10.587
▁teachtaireacht	-10.5872
▁taise	-10.5876
28	-10.5877
▁Lio	-10.5886
▁tábhachtacha	-10.5894
▁poll	-10.5897
▁charm	-10.5899
▁sheirbhís	-10.5901
▁tromchúiseach	-10.5904
▁ionadaíocht	-10.5905
▁toirt	-10.5914
▁sceimhlitheoir	-10.5916
▁theicniúil	-10.5922
▁Múinteoirí	-10.5926
▁Oscailte	-10.5928
▁tuarascálacha	-10.5931
▁Líon	-10.5934
▁maoirseachta	-10.5934
ail	-10.5934
ath	-10.5935
ímid	-10.5936
▁Life	-10.5941
▁idirdhealú	-10.5942
▁molta	-10.5944
▁srian	-10.5962
▁Tuairisc	-10.5964
▁Foilsithe	-10.5966
li	-10.5966
ul	-10.5982
léargas	-10.5983
▁Feidhmiúcháin	-10.599
▁glasraí	-10.5991
▁lch	-10.5993
▁vidio	-10.5993
▁Thuaisceart	-10.5994
▁lánaimseartha	-10.5995
▁saibhir	-10.5996
▁Rúisis	-10.5997
▁Data	-10.5999
▁dlíthe	-10.6004
iarratasóir	-10.6004
▁Dial	-10.602
▁thábhachtach	-10.6054
▁hAlban	-10.6058
▁boinn	-10.6058
▁ceanglas	-10.6059
▁sláintiúil	-10.6059
▁Department	-10.6059
▁taispeántas	-10.6059
▁bheatha	-10.6061
▁hiarratais	-10.6061
íocfaidh	-10.6061
▁aistriúcháin	-10.6069
▁Sula	-10.6069
▁dlús	-10.6076
bhunaithe	-10.608
▁dtéann	-10.6081
▁seachtracha	-10.6088
▁Eagraíocht	-10.609
arna	-10.61
40	-10.6112
▁dhéag	-10.6126
▁Oral	-10.6127
▁Football	-10.6127
▁dramhaíola	-10.6127
▁ceiliúradh	-10.6127
▁Áilleacht	-10.6128
▁dliteanais	-10.6132
▁insint	-10.6133
▁idirlíon	-10.6135
▁Fúinn	-10.614
raitheann	-10.6143
▁Seice	-10.6146
▁nascadh	-10.6151
▁chruth	-10.6156
eagraíochtaí	-10.616
▁iomaíoch	-10.6162
▁CBL	-10.6166
▁múnla	-10.6167
▁“(	-10.6174
▁bhearta	-10.6177
▁Chuideachta	-10.6181
▁bhfreagra	-10.6186
▁Toscaireacht	-10.6193
▁Chomhphobail	-10.6196
▁foirmiúil	-10.6197
▁Blowjob	-10.6197
▁Pinsean	-10.6197
▁Rochtain	-10.6201
▁drugaí	-10.6202
▁fógraí	-10.6204
▁chaidreamh	-10.6214
▁áisiúil	-10.6218
▁mais	-10.6218
▁urscaoileadh	-10.6218
▁gceantar	-10.6227
▁astaíochtaí	-10.6228
ga	-10.6232
▁Ath	-10.6238
▁2005	-10.6241
▁aithne	-10.6253
▁Sóisialai	-10.6264
▁sochaí	-10.6265
albhaigh	-10.6265
▁Fomhair	-10.6265
▁chlog	-10.6266
▁Margadh	-10.6266
▁Fiontar	-10.6266
▁iarnróid	-10.6267
▁Aoine	-10.6267
▁trasteorann	-10.6267
▁teagasc	-10.6269
▁dhaltaí	-10.6271
▁míniú	-10.6272
▁dtugann	-10.6273
▁gcinn	-10.6282
▁Cirt	-10.6284
▁Nó	-10.6292
▁cloí	-10.6324
▁Infheistíochta	-10.6326
▁Páirtí	-10.6333
▁cuimhne	-10.6335
▁tsochaí	-10.6335
▁gnách	-10.6335
▁earra	-10.6336
▁dTuaisceart	-10.6338
▁tógadh	-10.6338
▁Glacann	-10.6338
▁hacmhainní	-10.6339
▁Erasmus	-10.6339
▁sreabhadh	-10.6342
▁38	-10.6348
▁innealra	-10.6352
▁cáil	-10.6354
▁vótaí	-10.6355
▁(1),	-10.6356
▁fh	-10.6357
fheidhmiú	-10.6378
▁cionta	-10.638
▁bua	-10.6381
uisce	-10.6383
▁Iar	-10.6392
▁luch	-10.6395
▁léirithe	-10.6395
▁nasctha	-10.6399
▁Re	-10.6403
▁comhtháite	-10.6405
▁dháileadh	-10.6405
▁foirgnimh	-10.6406
▁calories	-10.6406
▁mianraí	-10.6408
▁dúradh	-10.6408
▁deacrachtaí	-10.6412
▁stoic	-10.6415
▁Washington	-10.6416
inn	-10.6431
q	-10.6435
▁..	-10.6435
▁Fuair	-10.6435
▁gcuimhne	-10.6437
▁boscaí	-10.6441
▁oibleagáidí	-10.6452
ní	-10.6457
▁rialaitheoir	-10.6465
ate	-10.6476
ozrel	-10.6476
▁taispeántais	-10.6476
▁Next	-10.6478
▁misean	-10.6479
▁carachtair	-10.648
▁International	-10.6481
▁substaintí	-10.6483
▁réaltaí	-10.6485
▁dúnta	-10.6486
FC	-10.6486
▁Soláthar	-10.6488
obair	-10.6492
:—	-10.6492
▁Gh	-10.6497
▁bhia	-10.6498
▁tréithe	-10.6502
.—	-10.6507
▁5.	-10.6513
uirfear	-10.6523
▁gorm	-10.6534
roíthe	-10.6535
▁tiomáint	-10.6536
▁Linn	-10.6539
▁luaidhe	-10.6548
▁gComhphobal	-10.6548
▁spórt	-10.6548
▁shots	-10.6549
▁cara	-10.6558
▁Mam	-10.6568
▁Líonra	-10.6571
▁séasúr	-10.6572
io	-10.6575
▁Dír	-10.6578
5.	-10.6594
▁phríobháideach	-10.6598
▁dochtúir	-10.6601
▁pláta	-10.6605
▁cáilíochtaí	-10.6616
▁Athchóirithe	-10.662
▁gcluiche	-10.662
▁bainise	-10.662
▁gcaitheamh	-10.662
▁gContae	-10.662
45	-10.662
amar	-10.6621
▁comhpháirtithe	-10.6621
▁dhualgas	-10.6622
▁mhaolú	-10.6622
▁Sathairn	-10.6622
▁ocht	-10.6625
▁scrúduithe	-10.6625
▁dteanga	-10.6625
▁seiceáil	-10.6626
▁chuspóir	-10.6627
▁Acmhainní	-10.663
lúthpháirtíochta	-10.6636
▁có	-10.6641
▁breithe	-10.6643
▁léim	-10.6666
et	-10.6669
▁eolaíochta	-10.6669
earnálacha	-10.6687
▁Ghlac	-10.6691
▁bParlaimint	-10.6692
▁neamhchoitianta	-10.6692
▁mícheart	-10.6694
▁chuardach	-10.6695
▁Scannán	-10.6695
▁chabhair	-10.6696
▁ionstraimí	-10.6696
▁riachtanacha	-10.6697
▁cnaipe	-10.6699
▁ailse	-10.6702
▁Tábla	-10.6705
▁Déanta	-10.6705
▁agóid	-10.6707
▁fheidhmíocht	-10.6717
▁laghdaithe	-10.6718
▁dheasca	-10.672
▁x	-10.6729
fhorbairt	-10.6734
airí	-10.6736
▁híoc	-10.6744
▁féad	-10.6746
▁saill	-10.6749
▁pósta	-10.6749
▁mol	-10.6755
▁chostais	-10.6762
▁Bhruiséil	-10.6765
▁faisin	-10.6765
▁fisiciúil	-10.6765
▁mhuintir	-10.6765
▁Ríoga	-10.6765
▁Bogearraí	-10.6765
▁léirmheasanna	-10.6765
▁Ghnóthaí	-10.6766
▁fhéadfar	-10.6766
▁44	-10.6766
▁Ainmneacha	-10.6766
▁EUR	-10.6768
▁mhíniú	-10.6769
▁Amach	-10.6769
▁OEM	-10.677
▁ranníocaíochtaí	-10.6772
▁vitimíní	-10.6773
▁dteastaíonn	-10.678
▁EU	-10.6812
▁fhad	-10.6824
▁buiséad	-10.6829
▁sheachtain	-10.6838
▁Buíochas	-10.6838
▁bhfíric	-10.6839
▁Lesbians	-10.6839
▁ndéanfadh	-10.6839
▁solais	-10.6839
▁saghas	-10.684
▁shonraithe	-10.684
▁leasmhara	-10.6842
▁2017.	-10.6842
▁chaiteachas	-10.6843
▁Dublin	-10.6844
▁daor	-10.685
▁mála	-10.6858
ola	-10.6864
▁PDF	-10.6868
mid	-10.6883
▁coinníoll	-10.6886
▁caol	-10.6905
▁more	-10.6911
▁Foclóir	-10.6913
▁polasaí	-10.6913
▁spriocdháta	-10.6913
▁polaitiúla	-10.6913
▁Tráchtála	-10.6913
▁Bhreithiúnais	-10.6913
▁comhairliúcháin	-10.6913
▁faireachán	-10.6913
▁bailiúchán	-10.6913
▁airm	-10.6913
▁Story	-10.6921
▁mhuirearú	-10.6925
▁nu	-10.6926
-19	-10.6928
▁Tríú	-10.6929
▁chathaoirleach	-10.6934
ness	-10.6934
▁Chu	-10.6938
▁maidin	-10.6939
ACHT	-10.6949
▁Christian	-10.695
Chiste	-10.6952
▁Teicneolaíocht	-10.6959
▁Sibhialta	-10.6961
▁Cons	-10.6965
▁foclóir	-10.6972
▁socraithe	-10.6987
▁fhógairt	-10.6987
▁ANKO	-10.6987
▁seasta	-10.6987
▁ábalta	-10.6987
▁comhairimh	-10.6988
▁hinstitiúidí	-10.6991
▁áitribh	-10.6994
▁aitheantais	-10.6994
▁2002	-10.7004
▁meastar	-10.7005
▁Microsoft	-10.7005
▁European	-10.7005
▁iarrthóirí	-10.7008
▁Oileáin	-10.7016
▁Oibr	-10.7017
▁éilíonn	-10.7028
▁Cinn	-10.7037
▁inslithe	-10.704
▁Ráta	-10.7051
▁CE	-10.7052
▁iomlána	-10.7055
úsáidtear	-10.7056
▁Chláir	-10.7056
▁Cáilíochta	-10.7061
▁Comhionannais	-10.7062
▁filleadh	-10.7063
▁ballóide	-10.7063
▁Eorpaí	-10.7063
▁Iascaigh	-10.7063
▁faigheann	-10.7064
age	-10.7064
▁droch	-10.7065
▁bheartais	-10.7066
▁bhreithniú	-10.7066
▁Comhdháil	-10.707
▁creimeadh	-10.7072
▁achoimre	-10.7072
▁Dheirea	-10.7073
▁híocaíochtaí	-10.7074
▁rothar	-10.7077
▁málaí	-10.7079
▁bhuaigh	-10.7082
athbhreithniú	-10.71
▁áis	-10.7128
▁beacht	-10.7129
▁théarmaí	-10.7129
▁gcomh	-10.7135
▁Caiteachais	-10.7138
▁Slándála	-10.7138
▁seamhan	-10.7138
▁hachomair	-10.7138
▁Committee	-10.7139
▁rásaí	-10.7141
▁Lucsamburg	-10.7142
▁Limistéar	-10.7143
▁Atha	-10.7144
▁píosaí	-10.7155
▁rapóirtéir	-10.7167
▁300	-10.7178
che	-10.7189
cadóirí	-10.7191
▁eitilt	-10.7196
▁Cearta	-10.72
Ar	-10.72
▁féideartha	-10.7204
ti	-10.7209
▁Luan	-10.7209
▁galair	-10.7215
▁Páirteanna	-10.7215
▁tuairisceán	-10.7215
▁cheiliúradh	-10.7215
▁forais	-10.7217
▁Íseal	-10.7217
▁Deontais	-10.7218
▁Chuarda	-10.7219
▁Ábhair	-10.7219
▁Turasóireachta	-10.7222
▁United	-10.7227
▁gcúrsaí	-10.7232
60	-10.724
▁líonraí	-10.7245
▁chúl	-10.725
▁arm	-10.7258
▁áthas	-10.7269
▁Inter	-10.7275
arrann	-10.7289
▁pleanáil	-10.7291
▁phróisis	-10.7292
▁Togra	-10.7292
▁gairid	-10.7293
▁dí	-10.7297
▁bróga	-10.7307
▁Tacaíochta	-10.7307
▁Bh	-10.7313
▁For	-10.7314
▁rolla	-10.7319
▁Fraincis	-10.7322
▁léirítear	-10.7325
▁Bliana	-10.7336
▁Digiteach	-10.7343
fhoils	-10.7351
▁rí	-10.7353
thraíonn	-10.7354
▁tiomána	-10.7357
haibidil	-10.7366
▁Eolais	-10.7369
▁chomhshaol	-10.7369
▁cáiliúla	-10.737
▁sloinnte	-10.7371
▁chreidiúint	-10.7371
▁mbearta	-10.7372
▁cleachtas	-10.7372
▁cuairteoirí	-10.7374
ina	-10.7376
▁inchurtha	-10.7377
▁Deimhniú	-10.7378
▁Dul	-10.7383
▁deonacha	-10.7385
▁dtabharfaidh	-10.7386
▁clúdaithe	-10.7389
▁bheaga	-10.7398
▁urrús	-10.7398
fhág	-10.7407
▁ealaíon	-10.7413
▁inneall	-10.7416
▁ráthaíocht	-10.742
▁fhás	-10.7425
▁me	-10.7428
▁Cárta	-10.7431
▁iarr	-10.7436
▁neamhdhleathach	-10.7447
▁dhiúltú	-10.7448
▁ghruaig	-10.7448
▁cáiliúil	-10.7449
▁dúshlán	-10.7449
▁feirme	-10.745
▁Phlean	-10.745
▁bhfaigheann	-10.745
▁soilse	-10.745
▁Taispeántas	-10.7451
▁Bhainc	-10.7452
▁cruinne	-10.7452
▁2019.	-10.7453
▁feithicil	-10.7458
▁dlífear	-10.7459
▁airíonna	-10.7461
▁marbh	-10.7461
▁Coda	-10.7463
▁Taca	-10.7469
áireamh	-10.7469
▁Ph	-10.7476
▁Nio	-10.748
▁lasta	-10.7495
PDF	-10.7496
▁othar	-10.7499
▁mbeart	-10.7515
▁píopa	-10.7515
ime	-10.7515
▁Imeachta	-10.7516
ko	-10.752
cc	-10.7525
▁caipitiúil	-10.7526
▁sláintíochta	-10.7526
▁dearcadh	-10.7528
▁súile	-10.7529
▁Mhór	-10.753
▁Riail	-10.753
▁Scheme	-10.7534
▁ullmhaithe	-10.7534
▁scáth	-10.7535
▁tógtha	-10.7537
▁39	-10.7542
35	-10.7546
▁bhalla	-10.7551
tóir	-10.7566
▁1963	-10.7567
▁stop	-10.7568
▁machnamh	-10.7574
video	-10.7575
▁tionsclaíoch	-10.7575
▁erotic	-10.758
Chúirte	-10.7587
▁seomraí	-10.7588
óg	-10.7597
▁ós	-10.7598
▁VI	-10.7602
▁gcineál	-10.7602
▁diúité	-10.7604
▁seachtainiúil	-10.7606
▁hathruithe	-10.7607
▁Android	-10.7608
▁2014.	-10.7609
▁ainmniúcháin	-10.7611
▁spreagúil	-10.7611
▁tabhair	-10.7612
▁v	-10.7612
▁ceannais	-10.7619
oibrithe	-10.7622
iúil	-10.7623
▁Modh	-10.7625
▁Foireann	-10.7645
▁tráchta	-10.7647
▁thit	-10.7649
▁nótaí	-10.767
▁Seachtain	-10.7681
▁fadhb	-10.7683
oifig	-10.7684
▁Fraince	-10.7685
▁Kashtanka	-10.7685
▁tapúla	-10.7685
▁cadhnraí	-10.7686
▁feabhsaithe	-10.7686
▁eisíodh	-10.7686
▁geal	-10.7686
ocht	-10.7703
Ú	-10.7722
▁Soláthair	-10.7727
un	-10.7735
▁meastóireacht	-10.7741
▁42	-10.7751
▁chumasú	-10.7752
▁Coimisinéir	-10.7752
▁48	-10.7757
▁iniúchta	-10.7757
ord	-10.7761
▁foirgníochta	-10.7766
▁cuardaigh	-10.7766
▁cobhsaí	-10.7768
▁cóid	-10.7768
▁sínithe	-10.7779
▁éisc	-10.7781
▁Education	-10.7782
▁rianú	-10.7785
▁caint	-10.7786
▁MB	-10.7786
▁chónaí	-10.7786
▁Halla	-10.7789
▁cáilitheach	-10.7791
92	-10.7803
▁anal	-10.7809
▁ghrúpaí	-10.7813
odh	-10.7816
aid	-10.7817
ilium	-10.7821
▁resistant	-10.7822
▁sain	-10.7824
▁Ola	-10.7829
▁aonaid	-10.7835
▁theach	-10.7845
▁Ceanada	-10.7847
▁síneadh	-10.7847
▁dtimpeallacht	-10.7848
▁gcomhaontú	-10.7848
▁Leathar	-10.7849
▁éifeachtacht	-10.7851
▁bhriseadh	-10.7853
▁Leag	-10.7861
▁dheisiú	-10.7867
▁Phoblacht	-10.787
▁hábhar	-10.7871
ry	-10.7871
▁41	-10.7871
ice	-10.7873
▁37	-10.788
▁gnóthaí	-10.7884
▁(31	-10.7898
▁fadtéarmach	-10.7905
▁thuairim	-10.7907
▁teochta	-10.7912
▁moill	-10.7918
▁55	-10.7919
▁diúscairt	-10.792
▁tomhais	-10.7923
▁Aonad	-10.7925
▁mp	-10.7925
▁brabús	-10.7926
▁forléireo	-10.7929
▁measúnachta	-10.7929
▁giorra	-10.7929
▁mhonarú	-10.793
▁Limited	-10.7931
▁mhoill	-10.7931
▁Chomhaontú	-10.7932
▁riaradh	-10.7932
▁creidiúnaithe	-10.7932
▁Taobh	-10.7936
▁olc	-10.7936
▁hOllscoile	-10.7944
▁samhail	-10.7947
▁Lig	-10.7955
▁Nuálaíochta	-10.7955
íocht	-10.7957
▁síniú	-10.7957
ús	-10.7973
▁gceanta	-10.7974
ora	-10.7976
fa	-10.7981
Ireland	-10.7985
▁iarrachtaí	-10.799
Official	-10.8
▁fhéidir	-10.8011
▁sucking	-10.8012
▁pussy	-10.8012
▁dílsithe	-10.8012
▁forlámhas	-10.8012
▁FÁS	-10.8013
▁bláthanna	-10.8013
▁gcúirt	-10.8013
▁cuntasaíochta	-10.8015
▁thuaidh	-10.8015
▁Aeir	-10.8015
ge	-10.8016
▁shásamh	-10.8016
▁1923	-10.8018
▁Fhaisnéis	-10.802
▁Treoirlínte	-10.8026
▁uimhreacha	-10.8035
▁Imeachtaí	-10.8036
▁1976	-10.804
RA	-10.8052
▁chlé	-10.8063
▁Caighdeán	-10.8068
▁St	-10.807
▁inmheánacha	-10.8074
▁Ghrúpa	-10.808
▁Ceamara	-10.8082
▁State	-10.8088
▁Rí	-10.8092
▁sciath	-10.8093
▁bhfaighid	-10.8095
▁tabhaíodh	-10.8095
▁thosú	-10.8095
▁bhuachan	-10.8095
▁Coitianta	-10.8096
▁chomhlíonann	-10.8097
▁gabhálais	-10.8098
▁Oifigeach	-10.8098
▁fhorlíonadh	-10.8099
▁dhlíthiúil	-10.8099
▁déanmhas	-10.81
▁táirgeachta	-10.8101
▁malartú	-10.8101
▁breithiúnas	-10.8103
▁2018.	-10.8103
▁cigire	-10.8105
▁eochair	-10.8106
▁aisling	-10.8108
▁(10)	-10.8113
▁phleanáil	-10.8126
▁Tí	-10.8131
▁Home	-10.8134
▁150	-10.8136
2.	-10.8139
▁gearrthóg	-10.8154
▁bainistíocht	-10.8154
Stiúrthóireacht	-10.8155
▁Club	-10.8164
▁chó	-10.817
top	-10.817
ac	-10.8176
▁Fuinnimh	-10.8179
▁bpáistí	-10.8179
▁sainráite	-10.818
▁saineolas	-10.818
▁Pearsanta	-10.818
▁chomhrac	-10.8181
▁pionóis	-10.8183
▁Iarthar	-10.8184
▁Pháirtí	-10.8185
▁iontrála	-10.8195
ts	-10.8196
▁Asraon	-10.8196
▁treo	-10.8212
▁iontráil	-10.8212
▁Il	-10.8223
▁scrios	-10.8226
ous	-10.823
isghairtear	-10.8234
wood	-10.8235
▁Tuirc	-10.8248
▁ghníomhaire	-10.8249
▁suntasacha	-10.825
▁oiriúint	-10.8253
-1	-10.8254
▁Iomlán	-10.8256
▁bhuíochas	-10.8264
▁chugat	-10.8264
▁pacáistiú	-10.8264
▁suimiúla	-10.8264
▁glaoch	-10.8265
▁bronntanais	-10.8265
▁iontaobhais	-10.8265
ism	-10.8266
▁York	-10.8267
▁Asal	-10.8269
Le	-10.8273
▁scair	-10.8281
;&	-10.8294
teicneolaíochtaí	-10.8302
▁Airteagail	-10.8304
▁Cumhachta	-10.8312
ri	-10.8316
▁2015.	-10.832
▁Eilvéis	-10.832
▁soladach	-10.8324
▁straitéiseach	-10.8326
▁taca	-10.8329
▁só	-10.8332
▁chomhair	-10.834
▁dlíthiúla	-10.8342
▁Fuck	-10.8347
▁príobháideacha	-10.8348
▁tráthnóna	-10.8349
europapress	-10.8349
▁ceantair	-10.8349
▁Pacáistiú	-10.835
▁chultúrtha	-10.835
▁tarmligthe	-10.835
▁Tóg	-10.8353
▁chomaoin	-10.8354
ara	-10.8354
▁háiteanna	-10.8354
▁slándáil	-10.8355
▁shaoránaigh	-10.8356
▁Bhuel	-10.8357
▁Suas	-10.8359
▁1997	-10.836
▁díola	-10.8363
▁seaicéid	-10.8368
▁rochtana	-10.8371
ov	-10.838
▁TSín	-10.8385
▁Gearr	-10.8404
▁nóta	-10.8404
▁chúiseanna	-10.8406
▁Áit	-10.8409
▁próifíl	-10.8421
▁hAcht	-10.8427
uimhir	-10.843
▁cheadúnais	-10.8431
▁mhealladh	-10.8436
▁Taoiseach	-10.8437
▁Féile	-10.8437
▁dtabharfa	-10.8438
▁Ilghnéitheacha	-10.844
▁triúr	-10.8442
▁thrádáil	-10.8442
▁Office	-10.8442
▁tosaíochta	-10.8444
▁fhostaíocht	-10.8446
▁gnéasach	-10.8448
▁mhac	-10.845
▁rialáil	-10.845
oibríonn	-10.8452
All	-10.8453
▁Treoracha	-10.8457
▁Omega	-10.8458
▁Institute	-10.8458
▁séala	-10.8459
▁College	-10.8462
▁balla	-10.8475
▁oileán	-10.849
oibrigh	-10.8498
▁ionchur	-10.851
▁ph	-10.8511
▁damhsa	-10.8512
▁2)	-10.8514
AP	-10.8514
▁tuismitheoir	-10.8515
▁Iorua	-10.8519
▁Gheobhaidh	-10.8522
▁Ollmhór	-10.8522
▁gcinneadh	-10.8524
▁sibh	-10.8524
▁aicrileach	-10.8524
▁gcomhlíonadh	-10.8524
den	-10.8524
▁PVC	-10.8527
▁Moltar	-10.8529
▁Glao	-10.853
▁Ta	-10.8532
▁trácht	-10.8533
▁fhoirceannadh	-10.8535
▁malartacha	-10.8537
▁oifigí	-10.8551
ity	-10.8557
▁School	-10.8563
ile	-10.8565
▁66	-10.8567
▁trom	-10.8578
Ghaeilge	-10.8587
▁cealla	-10.8588
▁dhíreach	-10.8594
Mar	-10.8599
ghnéithe	-10.8605
for	-10.8609
▁trealaimh	-10.861
▁bónais	-10.861
▁cainteoirí	-10.8615
▁Strap	-10.8619
LA	-10.862
▁Ceannaigh	-10.862
▁shraith	-10.8622
▁dtéarmaí	-10.8625
▁cumann	-10.8632
▁ghá	-10.8636
▁aschur	-10.865
▁US	-10.8655
▁gairme	-10.8658
▁freagraí	-10.866
▁CNC	-10.866
▁éirigh	-10.8661
▁úsáideadh	-10.8666
▁grád	-10.8671
▁gheobha	-10.8674
▁1999	-10.8682
▁Rang	-10.8684
▁laghd	-10.8684
▁feadán	-10.8697
▁Talún	-10.8699
▁tionchair	-10.8699
▁chucu	-10.8699
lá	-10.8699
▁caillteanais	-10.8699
▁super	-10.87
▁jewelry	-10.87
▁feiste	-10.8704
▁thionscadail	-10.8708
▁eacnamaíochta	-10.8709
▁Socruithe	-10.8709
▁cruthú	-10.8712
▁tarraingteach	-10.8714
▁foclóirí	-10.8715
▁thagairtí	-10.872
▁cearnach	-10.8721
▁aisghabháil	-10.8721
▁Féad	-10.8725
▁1924	-10.8729
▁leictreachas	-10.8737
▁Pro	-10.8747
▁fhostaí	-10.8748
▁Human	-10.8753
▁TG	-10.8753
lt	-10.8764
magazine	-10.8765
▁reachtach	-10.8767
▁Service	-10.8787
▁Shábháilteacht	-10.8788
▁íocfar	-10.8788
hóiste	-10.8789
▁Leispiacha	-10.879
▁trastomhas	-10.8791
▁sexy	-10.8792
▁dhroim	-10.8793
▁cuimhneamh	-10.8793
▁comhréireachta	-10.8794
▁Technology	-10.8794
aíocht	-10.8795
int	-10.8797
▁seachadta	-10.8799
▁Rúise	-10.8802
▁TFC	-10.8806
▁tairiscintí	-10.8822
▁mall	-10.8828
ng	-10.8833
▁bhféad	-10.8842
▁eis	-10.8845
▁éinne	-10.8849
▁Fiú	-10.8849
Éirinn	-10.8854
▁Íocaíocht	-10.8858
▁leictreonacha	-10.8859
▁ionchúiseamh	-10.8859
media	-10.886
▁chiste	-10.8861
▁amharc	-10.8862
▁breosla	-10.8864
▁ceannas	-10.8868
▁fionraí	-10.8878
▁Thairis	-10.8878
▁fúthu	-10.8878
▁bhfaisnéis	-10.8878
▁reachtaíochta	-10.8879
▁bhFear	-10.8879
▁cheanglaítear	-10.888
▁chónaíonn	-10.888
▁Leighis	-10.888
▁hobair	-10.8884
▁China	-10.8884
▁gearrtha	-10.8884
▁Tuairimí	-10.8884
▁chúnamh	-10.8885
▁éinní	-10.8885
▁gcomhaltaí	-10.8887
▁chois	-10.8887
▁luaidhtear	-10.8888
▁strus	-10.8889
▁tUachtarán	-10.889
▁chor	-10.889
▁Loch	-10.8891
▁1916	-10.8891
▁Téarmaí	-10.8897
▁Iompar	-10.8903
▁info	-10.8904
▁íomhánna	-10.8904
▁Fág	-10.891
▁Cuims	-10.891
▁abhaile	-10.891
taí	-10.8915
▁DO	-10.8916
▁íocann	-10.8916
▁Teo	-10.8923
6.	-10.8934
▁cá	-10.8934
tábhachtach	-10.8938
▁316	-10.894
▁idirbheart	-10.8941
▁iasachta	-10.8949
▁ceannaigh	-10.8949
aonad	-10.8953
▁slabhra	-10.8956
▁German	-10.8961
▁gcomhpháirt	-10.8965
▁cúnaimh	-10.8969
▁gcumhacht	-10.8969
▁litiam	-10.8969
▁praiticiúil	-10.8969
▁himthosca	-10.897
▁reachtúla	-10.8971
▁tsamhail	-10.8971
▁COVID	-10.8972
▁mheaitseáil	-10.8972
▁scoláire	-10.8973
▁alúmanam	-10.8973
▁iasachtaí	-10.8973
eas	-10.8974
▁mheasfaidh	-10.8982
▁fhreagracht	-10.8985
▁Beaga	-10.8987
▁cheisteanna	-10.8992
▁Cogadh	-10.8994
▁by	-10.901
athraigh	-10.9012
▁dé	-10.9017
▁1988	-10.9027
▁caillte	-10.9033
▁FC	-10.9034
ama	-10.9034
ve	-10.9042
▁Sábháilteacht	-10.9044
▁luachmhar	-10.9051
▁Phortaingéil	-10.9057
7.	-10.906
▁Fhionlainn	-10.9061
▁Trenbolone	-10.9061
▁chaiteachais	-10.9061
▁thosaíonn	-10.9061
▁coinneáil	-10.9062
▁ríomhairí	-10.9062
▁comhiomlán	-10.9062
▁Amaitéarach	-10.9062
▁intíre	-10.9063
▁brunettes	-10.9069
▁Leibhéal	-10.9069
▁fhíorú	-10.9073
▁chuirimid	-10.9075
▁eagar	-10.9076
▁oireann	-10.9078
ai	-10.9081
▁Just	-10.909
▁thóg	-10.9094
ment	-10.9095
AS	-10.9096
est	-10.9102
tí	-10.9106
74	-10.9109
▁chomhlachtaí	-10.9111
ba	-10.9115
▁Éasca	-10.9115
▁Police	-10.9117
▁gé	-10.912
▁Press	-10.9124
▁Foundation	-10.913
UN	-10.9135
▁gh	-10.9137
íocaíocht	-10.9138
▁réasún	-10.9142
aimid	-10.9146
▁Eaglais	-10.9148
éadaí	-10.915
▁tSualainn	-10.915
ent	-10.9151
▁Cúram	-10.9153
úsáideann	-10.9153
▁Mheithimh	-10.9153
▁cultúir	-10.9153
▁hAstráile	-10.9153
▁shainaithint	-10.9153
▁sliocht	-10.9154
▁stopadh	-10.9156
▁tráthúil	-10.9158
▁tarraingthe	-10.9158
▁mionsonraí	-10.9158
sc	-10.916
PR	-10.9161
▁Torthaí	-10.9161
ain	-10.9162
▁1994	-10.9162
▁Díol	-10.9164
▁rannpháirtí	-10.9164
▁Barbour	-10.9165
▁onnmhairiú	-10.9169
▁Cathair	-10.9173
▁Fad	-10.9177
▁bhuail	-10.9209
▁suirbhé	-10.921
32	-10.921
▁per	-10.9213
▁coinne	-10.9214
▁tionónta	-10.9215
ide	-10.9218
▁cobhsaíocht	-10.9222
ive	-10.923
▁madra	-10.9233
cibé	-10.9237
▁Preas	-10.9238
▁acadúil	-10.9247
▁Ísiltír	-10.9247
▁dúchais	-10.9247
▁boird	-10.9247
▁púdar	-10.9248
▁ndearadh	-10.9248
▁casadh	-10.9248
▁sonraíochtaí	-10.9249
▁bianna	-10.9251
▁fiontair	-10.9252
▁leithdháileadh	-10.9254
▁Polasaí	-10.9255
▁turasóireachta	-10.9256
▁inrochtana	-10.9256
▁Bhéarla	-10.9257
▁1995	-10.9257
▁eagraithe	-10.9257
▁ghrá	-10.9258
▁alos	-10.9259
▁urrúis	-10.926
agtar	-10.9263
▁plátáilte	-10.928
▁oibrí	-10.928
▁caith	-10.9282
▁líonta	-10.9287
▁snámha	-10.93
▁thacaíocht	-10.9305
ibh	-10.9307
▁trédhearcach	-10.9312
▁eachtrach	-10.9317
éanann	-10.9319
údaráis	-10.9322
–	-10.9326
▁tasc	-10.9339
▁You	-10.9341
▁sách	-10.9341
▁baineadh	-10.9343
▁ceadúnaithe	-10.9344
▁Bóthar	-10.9345
▁tiús	-10.9345
▁Europol	-10.9346
▁1996	-10.9346
▁Author	-10.935
▁ionsú	-10.9351
▁chánach	-10.9352
▁daite	-10.9354
▁céadta	-10.9355
▁bhfógra	-10.9356
▁déantúsaíochta	-10.9357
▁tosaíochtaí	-10.9358
▁bpríomh	-10.9359
▁Sé	-10.936
03	-10.9361
▁thionchar	-10.9363
▁feasacht	-10.9363
▁Sea	-10.9364
▁Sábháilteachta	-10.9367
▁fosta	-10.9371
▁Spáinnis	-10.9373
▁mam	-10.9374
26	-10.9376
-2	-10.9378
▁fhorchur	-10.9385
▁Bhain	-10.9392
▁brí	-10.9399
uporn	-10.9411
▁bréagach	-10.9411
chat	-10.9417
pdf	-10.9421
▁Add	-10.943
▁bhuiséad	-10.9431
▁suiteáil	-10.9432
▁Dhaoine	-10.9436
▁comórtas	-10.9436
▁hé	-10.9437
▁míosa	-10.9438
▁déantúsóirí	-10.944
▁eolaíocht	-10.9441
▁Power	-10.9441
▁bóthar	-10.9441
▁Local	-10.9443
▁Eacnamaíochta	-10.9444
4.	-10.9446
▁struchtúir	-10.9446
▁dhóigh	-10.9448
if	-10.9449
▁chlúdach	-10.945
▁thorthaí	-10.945
▁dátaí	-10.9451
▁inscne	-10.9452
▁gnóthas	-10.9453
▁mheastar	-10.9453
▁fonn	-10.9453
▁tiománaí	-10.9454
▁USB	-10.9455
▁Cill	-10.9455
TV	-10.9458
▁toil	-10.9461
▁cat	-10.9465
▁Car	-10.9465
ón	-10.9467
▁Los	-10.9469
▁Gníomhaireacht	-10.9471
▁infheistiú	-10.9473
▁Pleanáil	-10.9478
▁Man	-10.9478
▁SAM	-10.9479
▁bí	-10.9488
▁marc	-10.949
05	-10.9501
▁Leictreach	-10.9504
cm	-10.9514
▁Seacha	-10.9518
▁fórsa	-10.9518
▁Bainistíocht	-10.952
500	-10.9521
fhorálacha	-10.9522
▁bhfeidhmiú	-10.9522
▁Bheilg	-10.9532
▁Rialaithe	-10.9533
▁dhúnadh	-10.9533
▁Earraigh	-10.9533
▁buntáiste	-10.9533
▁foinsí	-10.9534
▁1927	-10.9534
▁miondíola	-10.9535
▁coda	-10.9535
▁logáil	-10.9535
▁Tiarna	-10.9535
▁Óstán	-10.9536
▁seisiún	-10.9538
▁1956	-10.9538
▁breithniú	-10.9543
▁stáisiúin	-10.9543
▁Glas	-10.9546
▁eascraíonn	-10.9549
▁ISO	-10.9551
▁SCEIDEAL	-10.9565
▁1000	-10.9566
▁CY	-10.9567
▁Dála	-10.9575
aonar	-10.9577
ionadaithe	-10.9579
▁phoist	-10.9584
▁Páirc	-10.9592
ill	-10.9593
▁luacháil	-10.9604
09	-10.9605
▁hOifige	-10.9606
▁tosaíocht	-10.9608
cricket	-10.9611
▁Rómáin	-10.9611
▁sciorta	-10.9617
▁Inmheánach	-10.963
▁feistis	-10.963
▁shaincheapadh	-10.963
▁tairseach	-10.963
▁bréagáin	-10.963
▁thaisceadh	-10.963
▁Coats	-10.963
88	-10.9631
▁nglacadh	-10.9632
▁feidhmiúcháin	-10.9632
▁buille	-10.9633
▁turais	-10.9633
▁thuilleamh	-10.9634
▁sraitheanna	-10.9635
▁oidhreachta	-10.9636
▁géar	-10.964
▁margaíochta	-10.9643
▁75	-10.9646
▁Bhéal	-10.9651
▁athraithe	-10.9662
▁Íoc	-10.9666
údar	-10.967
▁ársa	-10.967
▁asraon	-10.9678
▁nuachta	-10.9681
▁sár	-10.9681
31	-10.9683
fe	-10.9689
▁No	-10.9692
fhostaithe	-10.9706
fh	-10.9709
▁bpáirt	-10.9711
▁2012.	-10.972
▁cumhachtach	-10.9724
▁Tionscadail	-10.9728
▁sapphire	-10.9728
▁mhíleata	-10.9728
Faoiseamh	-10.9728
▁Angeles	-10.9728
▁dorcha	-10.9728
▁liachta	-10.9729
▁Cultúr	-10.9733
▁bharántas	-10.9734
▁Inis	-10.9735
lo	-10.9738
▁ráthú	-10.9739
▁Oiliúint	-10.974
▁Center	-10.9741
▁árachas	-10.9743
▁leithne	-10.9753
▁chláraithe	-10.9758
ya	-10.9767
▁aiseolas	-10.9769
▁bunús	-10.9774
▁Creat	-10.9776
▁tonna	-10.9776
▁DC	-10.9777
si	-10.9779
▁ngnó	-10.9804
fr	-10.981
▁Silver	-10.9811
▁muintir	-10.9813
ant	-10.9815
Co	-10.9816
▁dalta	-10.9818
one	-10.9822
▁be	-10.9822
▁dtiocfa	-10.9823
▁leabharlann	-10.9824
▁toirmeasc	-10.9826
▁Foilseacháin	-10.9827
▁cartúin	-10.9827
▁mullaigh	-10.9827
▁mhúineadh	-10.9827
▁sliotán	-10.9827
▁dífhostaithe	-10.9827
▁stiúradh	-10.9827
▁Cathaoirleach	-10.9827
▁paisinéirí	-10.9828
▁comhla	-10.9829
▁staitisticí	-10.9829
▁Report	-10.9829
▁hoibreacha	-10.983
▁rúnda	-10.983
▁difríochtaí	-10.9832
▁ealaíontóirí	-10.9833
▁mhilliún	-10.9833
▁Teagasc	-10.9834
▁Cháin	-10.9839
ct	-10.9844
▁déine	-10.9846
▁Cinnte	-10.9851
▁ranníoc	-10.9851
aille	-10.9855
▁...	-10.9861
ionscnamh	-10.9866
▁clog	-10.9869
▁46	-10.9871
▁vótaíochta	-10.9874
▁cheangla	-10.9874
▁ranníoca	-10.9878
▁Minister	-10.9901
▁áirítear	-10.9912
▁riar	-10.9916
▁Breasts	-10.9927
▁Músaem	-10.9927
▁gceangal	-10.9927
▁Ostair	-10.9927
▁Tiontaire	-10.9927
▁Ardchaighdeáin	-10.9927
▁Cairdeas	-10.9927
▁Doiciméid	-10.9928
▁chruthaíonn	-10.993
▁téip	-10.993
▁hoibleagáidí	-10.993
▁muscle	-10.9931
▁Cúnamh	-10.9932
▁báis	-10.9932
nt	-10.9933
▁Tairiscintí	-10.9933
áilte	-10.9935
▁tanaí	-10.9936
▁1998	-10.9939
▁Sheirbhísí	-10.994
eisigh	-10.9942
▁litreacha	-10.9949
▁gcóir	-10.995
Go	-10.9953
▁ex	-10.9958
▁seolta	-10.9968
▁ainmhí	-10.9973
▁Páipéar	-10.9977
▁taitneamhach	-10.9982
▁léarscáil	-10.9982
▁rial	-10.9985
▁bhreith	-10.9989
bo	-10.9997
▁rannóg	-11.0002
▁shonróid	-11.0003
▁bheartas	-11.0007
▁ghníomhaireacht	-11.0008
▁cloch	-11.0014
▁2013.	-11.0021
uas	-11.0021
[	-11.0022
▁hoibre	-11.0023
▁bainisteoir	-11.0023
▁Pholainn	-11.0025
▁Óg	-11.0026
▁Láithreán	-11.0028
FCBarcelona	-11.0028
▁namhaid	-11.0028
▁rannán	-11.0028
▁toghchán	-11.0028
▁chleachtadh	-11.0029
▁65	-11.003
▁creideamh	-11.003
▁leispiacha	-11.0032
▁Athruithe	-11.0033
▁fachtóirí	-11.0033
▁samhlacha	-11.0033
▁feirmeoirí	-11.0033
▁feasach	-11.0036
▁AR	-11.0043
▁LED	-11.0044
▁leisce	-11.0045
ibé	-11.0047
▁Áise	-11.0049
▁cúraimí	-11.005
ur	-11.0052
▁iarrtar	-11.0058
▁White	-11.0058
▁charms	-11.0071
▁uachtar	-11.0072
▁fulaingt	-11.0078
pa	-11.0078
mhór	-11.0078
em	-11.0087
tá	-11.0092
▁leagfa	-11.0092
▁athair	-11.0102
irí	-11.0107
▁thuairisc	-11.0107
▁120	-11.0109
▁Treorach	-11.011
less	-11.0113
aghaidh	-11.0125
De	-11.0126
fheidhmeannach	-11.0127
▁Inscne	-11.013
▁nDaonlathaithe	-11.013
▁neamhfhoirmiúil	-11.013
▁mharú	-11.013
▁iarainn	-11.013
▁cuimilteora	-11.013
▁Aistriúcháin	-11.013
▁Díbh	-11.013
▁gcorp	-11.013
▁Ghréig	-11.013
▁Shóisialta	-11.013
▁bhfostaíocht	-11.0131
▁borradh	-11.0131
▁conclúidí	-11.0131
▁Uachtarach	-11.0131
▁scáileáin	-11.0131
▁fráma	-11.0132
▁fáis	-11.0132
▁carachtar	-11.0133
▁Seapáinis	-11.0133
▁Tionscadal	-11.0136
óra	-11.0137
▁6.	-11.0137
▁uasghrádú	-11.0139
▁Gold	-11.0141
▁Public	-11.0143
by	-11.0143
▁1989	-11.0153
úinéir	-11.0153
▁foirceannadh	-11.0153
▁cum	-11.0155
▁la	-11.0155
▁Inc	-11.0159
▁Chumann	-11.0165
▁coimeád	-11.017
▁chúig	-11.0173
▁Bunaithe	-11.0173
▁bhu	-11.0176
gú	-11.0179
00	-11.0179
▁Cheap	-11.018
ki	-11.0185
▁Gall	-11.0189
▁háite	-11.0192
▁Ceart	-11.0201
▁Díreach	-11.0203
so	-11.0207
▁Bileog	-11.0207
mu	-11.0209
▁chreid	-11.0209
ábhair	-11.0211
▁Long	-11.0214
27	-11.0216
▁forála	-11.022
achomharc	-11.0222
luíonn	-11.0227
▁Nóta	-11.0229
▁ciste	-11.023
▁sráide	-11.0233
▁Bhliain	-11.0233
▁JavaScript	-11.0233
▁Organization	-11.0233
fhógair	-11.0233
football	-11.0233
▁chúiteamh	-11.0233
▁thomhaltóirí	-11.0233
▁Comhphobail	-11.0234
▁50%	-11.0234
▁Féadtar	-11.0235
▁ngairmtear	-11.0235
▁Conarthaí	-11.0235
▁mogalra	-11.0236
▁Mhúinteoirí	-11.0237
▁Ceantair	-11.0237
▁Feidhmeanna	-11.0237
▁morgáiste	-11.0237
▁glúine	-11.0238
▁1961	-11.0239
IN	-11.0253
▁alcóil	-11.0256
▁County	-11.0257
ish	-11.0259
▁fomhír	-11.0259
om	-11.027
▁Shot	-11.0273
▁íon	-11.0285
▁Ros	-11.0285
▁timpeallachta	-11.0289
▁Rial	-11.0301
IR	-11.0307
teachtaireachtaí	-11.0307
▁€1	-11.031
▁w	-11.0315
ab	-11.0322
▁pearsa	-11.0324
97	-11.0325
▁oibríocht	-11.0331
▁Bhreatain	-11.0337
▁eatarthu	-11.0337
▁pornozal	-11.0337
▁Uladh	-11.0337
▁bhabhta	-11.0339
▁toirchis	-11.0339
▁ngníomhaíochtaí	-11.034
▁fholaíonn	-11.034
▁Braiteoir	-11.0341
48	-11.0341
▁cheantair	-11.0346
▁Costais	-11.0348
▁gléasra	-11.0352
▁2016,	-11.0353
▁corp	-11.0354
ley	-11.0359
▁iontas	-11.0361
▁Céad	-11.0372
au	-11.0373
▁aistriúchán	-11.0382
▁íogair	-11.039
▁naoi	-11.0393
oibriú	-11.0398
▁moltar	-11.0398
▁43	-11.0402
▁Cúirt	-11.0404
cy	-11.0407
▁too	-11.0408
▁Tin	-11.0411
iom	-11.0418
▁fabraic	-11.0419
▁Thiar	-11.042
▁barra	-11.0425
▁orgánach	-11.0433
▁Gníomhaireachta	-11.0436
féach	-11.0438
▁eisithe	-11.044
▁pro	-11.0442
▁romhat	-11.0442
▁Pacáiste	-11.0442
▁blonde	-11.0442
▁Coiriúil	-11.0442
▁Fianáin	-11.0442
▁Láirge	-11.0442
▁ollscoil	-11.0443
▁gcaidreamh	-11.0443
▁theaghlach	-11.0443
▁ceantar	-11.0443
▁bunscoile	-11.0443
▁Leagan	-11.0444
▁díolmhaithe	-11.0444
▁bréagán	-11.0444
▁deonaíodh	-11.0444
▁faiseanta	-11.0445
▁leantóirí	-11.0445
▁comhaimseartha	-11.0446
▁gComhaontú	-11.0446
airgeadra	-11.0447
▁tromlach	-11.0448
oifigigh	-11.0456
SA	-11.0458
▁Árann	-11.046
CC	-11.0462
▁Art	-11.0466
▁Arm	-11.0468
▁aníos	-11.0476
mag	-11.0478
02	-11.0479
light	-11.0481
ee	-11.0482
▁snámh	-11.0488
▁Free	-11.049
▁roth	-11.0497
chleachtas	-11.05
1.	-11.0507
▁cheannaigh	-11.0514
chlár	-11.052
▁foriomlán	-11.0523
▁Old	-11.0525
▁Monaróir	-11.0536
▁Laidin	-11.0537
▁Mhuire	-11.0539
▁dick	-11.054
▁America	-11.0542
▁Lár	-11.0545
▁téama	-11.0546
▁corparáide	-11.0547
▁méadaithe	-11.0547
▁scriú	-11.0548
orporate	-11.0549
▁Ghinearálta	-11.0549
▁gheimhreadh	-11.0549
▁ngréasán	-11.0549
▁thaithí	-11.0549
▁Voyeurism	-11.0549
▁Corcaigh	-11.0549
Eabhrac	-11.0549
▁Faisean	-11.055
▁Domhain	-11.0551
▁treocht	-11.0551
▁dífhostaíochta	-11.0552
▁Ciorclán	-11.0553
▁iliomad	-11.0554
▁Ghnó	-11.0555
sí	-11.0555
▁Sonrú	-11.0555
▁Fireann	-11.0557
▁éifeachtúil	-11.0559
▁(11)	-11.0559
▁Deimhnithe	-11.0561
▁tuairisciú	-11.0563
▁Network	-11.0567
▁píopaí	-11.0568
ok	-11.0571
▁gairm	-11.0572
aer	-11.0572
▁Sheirbhís	-11.0576
▁gcaithf	-11.0582
▁Miotal	-11.0588
▁idéalach	-11.0588
▁tromchúiseacha	-11.0588
29	-11.059
ár	-11.0592
ib	-11.0596
art	-11.061
▁chabhra	-11.0611
▁chóip	-11.0611
▁scaoilte	-11.0615
▁atmaisféar	-11.0621
▁(2	-11.0625
▁cainte	-11.0626
▁chuntais	-11.064
▁dtuairim	-11.0642
Sa	-11.0645
▁mbarr	-11.0645
BBC	-11.0647
▁dúlra	-11.0656
▁tsamhraidh	-11.0656
▁cinntiú	-11.0656
▁mhodhnú	-11.0656
▁coistí	-11.0656
▁chustaiméara	-11.0656
▁suímh	-11.0659
▁polaitíochta	-11.0659
▁aighneachtaí	-11.0665
▁díobháil	-11.0666
▁Maoiniú	-11.0668
▁Anailís	-11.0673
▁ospidéil	-11.0675
▁Den	-11.068
▁orlach	-11.0683
9.	-11.0684
gal	-11.0684
▁fhoirgneamh	-11.0699
▁House	-11.0708
▁roisín	-11.075
eu	-11.0754
▁Éirí	-11.076
Football	-11.0761
▁Úcráin	-11.0762
▁Thoir	-11.0764
▁chogaidh	-11.0765
▁sceitheadh	-11.0765
▁cliant	-11.0765
▁Lárionad	-11.0765
▁eachtraíochta	-11.0765
▁míonna	-11.0765
▁Riachtanais	-11.0765
institiúidí	-11.0766
▁crann	-11.0766
▁eisiach	-11.0766
men	-11.0767
▁gníomhairí	-11.0769
▁Méadú	-11.0769
▁tástálacha	-11.0776
▁Uachtaráin	-11.0778
▁mhol	-11.0781
▁Hua	-11.0782
▁Pacáil	-11.0782
▁bhealaí	-11.0794
Mo	-11.0799
▁thuairisciú	-11.08
▁Catagóirí	-11.0828
▁ól	-11.0837
▁Féin	-11.0841
▁sorcóir	-11.0845
▁coiteann	-11.0849
▁Omeg	-11.085
▁cm	-11.0864
ealaíontóirí	-11.0866
out	-11.0868
08	-11.0869
04	-11.0871
▁0/0	-11.0875
▁Phobal	-11.0875
▁Firefox	-11.0875
▁coiriúil	-11.0875
▁gcostas	-11.0875
▁Spying	-11.0875
▁gheofar	-11.0876
▁Credits	-11.0877
▁rialuithe	-11.0877
▁Airm	-11.0877
▁inmhuirir	-11.0878
róidh	-11.0879
▁Teoranta	-11.0879
▁Foras	-11.0879
vi	-11.0879
▁dollar	-11.088
▁Gné	-11.088
▁imeall	-11.088
▁thógann	-11.0881
▁Teastas	-11.0882
▁chuimsiú	-11.0882
▁comhionannas	-11.0885
▁suiteáilte	-11.0887
▁rúin	-11.0892
line	-11.0893
▁Áras	-11.0901
za	-11.0901
▁achar	-11.0903
sky	-11.0909
náisiúnaigh	-11.0914
65	-11.0916
▁here	-11.0917
▁phá	-11.0923
▁Réamh	-11.0924
▁soiléire	-11.0926
▁Deir	-11.0927
▁bhfomhír	-11.0929
lu	-11.0933
▁pian	-11.0936
ation	-11.0939
▁tiomantas	-11.0941
▁Cabhra	-11.0942
press	-11.0951
▁Top	-11.0954
▁comhoiriúnach	-11.0954
▁Gael	-11.0964
▁Saoirse	-11.0968
▁eolaíoch	-11.0968
▁iontaofacht	-11.0969
▁pe	-11.097
ary	-11.097
▁Éil	-11.0981
FA	-11.0983
áitreabh	-11.0983
▁CRO	-11.0983
▁phinsin	-11.0986
▁Phacastáin	-11.0986
▁eadhon	-11.0986
▁Forex	-11.0986
▁Stocaí	-11.0986
info	-11.0987
frik	-11.0987
▁Gáis	-11.0988
▁bhás	-11.0988
▁aláraim	-11.0988
▁gaire	-11.0988
▁Bróga	-11.099
▁leagadh	-11.099
▁cheadaíonn	-11.0995
iarrthóirí	-11.0995
▁glanadh	-11.0995
▁tairbhí	-11.0996
▁47	-11.0996
▁tarchurtha	-11.0999
▁urlár	-11.1004
▁riarachán	-11.1004
▁leaganacha	-11.1006
▁seirbhíseach	-11.1014
▁fuaim	-11.1015
▁Nuad	-11.1015
▁measa	-11.1025
▁Gníomh	-11.1025
▁fireann	-11.1033
▁ghníomhach	-11.1037
▁YA	-11.1038
DE	-11.1045
▁Ball	-11.1053
Ag	-11.1057
▁hAchta	-11.1058
▁2020.	-11.1065
▁400	-11.1065
▁diúltach	-11.1066
▁Tac	-11.1069
▁iniompartha	-11.1072
▁trádálaí	-11.1079
▁éigeantach	-11.108
éifeacht	-11.1082
▁52	-11.1087
▁shoot	-11.1087
gov	-11.1088
▁Phort	-11.1094
▁díoltóir	-11.1096
▁teorann	-11.1097
▁deacra	-11.1098
▁hAfraice	-11.1098
▁mBúcairist	-11.1098
▁cairdiúil	-11.1098
▁buartha	-11.1098
▁Leabharlainne	-11.1098
▁fáinne	-11.1099
▁coimhdeachta	-11.11
▁gcoinníollacha	-11.11
▁Manufacturers	-11.11
▁Athchóiriú	-11.1101
▁Réamhrá	-11.1102
▁uaslódáil	-11.1105
▁comhpháirtíocht	-11.1106
▁comhordú	-11.1106
▁barántas	-11.111
▁49	-11.1113
▁inghlactha	-11.1114
aans	-11.1115
glacfaidh	-11.1115
▁forbairtí	-11.1116
real	-11.1117
▁liostaithe	-11.1118
▁Game	-11.112
▁eastát	-11.1124
ron	-11.1126
der	-11.1127
ah	-11.1128
▁1980	-11.1129
▁alúmanaim	-11.1131
▁cheapfar	-11.1131
▁Oifigí	-11.1132
▁liathróidí	-11.1133
▁léirigh	-11.1134
▁olann	-11.1136
▁fhocal	-11.1139
ster	-11.1144
▁digiteacha	-11.1155
▁Shaorá	-11.116
aicme	-11.1165
▁Aer	-11.1167
▁ghrian	-11.1168
▁England	-11.1175
fí	-11.1176
live	-11.1179
▁La	-11.1181
▁ceimiceach	-11.1187
06	-11.1187
▁Dh	-11.1188
▁Roinnt	-11.1196
▁tomhaltóir	-11.1198
▁braiteoir	-11.121
0.	-11.1211
▁comhtháthú	-11.1212
▁buidéal	-11.1212
▁fiosrúchán	-11.1212
▁painéal	-11.1212
▁gCoinbhinsiún	-11.1212
▁soláthairtí	-11.1213
▁Thar	-11.1214
▁bhfocal	-11.1214
▁scagaire	-11.1215
▁folamh	-11.1215
▁bhunaidh	-11.1215
aithfear	-11.1218
▁Sínis	-11.1221
▁pháipéar	-11.1222
▁€2	-11.1228
ier	-11.123
54	-11.1231
78	-11.1231
▁Women	-11.1237
éireoidh	-11.1244
▁cúltaca	-11.1255
ph	-11.126
▁League	-11.1261
duine	-11.1273
▁1992	-11.1274
▁cothromaíocht	-11.128
online	-11.1282
▁nuálach	-11.1282
▁fís	-11.1283
tréimhse	-11.1284
▁coiriúla	-11.129
tiocfaidh	-11.129
▁timthriall	-11.13
uair	-11.1305
▁chomhar	-11.1318
▁Caibidil	-11.1319
▁stampa	-11.132
▁cúirt	-11.1325
▁gcoinníoll	-11.1325
▁cháilitheach	-11.1326
▁Luimnigh	-11.1327
▁laoch	-11.1327
▁Gúna	-11.1327
iarratais	-11.1327
▁threisiú	-11.1327
▁chailliúint	-11.1327
▁shúchán	-11.1327
▁comhaontaithe	-11.1327
▁páiste	-11.1327
▁teileafóin	-11.1327
▁Chustaiméirí	-11.1328
▁Éigeandála	-11.1328
rm	-11.1328
▁gcathair	-11.1328
▁taos	-11.1328
▁Winx	-11.1329
▁Meastar	-11.133
▁seó	-11.1331
Mhúinteoireachta	-11.1331
▁Rud	-11.1337
▁Plaisteacha	-11.1338
▁measctha	-11.1339
▁tailte	-11.1344
Ba	-11.1345
▁Ealaíne	-11.1346
▁hailt	-11.1348
▁Orduithe	-11.1353
▁clocha	-11.1355
OPE	-11.1368
gu	-11.1369
▁nGníomhaireacht	-11.1374
úsáideoir	-11.1378
▁Caith	-11.1389
▁Chat	-11.1389
▁hard	-11.1391
80	-11.1393
▁reacht	-11.1394
(3)	-11.1397
▁MO	-11.1406
iar	-11.1411
▁mhuirear	-11.1424
▁strainséir	-11.1429
▁Réigiúnach	-11.143
▁spéir	-11.1431
▁héifeacht	-11.1431
▁deoch	-11.1432
▁ragha	-11.1433
ey	-11.1442
▁Priontáil	-11.1442
deireadh	-11.1443
▁Foirne	-11.1443
▁Ioncuim	-11.1443
▁féilire	-11.1443
▁matáin	-11.1443
▁Measfar	-11.1444
▁stairiúil	-11.1444
▁bailíodh	-11.1444
▁huirlisí	-11.1445
▁theaghlaigh	-11.1445
▁ealaín	-11.1446
▁imirce	-11.1446
▁iargúlta	-11.1446
▁chuici	-11.1446
▁codlata	-11.1447
▁Be	-11.1448
▁leaba	-11.1449
▁Dearbhú	-11.1449
▁tosaithe	-11.1449
▁dTeangacha	-11.145
▁taiscí	-11.145
▁gnóchain	-11.1453
▁ciseal	-11.1453
▁tuarastail	-11.1456
▁1968	-11.1457
oideachas	-11.1457
▁freagrachtaí	-11.1457
abharfaidh	-11.1458
▁Fan	-11.1461
▁uibheacha	-11.1464
arm	-11.1464
▁AC	-11.1465
▁Comhalta	-11.1468
▁chineálacha	-11.147
▁thoirmeasc	-11.1478
con	-11.148
▁Bearta	-11.1481
▁Bailte	-11.1482
ja	-11.1486
aidhm	-11.1491
▁áireofar	-11.1495
42	-11.1497
éirí	-11.1512
▁Bhun	-11.1516
du	-11.1517
▁chomhordú	-11.1523
▁fuaraithe	-11.1527
▁Frith	-11.1531
46	-11.1532
▁príosúnacht	-11.1535
▁CUID	-11.1537
▁othair	-11.1538
▁aisíocaíocht	-11.1547
▁scíth	-11.1548
▁im	-11.155
▁iomarcach	-11.1557
▁chách	-11.1561
▁sneachta	-11.1561
▁[...]	-11.1561
sms	-11.1561
▁Airgeadaíochta	-11.1561
▁samhradh	-11.1561
▁gCathair	-11.1561
▁peataí	-11.1561
▁geimhreadh	-11.1563
▁choirp	-11.1563
▁mótair	-11.1564
▁1926	-11.1564
▁himreoirí	-11.1564
▁Bhóithre	-11.1564
▁ceathrú	-11.1564
ainmhithe	-11.1565
▁thaighde	-11.1565
▁Leathanach	-11.1566
ot	-11.1566
racial	-11.1566
▁grafaicí	-11.1566
▁draíochta	-11.1568
ualach	-11.157
▁Deontas	-11.1573
éad	-11.1573
▁agallamh	-11.1575
▁oibríochta	-11.1575
cal	-11.1578
▁neamhspleáchas	-11.1587
▁trialacha	-11.159
▁nglacfaidh	-11.1593
▁fhoinse	-11.1596
▁ga	-11.1598
▁Don	-11.1603
8.	-11.1603
Aonad	-11.1606
▁geall	-11.1606
▁Te	-11.1612
▁Maigh	-11.1616
CA	-11.1625
▁cúinsí	-11.1626
▁mhóra	-11.163
▁Caisleán	-11.1633
▁radharc	-11.1633
▁aibí	-11.1641
▁huisce	-11.1646
▁Ben	-11.1648
▁you	-11.1657
▁réalta	-11.1661
oinnigh	-11.1667
▁sceideal	-11.1677
▁Neart	-11.1677
▁Adhmaid	-11.168
▁Sláintíochta	-11.168
▁Windows	-11.168
▁hiondúil	-11.168
▁fhorordaithe	-11.168
▁Shaoránaigh	-11.168
▁Gearmáine	-11.168
▁tsuímh	-11.168
▁tháirgtear	-11.168
▁greamaigh	-11.1681
▁teagmhas	-11.1681
▁nDún	-11.1681
▁phacáiste	-11.1682
▁phinsean	-11.1682
▁gearáin	-11.1683
▁Oiriúnach	-11.1684
▁BBC	-11.1685
▁sáruithe	-11.1686
▁tarraing	-11.1687
▁chultúr	-11.1688
ardchaighdeán	-11.1688
▁1)	-11.1689
▁Mhuir	-11.169
▁cumais	-11.1691
▁fógraíochta	-11.1697
▁ranníocaí	-11.1699
▁trasna	-11.1699
▁locht	-11.1699
Cúrsaí	-11.1701
▁dochair	-11.1703
▁árasán	-11.1704
▁Rialáil	-11.1705
▁fhéad	-11.1707
its	-11.171
eoirí	-11.1712
▁mBanc	-11.1716
▁Arna	-11.1719
▁1990	-11.1722
▁dheas	-11.1726
▁PE	-11.1729
▁ha	-11.173
▁Aois	-11.173
37	-11.1733
▁mheasúnacht	-11.1733
▁agaibh	-11.1734
▁ócáidí	-11.1748
200	-11.1752
In	-11.1753
inntíonn	-11.1755
▁crios	-11.176
33	-11.1761
▁France	-11.1762
▁reachta	-11.1762
▁infheistíochtaí	-11.1768
99	-11.1768
▁comhpháirteach	-11.1774
ealaíon	-11.1778
▁Cha	-11.1778
fhorbair	-11.1781
▁Rúnaí	-11.1787
Shéalainn	-11.1788
▁Corparáide	-11.1797
▁deonach	-11.1797
▁teip	-11.1797
▁Bíobla	-11.18
▁Feisirí	-11.18
▁gcomhshaol	-11.18
▁silicone	-11.18
▁labhartha	-11.18
▁gaoithe	-11.18
▁poker	-11.18
▁aoisliúntais	-11.1801
▁taispeána	-11.1801
▁ghléas	-11.1801
▁airgeadaíochta	-11.1802
▁1935	-11.1803
▁imithe	-11.1803
▁Gairmiúla	-11.1803
▁sheasamh	-11.1803
▁athsholáthar	-11.1804
▁briste	-11.1804
▁shábháilteacht	-11.1806
▁Téann	-11.1807
▁Seiceáil	-11.1808
▁1960	-11.1809
▁fá	-11.181
▁Montblanc	-11.1811
▁Parlaiminteach	-11.1811
▁1979	-11.1814
▁athchóirithe	-11.1814
▁lag	-11.1818
▁móide	-11.1822
▁chionn	-11.1823
▁mhéideanna	-11.1824
Sraith	-11.1824
irt	-11.1832
▁chumann	-11.1832
▁Béal	-11.1836
▁comhshocraíocht	-11.1839
▁k	-11.1841
▁nea	-11.1843
▁chuideachtaí	-11.1847
▁aontú	-11.1855
2:	-11.1856
▁cíosa	-11.1858
▁bhail	-11.186
▁racha	-11.1865
▁áite	-11.1868
▁láithreacha	-11.1869
▁áitiú	-11.1871
▁Arts	-11.1875
96	-11.1877
▁Fón	-11.1887
__	-11.1887
fhostóir	-11.1896
ise	-11.1898
▁tacaíochtaí	-11.1903
▁Danmhairg	-11.1907
▁ghluaiseacht	-11.191
▁phearsa	-11.1912
▁MA	-11.1913
▁lipéad	-11.1914
55	-11.1916
▁sástacht	-11.192
▁híocaíochta	-11.1921
times	-11.1922
▁briseadh	-11.1922
▁hEalaíona	-11.1922
▁optúla	-11.1922
▁Massage	-11.1922
▁meicniúla	-11.1922
▁feoil	-11.1923
▁Réitigh	-11.1923
▁mblianta	-11.1923
▁dhíriú	-11.1923
▁speisialaithe	-11.1923
▁Saoire	-11.1923
▁heilimintí	-11.1923
▁armtha	-11.1924
▁Siopa	-11.1924
▁pholasaí	-11.1924
▁Leasuithe	-11.1924
▁Scríobh	-11.1926
dsm	-11.1927
▁fhírinne	-11.1927
▁babhta	-11.1927
▁Struchtúr	-11.1927
▁súl	-11.1928
▁ghnólachtaí	-11.1929
▁féinfhostaithe	-11.1933
▁Mhacha	-11.1933
▁cheapann	-11.1933
90	-11.1937
▁chaill	-11.194
my	-11.1947
▁litríocht	-11.1947
▁foras	-11.1949
▁gealltanas	-11.1954
▁náisiúnach	-11.1966
▁Páirtithe	-11.1967
07	-11.1968
▁Trá	-11.1979
▁comhoiriúnachta	-11.1982
ins	-11.1982
ova	-11.1984
ak	-11.1986
íocaíochtaí	-11.1986
▁tArd	-11.1988
▁Business	-11.1991
▁tríocha	-11.1996
▁mhó	-11.1999
85	-11.2003
▁salach	-11.2013
úcháin	-11.2016
▁rásaíocht	-11.2021
It	-11.2023
▁Corparáideach	-11.2023
▁Buail	-11.2027
▁vitimín	-11.2031
▁lampa	-11.2032
íchumasaithe	-11.2033
su	-11.2034
jo	-11.2036
▁ordó	-11.204
▁Airgead	-11.2041
comhpháirtíochta	-11.2042
▁Limistéir	-11.2046
▁Schengen	-11.2046
▁figiúr	-11.2046
▁vuku	-11.2046
▁Phoist	-11.2046
▁Idirlín	-11.2046
▁sciála	-11.2046
▁chuairteoirí	-11.2046
▁torann	-11.2046
imreoir	-11.2046
▁Aicrileach	-11.2046
▁gluaisteáin	-11.2046
▁rialaíonn	-11.2047
▁Phrótacal	-11.2048
▁cleachtadh	-11.2048
▁fheictear	-11.2048
▁siúil	-11.2048
▁Tosaigh	-11.2049
▁Fhine	-11.205
▁thógaint	-11.2051
▁chomhtháthú	-11.2051
éasca	-11.2053
▁cabhrach	-11.2053
Rúnaí	-11.2056
Iarscríbhinn	-11.2056
TR	-11.2056
mer	-11.2056
▁tascanna	-11.2058
pcs	-11.2059
▁Uirlisí	-11.206
▁buachaillí	-11.206
▁máil	-11.2061
▁1972	-11.2063
acmhainní	-11.2065
▁Al	-11.2065
▁Philippe	-11.2066
▁Blue	-11.2072
▁Bunacha	-11.2086
▁shonracha	-11.2092
▁Daily	-11.2092
▁plaisteacha	-11.2094
▁taifeadta	-11.21
▁Cheartas	-11.2106
▁lasc	-11.2114
oidh	-11.2116
▁Red	-11.2116
▁oiriúnaí	-11.2124
▁FSS	-11.2129
▁1:	-11.2132
▁kg	-11.2133
▁dhromchla	-11.2137
athnuaite	-11.2143
▁han	-11.2144
▁ranníocaíocht	-11.2144
▁tiubh	-11.2147
▁fhada	-11.2151
anta	-11.2157
▁charr	-11.2165
▁Bónais	-11.2171
▁Taistil	-11.2171
▁phláinéid	-11.2171
▁shimplí	-11.2171
▁dtuismitheoirí	-11.2171
▁Cóirithe	-11.2171
▁speiceas	-11.2171
▁Staidrimh	-11.2171
▁cóimhiotail	-11.2171
▁gnáthchónaí	-11.2171
▁staidrimh	-11.2171
▁lesbians	-11.2171
▁Aeráide	-11.2171
▁mbord	-11.2171
▁tOireachtas	-11.2172
▁ngabhann	-11.2172
▁féile	-11.2173
▁Cosúil	-11.2174
▁Ambasáid	-11.2176
▁Inniu	-11.2176
▁bhunúsach	-11.2176
▁1978	-11.2177
▁Bunscoile	-11.2177
▁Thithe	-11.2177
IP	-11.2177
▁eachtraí	-11.2179
ible	-11.218
▁hÁise	-11.218
▁chinneann	-11.2183
▁cháil	-11.2185
radaim	-11.2185
▁phriontáil	-11.2186
▁líomatáiste	-11.2187
▁ordachán	-11.2187
Beidh	-11.2189
▁bhliana	-11.2189
lin	-11.2192
▁ospidéal	-11.2192
▁Táim	-11.2193
▁shaothrú	-11.2194
▁CFAE	-11.2198
▁over	-11.2198
▁ceimiceacha	-11.2198
▁allmhairiú	-11.2199
▁Straitéise	-11.22
▁trátha	-11.22
▁théarma	-11.2201
▁stad	-11.2209
▁Lae	-11.221
..../201	-11.2213
44	-11.2216
▁nuálacha	-11.222
tech	-11.2222
▁chonartha	-11.2228
▁cheartú	-11.2232
▁dleachta	-11.2238
imsigh	-11.2244
▁69	-11.2246
gp	-11.2246
▁sheas	-11.2247
▁Coinn	-11.2278
▁en	-11.2284
▁Me	-11.2287
▁chárta	-11.229
▁bliantúla	-11.2297
▁geilleagar	-11.2297
▁hAeráide	-11.2297
▁cogaidh	-11.2297
▁Bhinse	-11.2297
▁spáis	-11.2297
▁bándearg	-11.2297
▁dtosach	-11.2297
▁Taoisigh	-11.2298
▁caidéil	-11.2298
red	-11.2298
▁Pádraig	-11.23
▁bronnadh	-11.2301
▁Dóiteáin	-11.2302
▁Samhraidh	-11.2303
▁Measúnú	-11.2303
▁foilsiú	-11.2304
▁thacaíonn	-11.2304
▁chríche	-11.2305
▁Scéimeanna	-11.2305
▁1946	-11.2306
▁Classic	-11.2307
▁rúnaí	-11.2308
▁Gar	-11.2309
▁ghiniúint	-11.2309
▁Eanair	-11.2311
▁durable	-11.2312
▁Painéal	-11.2312
▁Tuaisceart	-11.2312
▁táirgeoirí	-11.2313
iniúchadh	-11.2314
▁séalaithe	-11.2314
▁léitheoireachta	-11.2315
▁(“	-11.2316
ms	-11.2329
▁cruthúnas	-11.233
▁seachtainí	-11.2337
▁iarann	-11.2337
og	-11.2339
▁bhunaigh	-11.234
▁bhforál	-11.2345
▁co	-11.2348
▁Leigh	-11.235
▁chuims	-11.2354
CH	-11.2367
▁Beag	-11.2381
tr	-11.2386
▁oibreoidh	-11.2388
SC	-11.2404
▁fíon	-11.2408
dity	-11.2409
▁trédhearcacht	-11.241
▁mhian	-11.2412
▁seánra	-11.2413
▁chigire	-11.2416
▁Amharc	-11.242
sp	-11.2422
▁bplean	-11.2422
▁traidisiún	-11.2424
▁bailiú	-11.2425
▁cistiú	-11.2425
▁praiticiúla	-11.2425
▁Oisrí	-11.2425
▁feachtas	-11.2425
▁convert	-11.2425
▁Choimisinéara	-11.2425
▁comhdhéanamh	-11.2426
▁Chlárú	-11.2426
▁loinge	-11.2426
▁Foirgníochta	-11.2426
▁constaicí	-11.2426
▁comhlíonta	-11.2426
▁Chuige	-11.2427
▁nuachtán	-11.2427
▁1939	-11.2427
▁gColáiste	-11.2428
▁tharlóidh	-11.2428
▁infheidhmithe	-11.243
▁Cearnóg	-11.243
▁Gorm	-11.2432
▁Daonna	-11.2434
▁gléasanna	-11.2435
rmhór	-11.2436
fi	-11.2439
idí	-11.244
▁Údar	-11.244
Féach	-11.2447
▁mise	-11.2448
▁Project	-11.2453
▁fheice	-11.2459
▁bheirt	-11.2463
▁Association	-11.2466
▁Cúrsa	-11.247
▁leasaithe	-11.2473
▁sp	-11.2477
ER	-11.2478
▁glac	-11.2481
chan	-11.2481
77	-11.2483
mark	-11.2485
▁Teacht	-11.2487
▁thabha	-11.249
▁Dámhachtain	-11.2491
0,000	-11.2496
▁Comhar	-11.2503
▁luchtú	-11.2506
▁ngnáth	-11.2515
▁suime	-11.2516
▁máistir	-11.2521
▁Leictreonach	-11.253
▁Bail	-11.2532
ix	-11.2532
▁dheireanach	-11.2534
▁Con	-11.2537
▁56	-11.2537
75	-11.2538
▁off	-11.2538
▁Lu	-11.2539
▁tuairiscí	-11.2543
▁neamhghnách	-11.2543
▁dúil	-11.2546
ure	-11.2549
▁bannaí	-11.2553
▁thogra	-11.2554
▁Pá	-11.2555
▁Talmhan	-11.2555
▁comhéadan	-11.2555
▁cúitimh	-11.2555
▁Laoghaire	-11.2555
▁EUROPA	-11.2555
▁Shamhna	-11.2555
▁faoisimh	-11.2556
▁gConradh	-11.2556
▁sonrófar	-11.2556
▁colún	-11.2556
▁ndaltaí	-11.2557
▁mothúcháin	-11.2557
▁frithpháirteach	-11.2558
▁feabhais	-11.2559
▁measartha	-11.2559
▁gnóthais	-11.256
▁smachtbhannaí	-11.256
aontaigh	-11.256
▁@_	-11.2561
iomlán	-11.2561
▁aontaithe	-11.2562
▁Group	-11.2564
▁1986	-11.2565
▁fheiste	-11.2566
▁Earraí	-11.2567
▁fliuch	-11.2567
▁Fhéile	-11.2568
íocfar	-11.2572
▁teicnící	-11.2575
▁voltais	-11.2577
▁Liúntais	-11.2581
post	-11.2584
▁toirte	-11.2584
▁chara	-11.2586
▁1925	-11.2594
▁cath	-11.2594
TS	-11.2598
▁uiscí	-11.2598
ana	-11.2605
▁Ráth	-11.2606
▁Aicm	-11.2612
▁cháis	-11.2614
chleachtais	-11.262
▁Mír	-11.2622
íochtaí	-11.2629
▁naimhde	-11.2634
▁DE	-11.2634
▁phrionsaba	-11.2639
aíochta	-11.2649
▁UK	-11.265
▁bhog	-11.2656
▁costaisí	-11.266
eli	-11.2664
▁Fiontraíocht	-11.2664
Via	-11.2667
▁po	-11.2669
▁beann	-11.2682
bi	-11.2685
▁Information	-11.2687
▁Semester	-11.2687
▁inphinsin	-11.2687
▁patrúin	-11.2687
▁soilsiú	-11.2687
▁Orgy	-11.2687
▁EURES	-11.2687
▁ghuthán	-11.2687
▁gcaighdeán	-11.2687
▁Nádúrtha	-11.2687
▁Bharraigh	-11.2688
▁feasta	-11.2688
▁háiseanna	-11.269
▁ngá	-11.269
iarrthóir	-11.2691
▁hainmhithe	-11.2692
▁insliú	-11.2692
▁Meáchan	-11.2693
▁sult	-11.2693
▁hiarrthóirí	-11.2693
▁Coinníollacha	-11.2694
La	-11.2695
▁cúirteanna	-11.2697
▁Staidéar	-11.2698
▁fhorghníomhú	-11.2698
eileachumarsáide	-11.2698
▁ceardlanna	-11.27
▁dóthain	-11.27
▁Bunúsacha	-11.27
▁deochanna	-11.2701
▁Rose	-11.2702
▁chiall	-11.2702
ST	-11.2703
▁ullmhúcháin	-11.2703
▁7.	-11.2704
▁Teangacha	-11.2706
▁dálaí	-11.2707
▁dhlíthe	-11.2709
▁2021	-11.2712
ruthaíonn	-11.2714
▁chúlra	-11.2717
AR	-11.2718
éag	-11.272
▁58	-11.2721
itheoirí	-11.2723
▁céime	-11.2724
▁bád	-11.2732
▁tarchur	-11.2733
olaimid	-11.2733
▁fearais	-11.2736
▁By	-11.2752
▁earnálacha	-11.2756
up	-11.2758
▁Mol	-11.2759
▁Buan	-11.2766
gi	-11.2768
69	-11.2769
▁chreat	-11.2774
▁Dea	-11.2776
▁mhúinteoir	-11.2778
▁hionstraimí	-11.2779
eagraíocht	-11.2781
▁1977	-11.2782
▁duais	-11.2784
Aire	-11.2793
▁fhostóir	-11.2794
▁teirmeach	-11.2795
▁trialach	-11.2796
▁conartha	-11.2803
chuid	-11.2804
▁Garda	-11.2806
▁víosa	-11.2811
▁Geo	-11.2813
▁ghearán	-11.2813
▁Iosrael	-11.2817
▁Cailín	-11.2817
▁Chríost	-11.2819
ni	-11.282
▁Gruaige	-11.282
▁Shibhialta	-11.282
▁iarchéime	-11.282
▁seiceálacha	-11.282
▁feadáin	-11.282
▁cogadh	-11.282
▁greanta	-11.2821
▁ardleibhéil	-11.2821
▁bhfear	-11.2821
▁Oifigiúla	-11.2822
▁ESB	-11.2822
▁hOileáin	-11.2822
▁pacála	-11.2822
▁fáinní	-11.2822
▁clainne	-11.2823
▁Toghcháin	-11.2823
▁tiúchan	-11.2823
▁héifeachtaí	-11.2825
▁árasáin	-11.2825
▁fianán	-11.2826
▁chomórtas	-11.2827
▁choill	-11.2828
chta	-11.2829
▁fide	-11.2832
▁dhoiciméid	-11.2833
▁Doras	-11.2833
▁html	-11.2836
▁mheasfar	-11.2836
▁Iodáilis	-11.2836
eamh	-11.2837
▁Íocaíochtaí	-11.2839
ombre	-11.2841
bona	-11.2841
▁chealú	-11.2842
▁peann	-11.2844
hromlach	-11.2847
▁Sín	-11.2848
▁fhorfheidhmiú	-11.2849
▁Réaltaí	-11.2849
▁Bhea	-11.2849
▁nD	-11.285
mi	-11.2851
▁eachtracha	-11.2856
▁dtosaíonn	-11.2857
▁sealbhóirí	-11.2857
▁fhear	-11.2858
▁Teas	-11.286
▁Dr	-11.2864
▁(30	-11.2867
▁tráthanna	-11.2869
▁áititheoir	-11.288
▁Críost	-11.2882
br	-11.2885
▁shár	-11.289
▁Seanad	-11.2892
thuarascáil	-11.2894
▁oibreoirí	-11.2899
iúla	-11.29
Oifigeach	-11.2904
▁éide	-11.2904
▁Comhairleach	-11.2905
▁1967	-11.2907
▁iarrtha	-11.2909
▁UM	-11.2917
iu	-11.2919
▁íoctar	-11.2928
▁chuairt	-11.2929
▁breithiúnach	-11.2929
lú	-11.2935
ham	-11.2937
▁bheart	-11.2941
▁gruaig	-11.2943
▁scilling	-11.2943
he	-11.2945
▁gcúis	-11.2947
▁cóta	-11.2948
▁tiarna	-11.2951
▁rian	-11.2952
▁Manufactur	-11.2953
▁banc	-11.2954
▁Chur	-11.2954
▁custaim	-11.2955
▁fógartha	-11.2955
▁bonneagar	-11.2955
▁chonaic	-11.2955
▁caomhnú	-11.2955
▁scagadh	-11.2956
▁chósta	-11.2956
▁níolón	-11.2956
▁Nuashonrú	-11.2956
▁laochra	-11.2956
eadúnas	-11.2957
▁1958	-11.2958
▁Cásca	-11.2958
▁1936	-11.2958
▁traenáil	-11.2959
▁Y	-11.2961
▁Fiontair	-11.2961
▁feabhsú	-11.2963
▁Comhlacht	-11.2964
tu	-11.2965
▁fhoirmle	-11.2965
othair	-11.2966
▁1970	-11.2966
▁formáidí	-11.2969
▁Ospidéal	-11.2973
▁dramhaíl	-11.2973
▁Rogha	-11.2973
▁rás	-11.2973
▁54	-11.2974
▁Support	-11.2975
▁Rights	-11.2975
▁díobhálacha	-11.2976
▁Tionsclaíocht	-11.2981
▁luadh	-11.2984
▁All	-11.2989
▁iontaobhas	-11.2989
▁Help	-11.2991
▁Op	-11.2994
▁diúltacha	-11.2995
▁Ionstraim	-11.2997
▁Leit	-11.3012
▁Chomhar	-11.3014
▁cheapfa	-11.3014
ines	-11.3014
71	-11.3023
hosaigh	-11.303
▁shain	-11.3038
▁2011.	-11.3048
▁umar	-11.3055
les	-11.3055
▁leacht	-11.3058
▁Sain	-11.306
▁arbh	-11.306
▁lánúin	-11.3061
▁dtuig	-11.3065
▁cruthaitheach	-11.3069
▁Straitéiseach	-11.3071
mheasann	-11.3074
▁tháirge	-11.3075
▁imscrúdaithe	-11.3075
▁Day	-11.3077
▁Saoránach	-11.3086
▁se	-11.3086
▁thaifead	-11.3088
▁maisiú	-11.3089
▁Tour	-11.309
▁Otslaivanie	-11.3092
▁chronograph	-11.3092
▁Comhairliúchán	-11.3092
▁thriail	-11.3092
▁pholaitiúil	-11.3092
▁milliúin	-11.3092
▁choróin	-11.3092
▁mhíbhuntáiste	-11.3093
▁coimeádán	-11.3093
▁gleoite	-11.3093
▁tairbhiúil	-11.3094
▁éagtha	-11.3094
▁uilig	-11.3095
▁rátáil	-11.3097
gcomhpháirtíocht	-11.3097
▁dTithe	-11.3097
▁Stiúrthóra	-11.3098
▁reifreann	-11.3098
▁Cuimhnigh	-11.3098
▁Saol	-11.3099
▁caife	-11.3099
▁Machine	-11.3099
▁gaol	-11.3101
hal	-11.3101
▁fhoinsí	-11.3102
network	-11.3103
▁Bheaga	-11.3106
▁sonrú	-11.311
▁Droichead	-11.311
ut	-11.3111
▁guys	-11.3113
óige	-11.3114
▁ROS	-11.3115
▁1975	-11.3115
▁dhí	-11.3117
iarraidh	-11.3117
▁dearaidh	-11.3122
▁Náisiú	-11.3124
▁he	-11.3124
▁Ma	-11.3126
vision	-11.3134
hi	-11.3134
▁rannchuidi	-11.3135
▁straitéiseacha	-11.3135
▁erotica	-11.3136
cat	-11.3139
▁nuálaíochta	-11.314
▁tu	-11.3142
▁comparáid	-11.3144
▁spéise	-11.3144
▁táim	-11.3145
▁leithead	-11.3146
iasc	-11.315
▁Flash	-11.3152
iarratasóirí	-11.3159
ny	-11.3159
▁brandaí	-11.3163
laíonn	-11.3182
▁doirse	-11.3191
▁stór	-11.3193
▁Seasam	-11.3195
▁57	-11.3196
▁úinéirí	-11.3199
ci	-11.32
▁seirbhísigh	-11.3201
ns	-11.3204
......	-11.3204
▁Riachtanach	-11.3206
love	-11.3208
amh	-11.3214
▁Oifigigh	-11.3216
▁Dar	-11.3217
▁Xi	-11.3217
don	-11.3218
▁thuig	-11.3219
▁custaiméir	-11.322
va	-11.322
▁dámhachtain	-11.3221
▁cúlra	-11.3221
IS	-11.3226
▁1942	-11.3228
▁Imir	-11.3229
ON	-11.3231
hejiang	-11.3231
▁Sloinnte	-11.3231
▁bríomhar	-11.3231
▁coigríche	-11.3231
▁Fisting	-11.3231
▁comhairliúchán	-11.3231
▁Chéile	-11.3231
▁bhfabhar	-11.3231
▁stairiúla	-11.3232
▁spéaclaí	-11.3232
▁gluaisteán	-11.3232
▁bródúil	-11.3232
64	-11.3233
▁mbonn	-11.3234
▁figiúirí	-11.3234
▁hiarrachtaí	-11.3235
▁phlandaí	-11.3235
▁tomhaltas	-11.3237
▁sliseanna	-11.3237
▁uaim	-11.3237
▁Fh	-11.3237
▁dtarlaíonn	-11.3237
▁1971	-11.3237
▁Léann	-11.3238
▁fashion	-11.3238
▁dheonadh	-11.3239
▁Ról	-11.3239
▁táscairí	-11.3241
▁Áiseanna	-11.3241
▁Iarmhéid	-11.3242
▁fearas	-11.3242
▁Company	-11.3243
▁taighdeoirí	-11.3243
▁húsáideoirí	-11.3244
▁Táirgeadh	-11.3245
▁neamhaird	-11.3247
▁@2	-11.3248
▁Eolaíocht	-11.3248
sean	-11.3248
▁Gabh	-11.3251
▁thionscadal	-11.3254
▁fíona	-11.3258
▁250	-11.3259
tom	-11.326
▁threalamh	-11.3261
eal	-11.3272
▁idirbhearta	-11.3276
▁comhpháirt	-11.3277
Oibreacha	-11.3285
▁Pé	-11.3286
EP	-11.3287
▁Stiúrthóirí	-11.3287
36	-11.3291
▁Breise	-11.3302
▁leathar	-11.3303
▁liostaí	-11.331
▁Glac	-11.3312
▁neamhspleácha	-11.3319
AL	-11.3326
▁Nuálaíocht	-11.3329
▁Liostaí	-11.333
▁Met	-11.3343
Uachtarán	-11.3344
▁El	-11.3344
▁shuntasach	-11.3347
▁iascaireacht	-11.3347
▁coincheap	-11.3349
▁Branda	-11.335
king	-11.335
▁ranna	-11.3352
▁cáipéisí	-11.3357
▁rialtóir	-11.3358
▁ngrúpa	-11.336
▁earráid	-11.3364
▁gcruthú	-11.3366
aibh	-11.3367
▁Battery	-11.3372
▁Breosla	-11.3372
▁webcam	-11.3372
▁íosluchtaigh	-11.3372
▁Satharn	-11.3372
▁sheachtainiúil	-11.3373
▁boladh	-11.3373
▁chosnaíonn	-11.3373
▁bailiúcháin	-11.3373
▁Ríomh	-11.3373
▁Daonlathaithe	-11.3373
▁ardoideachais	-11.3374
▁fhorchuirtear	-11.3374
▁Gloine	-11.3374
▁dtáirgeadh	-11.3375
▁cirt	-11.3375
▁1959	-11.3375
▁iarrthóra	-11.3376
▁patrún	-11.3376
▁1940	-11.3376
▁bhoird	-11.3376
bar	-11.3376
▁cheadaítear	-11.3377
▁hÉirinn	-11.3379
▁sheilbh	-11.3379
▁Amazon	-11.3381
▁péire	-11.3381
▁Éadaí	-11.3381
▁iPhone	-11.3382
▁Centre	-11.3382
▁linksoflondon	-11.3382
▁scratch	-11.3383
▁bhóithre	-11.3384
▁éalú	-11.3384
▁táthú	-11.3385
▁Reachtaíocht	-11.3385
▁Fís	-11.3387
▁admháil	-11.339
▁Tairseach	-11.3392
▁sholáthrói	-11.3393
▁eisiamh	-11.3393
▁comhshó	-11.3394
▁Ionaid	-11.3397
▁fheidhmíonn	-11.3398
▁Tríd	-11.3398
▁Europe	-11.3398
wa	-11.34
▁chos	-11.3404
▁shúile	-11.3405
▁fostóirí	-11.3407
!!!	-11.3416
▁One	-11.3416
ór	-11.3417
▁ardaíonn	-11.3417
caithfear	-11.3422
MB	-11.3434
70	-11.3437
▁LE	-11.3443
▁110	-11.3445
jp	-11.3453
laigh	-11.3461
ID	-11.3463
66	-11.3469
vo	-11.3469
DA	-11.3471
▁Spreag	-11.3477
▁51	-11.3479
▁soghluaisteacht	-11.3486
EC	-11.3486
▁Rith	-11.3487
83	-11.3488
▁measúnacht	-11.3488
▁réasúnacha	-11.3492
▁ACHT	-11.3492
▁formáid	-11.3504
▁Cáilíocht	-11.3506
▁aerach	-11.3508
▁ocsaigin	-11.351
▁Real	-11.351
▁comhsheasmhach	-11.3512
▁Aibreáin	-11.3515
▁thaispeántar	-11.3515
▁bprionsabal	-11.3515
▁threorú	-11.3515
Tiontaigh	-11.3515
▁sásamh	-11.3515
▁gconradh	-11.3515
england	-11.3515
▁cóimhiotal	-11.3515
▁modhnuithe	-11.3515
▁Déantúsóirí	-11.3515
ud	-11.3516
▁Breithiúnais	-11.3516
▁LCD	-11.3516
▁Boird	-11.3516
▁corraitheach	-11.3516
▁Custam	-11.3517
▁Chríostaí	-11.3517
Reachtaire	-11.3517
▁paraiméadair	-11.3518
▁Hu	-11.3519
▁comhlachais	-11.3519
▁scríbe	-11.3519
▁garbh	-11.3519
▁Mamaí	-11.352
▁Tionscal	-11.3521
▁Accessories	-11.3521
▁gcleachtas	-11.3521
▁mhúnla	-11.3522
▁ballaí	-11.3522
▁damáistí	-11.3522
▁Billí	-11.3522
▁Dleacht	-11.3523
▁Brexit	-11.3525
▁ticéad	-11.3527
▁athúsáid	-11.3529
▁Leabhair	-11.3529
▁Pink	-11.3532
▁Álainn	-11.3533
▁64	-11.3534
▁pics	-11.3535
▁cheaptha	-11.3535
▁túisce	-11.3536
▁Air	-11.3536
▁Energy	-11.354
▁gcionta	-11.3541
▁minicíocht	-11.3543
▁dtrí	-11.3545
▁plátaí	-11.3546
▁Cábla	-11.3549
▁club	-11.3551
▁fhoirgnimh	-11.3557
Níl	-11.3558
▁Save	-11.3561
▁idirphlé	-11.3561
▁Ranna	-11.3577
▁Electric	-11.3577
▁cosa	-11.358
▁clú	-11.3583
▁fiacha	-11.3583
▁3)	-11.3588
téann	-11.359
iarsmaí	-11.3595
-10	-11.3596
head	-11.36
▁substaint	-11.3621
!!	-11.3625
▁76	-11.3627
▁Pa	-11.3634
▁dhigiteach	-11.3635
▁Glan	-11.3635
▁déantúsaíocht	-11.3637
ES	-11.3641
▁uilíoch	-11.3641
▁Mh	-11.3642
▁diosca	-11.3646
▁ngrá	-11.3648
▁nglac	-11.3656
▁Ungáir	-11.3657
▁míchumas	-11.3659
▁Liospóin	-11.366
▁furasta	-11.366
▁trahtube	-11.366
▁Datejust	-11.366
▁measúnaithe	-11.366
▁gealltanais	-11.366
▁tobann	-11.366
▁thuasluaite	-11.366
▁troscán	-11.366
▁bpróiseáil	-11.366
▁Chartlann	-11.366
▁dhíscaoileadh	-11.366
▁ndeachaigh	-11.3661
▁Baintrí	-11.3661
▁gceadúnas	-11.3662
▁mhaireann	-11.3662
▁acadúla	-11.3662
▁ceachtanna	-11.3662
▁mheaisín	-11.3663
▁Comhroinn	-11.3663
▁tOrdú	-11.3664
▁chaillteanas	-11.3664
▁chomhionann	-11.3664
▁fiach	-11.3666
▁poill	-11.3667
▁Innealra	-11.3669
▁fhiosrú	-11.3669
▁fhíneáil	-11.367
▁tofa	-11.3671
▁1920	-11.3673
▁leanfar	-11.3673
▁Europa	-11.3674
▁idirghabháil	-11.3676
▁téacsanna	-11.3681
52	-11.3681
▁lámhach	-11.3684
▁charachtar	-11.3688
▁mhéara	-11.369
▁bhfeidhmeanna	-11.3691
(4)	-11.3692
▁Mp	-11.3693
roulette	-11.3694
▁cáblaí	-11.3694
luach	-11.3697
▁suiteála	-11.3697
rú	-11.3714
▁gcionn	-11.3716
MP	-11.3718
▁múnlaí	-11.372
▁304	-11.3728
ithníonn	-11.3732
▁aca	-11.3733
▁ion	-11.3733
▁sos	-11.3735
▁Corr	-11.3736
▁dt	-11.3736
Re	-11.374
▁gcáil	-11.3741
▁Cum	-11.3743
neamhdhíobhálach	-11.3744
▁fillte	-11.3749
USA	-11.3766
▁gcomhalta	-11.3767
▁Cónaithe	-11.3767
▁Bar	-11.3768
▁Scéal	-11.3771
cho	-11.3776
▁72	-11.3779
▁bileog	-11.3782
▁maoirseacht	-11.3782
ji	-11.3783
lach	-11.3783
▁Ghaeltachta	-11.3787
km	-11.3789
▁scríbhneoir	-11.3791
▁treorach	-11.3793
▁BIA	-11.3796
▁California	-11.3798
▁Feidhme	-11.38
▁scannánú	-11.3801
▁caill	-11.3801
▁ngeall	-11.3803
▁DVD	-11.3806
▁Bhanc	-11.3807
▁chraiceann	-11.3807
▁urláir	-11.3807
▁Comhlachais	-11.3807
▁glaonna	-11.3807
▁gcolún	-11.3807
equired	-11.3808
▁cailleadh	-11.3808
▁tuigthe	-11.3808
▁cainéal	-11.3808
▁gcoiste	-11.3808
▁lgh	-11.3809
▁Dúbailte	-11.3809
▁folláine	-11.381
▁marcanna	-11.3811
▁Aiseolas	-11.3811
▁Agallamh	-11.3813
▁Pinsin	-11.3813
Baill	-11.3813
▁uas	-11.3815
▁ndlí	-11.3816
▁inchánach	-11.3818
▁úsáidfear	-11.3824
▁Mini	-11.3826
▁mhaisiú	-11.3826
▁taifeadadh	-11.3829
▁madraí	-11.3829
▁1974	-11.383
▁aturnae	-11.3833
▁Comhaltaí	-11.3837
▁bheartaithe	-11.3838
per	-11.3841
intinn	-11.3843
Atlantic	-11.3844
Mhúsaem	-11.3844
▁Réigiúnacha	-11.3844
fhoghlaim	-11.3845
▁SA	-11.3846
Eanáir	-11.3847
teistiméireachta	-11.3848
▁pócaí	-11.3849
▁guth	-11.3852
%	-11.3854
▁amhairc	-11.3855
Sports	-11.3856
ainmniú	-11.3858
St	-11.3858
raí	-11.3859
▁eilimintí	-11.3859
Ch	-11.3868
NA	-11.3874
▁bhunús	-11.3876
▁UN	-11.3876
▁Eis	-11.3878
ble	-11.3886
▁CD	-11.3896
▁59	-11.3913
▁acmhainne	-11.3914
▁bhfoghlaim	-11.3915
▁creidmheas	-11.3923
ow	-11.3931
▁cóiríocht	-11.3932
▁Meiriceánach	-11.3932
▁She	-11.3934
▁siopadóireacht	-11.3935
▁léasa	-11.3936
▁barántúla	-11.3936
▁cas	-11.394
▁par	-11.3944
▁ceap	-11.3944
▁IN	-11.3947
▁ghlúin	-11.3948
DC	-11.3951
comóradh	-11.3954
▁TF	-11.3956
▁DRÉACHT	-11.3956
▁Chiarraí	-11.3956
▁mhaireachtála	-11.3956
▁tnúth	-11.3956
▁Chomhdháil	-11.3956
▁Ráitis	-11.3956
▁seaicéad	-11.3956
▁Dearbhuithe	-11.3956
SCÁIL	-11.3956
▁bhfuarthas	-11.3956
▁ciorcad	-11.3956
▁Léirmheasanna	-11.3957
▁hoifigiúil	-11.3957
▁shannadh	-11.3957
▁chomóradh	-11.3957
▁pearsanra	-11.3957
▁cearrbhachais	-11.3957
▁modhnú	-11.3958
▁Bailiúcháin	-11.3959
▁tipiciúil	-11.3959
▁soláthróir	-11.396
▁iarratasóra	-11.396
▁struchtúrtha	-11.3961
▁Orgasms	-11.3961
▁níocháin	-11.3961
tel	-11.3962
▁phóca	-11.3962
▁chaitheann	-11.3963
▁BDSM	-11.3963
▁cláruithe	-11.3963
▁cith	-11.3964
bya	-11.3966
▁droichead	-11.3967
▁spiorad	-11.3969
▁Cistí	-11.397
▁ghlactar	-11.3972
▁Naofa	-11.3975
▁siamsaíochta	-11.3977
sch	-11.3979
▁Acadamh	-11.398
bhealach	-11.3982
▁seoltaí	-11.3983
▁dh	-11.3984
▁Cuideachtaí	-11.3992
▁Green	-11.3992
aim	-11.3993
▁mhíreanna	-11.3995
inneall	-11.3996
Baile	-11.3997
▁caibidlíochta	-11.3997
Media	-11.3997
▁States	-11.4001
▁muirí	-11.4002
úint	-11.4003
▁innill	-11.4003
▁UV	-11.4004
house	-11.4005
▁mB	-11.4007
▁Leagann	-11.4007
▁chomhthéacs	-11.401
▁dleachtanna	-11.4012
ber	-11.4018
▁breac	-11.4021
SI	-11.4024
▁1967,	-11.4029
ini	-11.4042
▁coinn	-11.4043
ódh	-11.4047
▁Media	-11.4059
ek	-11.4065
▁Casinos	-11.4066
▁Máistir	-11.4067
49	-11.4074
▁phas	-11.4075
ium	-11.4075
▁idirghabhála	-11.4079
▁adhmad	-11.408
▁we	-11.4082
▁uirbeach	-11.4083
▁shonrach	-11.4089
95	-11.4091
▁53	-11.4094
▁Maoine	-11.4099
sin	-11.4104
JM	-11.4104
▁shroich	-11.4107
▁Brasaíle	-11.4108
▁dheiridh	-11.4108
▁fharraige	-11.4108
▁ngeilleagar	-11.4108
▁speicis	-11.4108
▁Rannpháirtithe	-11.4108
▁ilbhliantúil	-11.4108
▁laethúla	-11.4108
Laistigh	-11.4108
▁seisean	-11.4108
▁gafa	-11.4109
▁theorannú	-11.4109
▁nGaillimh	-11.4109
▁lárionad	-11.4109
▁milis	-11.411
▁mhíle	-11.4111
▁bhuachaillí	-11.4113
Aerfort	-11.4113
▁ghathanna	-11.4113
▁coinneála	-11.4113
▁gcruthófar	-11.4113
▁lochtanna	-11.4113
▁ITBÁC	-11.4114
▁gheilleagar	-11.4115
▁tuairiscithe	-11.4117
▁Taisteal	-11.4117
▁VII	-11.4117
▁gasta	-11.4118
▁roghnúcháin	-11.4118
67	-11.4119
▁halla	-11.412
▁gnéis	-11.412
▁dhíon	-11.4122
▁Cuarda	-11.4123
▁polasaithe	-11.4124
▁ráthaíochtaí	-11.4124
▁Athraío	-11.4125
▁nd	-11.4126
▁from	-11.4127
▁Port	-11.4128
▁críochnú	-11.4128
▁déanfaimid	-11.4129
▁earrach	-11.4131
▁cheanglais	-11.4135
▁Spyder	-11.4136
athair	-11.4145
éifeachtach	-11.4145
▁óstán	-11.4146
má	-11.4147
dícheall	-11.4149
eisiúint	-11.4149
porn	-11.4154
othar	-11.4154
▁maisithe	-11.4169
▁Ni	-11.4171
▁bhac	-11.4178
KB	-11.4179
▁My	-11.418
ft	-11.4189
Ó	-11.4193
▁Sports	-11.4203
▁áille	-11.4207
▁Bean	-11.4208
É	-11.4217
▁Tástála	-11.4219
mp	-11.4222
▁parlaiminteacha	-11.4228
▁out	-11.4229
▁King	-11.4231
▁Louboutin	-11.4235
▁malartach	-11.4237
▁massage	-11.4238
▁dhír	-11.4238
▁teilifís	-11.4245
▁drochuair	-11.4246
▁mbosca	-11.4247
▁buachaill	-11.4247
▁amanna	-11.4253
▁cáiliú	-11.4259
ps	-11.426
▁bhranda	-11.4261
▁theagasc	-11.4261
▁gcéim	-11.4261
Wimbledon	-11.4261
▁Pháirc	-11.4261
▁scothaosta	-11.4261
▁Caipitiúil	-11.4261
▁faillí	-11.4261
▁bhfoirgneamh	-11.4262
▁lasair	-11.4262
▁teagmhais	-11.4262
▁cliniciúla	-11.4262
▁Bluetooth	-11.4262
▁comhraic	-11.4262
▁sholáthraithe	-11.4262
▁gceanglaítear	-11.4262
▁Chomhphobal	-11.4262
▁Roghanna	-11.4262
▁Breathnaíonn	-11.4262
▁Dhia	-11.4263
▁ceapfar	-11.4263
▁Deartha	-11.4263
▁Strapon	-11.4263
▁dúnadh	-11.4263
▁bunachar	-11.4263
ala	-11.4263
▁mbeifear	-11.4264
▁1964	-11.4264
▁Pictiúir	-11.4264
▁Wire	-11.4265
▁Teideal	-11.4266
▁bhogadh	-11.4266
▁thagartha	-11.4266
▁frása	-11.4269
▁rince	-11.427
▁hoibríochtaí	-11.427
▁20%	-11.427
▁Auto	-11.427
▁con	-11.427
▁foréigean	-11.4273
▁spásanna	-11.4274
▁forfheidhmiú	-11.4274
▁oilte	-11.4276
▁roghchlár	-11.4276
▁78	-11.4277
▁fhreagraíonn	-11.4277
▁víosaí	-11.4278
▁ghabha	-11.4278
▁sheomra	-11.428
▁leantach	-11.428
▁uillinn	-11.4281
▁Cruthaigh	-11.4282
▁bus	-11.4282
▁cleachtaí	-11.4285
39	-11.4286
▁2:	-11.4287
▁heolas	-11.4288
▁chuirfea	-11.4289
▁(12)	-11.429
▁ghabh	-11.4297
▁Transport	-11.4299
▁ghníomhacha	-11.43
▁aithnítear	-11.4304
Parliament	-11.4305
AD	-11.4307
▁So	-11.4307
▁reachtacha	-11.4307
faoi	-11.4312
▁fírinneach	-11.4314
car	-11.4314
ver	-11.4319
▁ghlacfa	-11.4321
▁Theach	-11.4324
cothaithe	-11.4325
rd	-11.4325
▁ghníomhartha	-11.4328
▁staire	-11.4333
76	-11.4347
▁banna	-11.435
▁tharraing	-11.4359
úla	-11.4376
Ard	-11.438
▁iarmhéid	-11.4381
▁600	-11.4386
▁deacracht	-11.439
▁longa	-11.4392
▁Bhunreacht	-11.4392
▁fhorála	-11.4396
je	-11.4405
▁KB	-11.4407
▁athuair	-11.4413
iad	-11.4414
▁nGael	-11.4414
▁chlub	-11.4415
lainne	-11.4415
▁Foghlama	-11.4418
▁Thaighde	-11.4418
▁Tomhaltóirí	-11.4418
▁craolacháin	-11.4418
▁caipín	-11.4418
▁dhomhanda	-11.4418
▁chuala	-11.4418
▁eastáit	-11.4418
▁radhairc	-11.4418
▁múineadh	-11.4418
▁fónamh	-11.4418
▁gCill	-11.4418
▁cuain	-11.4419
▁feabhsúcháin	-11.4419
▁Státchiste	-11.4419
▁béal	-11.4419
▁caidrimh	-11.4419
▁hiontach	-11.4419
▁fiacla	-11.442
▁míchumais	-11.4421
▁chultúir	-11.4424
▁thriomú	-11.4424
▁Scol	-11.4425
▁cuairteanna	-11.4427
▁cruthanna	-11.4427
▁dáiríre	-11.4429
▁Cas	-11.443
▁30%	-11.4431
▁amhráin	-11.4433
▁breiseán	-11.4433
▁ocras	-11.4433
▁braite	-11.4438
▁orgasms	-11.444
▁fhaoiseamh	-11.444
▁iontacha	-11.4447
way	-11.4457
▁thoiliú	-11.4463
resistant	-11.4466
▁brathadóir	-11.4466
▁€3	-11.4468
▁Music	-11.4472
58	-11.4476
ardaigh	-11.4476
▁alcól	-11.4479
imreoirí	-11.448
▁iomaíochta	-11.4481
▁gcoimeád	-11.4488
aidh	-11.4489
▁Ollscoile	-11.4497
▁shé	-11.4507
▁Airí	-11.4509
eoir	-11.4512
ionann	-11.4518
just	-11.4518
▁Seas	-11.4523
▁cheol	-11.4523
72	-11.4527
▁fhéach	-11.4531
aw	-11.4536
▁frithsheasmhach	-11.4537
fhan	-11.4541
▁aonfhoirmeach	-11.4546
▁chleachtais	-11.4551
▁fuinneog	-11.4551
▁talmhaíocht	-11.4556
▁fisiceach	-11.4556
▁diaper	-11.4556
▁dheonach	-11.4556
▁dráma	-11.4557
▁foirmiú	-11.4558
▁faid	-11.4558
▁imr	-11.4559
▁Brú	-11.4566
▁coirp	-11.4571
▁rathúla	-11.4572
zo	-11.4576
▁thairis	-11.4576
▁Comórtas	-11.4576
▁Simplí	-11.4576
▁hIodáile	-11.4576
rúisis	-11.4576
▁cloiche	-11.4576
▁casinos	-11.4577
▁Nuachtlitir	-11.4577
▁folúntas	-11.4577
▁hidirnáisiúnta	-11.4577
▁bPoblacht	-11.4577
▁Árachais	-11.4577
▁seisiúin	-11.4577
▁feola	-11.4577
▁cluaise	-11.4577
▁tamall	-11.4578
▁foilseacháin	-11.4578
▁thosnú	-11.4578
▁Shóisearach	-11.4578
▁Teagmhála	-11.4579
▁tiontaire	-11.4579
▁mhaisiúil	-11.458
▁treochtaí	-11.4581
▁eachtra	-11.4581
▁fhinné	-11.4581
▁Hollywood	-11.4581
▁gceanglas	-11.4581
▁teastas	-11.4582
▁Costas	-11.4584
par	-11.4585
▁Breitling	-11.4586
oibreoidh	-11.4588
achas	-11.459
▁fuaimeanna	-11.459
▁gcruth	-11.4591
▁earráidí	-11.4592
▁Gardaí	-11.4593
▁Brown	-11.4594
cháil	-11.4594
▁chinnidh	-11.4595
IANNA	-11.4597
bu	-11.46
IT	-11.46
▁iníon	-11.4602
▁tuarastal	-11.4602
▁tomhas	-11.4604
▁rangú	-11.4608
▁Comhaltas	-11.461
▁Magazine	-11.4613
▁Freastal	-11.4616
▁bhainc	-11.462
▁Inn	-11.4621
84	-11.4622
ainmneacha	-11.4623
▁Social	-11.4624
fhás	-11.4627
Twitter	-11.4628
▁Reacht	-11.4629
ted	-11.4632
▁réad	-11.4638
ios	-11.4641
▁amhrán	-11.4646
▁tarchuir	-11.465
▁arda	-11.4654
▁lenar	-11.4656
yo	-11.4658
Foundation	-11.4662
kg	-11.4664
▁scríbhneoirí	-11.4664
▁hearnála	-11.4667
ally	-11.4669
▁Áirithe	-11.4669
lúdaíonn	-11.4671
CD	-11.4671
▁Bell	-11.4671
fc	-11.4676
▁hainm	-11.4679
▁fhéin	-11.4679
ev	-11.468
▁with	-11.4686
94	-11.4687
▁bPlean	-11.4689
room	-11.4691
▁PR	-11.4693
▁thaca	-11.4695
▁gunna	-11.4695
▁bhfeic	-11.4698
ku	-11.4701
fo	-11.4701
▁inchinn	-11.4706
Gníomhaithe	-11.4714
▁Oidhreacht	-11.4723
▁Cóta	-11.4724
▁Bainisteoir	-11.4726
tor	-11.4729
rach	-11.4735
▁caoga	-11.4737
▁Seachadadh	-11.4738
▁Seapáine	-11.4738
▁Tionóil	-11.4738
▁elegance	-11.4738
▁painéil	-11.4738
▁searmanas	-11.4738
▁Chainnigh	-11.4738
▁chorparáide	-11.4738
▁coirníní	-11.4738
▁clé	-11.4739
▁Úsáide	-11.4739
▁Chipir	-11.474
▁scaradh	-11.474
min	-11.474
raithe	-11.4741
▁roghnaíodh	-11.4741
uarastail	-11.4741
▁Conclúidí	-11.4742
▁Domhan	-11.4742
▁guy	-11.4744
▁foirmle	-11.4745
▁healaíontóirí	-11.4746
▁Árachas	-11.4746
▁Society	-11.4747
▁rialúcháin	-11.4747
▁ghnóthais	-11.4747
▁maolú	-11.4747
▁Fhuinneamh	-11.4748
▁Tíortha	-11.4748
▁hoifigigh	-11.4748
▁léigh	-11.475
▁kb	-11.4751
▁mbaile	-11.4753
eir	-11.4753
▁buailte	-11.4753
▁mhodhanna	-11.4755
▁faigh	-11.4758
▁chumainn	-11.4758
fhreagra	-11.4759
well	-11.4759
▁banda	-11.476
▁Próiseas	-11.476
thaí	-11.4762
▁South	-11.4762
▁atáirgeadh	-11.4763
▁fhuinneamh	-11.4764
eitéareolaíochta	-11.4766
61	-11.4767
89	-11.4768
▁Síor	-11.477
▁éadach	-11.4776
▁sheirbhíse	-11.4777
▁aicmí	-11.4781
nú	-11.4782
▁GA	-11.479
England	-11.4791
▁Global	-11.4792
▁cine	-11.4799
▁2017,	-11.4803
▁dtréimhse	-11.4804
dteicneolaíochta	-11.4806
”)	-11.481
▁180	-11.4811
▁annamh	-11.4814
American	-11.4824
MC	-11.4827
BB	-11.4835
ter	-11.4835
▁sc	-11.4837
ino	-11.4847
▁fírinne	-11.4853
59	-11.4857
▁Scéime	-11.4859
400	-11.4862
▁Chairt	-11.4862
▁Franc	-11.4865
▁Grand	-11.4872
AC	-11.4873
▁randamach	-11.4875
▁Rómhánach	-11.4877
▁Ceol	-11.4886
fheidhm	-11.4887
▁peile	-11.4887
▁gairdín	-11.4887
▁teicníc	-11.4888
▁gcló	-11.489
▁riarthóir	-11.489
girl	-11.4891
Sh	-11.4892
▁AD	-11.4894
▁heagraíochta	-11.4895
chláir	-11.4899
▁contrártha	-11.4901
▁Amhráin	-11.4902
▁Fionlainne	-11.4902
▁cailciam	-11.4902
▁giotár	-11.4902
▁mainneachtain	-11.4902
▁maireachtála	-11.4902
▁míochaine	-11.4902
▁shaibhir	-11.4902
▁Dildo	-11.4902
▁Gréige	-11.4902
▁ceapachán	-11.4902
▁ceapacháin	-11.4902
▁Shráid	-11.4902
▁dílis	-11.4902
▁gcnaipe	-11.4902
▁bhailiúchán	-11.4904
▁trádmharc	-11.4904
▁Suirbhé	-11.4904
▁tinneas	-11.4905
▁Íocfa	-11.4905
▁1983	-11.4906
▁cosmaideacha	-11.4906
▁Chéim	-11.4906
▁Ainmhithe	-11.4906
▁Spraoi	-11.4906
▁breitheamh	-11.4907
▁Comhshaol	-11.4908
▁Íomhánna	-11.4908
▁cheoil	-11.4908
▁dtaithí	-11.4909
▁Creative	-11.491
▁tuairisceáin	-11.4911
▁Réiteach	-11.4912
▁sainmhínithe	-11.4912
▁Atá	-11.4913
▁1930	-11.4913
osach	-11.4913
▁Taispeána	-11.4914
pl	-11.4916
▁tusa	-11.4918
▁luachála	-11.4918
▁Cláir	-11.4922
▁rollta	-11.4923
▁Rómáine	-11.4923
▁téamaí	-11.4924
▁Hi	-11.4924
▁ollscoile	-11.4925
▁ionfhabhtú	-11.4926
▁bhíodh	-11.4927
38	-11.4928
chi	-11.4929
▁Tráth	-11.4932
▁urramú	-11.4932
▁bhainea	-11.4933
met	-11.4936
▁lón	-11.4938
▁ráithe	-11.4939
las	-11.4942
▁méad	-11.4944
▁Library	-11.4949
▁pháirtithe	-11.4952
▁uasmhéid	-11.4958
phraghas	-11.4958
▁eintiteas	-11.4963
▁bó	-11.4968
Am	-11.4969
▁ciall	-11.4969
agraíonn	-11.4972
mars	-11.4974
▁doimhneacht	-11.4979
Cé	-11.498
pi	-11.4984
87	-11.4986
▁dhaonna	-11.4989
▁fhiach	-11.499
cur	-11.4992
ré	-11.4992
ball	-11.4994
▁síol	-11.4996
▁War	-11.5002
▁próiseáilte	-11.5002
▁meitibileach	-11.5002
éil	-11.5003
▁Chlé	-11.5015
AF	-11.5016
▁náisiún	-11.5016
▁Creidmheasa	-11.502
▁West	-11.5021
▁luchtaithe	-11.5022
▁ghlas	-11.5023
▁star	-11.5033
Leas	-11.5033
▁He	-11.5035
▁ócáideach	-11.5044
▁gnólacht	-11.5047
▁ardaithe	-11.5049
▁dho	-11.5051
Al	-11.5058
▁1981	-11.5061
▁PCB	-11.5063
▁tarrthála	-11.5065
▁Cóiré	-11.5065
▁comhthéacs	-11.5065
▁Breithe	-11.5066
Gailearaí	-11.5068
▁lóistín	-11.5068
▁Fóram	-11.5068
▁fóram	-11.5068
▁Míleata	-11.5068
▁Iarchéime	-11.5068
▁cheilt	-11.5069
▁pornorolik	-11.5069
▁chíche	-11.5069
▁meastachán	-11.5069
▁Mhóir	-11.5069
▁dhéanaimid	-11.5069
▁féilte	-11.5069
▁Lascaine	-11.5069
▁traenála	-11.5069
ze	-11.507
▁glacfar	-11.507
▁sceidealta	-11.507
▁dealraitheach	-11.5072
▁mhúnlú	-11.5072
▁síolta	-11.5072
▁Comhphobal	-11.5072
▁truailliú	-11.5072
▁sholáthraítear	-11.5073
▁Leideanna	-11.5073
▁Glos	-11.5073
▁theorainn	-11.5075
▁theoranta	-11.5075
▁Slándáil	-11.5077
▁Weather	-11.5077
▁1973	-11.5077
▁Suiteáil	-11.5079
▁sealbhú	-11.508
▁shamhlú	-11.5081
▁Fuinneamh	-11.5081
▁More	-11.5081
SD	-11.5083
▁USA	-11.5083
▁shoiléir	-11.5085
▁1987	-11.5087
▁docht	-11.51
▁Dréacht	-11.5101
▁fhostú	-11.5101
▁óstáil	-11.5103
▁Tús	-11.5105
▁inmhianaithe	-11.5105
▁críochnaitheach	-11.5106
▁aisti	-11.5106
▁ráthaíochta	-11.5108
ik	-11.5108
▁Léim	-11.5109
▁ráite	-11.5111
▁chásanna	-11.5111
▁gcomhlíon	-11.5114
ml	-11.5114
▁forlíonadh	-11.5116
▁mhara	-11.5118
star	-11.5119
feadh	-11.5121
▁tionsclaíocha	-11.5121
▁Ins	-11.5127
▁fhormheas	-11.5136
▁chumhachta	-11.514
▁BCE	-11.5143
▁ton	-11.5145
▁1950	-11.5154
▁or	-11.516
▁modúl	-11.5164
more	-11.5164
▁Cong	-11.5169
NT	-11.5171
rian	-11.5177
▁Bo	-11.5179
ks	-11.5183
▁Light	-11.519
▁Peso	-11.5196
▁phionós	-11.5197
ófaí	-11.5198
ken	-11.5201
▁teaghais	-11.5202
79	-11.5202
93	-11.5207
▁63	-11.5209
▁mbainfea	-11.5211
▁cóimheas	-11.5214
▁díobhálach	-11.5214
▁Mhí	-11.5215
▁uafásach	-11.5216
▁chomhshó	-11.5217
▁minice	-11.5221
CS	-11.5222
▁bhfostóir	-11.5224
IL	-11.5229
▁gníomhaireacht	-11.5232
▁lionsa	-11.5234
▁mhainn	-11.5234
nu	-11.5237
▁Cláraithe	-11.5237
▁cois	-11.5237
▁Fabraic	-11.5238
▁Soilse	-11.5238
▁Stáisiún	-11.5238
▁breataine	-11.5238
▁priontála	-11.5238
▁rompu	-11.5238
▁sleamhnáin	-11.5238
▁cliniciúil	-11.5238
▁turraing	-11.5238
▁leathanbhanda	-11.5238
▁Chaomhnú	-11.5238
▁gcluichí	-11.5238
▁Comhoibriú	-11.5238
▁mbéal	-11.5238
▁díolachán	-11.5239
▁phunt	-11.5239
▁Deiseanna	-11.5239
▁Hong	-11.5239
▁déiríochta	-11.524
▁bhforas	-11.524
▁bailte	-11.5241
▁1937	-11.5241
▁1947	-11.5241
▁4-6	-11.5241
▁iomaí	-11.5241
▁chríochnaigh	-11.5242
▁Skills	-11.5243
▁optúil	-11.5243
▁phraiticiúil	-11.5243
▁Gearradh	-11.5243
▁Mesa	-11.5244
▁theorainneacha	-11.5244
▁bairille	-11.5245
▁daonlathas	-11.5245
▁bheartaítear	-11.5245
▁sparkl	-11.5245
▁tuirse	-11.5246
▁stocaí	-11.5247
▁Bhearta	-11.5247
▁Bheatha	-11.5247
▁Cúntóirí	-11.5247
▁candy	-11.5247
▁Nike	-11.5248
▁88	-11.5252
▁Fhoras	-11.5252
▁cadás	-11.5253
▁dtithe	-11.5254
▁caipiteal	-11.5255
▁éifeachtúla	-11.5257
music	-11.5258
▁scairchaipiteal	-11.526
▁fút	-11.5263
álacha	-11.5263
▁foraoise	-11.5264
osa	-11.5265
▁BR	-11.5265
▁leathadh	-11.5266
▁Labhair	-11.5266
▁eagrán	-11.5266
▁iarmhairtí	-11.5267
▁aisteach	-11.5267
▁corda	-11.5268
▁chomhaid	-11.527
▁Nasc	-11.5273
RE	-11.5274
▁bhfís	-11.5276
▁béile	-11.5277
▁Action	-11.5278
▁tapaidh	-11.528
Innealtóireachta	-11.5285
▁Bank	-11.5286
ras	-11.5286
▁2008.	-11.5287
innealtóireachta	-11.5287
aontuithe	-11.529
▁deo	-11.5291
▁dochtúirí	-11.5293
San	-11.5293
▁Dragon	-11.5299
aigéad	-11.53
onchúiseamh	-11.5301
▁London	-11.5308
CO	-11.5309
port	-11.5311
▁thur	-11.5316
86	-11.5316
olaíochtaí	-11.532
.00	-11.5333
▁lúb	-11.534
-12	-11.5341
▁iomlánach	-11.5345
croílár	-11.5349
▁úsáideacha	-11.5353
▁cheachta	-11.5355
▁comhlachta	-11.536
▁cos	-11.536
▁bplé	-11.5365
▁Buí	-11.5365
▁km	-11.5373
leibhéal	-11.5376
cl	-11.5376
▁muir	-11.5381
▁geografach	-11.5385
▁cócaireacht	-11.5385
DR	-11.5394
GA	-11.5396
▁macánta	-11.54
▁dhea	-11.5401
▁chrua	-11.5401
▁Bunscoil	-11.5404
▁ceirde	-11.5409
éachtaí	-11.5409
CR	-11.541
▁Bliantúil	-11.541
▁YouTube	-11.541
▁comórtais	-11.541
▁gameplay	-11.541
▁dtarlóidh	-11.541
location	-11.541
▁saothrú	-11.541
▁Ghairmiúil	-11.541
▁eisceachtúla	-11.541
▁mbuiséad	-11.541
▁reiligiún	-11.5411
▁Altranais	-11.5411
▁Finance	-11.5411
▁Fásta	-11.5412
▁caitheadh	-11.5412
▁sruthán	-11.5412
▁rabhadh	-11.5412
▁traein	-11.5413
▁troigh	-11.5413
▁1955	-11.5413
ou	-11.5414
▁truaillithe	-11.5414
▁bpáirtithe	-11.5414
▁horduithe	-11.5414
▁Saothair	-11.5414
▁Scoir	-11.5415
▁tharmligean	-11.5415
▁múnlaithe	-11.5416
fhéach	-11.5416
▁Duais	-11.5417
▁bhrabúis	-11.5417
▁Loingseoireacht	-11.5419
▁fiachais	-11.5419
▁Chóir	-11.5419
▁phósta	-11.542
▁Caol	-11.5421
▁dtalamh	-11.5421
▁Plandaí	-11.5421
▁earcú	-11.5421
▁hoibrithe	-11.5422
▁scáthán	-11.5422
▁abhainn	-11.5423
▁aisghairm	-11.5423
▁páirtaimseartha	-11.5425
▁fóin	-11.5427
▁Tuig	-11.5429
▁Cláraitheoir	-11.5433
▁ghnóthas	-11.5434
TA	-11.5437
▁Iarr	-11.5438
▁This	-11.5439
▁chuspóirí	-11.5444
▁Aonach	-11.5449
▁pras	-11.5449
98	-11.5452
fheithiclí	-11.5454
▁airteagal	-11.5454
▁Fola	-11.5456
▁Plus	-11.5457
▁lámhaigh	-11.5458
▁Mhá	-11.5467
▁sú	-11.5467
och	-11.5468
▁Aims	-11.5475
oundation	-11.5478
stone	-11.5483
ial	-11.5488
oileán	-11.5491
íoch	-11.5495
▁ghlan	-11.5497
▁2010.	-11.5497
▁1991	-11.5501
riachtanach	-11.5503
ficial	-11.5504
▁comhréir	-11.5505
▁Gaelscoil	-11.5508
▁chumarsáid	-11.5509
oga	-11.5519
oe	-11.5521
life	-11.5523
▁gcomhlíonfa	-11.5525
▁bhfíor	-11.5533
▁thuairimí	-11.5536
▁mharcáil	-11.5537
set	-11.5537
▁gcuma	-11.5541
▁slat	-11.5545
▁mhéadaithe	-11.5546
▁chompord	-11.5549
od	-11.5554
mhar	-11.5557
▁dlisteanach	-11.556
▁orgasm	-11.5561
▁fhoirmiú	-11.5562
ance	-11.5562
▁uigeacht	-11.5562
▁Monatóireacht	-11.5566
▁gCoimisinéir	-11.5572
▁neamhbhailí	-11.5577
our	-11.5579
▁iomláin	-11.558
▁achainí	-11.5584
▁stiall	-11.5585
Toirmeasc	-11.5586
▁pacáistithe	-11.5586
▁comhdháil	-11.5586
▁sweetie	-11.5586
▁altranais	-11.5586
▁chliaint	-11.5586
▁sráidbhaile	-11.5586
▁Caife	-11.5586
▁shainmhínítear	-11.5586
▁heels	-11.5586
▁dícháilithe	-11.5586
▁léirmhíniú	-11.5586
▁comhardaithe	-11.5586
ker	-11.5586
▁comhlachas	-11.5586
▁lámhleabhar	-11.5586
▁marcóirí	-11.5586
▁cíche	-11.5586
▁Aragon	-11.5587
▁sannadh	-11.5587
▁Sonraíocht	-11.5587
▁Cultúrtha	-11.5587
▁Leictreachais	-11.5587
▁labhraíonn	-11.5587
56	-11.5587
▁Crystal	-11.5588
▁Móire	-11.5588
▁Uilíoch	-11.5589
▁tOmbudsman	-11.559
mheas	-11.559
▁chruach	-11.559
▁fhéidearthacht	-11.5591
AT	-11.5592
▁chaibidil	-11.5592
ess	-11.5593
▁Lámhleabhar	-11.5593
▁1953	-11.5593
▁fiontraíochta	-11.5594
▁micrea	-11.5594
▁íoslaghdú	-11.5594
▁Chúirteanna	-11.5594
▁chúinsí	-11.5595
▁cupán	-11.5595
Marquette	-11.5597
chúiseanna	-11.5597
dis	-11.5597
▁Industry	-11.5599
▁Laghdú	-11.5599
atek	-11.56
62	-11.56
sen	-11.56
és	-11.56
▁fara	-11.5601
▁iarratasóirí	-11.5605
▁neamhní	-11.5605
ealraíonn	-11.5605
▁cócaireachta	-11.5611
▁Sreang	-11.5612
▁dodhéanta	-11.5614
▁Spáinne	-11.562
▁diapers	-11.562
av	-11.5623
▁brúigh	-11.5627
▁1993	-11.5627
eintitis	-11.5629
ho	-11.5632
▁chaighdeáin	-11.5633
state	-11.5634
léi	-11.5636
▁Léirigh	-11.5636
ena	-11.5638
Me	-11.5644
idirbheart	-11.5646
▁tri	-11.5646
íseal	-11.5648
IC	-11.565
▁teen	-11.5652
▁Su	-11.5653
acaíonn	-11.5655
▁hair	-11.5657
time	-11.5663
asha	-11.5665
▁sub	-11.5665
po	-11.5665
oibríochtaí	-11.5667
field	-11.5667
EA	-11.567
▁hEagraíochta	-11.5672
▁shocr	-11.5672
▁spreagtha	-11.5678
▁únaer	-11.5679
dan	-11.5683
▁chíos	-11.5685
▁oll	-11.5687
▁Meas	-11.569
▁solúbthacht	-11.569
óga	-11.569
▁chomhad	-11.5696
ria	-11.5696
ong	-11.57
▁ST	-11.571
ans	-11.5714
▁Fear	-11.5715
fhreastail	-11.5716
uítear	-11.5719
▁ghéarchéim	-11.572
ec	-11.572
68	-11.572
▁shuí	-11.5725
▁scrúdaithe	-11.5725
▁fe	-11.573
trí	-11.5731
▁Mair	-11.5734
▁nochta	-11.5734
que	-11.5737
▁díospóid	-11.5737
▁chuimsitheach	-11.5743
▁Taispeán	-11.5744
▁Téarma	-11.575
▁dhochtúir	-11.5755
▁rópa	-11.5756
tosaíonn	-11.5759
▁Uile	-11.5759
▁Sasana	-11.5761
aethanta	-11.5761
world	-11.5762
▁Choinbhinsiúin	-11.5764
▁Gheimhridh	-11.5764
▁Slabhra	-11.5764
▁deireanaí	-11.5764
▁díolúintí	-11.5764
▁fíochán	-11.5764
▁platanam	-11.5764
Abrán	-11.5764
▁ildaite	-11.5764
▁Cleachtais	-11.5764
▁Dhírigh	-11.5764
▁cliaint	-11.5764
▁dhualgais	-11.5764
▁gcultúr	-11.5764
▁Lasmuigh	-11.5764
▁páirceála	-11.5764
▁chúitimh	-11.5764
▁mbóthar	-11.5765
▁déileálfar	-11.5765
▁phiocadh	-11.5765
▁neamhdhíreach	-11.5765
▁deonú	-11.5765
▁tsláinte	-11.5765
▁shíneadh	-11.5765
ocsaíd	-11.5765
▁bhéarfaidh	-11.5765
▁sterling	-11.5765
▁céatadán	-11.5765
▁aeráid	-11.5766
▁náisiúin	-11.5766
▁Fuinneog	-11.5766
▁Íoslainn	-11.5766
▁cógaisíochta	-11.5766
▁dtionscal	-11.5766
▁rothair	-11.5767
▁creidimh	-11.5767
▁míosúil	-11.5767
rbh	-11.5768
▁Tu	-11.5769
▁leithscéal	-11.5769
▁rothaí	-11.5769
▁Beartais	-11.5769
▁gcaithfear	-11.577
▁sásra	-11.5774
House	-11.5774
▁pháirc	-11.5776
▁nGrúpa	-11.5777
▁fhormáid	-11.5777
▁bloc	-11.5777
▁dhiúlta	-11.5779
▁daoibh	-11.5779
ita	-11.5779
▁hiompar	-11.5781
▁dúiche	-11.5782
▁mholtaí	-11.5783
ada	-11.5783
▁cáithníní	-11.5786
▁neamhrialta	-11.5788
▁onóir	-11.5789
▁uisceadán	-11.5792
fhoirm	-11.5796
National	-11.5812
▁st	-11.5814
med	-11.5814
ua	-11.5815
▁lia	-11.5819
bhunscoile	-11.5823
fhreagair	-11.5824
▁Os	-11.5834
Police	-11.5836
Caisleán	-11.5836
web	-11.5839
▁fhuaim	-11.5839
Christopher	-11.584
▁Hood	-11.584
▁j	-11.5841
▁Brunettes	-11.5847
▁Plé	-11.585
eolaíocht	-11.5857
oiriúnach	-11.5862
▁Litríocht	-11.5867
▁lann	-11.5867
ang	-11.587
▁gceap	-11.5873
▁Team	-11.5876
▁Great	-11.5883
▁pearsan	-11.5888
▁Sraithe	-11.5896
game	-11.5898
nia	-11.5899
ofar	-11.5901
NI	-11.5903
like	-11.5906
scoil	-11.5907
▁comhachta	-11.5907
▁Ranná	-11.5908
▁99	-11.5908
▁shean	-11.5912
▁chluas	-11.5912
▁Cúig	-11.5913
Uni	-11.5916
oy	-11.592
dy	-11.5921
▁siamsaíocht	-11.5921
▁Fíor	-11.5923
▁himeacht	-11.5923
▁fhuinneog	-11.5931
sha	-11.594
faimid	-11.5944
ráta	-11.5944
▁fiosrú	-11.5946
▁ghairdín	-11.5946
▁lingerie	-11.5946
▁ngéarchéim	-11.5946
▁Trádáil	-11.5946
▁Palace	-11.5946
▁gcaiteachas	-11.5946
▁chorpraithe	-11.5947
▁oibríochtúil	-11.5947
▁crainn	-11.5947
▁hAirí	-11.5947
▁uaithi	-11.5947
▁ardvoltais	-11.5947
▁Vítneam	-11.5947
▁theicniúla	-11.5947
▁forbraíodh	-11.5948
▁Iaráinis	-11.5948
▁shócmhainní	-11.5948
▁phíosa	-11.5949
▁eilimint	-11.5949
▁Albain	-11.5949
▁1938	-11.5949
▁bacainní	-11.595
▁clóite	-11.595
ten	-11.595
▁thuairiscítear	-11.595
▁toilteanach	-11.5951
▁Socraigh	-11.5951
▁sráideanna	-11.5951
▁nítrigine	-11.5952
▁sciar	-11.5952
▁phróifíl	-11.5952
▁Strasbourg	-11.5953
▁allmhairithe	-11.5956
▁10%	-11.5957
▁VEID	-11.5957
▁winter	-11.5957
▁zombies	-11.5958
leas	-11.5959
▁Comhionannas	-11.596
▁iniúchóir	-11.596
▁inniúlacht	-11.5961
▁thionscnaimh	-11.5962
ura	-11.5962
▁bhóthair	-11.5963
▁Buiséad	-11.5965
▁aerárthaí	-11.5966
teach	-11.5967
▁Déanaimid	-11.5967
▁inneachar	-11.5968
▁Srian	-11.5971
▁000	-11.5971
áthas	-11.5972
▁Bóithre	-11.5972
eg	-11.5973
▁imoibriú	-11.5974
horásach	-11.5975
▁Hospital	-11.5976
▁fhocail	-11.5976
▁snáitheanna	-11.5978
▁Nu	-11.5978
▁dhíoltar	-11.5982
fá	-11.5988
▁maithe	-11.5988
ís	-11.5994
▁@3	-11.5994
▁úra	-11.5996
▁hOifig	-11.6
cast	-11.6002
▁can	-11.6002
▁Gníomhaíochtaí	-11.6004
▁Fada	-11.6008
▁1998,	-11.6009
▁leapa	-11.6009
▁Radio	-11.6012
iarrachtaí	-11.6018
pin	-11.6019
ons	-11.602
focal	-11.602
hionann	-11.6021
▁MS	-11.6027
fhir	-11.6028
▁Laghd	-11.6029
cra	-11.6034
▁Institiúidí	-11.6034
▁Tag	-11.6042
▁tinn	-11.6043
▁Aireacht	-11.6048
isc	-11.6067
▁mhair	-11.6069
éir	-11.6069
▁radaíocht	-11.6073
▁fhíor	-11.6077
fish	-11.6077
▁fhoilsithe	-11.6088
▁Iarrta	-11.6089
▁Ardaithe	-11.6094
▁fhreastal	-11.6096
omhrac	-11.6097
her	-11.6098
▁fuil	-11.6101
▁chomhroinnt	-11.6101
▁RA	-11.6102
▁Thrácht	-11.6103
▁choinn	-11.6103
MA	-11.6103
▁ngairm	-11.6105
▁margaíocht	-11.6107
not	-11.6108
▁Friotaíocht	-11.611
▁Chomhlachta	-11.6111
57	-11.6111
▁Pictiúr	-11.6111
▁Téacs	-11.6115
▁cánacha	-11.6115
▁gcatagóir	-11.6117
eitheal	-11.6118
▁Pas	-11.612
▁láithreacht	-11.6123
húnamh	-11.6124
Comhpháirtíochta	-11.6125
▁labhair	-11.6128
▁thig	-11.613
▁préimhe	-11.6131
▁gcomhrá	-11.6131
▁Moscó	-11.6131
▁Soilsiú	-11.6131
▁cadhnaíochta	-11.6131
▁daonlathach	-11.6131
▁maighdean	-11.6131
▁puiblí	-11.6131
▁pósadh	-11.6131
▁tsoláthair	-11.6131
▁Sionainne	-11.6131
billboard	-11.6131
▁Mionsonraí	-11.6131
▁bhfeighil	-11.6131
▁chliniciúil	-11.6131
▁mairteola	-11.6131
▁Stiúrtha	-11.6131
▁tSeanaid	-11.6131
▁baincéireachta	-11.6131
▁Swingers	-11.6132
▁fhisiciúil	-11.6132
▁mheascadh	-11.6132
▁thairgeann	-11.6133
▁ghreamú	-11.6133
▁Ardoideachais	-11.6133
▁sháraíonn	-11.6133
▁sainordú	-11.6134
▁Rothar	-11.6134
▁Spás	-11.6134
▁singil	-11.6134
▁fiontar	-11.6134
▁Spriocdháta	-11.6134
▁péirí	-11.6135
▁Airgeadas	-11.6135
▁fágáil	-11.6135
▁aschuir	-11.6136
▁forlíontaí	-11.6137
mhéid	-11.6138
▁cúigiú	-11.6139
Cnoc	-11.6141
▁coigeartú	-11.6142
▁thoghadh	-11.6145
▁Entertainment	-11.6145
▁SF	-11.6147
▁Teaghlach	-11.6147
▁dinimiciúil	-11.6147
▁ocsaigine	-11.6147
▁fhoras	-11.6149
▁mhionn	-11.6151
porno	-11.6151
▁comhchoiteanna	-11.6154
▁aerfort	-11.6156
▁Museum	-11.6162
mara	-11.6164
▁hoideachas	-11.6166
evan	-11.6169
radio	-11.617
▁chu	-11.6171
▁Review	-11.6172
▁Beall	-11.6174
▁To	-11.6175
aird	-11.6175
▁Cúige	-11.6176
▁easnamh	-11.6178
▁snáithíní	-11.6178
EL	-11.6182
we	-11.6182
oibreacha	-11.6187
▁eispéireas	-11.6189
▁€6	-11.6189
ds	-11.6192
▁mianach	-11.6195
▁próiseálaí	-11.6196
Éire	-11.62
fhaisnéis	-11.6207
iree	-11.6208
tuarascáil	-11.621
Bhí	-11.621
▁donn	-11.6219
▁Bog	-11.6219
▁gráin	-11.6221
▁€5	-11.6225
▁seal	-11.6231
Aontas	-11.6234
▁fu	-11.6246
▁gcuideachtaí	-11.6251
▁Corn	-11.6261
▁lárnacha	-11.6263
81	-11.6263
▁2009,	-11.6264
▁Park	-11.6264
ue	-11.6265
LF	-11.6268
DB	-11.6271
▁Innealtóireacht	-11.6272
▁ríocht	-11.6274
▁IX	-11.6275
▁Rock	-11.6277
▁Bhraithea	-11.6277
▁Grá	-11.6284
▁dtrácht	-11.6284
▁innealtóireacht	-11.6292
▁todóg	-11.6294
▁Grúpaí	-11.6296
▁intuigthe	-11.6298
cs	-11.6301
▁monatóireachta	-11.6306
▁ceannaitheoir	-11.6313
▁shealbhóir	-11.6315
▁theip	-11.6315
ula	-11.6316
▁tuarascála	-11.6319
▁gcúram	-11.632
▁Hervé	-11.632
▁amárach	-11.632
▁chloisteáil	-11.632
▁gcomórtas	-11.632
▁grianchloch	-11.632
▁sceite	-11.632
▁sreinge	-11.632
▁tSiria	-11.632
▁exquisite	-11.632
▁tearmainn	-11.632
▁Sucking	-11.632
▁handjob	-11.632
▁spioradálta	-11.632
▁bPáras	-11.632
▁ticéid	-11.632
▁Bronnadh	-11.632
▁Feicfi	-11.6321
▁Chás	-11.6321
▁fáltais	-11.6321
▁bloic	-11.6321
▁gCóras	-11.6321
▁claonadh	-11.6321
▁Comhairliúcháin	-11.6322
▁Imleabhar	-11.6322
▁1941	-11.6323
▁Chultúir	-11.6323
▁giúmar	-11.6323
▁duilleoga	-11.6323
▁Cobhsaíochta	-11.6325
▁lómhara	-11.6325
▁Talamh	-11.6325
▁scagtha	-11.6325
▁Read	-11.6325
▁fhorordú	-11.6326
mes	-11.6327
▁luafar	-11.6327
▁80%	-11.6328
▁éadaigh	-11.6328
▁Athbhreithnithe	-11.6329
▁Double	-11.633
sport	-11.6331
france	-11.6331
▁feirmeoireachta	-11.6333
▁fíorais	-11.6333
▁earnála	-11.6334
▁síntiús	-11.6334
▁FDA	-11.6336
▁cainteanna	-11.6336
▁bheo	-11.6336
▁gaireas	-11.6337
▁earraigh	-11.6337
▁duaiseanna	-11.6341
▁aontachais	-11.6344
▁cláraitheoir	-11.6346
idís	-11.635
▁shíl	-11.6356
▁Dí	-11.6357
▁Scrúdú	-11.636
▁Brand	-11.6363
▁scaoil	-11.6363
▁Tíre	-11.6364
▁gcearta	-11.6365
bhuirg	-11.6372
▁neamhniú	-11.6373
imeacht	-11.6375
▁thionól	-11.6375
sun	-11.6384
▁húdarás	-11.6385
▁straitéise	-11.6385
▁sholáthraí	-11.6392
▁shainiú	-11.6393
▁TUAIRIM	-11.6394
dal	-11.6395
osaíonn	-11.6398
Royal	-11.6401
▁CC	-11.6403
Má	-11.6407
▁cainníocht	-11.641
SB	-11.641
▁AS	-11.6412
▁SCE	-11.6415
▁fhág	-11.6422
ero	-11.6424
íoctar	-11.6425
▁chuimhne	-11.6431
▁inter	-11.6433
▁chothrom	-11.6433
ban	-11.6436
scríbhneoireacht	-11.6439
▁bp	-11.6442
TC	-11.6445
inne	-11.6446
AB	-11.6448
Gach	-11.6449
fer	-11.6456
sta	-11.6458
tro	-11.6458
▁éin	-11.6465
▁mótar	-11.6471
ex	-11.6474
digital	-11.6477
▁scriosta	-11.6488
saorghluaiseacht	-11.6489
▁meicníocht	-11.649
MS	-11.6493
▁Feidhmeannacht	-11.6493
Gradam	-11.6495
OS	-11.6496
ean	-11.6499
▁fairsing	-11.65
▁67	-11.6503
eallraí	-11.6504
▁buíoch	-11.6511
▁Nádúr	-11.6511
▁Chúram	-11.6512
▁tamaill	-11.6512
▁4)	-11.6512
▁Dhomhanda	-11.6512
▁Laitvia	-11.6512
▁Piguet	-11.6512
▁Deireanach	-11.6512
▁bhronntanas	-11.6512
▁Reatha	-11.6512
▁Thiobra	-11.6512
▁folúntais	-11.6512
▁Eachtraíochta	-11.6512
▁custam	-11.6512
▁bainistithe	-11.6513
▁Dobhair	-11.6513
▁Clibeanna	-11.6513
▁gcodanna	-11.6513
▁Joint	-11.6513
▁ráthaithe	-11.6513
▁dearbhaithe	-11.6513
▁Mullaigh	-11.6513
▁ardluais	-11.6513
▁chumhdach	-11.6513
▁gCeanada	-11.6513
▁shannta	-11.6514
▁Un	-11.6514
▁Lámhach	-11.6514
naigh	-11.6514
▁1957	-11.6514
office	-11.6514
▁gaolta	-11.6514
▁Corporation	-11.6514
▁gcroílár	-11.6515
▁hairíonna	-11.6515
tic	-11.6515
▁1966	-11.6515
▁meon	-11.6515
▁1962	-11.6515
▁Phearsanta	-11.6516
▁Muirear	-11.6517
▁Coistí	-11.6517
▁Leger	-11.6517
▁1931	-11.6517
▁tuath	-11.6517
▁ciorcal	-11.6518
▁Deiridh	-11.6518
▁shlánú	-11.6518
▁tiománaithe	-11.6518
▁Céimeanna	-11.6518
▁Achoimre	-11.6518
▁gcomhlachtaí	-11.6519
▁fan	-11.652
▁ENISA	-11.652
▁póilíní	-11.652
▁hoibriú	-11.652
▁saighdiúirí	-11.652
▁Shanghai	-11.6522
current	-11.6522
▁tairisceana	-11.6523
▁bainfidh	-11.6524
▁caorach	-11.6526
▁muiníneach	-11.6526
▁táibléad	-11.6526
▁bhagairt	-11.6527
▁tIonad	-11.6528
▁Punt	-11.6528
▁fucking	-11.6528
▁cathair	-11.6528
▁1984	-11.6529
▁gunnaí	-11.6529
AG	-11.653
▁finger	-11.653
▁CNCM	-11.653
▁Laser	-11.6532
▁shubstaint	-11.6532
artha	-11.6533
▁Street	-11.6533
NL	-11.6536
▁tuile	-11.6542
▁Teachtaireacht	-11.6543
▁uirbeacha	-11.6544
díolacháin	-11.6547
▁coil	-11.6548
ochta	-11.6552
▁sona	-11.6553
▁Glaca	-11.6553
▁oiriúnacha	-11.6555
▁Aistriú	-11.6556
▁gciste	-11.6556
sk	-11.6559
▁Paris	-11.6559
ual	-11.6569
▁sonraítear	-11.6569
-5	-11.657
doiciméad	-11.6578
andy	-11.6585
▁chiona	-11.6593
val	-11.6594
Daonáirimh	-11.6597
Business	-11.6598
bheag	-11.6598
European	-11.66
ionstraimí	-11.66
▁cúr	-11.6601
▁Schools	-11.6601
bhunscoileanna	-11.6603
▁my	-11.6604
NE	-11.6604
▁pre	-11.6605
Iúil	-11.6605
▁Maisiú	-11.6606
▁dearfacha	-11.6607
az	-11.6611
BA	-11.6616
▁Dark	-11.6617
▁sealadacha	-11.6621
SF	-11.6622
▁abairtí	-11.6622
ay	-11.6629
▁ghnótha	-11.663
▁sócmhainn	-11.6632
▁mBéal	-11.6633
iz	-11.6633
▁PP	-11.6637
▁theastó	-11.6639
▁Will	-11.6642
achar	-11.6649
▁cuibhe	-11.6649
▁Shasana	-11.6654
▁anailíse	-11.6665
▁chosa	-11.6667
▁iomarca	-11.6668
▁eisiata	-11.6682
ler	-11.6689
▁contúirteach	-11.6692
▁Todhchaí	-11.6694
▁gcreat	-11.6696
▁cré	-11.6701
ven	-11.6703
▁dearaí	-11.6704
▁cáis	-11.6704
Variety	-11.6708
▁Dramhaíola	-11.6708
▁Reifrinn	-11.6708
▁gnímh	-11.6708
▁hÚcráine	-11.6708
▁míchuí	-11.6708
fhoillsiú	-11.6708
▁Ceoil	-11.6708
▁VITIM	-11.6708
▁coláiste	-11.6708
▁gradam	-11.6708
▁dhíchur	-11.6708
▁Iarraidh	-11.6708
▁sásúil	-11.6709
▁torainn	-11.6709
▁Tiffany	-11.6709
▁Miontuairiscí	-11.6709
▁rubar	-11.6709
▁thuar	-11.6709
▁súgradh	-11.6709
▁héifeachtúil	-11.6709
▁Iarnróid	-11.671
▁forex	-11.671
▁sainiúil	-11.671
▁toirmiscthe	-11.671
▁coimeádáin	-11.671
▁cumainn	-11.6711
▁héilimh	-11.6711
▁Ghlas	-11.6711
▁chionroinnt	-11.6711
▁Déanfaimid	-11.6712
▁hionaid	-11.6712
▁plúr	-11.6714
▁sainithe	-11.6714
▁chodladh	-11.6714
▁stiallacha	-11.6715
▁Mheitheamh	-11.6716
▁stóras	-11.6716
▁Fás	-11.6716
▁Rugadh	-11.6719
▁gléasadh	-11.6719
▁lagú	-11.672
▁déanach	-11.672
▁uathoibrithe	-11.6721
▁1965	-11.6722
▁sásraí	-11.6724
▁Téip	-11.6724
▁mheánmhéide	-11.6725
▁Barcelona	-11.6725
▁Prótacal	-11.6726
▁Táillí	-11.6726
▁Teens	-11.6727
▁diamonds	-11.6727
ys	-11.6729
▁ngrúpaí	-11.673
▁struchtúracha	-11.673
▁Shocha	-11.6731
▁Cho	-11.6737
▁theas	-11.674
▁Cricket	-11.674
gar	-11.6743
▁ban	-11.6743
▁Cuideachtan	-11.6744
▁innéacs	-11.6744
▁Fiontraíochta	-11.6746
▁bheir	-11.6746
▁oiriúnaithe	-11.6749
hill	-11.675
▁Spins	-11.6754
▁meastóireachta	-11.6756
▁Central	-11.6758
▁ghrád	-11.6759
▁scamall	-11.6759
ea	-11.6767
▁Mála	-11.6767
▁Mon	-11.6767
any	-11.6771
▁73	-11.6771
▁Trump	-11.6772
tas	-11.6773
▁aontaíonn	-11.6774
▁iomaíochas	-11.6778
Tour	-11.678
▁iomaíocha	-11.6784
iomportáil	-11.6788
▁62	-11.6792
▁druga	-11.6793
▁li	-11.6798
▁rialachas	-11.68
cúinsí	-11.68
▁seasmhach	-11.6801
France	-11.6803
iarmhéid	-11.6804
▁aerárthach	-11.6805
han	-11.6814
CT	-11.6818
41	-11.6822
▁Áis	-11.6822
rin	-11.6824
▁cumaisc	-11.6825
▁inmharthana	-11.6828
▁Tug	-11.6828
aonaid	-11.6829
hu	-11.6835
▁speisialtóir	-11.6835
▁dream	-11.6837
choiste	-11.6839
▁linne	-11.6844
▁bainistí	-11.6849
ME	-11.685
▁cothaithe	-11.6854
▁Sampla	-11.6858
▁PA	-11.686
▁gnócha	-11.686
▁Málta	-11.6864
sal	-11.6864
aici	-11.6867
carr	-11.6867
oghachán	-11.6869
aisíoc	-11.6872
láintiúil	-11.688
▁nG	-11.6881
▁Inbhuanaithe	-11.6881
cáin	-11.6883
150	-11.6883
ats	-11.6886
-15	-11.6892
inbhuanaitheacht	-11.6894
▁sconna	-11.6901
oo	-11.6901
▁maighnéadach	-11.6905
band	-11.6906
▁Chultúr	-11.6907
▁inmheánaigh	-11.6908
▁Cúltaca	-11.6908
▁dhíothú	-11.6908
▁Lovers	-11.6908
▁craicinn	-11.6908
▁shaoire	-11.6908
▁chomhaontaithe	-11.6908
▁cumhdaithe	-11.6909
▁Scrúduithe	-11.6909
▁Siria	-11.6909
▁craoladh	-11.6909
▁tuilte	-11.6909
▁gréasán	-11.6909
▁hiarmhairtí	-11.6909
▁míthreorach	-11.6909
▁fearainn	-11.6909
▁Iniúchóirí	-11.6909
▁tuigfear	-11.6909
▁rónta	-11.6909
▁leabharlainne	-11.6909
▁shaothar	-11.691
▁Mhíchumas	-11.691
▁Ceapadh	-11.691
▁báistí	-11.691
rúise	-11.6911
▁teagmhálacha	-11.6911
▁Foirmeacha	-11.6912
▁dteaghlaigh	-11.6912
▁lúide	-11.6912
▁dochreidte	-11.6916
▁fíricí	-11.6916
▁chomhdháil	-11.6916
▁Fórsaí	-11.6917
▁gamers	-11.6918
▁Alternative	-11.6919
▁Aude	-11.692
▁Staff	-11.692
▁countertops	-11.6921
▁toghadh	-11.6921
chomhairliúcháin	-11.6921
▁Ioma	-11.6922
▁mhargaí	-11.6923
▁Buatais	-11.6923
▁brataithe	-11.6924
▁Leantóir	-11.6924
▁1919	-11.6924
▁údaruithe	-11.6925
▁Samhail	-11.6927
▁fhadú	-11.6927
ádh	-11.6929
▁tíolacadh	-11.6929
▁Cúirteanna	-11.693
▁bailithe	-11.6931
▁chinnfear	-11.6931
-20	-11.6931
TE	-11.6933
▁OTI	-11.6934
▁General	-11.6937
▁cinnteoireachta	-11.6937
▁mháistir	-11.6937
thrádála	-11.6941
▁dír	-11.6941
▁bileoga	-11.6943
▁amhábhar	-11.6946
▁aigéid	-11.6947
▁Box	-11.6948
▁mhonaróirí	-11.695
▁LEE	-11.6951
iam	-11.6955
▁tablet	-11.696
▁éifeachtacha	-11.696
▁Chaith	-11.6964
▁fadtéarmacha	-11.697
;”	-11.697
▁athchúrsáil	-11.6972
▁mbaintea	-11.6978
▁iascach	-11.6978
▁Online	-11.6979
▁1,000	-11.6981
áititheoir	-11.6983
lóidh	-11.6989
fheirmeoirí	-11.6999
▁Muir	-11.7
deacair	-11.7002
▁dona	-11.7008
PE	-11.701
éilíonn	-11.7012
▁marcáilte	-11.7018
▁01	-11.7022
oireachta	-11.7025
▁tástálaí	-11.7032
▁ubh	-11.7033
SM	-11.704
lia	-11.7042
▁Cruth	-11.7043
Ho	-11.7044
▁mhéadar	-11.7046
Bo	-11.7048
▁Luach	-11.705
▁Cairt	-11.7054
▁IR	-11.7055
usa	-11.7056
▁Spa	-11.7058
acmhainn	-11.7064
▁brón	-11.7066
Cuir	-11.7066
PL	-11.7067
▁Care	-11.7074
▁Croí	-11.7078
pat	-11.7081
▁comhréireach	-11.7082
▁bhainistíocht	-11.7083
ACH	-11.7084
▁easbhrúite	-11.7086
▁measta	-11.7087
▁comhchoiteann	-11.7087
▁marthanacht	-11.7088
▁uaillmhianach	-11.7088
nua	-11.709
▁bláth	-11.7092
▁chomhartha	-11.7095
▁Feirme	-11.7095
▁Téama	-11.7097
▁ce	-11.71
▁fiáin	-11.71
▁Tithíocht	-11.7102
▁nE	-11.7105
▁inacmhainne	-11.7106
▁Pobal	-11.7109
▁bhfás	-11.711
▁bhfadhb	-11.711
▁éireoidh	-11.7112
▁mhion	-11.7112
▁Mhantáin	-11.7112
▁Mheánmhéide	-11.7112
▁Rochtana	-11.7112
▁Smaoinigh	-11.7112
▁Veisteanna	-11.7112
▁Chronograph	-11.7112
▁Gairdín	-11.7112
▁ghualainn	-11.7112
▁topaic	-11.7112
▁bhronntanais	-11.7113
▁scéil	-11.7113
▁mBallstáit	-11.7113
▁fíocháin	-11.7113
▁Spórt	-11.7113
▁gCumann	-11.7113
▁chaipiteal	-11.7113
▁léarscáileanna	-11.7114
▁man	-11.7114
▁libh	-11.7115
▁seandálaíochta	-11.7115
▁dtabhairt	-11.7115
▁cait	-11.7116
▁Singeapór	-11.7116
▁Atlantaigh	-11.7116
▁priontáil	-11.7116
▁Púdar	-11.7117
▁Teilifíse	-11.7117
▁gile	-11.7118
▁dóchúlacht	-11.7118
▁Nude	-11.7118
▁chaillfidh	-11.7118
▁shínigh	-11.7118
▁Bainistiú	-11.7119
▁bhlianta	-11.7119
▁iarradh	-11.7119
ob	-11.712
▁hoifige	-11.712
▁dteach	-11.712
▁Manchester	-11.7121
▁Fhostaíocht	-11.7121
▁earcaíochta	-11.7121
▁Tógáil	-11.7122
▁CH	-11.7124
▁language	-11.7125
▁Apple	-11.7125
▁gháis	-11.7126
▁Cead	-11.7126
▁Pure	-11.7126
▁chleachtas	-11.7126
▁Muirí	-11.7127
▁lipéadú	-11.7127
▁ciona	-11.7129
▁Crios	-11.7131
▁neamhghnácha	-11.7134
▁chosanta	-11.7135
▁Feisti	-11.7136
▁Chinn	-11.7136
▁Ro	-11.7137
▁scar	-11.7137
ille	-11.7137
▁contúirteacha	-11.7139
▁ortha	-11.714
▁“”	-11.714
▁Nótaí	-11.7141
▁fhís	-11.7146
▁fite	-11.7148
▁theideal	-11.7149
▁éan	-11.715
▁dhéanfa	-11.7153
Aois	-11.7155
▁diúscartha	-11.7159
▁IWC	-11.7161
▁Union	-11.7162
▁EPA	-11.7162
▁2017)	-11.7164
▁pháirtnéir	-11.7164
let	-11.717
▁this	-11.717
▁bhF	-11.7176
SE	-11.7183
▁cuntasach	-11.7185
▁bhainistí	-11.7189
▁line	-11.7191
▁92	-11.7198
▁Programme	-11.7203
FI	-11.7203
▁luachan	-11.7205
Ranníocach	-11.7206
athruithe	-11.7206
op	-11.7209
▁gcontae	-11.7212
▁dóchas	-11.7218
▁feic	-11.7219
▁glao	-11.722
▁Lúthchleas	-11.7221
▁hAon	-11.7222
▁Blacks	-11.7223
phoist	-11.7223
▁Good	-11.7226
▁Law	-11.7234
▁Santa	-11.7237
Ta	-11.7238
▁77	-11.7242
▁chomhall	-11.7244
▁ceangail	-11.7248
▁oibreoir	-11.7249
lfar	-11.7255
▁cuims	-11.7262
éar	-11.7263
▁Áir	-11.7264
mon	-11.7265
▁140	-11.7268
pro	-11.727
▁mhonara	-11.7273
ás	-11.7278
TM	-11.7283
▁High	-11.7283
▁AG	-11.7285
▁Dó	-11.7286
▁eagraíochta	-11.7288
éid	-11.7289
kan	-11.7294
▁díbhinn	-11.7294
▁Language	-11.7295
▁chomhpháirt	-11.7295
▁ateangaireacht	-11.7295
▁urraithe	-11.7295
▁Store	-11.7296
▁nEalaíon	-11.7299
ica	-11.73
▁núicléach	-11.7301
▁Talmhaíocht	-11.7302
▁idirghníomhach	-11.7305
▁fán	-11.7305
▁gcuspóir	-11.7307
▁gcustaiméir	-11.7307
▁príomhchuspóir	-11.7307
▁ciúin	-11.7307
umha	-11.7309
▁tithíocht	-11.7313
▁Chonartha	-11.7314
▁Tae	-11.7315
▁fochuideachta	-11.7316
▁Maoin	-11.7319
▁Bhrasaíl	-11.7321
▁iondúil	-11.7321
▁streachailt	-11.7321
▁suaimhneas	-11.7321
▁Diailigh	-11.7321
▁chistin	-11.7321
▁dtarlódh	-11.7321
▁Thionscail	-11.7321
▁súgartha	-11.7321
▁nuachtlitir	-11.7321
▁anuraidh	-11.7321
▁spriocdhírithe	-11.7321
▁Linbh	-11.7321
▁mhúchadh	-11.7321
▁neamhúdaraithe	-11.7321
▁Bhille	-11.7321
▁Cheathrú	-11.7321
▁bungee	-11.7321
▁Cúramóra	-11.7321
▁Luath	-11.7321
▁ciallmhar	-11.7321
▁Licking	-11.7321
▁bpacáiste	-11.7321
▁shrianadh	-11.7321
▁Rannpháirtíocht	-11.7322
▁cosán	-11.7322
▁saibhreas	-11.7322
▁Garman	-11.7322
PA	-11.7322
▁gcéin	-11.7322
▁gCód	-11.7322
▁deonadh	-11.7322
▁bhfeice	-11.7322
▁cúnta	-11.7322
▁ndán	-11.7323
▁haicmí	-11.7323
▁Sonraíochtaí	-11.7323
▁cothú	-11.7323
Phinsean	-11.7324
▁Aonaid	-11.7324
▁Commission	-11.7324
▁nGaeltacht	-11.7324
rianta	-11.7324
▁Brathadóir	-11.7325
▁Cheanada	-11.7325
usel	-11.7325
▁1908	-11.7326
▁Banphrionsa	-11.7327
▁Cineálacha	-11.7327
▁Leigheas	-11.7327
▁Comharthaí	-11.7327
▁Aifreann	-11.7327
▁prostitutes	-11.7328
▁chomhdhéanamh	-11.7329
▁gcomhlíonfaidh	-11.7329
▁ísliú	-11.7329
▁pants	-11.7331
Medical	-11.7333
▁theipeann	-11.7335
▁Dioplóma	-11.7338
ring	-11.7341
▁Cosnaíonn	-11.7342
íl	-11.7343
▁Shláinte	-11.7343
,000	-11.7345
Gov	-11.7346
▁1922	-11.7347
2,000	-11.7348
▁fabraicí	-11.7349
▁ngníomhaíocht	-11.7353
úsáidfear	-11.7353
▁trádálaithe	-11.7354
▁cholún	-11.7356
príobháideachais	-11.7357
▁iontaobhaí	-11.7357
▁oideas	-11.7359
▁Har	-11.7361
▁68	-11.7361
▁Cartlann	-11.7362
▁réaltacht	-11.7364
▁leá	-11.7365
ky	-11.7366
shi	-11.7366
▁éilítear	-11.7367
aint	-11.7372
▁iontaobhaithe	-11.7374
▁imscrúduithe	-11.7374
▁díon	-11.738
▁iompórtáil	-11.7381
▁scálaí	-11.7386
▁Express	-11.7388
▁bhainistíochta	-11.7388
▁aistríodh	-11.7392
▁We	-11.7393
▁365	-11.7397
oibrí	-11.7397
▁61	-11.7398
oibleagáid	-11.7404
Údarás	-11.7405
oll	-11.7405
600	-11.7415
▁Max	-11.7419
ullmhú	-11.7421
Lakers	-11.7421
▁síochána	-11.7432
fhada	-11.7434
UA	-11.7434
hai	-11.7437
reideann	-11.7439
liocht	-11.744
▁mball	-11.7441
IA	-11.7441
board	-11.7441
-4	-11.7442
nm	-11.7444
▁Cíosa	-11.7446
73	-11.7449
▁fócas	-11.7449
now	-11.7457
Big	-11.7459
▁urscaoilte	-11.746
▁Line	-11.7463
hr	-11.7464
▁Fuaime	-11.7468
51	-11.7471
▁dhéanaí	-11.7471
▁amú	-11.7473
NY	-11.7475
páipéar	-11.7475
▁cent	-11.7483
▁leabharlanna	-11.7486
▁dhoiciméad	-11.7487
▁2007.	-11.7491
Star	-11.7494
gen	-11.75
hoireann	-11.7502
▁su	-11.7505
▁gabhála	-11.7506
CP	-11.7512
▁corparáideach	-11.7513
RO	-11.7516
82	-11.7516
▁Liotuáin	-11.7518
ff	-11.7519
▁Uirlis	-11.7519
▁Óráid	-11.752
▁Ceadúnais	-11.752
▁85	-11.7522
▁dheona	-11.7527
▁Ealaín	-11.7527
▁Luas	-11.7528
céad	-11.753
eur	-11.753
▁Teimpléad	-11.7534
▁Tionscnaimh	-11.7534
▁dtoghchán	-11.7534
▁forfheidhmithe	-11.7534
▁tairní	-11.7534
▁víris	-11.7534
▁Pussy	-11.7534
▁bailchríoch	-11.7534
▁Horny	-11.7534
▁Cheoil	-11.7534
▁makeup	-11.7534
▁árachaithe	-11.7534
▁calafoirt	-11.7534
▁tíleanna	-11.7534
▁caidéal	-11.7534
▁Dinar	-11.7534
▁Cúlra	-11.7534
▁chomhlachais	-11.7534
▁Gréine	-11.7534
▁nuashonraithe	-11.7534
▁Crann	-11.7534
▁iomadúla	-11.7534
▁fhorordófar	-11.7534
▁caingean	-11.7534
▁athbhunú	-11.7534
▁chaitear	-11.7535
▁príosúnaigh	-11.7535
▁téimh	-11.7535
▁reáchtála	-11.7535
▁Breitheamh	-11.7535
▁bhronnadh	-11.7535
▁phaisinéirí	-11.7535
▁GMT	-11.7536
▁gcreideann	-11.7536
▁ciliméadar	-11.7536
▁toitíní	-11.7536
▁gceapadh	-11.7537
▁1954	-11.7537
▁besplatno	-11.7537
▁finné	-11.7537
tion	-11.7538
▁comhpháirtí	-11.7538
▁reoite	-11.7538
▁chomhdú	-11.754
▁ceathrar	-11.7541
▁híocadh	-11.7542
▁leataobh	-11.7542
▁chomhtháite	-11.7543
▁about	-11.7543
órais	-11.7543
▁cistine	-11.7543
▁búcla	-11.7544
▁gaineamh	-11.7544
▁fhionnadh	-11.7545
▁cairdeas	-11.7545
▁Amplifier	-11.7545
▁buaiteoirí	-11.7545
▁eisceacht	-11.7546
▁phacáil	-11.7547
▁ultra	-11.7547
▁eisiúna	-11.7547
inc	-11.7547
▁gairmeacha	-11.7549
▁charbóin	-11.7549
▁phláta	-11.7554
▁Pearl	-11.7554
▁Vegas	-11.7556
▁masc	-11.7557
▁€20	-11.756
▁leithroinnt	-11.7563
▁meaisínithe	-11.7565
▁tóg	-11.7566
▁Commons	-11.7567
▁náisiúntacht	-11.7567
▁Water	-11.7568
▁bhainisteoir	-11.7571
▁meánmhéide	-11.7572
▁sia	-11.7572
▁Láir	-11.7573
▁RSA	-11.7574
▁tuilleamh	-11.7576
▁Measúnachta	-11.7577
34	-11.7577
▁Fáilt	-11.7579
▁saorga	-11.7581
▁Earná	-11.7582
ger	-11.7582
▁Tech	-11.7583
▁forál	-11.7586
▁ithir	-11.759
ez	-11.7592
▁CSE	-11.7592
▁lamháil	-11.7596
▁360	-11.7597
▁moille	-11.7603
▁gabha	-11.7607
▁(3	-11.7609
▁cothrománach	-11.761
▁Déantóir	-11.7611
▁sócmhainne	-11.7612
▁kid	-11.7612
▁Hand	-11.7613
BC	-11.7616
▁chreidmheasa	-11.7618
▁was	-11.762
▁Scríbhneoirí	-11.7624
▁saolré	-11.7625
▁calaois	-11.763
irteagail	-11.763
uestions	-11.7634
íní	-11.7634
▁Open	-11.7635
ionaid	-11.7637
Christian	-11.7641
▁CV	-11.7641
atharú	-11.7642
▁dáilte	-11.7644
▁chumarsáide	-11.7649
aibidle	-11.765
uni	-11.7655
éinne	-11.7656
▁Seacht	-11.7664
As	-11.7669
NBC	-11.767
▁bP	-11.7677
▁laghdaío	-11.7682
RT	-11.7689
inchoigeartaithe	-11.7701
▁Ha	-11.7704
ane	-11.7709
▁96	-11.7712
▁mbunacha	-11.7716
▁scuab	-11.7721
stuithe	-11.7723
▁Food	-11.7723
▁charger	-11.7724
▁sholáthair	-11.7726
sé	-11.7726
▁ru	-11.7727
▁fála	-11.7728
áis	-11.7732
▁próitéin	-11.7733
▁dearthóir	-11.7736
▁chustaiméir	-11.7737
▁bagairt	-11.7738
▁Cuntais	-11.7743
ullmhúchán	-11.7743
▁Conservative	-11.7747
óin	-11.775
▁Thionó	-11.7751
▁Buntáistí	-11.7751
▁Luimneach	-11.7751
▁baictéir	-11.7751
▁gheilleagair	-11.7751
▁hachtacháin	-11.7751
▁thionscal	-11.7751
▁thaispeánann	-11.7751
▁teanntachta	-11.7751
▁dílseacháin	-11.7751
▁bonneagair	-11.7751
▁comhshaol	-11.7751
▁Roghnú	-11.7751
▁Bhulgáir	-11.7751
▁Mheitheal	-11.7751
▁tuillte	-11.7751
▁chaingean	-11.7751
▁monarú	-11.7751
▁phósadh	-11.7752
▁comhlánaithe	-11.7752
▁tseomra	-11.7752
▁gceadaítear	-11.7752
▁fóillíochta	-11.7752
▁háitiúil	-11.7753
Jimmy	-11.7753
▁morgáistí	-11.7753
▁tslándáil	-11.7753
▁toirmisc	-11.7753
▁dhúchais	-11.7754
▁Staitisticí	-11.7754
▁Chóras	-11.7754
▁faireachais	-11.7755
▁tobhaigh	-11.7755
▁gCúirteanna	-11.7755
▁uasal	-11.7755
pt	-11.7756
▁EP	-11.7756
▁ABS	-11.7757
▁Analytics	-11.7757
▁incháinithe	-11.7757
▁dtógáil	-11.7758
▁bhailíocht	-11.7758
▁hA	-11.7758
▁sraithe	-11.7758
▁sleachta	-11.776
▁deartháir	-11.7762
▁thuill	-11.7762
Atógáil	-11.7762
▁mhaoirseachta	-11.7763
▁shlán	-11.7763
▁bhfui	-11.7764
▁Léarscáil	-11.7765
▁chliceáil	-11.7765
▁achmair	-11.7766
Forlíonadh	-11.7766
▁Riar	-11.7768
▁Ru	-11.7769
▁dineadh	-11.7769
▁Ioncam	-11.7769
ithníodh	-11.7771
▁gcáin	-11.7773
▁Magic	-11.7773
▁churaclam	-11.7773
Shéalainne	-11.7773
Nua	-11.7775
▁éadroma	-11.7775
▁Campaign	-11.7781
ting	-11.7786
▁Luachála	-11.7786
lic	-11.7788
▁Rolla	-11.779
▁ardleibhéal	-11.7793
AI	-11.7798
▁pill	-11.78
▁Community	-11.7801
▁críochn	-11.7805
FT	-11.7805
▁Cumhachtaí	-11.7806
▁Ceist	-11.7806
Uasal	-11.7808
PC	-11.781
▁Ligean	-11.7813
Comhchoiste	-11.7814
▁Cille	-11.7815
etpolice	-11.7818
▁79	-11.7819
af	-11.7824
▁gúnaí	-11.783
▁Meaisíní	-11.7832
▁dathú	-11.7834
CM	-11.7836
▁pearsantacht	-11.7836
▁gcríocha	-11.7838
ions	-11.7841
bus	-11.7842
mat	-11.7845
ano	-11.7847
tóirí	-11.7852
▁Blondes	-11.7855
ors	-11.7856
▁1933	-11.786
▁Comhshó	-11.7863
▁125	-11.7865
CBL	-11.7866
scéim	-11.7867
iah	-11.7869
eo	-11.7876
tríú	-11.7879
Leigh	-11.7879
▁Turas	-11.788
▁1.5	-11.7881
▁95	-11.7882
lis	-11.7883
This	-11.7884
▁Scaip	-11.7884
Te	-11.7886
▁Cat	-11.7887
neart	-11.789
▁fheithiclí	-11.7891
bal	-11.7896
▁salann	-11.7898
▁maraíodh	-11.7907
▁gCo	-11.791
tube	-11.7914
▁Glacfai	-11.7914
ell	-11.7919
ánach	-11.7922
▁víreas	-11.7923
")	-11.7927
▁98	-11.7927
▁TD	-11.7931
▁Land	-11.7931
▁Chorparáid	-11.7935
▁Forléir	-11.7937
chúrsa	-11.7938
police	-11.7942
▁iris	-11.7944
▁Ildánach	-11.7947
▁shealadach	-11.7948
cher	-11.795
lan	-11.7951
▁Gaelach	-11.7952
ima	-11.7955
▁líofa	-11.7955
▁Gníomhach	-11.7958
▁Road	-11.7961
▁dóich	-11.7962
chris	-11.7964
▁míshásta	-11.7965
kin	-11.7965
ence	-11.7967
▁Ceangail	-11.7971
éanaimid	-11.7971
▁Shábháil	-11.7971
▁Búcairist	-11.7973
▁Ceanainn	-11.7973
▁Comhtháite	-11.7973
▁Háise	-11.7973
▁McHugh	-11.7973
▁Miotail	-11.7973
▁Máistreás	-11.7973
▁NetEnt	-11.7973
▁Ordanáis	-11.7973
▁Samsung	-11.7973
▁Sceidil	-11.7973
▁shlándáil	-11.7973
▁teicstíle	-11.7973
▁tomhaltóra	-11.7973
▁Asarbaiseáin	-11.7973
▁botúin	-11.7973
▁samhraidh	-11.7973
▁Latex	-11.7973
▁meabhrach	-11.7973
▁Fhilipíneacha	-11.7973
▁bPinsean	-11.7973
▁ndíol	-11.7973
▁Sexy	-11.7973
▁triomaithe	-11.7973
▁uachtair	-11.7973
▁ceimiceáin	-11.7973
▁eisceachtúil	-11.7973
▁Bhuaigh	-11.7974
▁cónascaire	-11.7974
▁gCorcaigh	-11.7974
▁Chóiré	-11.7974
▁capall	-11.7974
▁ODM	-11.7974
▁chumhdaítear	-11.7974
oz	-11.7974
▁fionnuar	-11.7975
▁lóin	-11.7975
▁paisean	-11.7976
▁fóntais	-11.7976
▁tuirseach	-11.7977
▁gcumann	-11.7977
▁shaoirse	-11.7977
▁1929	-11.7978
▁bhainne	-11.7978
▁dtorthaí	-11.7978
▁foghlaimeoirí	-11.7979
▁dtionscadal	-11.7979
▁scaipthe	-11.7979
▁príobháideachta	-11.7979
▁Láithreáin	-11.7979
▁hiad	-11.798
▁gléasta	-11.798
▁Mheicsiceo	-11.7982
▁deimhniúcháin	-11.7983
▁liath	-11.7983
▁Rachai	-11.7984
aka	-11.7984
▁Cartier	-11.7985
▁deannaigh	-11.7986
aidreamh	-11.7986
▁comhairleoirí	-11.7988
▁bagairtí	-11.7988
▁inniúlachta	-11.799
▁chistí	-11.7991
▁hathrú	-11.7991
▁thoir	-11.7992
▁Fheidhmeannacht	-11.7992
▁pháipéir	-11.7995
▁forlíontach	-11.7995
▁thograí	-11.7995
▁phraghsanna	-11.7997
▁app	-11.7998
▁1985	-11.8002
▁aicmiú	-11.8002
▁ealaíontóir	-11.8006
▁Rómhánacha	-11.8007
▁fuinneoga	-11.8009
▁ma	-11.801
Alt	-11.8012
BR	-11.8022
So	-11.8025
▁bhfuilimid	-11.8036
▁Sochair	-11.8038
▁Cuairt	-11.8039
▁infheisteoirí	-11.8041
sy	-11.8041
▁Áiritheoi	-11.8044
ED	-11.8047
óid	-11.8048
▁2003.	-11.8051
lee	-11.8054
Cha	-11.8057
eis	-11.8058
▁PY	-11.8061
▁leachtach	-11.8062
47	-11.8064
oiliúint	-11.8066
FM	-11.8066
DP	-11.8066
scéal	-11.8068
▁USD	-11.807
▁Games	-11.808
▁ceamaraí	-11.8087
▁eagarthóireacht	-11.8087
orduithe	-11.8088
fhostaí	-11.809
▁Comhpháirtíocht	-11.8096
▁Coil	-11.8097
▁cúl	-11.8103
▁Stiúrthóireacht	-11.8104
▁fheic	-11.8112
dr	-11.8113
fhostóirí	-11.8114
ls	-11.8123
lán	-11.8123
▁comhordaithe	-11.813
oc	-11.8134
▁nigh	-11.8136
▁theicneolaíocht	-11.8149
▁Méada	-11.8153
ye	-11.8154
tach	-11.8161
▁aipeanna	-11.8163
▁Sp	-11.8165
town	-11.8169
eodh	-11.8172
▁sheachtrach	-11.8175
▁péint	-11.818
they	-11.8181
▁fógraíocht	-11.8182
▁5000	-11.8186
▁chailín	-11.8187
▁tuisceana	-11.8187
MM	-11.8187
▁leanúnacha	-11.8188
▁chumhachtaí	-11.8193
adóireacht	-11.8196
box	-11.8198
orbhreathnú	-11.82
▁pacáistí	-11.82
▁waist	-11.82
▁Adobe	-11.82
▁claochladáin	-11.82
▁eachtrannaigh	-11.82
▁easnaimh	-11.82
▁mistéireach	-11.82
▁opponents	-11.82
▁práis	-11.82
▁suíochán	-11.82
▁Caillteanas	-11.82
▁lipéid	-11.82
▁thaisteal	-11.82
▁hindíreach	-11.82
▁hardcore	-11.82
▁dhílis	-11.8201
▁comhaontaíodh	-11.8201
▁feabhsuithe	-11.8201
▁bpobail	-11.8201
▁Cheantar	-11.8201
▁Relate	-11.8201
▁díotáil	-11.8201
▁bioráin	-11.8201
▁gcláir	-11.8201
▁OCP	-11.8201
▁cósta	-11.8201
▁geallsealbhóirí	-11.8201
▁Special	-11.8202
▁gcórais	-11.8202
▁Aitheantais	-11.8202
▁formheasta	-11.8202
▁cadáis	-11.8202
▁Gnáth	-11.8202
▁breithiúnais	-11.8203
▁70%	-11.8203
▁seacláide	-11.8203
▁stáitse	-11.8204
back	-11.8204
▁teaglaim	-11.8204
▁sÚil	-11.8204
▁clubanna	-11.8204
▁nuachtáin	-11.8205
▁(13)	-11.8205
▁Clárúcháin	-11.8206
▁Airgeadra	-11.8206
▁Townland	-11.8206
▁múinteoireachta	-11.8207
▁chaipitil	-11.8207
▁leag	-11.8207
▁May	-11.8208
▁creidmheasanna	-11.8208
▁bhileog	-11.821
▁blasta	-11.821
▁beimid	-11.8211
Glactar	-11.8211
▁onnmhairithe	-11.8212
▁rabh	-11.8216
▁Party	-11.8216
▁urraim	-11.8216
▁speisialtóirí	-11.8217
▁Comhlachtaí	-11.8217
▁taisceadh	-11.8217
▁albam	-11.8217
▁óstáin	-11.8217
▁chainníocht	-11.8218
▁léiriúcháin	-11.8218
▁ionsaithe	-11.8218
▁372	-11.8218
▁Anailíseoir	-11.8219
▁Hill	-11.8219
PD	-11.8219
▁Feithiclí	-11.822
▁thrácht	-11.8222
Foireann	-11.8223
▁ritheadh	-11.8224
▁paitinne	-11.8228
▁Dleachta	-11.8228
▁Ti	-11.8231
▁chód	-11.8232
▁róil	-11.8235
ardú	-11.8235
▁ionchais	-11.8235
tan	-11.8236
rich	-11.8236
▁innealtóirí	-11.8236
▁dofheicthe	-11.8237
▁siopadóireachta	-11.8239
ities	-11.8242
▁scéala	-11.8245
idir	-11.8245
▁duitse	-11.8246
4:	-11.8247
óimhéid	-11.8251
eyed	-11.8252
Cruinnithe	-11.8253
ainmhí	-11.8255
uinn	-11.8256
▁ullmha	-11.8257
nta	-11.8262
▁idirghabhálaí	-11.8271
▁dhearbha	-11.8279
ner	-11.8279
lit	-11.828
iste	-11.8284
hilleadh	-11.8287
▁Chathaoirleach	-11.8298
Ionad	-11.8299
▁CNN	-11.8304
▁chaighdeánach	-11.8306
eamar	-11.831
oidhreacht	-11.8314
ize	-11.8314
▁bhanc	-11.8316
▁óil	-11.832
Politics	-11.8321
▁scil	-11.8321
Chomhairle	-11.8323
bby	-11.8323
Watch	-11.8326
Open	-11.8327
▁Berk	-11.8334
chóras	-11.8336
▁FM	-11.8337
▁hinfheistíocht	-11.8343
smaointeoireacht	-11.8346
▁Time	-11.8346
▁vótaíocht	-11.8348
▁dílse	-11.8349
43	-11.8351
▁aíonna	-11.8351
kV	-11.8352
▁Breathn	-11.8355
▁74	-11.8361
▁Deis	-11.8373
▁Léiriú	-11.8378
▁Vi	-11.8379
▁slua	-11.8389
▁ng	-11.8394
▁LM	-11.8398
▁bróg	-11.8398
▁barraí	-11.84
▁stéaróid	-11.8401
▁mín	-11.8401
▁dlítheanach	-11.8408
▁líníocht	-11.8411
mad	-11.8414
éis	-11.8416
▁sicín	-11.8418
▁rothlach	-11.8419
ich	-11.8419
údarú	-11.8423
unding	-11.8424
▁Saint	-11.8425
▁misin	-11.8426
▁Gaeltacht	-11.8426
▁mil	-11.8426
▁Chustaim	-11.8426
▁dhath	-11.8427
▁hairgead	-11.843
▁Cóireála	-11.8432
▁rátála	-11.8432
▁loighic	-11.8433
▁Cúpó	-11.8433
▁Riachtanas	-11.8433
▁hEaglaise	-11.8433
▁machnaimh	-11.8433
▁surely	-11.8433
▁Ngéibheann	-11.8433
▁maireann	-11.8433
▁tsíocháin	-11.8433
▁Dhéanamh	-11.8433
▁Caipitil	-11.8433
▁Pháras	-11.8433
▁feachtais	-11.8433
▁naipcín	-11.8433
▁bhfeithicil	-11.8433
▁Chomhshaoil	-11.8433
▁Míchumais	-11.8434
▁faireacháin	-11.8434
▁sciúradh	-11.8434
▁Chailíní	-11.8434
▁Máithreachais	-11.8434
▁scanadh	-11.8434
▁Oilimpeacha	-11.8434
▁haitheantas	-11.8435
MEX	-11.8435
▁soitheach	-11.8436
▁forbróirí	-11.8436
▁Vest	-11.8436
▁fhéile	-11.8436
▁Lords	-11.8437
▁Ainmnithe	-11.8437
▁suífear	-11.8438
▁gairmithe	-11.8438
mas	-11.8439
▁Stádas	-11.8439
▁téamh	-11.8439
▁Srianta	-11.844
▁stampáil	-11.844
▁Comhaid	-11.8441
ali	-11.8442
▁Rialtóirí	-11.8442
▁Teastaíonn	-11.8442
ever	-11.8443
▁dhílsiú	-11.8443
▁stráice	-11.8443
▁shéala	-11.8443
▁hEolaíochta	-11.8443
▁cóipcheart	-11.8445
▁réamhráite	-11.8445
▁dhiúltaigh	-11.8448
▁léasaí	-11.8449
▁Tógadh	-11.8449
rá	-11.845
▁FBManna	-11.8451
▁Cluas	-11.8451
▁díospóidí	-11.8452
▁Chomhchoiste	-11.8452
▁Dong	-11.8452
▁bhreitheamh	-11.8453
▁Independent	-11.8455
▁dheon	-11.8456
rt	-11.8456
▁SN	-11.8457
stra	-11.8457
rival	-11.8457
▁dT	-11.8457
▁ghloine	-11.8458
▁shealbhóirí	-11.8463
▁Ghnócha	-11.8463
▁1969	-11.8464
▁chine	-11.8468
▁athbheochan	-11.847
▁fhorais	-11.8471
▁ÍMAT	-11.8471
▁umair	-11.8472
rátaí	-11.8472
▁shuíomhanna	-11.8472
▁Lo	-11.8473
▁iarrataí	-11.8477
▁Ardán	-11.8478
▁gcód	-11.8478
achtaí	-11.848
naí	-11.848
▁Intreo	-11.8483
▁Raon	-11.8484
1,000	-11.8484
▁Grád	-11.8488
▁Rialála	-11.8494
teannas	-11.8494
éan	-11.8496
inter	-11.8499
▁rannpháirteacha	-11.8499
eora	-11.8502
▁siombail	-11.8505
▁Luachan	-11.8505
▁gearrthóga	-11.8505
yl	-11.8509
▁báid	-11.851
▁bhrabús	-11.8514
▁Peann	-11.8516
can	-11.8521
iompróir	-11.8522
with	-11.8524
roinn	-11.8525
▁chionta	-11.8525
91	-11.8529
▁2030	-11.8532
▁steroid	-11.8532
▁Liam	-11.8535
▁béilí	-11.8536
qui	-11.8537
mc	-11.8539
FB	-11.854
oirfea	-11.8543
▁guí	-11.8543
ale	-11.8545
▁ligfea	-11.8545
▁89	-11.8545
off	-11.8546
▁corr	-11.8548
▁TC	-11.855
Stiúrthóir	-11.8555
▁ucht	-11.8556
▁ardaigh	-11.8561
fhorchur	-11.8562
▁(4	-11.8568
die	-11.8568
City	-11.8569
▁1932	-11.8574
▁mheastóireacht	-11.8575
onus	-11.8577
▁comhfhiosach	-11.8578
nigh	-11.8578
▁cháilíochta	-11.8582
▁chinntí	-11.8582
▁ionadh	-11.8588
▁mbraithe	-11.8589
▁arrow	-11.859
aiste	-11.8591
▁@0	-11.8591
leachtanna	-11.8594
lar	-11.8595
▁páirte	-11.8597
del	-11.8603
-25	-11.8605
5,000	-11.8609
(5)	-11.861
naithe	-11.8612
ery	-11.8623
▁Guy	-11.8624
teastaíonn	-11.8624
▁litríochta	-11.8627
HC	-11.8631
▁ainmneoi	-11.8632
▁Oirthear	-11.8632
LS	-11.8633
If	-11.8636
▁br	-11.8639
book	-11.8642
oscail	-11.8643
▁Dhigiteach	-11.8644
▁dátheangach	-11.8644
▁baránta	-11.8653
▁dhámhachtain	-11.8656
▁saoráid	-11.8656
chleachtóir	-11.8657
▁gineadóir	-11.8657
arlaíonn	-11.8657
Mag	-11.8657
éin	-11.8659
aki	-11.8661
har	-11.8664
ap	-11.8665
▁Coimeád	-11.8666
▁háireamh	-11.8666
▁inné	-11.8666
▁shuim	-11.8669
▁Adamhach	-11.8671
▁choinníll	-11.8671
▁cosmaidí	-11.8671
▁cuimhnigh	-11.8671
▁pléascadh	-11.8671
▁saoirsí	-11.8671
▁tiomnaithe	-11.8671
▁Bronntanais	-11.8671
▁Choiriúil	-11.8671
▁druileála	-11.8671
▁puzzles	-11.8671
▁dhearfach	-11.8671
▁teileafón	-11.8671
▁2014-2020	-11.8671
▁chomhchuibhiú	-11.8671
▁chartúin	-11.8671
▁bhfostaithe	-11.8671
▁Fhorais	-11.8671
▁clibeanna	-11.8671
▁déanmhais	-11.8672
▁boilg	-11.8672
▁cartán	-11.8672
▁sucks	-11.8672
▁feisirí	-11.8672
▁comhaireamh	-11.8672
▁Thóg	-11.8672
▁Prada	-11.8672
▁shoiléiriú	-11.8672
▁dámhachtana	-11.8673
▁Éisc	-11.8673
▁Daonra	-11.8673
▁OLS	-11.8673
omhdhlúite	-11.8673
▁tionóladh	-11.8673
▁hiontaobhaithe	-11.8673
▁híomhánna	-11.8674
abhar	-11.8674
▁páirtnéir	-11.8674
▁leaisteacha	-11.8674
▁Doiciméad	-11.8675
eoltóirí	-11.8675
▁Alúmanam	-11.8675
▁Dromchla	-11.8675
▁láimhseála	-11.8675
▁Chód	-11.8676
▁Minicíocht	-11.8676
▁1949	-11.8676
▁Science	-11.8676
▁huimhreacha	-11.8676
▁Sheol	-11.8676
▁bhraith	-11.8677
▁marthain	-11.8677
FF	-11.8678
▁bruscar	-11.8678
▁dhlínse	-11.8678
▁Déantúsaíochta	-11.8679
PT	-11.8679
▁Láthair	-11.8681
▁anabalacha	-11.8681
▁stiúrtha	-11.8681
taidhleoireachta	-11.8681
▁héadaí	-11.8682
▁cnaipí	-11.8683
▁Foinse	-11.8684
▁gr	-11.8685
▁ingne	-11.8687
▁Li	-11.8688
▁bhfón	-11.8688
▁urghabháil	-11.8689
▁Young	-11.8689
kh	-11.8691
▁chraoladh	-11.8693
▁Dúnta	-11.8694
▁baintreach	-11.8694
▁aontas	-11.8694
ros	-11.8695
▁réamhscoile	-11.8699
▁cheathrú	-11.8699
Nuashonraithe	-11.8699
mb	-11.87
▁Tweets	-11.87
▁scartha	-11.8701
▁rollaí	-11.8701
▁pianbhreith	-11.8701
▁Mhol	-11.8701
law	-11.8706
rk	-11.8706
III	-11.8707
▁Príobháideacha	-11.8708
▁feidhmiúil	-11.8708
▁CBS	-11.8709
reach	-11.8709
fu	-11.8712
▁cóiríochta	-11.8713
▁Stampa	-11.8713
▁drámaíochta	-11.8716
▁dheiseanna	-11.8719
▁EN	-11.872
project	-11.8722
▁Araibis	-11.8725
HRC	-11.8726
▁cheanglas	-11.8726
thi	-11.8728
▁big	-11.8728
shocruithe	-11.8734
school	-11.8736
astaíochtaí	-11.8737
INR	-11.8739
alex	-11.874
▁táblaí	-11.874
▁Columbia	-11.874
Agus	-11.8745
ren	-11.8747
▁Fógraí	-11.875
LV	-11.8754
▁Se	-11.8754
▁iPad	-11.8758
ck	-11.8759
▁Máil	-11.8764
▁Sórtáil	-11.8767
▁People	-11.877
amhrán	-11.8771
▁Ka	-11.8771
chtaí	-11.8772
▁Porno	-11.8774
john	-11.878
she	-11.8785
▁déantóir	-11.8786
▁chothabhála	-11.8787
stát	-11.8787
AO	-11.8788
▁lódáil	-11.8796
CU	-11.8798
▁pm	-11.8802
Coláiste	-11.8803
▁faireacha	-11.8803
tweetáil	-11.8804
scríbhneoirí	-11.8804
University	-11.8805
fhoráil	-11.8805
mac	-11.8806
achtachán	-11.8806
RG	-11.8813
oibleagáidí	-11.8816
RI	-11.8817
side	-11.8817
▁margadhluach	-11.8825
boy	-11.8829
LE	-11.8833
fhearr	-11.8836
fadh	-11.8839
lite	-11.8842
py	-11.8848
▁iarrfa	-11.885
▁Live	-11.885
úsáideach	-11.8854
▁Mario	-11.8857
▁Tríocha	-11.8861
lac	-11.8865
)—	-11.8865
-3	-11.8867
play	-11.8867
hiailiú	-11.8868
oideachais	-11.8871
▁shín	-11.8871
Seirbhísí	-11.8872
53	-11.8878
▁Taifead	-11.8878
▁ceada	-11.888
ette	-11.8881
Sun	-11.8881
lí	-11.8882
▁ionadaíoch	-11.8885
wi	-11.8887
AA	-11.8887
ub	-11.8888
▁píolótach	-11.8888
LP	-11.8888
▁ingearach	-11.8889
▁Erotic	-11.889
▁gaolmhar	-11.889
green	-11.889
▁práinneach	-11.8891
▁íos	-11.8894
RC	-11.8895
▁uacht	-11.8898
▁Turasóireacht	-11.89
fhiontair	-11.8901
lla	-11.891
ani	-11.891
▁socraíochta	-11.8912
eispéiris	-11.8913
thfhriotail	-11.8915
▁Bhealtaine	-11.8915
▁Dhosmálta	-11.8915
▁Facialized	-11.8915
▁aquarium	-11.8915
▁gcraiceann	-11.8915
▁thabhú	-11.8915
▁Bloomberg	-11.8915
▁homemade	-11.8915
▁brainse	-11.8915
▁1/0	-11.8915
▁ionchuir	-11.8915
▁Riaracháin	-11.8915
▁mheon	-11.8915
▁bhallóide	-11.8915
▁mhodhnuithe	-11.8915
▁tarmligean	-11.8915
▁mBunscoileanna	-11.8915
▁staidreamh	-11.8915
▁fréamhacha	-11.8915
▁líomhnaithe	-11.8915
▁Múinteoireachta	-11.8915
▁Chabhlaigh	-11.8916
▁fíorálainn	-11.8916
▁Cruthaitheach	-11.8916
▁Fairy	-11.8916
▁ghintear	-11.8916
▁Saintréithe	-11.8916
▁Development	-11.8916
▁Guangdong	-11.8917
▁Teagaisc	-11.8917
▁féidearthachtaí	-11.8917
▁Sonic	-11.8917
▁Mé	-11.8917
▁IPv	-11.8918
▁40%	-11.8918
▁chuardaigh	-11.8918
▁feidhmchláir	-11.8919
▁géilleadh	-11.8919
▁choir	-11.8919
▁comhsheasmhacht	-11.892
úchán	-11.892
▁Mu	-11.8921
▁bhailítear	-11.8921
▁brabhsálaí	-11.8921
▁Stáin	-11.8922
▁Síos	-11.8922
▁Rúbal	-11.8922
▁Tascfhórsa	-11.8922
▁Fostaithe	-11.8922
▁foraoiseachta	-11.8923
▁Shine	-11.8925
▁ladhar	-11.8925
▁Wonder	-11.8925
▁hiodrálacha	-11.8925
▁93	-11.8926
▁ghnímh	-11.8927
▁fhionraí	-11.8928
▁DIT	-11.8928
▁phríosúnacht	-11.8929
▁25%	-11.8931
▁Cúiteamh	-11.8933
Airteagail	-11.8934
▁Products	-11.8935
▁1).	-11.8935
▁agallaimh	-11.8936
▁phleanála	-11.8938
ál	-11.8941
▁pills	-11.8943
chomh	-11.8944
▁infhaighteacht	-11.8944
▁dhéanfas	-11.8945
PP	-11.8946
▁Fast	-11.8947
▁rolladh	-11.8948
▁monarchana	-11.8948
▁mbanc	-11.8953
▁próifílí	-11.8956
▁Uair	-11.8956
▁10,000	-11.8962
▁Sport	-11.8963
▁oileáin	-11.8965
▁Leanbh	-11.8966
▁eolach	-11.8967
▁cruthaitheacha	-11.8967
▁Earth	-11.897
▁orgánacha	-11.8975
▁Ra	-11.8976
Press	-11.8976
MX	-11.8977
▁naofa	-11.8977
MT	-11.8979
..../200	-11.8982
▁Leon	-11.8984
pr	-11.8988
dar	-11.8989
liú	-11.8993
▁Mion	-11.8999
▁úd	-11.9
▁Éireannaigh	-11.9001
▁gram	-11.9008
áiste	-11.9009
Be	-11.901
críbhneoireachta	-11.9011
▁dhe	-11.9012
▁haistriú	-11.9014
martin	-11.9019
▁220	-11.902
▁Wall	-11.9021
chomhpháirtíocht	-11.9021
▁Móra	-11.9021
▁Ceathrú	-11.9026
▁roghnói	-11.9026
ship	-11.9027
chas	-11.9027
▁tuig	-11.9029
SH	-11.903
gs	-11.9034
▁TV	-11.9035
SP	-11.9038
▁raca	-11.9044
Bharra	-11.9046
▁bhuan	-11.9049
íogair	-11.905
Custaiméirí	-11.905
From	-11.9053
gcabhair	-11.9053
▁Gairm	-11.9055
Oideachas	-11.9055
Ceathrú	-11.9062
ser	-11.9065
bra	-11.9067
▁bille	-11.9067
▁Or	-11.9069
MI	-11.907
▁Ga	-11.9073
watch	-11.9075
leabhar	-11.908
▁cuairte	-11.9082
ghníomhaíochtaí	-11.9084
úinéirí	-11.9084
▁dtóg	-11.9088
▁maid	-11.911
bheartas	-11.9116
uarthas	-11.9118
▁“(2)	-11.9124
uff	-11.9125
nc	-11.9127
sing	-11.9128
ítimí	-11.9133
▁Sun	-11.9136
uri	-11.9139
▁Rún	-11.914
rachel	-11.914
▁Fe	-11.9144
▁Plaisteach	-11.9144
Aighne	-11.9144
▁Éisteacht	-11.9146
▁ceangailteach	-11.9152
▁Téalainn	-11.9162
▁dídean	-11.9162
▁osclaío	-11.9163
▁cheannaire	-11.9163
▁breoite	-11.9164
áireofar	-11.9165
▁Chaisleán	-11.9165
▁Curaclaim	-11.9165
▁Cúraim	-11.9165
▁Giúdaigh	-11.9165
▁Stáisiúin	-11.9165
▁Sualainnis	-11.9165
▁Timberland	-11.9165
▁buiséid	-11.9165
▁ceadmhach	-11.9165
▁hIarmhí	-11.9165
▁muineál	-11.9165
▁síochánta	-11.9165
▁Póca	-11.9165
▁heisiach	-11.9165
▁soilsithe	-11.9165
▁Fiosrúchán	-11.9165
▁Páipéir	-11.9165
▁Thástá	-11.9165
▁mhothúchánach	-11.9165
▁ANSEO	-11.9165
▁Galway	-11.9165
▁Litir	-11.9165
▁daichead	-11.9165
▁fiaclóireachta	-11.9165
▁ionfhabhtaithe	-11.9165
arúntacht	-11.9165
▁Crown	-11.9165
▁athchúrsála	-11.9165
▁rómánsúil	-11.9165
▁fearchéile	-11.9165
▁Mhaoin	-11.9165
▁aerárthaigh	-11.9165
▁Troid	-11.9165
▁seisear	-11.9165
▁gcósta	-11.9165
▁míbhuntáistí	-11.9166
▁Inaistrithe	-11.9166
▁thráth	-11.9166
▁gaile	-11.9166
▁gcuntar	-11.9166
▁cuimsiú	-11.9166
▁chomhcheangal	-11.9166
▁ndualgas	-11.9166
▁Chórais	-11.9166
▁Paróiste	-11.9167
daily	-11.9167
▁Scáileán	-11.9167
▁léann	-11.9167
▁chlúdaíonn	-11.9168
▁cluichíochta	-11.9169
▁pornovideo	-11.9169
▁uasmhéadú	-11.9169
▁sofaisticiúla	-11.917
▁Aithnítear	-11.917
▁Moladh	-11.917
▁Peile	-11.9171
▁leathán	-11.9172
▁uasteorainn	-11.9173
ator	-11.9173
▁bhéarfar	-11.9173
▁airbheartóidh	-11.9174
▁léitheoirí	-11.9177
▁Bheith	-11.9177
▁Fianaise	-11.9178
▁ghalair	-11.9178
▁Teorainneacha	-11.9178
phointe	-11.9179
has	-11.9179
▁leigheasanna	-11.918
▁mheabhrach	-11.918
▁chuaird	-11.9181
▁áiritheoidh	-11.9181
▁Print	-11.9182
▁Samplaí	-11.9183
▁Tíotáiniam	-11.9183
▁Cairde	-11.9187
▁mhuirí	-11.9187
▁mhuirir	-11.9188
▁PSP	-11.9188
▁dTreoir	-11.9189
▁chúraim	-11.9189
éifeachtaí	-11.9189
▁dheimhnithe	-11.9192
▁Géara	-11.9192
▁luaigh	-11.9193
▁eisceachtaí	-11.9194
▁CLG	-11.9195
▁Rua	-11.9197
▁British	-11.9198
▁eiseofar	-11.9198
▁dún	-11.9202
▁Obs	-11.9203
▁Róimhe	-11.9206
2/	-11.9212
táin	-11.9212
▁Fhoirm	-11.9218
pé	-11.9229
▁dheimhn	-11.9231
RU	-11.9233
▁mbunú	-11.9234
ology	-11.9236
OM	-11.924
coigeartuithe	-11.9241
▁Digital	-11.9243
001	-11.9244
▁Canada	-11.9244
2018	-11.9245
▁Pan	-11.9246
▁aip	-11.9246
▁Sale	-11.9248
▁PET	-11.9251
HUN	-11.9254
▁Scotland	-11.9255
▁cáilitheacha	-11.9255
BE	-11.9256
▁John	-11.926
sco	-11.9264
▁sínío	-11.9272
chur	-11.9273
(6)	-11.9275
imir	-11.9276
airgeann	-11.9276
▁mhéar	-11.9276
▁Togh	-11.928
adam	-11.9283
low	-11.9287
ionn	-11.9287
▁Tharla	-11.929
▁Cóip	-11.9293
Ben	-11.9296
THR	-11.93
▁suibscríobh	-11.93
una	-11.9305
imscrúdú	-11.9307
ful	-11.9315
hl	-11.9319
tigh	-11.932
MO	-11.9324
comhábhar	-11.9326
▁Tom	-11.9332
log	-11.9334
pri	-11.9343
▁gcúl	-11.9345
íomar	-11.9347
▁94	-11.9348
lus	-11.9349
iúscartha	-11.9349
▁hairí	-11.9353
▁Ionstraimí	-11.9356
▁Ring	-11.9357
oibreoirí	-11.9358
▁friotaíochta	-11.937
▁03	-11.9371
▁Cór	-11.9373
ugann	-11.9374
▁Cath	-11.9378
tionscnamh	-11.9379
línte	-11.9383
▁sainiúla	-11.9383
Ha	-11.9387
8/	-11.9391
▁neamhréir	-11.9394
ghníomhartha	-11.9395
nstealladh	-11.9395
▁Soghluaiste	-11.9396
pie	-11.9396
weather	-11.9396
▁Bunúsach	-11.9398
▁ceardlann	-11.9401
▁gcó	-11.9401
▁doimhne	-11.9402
▁cruthaitheacht	-11.9406
▁cosantóir	-11.9407
▁Cuspóir	-11.9407
yu	-11.9407
▁comhlán	-11.9412
▁fhaillí	-11.9412
ju	-11.9414
▁mhonaróir	-11.9415
▁Eastóin	-11.9418
▁allmhairí	-11.942
▁Wood	-11.942
▁pacáil	-11.942
▁comhdhála	-11.9421
phearsanra	-11.9421
▁úrnua	-11.9421
▁curaclaim	-11.9421
▁gcliaint	-11.9421
▁seirbheála	-11.9421
▁tSlóvaic	-11.9421
▁tréigthe	-11.9421
▁Chumhacht	-11.9421
▁Freisin	-11.9421
▁shemale	-11.9421
▁dlúithe	-11.9421
▁meabhrán	-11.9421
▁Aisghabháil	-11.9421
▁sásaimh	-11.9421
▁Mhná	-11.9421
▁cháilithigh	-11.9421
▁mhionsonraithe	-11.9422
riorities	-11.9422
▁cumhdach	-11.9422
▁Sliotán	-11.9422
▁ordacháin	-11.9422
▁gcosaint	-11.9422
▁capaill	-11.9422
▁lárionaid	-11.9422
▁ciorcaid	-11.9422
▁ciorcail	-11.9422
▁heochracha	-11.9422
▁músaem	-11.9423
▁tSamhraidh	-11.9423
▁císte	-11.9423
▁Tánaiste	-11.9424
▁testosterone	-11.9424
▁finnéithe	-11.9424
▁dtagar	-11.9425
▁chirt	-11.9426
▁Bitcoin	-11.9426
▁cigireachta	-11.9426
▁leabaithe	-11.9426
▁Soladach	-11.9427
▁Clúdach	-11.9427
00%	-11.9427
▁1944	-11.9427
▁Men	-11.9428
▁géarchéime	-11.9428
▁Koran	-11.9428
Annual	-11.9428
▁fhostóra	-11.9429
▁ghaolmhara	-11.9429
▁tosca	-11.9429
▁dhréachtú	-11.9429
▁Sandal	-11.9429
▁1928	-11.9429
best	-11.943
▁ceoltóirí	-11.943
▁coiligh	-11.943
▁oibreora	-11.9431
▁glúin	-11.9431
▁Tréimhse	-11.9432
▁eisean	-11.9432
▁aerfoirt	-11.9435
▁leochaileacha	-11.9435
▁hidrigine	-11.9435
▁coireachta	-11.9436
▁amhábhair	-11.9437
▁Fágann	-11.9437
▁dearthóirí	-11.9438
▁Bheag	-11.9439
GE	-11.9439
black	-11.9439
itear	-11.944
▁minicíochta	-11.9441
▁dTeach	-11.9444
▁anailísiú	-11.9445
▁Internet	-11.9445
▁dtaighde	-11.9446
▁Oibríochtaí	-11.9447
▁Danmhairge	-11.9448
▁ndoiciméad	-11.9448
▁hÓglaigh	-11.9448
▁breiseáin	-11.9449
oscailt	-11.9449
▁Kids	-11.945
▁Wi	-11.945
▁éanlaithe	-11.9453
fheithicil	-11.9454
▁Tax	-11.9455
▁dtuairimí	-11.9456
▁fhuil	-11.9456
▁Chead	-11.9456
▁réada	-11.9456
▁choláiste	-11.9457
▁Cl	-11.9458
▁mheáchan	-11.9459
▁gluaiseachtaí	-11.9459
▁meilt	-11.946
▁chíosa	-11.9462
▁About	-11.9464
▁€4	-11.9464
▁cháilithe	-11.9467
▁Sprioc	-11.9467
▁ainmniúchán	-11.9467
▁inléite	-11.9468
▁uachtaránacht	-11.9471
▁imscaradh	-11.9473
pu	-11.9474
▁fhuascailt	-11.9476
▁trédhearcachta	-11.9476
acháin	-11.948
▁teochtaí	-11.9486
▁teo	-11.9486
▁pornofoto	-11.949
▁cobhsaíochta	-11.9492
▁árthach	-11.9493
▁108	-11.9496
2019.	-11.9498
hua	-11.9499
▁brúite	-11.9505
BH	-11.9512
▁tuairisce	-11.9522
▁CT	-11.9522
300	-11.9524
▁ocsaíd	-11.9526
1:	-11.9528
gr	-11.953
▁Pleananna	-11.9531
▁miotal	-11.9531
ionadaí	-11.9532
▁PC	-11.9534
▁cu	-11.9536
homhghuaillíocht	-11.9536
▁Republic	-11.9538
Ka	-11.9538
▁gcabhair	-11.9538
ranníocach	-11.9541
▁Glacfa	-11.9544
▁freagrachta	-11.9544
Bhreitheamh	-11.9547
▁seic	-11.9551
inte	-11.9553
▁Fáil	-11.9554
▁cothromaíochta	-11.9557
▁bhfeirm	-11.9558
itheach	-11.956
▁Sheachtain	-11.9561
▁time	-11.9561
▁thrádála	-11.9562
You	-11.9565
iomláine	-11.9571
bl	-11.9571
▁bhunscoileanna	-11.9571
Our	-11.9572
éagmais	-11.9572
Michael	-11.9573
Chathaoirleach	-11.9573
uirlisí	-11.9573
League	-11.9574
Spáinnis	-11.9574
Pro	-11.9574
▁Grianghraf	-11.9583
enge	-11.9586
fusa	-11.9588
▁€500	-11.9594
old	-11.9594
For	-11.9594
▁scrúd	-11.9594
▁Phlé	-11.9601
gra	-11.9604
ois	-11.9606
Uimhir	-11.9611
rio	-11.9613
frank	-11.9624
▁teoiric	-11.9625
aistriúchán	-11.9626
ose	-11.9627
▁Lady	-11.9628
▁teiripe	-11.9635
áiteanna	-11.9637
▁caighdeánacha	-11.9638
▁Fiche	-11.9638
▁Pu	-11.9639
▁bhfanfa	-11.9642
MH	-11.9644
104	-11.9649
▁fhan	-11.965
ARA	-11.9651
▁86	-11.9655
▁turasóireacht	-11.966
▁Bainistí	-11.9662
7%	-11.9665
▁uachtarach	-11.9666
▁Bus	-11.9668
▁Tiomána	-11.9668
▁scaip	-11.9669
▁iontaoibh	-11.9672
▁cistin	-11.9672
mis	-11.9674
GB	-11.9674
▁Cumarsáid	-11.9678
els	-11.9678
sea	-11.9681
namh	-11.9682
tóra	-11.9683
▁contact	-11.9684
inside	-11.9684
▁sonraíocht	-11.9684
▁Bhóthar	-11.9685
▁Bráisléid	-11.9685
▁Coverall	-11.9685
▁Cúnaimh	-11.9685
▁contrárdha	-11.9685
▁cothroime	-11.9685
▁créatúir	-11.9685
▁úinéara	-11.9685
▁réalaíoch	-11.9685
▁brutal	-11.9685
▁arrachtaigh	-11.9685
▁fisiciúla	-11.9685
▁seimineár	-11.9685
▁Cumshot	-11.9685
▁Fiosrúcháin	-11.9685
▁faofa	-11.9685
▁monaraithe	-11.9685
▁phasfhocal	-11.9685
▁mótarfheithiclí	-11.9685
▁Fhorfheidhmiú	-11.9685
▁mearbhall	-11.9685
▁steiriliú	-11.9685
▁réamhíoctha	-11.9685
▁máguaird	-11.9685
▁thuaithe	-11.9685
▁tháng	-11.9685
▁táscaire	-11.9685
▁chaillteanais	-11.9685
▁cumhráin	-11.9685
▁Laochra	-11.9685
▁troscáin	-11.9685
▁bídeach	-11.9685
▁cófra	-11.9685
▁deonaithe	-11.9685
▁cearrbhachas	-11.9685
channel	-11.9685
▁leathnaithe	-11.9685
▁Iompórtáil	-11.9685
▁Uachtaraí	-11.9686
▁chreideamh	-11.9686
SHENG	-11.9686
▁saineolaí	-11.9686
fhostaíocht	-11.9686
▁tsonraíocht	-11.9686
▁calafort	-11.9686
▁milf	-11.9687
▁ghléasra	-11.9687
▁aoise	-11.9687
▁mhilleadh	-11.9688
▁tráchtaireacht	-11.9688
▁dTiarnaí	-11.9688
▁tréimhsiúil	-11.9689
▁sáraíonn	-11.9689
▁breathable	-11.9689
▁Out	-11.969
▁pribhléidí	-11.969
▁daingniú	-11.9691
▁1948	-11.9692
eagraigh	-11.9692
▁Government	-11.9692
▁líníochtaí	-11.9693
▁ríse	-11.9693
▁Solar	-11.9693
▁Bonn	-11.9693
▁Teen	-11.9695
rimary	-11.9695
▁síoda	-11.9695
▁ndiúlt	-11.9695
▁Impireacht	-11.9696
▁Sábháil	-11.9696
▁slánaithe	-11.9696
▁Caighdeáin	-11.9698
▁fhriotaíocht	-11.9698
▁Babhta	-11.9698
▁thithe	-11.9698
▁Réimse	-11.9698
▁cille	-11.9699
▁Dathanna	-11.9701
ney	-11.9701
▁shamhail	-11.9701
▁Well	-11.9702
▁díbhinní	-11.9703
▁aimsío	-11.9704
▁History	-11.9704
▁stua	-11.9708
▁Pants	-11.9708
master	-11.9708
ew	-11.971
▁Channel	-11.971
▁Western	-11.971
▁Management	-11.971
▁Oirthir	-11.9713
▁thosaíochtaí	-11.9713
▁imréitigh	-11.9714
ANNA	-11.9715
huiscí	-11.9717
▁Philadelphia	-11.9722
▁CMÁ	-11.9722
▁Isteach	-11.9724
▁chabhr	-11.9727
▁uathúla	-11.9727
▁déantóirí	-11.9732
▁Hard	-11.9733
▁Climate	-11.9734
▁Policy	-11.9735
chu	-11.9735
▁hath	-11.9736
1000	-11.9738
▁mholta	-11.9747
▁tocsaineach	-11.9749
ata	-11.9751
FR	-11.9751
▁gComh	-11.9752
▁muc	-11.9752
Pleanáil	-11.9753
▁caighdeánaithe	-11.9754
▁comhpháirteacha	-11.9755
athnaíonn	-11.9757
KG	-11.9758
rdfheidhmíochta	-11.9759
ists	-11.9762
▁cló	-11.9768
jack	-11.977
▁gníomhacha	-11.9772
▁Foils	-11.9773
ray	-11.9774
óis	-11.9777
fhaibhr	-11.9781
▁mis	-11.9782
▁huile	-11.9783
johnson	-11.9784
▁thábhachtacha	-11.9785
▁ghalar	-11.9795
▁GF	-11.9797
▁Sisi	-11.9798
▁acmhainneacht	-11.9798
▁Che	-11.9801
chéim	-11.9815
gre	-11.9815
Report	-11.9816
lay	-11.9816
School	-11.9819
▁Hook	-11.9822
▁laighead	-11.9822
▁creidim	-11.9822
▁chruinn	-11.9831
link	-11.9831
oma	-11.9833
ROS	-11.9837
ghalar	-11.9837
▁Royal	-11.984
ben	-11.9842
People	-11.9843
London	-11.9844
éist	-11.9844
Network	-11.9844
▁SI	-11.9845
▁gluaiseachta	-11.9846
ól	-11.9847
lucht	-11.9847
Share	-11.9849
▁deise	-11.9851
▁ardáin	-11.9858
▁Jo	-11.9858
▁Fuar	-11.9865
áir	-11.987
▁82	-11.9872
▁Origin	-11.9876
▁ráth	-11.9882
nóidh	-11.9882
▁Brabhsá	-11.9884
saor	-11.9884
▁Sóisialach	-11.9885
Gléasanna	-11.9892
CNN	-11.9892
yan	-11.99
▁inimirce	-11.9906
neoidh	-11.9907
itis	-11.9912
erking	-11.9913
business	-11.9914
▁ceannaithe	-11.9918
aincheisteanna	-11.992
▁cháipéis	-11.9924
ainn	-11.9927
LC	-11.9927
▁nÓg	-11.9928
vy	-11.9928
▁fhadtéarmach	-11.9929
▁Sealadach	-11.9929
▁ionchasach	-11.9931
▁Aos	-11.9933
▁Bunreacht	-11.9934
▁Seán	-11.9935
▁greann	-11.9935
Se	-11.9939
▁trucail	-11.994
▁geata	-11.9941
DD	-11.9941
▁Socr	-11.9941
▁híocaíocht	-11.9942
▁buaiteoir	-11.9946
imp	-11.9946
institiúid	-11.9947
▁Róimh	-11.9947
▁insteallta	-11.9948
▁áisiúla	-11.995
▁máithreacha	-11.9952
▁bpríosún	-11.9952
ore	-11.9952
▁ngearán	-11.9953
▁morálta	-11.9955
▁Scoláireachta	-11.9955
library	-11.9955
▁Aontachais	-11.9955
▁Bóthair	-11.9955
▁Caiteachas	-11.9955
▁Ghréasá	-11.9955
▁inmheasúnaithe	-11.9955
▁mhainneachtain	-11.9955
▁miontuairiscí	-11.9955
▁poileistear	-11.9955
▁píobáin	-11.9955
▁reifrinn	-11.9955
▁tadhaill	-11.9955
▁choimirce	-11.9955
▁oighir	-11.9955
realmadrid	-11.9955
▁sláintiúla	-11.9955
▁outfit	-11.9955
▁Expen	-11.9955
▁cloisteáil	-11.9955
▁achtacháin	-11.9955
Do	-11.9955
▁Déileála	-11.9955
▁GUANG	-11.9955
▁fóraim	-11.9955
▁chaibidlíocht	-11.9955
▁teidil	-11.9955
▁Shúchán	-11.9955
▁oibríochtúla	-11.9955
brown	-11.9955
▁substaintiúil	-11.9955
▁claochladán	-11.9955
▁spreagúla	-11.9955
▁órga	-11.9955
▁Comhpháirteanna	-11.9955
▁chaipitiúil	-11.9955
▁thrian	-11.9955
▁sóidiam	-11.9956
▁saotharlainne	-11.9956
▁scriúnna	-11.9956
▁Malartú	-11.9956
▁maisiúcháin	-11.9956
▁Greamaithe	-11.9956
▁hurrúis	-11.9956
▁sreabhach	-11.9956
▁réamhshocraithe	-11.9957
▁hálainn	-11.9957
▁baintrí	-11.9957
▁shocróidh	-11.9957
sports	-11.9957
▁leictreonaí	-11.9957
▁Oibreachais	-11.9958
▁sriantacha	-11.9958
eco	-11.9958
▁trúpaí	-11.9959
▁intleachtúla	-11.9959
▁scaiptear	-11.9959
▁Gluaisteán	-11.9959
dor	-11.996
▁Catar	-11.996
▁robot	-11.9962
▁Cáilithe	-11.9962
▁moms	-11.9962
▁suirbhéanna	-11.9962
▁Shenzhen	-11.9963
▁Nordach	-11.9963
▁cuaille	-11.9963
▁800	-11.9965
▁OPW	-11.9966
▁thraidisiúnta	-11.9969
▁UPS	-11.9969
▁bhliantúla	-11.997
▁dhálaí	-11.9972
▁forghníomhú	-11.9973
▁chobhsaíocht	-11.9973
▁moite	-11.9974
▁iolrú	-11.9975
▁seasca	-11.9975
▁whor	-11.9975
▁ceannaire	-11.9975
▁díospóireachtaí	-11.9976
▁Northern	-11.9978
▁Security	-11.9978
▁fheachtas	-11.9978
▁Dora	-11.9978
film	-11.9978
▁salainn	-11.998
hogadh	-11.998
▁intinne	-11.9986
▁Féilire	-11.9988
▁bhéim	-11.9988
▁anaithnid	-11.9989
▁chlárúcháin	-11.9989
▁Boston	-11.9997
▁cruas	-11.9998
▁fisiceacha	-11.9999
▁Tógála	-12
CBS	-12.0004
iche	-12.0005
▁Australia	-12.0007
ruthaigh	-12.0007
▁Min	-12.0008
▁léine	-12.0008
ste	-12.0014
ville	-12.0018
ming	-12.0018
ghrúpa	-12.0021
▁inchomparáide	-12.0021
▁hidirbhearta	-12.0023
kar	-12.003
ibility	-12.0032
shocraigh	-12.0033
▁éagóir	-12.0034
▁gcigire	-12.0037
iya	-12.0039
▁Cosc	-12.0039
free	-12.0039
des	-12.004
high	-12.0044
▁téad	-12.0044
ós	-12.0046
leoite	-12.0047
heapacháin	-12.0048
▁fíorú	-12.0049
Fi	-12.0049
▁impleachtaí	-12.0053
▁Cinntí	-12.0054
▁Marvel	-12.0055
▁mbaint	-12.0062
áireofaí	-12.0063
▁Murab	-12.0065
▁aiscí	-12.0065
▁sheacht	-12.0067
aistrigh	-12.0067
home	-12.007
uck	-12.007
▁09	-12.007
▁Oibrithe	-12.0085
▁Not	-12.0086
uile	-12.0087
▁fónta	-12.0091
▁all	-12.0091
fíorthábhachtach	-12.0093
▁aistrítear	-12.0093
▁Web	-12.0096
shláinte	-12.0098
▁(1)(	-12.0099
vis	-12.0103
▁@10	-12.0103
▁cuideachtan	-12.0103
▁aonar	-12.0106
▁iniúchóireachta	-12.0107
ries	-12.011
▁BA	-12.011
▁Daonáirimh	-12.0111
▁neodrach	-12.0112
bit	-12.0116
RM	-12.0117
Irish	-12.0117
▁Mart	-12.0118
Johnson	-12.012
ux	-12.012
Scríbhneoirí	-12.0121
iontráil	-12.0121
fhoirgneamh	-12.0122
Global	-12.0122
oil	-12.0124
áid	-12.013
(2)	-12.0132
union	-12.0133
▁Foilsío	-12.0136
tapa	-12.0137
fan	-12.0138
ori	-12.0138
-6	-12.0143
▁ullamh	-12.0145
aschur	-12.0148
▁Amharclann	-12.0151
NG	-12.0156
▁112	-12.016
óimid	-12.0161
SS	-12.0162
▁Wrap	-12.0164
▁back	-12.0166
HA	-12.0169
▁chas	-12.017
aitheamh	-12.0171
▁71	-12.0172
▁dall	-12.018
▁Lion	-12.0192
▁1982	-12.0193
▁bronnta	-12.0196
TL	-12.0203
ordaigh	-12.0206
▁ballraíocht	-12.0208
▁Feidhmíocht	-12.0208
▁hoifig	-12.0214
▁eatramhach	-12.0216
▁ceannródaíoch	-12.0218
▁Lú	-12.0218
▁fachtóir	-12.0218
CB	-12.0219
▁cuairteoir	-12.0221
huile	-12.0221
▁mear	-12.0221
▁1945,	-12.0221
▁Oscail	-12.0222
▁Photo	-12.0223
Con	-12.0224
▁cheamara	-12.0225
ná	-12.0227
ND	-12.0228
teigen	-12.0229
▁Chróit	-12.0229
▁háise	-12.0231
▁saincheist	-12.0232
▁Chumainn	-12.0233
▁bruscair	-12.0233
▁cibearshlándála	-12.0233
▁ciorclach	-12.0233
▁eibhir	-12.0233
▁oisrí	-12.0233
▁seafta	-12.0233
▁fiosruithe	-12.0233
▁haeráide	-12.0233
▁olóige	-12.0233
Baoding	-12.0233
▁Lógó	-12.0233
▁Longfoirt	-12.0233
▁Liostáil	-12.0233
▁áthais	-12.0233
▁brabhsáil	-12.0233
▁bradán	-12.0233
▁comhghleacaithe	-12.0233
▁díothacht	-12.0233
▁scagairí	-12.0233
▁bhfuinneog	-12.0233
▁Foirfe	-12.0233
▁Poker	-12.0233
▁Teorann	-12.0233
▁Teastais	-12.0233
▁Cliste	-12.0233
▁Mhálta	-12.0233
▁Chomhionanna	-12.0233
▁feiniméan	-12.0233
▁Daor	-12.0233
▁chomhaireamh	-12.0233
▁gcruinnithe	-12.0233
▁formheas	-12.0233
▁seachtainiúla	-12.0233
▁laige	-12.0233
▁Thuismitheoirí	-12.0234
▁tharscaoileadh	-12.0234
▁héigeantach	-12.0234
▁fóirsteanach	-12.0234
▁caingne	-12.0234
▁seol	-12.0234
▁nuashonruithe	-12.0235
▁mballa	-12.0235
▁rialaitheora	-12.0235
▁Déag	-12.0235
▁gliú	-12.0236
▁coimeádaithe	-12.0236
▁tsubstaint	-12.0236
▁Maol	-12.0236
▁coinnithe	-12.0237
▁Toradh	-12.0237
▁mbaill	-12.0237
▁Collar	-12.0237
▁scortha	-12.0237
▁hiomláine	-12.0237
▁phacáistiú	-12.0237
▁Abhainn	-12.0237
▁shábháilte	-12.0238
▁Glanadh	-12.0238
▁Cóipcheart	-12.0238
▁Tattoo	-12.0239
▁thaifid	-12.0239
▁Cholm	-12.0239
▁Ceantar	-12.0239
▁gcomhpháirtithe	-12.024
▁Afganastáin	-12.0241
▁grinnscrúdú	-12.0241
▁chistiú	-12.0241
▁Saoránaigh	-12.0241
▁HDPE	-12.0242
▁lamhálfar	-12.0243
fheidhmeanna	-12.0243
ao	-12.0243
▁Margaí	-12.0243
▁ghuth	-12.0244
▁traidisiúin	-12.0244
▁Dearthóir	-12.0244
▁carranna	-12.0245
▁Choimisinéir	-12.0245
▁aclaíochta	-12.0247
▁ceardchumann	-12.0247
▁imthacaí	-12.0248
Jo	-12.0249
▁Liotuáine	-12.0249
▁hathbhreithniú	-12.0249
▁hús	-12.0249
▁díograiseach	-12.0249
▁ailíniú	-12.025
▁Chór	-12.0251
▁hoifigí	-12.0251
▁Virginia	-12.0252
▁Aonta	-12.0252
CI	-12.0253
▁carn	-12.0254
▁Cúnta	-12.0255
▁PL	-12.0255
▁fheabhas	-12.0256
▁thábhacht	-12.0257
▁aighneacht	-12.0258
Tourism	-12.0258
▁lovers	-12.0259
▁sannta	-12.0261
▁Chomhaltaí	-12.0262
▁tionsclaíochta	-12.0262
▁feidhmíonn	-12.0266
▁chéimeanna	-12.0268
dirthréimhseacha	-12.0268
terling	-12.0271
seirbhísí	-12.0271
▁tonn	-12.0274
6%	-12.0274
oill	-12.0276
▁bra	-12.0283
▁shinsearach	-12.0284
▁Sealbhóir	-12.0285
Po	-12.0289
▁Straitéiseacha	-12.0289
▁Athair	-12.0291
▁gceapfa	-12.0293
▁Di	-12.0293
▁airgeadas	-12.0294
▁Academy	-12.0294
Pa	-12.0299
lais	-12.0299
▁lampaí	-12.0301
oon	-12.0305
lon	-12.0312
▁Áireamhá	-12.0312
NWS	-12.0313
ditur	-12.0314
aging	-12.0315
col	-12.0316
▁Cáilíochtaí	-12.0317
▁5%	-12.032
▁lí	-12.0322
Team	-12.0324
work	-12.0325
RD	-12.0333
▁mhaoinithe	-12.0337
▁("	-12.0338
▁cheannas	-12.0339
▁ansan	-12.0339
▁chomhlíon	-12.0343
▁aithris	-12.0344
▁hintinn	-12.0347
▁meath	-12.0349
▁Ró	-12.0353
american	-12.0362
El	-12.0363
America	-12.0367
ris	-12.0369
▁83	-12.0373
▁bpearsa	-12.0373
▁ríthábhachtacha	-12.0374
▁leatsa	-12.0376
uz	-12.0378
rob	-12.0381
INT	-12.0386
Cad	-12.039
lm	-12.0391
▁Fire	-12.0397
HR	-12.0397
hrissy	-12.0397
únaer	-12.0402
tweet	-12.0403
Oileáin	-12.0403
chruthach	-12.0404
Contae	-12.0406
UM	-12.0407
TUAIRIM	-12.0407
rapóirtéir	-12.0408
Cruinniú	-12.0408
FOR	-12.0408
Táirgí	-12.0408
sásta	-12.0408
simplí	-12.0408
ame	-12.0411
rc	-12.0417
phone	-12.0417
éilithe	-12.042
ade	-12.0426
▁Gléas	-12.043
▁Buama	-12.0431
AH	-12.0436
2000	-12.0437
▁hinfheistíochta	-12.0439
ET	-12.0442
▁grinn	-12.045
▁160	-12.045
▁Sine	-12.0457
ithigh	-12.0458
erry	-12.0458
ating	-12.0458
atá	-12.0459
▁argóint	-12.0465
list	-12.0472
ualaí	-12.0474
▁Um	-12.0477
▁them	-12.0478
BS	-12.0479
▁Mag	-12.0481
idi	-12.0484
▁freagartha	-12.0485
ast	-12.0486
stat	-12.0487
250	-12.0488
▁dhúshlá	-12.0489
▁cuimsithe	-12.0491
▁coibhéiseach	-12.0493
▁brunette	-12.0494
▁Choo	-12.0494
)(	-12.0494
▁shaincheist	-12.0496
DS	-12.0498
▁díolta	-12.0498
▁ghnólacht	-12.05
▁armchúirt	-12.05
▁Rialaitheoir	-12.0505
▁cainteoir	-12.0506
smith	-12.0508
▁caoi	-12.0508
Ca	-12.0508
▁sinsearach	-12.0509
▁Bainc	-12.0511
FP	-12.0514
▁PT	-12.0514
▁práinne	-12.0518
▁phearsantacht	-12.0518
▁Shoot	-12.0518
Blancpain	-12.0518
▁BHRÍ	-12.0518
▁Biúró	-12.0518
▁Galvanized	-12.0518
▁Perversion	-12.0518
▁Sóisearaí	-12.0518
▁ceardchumainn	-12.0518
▁dhaonnúil	-12.0518
▁ilchodach	-12.0518
▁tintreach	-12.0518
▁áitreibh	-12.0518
▁lúcháir	-12.0518
▁sráidbhailte	-12.0518
▁Taiwan	-12.0518
▁ardteochta	-12.0518
▁tsaoirse	-12.0518
washington	-12.0518
▁Riosca	-12.0518
▁items	-12.0518
▁nbsp	-12.0518
▁mBinse	-12.0518
▁mballstát	-12.0518
▁tionscnaíodh	-12.0518
▁táthaithe	-12.0518
▁Gaelscolaíochta	-12.0518
▁stoidiaca	-12.0518
▁bpainéal	-12.0518
▁shochar	-12.0518
▁ghluaisteáin	-12.0519
▁choiriúil	-12.0519
▁tsúil	-12.0519
▁smaoinimh	-12.0519
▁Naked	-12.0519
▁daingnithe	-12.0519
▁loighciúil	-12.0519
▁chreidiúnaithe	-12.0519
▁Airméin	-12.0519
▁sláine	-12.0519
▁Troim	-12.0519
▁cruaiche	-12.0519
▁Barrscéalta	-12.0519
▁síocháin	-12.0519
▁thiomsú	-12.052
▁ghníomhairí	-12.052
▁fhilleadh	-12.052
▁dhéileál	-12.052
▁tsaothair	-12.052
▁dtairiscint	-12.052
▁chasadh	-12.0521
▁Comhghairdeas	-12.0522
▁bhunachar	-12.0522
▁Misean	-12.0522
▁léachtaí	-12.0523
▁indiúscartha	-12.0523
▁trádmharcanna	-12.0523
▁feisteas	-12.0523
NC	-12.0523
▁ghearáin	-12.0523
▁riaráistí	-12.0523
▁guaiseacha	-12.0524
▁Máirtín	-12.0525
▁laghduithe	-12.0525
▁Roll	-12.0525
AM	-12.0526
▁bréige	-12.0527
▁fhritháireamh	-12.0527
▁timeless	-12.0527
ding	-12.0527
▁Ranganna	-12.0527
dréachtchinneadh	-12.0527
▁PhD	-12.0527
▁Tester	-12.0528
ski	-12.0528
▁cabhraithe	-12.0528
▁mheabhrú	-12.0529
▁Aquarium	-12.053
▁Tobac	-12.053
ress	-12.053
▁phainéal	-12.053
▁phionósú	-12.053
▁braith	-12.053
▁mínithe	-12.0531
▁dáiltí	-12.0531
▁deirfiúr	-12.0532
íos	-12.0532
▁bhuí	-12.0532
▁Cósta	-12.0532
md	-12.0533
omhlíonann	-12.0533
▁Board	-12.0534
DH	-12.0534
.08.	-12.0534
▁brabúsach	-12.0535
▁loingsiú	-12.0535
▁athshlánú	-12.0536
▁ionchorprú	-12.0536
▁Rómáinis	-12.0537
▁Cloch	-12.0539
▁Justice	-12.054
▁miondíoltóir	-12.054
eagraíonn	-12.054
fin	-12.0541
▁Page	-12.0542
▁chomhfhreagra	-12.0542
▁mbunófar	-12.0543
▁ollscoileanna	-12.0543
▁drámaí	-12.0544
▁babe	-12.0544
▁frásaí	-12.0545
▁0.5	-12.0545
▁ceannaitheoirí	-12.0545
▁dtoll	-12.0546
▁Aoisliúntas	-12.0546
▁Plan	-12.0546
ick	-12.0547
▁Bronnfa	-12.0549
▁Birmingham	-12.0549
▁saillte	-12.055
▁aisíocaíochtaí	-12.0556
▁oidis	-12.0556
huine	-12.0557
tim	-12.0557
hanna	-12.0557
OL	-12.0558
▁bainisteoirí	-12.0559
▁slabhraí	-12.0564
▁ranníocaíochta	-12.0564
▁Reporter	-12.0566
▁bhunaítear	-12.0566
Univ	-12.0566
▁ceadanna	-12.0567
▁monaí	-12.0568
▁gnóthach	-12.0568
▁chumadh	-12.0568
▁“(3	-12.0568
▁Ealaíona	-12.0569
▁éigean	-12.0569
BK	-12.0572
▁Ré	-12.0572
▁Creidim	-12.0573
2-	-12.0579
▁datha	-12.058
▁cl	-12.058
▁Leith	-12.0583
▁aeracha	-12.0589
▁tionóntachta	-12.059
ró	-12.0593
inneallghluaiste	-12.0594
▁dualgaisí	-12.0594
berg	-12.0596
▁gclo	-12.0598
▁Tos	-12.0604
▁Fur	-12.0604
ford	-12.061
▁Ioslam	-12.061
▁sheasta	-12.061
otally	-12.0612
nách	-12.0613
▁diagnóis	-12.0615
AU	-12.0618
▁1918	-12.0619
níos	-12.0619
▁Ardionadaí	-12.062
▁gcaith	-12.0623
▁PU	-12.0627
▁115	-12.0627
▁cool	-12.0631
▁Cigireachta	-12.0634
heng	-12.0636
▁athnuachana	-12.0636
▁rialachais	-12.0638
▁leithéidí	-12.0639
▁ceartais	-12.0639
▁mianta	-12.064
No	-12.0641
123	-12.0642
hen	-12.0644
iontrálacha	-12.0648
Ro	-12.065
▁Ama	-12.0651
▁roghnófa	-12.0651
▁réadach	-12.0656
▁iarrfar	-12.0657
ric	-12.0658
aimh	-12.0659
Eorpach	-12.0663
▁diúlt	-12.0665
tis	-12.0665
▁comhoibrithe	-12.0665
HE	-12.0669
101	-12.067
▁creidiúna	-12.0674
▁€25	-12.0676
osu	-12.0679
▁tionól	-12.0681
heicneolaíochtaí	-12.0688
▁1934	-12.069
soccer	-12.0692
Africa	-12.0694
itheoir	-12.0695
▁rite	-12.0696
Aireachta	-12.0696
India	-12.0699
chúram	-12.0699
(1)(	-12.07
▁84	-12.0701
Fraincis	-12.0701
fhormheas	-12.0701
Daily	-12.0702
Léigh	-12.0702
Féadfaidh	-12.0702
Cuid	-12.0702
▁gCeist	-12.0705
EW	-12.071
fas	-12.071
▁eaglais	-12.0713
▁diana	-12.072
oid	-12.0723
▁bi	-12.0724
los	-12.0729
▁1.2	-12.073
uaireanta	-12.0733
▁port	-12.0734
▁iomarcaíochta	-12.0736
day	-12.0739
▁chríocha	-12.0739
▁Download	-12.074
iarracht	-12.0742
▁March	-12.0745
▁scoilbhlia	-12.0747
▁ghairme	-12.0747
fm	-12.0748
▁foils	-12.0749
▁Pósta	-12.0754
OR	-12.0755
▁cúisí	-12.0756
▁1999,	-12.0757
anann	-12.0759
Chun	-12.076
▁Forála	-12.0761
▁fhir	-12.0762
ui	-12.0764
▁Book	-12.0764
tais	-12.0767
▁Work	-12.0774
gha	-12.0779
▁Stoc	-12.0779
rum	-12.078
▁caomhnaithe	-12.0781
▁eagarthóir	-12.0782
ista	-12.0784
▁fabhrach	-12.0787
▁Provision	-12.0787
▁úsáidí	-12.0787
▁samhlaíocht	-12.0789
▁airgeadraí	-12.0789
▁bod	-12.079
▁Travel	-12.0796
▁mheabhair	-12.0797
▁bialann	-12.0801
▁thacú	-12.0809
▁infheicthe	-12.0812
▁chustaim	-12.0812
▁Pota	-12.0812
▁Fiber	-12.0812
Aimseartha	-12.0812
▁Cóireáil	-12.0812
▁Ejaculation	-12.0812
▁Mharthanaigh	-12.0812
▁Morgáiste	-12.0812
▁PayPal	-12.0812
▁Tobága	-12.0812
▁Tuaiscirt	-12.0812
▁barántúil	-12.0812
▁bholg	-12.0812
▁buidéil	-12.0812
▁choigríche	-12.0812
▁hEarnála	-12.0812
▁hormóin	-12.0812
▁masturbate	-12.0812
▁tairiseach	-12.0812
▁urghnách	-12.0812
▁wifi	-12.0812
▁Craolacháin	-12.0812
▁Status	-12.0812
▁Cotton	-12.0812
▁Lánúin	-12.0812
▁Shamhain	-12.0812
▁Íochtarach	-12.0812
▁Chonaill	-12.0812
▁muince	-12.0812
▁Corcra	-12.0812
▁Séanadh	-12.0812
▁copair	-12.0812
▁fhoriomlán	-12.0813
▁plota	-12.0813
▁phianbhreith	-12.0813
▁Pháistí	-12.0813
▁staonadh	-12.0813
▁snáithithe	-12.0813
▁Thír	-12.0813
▁mairfidh	-12.0813
▁rothlú	-12.0813
▁chrann	-12.0813
▁dlighfear	-12.0813
▁bhreosla	-12.0813
▁mheicníocht	-12.0813
▁réamhamharc	-12.0813
▁Bunaidh	-12.0813
▁Scei	-12.0813
▁comhuaineach	-12.0813
▁gluaisrothar	-12.0813
▁Chomhaontaithe	-12.0813
▁fodhlíthe	-12.0814
▁greim	-12.0814
▁gcistí	-12.0814
▁Lampa	-12.0814
▁hoíche	-12.0814
▁ráthaítear	-12.0814
mmigration	-12.0814
▁normalú	-12.0814
▁ciorrú	-12.0814
▁Iaráin	-12.0814
▁ghlaoch	-12.0814
▁idirghníomhú	-12.0814
▁thábhachtaí	-12.0814
▁páirceanna	-12.0814
▁chomhlánaithe	-12.0815
▁comhthoiliú	-12.0815
▁seoltóir	-12.0815
ave	-12.0815
▁nuachóiriú	-12.0816
▁soláthrófar	-12.0816
▁Breathnaigh	-12.0816
▁clóis	-12.0816
▁dhramhaíl	-12.0817
▁feirmeoir	-12.0817
▁Sholáthar	-12.0818
▁riaráiste	-12.0818
▁VIII	-12.0818
▁Think	-12.0818
▁muirearófar	-12.0818
▁(14)	-12.0818
,000,000	-12.0819
▁droichid	-12.0819
▁soithí	-12.0819
▁nascleanúint	-12.082
▁Léitheoireachta	-12.082
▁Snámha	-12.082
▁marmair	-12.082
▁fairy	-12.0821
▁dtógfa	-12.0821
SU	-12.0821
Dé	-12.0822
▁leithris	-12.0822
▁phictiúr	-12.0823
▁tonnta	-12.0823
▁rianúil	-12.0824
▁imeartha	-12.0824
▁Máthair	-12.0824
▁Urlár	-12.0824
▁90%	-12.0825
▁ceartúcháin	-12.0826
▁ardcháilíochta	-12.0827
▁crafted	-12.0828
▁seachtó	-12.0828
▁Iascach	-12.0829
▁leabhrán	-12.0829
▁Ardchaighdeán	-12.083
▁liteartha	-12.083
-50	-12.083
▁fa	-12.0831
▁ndeir	-12.0833
▁Aistrithe	-12.0833
▁bhlianacht	-12.0833
▁roghnach	-12.0834
▁Chicago	-12.0834
▁máinliachta	-12.0835
sis	-12.0835
▁Chinneadh	-12.0839
-100	-12.084
blot	-12.0841
▁céimithe	-12.0842
▁beartaíodh	-12.0843
read	-12.0843
▁BTE	-12.0844
▁Airport	-12.0845
▁eitlíochta	-12.0845
▁101	-12.0846
▁chonarthaí	-12.0846
▁Eoin	-12.0847
eintiteas	-12.0847
▁chruthaitheacht	-12.0847
horchur	-12.0849
▁easpórtála	-12.0851
▁éileoidh	-12.0851
▁under	-12.0855
▁toiliúil	-12.0856
▁dhearcadh	-12.086
úlacht	-12.086
▁airleacan	-12.0863
▁Tháirg	-12.0863
mura	-12.0864
▁phrionsabail	-12.0865
▁Breis	-12.0867
▁measúnachtaí	-12.0868
▁Guardian	-12.0868
▁GO	-12.0869
rath	-12.0869
Eagraíochtaí	-12.0873
.5%	-12.0876
▁Link	-12.0876
cu	-12.0877
▁rannchuid	-12.0878
Ma	-12.0879
▁Geall	-12.088
céasadh	-12.088
SW	-12.0881
▁díoladh	-12.0882
aoin	-12.0882
▁thosói	-12.0884
▁shaor	-12.0884
2.5	-12.0885
2013	-12.0891
▁agóidí	-12.0891
▁Craobh	-12.0892
▁On	-12.0893
He	-12.0895
omhpháirtíochtaí	-12.0903
ING	-12.0905
mont	-12.0907
MD	-12.0907
UT	-12.0911
ized	-12.0914
▁iarrthach	-12.0919
▁Children	-12.0924
eng	-12.0924
mill	-12.0924
Li	-12.0925
▁Tri	-12.0928
▁unsa	-12.0931
dlí	-12.0932
▁para	-12.0933
▁Cunt	-12.0938
rail	-12.0945
▁Saill	-12.0948
▁gal	-12.095
bot	-12.095
▁choinbhleacht	-12.0952
uirthi	-12.0953
coin	-12.0961
aontú	-12.0962
▁Ádh	-12.0963
aca	-12.0964
▁Mont	-12.0965
▁tionóisc	-12.0969
2016	-12.0971
pc	-12.0972
▁ndéana	-12.0973
▁Eli	-12.0975
éireo	-12.0976
Gain	-12.0978
ult	-12.098
TH	-12.0986
▁éilitheoir	-12.0987
Lee	-12.0988
liúntas	-12.099
maid	-12.099
ward	-12.0991
▁si	-12.0992
pháirtí	-12.0992
▁IS	-12.0993
Daltaí	-12.0995
google	-12.0996
van	-12.0997
imis	-12.1
Eoraip	-12.1001
Kensington	-12.1004
siombail	-12.1004
Casino	-12.1005
Tuarascáil	-12.1005
Bille	-12.1007
anam	-12.1007
▁TUA	-12.1008
Grúpa	-12.1012
▁Léirithe	-12.1019
▁tionóntacht	-12.1021
▁Cló	-12.1023
new	-12.1027
▁leamh	-12.1028
úsáide	-12.1028
MG	-12.103
ious	-12.1031
GH	-12.1032
▁laghdófa	-12.1035
▁choiscf	-12.1036
kt	-12.1037
design	-12.1039
Oifigigh	-12.104
uíodh	-12.1042
▁mód	-12.1042
▁(19	-12.1051
als	-12.1052
eannteidil	-12.1052
léiriú	-12.1054
▁ailtireacht	-12.1056
oifigí	-12.1057
▁mblian	-12.1057
Páirtithe	-12.1059
gus	-12.106
▁Custom	-12.1062
teocht	-12.1062
▁feicfi	-12.1065
ofheicthe	-12.1065
▁Chreat	-12.1069
▁léitheoireacht	-12.1075
Achtanna	-12.1084
▁nuálaíoch	-12.1084
▁cluas	-12.1086
▁Neamhspleách	-12.1087
end	-12.1087
▁Cócaireacht	-12.1089
▁fhisiceach	-12.1089
uga	-12.109
▁calaoiseach	-12.1091
ili	-12.1091
▁dúchasach	-12.1092
▁leithleach	-12.1095
▁Daniel	-12.1095
ueen	-12.1095
Chomhpháirtíocht	-12.1095
▁1997,	-12.1096
▁Tig	-12.1097
▁loch	-12.1099
▁léitheoir	-12.11
▁GB	-12.1102
▁Pléi	-12.1104
▁Product	-12.1105
TUAR	-12.1105
▁1916.	-12.1106
▁trua	-12.1112
had	-12.1113
CN	-12.1113
▁€7	-12.1114
ings	-12.1114
▁díreacha	-12.1114
▁Alemanni	-12.1115
neamhchorpraithe	-12.1115
▁Níolón	-12.1115
▁aeistéitiúil	-12.1115
▁clasp	-12.1115
▁cuimhin	-12.1115
▁cutwork	-12.1115
▁ghealltanas	-12.1115
▁iompú	-12.1115
▁mheicniúil	-12.1115
▁ndéileáil	-12.1115
▁perversion	-12.1115
▁praghsá	-12.1115
▁tSlóivéin	-12.1115
▁Buiséid	-12.1115
▁Microgaming	-12.1115
▁Pioc	-12.1115
▁cravings	-12.1115
▁Cyber	-12.1115
▁Insamhlóir	-12.1115
▁dtiomantas	-12.1115
▁Nigéir	-12.1115
▁printíseachta	-12.1115
▁iTunes	-12.1115
▁shíor	-12.1116
▁thrasnú	-12.1116
▁comhchuibhithe	-12.1116
▁virginity	-12.1116
▁Polainne	-12.1116
▁shimpliú	-12.1116
▁vótálfaidh	-12.1116
▁fhráma	-12.1116
▁chatalóg	-12.1116
▁cuimhneacháin	-12.1116
▁gcliant	-12.1116
▁falsa	-12.1116
▁gcaingean	-12.1116
▁urlabhra	-12.1116
▁fheabhsaíonn	-12.1116
▁mháithreachais	-12.1116
▁coigeartaithe	-12.1116
▁measúnuithe	-12.1116
▁Imirce	-12.1116
▁chéatadán	-12.1116
▁haighneachtaí	-12.1116
tin	-12.1117
▁báire	-12.1117
▁réimeas	-12.1117
▁CAO	-12.1117
▁comhthreomhar	-12.1117
▁ghineann	-12.1117
▁maignéisiam	-12.1117
▁áineasa	-12.1117
▁Grey	-12.1118
▁dtréimhsí	-12.1118
▁Choimeád	-12.1118
▁comhdhúile	-12.1118
▁Sonraigh	-12.1119
▁gcinntí	-12.1119
▁Statistics	-12.1119
Art	-12.1119
▁Calaois	-12.112
▁dinnéar	-12.1121
▁Gairmiúil	-12.1121
▁feirmeacha	-12.1121
▁socrúcháin	-12.1122
▁dearbhuithe	-12.1122
Live	-12.1122
▁phaitinn	-12.1122
▁Saoil	-12.1123
▁daonnúil	-12.1124
▁Tuairisceán	-12.1124
bhuíoch	-12.1125
maité	-12.1125
▁nochtann	-12.1125
▁Ríomhphost	-12.1125
álta	-12.1125
▁UCD	-12.1126
▁15%	-12.1127
▁Iontrála	-12.1128
▁fhoirgniú	-12.1128
▁Interactive	-12.1128
▁Nobel	-12.1128
▁Clóbhuailte	-12.1128
▁EPSO	-12.1128
▁loves	-12.1128
AW	-12.113
▁fíonchaor	-12.113
▁Liath	-12.1131
▁tarraingteacht	-12.1131
▁exchange	-12.1131
▁ceilte	-12.1132
▁caomhnóir	-12.1133
over	-12.1134
▁ceirmeacha	-12.1134
▁bhreá	-12.1134
▁chomhábhair	-12.1136
▁3:	-12.1137
Min	-12.1138
▁Voice	-12.1138
▁Chonaic	-12.1139
▁mhais	-12.114
▁úrscéal	-12.1142
▁Scála	-12.1142
▁cothromais	-12.1142
▁Sc	-12.1143
▁Gray	-12.1145
abhrú	-12.1147
▁Ghorta	-12.1148
▁giotán	-12.1148
▁seánraí	-12.115
▁LIFE	-12.1152
▁planda	-12.1152
▁idirghníomhacha	-12.1153
dian	-12.1154
▁MBT	-12.1155
rn	-12.1157
▁inaistrithe	-12.1157
▁Monatóireachta	-12.116
aoil	-12.1162
▁Dheis	-12.1163
▁Foirgnimh	-12.1166
▁fheistiú	-12.1167
gníomhartha	-12.1167
ory	-12.1169
▁Cross	-12.1169
ves	-12.1169
▁Síneadh	-12.117
▁Ban	-12.1171
▁mheall	-12.1172
ige	-12.1174
▁Fairí	-12.1175
lainn	-12.1177
▁ailtireachta	-12.1177
▁Thiarna	-12.1181
▁mhaoine	-12.1181
▁iomarcacha	-12.1182
oinnibh	-12.1184
uigh	-12.1185
▁Bronnta	-12.1186
bre	-12.1186
Ke	-12.1189
▁1500	-12.1191
▁Word	-12.1192
íon	-12.1192
▁290	-12.1194
eárd	-12.1194
▁Bear	-12.1195
Social	-12.1195
▁Cinnteoi	-12.1197
▁nicil	-12.1198
laí	-12.1199
▁Eagrá	-12.1199
beifear	-12.1202
▁Áite	-12.1204
mom	-12.1205
Pleananna	-12.1205
eascair	-12.1206
eanglais	-12.1206
▁dhéanta	-12.1207
▁lom	-12.1207
▁bhunadh	-12.1218
▁NI	-12.1224
▁bead	-12.1225
COMHAIRLE	-12.1225
▁Ceartas	-12.1226
▁stró	-12.1228
▁gha	-12.123
nes	-12.1233
▁Clib	-12.1236
fast	-12.1239
DT	-12.124
tai	-12.1244
▁iompróir	-12.1246
▁05	-12.1248
fox	-12.125
BM	-12.1251
▁Arán	-12.1251
▁81	-12.1255
▁deasc	-12.1256
laíochta	-12.1256
000	-12.1257
▁leordhóthanacha	-12.1257
david	-12.1257
logtha	-12.1259
▁Freagraí	-12.126
▁altra	-12.126
▁neamhghníomh	-12.1265
▁AT	-12.1268
chuideachta	-12.1268
▁Déar	-12.1271
▁ro	-12.1271
▁€5,000	-12.1275
▁BAI	-12.1278
▁DEIS	-12.1281
xx	-12.1285
▁comhacht	-12.1286
AV	-12.1294
▁bréag	-12.1295
▁Maya	-12.1297
ify	-12.1298
Music	-12.1302
▁cor	-12.1302
▁2016/	-12.1303
▁dhlúth	-12.1305
tuaisceart	-12.131
éilimh	-12.1314
tocsaineach	-12.1316
Marvel	-12.1316
[...]
