{
  "version": "1.0",
  "truncation": null,
  "padding": null,
  "added_tokens": [
    {
      "id": 0,
      "content": "[UNK]",
      "single_word": false,
      "lstrip": false,
      "rstrip": false,
      "normalized": false,
      "special": true
    },
    {
      "id": 1,
      "content": "[CLS]",
      "single_word": false,
      "lstrip": false,
      "rstrip": false,
      "normalized": false,
      "special": true
    },
    {
      "id": 2,
      "content": "[SEP]",
      "single_word": false,
      "lstrip": false,
      "rstrip": false,
      "normalized": false,
      "special": true
    },
    {
      "id": 3,
      "content": "[PAD]",
      "single_word": false,
      "lstrip": false,
      "rstrip": false,
      "normalized": false,
      "special": true
    },
    {
      "id": 4,
      "content": "[MASK]",
      "single_word": false,
      "lstrip": false,
      "rstrip": false,
      "normalized": false,
      "special": true
    }
  ],
  "normalizer": null,
  "pre_tokenizer": {
    "type": "ByteLevel",
    "add_prefix_space": true,
    "trim_offsets": true,
    "use_regex": true
  },
  "post_processor": {
    "type": "ByteLevel",
    "add_prefix_space": true,
    "trim_offsets": true,
    "use_regex": true
  },
  "decoder": {
    "type": "ByteLevel",
    "add_prefix_space": true,
    "trim_offsets": true,
    "use_regex": true
  },
  "model": {
    "type": "BPE",
    "dropout": null,
    "unk_token": null,
    "continuing_subword_prefix": null,
    "end_of_word_suffix": null,
    "fuse_unk": false,
    "byte_fallback": false,
    "ignore_merges": false,
    "vocab": {
      "[UNK]": 0,
      "[CLS]": 1,
      "[SEP]": 2,
      "[PAD]": 3,
      "[MASK]": 4,
      "!": 5,
      "\"": 6,
      "#": 7,
      "$": 8,
      "%": 9,
      "&": 10,
      "'": 11,
      "(": 12,
      ")": 13,
      "*": 14,
      "+": 15,
      ",": 16,
      "-": 17,
      ".": 18,
      "/": 19,
      "0": 20,
      "1": 21,
      "2": 22,
      "3": 23,
      "4": 24,
      "5": 25,
      "6": 26,
      "7": 27,
      "8": 28,
      "9": 29,
      ":": 30,
      ";": 31,
      "<": 32,
      "=": 33,
      ">": 34,
      "?": 35,
      "@": 36,
      "A": 37,
      "B": 38,
      "C": 39,
      "D": 40,
      "E": 41,
      "F": 42,
      "G": 43,
      "H": 44,
      "I": 45,
      "J": 46,
      "K": 47,
      "L": 48,
      "M": 49,
      "N": 50,
      "O": 51,
      "P": 52,
      "Q": 53,
      "R": 54,
      "S": 55,
      "T": 56,
      "U": 57,
      "V": 58,
      "W": 59,
      "X": 60,
      "Y": 61,
      "Z": 62,
      "[": 63,
      "\\": 64,
      "]": 65,
      "^": 66,
      "_": 67,
      "`": 68,
      "a": 69,
      "b": 70,
      "c": 71,
      "d": 72,
      "e": 73,
      "f": 74,
      "g": 75,
      "h": 76,
      "i": 77,
      "j": 78,
      "k": 79,
      "l": 80,
      "m": 81,
      "n": 82,
      "o": 83,
      "p": 84,
      "q": 85,
      "r": 86,
      "s": 87,
      "t": 88,
      "u": 89,
      "v": 90,
      "w": 91,
      "x": 92,
      "y": 93,
      "z": 94,
      "{": 95,
      "|": 96,
      "}": 97,
      "~": 98,
      "¡": 99,
      "¢": 100,
      "£": 101,
      "¤": 102,
      "¥": 103,
      "¦": 104,
      "§": 105,
      "¨": 106,
      "©": 107,
      "ª": 108,
      "«": 109,
      "¬": 110,
      "®": 111,
      "¯": 112,
      "°": 113,
      "±": 114,
      "²": 115,
      "³": 116,
      "´": 117,
      "µ": 118,
      "¶": 119,
      "·": 120,
      "¸": 121,
      "¹": 122,
      "º": 123,
      "»": 124,
      "¼": 125,
      "½": 126,
      "¾": 127,
      "¿": 128,
      "À": 129,
      "Á": 130,
      "Â": 131,
      "Ã": 132,
      "Ä": 133,
      "Å": 134,
      "Æ": 135,
      "Ç": 136,
      "È": 137,
      "É": 138,
      "Ê": 139,
      "Ë": 140,
      "Ì": 141,
      "Í": 142,
      "Î": 143,
      "Ï": 144,
      "Ð": 145,
      "Ñ": 146,
      "Ò": 147,
      "Ó": 148,
      "Ô": 149,
      "Õ": 150,
      "Ö": 151,
      "×": 152,
      "Ø": 153,
      "Ù": 154,
      "Ú": 155,
      "Û": 156,
      "Ü": 157,
      "Ý": 158,
      "Þ": 159,
      "ß": 160,
      "à": 161,
      "á": 162,
      "â": 163,
      "ã": 164,
      "ä": 165,
      "å": 166,
      "æ": 167,
      "ç": 168,
      "è": 169,
      "é": 170,
      "ê": 171,
      "ë": 172,
      "ì": 173,
      "í": 174,
      "î": 175,
      "ï": 176,
      "ð": 177,
      "ñ": 178,
      "ò": 179,
      "ó": 180,
      "ô": 181,
      "õ": 182,
      "ö": 183,
      "÷": 184,
      "ø": 185,
      "ù": 186,
      "ú": 187,
      "û": 188,
      "ü": 189,
      "ý": 190,
      "þ": 191,
      "ÿ": 192,
      "Ā": 193,
      "ā": 194,
      "Ă": 195,
      "ă": 196,
      "Ą": 197,
      "ą": 198,
      "Ć": 199,
      "ć": 200,
      "Ĉ": 201,
      "ĉ": 202,
      "Ċ": 203,
      "ċ": 204,
      "Č": 205,
      "č": 206,
      "Ď": 207,
      "ď": 208,
      "Đ": 209,
      "đ": 210,
      "Ē": 211,
      "ē": 212,
      "Ĕ": 213,
      "ĕ": 214,
      "Ė": 215,
      "ė": 216,
      "Ę": 217,
      "ę": 218,
      "Ě": 219,
      "ě": 220,
      "Ĝ": 221,
      "ĝ": 222,
      "Ğ": 223,
      "ğ": 224,
      "Ġ": 225,
      "ġ": 226,
      "Ģ": 227,
      "ģ": 228,
      "Ĥ": 229,
      "ĥ": 230,
      "Ħ": 231,
      "ħ": 232,
      "Ĩ": 233,
      "ĩ": 234,
      "Ī": 235,
      "ī": 236,
      "Ĭ": 237,
      "ĭ": 238,
      "Į": 239,
      "į": 240,
      "İ": 241,
      "ı": 242,
      "Ĳ": 243,
      "ĳ": 244,
      "Ĵ": 245,
      "ĵ": 246,
      "Ķ": 247,
      "ķ": 248,
      "ĸ": 249,
      "Ĺ": 250,
      "ĺ": 251,
      "Ļ": 252,
      "ļ": 253,
      "Ľ": 254,
      "ľ": 255,
      "Ŀ": 256,
      "ŀ": 257,
      "Ł": 258,
      "ł": 259,
      "Ń": 260,
      "Ġa": 261,
      "ch": 262,
      "Ã¡": 263,
      "ea": 264,
      "ÃŃ": 265,
      "ai": 266,
      "Ġd": 267,
      "Ġs": 268,
      "in": 269,
      "Ã©": 270,
      "th": 271,
      "na": 272,
      "Ãº": 273,
      "ir": 274,
      "mh": 275,
      "Ġl": 276,
      "Ġ,": 277,
      "Ġan": 278,
      "Ã³": 279,
      "ta": 280,
      "bh": 281,
      "is": 282,
      "Ġg": 283,
      "Ġf": 284,
      "dh": 285,
      "Ġc": 286,
      "Ġag": 287,
      "ar": 288,
      "Ġ.": 289,
      "il": 290,
      "on": 291,
      "Ġn": 292,
      "Ġch": 293,
      "Ġt": 294,
      "Ġm": 295,
      "us": 296,
      "Ġi": 297,
      "Ġle": 298,
      "ÃŃo": 299,
      "Ġagus": 300,
      "Ġar": 301,
      "an": 302,
      "ach": 303,
      "Ġbh": 304,
      "Ġna": 305,
      "each": 306,
      "ei": 307,
      "air": 308,
      "ĠC": 309,
      "iÃº": 310,
      "Ġ)": 311,
      "Ġ(": 312,
      "or": 313,
      "Ġr": 314,
      "ĠA": 315,
      "id": 316,
      "al": 317,
      "Ġb": 318,
      "eo": 319,
      "ra": 320,
      "gh": 321,
      "la": 322,
      "ear": 323,
      "oi": 324,
      "Ġde": 325,
      "the": 326,
      "ean": 327,
      "Ã©a": 328,
      "Ġchu": 329,
      "ain": 330,
      "Ġin": 331,
      "ĠnÃ³": 332,
      "omh": 333,
      "ais": 334,
      "Ġgo": 335,
      "Ã¡il": 336,
      "ĠT": 337,
      "Ġp": 338,
      "Ġ1": 339,
      "ĠS": 340,
      "Ġh": 341,
      "ÃŃoch": 342,
      "te": 343,
      "aidh": 344,
      "Ġgc": 345,
      "tha": 346,
      "eidh": 347,
      "inn": 348,
      "Ġdo": 349,
      "Ġsin": 350,
      "Ġdh": 351,
      "ĠB": 352,
      "ĠÃ©": 353,
      "ĠI": 354,
      "Ã¡n": 355,
      "os": 356,
      "Ġ2": 357,
      "Ã¡in": 358,
      "Ġâ": 359,
      "ĠâĢ": 360,
      "Ġbhf": 361,
      "Ġseo": 362,
      "as": 363,
      "it": 364,
      "Ġfa": 365,
      "eas": 366,
      "Ġfh": 367,
      "Ġis": 368,
      "Ġth": 369,
      "tÃ¡": 370,
      "ithe": 371,
      "ĠF": 372,
      "ine": 373,
      "ig": 374,
      "Ġchun": 375,
      "aithe": 376,
      "Ã¡s": 377,
      "Ã©ir": 378,
      "ĠÃ¡": 379,
      "ĠD": 380,
      "im": 381,
      "Ġleis": 382,
      "ĠM": 383,
      "Ã³ir": 384,
      "Ã©ad": 385,
      "Ġsa": 386,
      "ith": 387,
      "Ġtr": 388,
      "eann": 389,
      "om": 390,
      "ĠL": 391,
      "Ġaon": 392,
      "ail": 393,
      "eachta": 394,
      "ad": 395,
      "ion": 396,
      "ial": 397,
      "uil": 398,
      "Ġmh": 399,
      "cht": 400,
      "ur": 401,
      "Ġden": 402,
      "eacht": 403,
      "ol": 404,
      "eadh": 405,
      "Ġ:": 406,
      "eag": 407,
      "ÃŃon": 408,
      "ist": 409,
      "ĠCh": 410,
      "Ã©an": 411,
      "irt": 412,
      "ĠR": 413,
      "ĠsÃ©": 414,
      "Ġsh": 415,
      "ĠP": 416,
      "aigh": 417,
      "eith": 418,
      "ĠÃ³": 419,
      "Ã©id": 420,
      "ca": 421,
      "far": 422,
      "Ġe": 423,
      "un": 424,
      "aid": 425,
      "Ġmar": 426,
      "Ġdu": 427,
      "lach": 428,
      "Ġfaoi": 429,
      "ile": 430,
      "ĠN": 431,
      "ÃŃochta": 432,
      "tear": 433,
      "Ġgh": 434,
      "Ġu": 435,
      "tar": 436,
      "ĠG": 437,
      "Ã¡id": 438,
      "ĠE": 439,
      "lt": 440,
      "re": 441,
      "li": 442,
      "nach": 443,
      "le": 444,
      "Ġsc": 445,
      "ÃŃn": 446,
      "oir": 447,
      "faidh": 448,
      "ÃŃomh": 449,
      "Ġmb": 450,
      "Ã©ana": 451,
      "Ġbhfuil": 452,
      "Ġcu": 453,
      "se": 454,
      "ÃŃos": 455,
      "imh": 456,
      "tas": 457,
      "Ã¡th": 458,
      "ead": 459,
      "ona": 460,
      "ÃŃonn": 461,
      "rÃº": 462,
      "Ġ;": 463,
      "ic": 464,
      "oin": 465,
      "idh": 466,
      "eal": 467,
      "ĠatÃ¡": 468,
      "Ġcomh": 469,
      "eamh": 470,
      "airt": 471,
      "eanna": 472,
      "ĠÃº": 473,
      "adh": 474,
      "Ġina": 475,
      "ĠdÃ¡": 476,
      "raÃŃ": 477,
      "eidhm": 478,
      "aÃŃ": 479,
      "Ġ20": 480,
      "ann": 481,
      "Ġ3": 482,
      "iÃºn": 483,
      "aith": 484,
      "Ã³r": 485,
      "eoir": 486,
      "Ã¡ir": 487,
      "ÃŃocht": 488,
      "ce": 489,
      "ĠnÃ¡": 490,
      "igh": 491,
      "oil": 492,
      "Ã©anamh": 493,
      "Ġ19": 494,
      "Ġ\"": 495,
      "Ġsan": 496,
      "ĠÃ": 497,
      "Ġeile": 498,
      "sc": 499,
      "Ġ-": 500,
      "Ġbheith": 501,
      "ord": 502,
      "Ġchur": 503,
      "Ġnd": 504,
      "Ġduine": 505,
      "aim": 506,
      "Ġalt": 507,
      "Ġcr": 508,
      "aidir": 509,
      "er": 510,
      "Ġlea": 511,
      "fh": 512,
      "oinn": 513,
      "ĠdhÃ©anamh": 514,
      "Ã¡r": 515,
      "Ġdon": 516,
      "Ġmaidir": 517,
      "ĠAn": 518,
      "ÃŃr": 519,
      "lÃŃ": 520,
      "ĠfÃ©": 521,
      "Ġdt": 522,
      "Ġta": 523,
      "int": 524,
      "ĠâĢĶ": 525,
      "Ġam": 526,
      "aint": 527,
      "eir": 528,
      "ĠTÃ¡": 529,
      "Ġha": 530,
      "sÃ¡id": 531,
      "uair": 532,
      "Ġchomh": 533,
      "taÃŃ": 534,
      "oib": 535,
      "ire": 536,
      "ĠrÃ©ir": 537,
      "Ġamh": 538,
      "dar": 539,
      "anna": 540,
      "ĠtÃ¡": 541,
      "ao": 542,
      "Ġst": 543,
      "Ġnach": 544,
      "oc": 545,
      "oim": 546,
      "Ġair": 547,
      "Ã³g": 548,
      "Ã©ar": 549,
      "Ġph": 550,
      "Ġbheidh": 551,
      "ainn": 552,
      "nas": 553,
      "tais": 554,
      "ĠIs": 555,
      "Ġach": 556,
      "Ġas": 557,
      "Ġlena": 558,
      "ĠlÃ¡": 559,
      "Ġtha": 560,
      "Ã©idir": 561,
      "ĠO": 562,
      "Ã¡la": 563,
      "orp": 564,
      "alt": 565,
      "Ġiar": 566,
      "isiÃºn": 567,
      "Ġ4": 568,
      "eart": 569,
      "Ġgach": 570,
      "abh": 571,
      "iste": 572,
      "ĠfÃ©idir": 573,
      "ĠAcht": 574,
      "iÃºil": 575,
      "lacha": 576,
      "ÃŃs": 577,
      "ian": 578,
      "uir": 579,
      "ĠtrÃŃ": 580,
      "nÃŃomh": 581,
      "if": 582,
      "lu": 583,
      "Ġ/": 584,
      "Ġfor": 585,
      "ialach": 586,
      "Ġ5": 587,
      "ĠU": 588,
      "Ġno": 589,
      "Ġ201": 590,
      "ua": 591,
      "ia": 592,
      "Ġsu": 593,
      "ĠnÃŃ": 594,
      "Ġiom": 595,
      "ĠnÃŃos": 596,
      "bhar": 597,
      "Ãºn": 598,
      "Ġleith": 599,
      "ghaidh": 600,
      "acht": 601,
      "ru": 602,
      "Ġfaoin": 603,
      "Ã³irÃŃ": 604,
      "Ġo": 605,
      "Ã©im": 606,
      "rÃ³": 607,
      "Ġchuid": 608,
      "en": 609,
      "oimh": 610,
      "teach": 611,
      "ĠgcÃ¡s": 612,
      "niÃº": 613,
      "Ġgur": 614,
      "Ã©as": 615,
      "ĠmÃ³": 616,
      "ib": 617,
      "Ã¡l": 618,
      "ĠtÃº": 619,
      "ĠgC": 620,
      "ĠÃºsÃ¡id": 621,
      "rÃŃ": 622,
      "omhair": 623,
      "ÃŃoc": 624,
      "aon": 625,
      "ogh": 626,
      "Ãºil": 627,
      "uid": 628,
      "de": 629,
      "eid": 630,
      "ÃŃol": 631,
      "Ġion": 632,
      "tr": 633,
      "Ġtar": 634,
      "aineann": 635,
      "isce": 636,
      "aoine": 637,
      "Ġfeidhm": 638,
      "ĠdÃ©an": 639,
      "ras": 640,
      "ĠÃ¡ir": 641,
      "lÃ¡n": 642,
      "Ġlu": 643,
      "Ġsi": 644,
      "ĠÃ©is": 645,
      "tach": 646,
      "ĠâĢĿ": 647,
      "ĠBh": 648,
      "all": 649,
      "eirbh": 650,
      "eacha": 651,
      "Ġso": 652,
      "bhairt": 653,
      "Ġann": 654,
      "Ġiad": 655,
      "eist": 656,
      "isc": 657,
      "ĠcÃº": 658,
      "ĠÃ¡it": 659,
      "Ġhaghaidh": 660,
      "ĠtA": 661,
      "Ġdta": 662,
      "Ġim": 663,
      "irteag": 664,
      "nÃ³": 665,
      "rach": 666,
      "ige": 667,
      "Ġcl": 668,
      "ĠâĢľ": 669,
      "Ã¡irt": 670,
      "ĠdÃ³": 671,
      "eimh": 672,
      "Ã©adfaidh": 673,
      "ÃŃtear": 674,
      "ma": 675,
      "ing": 676,
      "gead": 677,
      "ud": 678,
      "ath": 679,
      "ĠÃ³n": 680,
      "Ġson": 681,
      "Ã©imh": 682,
      "ios": 683,
      "ĠAr": 684,
      "Ġbeidh": 685,
      "ise": 686,
      "ĠNÃŃ": 687,
      "irteagal": 688,
      "ph": 689,
      "dir": 690,
      "fidh": 691,
      "Ġthabhairt": 692,
      "Ġ6": 693,
      "obh": 694,
      "ĠamhÃ¡in": 695,
      "ge": 696,
      "las": 697,
      "Ã¡lacha": 698,
      "chta": 699,
      "ĠAon": 700,
      "olÃ¡th": 701,
      "00": 702,
      "Ġroimh": 703,
      "omhairle": 704,
      "oibr": 705,
      "ĠH": 706,
      "Ã¡d": 707,
      "ĠÃºdar": 708,
      "ÃŃochtaÃŃ": 709,
      "ibh": 710,
      "iar": 711,
      "da": 712,
      "Ġsp": 713,
      "nÃ©": 714,
      "Ġmbeidh": 715,
      "ug": 716,
      "iom": 717,
      "Ġum": 718,
      "Ġac": 719,
      "Ġath": 720,
      "oif": 721,
      "Ġgcomh": 722,
      "uithe": 723,
      "Ġbli": 724,
      "onn": 725,
      "og": 726,
      "isin": 727,
      "Ã©al": 728,
      "ĠmÃ©id": 729,
      "Ġgan": 730,
      "am": 731,
      "oth": 732,
      "ĠĊ": 733,
      "eang": 734,
      "Ġ]": 735,
      "ĠrÃ¡": 736,
      "Ġ[": 737,
      "Ã©imhse": 738,
      "Ġbr": 739,
      "Ġamach": 740,
      "Ġsiad": 741,
      "ac": 742,
      "eic": 743,
      "es": 744,
      "Ġidir": 745,
      "Ġiona": 746,
      "nn": 747,
      "Ġisteach": 748,
      "ip": 749,
      "Ã©ag": 750,
      "ÃŃne": 751,
      "anta": 752,
      "Ġcos": 753,
      "ich": 754,
      "Ġng": 755,
      "sh": 756,
      "eoirÃŃ": 757,
      "nadh": 758,
      "Ġthar": 759,
      "ĠfÃ¡il": 760,
      "Ġchl": 761,
      "asc": 762,
      "Ġord": 763,
      "Ġsaor": 764,
      "artha": 765,
      "eap": 766,
      "ĠTh": 767,
      "Ġmeas": 768,
      "dÃº": 769,
      "Ġleas": 770,
      "tÃº": 771,
      "Ã¡nach": 772,
      "laÃŃonn": 773,
      "Ġla": 774,
      "Ġarna": 775,
      "ĠâĢĻ": 776,
      "Ġrud": 777,
      "eirbhÃŃs": 778,
      "sa": 779,
      "Ġdeimh": 780,
      "um": 781,
      "oifig": 782,
      "ĠmÃ¡": 783,
      "earr": 784,
      "eil": 785,
      "ite": 786,
      "ĠAirteagal": 787,
      "ĠSc": 788,
      "ob": 789,
      "at": 790,
      "onar": 791,
      "Ġfhor": 792,
      "ĠPh": 793,
      "ĠmÃ³r": 794,
      "Ġ7": 795,
      "acha": 796,
      "achta": 797,
      "cadh": 798,
      "ĠfÃ©in": 799,
      "chÃ¡in": 800,
      "radh": 801,
      "ĠRialach": 802,
      "Ġcuid": 803,
      "eabh": 804,
      "Ġpr": 805,
      "naÃŃ": 806,
      "Ġneamh": 807,
      "orn": 808,
      "ÃŃodh": 809,
      "aighde": 810,
      "ĠtrÃ©imhse": 811,
      "Ġacu": 812,
      "lan": 813,
      "ĠbhÃŃ": 814,
      "eachtaÃŃ": 815,
      "tÃ¡t": 816,
      "Ġcinn": 817,
      "isiÃºnta": 818,
      "Ġnua": 819,
      "fear": 820,
      "raithe": 821,
      "Ġfr": 822,
      "ĠcÃ³": 823,
      "Ġgr": 824,
      "st": 825,
      "ÃŃse": 826,
      "Ġ200": 827,
      "ĠtAire": 828,
      "aibh": 829,
      "Ġleanas": 830,
      "Ġdaoine": 831,
      "ana": 832,
      "oimisiÃºn": 833,
      "uar": 834,
      "Ã³rt": 835,
      "eall": 836,
      "ĠgÃ¡": 837,
      "ionsc": 838,
      "untas": 839,
      "raÃŃtear": 840,
      "Ġts": 841,
      "tÃ¡it": 842,
      "Ã¡irg": 843,
      "nithe": 844,
      "Ġcur": 845,
      "ĠUimh": 846,
      "Ġbun": 847,
      "alls": 848,
      "eideal": 849,
      "ratas": 850,
      "ĠgnÃŃomh": 851,
      "Ġv": 852,
      "ĠlÃ©ir": 853,
      "lacht": 854,
      "aist": 855,
      "liain": 856,
      "ost": 857,
      "Ġmaith": 858,
      "Ã³gra": 859,
      "ĠAire": 860,
      "ĠIn": 861,
      "Ġrialach": 862,
      "ill": 863,
      "aisnÃ©": 864,
      "Ġceann": 865,
      "Ġchuig": 866,
      "Ġfho": 867,
      "ĠEorp": 868,
      "ĠAg": 869,
      "ĠcrÃŃoch": 870,
      "Ã©ile": 871,
      "ĠEN": 872,
      "Ġcuir": 873,
      "ter": 874,
      "lÃ¡in": 875,
      "Ġain": 876,
      "Ġbhaineann": 877,
      "ĠfhÃ¡il": 878,
      "ialta": 879,
      "Ġairgead": 880,
      "CH": 881,
      "Ġ8": 882,
      "Ġsna": 883,
      "eola": 884,
      "ll": 885,
      "laim": 886,
      "Ġiarr": 887,
      "ĠÃģ": 888,
      "ois": 889,
      "ibÃ©": 890,
      "chu": 891,
      "ÃŃobh": 892,
      "pa": 893,
      "Ġ?": 894,
      "oirm": 895,
      "Ġ&": 896,
      "Ġbhfeidhm": 897,
      "sÃº": 898,
      "ĠcibÃ©": 899,
      "nÃ¡": 900,
      "ait": 901,
      "iÃºir": 902,
      "ro": 903,
      "Ġoifig": 904,
      "Ġaisce": 905,
      "eis": 906,
      "Ġaige": 907,
      "ĠsonraÃŃ": 908,
      "Ġfo": 909,
      "ĠchÃº": 910,
      "ĠÃ¡bhar": 911,
      "Ġlinn": 912,
      "Ã¡is": 913,
      "ĠDÃ©an": 914,
      "Ġcial": 915,
      "uill": 916,
      "Ġ'": 917,
      "Ġ0": 918,
      "Ġbp": 919,
      "Ġraibh": 920,
      "ÃŃch": 921,
      "ĠmÃ¡s": 922,
      "ĠÃ©ag": 923,
      "Ġagh": 924,
      "Ġbhun": 925,
      "ĠBeidh": 926,
      "Ġaghaidh": 927,
      "lacadh": 928,
      "Ã©irÃŃ": 929,
      "aire": 930,
      "ÃŃoca": 931,
      "airm": 932,
      "Ġleat": 933,
      "ĠÃŃ": 934,
      "ĠhA": 935,
      "ins": 936,
      "earta": 937,
      "Ġionad": 938,
      "iÃºla": 939,
      "oinnÃŃol": 940,
      "Ġcead": 941,
      "Ġmo": 942,
      "Ġlean": 943,
      "Ġnuair": 944,
      "Ġleag": 945,
      "luich": 946,
      "eachas": 947,
      "Ġ9": 948,
      "ĠdtÃŃ": 949,
      "Ġor": 950,
      "ĠÃī": 951,
      "ĠRialachÃ¡n": 952,
      "et": 953,
      "ara": 954,
      "ĠdhÃ¡": 955,
      "Ġuair": 956,
      "Ã³idh": 957,
      "ĠhE": 958,
      "ĠdhÃ©an": 959,
      "Ġcru": 960,
      "ĠÃ©if": 961,
      "Ġ10": 962,
      "rÃ©ir": 963,
      "Ã©anna": 964,
      "el": 965,
      "arr": 966,
      "ĠGh": 967,
      "ĠfÃ©adfaidh": 968,
      "EA": 969,
      "ĠndÃ©an": 970,
      "lamh": 971,
      "Ġrial": 972,
      "Ġbhr": 973,
      "Ġdul": 974,
      "Ġdtag": 975,
      "Ġrogh": 976,
      "bairt": 977,
      "Ġfre": 978,
      "Ġporn": 979,
      "Ġainm": 980,
      "ĠÃ¡irithe": 981,
      "Ġans": 982,
      "ĠseirbhÃŃs": 983,
      "ainist": 984,
      "Ġfreisin": 985,
      "ĠÃŃoc": 986,
      "Ġbhliain": 987,
      "op": 988,
      "ĠSa": 989,
      "ct": 990,
      "ilt": 991,
      "Ġoibr": 992,
      "ĠAir": 993,
      "ĠTr": 994,
      "ĠlÃŃne": 995,
      "Ġba": 996,
      "ĠdÃ¡ta": 997,
      "ĠordÃº": 998,
      "mhair": 999,
      "lac": 1000,
      "ÃŃl": 1001,
      "aing": 1002,
      "land": 1003,
      "inneadh": 1004,
      "nna": 1005,
      "ĠdlÃŃ": 1006,
      "ĠrÃ©": 1007,
      "ĠciallaÃŃonn": 1008,
      "ĠdÃŃr": 1009,
      "ĠndÃ¡il": 1010,
      "Ã³s": 1011,
      "arlaim": 1012,
      "cha": 1013,
      "oinnt": 1014,
      "eath": 1015,
      "AI": 1016,
      "chuÃŃ": 1017,
      "rom": 1018,
      "ĠchÃ©ad": 1019,
      "ĠmÃ©": 1020,
      "nÃº": 1021,
      "inne": 1022,
      "eÃ¡n": 1023,
      "Ġmbaineann": 1024,
      "Ãºirt": 1025,
      "iÃºr": 1026,
      "oinne": 1027,
      "laidh": 1028,
      "ĠMh": 1029,
      "ĠComh": 1030,
      "arlaimint": 1031,
      "thaÃŃ": 1032,
      "oils": 1033,
      "Ġamhlaidh": 1034,
      "Ġcion": 1035,
      "ĠMÃ¡": 1036,
      "aÃŃochta": 1037,
      "Ã¡rÃº": 1038,
      "ĠsÃ³rt": 1039,
      "oiste": 1040,
      "ĠSt": 1041,
      "ĠÃºdarÃ¡s": 1042,
      "lÃŃo": 1043,
      "ĠV": 1044,
      "ĠsÃŃ": 1045,
      "ĠW": 1046,
      "Ġdeir": 1047,
      "Ãģ": 1048,
      "Ġfearr": 1049,
      "ĠFÃ©adfaidh": 1050,
      "ĠdtagraÃŃtear": 1051,
      "Ġard": 1052,
      "oic": 1053,
      "Ã¡lta": 1054,
      "Ġbith": 1055,
      "aile": 1056,
      "ĠiomchuÃŃ": 1057,
      "aisnÃ©is": 1058,
      "ne": 1059,
      "ÃŃor": 1060,
      "ĠtrÃ¡th": 1061,
      "Ġais": 1062,
      "Ġeo": 1063,
      "aoin": 1064,
      "Ã©adf": 1065,
      "ĠmÃŃr": 1066,
      "ĠcrÃŃocha": 1067,
      "ora": 1068,
      "ĠMar": 1069,
      "Ãļ": 1070,
      "Ġbliana": 1071,
      "Ãī": 1072,
      "Ã©il": 1073,
      "lÃº": 1074,
      "io": 1075,
      "Ã¡bh": 1076,
      "Ã¡thair": 1077,
      "ireann": 1078,
      "aistigh": 1079,
      "Ġiarratas": 1080,
      "Ġdeimhnithe": 1081,
      "ard": 1082,
      "Ã©adfar": 1083,
      "Ã³n": 1084,
      "Ġfeidhme": 1085,
      "Ġ12": 1086,
      "orpa": 1087,
      "Ġlagh": 1088,
      "Ġcheart": 1089,
      "ĠBalls": 1090,
      "char": 1091,
      "ĠLe": 1092,
      "ĠÃ¡r": 1093,
      "darÃ¡s": 1094,
      "uilleadh": 1095,
      "ĠpÃ¡irt": 1096,
      "lÃ¡r": 1097,
      "arc": 1098,
      "Ġcheann": 1099,
      "ura": 1100,
      "ga": 1101,
      "ĠgnÃ³": 1102,
      "ĠmB": 1103,
      "aip": 1104,
      "ĠstiÃºir": 1105,
      "ĠhEorpa": 1106,
      "tÃ¡il": 1107,
      "ĠclÃ¡r": 1108,
      "lo": 1109,
      "eoidh": 1110,
      "Ã¡irgÃŃ": 1111,
      "Ġbhaint": 1112,
      "rÃ¡": 1113,
      "Ġlaistigh": 1114,
      "iÃºnach": 1115,
      "Ġos": 1116,
      "Ġshon": 1117,
      "phÃ¡irt": 1118,
      "alta": 1119,
      "ĠfÃ³gra": 1120,
      "rÃŃomh": 1121,
      "ineÃ¡l": 1122,
      "ĠgcomhrÃ©ir": 1123,
      "lais": 1124,
      "earraÃŃ": 1125,
      "ram": 1126,
      "ID": 1127,
      "iona": 1128,
      "ĠiomlÃ¡n": 1129,
      "Ġdea": 1130,
      "Ãºnas": 1131,
      "Ġroinnt": 1132,
      "rÃŃbh": 1133,
      "aighdeÃ¡n": 1134,
      "Ġtu": 1135,
      "Ġleor": 1136,
      "aill": 1137,
      "ĠsolÃ¡th": 1138,
      "ent": 1139,
      "nÃ¡th": 1140,
      "namh": 1141,
      "Ãºnach": 1142,
      "Ġ18": 1143,
      "Ġbhfo": 1144,
      "Ã¡iste": 1145,
      "ĠÃļ": 1146,
      "Ã©amh": 1147,
      "osta": 1148,
      "ĠAontais": 1149,
      "Ġcon": 1150,
      "oinnÃŃollacha": 1151,
      "Ġfu": 1152,
      "Ġleo": 1153,
      "eana": 1154,
      "ĠCuntas": 1155,
      "Ãºir": 1156,
      "Ġinn": 1157,
      "Ġmheas": 1158,
      "rÃ©": 1159,
      "oig": 1160,
      "Ġhaon": 1161,
      "ĠlÃ¡ith": 1162,
      "thÃ³ir": 1163,
      "ĠLeas": 1164,
      "ag": 1165,
      "Ġduit": 1166,
      "ĠdÃŃreach": 1167,
      "Ġfeadh": 1168,
      "ĠSh": 1169,
      "ioc": 1170,
      "Ġaist": 1171,
      "aise": 1172,
      "oiblÃŃ": 1173,
      "iachta": 1174,
      "oimisin": 1175,
      "taithe": 1176,
      "Ġbu": 1177,
      "Ġluach": 1178,
      "ĠÃ©agsÃº": 1179,
      "lÃŃonadh": 1180,
      "Ġchos": 1181,
      "eor": 1182,
      "tÃ³ir": 1183,
      "Ã³id": 1184,
      "eofar": 1185,
      "Ã¡sta": 1186,
      "Ġoir": 1187,
      "ĠCoimisiÃºn": 1188,
      "Ã©anann": 1189,
      "ĠsÃŃos": 1190,
      "ĠchÃ³ir": 1191,
      "ĠAchta": 1192,
      "mhacht": 1193,
      "Ġ@": 1194,
      "ed": 1195,
      "Ġchr": 1196,
      "lean": 1197,
      "tÃ¡la": 1198,
      "oll": 1199,
      "iaidh": 1200,
      "Ã¡ch": 1201,
      "ĠforÃ¡lacha": 1202,
      "Ãºis": 1203,
      "ĠlÃ¡thair": 1204,
      "ĠÃ©ifeacht": 1205,
      "bair": 1206,
      "reith": 1207,
      "ĠFor": 1208,
      "ĠtS": 1209,
      "ĠCE": 1210,
      "Ãºr": 1211,
      "iÃºch": 1212,
      "Ã¡irÃŃtear": 1213,
      "ĠchÃ©ile": 1214,
      "oime": 1215,
      "ĠEorpach": 1216,
      "Ã³is": 1217,
      "ĠrÃŃomh": 1218,
      "mhainn": 1219,
      "ong": 1220,
      "Ġii": 1221,
      "aoi": 1222,
      "ĠAE": 1223,
      "eicn": 1224,
      "Ġcuideachta": 1225,
      "rÃŃbhinn": 1226,
      "Ãĥ": 1227,
      "aic": 1228,
      "Ġsr": 1229,
      "ĠFu": 1230,
      "Ġdear": 1231,
      "Ġsain": 1232,
      "Ġdl": 1233,
      "Ġcluich": 1234,
      "Ãºl": 1235,
      "ĠscÃ©im": 1236,
      "CHT": 1237,
      "ĠmhÃ©id": 1238,
      "ears": 1239,
      "Ġtionsc": 1240,
      "Ġscr": 1241,
      "par": 1242,
      "Ã³far": 1243,
      "ĠmÃŃ": 1244,
      "Ġgcuid": 1245,
      "amh": 1246,
      "onc": 1247,
      "gairt": 1248,
      "od": 1249,
      "iÃºint": 1250,
      "Acht": 1251,
      "aif": 1252,
      "Ġteacht": 1253,
      "ĠIar": 1254,
      "ĠFh": 1255,
      "Ġtos": 1256,
      "aol": 1257,
      "ĠAgus": 1258,
      "ĠnÃ³s": 1259,
      "ĠChun": 1260,
      "Ãºint": 1261,
      "Ġfoir": 1262,
      "ĠStÃ¡t": 1263,
      "ĠArd": 1264,
      "ĠsholÃ¡th": 1265,
      "tal": 1266,
      "oimeÃ¡d": 1267,
      "imp": 1268,
      "Ãºs": 1269,
      "Ġtuair": 1270,
      "istÃŃ": 1271,
      "ĠBa": 1272,
      "ĠdÃº": 1273,
      "ĠseirbhÃŃsÃŃ": 1274,
      "Ġailt": 1275,
      "ĠtÃ©ar": 1276,
      "ordÃº": 1277,
      "ĠCuir": 1278,
      "ĠmhÃŃ": 1279,
      "Ġghabh": 1280,
      "lÃ¡inte": 1281,
      "Ġ15": 1282,
      "aÃŃtear": 1283,
      "ÃºsÃ¡id": 1284,
      "Ġsuas": 1285,
      "ĠAirgead": 1286,
      "oicim": 1287,
      "Ġw": 1288,
      "ant": 1289,
      "Ġcomhair": 1290,
      "ĠÃĵ": 1291,
      "Ġaistr": 1292,
      "tae": 1293,
      "ladh": 1294,
      "ealbh": 1295,
      "Ġto": 1296,
      "aireacht": 1297,
      "Ġrann": 1298,
      "Ġ11": 1299,
      "Ġiarraidh": 1300,
      "ocht": 1301,
      "aisc": 1302,
      "eachtain": 1303,
      "Ġmbeadh": 1304,
      "Ġinfh": 1305,
      "Ġoib": 1306,
      "ot": 1307,
      "ĠRial": 1308,
      "pla": 1309,
      "Ã©arla": 1310,
      "Ġchead": 1311,
      "ĠdÃ©anfar": 1312,
      "ĠÃŃoca": 1313,
      "Ġgheall": 1314,
      "Ġleath": 1315,
      "luais": 1316,
      "fa": 1317,
      "Ġimeachta": 1318,
      "Ġbeag": 1319,
      "Ġuisce": 1320,
      "Ġgt": 1321,
      "ĠLch": 1322,
      "ĠSp": 1323,
      "Ġ!": 1324,
      "Ġeis": 1325,
      "maÃŃ": 1326,
      "ĠlÃ©": 1327,
      "Ġcheap": 1328,
      "eisteanna": 1329,
      "irtear": 1330,
      "reÃ¡n": 1331,
      "ĠÃ©agsÃºla": 1332,
      "ĠmhÃŃr": 1333,
      "ĠfÃ©n": 1334,
      "Ġseachas": 1335,
      "ragh": 1336,
      "Ġmonar": 1337,
      "ĠgComhairle": 1338,
      "Ġdtaobh": 1339,
      "ĠSeo": 1340,
      "ĠâĢĵ": 1341,
      "ĠlÃŃon": 1342,
      "ĠÃ¡ireamh": 1343,
      "eagra": 1344,
      "Ġceart": 1345,
      "ugtar": 1346,
      "Ġtair": 1347,
      "ruth": 1348,
      "ĠcÃ©anna": 1349,
      "ĠAch": 1350,
      "ers": 1351,
      "Ġroimhe": 1352,
      "Ã©adfadh": 1353,
      "ĠBallstÃ¡it": 1354,
      "ĠDe": 1355,
      "Ġghlacadh": 1356,
      "uarasc": 1357,
      "oimisinÃ©irÃŃ": 1358,
      "ĠbhrÃŃ": 1359,
      "ĠtrÃ¡d": 1360,
      "Ġriachta": 1361,
      "Ġaic": 1362,
      "ĠcÃ¡il": 1363,
      "Ġtion": 1364,
      "aisp": 1365,
      "Ġairgeadais": 1366,
      "ailt": 1367,
      "ĠpÃ©": 1368,
      "Ġdhu": 1369,
      "Ġ199": 1370,
      "iomlÃ¡n": 1371,
      "Ãį": 1372,
      "ĠTw": 1373,
      "ÃŃoctha": 1374,
      "ĠsiÃº": 1375,
      "eachais": 1376,
      "ĠÃ©il": 1377,
      "Ġk": 1378,
      "ĠdÃ³ibh": 1379,
      "ĠcoinnÃŃollacha": 1380,
      "iÃºchÃ¡in": 1381,
      "ĠAN": 1382,
      "ust": 1383,
      "Ġthr": 1384,
      "ĠDh": 1385,
      "Ġamp": 1386,
      "eagh": 1387,
      "ĠAirgeadais": 1388,
      "Ġsuim": 1389,
      "Ġur": 1390,
      "ailte": 1391,
      "ÃŃnÃŃ": 1392,
      "ĠfÃ©ach": 1393,
      "ianaise": 1394,
      "AR": 1395,
      "Ġ192": 1396,
      "Ġrith": 1397,
      "eala": 1398,
      "ĠchÃ³": 1399,
      "ĠBÃ©arla": 1400,
      "Ġfad": 1401,
      "Ġmura": 1402,
      "Ã¡bhÃ¡il": 1403,
      "thu": 1404,
      "saÃŃ": 1405,
      "eannach": 1406,
      "ĠII": 1407,
      "altaÃŃ": 1408,
      "iscint": 1409,
      "Ġ193": 1410,
      "eÃ¡in": 1411,
      "chair": 1412,
      "mheas": 1413,
      "ims": 1414,
      "ĠghnÃ³": 1415,
      "Ġleibh": 1416,
      "iÃºin": 1417,
      "ĠrÃ©im": 1418,
      "Ġobair": 1419,
      "chur": 1420,
      "nacht": 1421,
      "Ġbhfor": 1422,
      "ĠChomh": 1423,
      "ĠcuÃŃ": 1424,
      "ĠgcÃ³": 1425,
      "ceÃ¡il": 1426,
      "Ġtor": 1427,
      "Ġpland": 1428,
      "onas": 1429,
      "tion": 1430,
      "achtaÃŃ": 1431,
      "reise": 1432,
      "IN": 1433,
      "ĠFuaim": 1434,
      "Ġrialacha": 1435,
      "osca": 1436,
      "eatha": 1437,
      "aiteach": 1438,
      "Ġ196": 1439,
      "eisialta": 1440,
      "ĠnÃ¡isiÃºnta": 1441,
      "ĠJ": 1442,
      "ealach": 1443,
      "iv": 1444,
      "ĠGa": 1445,
      "Ġtalamh": 1446,
      "ĠtÃ¡irgÃŃ": 1447,
      "ĠfÃŃse": 1448,
      "earsanta": 1449,
      "ĠTuilleadh": 1450,
      "ĠCu": 1451,
      "Ġthu": 1452,
      "Ġ30": 1453,
      "Ġ197": 1454,
      "eagmh": 1455,
      "ĠbhÃŃonn": 1456,
      "ĠhÃ¡ir": 1457,
      "rÃºpa": 1458,
      "ĠtrÃŃd": 1459,
      "Ã©is": 1460,
      "ĠdÃ©anta": 1461,
      "reach": 1462,
      "Ġ13": 1463,
      "ĠChomhairle": 1464,
      "inear": 1465,
      "Ġ14": 1466,
      "ĠrÃ¡ta": 1467,
      "lÃ³": 1468,
      "Ġlae": 1469,
      "str": 1470,
      "LA": 1471,
      "imist": 1472,
      "ĠFuaimniÃº": 1473,
      "TH": 1474,
      "ifig": 1475,
      "uirear": 1476,
      "aird": 1477,
      "Ġ00": 1478,
      "Ġca": 1479,
      "Ġmin": 1480,
      "Ġcumh": 1481,
      "lÃŃon": 1482,
      "Ġbra": 1483,
      "ĠdÃ©anfaidh": 1484,
      "ĠinÃŃoctha": 1485,
      "Ġceang": 1486,
      "Ġceap": 1487,
      "ort": 1488,
      "Ġbaint": 1489,
      "Ã©asÃ¡in": 1490,
      "racha": 1491,
      "aÃŃochtaÃŃ": 1492,
      "Ġdhaoine": 1493,
      "Ġansin": 1494,
      "inearÃ¡lta": 1495,
      "Ġchinn": 1496,
      "ÃŃche": 1497,
      "Ġdoicim": 1498,
      "raÃŃonn": 1499,
      "Ã¡na": 1500,
      "Ġdomh": 1501,
      "uile": 1502,
      "ĠK": 1503,
      "achÃ¡in": 1504,
      "Ã©adÃº": 1505,
      "oiliÃº": 1506,
      "ĠÃ¡itiÃºil": 1507,
      "ĠSceideal": 1508,
      "aig": 1509,
      "ĠNa": 1510,
      "Ã³ra": 1511,
      "ĠCr": 1512,
      "aois": 1513,
      "IS": 1514,
      "ĠÃŃos": 1515,
      "Ġof": 1516,
      "Ġ%": 1517,
      "Ġfheidhm": 1518,
      "oilsiÃº": 1519,
      "MH": 1520,
      "ĠcÃ©": 1521,
      "igean": 1522,
      "ĠghnÃŃomh": 1523,
      "ĠtAcht": 1524,
      "Ġ16": 1525,
      "ontae": 1526,
      "ĠhÃ¡irithe": 1527,
      "dÃ¡il": 1528,
      "eÃ¡il": 1529,
      "Ġsoc": 1530,
      "ĠBr": 1531,
      "Ġtagairt": 1532,
      "ocal": 1533,
      "dach": 1534,
      "ogra": 1535,
      "ĠprÃ³": 1536,
      "ĠFaoi": 1537,
      "cmhainn": 1538,
      "Ġeolas": 1539,
      "ĠGo": 1540,
      "aontÃº": 1541,
      "Ġorthu": 1542,
      "rÃŃobh": 1543,
      "ĠrialachÃ¡in": 1544,
      "Ġchion": 1545,
      "Ġinmh": 1546,
      "ĠBord": 1547,
      "eac": 1548,
      "ĠChuid": 1549,
      "Ġmodh": 1550,
      "Ġteor": 1551,
      "caoil": 1552,
      "uaire": 1553,
      "gn": 1554,
      "gadh": 1555,
      "reabh": 1556,
      "Ġuile": 1557,
      "Ġcheang": 1558,
      "Ġcum": 1559,
      "ĠlÃº": 1560,
      "ĠdeimhniÃº": 1561,
      "bhreith": 1562,
      "eilge": 1563,
      "Ġfreag": 1564,
      "iÃºrthÃ³ir": 1565,
      "ĠrÃ©as": 1566,
      "Ã¡rta": 1567,
      "nÃ¡isiÃºnta": 1568,
      "Ch": 1569,
      "Ġbliain": 1570,
      "Ġtug": 1571,
      "raf": 1572,
      "Ġchuideachta": 1573,
      "ĠPharlaimint": 1574,
      "Ã¡it": 1575,
      "ĠtÃ¡s": 1576,
      "Ġscair": 1577,
      "aÃŃocht": 1578,
      "ior": 1579,
      "aimh": 1580,
      "Ġiasc": 1581,
      "eirbhÃŃse": 1582,
      "llmh": 1583,
      "ĠleibhÃ©al": 1584,
      "reag": 1585,
      "Ġtras": 1586,
      "Ġleic": 1587,
      "ĠCU": 1588,
      "laigh": 1589,
      "sp": 1590,
      "ĠdhÃ©anann": 1591,
      "Ġuir": 1592,
      "ĠleasÃº": 1593,
      "aite": 1594,
      "omp": 1595,
      "raghas": 1596,
      "Ġlios": 1597,
      "Ġagat": 1598,
      "iteach": 1599,
      "ruithe": 1600,
      "Ã¡irge": 1601,
      "Ġbainist": 1602,
      "IR": 1603,
      "ĠCoimisinÃ©irÃŃ": 1604,
      "Ġtal": 1605,
      "naithe": 1606,
      "eat": 1607,
      "Ġchuir": 1608,
      "raing": 1609,
      "Ġriar": 1610,
      "Ġoifigeach": 1611,
      "ĠdiÃº": 1612,
      "ÃŃniÃº": 1613,
      "ointe": 1614,
      "Ġanseo": 1615,
      "uigh": 1616,
      "ĠComhairle": 1617,
      "ĠOifig": 1618,
      "chtanna": 1619,
      "achtach": 1620,
      "ĠtSÃŃn": 1621,
      "Ġmion": 1622,
      "ĠIonc": 1623,
      "Ġchloig": 1624,
      "Ãºdar": 1625,
      "Ġbhu": 1626,
      "Ġbreith": 1627,
      "Ġdeireadh": 1628,
      "Ġaer": 1629,
      "ĠNÃ¡": 1630,
      "Ġleictr": 1631,
      "obail": 1632,
      "ĠsholÃ¡thar": 1633,
      "Ġlimist": 1634,
      "Ã³mhair": 1635,
      "iam": 1636,
      "aib": 1637,
      "Ġbearta": 1638,
      "ice": 1639,
      "Ġspeisialta": 1640,
      "Ãºin": 1641,
      "bhair": 1642,
      "Ġaith": 1643,
      "eithic": 1644,
      "straim": 1645,
      "oit": 1646,
      "Ġ195": 1647,
      "Ġbunaithe": 1648,
      "Ġsaoth": 1649,
      "abhÃ¡il": 1650,
      "ĠgrÃ©asÃ¡in": 1651,
      "pÃ³ir": 1652,
      "Ã¡ip": 1653,
      "ÃŃola": 1654,
      "Ġrinneadh": 1655,
      "cam": 1656,
      "ĠÃ¡irith": 1657,
      "gid": 1658,
      "eanas": 1659,
      "ĠcÃ¡nach": 1660,
      "iÃºid": 1661,
      "ĠprÃŃomh": 1662,
      "uarascÃ¡il": 1663,
      "Ã¡idÃŃ": 1664,
      "otha": 1665,
      "Ġmian": 1666,
      "rÃºdÃº": 1667,
      "sÃŃ": 1668,
      "org": 1669,
      "Ġchuige": 1670,
      "stit": 1671,
      "iail": 1672,
      "ĠStÃ¡it": 1673,
      "ĠscrÃŃbhinn": 1674,
      "othrom": 1675,
      "Ġbeart": 1676,
      "ĠChÃ©ad": 1677,
      "tÃŃ": 1678,
      "ĠhiomlÃ¡n": 1679,
      "Ġtaca": 1680,
      "me": 1681,
      "ĠCÃ©": 1682,
      "Ġ17": 1683,
      "lÃ¡th": 1684,
      "Ġ25": 1685,
      "aitheoir": 1686,
      "ment": 1687,
      "uim": 1688,
      "achtar": 1689,
      "Ġndear": 1690,
      "iangh": 1691,
      "ul": 1692,
      "ĠCorp": 1693,
      "Ã©anaÃŃ": 1694,
      "Ġghabhann": 1695,
      "ĠdÃ©anamh": 1696,
      "ĠhÃī": 1697,
      "antÃºil": 1698,
      "faÃŃ": 1699,
      "Ġcreid": 1700,
      "Ġ198": 1701,
      "rÃ³id": 1702,
      "Ġcinneadh": 1703,
      "ĠndÃ©anfar": 1704,
      "ĠÃŃs": 1705,
      "Ã¡g": 1706,
      "Ãºla": 1707,
      "ut": 1708,
      "Ġpearsanta": 1709,
      "Ã³rais": 1710,
      "Ġthug": 1711,
      "ĠathrÃº": 1712,
      "eam": 1713,
      "Ġdif": 1714,
      "ĠchÃ¡s": 1715,
      "ĠFÃ³mhair": 1716,
      "itheoir": 1717,
      "ĠEorpaigh": 1718,
      "ĠgcÃ©ad": 1719,
      "ĠRoimh": 1720,
      "lachtaÃŃ": 1721,
      "ĠrÃ¡it": 1722,
      "Ġcuireadh": 1723,
      "ĠfÃ©achaint": 1724,
      "ĠCUID": 1725,
      "AN": 1726,
      "ss": 1727,
      "ang": 1728,
      "Ġthos": 1729,
      "ĠNuair": 1730,
      "och": 1731,
      "stitiÃºid": 1732,
      "ÃºdarÃ¡s": 1733,
      "ĠliÃºn": 1734,
      "eog": 1735,
      "ĠvÃ³": 1736,
      "ĠthÃ³g": 1737,
      "alar": 1738,
      "eireadh": 1739,
      "leag": 1740,
      "Ġiomp": 1741,
      "Ġdhuine": 1742,
      "inniÃº": 1743,
      "ĠoiriÃºnach": 1744,
      "nais": 1745,
      "Ġsoil": 1746,
      "ĠfiÃº": 1747,
      "ĠfaisnÃ©is": 1748,
      "Ġcabh": 1749,
      "alg": 1750,
      "Ġgcion": 1751,
      "ĠHD": 1752,
      "ĠlÃ¡n": 1753,
      "aipit": 1754,
      "Ġeas": 1755,
      "eiceÃ¡il": 1756,
      "ideachais": 1757,
      "Ġstaid": 1758,
      "ĠCo": 1759,
      "ĠCeisteanna": 1760,
      "Ġdar": 1761,
      "Ġaonair": 1762,
      "Ã¡ide": 1763,
      "Ġmeasc": 1764,
      "obal": 1765,
      "Ġoibre": 1766,
      "uas": 1767,
      "ĠdÃŃol": 1768,
      "Ġteagmh": 1769,
      "Ġtaobh": 1770,
      "ĠtÃ©arma": 1771,
      "eon": 1772,
      "Ġear": 1773,
      "eannas": 1774,
      "ĠsuÃŃomh": 1775,
      "Ġcail": 1776,
      "laÃŃ": 1777,
      "Ġ24": 1778,
      "ĠIoncaim": 1779,
      "lann": 1780,
      "ĠâĢĺ": 1781,
      "ĠMÃ¡s": 1782,
      "ĠdhÃ©anfaidh": 1783,
      "Ġ000": 1784,
      "Ġbhain": 1785,
      "Ġ194": 1786,
      "ÃºnÃº": 1787,
      "ĠchlÃ¡r": 1788,
      "aisnÃ©ise": 1789,
      "iu": 1790,
      "scoil": 1791,
      "Ġrogha": 1792,
      "ĠdÃ©anaÃŃ": 1793,
      "Ġcad": 1794,
      "Ġpl": 1795,
      "ĠSolÃ¡th": 1796,
      "ĠhÃīireann": 1797,
      "Ġtogh": 1798,
      "eanta": 1799,
      "imid": 1800,
      "ĠchomhlÃŃonadh": 1801,
      "ianta": 1802,
      "ĠBhÃŃ": 1803,
      "ub": 1804,
      "Ġthe": 1805,
      "Ġchum": 1806,
      "omharc": 1807,
      "eachtas": 1808,
      "Ġndiaidh": 1809,
      "ĠÃ¡bhartha": 1810,
      "ustaim": 1811,
      "ĠplandaÃŃ": 1812,
      "ex": 1813,
      "Ġmuid": 1814,
      "iarratas": 1815,
      "ĠRoimhe": 1816,
      "thar": 1817,
      "cs": 1818,
      "Ġlua": 1819,
      "ĠCom": 1820,
      "bharfar": 1821,
      "iocfaidh": 1822,
      "ĠdhÃŃol": 1823,
      "ĠDÃ©anfar": 1824,
      "aÃŃonn": 1825,
      "ĠpoiblÃŃ": 1826,
      "ĠcÃ³ir": 1827,
      "Ã¡ilte": 1828,
      "ĠRialachÃ¡in": 1829,
      "Ġgriangh": 1830,
      "ĠDÃ©anfaidh": 1831,
      "ĠdÃŃobh": 1832,
      "ĠbP": 1833,
      "aine": 1834,
      "ĠiÃºl": 1835,
      "ĠEur": 1836,
      "rÃ³idh": 1837,
      "aibid": 1838,
      "tair": 1839,
      "ĠfÃ¡s": 1840,
      "Ġchoinne": 1841,
      "ĠCl": 1842,
      "Ġhuaire": 1843,
      "rÃŃch": 1844,
      "ĠÃºdarÃ¡is": 1845,
      "mhar": 1846,
      "ratais": 1847,
      "ĠdhÃ¡ta": 1848,
      "Ġdi": 1849,
      "thair": 1850,
      "Ġ2017": 1851,
      "eet": 1852,
      "ĠrialÃº": 1853,
      "lÃ©as": 1854,
      "ĠCli": 1855,
      "aitheamh": 1856,
      "Ġionta": 1857,
      "ĠtÃ¡irge": 1858,
      "aireachta": 1859,
      "Ġ2016": 1860,
      "ĠTreoir": 1861,
      "OR": 1862,
      "raith": 1863,
      "Ġteas": 1864,
      "ĠfhaisnÃ©is": 1865,
      "ĠfÃ©adfar": 1866,
      "ĠtÃ³g": 1867,
      "Ġdochar": 1868,
      "Ġcomhalta": 1869,
      "othabh": 1870,
      "US": 1871,
      "odh": 1872,
      "Ġinar": 1873,
      "Ġdhiaidh": 1874,
      "ĠChÃºirt": 1875,
      "Ġ31": 1876,
      "Ġdteideal": 1877,
      "Ġlaghad": 1878,
      "onarcha": 1879,
      "aispeÃ¡in": 1880,
      "ism": 1881,
      "ĠcluichÃŃ": 1882,
      "IL": 1883,
      "Ġlas": 1884,
      "ĠAG": 1885,
      "Ġfhoir": 1886,
      "ĠNA": 1887,
      "Ġscoil": 1888,
      "ĠnÃ¡r": 1889,
      "and": 1890,
      "eachad": 1891,
      "Ġgceist": 1892,
      "Ġ21": 1893,
      "ĠghnÃ¡th": 1894,
      "ĠcosÃºil": 1895,
      "ochtain": 1896,
      "tail": 1897,
      "chÃ¡n": 1898,
      "ĠfÃ¡sta": 1899,
      "onradh": 1900,
      "Ġbain": 1901,
      "itter": 1902,
      "Ġmhaith": 1903,
      "fheidhm": 1904,
      "Ġchosaint": 1905,
      "uth": 1906,
      "fhÃ©adfadh": 1907,
      "ĠlÃ¡ithreÃ¡n": 1908,
      "du": 1909,
      "ĠchineÃ¡l": 1910,
      "ala": 1911,
      "ĠearraÃŃ": 1912,
      "ĠdÃŃ": 1913,
      "Ġbheas": 1914,
      "ĠDÃ¡": 1915,
      "20": 1916,
      "ĠSon": 1917,
      "Ġgcuir": 1918,
      "ainne": 1919,
      "Ġ2018": 1920,
      "ĠÃ¡irithiÃº": 1921,
      "nar": 1922,
      "Ġthor": 1923,
      "ĠtsÃ³rt": 1924,
      "ĠceadÃºnas": 1925,
      "eicneola": 1926,
      "lit": 1927,
      "ĠFr": 1928,
      "ĠbhrÃ¡id": 1929,
      "ble": 1930,
      "lis": 1931,
      "Ġrinne": 1932,
      "eoin": 1933,
      "Ġgcoinne": 1934,
      "ĠÃºsÃ¡idtear": 1935,
      "ĠcÃºram": 1936,
      "ĠPhrÃŃomh": 1937,
      "eoladh": 1938,
      "Ġcluiche": 1939,
      "Ã©if": 1940,
      "ĠiniÃºch": 1941,
      "oile": 1942,
      "ĠseirbhÃŃse": 1943,
      "Ġbhonn": 1944,
      "ide": 1945,
      "reis": 1946,
      "Ġcomhlacht": 1947,
      "ĠÃ©ad": 1948,
      "Ġgcu": 1949,
      "Ġamhail": 1950,
      "ĠlaghdÃº": 1951,
      "ĠrÃ©imse": 1952,
      "Ġteagh": 1953,
      "ĠLa": 1954,
      "Ġleagtha": 1955,
      "Ġfol": 1956,
      "Ġcheana": 1957,
      "airÃŃ": 1958,
      "ĠcÃºis": 1959,
      "ĠÃ©ist": 1960,
      "ĠMaidir": 1961,
      "ĠfÃŃseÃ¡in": 1962,
      "ĠcÃ¡s": 1963,
      "ĠCH": 1964,
      "Ġmeasfar": 1965,
      "mp": 1966,
      "Ġdath": 1967,
      "Ġchruth": 1968,
      "Ġbreise": 1969,
      "ĠRoinn": 1970,
      "Ġgurb": 1971,
      "ĠgCoimisiÃºn": 1972,
      "ĠdÃºinn": 1973,
      "ĠaistriÃº": 1974,
      "ĠTwitter": 1975,
      "leach": 1976,
      "thÃ³irÃŃ": 1977,
      "Ġias": 1978,
      "Ġanois": 1979,
      "Ġchinneadh": 1980,
      "ĠPorn": 1981,
      "ĠPro": 1982,
      "ĠtÃ¡bh": 1983,
      "insean": 1984,
      "ĠgcÃ³naÃŃ": 1985,
      "ÃŃre": 1986,
      "Ġcothrom": 1987,
      "ĠFÃ©adfar": 1988,
      "ĠmonarÃ³irÃŃ": 1989,
      "Ġfud": 1990,
      "ĠTal": 1991,
      "Ã³ireachta": 1992,
      "Ġaird": 1993,
      "ĠNÃŃl": 1994,
      "ĠThe": 1995,
      "eilbh": 1996,
      "tu": 1997,
      "Ã³cmhainn": 1998,
      "ond": 1999,
      "Ġre": 2000,
      "Ġama": 2001,
      "ĠtrÃŃÃº": 2002,
      "lÃ³dÃ¡il": 2003,
      "bhÃº": 2004,
      "ĠCos": 2005,
      "Ġullmh": 2006,
      "Ã©asca": 2007,
      "ĠAontaithe": 2008,
      "Ġdara": 2009,
      "ĠrÃ³": 2010,
      "Ã©acs": 2011,
      "ÃŃocha": 2012,
      "itheoirÃŃ": 2013,
      "oird": 2014,
      "Ġleagan": 2015,
      "ostaÃŃochta": 2016,
      "Ġscaireanna": 2017,
      "Ġeag": 2018,
      "thach": 2019,
      "Ġsonraithe": 2020,
      "Ġosc": 2021,
      "ĠfÃ³s": 2022,
      "ainm": 2023,
      "Ġinch": 2024,
      "liana": 2025,
      "ĠAontas": 2026,
      "ĠLeasÃº": 2027,
      "ĠÃŃocaÃŃocht": 2028,
      "aiteachas": 2029,
      "ĠlÃ¡r": 2030,
      "ĠfÃŃor": 2031,
      "Ġreatha": 2032,
      "Ġdeon": 2033,
      "Ã¡iltear": 2034,
      "ĠtrÃ©": 2035,
      "Ġfaoina": 2036,
      "Ġcurtha": 2037,
      "ĠlimistÃ©ar": 2038,
      "nÃ©as": 2039,
      "Ã©ach": 2040,
      "ĠcineÃ¡l": 2041,
      "Ġnithe": 2042,
      "ĠtoiliÃº": 2043,
      "ĠCad": 2044,
      "ĠAghaidh": 2045,
      "Ġgcomhairle": 2046,
      "eachtach": 2047,
      "nacha": 2048,
      "ĠnÃ¡dÃº": 2049,
      "ĠngnÃŃomh": 2050,
      "nrÃ³id": 2051,
      "ĠslÃ¡inte": 2052,
      "ĠrÃ©amh": 2053,
      "ĠÃ¡itreabh": 2054,
      "ĠrÃ©ig": 2055,
      "ĠÃ©ileamh": 2056,
      "bartha": 2057,
      "ies": 2058,
      "ov": 2059,
      "Ġbia": 2060,
      "ĠcrÃŃche": 2061,
      "Ġthag": 2062,
      "caoileadh": 2063,
      "daithe": 2064,
      "Ġfost": 2065,
      "eol": 2066,
      "Ġ26": 2067,
      "ligh": 2068,
      "oire": 2069,
      "bla": 2070,
      "rÃ¡n": 2071,
      "anda": 2072,
      "Ġ100": 2073,
      "ity": 2074,
      "Ġ2013": 2075,
      "oinnÃŃoll": 2076,
      "Ã³isialta": 2077,
      "ĠtrÃ¡dÃ¡la": 2078,
      "ON": 2079,
      "ml": 2080,
      "pp": 2081,
      "anc": 2082,
      "ĠSu": 2083,
      "Ġfhios": 2084,
      "aifead": 2085,
      "ĠtorthaÃŃ": 2086,
      "ĠnÃ¡dÃºr": 2087,
      "ĠAth": 2088,
      "Ġshin": 2089,
      "ĠhAchtanna": 2090,
      "ideachas": 2091,
      "ĠphrÃ³": 2092,
      "ĠcÃºig": 2093,
      "ampla": 2094,
      "ĠbhunÃº": 2095,
      "ĠhAirteagal": 2096,
      "ĠrÃ¡iteas": 2097,
      "Ã³in": 2098,
      "ĠtÃŃr": 2099,
      "Ġbail": 2100,
      "igin": 2101,
      "Ġand": 2102,
      "iseas": 2103,
      "Ġdeis": 2104,
      "Ġbhfianaise": 2105,
      "scrÃŃobh": 2106,
      "allstÃ¡t": 2107,
      "ĠGaeilge": 2108,
      "thÃº": 2109,
      "Ġglacadh": 2110,
      "Ġme": 2111,
      "ĠcÃºr": 2112,
      "Ã¡bhÃ¡ilt": 2113,
      "ghnÃŃomh": 2114,
      "Ġghairm": 2115,
      "airdÃŃn": 2116,
      "ĠNÃ¡isiÃºnta": 2117,
      "ec": 2118,
      "ok": 2119,
      "Ġliom": 2120,
      "ĠchÃ©anna": 2121,
      "ĠdhiÃº": 2122,
      "Ġ22": 2123,
      "Ġchomhalta": 2124,
      "ĠlÃ¡imh": 2125,
      "ĠsÃ¡sta": 2126,
      "naÃŃodh": 2127,
      "isiÃºin": 2128,
      "ĠchoimeÃ¡d": 2129,
      "eartha": 2130,
      "ĠÃį": 2131,
      "ĠÃīir": 2132,
      "Ãĵ": 2133,
      "ille": 2134,
      "ĠblÃ¡th": 2135,
      "oinbh": 2136,
      "ĠdT": 2137,
      "Ġmaoin": 2138,
      "ĠSan": 2139,
      "unt": 2140,
      "ĠimeachtaÃŃ": 2141,
      "ĠsoilsiÃº": 2142,
      "rÃ³far": 2143,
      "niÃºla": 2144,
      "ĠAGUS": 2145,
      "chÃºis": 2146,
      "Ġcuntas": 2147,
      "eit": 2148,
      "ĠCuid": 2149,
      "ĠâĢĲ": 2150,
      "easc": 2151,
      "ĠidirnÃ¡isiÃºnta": 2152,
      "ĠclÃ¡raithe": 2153,
      "ie": 2154,
      "qu": 2155,
      "ealt": 2156,
      "tag": 2157,
      "Ġfear": 2158,
      "ĠcÃ©im": 2159,
      "ĠGach": 2160,
      "Ġminic": 2161,
      "muigh": 2162,
      "ĠTar": 2163,
      "umas": 2164,
      "Ġfhorbairt": 2165,
      "ĠsiÃºl": 2166,
      "ĠslÃŃ": 2167,
      "thaoir": 2168,
      "ĠLÃ©im": 2169,
      "ĠGr": 2170,
      "ĠGnÃŃomh": 2171,
      "Ġ2012": 2172,
      "iosca": 2173,
      "dÃ¡la": 2174,
      "nt": 2175,
      "olas": 2176,
      "ĠchaighdeÃ¡n": 2177,
      "ÃŃofa": 2178,
      "Ġhim": 2179,
      "Ġsheoladh": 2180,
      "Ġcostais": 2181,
      "ba": 2182,
      "ĠlÃ©as": 2183,
      "ĠIdir": 2184,
      "Ġ28": 2185,
      "ĠÃ¡rach": 2186,
      "Ġthaobh": 2187,
      "inÃ©ir": 2188,
      "ĠCluich": 2189,
      "Ġrochtain": 2190,
      "eannta": 2191,
      "ict": 2192,
      "Ġdtugtar": 2193,
      "Ãºnta": 2194,
      "Ġionstraim": 2195,
      "Ġluaithe": 2196,
      "Ġcorp": 2197,
      "Ġtiom": 2198,
      "orm": 2199,
      "Ã¡inig": 2200,
      "Ġshu": 2201,
      "Ġ2014": 2202,
      "Ġcuirfidh": 2203,
      "Ġinfheist": 2204,
      "Ġal": 2205,
      "ĠtuarascÃ¡il": 2206,
      "ĠOr": 2207,
      "AS": 2208,
      "reacha": 2209,
      "Ã¡istÃŃ": 2210,
      "nama": 2211,
      "ĠCÃ³": 2212,
      "Ġuath": 2213,
      "ĠÃºdaraithe": 2214,
      "iche": 2215,
      "ĠcÃ³ras": 2216,
      "Ġthoradh": 2217,
      "wn": 2218,
      "Ġaois": 2219,
      "ĠcaighdeÃ¡n": 2220,
      "airtear": 2221,
      "Ġplean": 2222,
      "Ġthionsc": 2223,
      "ĠÃģit": 2224,
      "ĠfaisnÃ©ise": 2225,
      "ĠAct": 2226,
      "easta": 2227,
      "ĠDo": 2228,
      "imÃ©ad": 2229,
      "untais": 2230,
      "fhonn": 2231,
      "tachta": 2232,
      "Ġfoirm": 2233,
      "arsÃ¡id": 2234,
      "ĠDÃ©": 2235,
      "Ġshampla": 2236,
      "eirbhÃŃsÃŃ": 2237,
      "ĠcÃ³ip": 2238,
      "iach": 2239,
      "ĠBaile": 2240,
      "ĠLeic": 2241,
      "Ġairgid": 2242,
      "eanga": 2243,
      "Ġ2009": 2244,
      "ĠUimhir": 2245,
      "Ġleanbh": 2246,
      "Ġtuairim": 2247,
      "Ġagainn": 2248,
      "ĠSta": 2249,
      "eitheamh": 2250,
      "scrÃŃbhinn": 2251,
      "ĠsolÃ¡thar": 2252,
      "Ġscrios": 2253,
      "ĠlÃ©i": 2254,
      "Ġcheapadh": 2255,
      "daigh": 2256,
      "itheach": 2257,
      "ĠdÃŃo": 2258,
      "ĠtÃ¡il": 2259,
      "Ġtogra": 2260,
      "ĠRe": 2261,
      "oist": 2262,
      "tiÃº": 2263,
      "ĠdÃŃl": 2264,
      "Ġcus": 2265,
      "Ġmhar": 2266,
      "aithÃŃ": 2267,
      "Ġdeara": 2268,
      "maid": 2269,
      "Ġ23": 2270,
      "igthe": 2271,
      "lachta": 2272,
      "Ġ2019": 2273,
      "ĠchlÃ¡rÃº": 2274,
      "ĠdhÃ©anfar": 2275,
      "Ġcruach": 2276,
      "mÃ¡lta": 2277,
      "ris": 2278,
      "Ġil": 2279,
      "Ã¡bhar": 2280,
      "one": 2281,
      "Ġcheannach": 2282,
      "achÃ¡n": 2283,
      "ĠCa": 2284,
      "Ġtugadh": 2285,
      "ĠchoinneÃ¡il": 2286,
      "ĠrÃºn": 2287,
      "Ġforbairt": 2288,
      "bharfaidh": 2289,
      "ĠgnÃŃomhaÃŃochtaÃŃ": 2290,
      "Ġkar": 2291,
      "ĠdoicimÃ©ad": 2292,
      "aoir": 2293,
      "Ġshoc": 2294,
      "Ġchomhair": 2295,
      "Ġionc": 2296,
      "aibidil": 2297,
      "Ġseachtain": 2298,
      "ĠgnÃ¡th": 2299,
      "Ġfos": 2300,
      "Ġcar": 2301,
      "Ġ2015": 2302,
      "Ġfreagrach": 2303,
      "lÃ©ir": 2304,
      "Ġseoladh": 2305,
      "ĠfhÃ³gra": 2306,
      "imhir": 2307,
      "onad": 2308,
      "lÃ¡int": 2309,
      "ĠroghnÃº": 2310,
      "Ġkarnar": 2311,
      "Ãºna": 2312,
      "ĠOir": 2313,
      "staint": 2314,
      "Ġcuirfear": 2315,
      "Ãºirte": 2316,
      "ĠÃŃoslÃ³dÃ¡il": 2317,
      "Ġbeartaithe": 2318,
      "lÃŃn": 2319,
      "ealamh": 2320,
      "Ġorduithe": 2321,
      "Ġleagtar": 2322,
      "ĠtÃ©armaÃŃ": 2323,
      "aispeÃ¡int": 2324,
      "Ġgairm": 2325,
      "Ġfaid": 2326,
      "ĠhÃºsÃ¡id": 2327,
      "Ġsaol": 2328,
      "Ġstr": 2329,
      "Ġathbhreith": 2330,
      "ÃŃortha": 2331,
      "CE": 2332,
      "Ġseilbh": 2333,
      "ĠConas": 2334,
      "ĠÃºsÃ¡ide": 2335,
      "Ġinfheidhm": 2336,
      "Ġadh": 2337,
      "ĠLu": 2338,
      "Ġsainch": 2339,
      "tre": 2340,
      "Ġdam": 2341,
      "alair": 2342,
      "ĠTabh": 2343,
      "osmÃ¡lta": 2344,
      "ineÃ¡lacha": 2345,
      "ionsa": 2346,
      "ĠchÃºis": 2347,
      "Ġsealbh": 2348,
      "Ġconas": 2349,
      "Ġbar": 2350,
      "Ġmhonarcha": 2351,
      "Ġmargadh": 2352,
      "aitheach": 2353,
      "oill": 2354,
      "Ġsub": 2355,
      "ĠslÃ¡n": 2356,
      "Ġfeithic": 2357,
      "raÃŃocht": 2358,
      "Ġ29": 2359,
      "adal": 2360,
      "Ã¡ideach": 2361,
      "Ã¡chtÃ¡la": 2362,
      "ĠtÃ¡irg": 2363,
      "Ġarb": 2364,
      "eim": 2365,
      "Ġbog": 2366,
      "Ġpraghas": 2367,
      "ĠÃ©igin": 2368,
      "ĠChoimisiÃºn": 2369,
      "ĠRogh": 2370,
      "Ġscann": 2371,
      "Ġscoth": 2372,
      "Ġairde": 2373,
      "Ġioncam": 2374,
      "aitÃ©is": 2375,
      "ay": 2376,
      "ps": 2377,
      "Ġcli": 2378,
      "Ġcearta": 2379,
      "ĠTag": 2380,
      "ĠdÃ³igh": 2381,
      "Ġcosanta": 2382,
      "Ġcheangal": 2383,
      "paÃŃ": 2384,
      "tÃ³irÃŃ": 2385,
      "Ġonn": 2386,
      "Ġteach": 2387,
      "Ġbhail": 2388,
      "ĠTionsc": 2389,
      "ĠgCuid": 2390,
      "Ġciontach": 2391,
      "orate": 2392,
      "ĠtacaÃŃocht": 2393,
      "rioc": 2394,
      "eantar": 2395,
      "Ġgcr": 2396,
      "Ġtuairisc": 2397,
      "Ġz": 2398,
      "alla": 2399,
      "ĠtalÃºn": 2400,
      "Ġiompair": 2401,
      "uthor": 2402,
      "IÃļ": 2403,
      "NA": 2404,
      "ver": 2405,
      "ĠginearÃ¡lta": 2406,
      "eigh": 2407,
      "ghairm": 2408,
      "eastal": 2409,
      "ÃŃneÃ¡il": 2410,
      "ĠÃļdarÃ¡s": 2411,
      "iÃºchÃ¡n": 2412,
      "Ġndearnadh": 2413,
      "Ġbhealach": 2414,
      "ĠAuthor": 2415,
      "ĠtrÃ¡": 2416,
      "ĠchrÃŃoch": 2417,
      "Ġdeo": 2418,
      "ĠsnÃ¡": 2419,
      "Ġneamhch": 2420,
      "ĠshonraÃŃtear": 2421,
      "Ġgrianghraf": 2422,
      "ĠnÃ¡dÃºrtha": 2423,
      "bo": 2424,
      "ling": 2425,
      "Ġco": 2426,
      "Ġleigh": 2427,
      "Ġbheadh": 2428,
      "ĠFeidhm": 2429,
      "ithre": 2430,
      "Ã³ga": 2431,
      "Ġiarratais": 2432,
      "Ġiontach": 2433,
      "Ġimirt": 2434,
      "ĠlÃ¡ithreach": 2435,
      "Ġdomhain": 2436,
      "Ġseacht": 2437,
      "ĠbhÃ©al": 2438,
      "Ġchumhacht": 2439,
      "thanach": 2440,
      "ĠdhosmÃ¡lta": 2441,
      "ĠndÃ©anfaidh": 2442,
      "Ġinniu": 2443,
      "Ġcom": 2444,
      "ĠbÃ³": 2445,
      "Ġbarr": 2446,
      "illiÃºn": 2447,
      "AIR": 2448,
      "ĠBallstÃ¡t": 2449,
      "Ġfuinn": 2450,
      "ĠliÃºntas": 2451,
      "iz": 2452,
      "ĠlÃŃo": 2453,
      "ibreÃ¡n": 2454,
      "iarna": 2455,
      "ĠrialachÃ¡n": 2456,
      "ostaÃŃocht": 2457,
      "ĠsoilÃ©ir": 2458,
      "othabhÃ¡il": 2459,
      "ĠchruthÃº": 2460,
      "ĠleanaÃŃ": 2461,
      "Ġ50": 2462,
      "Ġ2011": 2463,
      "Ġdeiridh": 2464,
      "eicniÃºil": 2465,
      "ĠX": 2466,
      "Ġreacht": 2467,
      "Ġchuntas": 2468,
      "ĠParlaimint": 2469,
      "Ġiompar": 2470,
      "Ġngach": 2471,
      "insin": 2472,
      "Ãºnachta": 2473,
      "Ġaici": 2474,
      "ĠCorporate": 2475,
      "oinbhins": 2476,
      "ĠsÃºil": 2477,
      "Ġfeist": 2478,
      "anÃ¡ir": 2479,
      "ĠbÃ¡n": 2480,
      "ĠSO": 2481,
      "ĠLea": 2482,
      "TE": 2483,
      "hong": 2484,
      "ĠhÃºdar": 2485,
      "iteamh": 2486,
      "ĠNoll": 2487,
      "ler": 2488,
      "ÃŃosa": 2489,
      "ĠrannphÃ¡irt": 2490,
      "Ġthagann": 2491,
      "eanach": 2492,
      "Ġnu": 2493,
      "ĠCoiste": 2494,
      "alairt": 2495,
      "ĠhordÃº": 2496,
      "ted": 2497,
      "Ġghr": 2498,
      "Ġbhreith": 2499,
      "eachadadh": 2500,
      "Ġabairt": 2501,
      "Ġfocal": 2502,
      "Ġteideal": 2503,
      "innÃŃ": 2504,
      "ĠLE": 2505,
      "ainneoin": 2506,
      "Ġionann": 2507,
      "implÃŃ": 2508,
      "luaiseacht": 2509,
      "Ġtairbh": 2510,
      "Ġteorainn": 2511,
      "Ġsaothair": 2512,
      "Ġioncaim": 2513,
      "ITH": 2514,
      "naÃŃonn": 2515,
      "mhaÃŃochta": 2516,
      "Ġcuntais": 2517,
      "eartas": 2518,
      "Ġ27": 2519,
      "uairisc": 2520,
      "ĠOib": 2521,
      "iamh": 2522,
      "Ġriachtanais": 2523,
      "mheasa": 2524,
      "Ġlaeth": 2525,
      "ĠcÃ¡in": 2526,
      "Ġcoir": 2527,
      "Ġbhainist": 2528,
      "Ġnasc": 2529,
      "Ġra": 2530,
      "ĠIm": 2531,
      "itigh": 2532,
      "ĠFeabh": 2533,
      "aims": 2534,
      "ocail": 2535,
      "ĠlÃ¡mh": 2536,
      "athair": 2537,
      "oifige": 2538,
      "Ġlasmuigh": 2539,
      "tuithe": 2540,
      "Ġchru": 2541,
      "Ġdheon": 2542,
      "oinse": 2543,
      "Ġachomharc": 2544,
      "Ġlucht": 2545,
      "oibrÃŃoch": 2546,
      "aighdeÃ¡in": 2547,
      "Ġfrith": 2548,
      "raingt": 2549,
      "ĠComm": 2550,
      "nÃŃ": 2551,
      "lag": 2552,
      "Ġfeidhmeanna": 2553,
      "ĠmÃ³rdh": 2554,
      "Ġchreid": 2555,
      "Ġluath": 2556,
      "aor": 2557,
      "per": 2558,
      "reacht": 2559,
      "Ġfion": 2560,
      "Ġint": 2561,
      "aistr": 2562,
      "Ġionas": 2563,
      "ĠgnÃŃomhartha": 2564,
      "ow": 2565,
      "chuid": 2566,
      "ĠdÃŃos": 2567,
      "ĠsÃ³cmhainn": 2568,
      "mhÃ©id": 2569,
      "ĠCÃ¡nach": 2570,
      "ĠACHT": 2571,
      "ĠPr": 2572,
      "iseÃ¡il": 2573,
      "ĠsiÃºd": 2574,
      "ĠmÃ©ad": 2575,
      "Ġmhaoin": 2576,
      "Ġmhodh": 2577,
      "ĠshlÃŃ": 2578,
      "Ġuas": 2579,
      "ĠcomhaltaÃŃ": 2580,
      "Ãºnais": 2581,
      "eathach": 2582,
      "Ã³ide": 2583,
      "Ġceanglais": 2584,
      "aoirs": 2585,
      "Ġaims": 2586,
      "ĠTu": 2587,
      "ĠgcrÃŃch": 2588,
      "ĠÃ©ir": 2589,
      "Ġbhfoirm": 2590,
      "ÃŃnithe": 2591,
      "ĠÃºinÃ©ir": 2592,
      "Ġtoisc": 2593,
      "ĠcabhrÃº": 2594,
      "aitear": 2595,
      "ĠstÃ¡": 2596,
      "airgead": 2597,
      "Ġghlac": 2598,
      "iciÃºil": 2599,
      "Ġdtaca": 2600,
      "ĠÃīireann": 2601,
      "ĠIII": 2602,
      "ĠAl": 2603,
      "ĠthÃ¡inig": 2604,
      "Ġet": 2605,
      "Ġcomhsh": 2606,
      "Ġonnmhair": 2607,
      "Ġtreoir": 2608,
      "Ã©anta": 2609,
      "reor": 2610,
      "iath": 2611,
      "Ġriachtanach": 2612,
      "ĠullmhÃº": 2613,
      "ĠCluichÃŃ": 2614,
      "em": 2615,
      "tor": 2616,
      "ĠnG": 2617,
      "ĠFÃ©ach": 2618,
      "ĠDu": 2619,
      "ĠmhÃ©adÃº": 2620,
      "Ġuimhir": 2621,
      "ĠcomhphÃ¡irt": 2622,
      "Ġsiar": 2623,
      "ation": 2624,
      "ĠdÃ¡il": 2625,
      "ĠIon": 2626,
      "ĠthÃ¡irg": 2627,
      "ĠRÃ©": 2628,
      "Ġdtr": 2629,
      "eirm": 2630,
      "nÃŃomhaireacht": 2631,
      "rucht": 2632,
      "Ġliosta": 2633,
      "ĠEurop": 2634,
      "nu": 2635,
      "ĠZ": 2636,
      "ind": 2637,
      "nann": 2638,
      "ĠgnÃ©as": 2639,
      "Ġteil": 2640,
      "ĠarÃŃs": 2641,
      "omhÃŃr": 2642,
      "Ġfhr": 2643,
      "Ġtabhairt": 2644,
      "ĠstÃ³r": 2645,
      "ĠndÃ©antar": 2646,
      "ĠTweet": 2647,
      "naigh": 2648,
      "aige": 2649,
      "ĠgnÃ©": 2650,
      "Ġcha": 2651,
      "Ġhalt": 2652,
      "ĠdhÃ³": 2653,
      "Ġfada": 2654,
      "Ġmhalairt": 2655,
      "eartÃº": 2656,
      "ĠdhÃ©antar": 2657,
      "Ġceaptha": 2658,
      "ĠY": 2659,
      "eais": 2660,
      "Ġfeabh": 2661,
      "ĠCeann": 2662,
      "oich": 2663,
      "ĠDO": 2664,
      "ĠfeidhmiÃº": 2665,
      "Ġsprioc": 2666,
      "Ġcomhairle": 2667,
      "Ġdifr": 2668,
      "Ġetc": 2669,
      "leacht": 2670,
      "eobh": 2671,
      "rae": 2672,
      "ordaithe": 2673,
      "uairim": 2674,
      "Ġsula": 2675,
      "ĠÃģir": 2676,
      "Ġcruth": 2677,
      "ĠmBord": 2678,
      "mra": 2679,
      "tur": 2680,
      "Ġtaighde": 2681,
      "eoireachta": 2682,
      "Ã¡laÃŃ": 2683,
      "Ġcruinn": 2684,
      "ĠrÃ©asÃºnach": 2685,
      "thaoirleach": 2686,
      "ĠNollaig": 2687,
      "chlÃ¡r": 2688,
      "Ġseach": 2689,
      "Ġglac": 2690,
      "ĠchÃ¡il": 2691,
      "Ġthair": 2692,
      "Ġshealbh": 2693,
      "ĠchÃºirt": 2694,
      "ĠoibriÃº": 2695,
      "ĠpÃ¡irtÃŃ": 2696,
      "ĠÃŃseal": 2697,
      "Ġfair": 2698,
      "ĠCuar": 2699,
      "Ġpict": 2700,
      "thas": 2701,
      "uirir": 2702,
      "Ġcosaint": 2703,
      "Ġfoirgn": 2704,
      "ĠdoicimÃ©id": 2705,
      "Ġinfheidhme": 2706,
      "ĠdamÃ¡iste": 2707,
      "ionsab": 2708,
      "naÃŃtear": 2709,
      "irbh": 2710,
      "Ã³l": 2711,
      "ĠcÃ©ad": 2712,
      "eartais": 2713,
      "Ġshain": 2714,
      "ĠEU": 2715,
      "ĠscrÃºdÃº": 2716,
      "Ġphr": 2717,
      "ĠBhord": 2718,
      "ĠmeasÃºnÃº": 2719,
      "ĠscrÃŃofa": 2720,
      "ĠnÃ³sanna": 2721,
      "Ġiasacht": 2722,
      "ĠfÃŃneÃ¡il": 2723,
      "Ġhoibr": 2724,
      "Ġdocht": 2725,
      "Ġfhaigh": 2726,
      "ĠbliantÃºil": 2727,
      "AL": 2728,
      "Ġfios": 2729,
      "Ġmba": 2730,
      "Ġcumhacht": 2731,
      "oilse": 2732,
      "scairt": 2733,
      "ĠleanÃºint": 2734,
      "ĠriarachÃ¡in": 2735,
      "ff": 2736,
      "Ġdr": 2737,
      "Ġglas": 2738,
      "ĠAm": 2739,
      "eithre": 2740,
      "Ġdeimhin": 2741,
      "duct": 2742,
      "treon": 2743,
      "ck": 2744,
      "ola": 2745,
      "Ġon": 2746,
      "eachÃ¡in": 2747,
      "ĠCru": 2748,
      "Ã©ann": 2749,
      "iarr": 2750,
      "ionann": 2751,
      "Ã©igh": 2752,
      "Ġchuireann": 2753,
      "Ġdualg": 2754,
      "ĠCliath": 2755,
      "ĠProduct": 2756,
      "ĠblÃ¡thanna": 2757,
      "fr": 2758,
      "fach": 2759,
      "Ġeagra": 2760,
      "earradh": 2761,
      "ĠÃ¡bhair": 2762,
      "omhairc": 2763,
      "rÃ©ithe": 2764,
      "aiteachais": 2765,
      "Ġfaide": 2766,
      "IT": 2767,
      "ĠÃ©asca": 2768,
      "isÃ©ad": 2769,
      "Ġtsa": 2770,
      "ĠClÃ¡r": 2771,
      "aidr": 2772,
      "Ġnochta": 2773,
      "oghlaim": 2774,
      "Ġrialaithe": 2775,
      "ĠRialtais": 2776,
      "lÃ¡": 2777,
      "ĠfÃ³": 2778,
      "Ġte": 2779,
      "Ġriosca": 2780,
      "ĠBu": 2781,
      "ĠIÃºil": 2782,
      "Ġcomhth": 2783,
      "Ã¡irtÃŃ": 2784,
      "ĠpÃ¡irteach": 2785,
      "ĠfheidhmiÃº": 2786,
      "Ġiontaobh": 2787,
      "Ġoll": 2788,
      "Ġsta": 2789,
      "ĠslÃ¡int": 2790,
      "Ġlit": 2791,
      "ĠgabhÃ¡il": 2792,
      "ĠglÃ©as": 2793,
      "Ġmu": 2794,
      "ĠCon": 2795,
      "ĠhÃ©if": 2796,
      "igire": 2797,
      "ĠMÃ¡rta": 2798,
      "Ã³ireacht": 2799,
      "ĠtÃºs": 2800,
      "Ġcinnte": 2801,
      "ĠainmniÃº": 2802,
      "luaiste": 2803,
      "ĠchiontÃº": 2804,
      "ĠtÃ¡bhachtach": 2805,
      "fadh": 2806,
      "Ġj": 2807,
      "Ġbharr": 2808,
      "Ġraon": 2809,
      "ĠnÃ³imÃ©ad": 2810,
      "ĠBar": 2811,
      "ĠBainist": 2812,
      "Ġbhfad": 2813,
      "Ġtrom": 2814,
      "lite": 2815,
      "ĠcomhlachtaÃŃ": 2816,
      "ĠnÃŃl": 2817,
      "Ġsochair": 2818,
      "Ġathch": 2819,
      "ĠCO": 2820,
      "Ġreachta": 2821,
      "Ġex": 2822,
      "ĠEanÃ¡ir": 2823,
      "icÃŃ": 2824,
      "ĠphoiblÃŃ": 2825,
      "Ġforbartha": 2826,
      "Ġsuite": 2827,
      "Ġola": 2828,
      "Ġimsc": 2829,
      "ĠmBallstÃ¡t": 2830,
      "Ġtionchar": 2831,
      "eÃ¡nach": 2832,
      "Ã¡ist": 2833,
      "fhor": 2834,
      "Ġthart": 2835,
      "ustaimÃ©irÃŃ": 2836,
      "bÃºis": 2837,
      "ly": 2838,
      "Ã©in": 2839,
      "Ġlorg": 2840,
      "tachÃ¡n": 2841,
      "oifigeach": 2842,
      "ĠhÃºdarÃ¡is": 2843,
      "aoil": 2844,
      "Ġoifige": 2845,
      "Ġsaint": 2846,
      "Ġmol": 2847,
      "eibh": 2848,
      "ĠSlÃ¡inte": 2849,
      "Ġhion": 2850,
      "Ġthugtar": 2851,
      "liantÃºil": 2852,
      "eimhniÃº": 2853,
      "Ġcostas": 2854,
      "umann": 2855,
      "Ġfreastal": 2856,
      "Ġ2008": 2857,
      "ĠeisiÃºint": 2858,
      "pÃ³irÃŃ": 2859,
      "rÃ¡in": 2860,
      "ts": 2861,
      "ĠÂ": 2862,
      "ĠlÃ©amh": 2863,
      "Ġchorp": 2864,
      "Ġball": 2865,
      "ĠSoilse": 2866,
      "ÃŃochÃ¡na": 2867,
      "ĠBain": 2868,
      "ĠMeÃ¡n": 2869,
      "ĠmhÃ³r": 2870,
      "oirc": 2871,
      "Ġtac": 2872,
      "Ġiii": 2873,
      "Ġtosach": 2874,
      "TA": 2875,
      "ew": 2876,
      "reoir": 2877,
      "thi": 2878,
      "mhara": 2879,
      "Ġtuilleadh": 2880,
      "earm": 2881,
      "ĠFÃŃse": 2882,
      "ĠGu": 2883,
      "rÃºd": 2884,
      "ĠclÃ¡rÃº": 2885,
      "ĠgnÃŃomhÃº": 2886,
      "Ã³sta": 2887,
      "ĠLeasaÃŃtear": 2888,
      "eata": 2889,
      "ĠdÃ©ile": 2890,
      "ĠchoinnÃŃoll": 2891,
      "Ġtimp": 2892,
      "Ġbhua": 2893,
      "ĠgclÃ¡r": 2894,
      "ĠDeireadh": 2895,
      "ĠMeas": 2896,
      "ĠLÃŃne": 2897,
      "Ġort": 2898,
      "Ġainmnithe": 2899,
      "IDEA": 2900,
      "Ġdearadh": 2901,
      "ĠinniÃºil": 2902,
      "Ã³isial": 2903,
      "ĠurrÃº": 2904,
      "Ġthugann": 2905,
      "ĠLeictreon": 2906,
      "Ġsubstaint": 2907,
      "oinbhinsiÃºn": 2908,
      "neamh": 2909,
      "ĠtaithÃŃ": 2910,
      "raÃŃodh": 2911,
      "Ġgceannas": 2912,
      "Ġdubh": 2913,
      "lteanas": 2914,
      "Ġham": 2915,
      "ĠÃºdarÃº": 2916,
      "ĠRialtas": 2917,
      "Ġuirthi": 2918,
      "ĠthÃ³gÃ¡il": 2919,
      "mhithe": 2920,
      "ĠfÃ¡th": 2921,
      "Ġchoiste": 2922,
      "Ġtaist": 2923,
      "Ġparlaimint": 2924,
      "ĠLÃ¡": 2925,
      "eachtais": 2926,
      "fheist": 2927,
      "oimisiÃºin": 2928,
      "ĠiarnrÃ³id": 2929,
      "Ġacmhainn": 2930,
      "onnta": 2931,
      "arthas": 2932,
      "ismitheoirÃŃ": 2933,
      "ĠmeÃ¡ch": 2934,
      "mharc": 2935,
      "Ġmuirear": 2936,
      "ance": 2937,
      "raÃŃochta": 2938,
      "osc": 2939,
      "Ġfhoirm": 2940,
      "ĠMÃ³r": 2941,
      "ĠdÃ©antÃ³ir": 2942,
      "Ġnochtadh": 2943,
      "fe": 2944,
      "chuir": 2945,
      "mhÃ³r": 2946,
      "Ġgearr": 2947,
      "Ġins": 2948,
      "eachtar": 2949,
      "ĠNua": 2950,
      "ĠGnÃ³": 2951,
      "shan": 2952,
      "arda": 2953,
      "ĠBun": 2954,
      "ash": 2955,
      "adail": 2956,
      "Ġscoir": 2957,
      "Ġmbain": 2958,
      "Ġleabhar": 2959,
      "illeadh": 2960,
      "tÃ³ireacht": 2961,
      "Ġcaiteachas": 2962,
      "eoga": 2963,
      "Ġgheobh": 2964,
      "hongshan": 2965,
      "Ġsma": 2966,
      "ĠcÃ³rais": 2967,
      "Ġith": 2968,
      "rac": 2969,
      "Ġpac": 2970,
      "ĠBhoird": 2971,
      "ĠdlÃŃth": 2972,
      "ĠcÃ¡ilÃŃochta": 2973,
      "ĠÃīirinn": 2974,
      "Ġzhongshan": 2975,
      "ĠsaintrÃ©ithe": 2976,
      "Ġdei": 2977,
      "ÃºnaÃŃ": 2978,
      "ĠfostaÃŃochta": 2979,
      "Ġcas": 2980,
      "ghabhÃ¡il": 2981,
      "Ġmbliana": 2982,
      "Ġleasa": 2983,
      "ĠchÃºl": 2984,
      "rÃ©acht": 2985,
      "ĠIarscrÃŃbhinn": 2986,
      "ĠCÃ©n": 2987,
      "List": 2988,
      "irg": 2989,
      "tacht": 2990,
      "ileanna": 2991,
      "Ġtomh": 2992,
      "ĠContae": 2993,
      "ealÃº": 2994,
      "Ġtag": 2995,
      "Ġluaitear": 2996,
      "Ġngairtear": 2997,
      "Ġvol": 2998,
      "Ġeolais": 2999,
      "ĠÃļdar": 3000,
      "ĠrannÃŃoca": 3001,
      "Ġthuras": 3002,
      "ER": 3003,
      "OS": 3004,
      "Ġfuair": 3005,
      "Ġcol": 3006,
      "oibh": 3007,
      "ĠdhlÃŃ": 3008,
      "Ġtapa": 3009,
      "ĠforÃ¡il": 3010,
      "eimhr": 3011,
      "ĠleanÃºnach": 3012,
      "ĠÃļsÃ¡id": 3013,
      "Ġsraith": 3014,
      "Ġtairiscint": 3015,
      "ĠfÃŃseÃ¡n": 3016,
      "oitianta": 3017,
      "ĠgrÃºpa": 3018,
      "arm": 3019,
      "ĠCur": 3020,
      "ĠinstitiÃºid": 3021,
      "Ġtrealamh": 3022,
      "ĠfhorÃ¡il": 3023,
      "EAS": 3024,
      "ĠSamh": 3025,
      "eathnÃº": 3026,
      "ional": 3027,
      "aispeÃ¡n": 3028,
      "ĠtagairtÃŃ": 3029,
      "leagÃ¡idÃŃ": 3030,
      "aimseartha": 3031,
      "IM": 3032,
      "raigh": 3033,
      "Ġsean": 3034,
      "Ġglan": 3035,
      "ĠcineÃ¡lacha": 3036,
      "Ġbord": 3037,
      "eanais": 3038,
      "Ãºnaithe": 3039,
      "end": 3040,
      "ĠGael": 3041,
      "Ã¡ipÃ©ar": 3042,
      "Ġchumas": 3043,
      "lainn": 3044,
      "ĠcÃ¡": 3045,
      "art": 3046,
      "eolas": 3047,
      "Ġdom": 3048,
      "Ã¡naigh": 3049,
      "lucht": 3050,
      "ĠfolaÃŃonn": 3051,
      "ĠtrÃ¡dÃ¡il": 3052,
      "arsÃ¡ide": 3053,
      "son": 3054,
      "tigh": 3055,
      "Ġsm": 3056,
      "Ġseas": 3057,
      "arÃ¡ide": 3058,
      "Ġchaitheamh": 3059,
      "ĠCÃº": 3060,
      "ĠhI": 3061,
      "itim": 3062,
      "Ġgcuideachta": 3063,
      "ĠbhforÃ¡iltear": 3064,
      "ive": 3065,
      "ĠClÃ¡rÃº": 3066,
      "Ġadhmaid": 3067,
      "PA": 3068,
      "Ġfocail": 3069,
      "ĠAs": 3070,
      "ĠLÃ©ir": 3071,
      "nachta": 3072,
      "aimid": 3073,
      "ĠUn": 3074,
      "ĠlÃ©iriÃº": 3075,
      "ĠrÃ©iteach": 3076,
      "Ġaistrithe": 3077,
      "ĠcumhachtaÃŃ": 3078,
      "Ġdomhan": 3079,
      "Ã¡bhÃ¡ilteacht": 3080,
      "ĠsÃ³cmhainnÃŃ": 3081,
      "ĠTV": 3082,
      "ĠTÃ¡irgÃŃ": 3083,
      "ĠfhorÃ¡lacha": 3084,
      "Ġdlit": 3085,
      "oncler": 3086,
      "ĠCuirfidh": 3087,
      "ĠchinntiÃº": 3088,
      "ĠstraitÃ©is": 3089,
      "ĠscannÃ¡n": 3090,
      "fo": 3091,
      "Ã³il": 3092,
      "eonach": 3093,
      "ĠIom": 3094,
      "tÃ¡iste": 3095,
      "ĠDÃº": 3096,
      "ĠcomhrÃ©ir": 3097,
      "ĠclÃ¡ir": 3098,
      "Ġ2006": 3099,
      "ĠrÃŃomhaire": 3100,
      "ĠtionÃ³n": 3101,
      "ĠteagmhÃ¡il": 3102,
      "ealtaine": 3103,
      "BH": 3104,
      "ik": 3105,
      "rd": 3106,
      "Ġcaith": 3107,
      "ĠAlt": 3108,
      "seirbh": 3109,
      "eannadh": 3110,
      "Ġstoc": 3111,
      "luÃŃonn": 3112,
      "Ã©adfaÃŃ": 3113,
      "ĠvÃ³ta": 3114,
      "Ġscriosadh": 3115,
      "ĠshocrÃº": 3116,
      "cal": 3117,
      "gaidh": 3118,
      "gaÃŃ": 3119,
      "ĠtÃŃortha": 3120,
      "Ġmac": 3121,
      "iÃºna": 3122,
      "aisin": 3123,
      "Ġpol": 3124,
      "Ġistigh": 3125,
      "Ġsamh": 3126,
      "Ġ35": 3127,
      "Ġ40": 3128,
      "ĠcÃºnamh": 3129,
      "ĠrÃ¡taÃŃ": 3130,
      "ĠGhnÃŃomhaireacht": 3131,
      "EAN": 3132,
      "eacnama": 3133,
      "Ġfostaithe": 3134,
      "St": 3135,
      "lÃ©": 3136,
      "ĠsimplÃŃ": 3137,
      "thosca": 3138,
      "Ġcm": 3139,
      "Ġteicneola": 3140,
      "Ġtaifead": 3141,
      "Ġthion": 3142,
      "Ġtheacht": 3143,
      "Ġsaoire": 3144,
      "oireann": 3145,
      "aitheoirÃŃ": 3146,
      "Ġspreag": 3147,
      "atch": 3148,
      "odanna": 3149,
      "IDEAL": 3150,
      "MS": 3151,
      "nÃ¡il": 3152,
      "chan": 3153,
      "Ġaraon": 3154,
      "Ġchumh": 3155,
      "Ġpion": 3156,
      "ltÃºr": 3157,
      "ĠÃ¡itiÃºla": 3158,
      "athrach": 3159,
      "Ġcosc": 3160,
      "dhÃ¡il": 3161,
      "oigh": 3162,
      "Ã¡ilithe": 3163,
      "ĠSeirbhÃŃsÃŃ": 3164,
      "ĠIl": 3165,
      "ĠDomh": 3166,
      "ĠChr": 3167,
      "ĠBhaile": 3168,
      "ĠclÃº": 3169,
      "ÃįO": 3170,
      "ĠsocrÃº": 3171,
      "iÃºrthÃ³ireacht": 3172,
      "achtarÃ¡n": 3173,
      "Ãºnacht": 3174,
      "Ã©asc": 3175,
      "Ġdhear": 3176,
      "Ġfheabh": 3177,
      "ĠprÃŃobh": 3178,
      "ĠÃīist": 3179,
      "ĠFhor": 3180,
      "LAS": 3181,
      "ĠSonraÃŃ": 3182,
      "be": 3183,
      "ĠÃŃo": 3184,
      "Ġdaon": 3185,
      "ina": 3186,
      "thr": 3187,
      "ĠchÃ¡in": 3188,
      "Ġbhra": 3189,
      "eip": 3190,
      "Ġbosca": 3191,
      "itÃ©": 3192,
      "ĠChoiste": 3193,
      "ĠOll": 3194,
      "eaptha": 3195,
      "Ġiarracht": 3196,
      "ĠathbhreithniÃº": 3197,
      "Daon": 3198,
      "II": 3199,
      "ium": 3200,
      "ĠmeÃ¡n": 3201,
      "Ġbhreise": 3202,
      "ĠCÃºirte": 3203,
      "ĠSCE": 3204,
      "Ġbhfaigh": 3205,
      "ĠDear": 3206,
      "Ġ32": 3207,
      "Ã©ara": 3208,
      "Ġluaidh": 3209,
      "est": 3210,
      "Ġdeac": 3211,
      "ĠLawn": 3212,
      "ITHE": 3213,
      "earadh": 3214,
      "mhan": 3215,
      "Ġgeall": 3216,
      "Ġteanga": 3217,
      "aireachtaÃŃ": 3218,
      "Ġrach": 3219,
      "Ġbe": 3220,
      "ĠTion": 3221,
      "ĠfhÃ¡g": 3222,
      "ĠGan": 3223,
      "ĠGha": 3224,
      "ÃļdarÃ¡s": 3225,
      "ĠteastÃ¡il": 3226,
      "ĠSCEIDEAL": 3227,
      "ele": 3228,
      "Ġeit": 3229,
      "bhaint": 3230,
      "ĠnA": 3231,
      "Ġriamh": 3232,
      "Ġpinsean": 3233,
      "Ġscoile": 3234,
      "Ġcomhartha": 3235,
      "Ã¡lfar": 3236,
      "othÃº": 3237,
      "ĠtslÃŃ": 3238,
      "ĠlÃ©inn": 3239,
      "ĠghnÃ³thÃº": 3240,
      "aÃŃodh": 3241,
      "fÃŃ": 3242,
      "ous": 3243,
      "ĠsÃŃol": 3244,
      "Ġgla": 3245,
      "ramh": 3246,
      "Ġpunt": 3247,
      "ĠSÃŃochÃ¡na": 3248,
      "Ġhu": 3249,
      "ĠBliain": 3250,
      "ailÃŃs": 3251,
      "ĠndÃ¡ir": 3252,
      "Ġoideachais": 3253,
      "ĠmÃ©ideanna": 3254,
      "uaras": 3255,
      "landaÃŃ": 3256,
      "ĠÃģitiÃºil": 3257,
      "ĠlÃ¡id": 3258,
      "ĠcoimeÃ¡d": 3259,
      "Ġcomp": 3260,
      "ĠmÃŃch": 3261,
      "ĠmilliÃºn": 3262,
      "Ġrialta": 3263,
      "Ġgcur": 3264,
      "Ġgcomhair": 3265,
      "ĠGrÃºpa": 3266,
      "Ġthagairt": 3267,
      "ĠrudaÃŃ": 3268,
      "Ġcontae": 3269,
      "Ġleathan": 3270,
      "churtha": 3271,
      "ĠtÃ¡stÃ¡la": 3272,
      "ĠÃŃsle": 3273,
      "ĠÃ¡rachais": 3274,
      "ĠdheonÃº": 3275,
      "ĠndÃ¡irÃŃre": 3276,
      "TI": 3277,
      "Ġun": 3278,
      "Ġad": 3279,
      "bhun": 3280,
      "iss": 3281,
      "Ġcaipit": 3282,
      "ĠmÃ©adÃº": 3283,
      "ĠCeist": 3284,
      "Ġind": 3285,
      "ĠChoimisiÃºin": 3286,
      "Ġ45": 3287,
      "Ġblianta": 3288,
      "Ġtharraingt": 3289,
      "ĠdÃŃospÃ³ir": 3290,
      "das": 3291,
      "Ġeola": 3292,
      "Ġconar": 3293,
      "ÃŃolt": 3294,
      "ĠTug": 3295,
      "Ġmbun": 3296,
      "ack": 3297,
      "oirmeasc": 3298,
      "ĠSaor": 3299,
      "rÃ¡ite": 3300,
      "ealadach": 3301,
      "ĠÃ©adrom": 3302,
      "ĠdÃŃls": 3303,
      "ĠCuardaigh": 3304,
      "ias": 3305,
      "ica": 3306,
      "oladh": 3307,
      "Ġeacnama": 3308,
      "Ġcheist": 3309,
      "Ġmeais": 3310,
      "Ġballa": 3311,
      "ĠhearraÃŃ": 3312,
      "ĠLond": 3313,
      "ĠPlean": 3314,
      "ÃŃreach": 3315,
      "ĠcÃºl": 3316,
      "Ġdtabharfar": 3317,
      "iomp": 3318,
      "allstÃ¡it": 3319,
      "ĠcialluÃŃonn": 3320,
      "ĠÃ©isteachta": 3321,
      "sanna": 3322,
      "Ġoil": 3323,
      "Ġall": 3324,
      "Ġcear": 3325,
      "Ġbaile": 3326,
      "ĠTa": 3327,
      "Ġpost": 3328,
      "ĠSo": 3329,
      "ĠfheiceÃ¡il": 3330,
      "eallÃ¡n": 3331,
      "ĠcomhaontÃº": 3332,
      "oibriÃº": 3333,
      "ĠprÃŃos": 3334,
      "ÃºinteoirÃŃ": 3335,
      "ĠinmheÃ¡nach": 3336,
      "ĠTabhar": 3337,
      "oirceallÃ¡n": 3338,
      "dong": 3339,
      "ĠtÃļdarÃ¡s": 3340,
      "Ġfanacht": 3341,
      "ĠthÃŃos": 3342,
      "ĠPoirceallÃ¡n": 3343,
      "Ġmbu": 3344,
      "ĠstiÃºr": 3345,
      "ĠsuÃŃ": 3346,
      "ĠbunÃºs": 3347,
      "ĠdearbhÃº": 3348,
      "sple": 3349,
      "angdong": 3350,
      "ĠtÃ¡ille": 3351,
      "ĠGuangdong": 3352,
      "tÃ¡in": 3353,
      "Ġ*": 3354,
      "eoil": 3355,
      "Ġsam": 3356,
      "Ġtreor": 3357,
      "ure": 3358,
      "Ġcomhaon": 3359,
      "ibhe": 3360,
      "ĠpÃ¡irtithe": 3361,
      "loine": 3362,
      "Ġdleacht": 3363,
      "ĠÃŃocaÃŃochtaÃŃ": 3364,
      "ĠplandÃ¡il": 3365,
      "Ġthionscnamh": 3366,
      "Ġdeich": 3367,
      "seirbhÃŃs": 3368,
      "naimh": 3369,
      "Ġlabh": 3370,
      "Ġbhaile": 3371,
      "ore": 3372,
      "eantair": 3373,
      "Ġchuirtear": 3374,
      "ĠinniÃºla": 3375,
      "Ġgceang": 3376,
      "ĠIV": 3377,
      "ĠIna": 3378,
      "ĠIris": 3379,
      "ĠMeitheamh": 3380,
      "ĠtrÃ¡chtÃ¡la": 3381,
      "ltÃº": 3382,
      "eirice": 3383,
      "taÃŃtear": 3384,
      "Ã©armaÃŃ": 3385,
      "ĠÃ©ifeachtach": 3386,
      "ĠoibrÃŃocht": 3387,
      "romch": 3388,
      "Ã¡bhair": 3389,
      "Ã³naithe": 3390,
      "Ġfoirne": 3391,
      "Ġcreidmheasa": 3392,
      "ĠchuntasaÃŃochta": 3393,
      "ĠOllscoil": 3394,
      "ES": 3395,
      "GH": 3396,
      "ve": 3397,
      "Ġfoils": 3398,
      "ĠchothabhÃ¡il": 3399,
      "alach": 3400,
      "ĠTeach": 3401,
      "igiteach": 3402,
      "ĠÃ¡is": 3403,
      "ÃŃonna": 3404,
      "ifÃŃse": 3405,
      "Ġfuaim": 3406,
      "ĠbainistÃŃochta": 3407,
      "Ġthosach": 3408,
      "ĠtacÃº": 3409,
      "Ã¡taÃŃ": 3410,
      "ĠcÃ³g": 3411,
      "Ġcaite": 3412,
      "ainc": 3413,
      "Ġhin": 3414,
      "Ġcomhdh": 3415,
      "ĠgComh": 3416,
      "ĠÃ¡itr": 3417,
      "Ġtsuim": 3418,
      "ĠÃģtha": 3419,
      "ĠcheadÃº": 3420,
      "ĠÃŃocaÃŃochta": 3421,
      "uarascÃ¡lacha": 3422,
      "ĠliÃºntais": 3423,
      "Ġscoileanna": 3424,
      "Ġoscailte": 3425,
      "ruchtÃºr": 3426,
      "Ġgheobhaidh": 3427,
      "banna": 3428,
      "caire": 3429,
      "our": 3430,
      "chomh": 3431,
      "Ġdlite": 3432,
      "thin": 3433,
      "ĠlÃŃn": 3434,
      "Ġcoig": 3435,
      "ĠbhfÃ©adfadh": 3436,
      "Ġfaois": 3437,
      "ĠMura": 3438,
      "ĠChonradh": 3439,
      "Ġcuairt": 3440,
      "ĠAns": 3441,
      "tacha": 3442,
      "ĠScoil": 3443,
      "ĠInd": 3444,
      "Ġcionn": 3445,
      "loch": 3446,
      "Ġliostaithe": 3447,
      "ĠSolÃ¡thraithe": 3448,
      "ĠbogearraÃŃ": 3449,
      "Ã¡lach": 3450,
      "inse": 3451,
      "Ġligean": 3452,
      "bhu": 3453,
      "Ġceithre": 3454,
      "ontas": 3455,
      "Ġtob": 3456,
      "ĠAis": 3457,
      "laÃŃtear": 3458,
      "reen": 3459,
      "lic": 3460,
      "let": 3461,
      "eadÃ³irÃŃ": 3462,
      "ĠndÃ©anamh": 3463,
      "aoth": 3464,
      "ĠphrÃŃomh": 3465,
      "aitneamh": 3466,
      "Ġoifigigh": 3467,
      "eathrÃº": 3468,
      "laisteach": 3469,
      "ĠÃ©isteacht": 3470,
      "Ġcorpraithe": 3471,
      "ĠdÃ©ag": 3472,
      "Ġmaoine": 3473,
      "eocht": 3474,
      "ĠmhÃ©ad": 3475,
      "Ġmarc": 3476,
      "iÃºnaithe": 3477,
      "Ġtarml": 3478,
      "Ġ60": 3479,
      "Ġtharla": 3480,
      "Ġprionsab": 3481,
      "Ġ2007": 3482,
      "ionad": 3483,
      "Ġchosc": 3484,
      "Ġdleathach": 3485,
      "Ġcumhachta": 3486,
      "Ġdifear": 3487,
      "ĠpleanÃ¡la": 3488,
      "eimic": 3489,
      "ĠFÃŃseÃ¡n": 3490,
      "Ġsampla": 3491,
      "LE": 3492,
      "Ġgabh": 3493,
      "ĠmnÃ¡": 3494,
      "eachÃ¡n": 3495,
      "ghabh": 3496,
      "ime": 3497,
      "Ġscor": 3498,
      "ĠscÃ©al": 3499,
      "ĠmbÃŃonn": 3500,
      "aitheann": 3501,
      "Ã¡ireamh": 3502,
      "ĠrÃ©idh": 3503,
      "tagÃ³irÃŃ": 3504,
      "ĠcuspÃ³irÃŃ": 3505,
      "AD": 3506,
      "Ġsl": 3507,
      "Ġsca": 3508,
      "nam": 3509,
      "Ġfaigh": 3510,
      "ĠbhÃ©ar": 3511,
      "Ġpe": 3512,
      "ĠBille": 3513,
      "ĠÃ©ard": 3514,
      "ĠthaispeÃ¡int": 3515,
      "ĠFoinse": 3516,
      "Ġ33": 3517,
      "aimÃŃ": 3518,
      "Ġstair": 3519,
      "ĠgcÃ¡sanna": 3520,
      "Ġiontu": 3521,
      "irteagail": 3522,
      "Ġainmn": 3523,
      "ĠaisÃŃoc": 3524,
      "Ġtosaigh": 3525,
      "ĠthrÃ©imhse": 3526,
      "Ġuirlis": 3527,
      "ĠdochtÃºir": 3528,
      "oad": 3529,
      "rÃ³ir": 3530,
      "ĠfÃ¡": 3531,
      "Ġfaire": 3532,
      "Ġfianaise": 3533,
      "iÃºradh": 3534,
      "ĠTiarna": 3535,
      "ĠBealtaine": 3536,
      "ĠMe": 3537,
      "Ġmhuirear": 3538,
      "ĠEag": 3539,
      "Ġ34": 3540,
      "Ġ36": 3541,
      "Ġdteannta": 3542,
      "ĠDÃ©antar": 3543,
      "AIS": 3544,
      "ĠscÃ©ime": 3545,
      "aifid": 3546,
      "ĠgcÃ³ras": 3547,
      "ĠrÃ©asÃºnta": 3548,
      "Ġtugtha": 3549,
      "ĠbhailiÃº": 3550,
      "Ġlaethanta": 3551,
      "ĠFeabhra": 3552,
      "StiÃºrthÃ³ireacht": 3553,
      "ĠLondain": 3554,
      "Ã³ras": 3555,
      "Ġcoiste": 3556,
      "ÃŃorÃº": 3557,
      "ĠTrÃŃ": 3558,
      "Ġghla": 3559,
      "Ġgheimhr": 3560,
      "Ġneamhsple": 3561,
      "ĠbhÃŃthin": 3562,
      "ĠoifigiÃºil": 3563,
      "Ġbpointe": 3564,
      "fheidhmiÃº": 3565,
      "ĠOireachtas": 3566,
      "alairte": 3567,
      "ĠSOLAS": 3568,
      "ĠslÃ¡intÃŃochta": 3569,
      "Ġallmhair": 3570,
      "bÃºs": 3571,
      "ofa": 3572,
      "raif": 3573,
      "ĠdÃºirt": 3574,
      "Ġchontae": 3575,
      "ĠCol": 3576,
      "ĠAin": 3577,
      "ĠbrÃº": 3578,
      "raÃŃochtaÃŃ": 3579,
      "earsa": 3580,
      "ĠDia": 3581,
      "Ġcomhch": 3582,
      "phobail": 3583,
      "ĠbrÃ©ag": 3584,
      "eicniÃºla": 3585,
      "lÃ¡ine": 3586,
      "Ġleictreonach": 3587,
      "Ġmbainfidh": 3588,
      "ein": 3589,
      "gs": 3590,
      "Ä±": 3591,
      "irce": 3592,
      "ĠcÃŃos": 3593,
      "Ġbonn": 3594,
      "ĠÃ¡lainn": 3595,
      "rÃºpaÃŃ": 3596,
      "Ġcrit": 3597,
      "ĠcrÃŃch": 3598,
      "Ġ500": 3599,
      "iota": 3600,
      "ĠcheadÃºnas": 3601,
      "ĠcÃ©n": 3602,
      "Ġsoilse": 3603,
      "lÃŃnte": 3604,
      "ĠcrÃŃcheanna": 3605,
      "ceannadh": 3606,
      "lÃ³idh": 3607,
      "man": 3608,
      "ĠdtÃ¡": 3609,
      "ĠsÃŃn": 3610,
      "ĠfÃ¡g": 3611,
      "ĠtO": 3612,
      "ĠbhÃ³": 3613,
      "Ġhach": 3614,
      "ĠIomp": 3615,
      "ĠLean": 3616,
      "Ġuaidh": 3617,
      "ĠEn": 3618,
      "ĠEor": 3619,
      "ianch": 3620,
      "Ġ2010": 3621,
      "Ġspeic": 3622,
      "ostaithe": 3623,
      "ĠAirgid": 3624,
      "Ãºnasa": 3625,
      "ĠearnÃ¡il": 3626,
      "ĠfheabhsÃº": 3627,
      "Ġrachaidh": 3628,
      "romchla": 3629,
      "oid": 3630,
      "Ġea": 3631,
      "chaighdeÃ¡n": 3632,
      "Ġcoitianta": 3633,
      "Ġchaill": 3634,
      "Ġbhreis": 3635,
      "ĠStr": 3636,
      "Ġgcead": 3637,
      "Ġghearradh": 3638,
      "ĠcomhlÃŃonadh": 3639,
      "Ġleathanach": 3640,
      "Ġchomhsh": 3641,
      "amp": 3642,
      "Ġneamhdh": 3643,
      "Ã¡bhÃ¡ilte": 3644,
      "Ġbrath": 3645,
      "ĠprÃ³iseas": 3646,
      "AMH": 3647,
      "reas": 3648,
      "orann": 3649,
      "ĠÃ©igean": 3650,
      "Ġseomra": 3651,
      "ĠChuir": 3652,
      "ĠPH": 3653,
      "fhÃ¡il": 3654,
      "ĠstÃŃl": 3655,
      "ĠÃ¡irÃŃtear": 3656,
      "tÃºla": 3657,
      "ĠScÃ©im": 3658,
      "ĠcruinniÃº": 3659,
      "ĠStiÃºrthÃ³ir": 3660,
      "lÃºth": 3661,
      "CHTA": 3662,
      "Ġsocruithe": 3663,
      "Ġcumas": 3664,
      "Ġdeontas": 3665,
      "ĠphrÃ³iseÃ¡il": 3666,
      "ghnÃŃomhÃº": 3667,
      "hon": 3668,
      "ys": 3669,
      "ĠdÃ©": 3670,
      "Ġscaoileadh": 3671,
      "irte": 3672,
      "Ġfiche": 3673,
      "ĠCead": 3674,
      "alamh": 3675,
      "ĠTuir": 3676,
      "tes": 3677,
      "ĠDlÃŃ": 3678,
      "ĠDaon": 3679,
      "ĠÃ³ga": 3680,
      "Ã¡thÃº": 3681,
      "Ã¡irimh": 3682,
      "eirbheÃ¡il": 3683,
      "ĠÃŃoctha": 3684,
      "ĠiniÃºchadh": 3685,
      "ĠCHU": 3686,
      "Ġleighis": 3687,
      "ĠpictiÃºir": 3688,
      "Ġparlaiminteach": 3689,
      "rÃ¡id": 3690,
      "rÃ³irÃŃ": 3691,
      "chÃ©im": 3692,
      "Ġlong": 3693,
      "ish": 3694,
      "Ġgar": 3695,
      "Ġchon": 3696,
      "Ġbeo": 3697,
      "eos": 3698,
      "Ġgcom": 3699,
      "tÃ¡istÃŃ": 3700,
      "ithÃŃochta": 3701,
      "eachtadh": 3702,
      "aighd": 3703,
      "icr": 3704,
      "ĠOideachais": 3705,
      "ĠcÃºiteamh": 3706,
      "ĠForÃ¡lacha": 3707,
      "Ã¡ipÃ©ir": 3708,
      "liteanas": 3709,
      "ĠonnmhaireoirÃŃ": 3710,
      "aidreamh": 3711,
      "Ġsmaoin": 3712,
      "ĠÃļdarÃ¡is": 3713,
      "Ġdru": 3714,
      "tam": 3715,
      "table": 3716,
      "ĠgcÃºr": 3717,
      "Ġfadh": 3718,
      "ĠMoncler": 3719,
      "omair": 3720,
      "ĠNu": 3721,
      "ĠNaisc": 3722,
      "ĠstiÃºrthÃ³ir": 3723,
      "Ã¡laithe": 3724,
      "ĠbreathnÃº": 3725,
      "aitist": 3726,
      "ĠchÃ³ras": 3727,
      "ĠgnÃ©ithe": 3728,
      "seach": 3729,
      "ĠQ": 3730,
      "chaÃŃ": 3731,
      "inte": 3732,
      "bheart": 3733,
      "Ġcn": 3734,
      "Ġagam": 3735,
      "ĠchÃ©im": 3736,
      "ghnÃ©": 3737,
      "Ġgceann": 3738,
      "ĠPrÃŃomh": 3739,
      "Ã¡ideacha": 3740,
      "ight": 3741,
      "Ġluas": 3742,
      "Ġfreagra": 3743,
      "aingean": 3744,
      "Ġfuarthas": 3745,
      "Ġoiread": 3746,
      "raghsanna": 3747,
      "Ġthuas": 3748,
      "dÃ¡n": 3749,
      "oisc": 3750,
      "Ġeacht": 3751,
      "Ġfi": 3752,
      "ĠtÃŃ": 3753,
      "Ġmaoirs": 3754,
      "Ġmalairte": 3755,
      "Ġchug": 3756,
      "Ġsheachadadh": 3757,
      "Ġtabharfaidh": 3758,
      "Ġhath": 3759,
      "Ã©imhsÃŃ": 3760,
      "Ġ2001": 3761,
      "aiceann": 3762,
      "ĠcÃ¡ilithe": 3763,
      "Ġfhaigheann": 3764,
      "ĠÃīisteachta": 3765,
      "ĠEoraip": 3766,
      "IA": 3767,
      "taigh": 3768,
      "ÃŃth": 3769,
      "ĠsÃº": 3770,
      "ĠsÃ¡rÃº": 3771,
      "thaithe": 3772,
      "Ġarm": 3773,
      "ĠAibreÃ¡n": 3774,
      "ĠBra": 3775,
      "ĠÃ¡fach": 3776,
      "ĠDara": 3777,
      "Ġtraid": 3778,
      "aillÃŃ": 3779,
      "ĠChiste": 3780,
      "Ġmara": 3781,
      "ÃŃnse": 3782,
      "airtÃŃ": 3783,
      "ĠBhallstÃ¡it": 3784,
      "Ġtionscadal": 3785,
      "ealaÃŃ": 3786,
      "ĠbrabÃºis": 3787,
      "Ġgear": 3788,
      "Ġcal": 3789,
      "Ġchail": 3790,
      "Ġtaitneamh": 3791,
      "Ġmona": 3792,
      "ÃŃolacadh": 3793,
      "ĠghinearÃ¡lta": 3794,
      "ĠGlac": 3795,
      "ĠEx": 3796,
      "Ġcomhar": 3797,
      "ĠtrÃŃna": 3798,
      "Ã¡dÃ¡la": 3799,
      "iompar": 3800,
      "ÃŃleata": 3801,
      "ĠdlÃŃfear": 3802,
      "Ġcionta": 3803,
      "Ġeol": 3804,
      "Ġtuairisce": 3805,
      "Ġcaillteanas": 3806,
      "Ġoscailt": 3807,
      "ĠsealbhÃ³ir": 3808,
      "ĠTags": 3809,
      "reachta": 3810,
      "ĠsÃ³isialta": 3811,
      "Ġchabh": 3812,
      "ĠCiste": 3813,
      "Ġrath": 3814,
      "raoi": 3815,
      "ĠhO": 3816,
      "ĠDH": 3817,
      "ĠLÃºnasa": 3818,
      "ĠPoiblÃŃ": 3819,
      "caÃŃocht": 3820,
      "ĠtACHT": 3821,
      "Ġsonrach": 3822,
      "Ġturas": 3823,
      "oimisinÃ©ir": 3824,
      "Ġcomhairl": 3825,
      "uirearaithe": 3826,
      "ĠIdirnÃ¡isiÃºnta": 3827,
      "RE": 3828,
      "racht": 3829,
      "Ġneart": 3830,
      "iÃºnaÃŃ": 3831,
      "oith": 3832,
      "ainte": 3833,
      "ĠTair": 3834,
      "ĠBreith": 3835,
      "Ġmhaithe": 3836,
      "ĠsheirbhÃŃs": 3837,
      "Ġ37": 3838,
      "Ġasbhaint": 3839,
      "Ġgcomhar": 3840,
      "load": 3841,
      "ĠTalmhan": 3842,
      "ĠRoghchlÃ¡r": 3843,
      "Ġfuinnimh": 3844,
      "ianchloch": 3845,
      "10": 3846,
      "CD": 3847,
      "ou": 3848,
      "Ġsuntas": 3849,
      "Ġfir": 3850,
      "ĠAR": 3851,
      "ĠbÃ¡s": 3852,
      "ĠTeagh": 3853,
      "Ġplaisteach": 3854,
      "ĠBaineann": 3855,
      "itte": 3856,
      "Ġtheannta": 3857,
      "ĠFÃ³gra": 3858,
      "itheacha": 3859,
      "ĠRann": 3860,
      "Ġscaip": 3861,
      "Ġphobal": 3862,
      "Ġleithligh": 3863,
      "ens": 3864,
      "ĠspÃ¡s": 3865,
      "Ġngairm": 3866,
      "Ġnglac": 3867,
      "aighdeÃ¡nach": 3868,
      "arraige": 3869,
      "ĠGharda": 3870,
      "lÃŃonann": 3871,
      "ĠrÃ©imsÃŃ": 3872,
      "ĠtalmhaÃŃochta": 3873,
      "uashon": 3874,
      "ĠcÃ¡sanna": 3875,
      "Ã¡bhÃ¡ilteachta": 3876,
      "ĠfostaÃŃ": 3877,
      "lÃ©iriÃº": 3878,
      "ĠfiosrÃº": 3879,
      "oy": 3880,
      "ĠÃŃomh": 3881,
      "ĠsÃ¡s": 3882,
      "ilte": 3883,
      "Ġcheannas": 3884,
      "ĠbhF": 3885,
      "ĠSoc": 3886,
      "cel": 3887,
      "ĠgcomhlÃŃon": 3888,
      "Ġordaithe": 3889,
      "iteÃ¡il": 3890,
      "AIM": 3891,
      "AIN": 3892,
      "aolÃº": 3893,
      "Ġinmhuirearaithe": 3894,
      "Ġmodhanna": 3895,
      "Ġmionson": 3896,
      "ĠtuairimÃŃ": 3897,
      "ĠthÃ¡irgeadh": 3898,
      "ĠGnÃ³thaÃŃ": 3899,
      "RA": 3900,
      "ber": 3901,
      "fas": 3902,
      "fort": 3903,
      "roinnt": 3904,
      "Ġol": 3905,
      "ÃŃte": 3906,
      "ireacht": 3907,
      "mhÃŃniÃº": 3908,
      "dhÃ³": 3909,
      "Ġblas": 3910,
      "ĠTe": 3911,
      "Ġchomhlacht": 3912,
      "Ġphobail": 3913,
      "ĠOil": 3914,
      "ĠgCoimisinÃ©irÃŃ": 3915,
      "iscÃŃ": 3916,
      "ĠcÃºpla": 3917,
      "rachtaÃŃ": 3918,
      "phobal": 3919,
      "ĠtharlaÃŃonn": 3920,
      "ĠmÃŃreanna": 3921,
      "Ġtionscadail": 3922,
      "ĠleathnÃº": 3923,
      "Ġceapadh": 3924,
      "Ġiascaireachta": 3925,
      "rÃŃche": 3926,
      "Ġfhoireann": 3927,
      "ĠEUR": 3928,
      "Ġdualgais": 3929,
      "earmÃ¡in": 3930,
      "ĠdÃŃospÃ³ireacht": 3931,
      "of": 3932,
      "Ġeala": 3933,
      "che": 3934,
      "Ã¡ite": 3935,
      "Ġduill": 3936,
      "mhach": 3937,
      "ĠCum": 3938,
      "earc": 3939,
      "oidh": 3940,
      "ĠTÃ³g": 3941,
      "ĠSain": 3942,
      "ĠInn": 3943,
      "ome": 3944,
      "ress": 3945,
      "Ġscileanna": 3946,
      "Ġcuard": 3947,
      "ĠÃºs": 3948,
      "Ġ39": 3949,
      "iÃºntais": 3950,
      "ĠndÃ©anann": 3951,
      "ĠachtachÃ¡n": 3952,
      "ĠleithÃ©id": 3953,
      "ence": 3954,
      "Ġsolas": 3955,
      "ĠceadÃºnais": 3956,
      "Ġconradh": 3957,
      "ĠmheasÃºnachta": 3958,
      "ĠCuireadh": 3959,
      "Ġgcuirfear": 3960,
      "Ġclips": 3961,
      "ĠmÃ³rdhÃŃola": 3962,
      "ĠtromchÃºis": 3963,
      "eiste": 3964,
      "neacht": 3965,
      "ochta": 3966,
      "Ġ#": 3967,
      "Ġdia": 3968,
      "Ġdro": 3969,
      "Ġsealadach": 3970,
      "Ġloin": 3971,
      "Ġanuas": 3972,
      "orc": 3973,
      "ĠÃ©innÃŃ": 3974,
      "Ġseol": 3975,
      "Ã³rsaÃŃ": 3976,
      "ĠUM": 3977,
      "Ġoideachas": 3978,
      "ĠdÃ©anmh": 3979,
      "ĠgrÃ¡": 3980,
      "Ġroghanna": 3981,
      "ction": 3982,
      "ĠchÃ³ireÃ¡il": 3983,
      "ĠmÃŃle": 3984,
      "INT": 3985,
      "ĠbPrÃŃomh": 3986,
      "ĠtÃ¡illÃŃ": 3987,
      "ĠOibr": 3988,
      "ĠstiÃºrthÃ³irÃŃ": 3989,
      "ĠneamhspleÃ¡ch": 3990,
      "Ã©ise": 3991,
      "Ġchom": 3992,
      "Ġroinn": 3993,
      "Ġroth": 3994,
      "Ġgceart": 3995,
      "Ġthiocfaidh": 3996,
      "ĠChu": 3997,
      "ĠRÃŃocht": 3998,
      "und": 3999,
      "eoireacht": 4000,
      "ĠUair": 4001,
      "uath": 4002,
      "ĠdÃ©antar": 4003,
      "ĠHot": 4004,
      "ess": 4005,
      "Ġbuan": 4006,
      "oiliÃºna": 4007,
      "Ġiascaigh": 4008,
      "Ġgcuirtear": 4009,
      "Ġalos": 4010,
      "ĠreachtaÃŃocht": 4011,
      "Ġtarmligthe": 4012,
      "nb": 4013,
      "Ġaib": 4014,
      "ĠsÃ¡bhÃ¡ilte": 4015,
      "thÃ³ra": 4016,
      "ĠchÃ³rais": 4017,
      "iÃºnas": 4018,
      "Ġpian": 4019,
      "ĠhÃ¡it": 4020,
      "ĠâĢ¢": 4021,
      "Ġfhad": 4022,
      "Ġthoil": 4023,
      "iallaÃŃonn": 4024,
      "ĠTÃ¡imid": 4025,
      "annaÃŃ": 4026,
      "Ġ46": 4027,
      "Ġainmhithe": 4028,
      "Ġorg": 4029,
      "Ġoibreacha": 4030,
      "iÃºnacha": 4031,
      "Ġ1999": 4032,
      "Ġ1924": 4033,
      "Ġteoranta": 4034,
      "ĠDÃ¡ta": 4035,
      "ĠrÃ©igiÃºn": 4036,
      "tagÃ³ir": 4037,
      "Ġchomhairle": 4038,
      "ĠAlla": 4039,
      "ĠGaeltachta": 4040,
      "liÃº": 4041,
      "scaoileadh": 4042,
      "cheann": 4043,
      "Ã¡ta": 4044,
      "Ãºine": 4045,
      "Ġtoir": 4046,
      "ork": 4047,
      "Ġhiar": 4048,
      "Ġgcru": 4049,
      "ĠIasc": 4050,
      "Ġthuilleadh": 4051,
      "ĠLeag": 4052,
      "Ġcuirtear": 4053,
      "iÃºnais": 4054,
      "Ġtabharfar": 4055,
      "ĠgCÃºirt": 4056,
      "Ġtarraing": 4057,
      "Ġsochar": 4058,
      "ĠdÃ³cha": 4059,
      "Ġsonracha": 4060,
      "daÃŃonn": 4061,
      "ĠleordhÃ³": 4062,
      "earsan": 4063,
      "ochtÃºir": 4064,
      "Ġmonarcha": 4065,
      "ĠlimistÃ©ir": 4066,
      "ORPA": 4067,
      "ĠCruach": 4068,
      "ittee": 4069,
      "ST": 4070,
      "eÃ¡la": 4071,
      "Ġx": 4072,
      "ĠcaighdeÃ¡in": 4073,
      "eice": 4074,
      "idÃ©il": 4075,
      "Ã¡nta": 4076,
      "Ġthalamh": 4077,
      "caÃŃ": 4078,
      "Ġuachtar": 4079,
      "les": 4080,
      "oirgn": 4081,
      "Ġ38": 4082,
      "Ġleabhair": 4083,
      "altÃ³irÃŃ": 4084,
      "Ġ42": 4085,
      "Ġforordaithe": 4086,
      "ĠHel": 4087,
      "ĠThreoir": 4088,
      "Ġleasanna": 4089,
      "Ġ2005": 4090,
      "ĠrÃ©itigh": 4091,
      "ĠclÃ¡ruithe": 4092,
      "ĠIarnrÃ³id": 4093,
      "Ġsuimeanna": 4094,
      "Ġchinnfidh": 4095,
      "ĠEuro": 4096,
      "ĠlÃŃonadh": 4097,
      "Ġraghaidh": 4098,
      "aistriÃº": 4099,
      "Ġtreoracha": 4100,
      "Airteagal": 4101,
      "AibreÃ¡n": 4102,
      "Ġdtar": 4103,
      "ĠdrÃ©acht": 4104,
      "mha": 4105,
      "ĠfÃ³g": 4106,
      "Ġfuar": 4107,
      "Ġcaiteachais": 4108,
      "ĠtseirbhÃŃs": 4109,
      "ĠdheimhniÃº": 4110,
      "ĠFo": 4111,
      "Ã³irt": 4112,
      "ĠsheirbheÃ¡il": 4113,
      "limh": 4114,
      "Ġ191": 4115,
      "fhoirm": 4116,
      "Ġiarbh": 4117,
      "ĠchÃºr": 4118,
      "Ã³idÃŃ": 4119,
      "ĠFheidhm": 4120,
      "ĠmonarÃ³ir": 4121,
      "Ġaicme": 4122,
      "Chiste": 4123,
      "ĠdiÃºitÃ©": 4124,
      "Ġgrianghraif": 4125,
      "ĠcÃºiseanna": 4126,
      "ĠPorno": 4127,
      "Ġsaincheaptha": 4128,
      "ĠslÃ¡ndÃ¡la": 4129,
      "ĠCommittee": 4130,
      "Ã³isialaigh": 4131,
      "ĠBliainDaon": 4132,
      "ÃŃoltÃ³irÃŃ": 4133,
      "ee": 4134,
      "lÃ¡ir": 4135,
      "Ġgu": 4136,
      "Ġgaol": 4137,
      "Ġgloine": 4138,
      "ĠtÃŃre": 4139,
      "ans": 4140,
      "ĠCaibidil": 4141,
      "ĠAer": 4142,
      "ainÃ©al": 4143,
      "Ġpinsin": 4144,
      "ĠfhoilsiÃº": 4145,
      "ics": 4146,
      "ĠchomhaltaÃŃ": 4147,
      "ĠchomhaontÃº": 4148,
      "ocs": 4149,
      "Ġathruithe": 4150,
      "ĠrÃ¡tha": 4151,
      "ĠleasaÃŃtear": 4152,
      "iteÃ¡in": 4153,
      "ĠcinntÃŃ": 4154,
      "CHA": 4155,
      "ĠdÃŃrithe": 4156,
      "Ġtoradh": 4157,
      "ĠprÃ³ise": 4158,
      "ĠdhiÃºscairt": 4159,
      "ĠreachtÃºil": 4160,
      "ĠeagraÃŃocht": 4161,
      "Ġfaoiseamh": 4162,
      "ĠBliainDaonÃ¡irimh": 4163,
      "CA": 4164,
      "ĠfeiceÃ¡il": 4165,
      "ĠiP": 4166,
      "Ġhoib": 4167,
      "ĠgcÃ©anna": 4168,
      "Ġdheireadh": 4169,
      "Ġdhliteanas": 4170,
      "ĠÃ©in": 4171,
      "Ġthuairisc": 4172,
      "ĠMa": 4173,
      "ick": 4174,
      "Ġphlean": 4175,
      "ĠoÃŃche": 4176,
      "Ġiontr": 4177,
      "ĠThu": 4178,
      "ĠScreen": 4179,
      "ĠcuideachtaÃŃ": 4180,
      "eabhair": 4181,
      "eananna": 4182,
      "ĠrÃŃomhph": 4183,
      "Ġndearna": 4184,
      "Ġthosaigh": 4185,
      "Ġmhargadh": 4186,
      "lÃ©ireofar": 4187,
      "Ġtairbhe": 4188,
      "ĠteilifÃŃse": 4189,
      "ĠdÃ©ileÃ¡il": 4190,
      "ĠAnsin": 4191,
      "ĠcritÃ©ir": 4192,
      "EN": 4193,
      "SP": 4194,
      "ier": 4195,
      "mÃŃ": 4196,
      "Ġchearta": 4197,
      "ĠbhliantÃºil": 4198,
      "rap": 4199,
      "ĠSMS": 4200,
      "ĠBH": 4201,
      "ĠfhÃ©adfadh": 4202,
      "eachtanna": 4203,
      "olÃºn": 4204,
      "ĠRÃ©amh": 4205,
      "celet": 4206,
      "lÃ¡nÃº": 4207,
      "isceana": 4208,
      "ardas": 4209,
      "Ġtuiscint": 4210,
      "ĠghabhÃ¡il": 4211,
      "Ġaice": 4212,
      "ARL": 4213,
      "iorc": 4214,
      "Ġchuirfidh": 4215,
      "ĠRÃ©ig": 4216,
      "ĠHelp": 4217,
      "laithe": 4218,
      "mad": 4219,
      "Ġdromchla": 4220,
      "Ãºlacht": 4221,
      "Ġlig": 4222,
      "taobh": 4223,
      "tage": 4224,
      "dhÃŃola": 4225,
      "Ġcla": 4226,
      "ĠtaispeÃ¡int": 4227,
      "Ġtrae": 4228,
      "Ġmais": 4229,
      "ĠthÃ©ann": 4230,
      "ĠLeis": 4231,
      "ĠEo": 4232,
      "ointÃŃ": 4233,
      "Ġcomhionann": 4234,
      "Ġdtos": 4235,
      "ĠOideachas": 4236,
      "uirbh": 4237,
      "Ġleasuithe": 4238,
      "Ġ2004": 4239,
      "parÃ¡id": 4240,
      "Ġbeagnach": 4241,
      "ĠleibhÃ©il": 4242,
      "ĠCoda": 4243,
      "ĠPornload": 4244,
      "Ġleigheas": 4245,
      "ĠoiliÃºint": 4246,
      "ĠAinm": 4247,
      "ĠiarbhÃŃr": 4248,
      "Load": 4249,
      "Ġy": 4250,
      "chas": 4251,
      "inbh": 4252,
      "thais": 4253,
      "ĠanailÃŃs": 4254,
      "Ġgair": 4255,
      "Ġteag": 4256,
      "ĠtithÃŃochta": 4257,
      "ĠTeicneola": 4258,
      "Ġpar": 4259,
      "ĠSraith": 4260,
      "ĠIN": 4261,
      "ĠâĢ¦": 4262,
      "ĠFoils": 4263,
      "ĠEar": 4264,
      "Ġcomhad": 4265,
      "Ġndaoine": 4266,
      "Ġcro": 4267,
      "acnama": 4268,
      "Ġbpost": 4269,
      "ĠCuireann": 4270,
      "ĠshuÃŃomh": 4271,
      "Ġseachtaine": 4272,
      "ĠimscrÃºdÃº": 4273,
      "aisinÃ©irÃŃ": 4274,
      "Ġsmaoineamh": 4275,
      "ĠPornoLoad": 4276,
      "IC": 4277,
      "Sh": 4278,
      "uib": 4279,
      "ĠtÃ©acs": 4280,
      "airde": 4281,
      "ĠAc": 4282,
      "ĠBanc": 4283,
      "ĠIO": 4284,
      "ast": 4285,
      "Ġmhainn": 4286,
      "ĠRol": 4287,
      "Ġcuma": 4288,
      "ĠtAontas": 4289,
      "ĠEorpacha": 4290,
      "ÃŃocaÃŃochtaÃŃ": 4291,
      "ĠhEORPA": 4292,
      "ĠÃ©agsÃºlacht": 4293,
      "ĠSplit": 4294,
      "ĠtÃ¡stÃ¡il": 4295,
      "alartÃº": 4296,
      "Ġbhainfidh": 4297,
      "ĠbhainistiÃº": 4298,
      "Ġluaidhtear": 4299,
      "ĠmeaisÃŃn": 4300,
      "ĠIompair": 4301,
      "ate": 4302,
      "glaigh": 4303,
      "ĠÃ©asc": 4304,
      "Ġtaifid": 4305,
      "Ġbac": 4306,
      "ther": 4307,
      "Ġdheas": 4308,
      "ĠfhÃ©adfaidh": 4309,
      "Ġfhreag": 4310,
      "red": 4311,
      "rÃ³d": 4312,
      "ĠmÃ³ra": 4313,
      "CHÃģ": 4314,
      "Ġuaireanta": 4315,
      "ĠsolÃ¡thraÃŃ": 4316,
      "ĠbunaÃŃodh": 4317,
      "ĠscrÃŃobh": 4318,
      "amhail": 4319,
      "ĠSpeisialta": 4320,
      "Ġ1923": 4321,
      "Ġ1976": 4322,
      "ĠChuideachta": 4323,
      "ĠcuntasaÃŃochta": 4324,
      "ĠstÃ³rÃ¡il": 4325,
      "Ġtaistil": 4326,
      "Ġspreagadh": 4327,
      "ĠAllah": 4328,
      "AO": 4329,
      "eb": 4330,
      "neachta": 4331,
      "raidh": 4332,
      "Ġcarr": 4333,
      "Ġceisteanna": 4334,
      "Ġtaisc": 4335,
      "Ġma": 4336,
      "ĠCinn": 4337,
      "ghas": 4338,
      "ĠhÃŃoc": 4339,
      "ĠBosca": 4340,
      "ĠMonar": 4341,
      "aille": 4342,
      "Ġmhion": 4343,
      "Ġsheach": 4344,
      "Ġsheachtain": 4345,
      "ung": 4346,
      "ĠEala": 4347,
      "Ġcuimh": 4348,
      "Ġcomhaid": 4349,
      "ĠnÃ¡ch": 4350,
      "Ġcrua": 4351,
      "iac": 4352,
      "Ġocht": 4353,
      "ĠTheas": 4354,
      "ĠInstitiÃºid": 4355,
      "aingniÃº": 4356,
      "ĠAchtanna": 4357,
      "Ġdearg": 4358,
      "Ġdhualg": 4359,
      "ĠtacaÃŃochta": 4360,
      "Ġpolait": 4361,
      "ARLAIM": 4362,
      "ki": 4363,
      "lea": 4364,
      "chr": 4365,
      "Ãºb": 4366,
      "irim": 4367,
      "are": 4368,
      "ĠtÃ©": 4369,
      "Ġbhall": 4370,
      "ĠCabh": 4371,
      "Ġbreis": 4372,
      "Ġbeartais": 4373,
      "Ġpointe": 4374,
      "ĠhÃ©asca": 4375,
      "ĠfhomhÃŃr": 4376,
      "ĠDÃ©anann": 4377,
      "ĠMol": 4378,
      "ĠLÃ¡r": 4379,
      "ĠmheÃ¡n": 4380,
      "ĠChos": 4381,
      "ĠghairdÃŃn": 4382,
      "eallacht": 4383,
      "iÃºntas": 4384,
      "scne": 4385,
      "Ġcrann": 4386,
      "Ġcrios": 4387,
      "erm": 4388,
      "ĠcÃºirte": 4389,
      "lash": 4390,
      "Ġbunaidh": 4391,
      "Ġairgeadra": 4392,
      "insÃŃ": 4393,
      "ĠÃ©ifeachtaÃŃ": 4394,
      "ĠshonraÃŃ": 4395,
      "ĠCuirfear": 4396,
      "ĠrannÃŃoc": 4397,
      "eagmhÃ¡il": 4398,
      "ext": 4399,
      "ĠrÃ³l": 4400,
      "olasaÃŃ": 4401,
      "ĠuathoibrÃŃoch": 4402,
      "Ġnuacht": 4403,
      "ĠDuine": 4404,
      "Ġseasamh": 4405,
      "ĠTugann": 4406,
      "celona": 4407,
      "AE": 4408,
      "Ġaig": 4409,
      "Ġchar": 4410,
      "Ġbhord": 4411,
      "eithe": 4412,
      "ĠCÃ©ad": 4413,
      "orainn": 4414,
      "Ġrang": 4415,
      "ĠbhfÃ©adfar": 4416,
      "Ġthogh": 4417,
      "ĠFac": 4418,
      "ĠFearr": 4419,
      "urg": 4420,
      "ĠdÃ¡r": 4421,
      "Ã©arma": 4422,
      "ĠÃ¡iteanna": 4423,
      "matÃ¡iste": 4424,
      "ĠchlÃ¡ir": 4425,
      "ĠÃģbhar": 4426,
      "ĠceadÃº": 4427,
      "ĠStair": 4428,
      "Ġtodh": 4429,
      "tions": 4430,
      "caoilte": 4431,
      "Ġaithint": 4432,
      "leagÃ¡id": 4433,
      "ĠstaidÃ©ar": 4434,
      "ĠGrianchloch": 4435,
      "ĠinfheistÃŃochta": 4436,
      "Ġfeabhas": 4437,
      "ĠpionÃ³s": 4438,
      "ARLAIMINT": 4439,
      "iob": 4440,
      "ĠoiliÃºna": 4441,
      "Ġat": 4442,
      "ĠlÃ³": 4443,
      "tacal": 4444,
      "Ġgluaiseacht": 4445,
      "Ġcaill": 4446,
      "antÃºla": 4447,
      "ĠCB": 4448,
      "ĠrÃ¡s": 4449,
      "idÃ©al": 4450,
      "Ġbl": 4451,
      "Ġdhr": 4452,
      "ĠIre": 4453,
      "Ġthomh": 4454,
      "ĠGairm": 4455,
      "ĠstruchtÃºr": 4456,
      "luach": 4457,
      "ĠUS": 4458,
      "ĠUisce": 4459,
      "Ġsibh": 4460,
      "ogadh": 4461,
      "Ġbronnta": 4462,
      "ĠiarratasÃ³ir": 4463,
      "Ġteaghlaigh": 4464,
      "ĠhimeachtaÃŃ": 4465,
      "ĠfeistÃŃ": 4466,
      "iotaÃŃocht": 4467,
      "ĠdtÃ¡irg": 4468,
      "der": 4469,
      "lithe": 4470,
      "lainne": 4471,
      "ry": 4472,
      "Ã³ta": 4473,
      "Ġceall": 4474,
      "ĠCF": 4475,
      "omhnÃº": 4476,
      "ĠTogra": 4477,
      "ĠSÃŃn": 4478,
      "Ġgcinn": 4479,
      "ostaÃŃ": 4480,
      "Ġshr": 4481,
      "ĠshÃ¡bhÃ¡il": 4482,
      "ĠGinearÃ¡lta": 4483,
      "seÃ¡il": 4484,
      "scoile": 4485,
      "ĠndÃ³": 4486,
      "ĠUath": 4487,
      "achtair": 4488,
      "tachÃ¡in": 4489,
      "ited": 4490,
      "illte": 4491,
      "ĠcailÃŃn": 4492,
      "ĠfeithiclÃŃ": 4493,
      "chuideachta": 4494,
      "tory": 4495,
      "lÃ©id": 4496,
      "ĠÃ³ir": 4497,
      "Ġsol": 4498,
      "nae": 4499,
      "ĠcÃ¡rta": 4500,
      "Ġtoil": 4501,
      "Ġmil": 4502,
      "ÃŃona": 4503,
      "ank": 4504,
      "ĠhÃ©": 4505,
      "Ġfhianaise": 4506,
      "Ã³iriÃº": 4507,
      "uille": 4508,
      "ĠChontae": 4509,
      "Ġsho": 4510,
      "ĠEacnama": 4511,
      "Ġamuigh": 4512,
      "Ġchomhlachta": 4513,
      "Ã¡ltas": 4514,
      "ĠInter": 4515,
      "eolaÃŃocht": 4516,
      "ĠiarrthÃ³ir": 4517,
      "ĠionadaÃŃ": 4518,
      "ĠWatch": 4519,
      "Ġtuig": 4520,
      "Ġsreang": 4521,
      "ĠbeagÃ¡n": 4522,
      "ĠlÃŃonra": 4523,
      "ChÃºirt": 4524,
      "aipiteal": 4525,
      "scoileanna": 4526,
      "ĠtÃ³gÃ¡il": 4527,
      "ĠBainistÃŃochta": 4528,
      "ĠinstitiÃºidÃŃ": 4529,
      "Ġfuaime": 4530,
      "Ġhachomair": 4531,
      "uiblÃŃ": 4532,
      "ĠIreland": 4533,
      "mb": 4534,
      "sÃºil": 4535,
      "uinn": 4536,
      "Ġab": 4537,
      "Ã¡naÃŃ": 4538,
      "thacht": 4539,
      "irc": 4540,
      "irÃŃ": 4541,
      "Ġliath": 4542,
      "bhr": 4543,
      "Ġcra": 4544,
      "ĠtÃ³ir": 4545,
      "Ġmorg": 4546,
      "ĠAd": 4547,
      "ĠAib": 4548,
      "ĠAirteagail": 4549,
      "ĠgcÃ³ir": 4550,
      "innithe": 4551,
      "Ã¡ntas": 4552,
      "ĠNext": 4553,
      "Ġ2000": 4554,
      "Ġthabharfaidh": 4555,
      "eidil": 4556,
      "iars": 4557,
      "oblacht": 4558,
      "Ġfola": 4559,
      "ĠMheirice": 4560,
      "aoiseamh": 4561,
      "ĠÃŃosta": 4562,
      "iarratasÃ³ir": 4563,
      "ĠfostÃº": 4564,
      "ĠmÃ©adar": 4565,
      "rÃºduithe": 4566,
      "ĠmeÃ¡chan": 4567,
      "ĠprÃŃobhÃ¡ideach": 4568,
      "ĠÃŃocadh": 4569,
      "Ġgeallta": 4570,
      "Ġcomhaontuithe": 4571,
      "ĠcÃ³gais": 4572,
      "Ġtobac": 4573,
      "Ġfadhbanna": 4574,
      "Ġchugainn": 4575,
      "ĠtraidisiÃºnta": 4576,
      "CR": 4577,
      "roinn": 4578,
      "weet": 4579,
      "dhearc": 4580,
      "Ġnuashon": 4581,
      "Ġchoig": 4582,
      "ĠchÃ³naithe": 4583,
      "ĠConn": 4584,
      "ĠrÃ©al": 4585,
      "Ġbaill": 4586,
      "ĠtrÃ©imhsÃŃ": 4587,
      "iall": 4588,
      "reÃ¡in": 4589,
      "oint": 4590,
      "Ġathnu": 4591,
      "Ġleanfaidh": 4592,
      "ĠoibrÃŃochtaÃŃ": 4593,
      "Ġinneall": 4594,
      "tÃ³ireachta": 4595,
      "Ġbeaga": 4596,
      "Ġ1963": 4597,
      "ĠCreid": 4598,
      "Ġteorann": 4599,
      "ments": 4600,
      "ĠTabhair": 4601,
      "Ġteorainneacha": 4602,
      "oichead": 4603,
      "Ġthairiscint": 4604,
      "Ġtsamh": 4605,
      "ĠBarcelona": 4606,
      "ĠchÃºlghairm": 4607,
      "ĠbrÃ©agach": 4608,
      "Ġngairmtear": 4609,
      "ĠÃ©ineacht": 4610,
      "chain": 4611,
      "Ġsli": 4612,
      "ĠstÃ¡t": 4613,
      "ĠgairdÃŃn": 4614,
      "Ġcoin": 4615,
      "Ġceachtar": 4616,
      "ĠardÃº": 4617,
      "iÃºl": 4618,
      "Ġrol": 4619,
      "ainÃŃ": 4620,
      "ĠSe": 4621,
      "Ã¡nna": 4622,
      "ĠLios": 4623,
      "ĠNeamh": 4624,
      "erv": 4625,
      "Ġdtiocfaidh": 4626,
      "Ġhamh": 4627,
      "Ġphion": 4628,
      "Ġ55": 4629,
      "rachas": 4630,
      "Ġspraoi": 4631,
      "Ġlamh": 4632,
      "Ġ75": 4633,
      "ĠbunÃº": 4634,
      "ĠbuisÃ©ad": 4635,
      "Ġ1933": 4636,
      "ĠCuirtear": 4637,
      "Ġchuirfear": 4638,
      "ĠaerÃ¡r": 4639,
      "ĠdÃŃfh": 4640,
      "ĠfostÃ³ir": 4641,
      "ĠCÃ³ras": 4642,
      "ĠTionscail": 4643,
      "ĠgcrÃŃoch": 4644,
      "ĠLeanaÃŃ": 4645,
      "uairimÃŃ": 4646,
      "ĠDÃºiche": 4647,
      "ĠdhearbhÃº": 4648,
      "ĠlÃ¡idir": 4649,
      "ĠmbunaÃŃtear": 4650,
      "ĠPHARLAIMINT": 4651,
      "quar": 4652,
      "Ġsla": 4653,
      "ĠsÃ¡bhÃ¡ilteachta": 4654,
      "Ã©illeadh": 4655,
      "tan": 4656,
      "Ġgl": 4657,
      "ĠgÃ©ar": 4658,
      "Ġfiach": 4659,
      "Ġtv": 4660,
      "Ġtirim": 4661,
      "ideo": 4662,
      "ĠTÃ¡s": 4663,
      "Ġgcuntas": 4664,
      "ĠBlÃ¡th": 4665,
      "ollag": 4666,
      "lachÃ¡in": 4667,
      "ĠNÃŃor": 4668,
      "ĠNollag": 4669,
      "Ġ190": 4670,
      "Ġthabharfar": 4671,
      "ĠchlÃº": 4672,
      "ÃģIL": 4673,
      "Ã©ileamh": 4674,
      "ĠdlÃŃnse": 4675,
      "ĠscÃ©imeanna": 4676,
      "ĠCrÃŃos": 4677,
      "Ġaithean": 4678,
      "eithicil": 4679,
      "Ġsaothar": 4680,
      "ĠshuiteÃ¡il": 4681,
      "ĠlÃŃomatÃ¡iste": 4682,
      "ĠGhaeilge": 4683,
      "ission": 4684,
      "ĠleordhÃ³thanach": 4685,
      "ĠceallraÃŃ": 4686,
      "ĠndÃ³igh": 4687,
      "rimh": 4688,
      "ĠdÃŃch": 4689,
      "taca": 4690,
      "Ġcaitheamh": 4691,
      "Ġtitim": 4692,
      "uspÃ³ir": 4693,
      "Ġbealach": 4694,
      "ghlac": 4695,
      "ĠpÃ¡": 4696,
      "Ġdheis": 4697,
      "tÃ¡lacha": 4698,
      "ĠFaigh": 4699,
      "ĠDr": 4700,
      "aillimh": 4701,
      "lachais": 4702,
      "oirse": 4703,
      "idhm": 4704,
      "aithfidh": 4705,
      "taisÃŃ": 4706,
      "ĠUachtarÃ¡n": 4707,
      "Ġioml": 4708,
      "ĠngnÃ³": 4709,
      "ĠordÃ³idh": 4710,
      "ĠGhnÃ³": 4711,
      "ĠshonrÃ³far": 4712,
      "Ġtionscail": 4713,
      "ĠrÃ¡itis": 4714,
      "ĠstaidÃ©ir": 4715,
      "othabhÃ¡la": 4716,
      "ĠCuideachta": 4717,
      "bate": 4718,
      "Ġithir": 4719,
      "ĠnAchtanna": 4720,
      "aitisticÃŃ": 4721,
      "feadh": 4722,
      "mar": 4723,
      "Ġead": 4724,
      "Ã¡cht": 4725,
      "Ġdor": 4726,
      "isis": 4727,
      "Ġchaoi": 4728,
      "Ġteocht": 4729,
      "Ġbheart": 4730,
      "lam": 4731,
      "ĠchuÃŃ": 4732,
      "ĠdhÃ©ag": 4733,
      "Ã¡int": 4734,
      "easa": 4735,
      "ĠPlandaÃŃ": 4736,
      "ĠEolas": 4737,
      "luas": 4738,
      "ener": 4739,
      "nÃ¡ch": 4740,
      "ĠÃŃocfar": 4741,
      "ĠMheÃ¡n": 4742,
      "ĠComhsh": 4743,
      "Ġdeireanach": 4744,
      "look": 4745,
      "Ġdearbh": 4746,
      "ĠdÃºb": 4747,
      "MHAIR": 4748,
      "ĠOifigiÃºil": 4749,
      "ectable": 4750,
      "ĠCÃ³ip": 4751,
      "Ġathbhreithnithe": 4752,
      "ĠollmhÃ³r": 4753,
      "ĠacmhainnÃŃ": 4754,
      "Ġcompord": 4755,
      "ĠdÃŃlsithe": 4756,
      "Ġsheachaint": 4757,
      "iarsmaÃŃ": 4758,
      "ctha": 4759,
      "leic": 4760,
      "nuithe": 4761,
      "neoidh": 4762,
      "riÃº": 4763,
      "rÃ¡d": 4764,
      "ton": 4765,
      "Ġdin": 4766,
      "Ġsogh": 4767,
      "Ġceal": 4768,
      "Ġcath": 4769,
      "ĠnÃŃor": 4770,
      "ĠAois": 4771,
      "ainÃ©il": 4772,
      "ÃŃochas": 4773,
      "Ġgcruth": 4774,
      "Ġfhost": 4775,
      "Ġthiom": 4776,
      "ĠFaisnÃ©ise": 4777,
      "ĠNÃŃos": 4778,
      "ĠNew": 4779,
      "Ġ2020": 4780,
      "ĠnÃ¡isiÃºn": 4781,
      "fhÃ©idir": 4782,
      "ĠfÃ©il": 4783,
      "Ġ41": 4784,
      "oimhd": 4785,
      "ĠÃºsÃ¡ideoirÃŃ": 4786,
      "Ġsiop": 4787,
      "Ġ65": 4788,
      "ĠfhorlÃ©iriÃº": 4789,
      "Ġ70": 4790,
      "ĠcÃ³naÃŃ": 4791,
      "ĠTrÃ¡chtÃ¡la": 4792,
      "ÃīAN": 4793,
      "Ġfoirfe": 4794,
      "Ġwash": 4795,
      "aisceart": 4796,
      "Ġleictreach": 4797,
      "Ġearra": 4798,
      "eolaithe": 4799,
      "chÃºiseamh": 4800,
      "ĠEuropean": 4801,
      "Ġdliteanas": 4802,
      "Ġdeacair": 4803,
      "Ġduilleoga": 4804,
      "mm": 4805,
      "nÃ³ir": 4806,
      "oo": 4807,
      "uÃŃtear": 4808,
      "chead": 4809,
      "Ġse": 4810,
      "isean": 4811,
      "ĠfÃŃon": 4812,
      "Ġceist": 4813,
      "Ġcoinne": 4814,
      "achan": 4815,
      "ĠApp": 4816,
      "ghairtear": 4817,
      "aiste": 4818,
      "Ã¡illÃŃ": 4819,
      "ĠSean": 4820,
      "ĠSÃ³isialta": 4821,
      "Ġhid": 4822,
      "Ġgcoinn": 4823,
      "ĠdhÃ¡il": 4824,
      "ĠFoirm": 4825,
      "ĠLeigh": 4826,
      "ĠPrÃ³": 4827,
      "Ġeisc": 4828,
      "Ġmbealach": 4829,
      "scartha": 4830,
      "ĠAnd": 4831,
      "ĠdtÃºs": 4832,
      "ĠOut": 4833,
      "Ġ53": 4834,
      "ĠsaorÃ¡idÃŃ": 4835,
      "ĠlÃ©irÃŃonn": 4836,
      "roid": 4837,
      "Ġceadaithe": 4838,
      "ĠVI": 4839,
      "ĠshonrÃº": 4840,
      "Ġcontr": 4841,
      "ĠluachÃ¡il": 4842,
      "Ġ1967": 4843,
      "ĠCumh": 4844,
      "ĠTalmhaÃŃochta": 4845,
      "eibhÃ©al": 4846,
      "ĠMÃ³rdhÃŃola": 4847,
      "Ġscoirfidh": 4848,
      "ĠTabharfaidh": 4849,
      "ĠÃ¡itribh": 4850,
      "ĠTuirc": 4851,
      "ĠCHUN": 4852,
      "ĠFactory": 4853,
      "ĠConnectable": 4854,
      "Fh": 4855,
      "leath": 4856,
      "siÃº": 4857,
      "Ġabh": 4858,
      "Ġaidhm": 4859,
      "ink": 4860,
      "nat": 4861,
      "iseadh": 4862,
      "Ġce": 4863,
      "Ġpraghsanna": 4864,
      "Ġgcos": 4865,
      "ĠIosta": 4866,
      "ĠbhfÃ©adfaidh": 4867,
      "Ġfhonn": 4868,
      "ĠPÃ©": 4869,
      "adhb": 4870,
      "scrÃºdÃº": 4871,
      "fhreag": 4872,
      "ĠphÃ¡irt": 4873,
      "ĠÃºsÃ¡ideoir": 4874,
      "ĠBhallstÃ¡t": 4875,
      "Ġimeacht": 4876,
      "iotail": 4877,
      "tÃ¡ilte": 4878,
      "ĠForbartha": 4879,
      "ĠAchomhairc": 4880,
      "ĠChomhphobail": 4881,
      "ĠghnÃŃomhaÃŃochtaÃŃ": 4882,
      "iorra": 4883,
      "ĠthÃ³gaint": 4884,
      "Ġlitir": 4885,
      "ĠurrÃºs": 4886,
      "ĠIlghnÃ©": 4887,
      "Ġlabhairt": 4888,
      "CDD": 4889,
      "ĠaibÃŃ": 4890,
      "br": 4891,
      "ha": 4892,
      "lanna": 4893,
      "port": 4894,
      "Ġaonad": 4895,
      "chÃ©ile": 4896,
      "Ã³ithre": 4897,
      "bhra": 4898,
      "Ġgru": 4899,
      "Ġgalar": 4900,
      "Ġgorm": 4901,
      "onna": 4902,
      "Ġchor": 4903,
      "Ġtuaras": 4904,
      "Ġmuir": 4905,
      "Ġbhe": 4906,
      "ĠCar": 4907,
      "ĠSeirbhÃŃse": 4908,
      "Ġdheir": 4909,
      "ĠÃ©inne": 4910,
      "ĠMonarcha": 4911,
      "ren": 4912,
      "Ġimthosca": 4913,
      "saÃŃocht": 4914,
      "ĠcÃ³imh": 4915,
      "ĠbprÃ³": 4916,
      "ĠhArd": 4917,
      "luiche": 4918,
      "ious": 4919,
      "Ġ189": 4920,
      "ĠtosÃº": 4921,
      "Ġriachtanas": 4922,
      "ĠcuspÃ³ir": 4923,
      "Ġinti": 4924,
      "EASÃļ": 4925,
      "ĠÃ©ascÃº": 4926,
      "SE": 4927,
      "nÃ¡r": 4928,
      "rais": 4929,
      "ual": 4930,
      "Ġearr": 4931,
      "Ġcigire": 4932,
      "ĠnD": 4933,
      "Ġtais": 4934,
      "ĠmÃºn": 4935,
      "ĠCÃ¡il": 4936,
      "ĠTreor": 4937,
      "ĠTCDD": 4938,
      "inneach": 4939,
      "ĠdhÃŃon": 4940,
      "Ġmholadh": 4941,
      "Ġshaor": 4942,
      "ĠPol": 4943,
      "ĠghrÃºpa": 4944,
      "Ġmbliain": 4945,
      "ĠAnois": 4946,
      "aoise": 4947,
      "Ġluadh": 4948,
      "shuim": 4949,
      "achana": 4950,
      "ĠcÃ³naithe": 4951,
      "ĠcrÃŃochnaithe": 4952,
      "ĠÃŃocfaidh": 4953,
      "AID": 4954,
      "ĠoibleagÃ¡idÃŃ": 4955,
      "Ġcathaoirleach": 4956,
      "Ġbainc": 4957,
      "eastaÃŃonn": 4958,
      "ĠsnÃ¡ithe": 4959,
      "ĠFeidhmiÃºchÃ¡in": 4960,
      "ĠchruinniÃº": 4961,
      "ĠÃģirÃŃtear": 4962,
      "ĠshealbhÃº": 4963,
      "Ġmuin": 4964,
      "ĠurrÃºis": 4965,
      "Ġbhfaighidh": 4966,
      "ĠeacnamaÃŃoch": 4967,
      "ĠtuairisceÃ¡n": 4968,
      "Ġsuntasach": 4969,
      "nbÃºl": 4970,
      "ĠRolex": 4971,
      "ĠOutlook": 4972,
      "ĠIostanbÃºl": 4973,
      "ĠlÃ©ar": 4974,
      "Ġlinbh": 4975,
      "Ġfeirm": 4976,
      "ĠcistÃŃ": 4977,
      "ĠmÃºinteoirÃŃ": 4978,
      "ĠpÃ¡ipÃ©ar": 4979,
      "Ġpearsan": 4980,
      "ĠhÃ¡bhair": 4981,
      "Ġdheo": 4982,
      "ĠthÃŃolacadh": 4983,
      "ĠLÃŃon": 4984,
      "ĠmhaolÃº": 4985,
      "ĠshÃ¡rÃº": 4986,
      "ĠÃ³s": 4987,
      "ĠNat": 4988,
      "ltais": 4989,
      "Ġathsh": 4990,
      "ĠfrÃ©amh": 4991,
      "ĠbpÃ¡irt": 4992,
      "Ġshonraithe": 4993,
      "ĠShÃ³isialaigh": 4994,
      "ollar": 4995,
      "Ġtionscal": 4996,
      "Ġtionscnaimh": 4997,
      "Ġ1998": 4998,
      "Ġthreoir": 4999,
      "Ġfheidhmeanna": 5000,
      "bhreithniÃº": 5001,
      "ĠdiÃºltÃº": 5002,
      "Ġfhoirgn": 5003,
      "ainmn": 5004,
      "ĠÃīireannach": 5005,
      "ĠmaoiniÃº": 5006,
      "Ġalc": 5007,
      "ĠLeictr": 5008,
      "ĠtÃ¡irgeadh": 5009,
      "ĠbhreithniÃº": 5010,
      "Ġfoirgneamh": 5011,
      "Ġdualgas": 5012,
      "ĠsubstaintÃŃ": 5013,
      "ĠSamhain": 5014,
      "ĠcÃ¡bla": 5015,
      "ĠsÃŃolta": 5016,
      "Ġghlanadh": 5017,
      "ĠtodhchaÃŃ": 5018,
      "quarium": 5019,
      "Ġwasher": 5020,
      "dÃ¡in": 5021,
      "gen": 5022,
      "ke": 5023,
      "mer": 5024,
      "ireachta": 5025,
      "Ġcobh": 5026,
      "Ġbhar": 5027,
      "ĠCathrach": 5028,
      "Ġchuims": 5029,
      "ĠTos": 5030,
      "ĠTeor": 5031,
      "ostÃº": 5032,
      "ĠthrÃŃ": 5033,
      "ĠMo": 5034,
      "Ġsatail": 5035,
      "Ġtriail": 5036,
      "ĠPar": 5037,
      "ĠPost": 5038,
      "ĠGaillimh": 5039,
      "res": 5040,
      "scr": 5041,
      "fho": 5042,
      "ĠforÃ¡la": 5043,
      "ÃģS": 5044,
      "ĠLeasa": 5045,
      "Ġtionscnamh": 5046,
      "Ġcheaptha": 5047,
      "ĠthrÃ¡d": 5048,
      "ĠdÃŃolÃºine": 5049,
      "ĠÃģitiÃºla": 5050,
      "ĠlÃ¡mha": 5051,
      "ĠfaireachÃ¡n": 5052,
      "ĠmoltaÃŃ": 5053,
      "ĠcomhrÃ©ireachta": 5054,
      "ĠtionÃ³nta": 5055,
      "ĠteicneolaÃŃocht": 5056,
      "Ġdroch": 5057,
      "ĠdÃ©anmhas": 5058,
      "TS": 5059,
      "ld": 5060,
      "ĠdÃŃola": 5061,
      "thaigh": 5062,
      "thÃ©acs": 5063,
      "Ġcor": 5064,
      "ĠteicniÃºil": 5065,
      "Ġbhean": 5066,
      "ĠCineÃ¡l": 5067,
      "iÃºchta": 5068,
      "Ġhoifig": 5069,
      "Ġgcoit": 5070,
      "ĠBail": 5071,
      "itis": 5072,
      "ĠFa": 5073,
      "ĠDE": 5074,
      "ĠLÃ©igh": 5075,
      "olÃ¡ir": 5076,
      "ĠÃºis": 5077,
      "Ġchomhar": 5078,
      "Ġamhras": 5079,
      "Ġstoic": 5080,
      "Ġphost": 5081,
      "Ġphearsanta": 5082,
      "ĠphÃ¡irtÃŃ": 5083,
      "Ġ44": 5084,
      "Ġbranda": 5085,
      "Ġ2002": 5086,
      "ĠbuntÃ¡istÃŃ": 5087,
      "ĠInscne": 5088,
      "ĠsolÃ¡thraithe": 5089,
      "Ġfoireann": 5090,
      "Ã¡itreabh": 5091,
      "ĠÃįoc": 5092,
      "ĠgairmiÃºil": 5093,
      "ĠbÃ³ithre": 5094,
      "Ġfeistithe": 5095,
      "ĠÃ©irÃŃ": 5096,
      "ĠCeannais": 5097,
      "ĠdifrÃŃocht": 5098,
      "Ġcruinnithe": 5099,
      "Ġiontaobhais": 5100,
      "ĠcomharthaÃŃ": 5101,
      "ĠChosaint": 5102,
      "ĠsatailÃŃte": 5103,
      "MA": 5104,
      "oideachais": 5105,
      "Ġoidh": 5106,
      "Ġsal": 5107,
      "Ġcodanna": 5108,
      "Ġchonradh": 5109,
      "Ġtine": 5110,
      "ĠmÃŃniÃº": 5111,
      "ĠAtha": 5112,
      "altas": 5113,
      "ĠbÃŃonn": 5114,
      "earg": 5115,
      "ĠIonad": 5116,
      "ĠfhÃ³g": 5117,
      "ĠthÃ¡irgÃŃ": 5118,
      "Ġthaifead": 5119,
      "ĠFion": 5120,
      "ĠMac": 5121,
      "Ġtru": 5122,
      "ĠmhÃŃch": 5123,
      "ĠRÃºis": 5124,
      "lteanais": 5125,
      "ĠscÃ¡th": 5126,
      "eadÃ³ir": 5127,
      "ighe": 5128,
      "Ġstop": 5129,
      "Ġ48": 5130,
      "Ġ49": 5131,
      "uidÃ©al": 5132,
      "eapÃ¡in": 5133,
      "ĠmeasÃºnachta": 5134,
      "tÃºirt": 5135,
      "ĠcuidiÃº": 5136,
      "ĠleanÃºna": 5137,
      "ĠndÃ©anfaÃŃ": 5138,
      "iocht": 5139,
      "Ġ1997": 5140,
      "ĠÃ©ilimh": 5141,
      "iamond": 5142,
      "iailiÃº": 5143,
      "Ġteagmhas": 5144,
      "ĠchlÃ¡raithe": 5145,
      "ĠinchÃ¡ilithe": 5146,
      "ĠrÃ©igiÃºin": 5147,
      "ĠdÃŃlse": 5148,
      "ĠtrÃ¡cht": 5149,
      "ĠdÃ¡ileadh": 5150,
      "Ġdtreo": 5151,
      "Ġhoibreacha": 5152,
      "Ġtimpeall": 5153,
      "Ġtaisteal": 5154,
      "ltÃºrtha": 5155,
      "ĠgcomparÃ¡id": 5156,
      "mais": 5157,
      "Ġir": 5158,
      "Ġapp": 5159,
      "Ġlip": 5160,
      "Ġfis": 5161,
      "dhÃ©anta": 5162,
      "Ġmainn": 5163,
      "Ġmuirir": 5164,
      "ush": 5165,
      "eitr": 5166,
      "Ġru": 5167,
      "Ġriail": 5168,
      "Ġbeatha": 5169,
      "eoite": 5170,
      "rat": 5171,
      "imint": 5172,
      "ĠChuar": 5173,
      "ĠPR": 5174,
      "ock": 5175,
      "Ġphraghas": 5176,
      "Ġthabh": 5177,
      "Ãºnaimh": 5178,
      "Ġgcomhlacht": 5179,
      "ograÃŃ": 5180,
      "Ġ2003": 5181,
      "roÃŃ": 5182,
      "rÃ¡cht": 5183,
      "ĠtuismitheoirÃŃ": 5184,
      "Ġsrianta": 5185,
      "oicimÃ©id": 5186,
      "Ġcomhairimh": 5187,
      "Ġcumann": 5188,
      "ĠtÃ³gÃ¡la": 5189,
      "ĠtrÃ©dhearc": 5190,
      "ĠcÃºraimÃŃ": 5191,
      "ĠcÃ©imeanna": 5192,
      "Ġfeithicle": 5193,
      "ĠsnÃ¡ith": 5194,
      "ĠstÃ¡das": 5195,
      "ĠTweets": 5196,
      "ĠballÃ³ide": 5197,
      "Ġsibhialta": 5198,
      "ÃīANAMH": 5199,
      "Ġgcoitinne": 5200,
      "cho": 5201,
      "ĠsÃ¡bhÃ¡ilteacht": 5202,
      "nal": 5203,
      "naer": 5204,
      "ĠfÃ©id": 5205,
      "dhÃŃo": 5206,
      "ĠagÃ³id": 5207,
      "Ġtur": 5208,
      "Ġtiocfaidh": 5209,
      "Ġiv": 5210,
      "ĠrÃ©ad": 5211,
      "ĠTU": 5212,
      "ĠgcoimeÃ¡d": 5213,
      "inneoin": 5214,
      "ĠdhÃŃl": 5215,
      "ĠFin": 5216,
      "ĠDÃºirt": 5217,
      "ĠMas": 5218,
      "ĠLocal": 5219,
      "eaga": 5220,
      "caÃŃochta": 5221,
      "lachas": 5222,
      "ĠNach": 5223,
      "ltÃ³ir": 5224,
      "lia": 5225,
      "ÃŃnÃŃtear": 5226,
      "Ġcuim": 5227,
      "ical": 5228,
      "ealra": 5229,
      "scÃ¡il": 5230,
      "Ġphointe": 5231,
      "luaite": 5232,
      "daÃŃocht": 5233,
      "eangacha": 5234,
      "saÃŃochta": 5235,
      "illing": 5236,
      "Ġceannaigh": 5237,
      "iÃºirÃŃ": 5238,
      "Ġ90": 5239,
      "Ġbhraitheann": 5240,
      "Ġoibrithe": 5241,
      "lÃºma": 5242,
      "Ã¡bhachtach": 5243,
      "Ġdhul": 5244,
      "ĠCumhacht": 5245,
      "cmhainnÃŃ": 5246,
      "ĠbainistiÃº": 5247,
      "Ġbainisteoir": 5248,
      "ĠdiÃºscairt": 5249,
      "straimÃŃ": 5250,
      "Ġgcionta": 5251,
      "ĠcÃ³ireÃ¡il": 5252,
      "Ġteasa": 5253,
      "201": 5254,
      "ĠÃ©adaÃŃ": 5255,
      "ĠphrÃ³iseas": 5256,
      "ĠcÃºrsaÃŃ": 5257,
      "ĠLeabhar": 5258,
      "ĠdlÃŃthiÃºil": 5259,
      "ĠdhlÃŃth": 5260,
      "Ġdliteanais": 5261,
      "EANNA": 5262,
      "ĠlÃŃnte": 5263,
      "ĠNuacht": 5264,
      "ĠEalaÃŃon": 5265,
      "pt": 5266,
      "tra": 5267,
      "tÃ¡n": 5268,
      "ue": 5269,
      "way": 5270,
      "eaf": 5271,
      "Ã©ine": 5272,
      "Ġlot": 5273,
      "Ġceimic": 5274,
      "ons": 5275,
      "ĠteicniÃºla": 5276,
      "Ġmic": 5277,
      "earn": 5278,
      "ĠSr": 5279,
      "ĠbhfÃ©adfaÃŃ": 5280,
      "itimh": 5281,
      "ĠDÃ©ar": 5282,
      "eachtacht": 5283,
      "uro": 5284,
      "ĠRinne": 5285,
      "ĠÃ³c": 5286,
      "ĠGairdÃŃn": 5287,
      "rÃºchÃ¡in": 5288,
      "ĠÃºnaer": 5289,
      "Ã¡rach": 5290,
      "ĠphrÃŃobh": 5291,
      "omhairl": 5292,
      "Ġngleic": 5293,
      "atrÃº": 5294,
      "oirmisc": 5295,
      "ĠmheasÃºnÃº": 5296,
      "ĠbuÃŃ": 5297,
      "ĠFhr": 5298,
      "ĠghnÃŃomhaÃŃocht": 5299,
      "Ġeasc": 5300,
      "Ġiontaofa": 5301,
      "ĠdÃŃbh": 5302,
      "Ġteaghlach": 5303,
      "ĠscannÃ¡in": 5304,
      "Ġghrian": 5305,
      "ĠchreidiÃºint": 5306,
      "ĠhÃ©ifeacht": 5307,
      "Ġvoltage": 5308,
      "Ġfaighte": 5309,
      "Ġdheasca": 5310,
      "ĠMonarÃ³irÃŃ": 5311,
      "lÃºmanam": 5312,
      "HO": 5313,
      "cu": 5314,
      "ote": 5315,
      "oine": 5316,
      "Ġainneoin": 5317,
      "chÃ³": 5318,
      "chais": 5319,
      "Ġdligh": 5320,
      "Ġlasc": 5321,
      "Ġgalair": 5322,
      "Ġcist": 5323,
      "Ġclas": 5324,
      "Ġcustaim": 5325,
      "ĠtuarascÃ¡lacha": 5326,
      "ĠmÃŃleata": 5327,
      "Ġbhearta": 5328,
      "ĠCÃ¡s": 5329,
      "ory": 5330,
      "alÃº": 5331,
      "Ġbainne": 5332,
      "ĠTÃŃ": 5333,
      "ĠpÃ¡istÃŃ": 5334,
      "ÃŃochÃ¡in": 5335,
      "ĠdhÃº": 5336,
      "Ġbhfol": 5337,
      "ĠfhÃ©adfar": 5338,
      "Ġthur": 5339,
      "Ã©ireachta": 5340,
      "ĠDaoine": 5341,
      "ĠmhÃŃniÃº": 5342,
      "ĠChlÃ¡r": 5343,
      "Ġsceideal": 5344,
      "oiriÃºil": 5345,
      "Ġachomhairc": 5346,
      "Ġ52": 5347,
      "ĠUr": 5348,
      "ĠgCiste": 5349,
      "ĠspÃ³irt": 5350,
      "ĠfriotaÃŃocht": 5351,
      "Ġcuireann": 5352,
      "ĠhAcht": 5353,
      "Ġtoirt": 5354,
      "ĠoibleagÃ¡id": 5355,
      "ĠRialÃº": 5356,
      "Ġthuiscint": 5357,
      "Ġuirb": 5358,
      "ĠteagmhÃ¡la": 5359,
      "Ġdeontais": 5360,
      "ĠOrdÃº": 5361,
      "turnae": 5362,
      "Ġglactha": 5363,
      "Ġcaithfidh": 5364,
      "ĠthagairtÃŃ": 5365,
      "Ġprionsabail": 5366,
      "Ġgheimhridh": 5367,
      "eosla": 5368,
      "Ġmaoirseachta": 5369,
      "ĠIascaigh": 5370,
      "ĠhamhÃ¡in": 5371,
      "ĠfÃ©ilire": 5372,
      "cairÃŃ": 5373,
      "daÃŃtear": 5374,
      "mach": 5375,
      "Ã³mh": 5376,
      "ĠcaighdeÃ¡nach": 5377,
      "ilv": 5378,
      "Ġcheantar": 5379,
      "ĠtÃŃo": 5380,
      "eifear": 5381,
      "Ġbean": 5382,
      "ĠSÃ³isial": 5383,
      "Ġhais": 5384,
      "Ġgcumas": 5385,
      "ĠfhÃ¡s": 5386,
      "ĠMin": 5387,
      "olog": 5388,
      "ĠPl": 5389,
      "ĠÃ³na": 5390,
      "Ġen": 5391,
      "ĠGluaiseacht": 5392,
      "ĠscÃ¡la": 5393,
      "ealth": 5394,
      "Ġcraiceann": 5395,
      "Ġ43": 5396,
      "Ġ51": 5397,
      "Ġ58": 5398,
      "Ġimp": 5399,
      "othair": 5400,
      "ĠgnÃŃomhach": 5401,
      "ĠInc": 5402,
      "ĠÃ©agsÃºil": 5403,
      "ĠhAchta": 5404,
      "aingt": 5405,
      "Ġeochair": 5406,
      "ĠForbairt": 5407,
      "Ġsreabh": 5408,
      "Ġcheapfaidh": 5409,
      "ĠmeascÃ¡n": 5410,
      "Ġmhargaidh": 5411,
      "ĠmÃ³rdhÃŃoltÃ³irÃŃ": 5412,
      "ĠaimsiÃº": 5413,
      "ĠeagraÃŃochtaÃŃ": 5414,
      "ĠindÃ©anta": 5415,
      "ĠStraitÃ©is": 5416,
      "ĠDHÃīANAMH": 5417,
      "leabhar": 5418,
      "Ġdhroim": 5419,
      "ĠcontrÃ¡r": 5420,
      "ell": 5421,
      "mÃ¡id": 5422,
      "Ġaca": 5423,
      "ĠsÃ¡r": 5424,
      "thain": 5425,
      "threor": 5426,
      "bhearta": 5427,
      "Ġcig": 5428,
      "Ġcao": 5429,
      "Ġchaiteachais": 5430,
      "Ġmad": 5431,
      "ĠComp": 5432,
      "ĠbrÃŃ": 5433,
      "lathaithe": 5434,
      "Ġpoist": 5435,
      "ĠdhochtÃºir": 5436,
      "asamhail": 5437,
      "Ġthiar": 5438,
      "Ã©adfidh": 5439,
      "Ġsaoil": 5440,
      "Ġmhona": 5441,
      "ĠChÃ³": 5442,
      "ĠRÃŃomh": 5443,
      "ĠsheirbhÃŃsÃŃ": 5444,
      "unter": 5445,
      "Ġghearr": 5446,
      "ainteoir": 5447,
      "Ġ47": 5448,
      "uirg": 5449,
      "ĠÃºsÃ¡ideann": 5450,
      "nÃ³idh": 5451,
      "iseÃ¡n": 5452,
      "ĠgcomhphÃ¡irt": 5453,
      "ĠchÃºram": 5454,
      "ĠdÃºradh": 5455,
      "ĠcailÃŃnÃŃ": 5456,
      "lish": 5457,
      "ĠCatagÃ³irÃŃ": 5458,
      "ĠbÃ³thair": 5459,
      "ĠfionraÃŃ": 5460,
      "Ġintinn": 5461,
      "ĠpictiÃºr": 5462,
      "ĠfÃ³ill": 5463,
      "ĠDearbh": 5464,
      "ĠÃ©igeandÃ¡la": 5465,
      "ĠDaonra": 5466,
      "ĠBracelet": 5467,
      "ĠgcruinniÃº": 5468,
      "ĠcroÃŃ": 5469,
      "ka": 5470,
      "nnas": 5471,
      "ness": 5472,
      "pers": 5473,
      "saithe": 5474,
      "top": 5475,
      "ya": 5476,
      "chaighdeÃ¡in": 5477,
      "ĠstÃ¡it": 5478,
      "iniÃºch": 5479,
      "Ġgeal": 5480,
      "Ġcoinn": 5481,
      "Ġciste": 5482,
      "Ġcheil": 5483,
      "Ġcharm": 5484,
      "Ġtuir": 5485,
      "Ġtoirmeasc": 5486,
      "ĠCoinbhinsiÃºn": 5487,
      "ĠTras": 5488,
      "Ġhord": 5489,
      "Ġheis": 5490,
      "ĠdhaingniÃº": 5491,
      "ĠBarr": 5492,
      "Ġfhion": 5493,
      "Ã©ireacht": 5494,
      "Ġmhair": 5495,
      "ĠRÃ¡it": 5496,
      "Ġshann": 5497,
      "Ġshaol": 5498,
      "ĠPraghas": 5499,
      "Ġsciath": 5500,
      "Ġcuims": 5501,
      "iciÃºla": 5502,
      "aithint": 5503,
      "Ġtap": 5504,
      "ĠstaitisticÃŃ": 5505,
      "Ġ57": 5506,
      "ÃŃocfar": 5507,
      "ĠcÃºirt": 5508,
      "Ġclo": 5509,
      "ibhialta": 5510,
      "ĠcÃ³d": 5511,
      "eolaÃŃochta": 5512,
      "ÃŃocaÃŃocht": 5513,
      "ĠMhÃ¡rta": 5514,
      "rÃ©itigh": 5515,
      "aicÃŃ": 5516,
      "ĠCuims": 5517,
      "Ġinmhuirir": 5518,
      "Ġaitheanta": 5519,
      "Ġ1952": 5520,
      "ĠtoghchÃ¡n": 5521,
      "ĠiniÃºchÃ³ireachta": 5522,
      "ĠreÃ¡cht": 5523,
      "ĠbailÃŃ": 5524,
      "ĠghairmiÃºil": 5525,
      "ĠÃįos": 5526,
      "Ġfeithicil": 5527,
      "ĠgCuideachtaÃŃ": 5528,
      "ĠstÃ¡isiÃºn": 5529,
      "ĠainmniÃºchÃ¡in": 5530,
      "ĠmeÃ¡chain": 5531,
      "foirt": 5532,
      "ĠrathÃºil": 5533,
      "Ġcompordach": 5534,
      "cy": 5535,
      "feas": 5536,
      "naid": 5537,
      "por": 5538,
      "ĠdlÃºth": 5539,
      "Ġsil": 5540,
      "Ġleacht": 5541,
      "ĠfÃŃr": 5542,
      "ĠfÃ³n": 5543,
      "ĠfostaÃŃocht": 5544,
      "Ġfarraige": 5545,
      "ĠneartÃº": 5546,
      "Ġchluiche": 5547,
      "Ġmeabh": 5548,
      "ĠmeÃ¡in": 5549,
      "ĠCÃ¡in": 5550,
      "Ġriocht": 5551,
      "Ġbeartas": 5552,
      "Ã©ata": 5553,
      "Ġchuaigh": 5554,
      "ĠTR": 5555,
      "Ġfheithicil": 5556,
      "Ġtheas": 5557,
      "eagar": 5558,
      "ÃŃosaÃŃ": 5559,
      "Ã¡ire": 5560,
      "ĠdteagmhÃ¡il": 5561,
      "ĠtÃ¡imid": 5562,
      "Ġforais": 5563,
      "Ġionaid": 5564,
      "ings": 5565,
      "ĠCEE": 5566,
      "Ġtairisceana": 5567,
      "INN": 5568,
      "ivers": 5569,
      "Ġ1956": 5570,
      "ANNA": 5571,
      "Ġpleananna": 5572,
      "ubstaint": 5573,
      "Ã©ifeacht": 5574,
      "ĠlÃ¡imhe": 5575,
      "ĠtÃ¡irgthe": 5576,
      "Ġcomhshoc": 5577,
      "ĠfoirgnÃŃochta": 5578,
      "ouse": 5579,
      "aothrÃº": 5580,
      "ĠbhÃ©arfaidh": 5581,
      "ĠliathrÃ³id": 5582,
      "ĠreÃ¡chtÃ¡il": 5583,
      "LÃģ": 5584,
      "iÃ³": 5585,
      "leathach": 5586,
      "naitheach": 5587,
      "opa": 5588,
      "pe": 5589,
      "tÃ©ir": 5590,
      "uin": 5591,
      "ula": 5592,
      "ĠlÃŃomh": 5593,
      "taÃŃonn": 5594,
      "Ġgiorra": 5595,
      "Ġfoghlaim": 5596,
      "ĠcoinnÃŃoll": 5597,
      "arÃ¡id": 5598,
      "ĠchoinnÃŃollacha": 5599,
      "ĠtaispeÃ¡n": 5600,
      "ĠCÃ©im": 5601,
      "iÃºlacht": 5602,
      "rad": 5603,
      "earch": 5604,
      "ĠTuarascÃ¡il": 5605,
      "Ġpas": 5606,
      "ĠSeirbhÃŃs": 5607,
      "tel": 5608,
      "Ġdho": 5609,
      "Ġfhadhb": 5610,
      "ĠtheicniÃºil": 5611,
      "ĠLeith": 5612,
      "ĠLEASÃļ": 5613,
      "old": 5614,
      "ĠChoinbhinsiÃºn": 5615,
      "ĠshlÃ¡inte": 5616,
      "ĠEola": 5617,
      "Ġscar": 5618,
      "Ã¡thar": 5619,
      "fhabh": 5620,
      "Ġdtug": 5621,
      "uirm": 5622,
      "ĠforlÃŃon": 5623,
      "ĠforlÃ©ireofar": 5624,
      "Ġcleachtais": 5625,
      "daoin": 5626,
      "ĠmÃ¡ist": 5627,
      "chuirtear": 5628,
      "EACHT": 5629,
      "Ġchostas": 5630,
      "ĠcheanglaÃŃtear": 5631,
      "ChÃºirte": 5632,
      "ĠcÃ³ipeanna": 5633,
      "Ġseachtrach": 5634,
      "airgeadra": 5635,
      "ĠglÃ©asra": 5636,
      "ĠIomlÃ¡n": 5637,
      "ĠfhÃ¡gÃ¡il": 5638,
      "ĠconarthaÃŃ": 5639,
      "ĠTeaghlaigh": 5640,
      "Ġmionsonraithe": 5641,
      "Ġloings": 5642,
      "ĠprÃ³iseÃ¡la": 5643,
      "ĠdtÃ¡irgÃŃ": 5644,
      "ĠfrÃ©amhacha": 5645,
      "ĠChuarda": 5646,
      "ĠFhrainc": 5647,
      "FC": 5648,
      "UM": 5649,
      "blaÃŃ": 5650,
      "lar": 5651,
      "neach": 5652,
      "ota": 5653,
      "chiste": 5654,
      "nasc": 5655,
      "Ġfiac": 5656,
      "dhreach": 5657,
      "Ġchaiteachas": 5658,
      "Ġchigire": 5659,
      "Ġithe": 5660,
      "ghrÃ¡d": 5661,
      "ĠTor": 5662,
      "ĠTaighde": 5663,
      "ĠTaispeÃ¡in": 5664,
      "ĠpÃŃo": 5665,
      "Ġhe": 5666,
      "ten": 5667,
      "teorann": 5668,
      "Ġthaisc": 5669,
      "Ã¡sach": 5670,
      "ĠDollar": 5671,
      "ĠRoinne": 5672,
      "ĠPac": 5673,
      "aidin": 5674,
      "ĠscolÃ¡ir": 5675,
      "iÃºnÃº": 5676,
      "ĠÃĸ": 5677,
      "uirge": 5678,
      "Ã¡lann": 5679,
      "ĠgCO": 5680,
      "Ġtharchur": 5681,
      "Ġlag": 5682,
      "eilig": 5683,
      "Ġcinnt": 5684,
      "ĠgnÃŃomhaÃŃochta": 5685,
      "ĠInfheist": 5686,
      "Ġ02": 5687,
      "ĠardchaighdeÃ¡n": 5688,
      "Ġdeartha": 5689,
      "ots": 5690,
      "Ġ1926": 5691,
      "Ġ1936": 5692,
      "oiteann": 5693,
      "pÃ³irtÃ©ir": 5694,
      "ĠvÃ³tÃ¡il": 5695,
      "ĠtoghchÃ¡in": 5696,
      "Ġfhoirceannadh": 5697,
      "ĠCosanta": 5698,
      "ĠcÃºrsa": 5699,
      "ĠionstraimÃŃ": 5700,
      "ĠTionscadal": 5701,
      "ĠtreoirlÃŃnte": 5702,
      "ĠphrÃŃos": 5703,
      "Ġscaipeadh": 5704,
      "ocsain": 5705,
      "ĠCÃ©adaoin": 5706,
      "MHAIRLE": 5707,
      "Ġgruaige": 5708,
      "ĠDÃ©ardaoin": 5709,
      "Ġshanntar": 5710,
      "hone": 5711,
      "ience": 5712,
      "nigh": 5713,
      "nÃŃtear": 5714,
      "nrÃ³d": 5715,
      "ran": 5716,
      "ÅŁ": 5717,
      "chÃºr": 5718,
      "Ã¡inn": 5719,
      "Ġdeas": 5720,
      "Ġseice": 5721,
      "thachta": 5722,
      "ireachtas": 5723,
      "Ġgal": 5724,
      "dhlÃº": 5725,
      "ĠcÃ©ile": 5726,
      "ĠmothÃº": 5727,
      "ĠAt": 5728,
      "earach": 5729,
      "eartaÃŃtear": 5730,
      "ĠiniÃºchta": 5731,
      "ĠTugtar": 5732,
      "ĠTiocfaidh": 5733,
      "ĠSin": 5734,
      "ĠSlÃ¡n": 5735,
      "ĠgcÃºirt": 5736,
      "innÃ©": 5737,
      "ĠdhiailiÃº": 5738,
      "Ġfhoghlaim": 5739,
      "ĠDeir": 5740,
      "ĠMan": 5741,
      "ĠRiail": 5742,
      "ĠscÃ¡il": 5743,
      "rÃºchÃ¡n": 5744,
      "oimre": 5745,
      "ĠtarlÃº": 5746,
      "ĠfeidhmiÃºchÃ¡in": 5747,
      "ĠBhreith": 5748,
      "ĠimnÃŃ": 5749,
      "obhach": 5750,
      "Ġbreac": 5751,
      "shealbh": 5752,
      "ĠfÃ¡ilte": 5753,
      "ĠgÃ¡is": 5754,
      "ĠIns": 5755,
      "eisial": 5756,
      "ĠchÃºnamh": 5757,
      "Ġbpr": 5758,
      "ĠGhearmÃ¡in": 5759,
      "EAD": 5760,
      "ĠSaoire": 5761,
      "iotal": 5762,
      "rÃ¡ma": 5763,
      "ĠIarratas": 5764,
      "ĠÃĵs": 5765,
      "Ġ1927": 5766,
      "ĠJoint": 5767,
      "ĠtÃ¡scaire": 5768,
      "Ġiascach": 5769,
      "Ġmiond": 5770,
      "ublic": 5771,
      "ĠrÃ©igiÃºnach": 5772,
      "Ġhimthosca": 5773,
      "Ġtagartha": 5774,
      "Ġprionsabal": 5775,
      "ĠmhuirearÃº": 5776,
      "chÃ©ime": 5777,
      "Ġcuardaigh": 5778,
      "ochtana": 5779,
      "ĠUaireadÃ³irÃŃ": 5780,
      "cra": 5781,
      "ev": 5782,
      "iog": 5783,
      "leac": 5784,
      "mair": 5785,
      "net": 5786,
      "tic": 5787,
      "cheap": 5788,
      "ÃŃt": 5789,
      "Ġdian": 5790,
      "Ġdigiteach": 5791,
      "Ġseachadadh": 5792,
      "mhaith": 5793,
      "Ã³thar": 5794,
      "ista": 5795,
      "Ġfais": 5796,
      "ĠcothabhÃ¡il": 5797,
      "ĠcustaimÃ©irÃŃ": 5798,
      "ĠmÃ¡il": 5799,
      "antÃ³ir": 5800,
      "idÃŃ": 5801,
      "Ġdebate": 5802,
      "ĠpaisinÃ©irÃŃ": 5803,
      "Ġgcaitheamh": 5804,
      "iteas": 5805,
      "ĠDearadh": 5806,
      "Ġmhol": 5807,
      "ĠChaibidil": 5808,
      "ĠRinneadh": 5809,
      "ĠshÃ¡s": 5810,
      "ĠÃ³g": 5811,
      "rent": 5812,
      "Ġmbeart": 5813,
      "ealaigh": 5814,
      "scail": 5815,
      "fhocal": 5816,
      "ogle": 5817,
      "Ã¡nacha": 5818,
      "ĠgnÃŃomhaÃŃocht": 5819,
      "ÃŃocaÃŃochta": 5820,
      "Ġionadaithe": 5821,
      "Ġdtagann": 5822,
      "ĠoibrÃŃonn": 5823,
      "ĠStiÃºr": 5824,
      "ĠmBan": 5825,
      "ĠdÃºsh": 5826,
      "Ġleathair": 5827,
      "ĠchÃ³ip": 5828,
      "ĠghnÃŃomhaire": 5829,
      "spidÃ©il": 5830,
      "ĠdiÃºl": 5831,
      "Ġearrach": 5832,
      "ĠClib": 5833,
      "ĠGnÃŃomhaireachta": 5834,
      "ĠStat": 5835,
      "Ġilbh": 5836,
      "book": 5837,
      "ĠhÃ©ifeachtach": 5838,
      "ĠcaipitiÃºil": 5839,
      "Ġscag": 5840,
      "ĠfÃ¡gtha": 5841,
      "ĠbhÃ³thar": 5842,
      "ĠiPhone": 5843,
      "CP": 5844,
      "ION": 5845,
      "iasc": 5846,
      "lÃŃne": 5847,
      "uÃŃonn": 5848,
      "Ã¼": 5849,
      "Ġaire": 5850,
      "chl": 5851,
      "Ġchathair": 5852,
      "Ġmp": 5853,
      "ĠbuidÃ©al": 5854,
      "Ġinchurtha": 5855,
      "Ġheagra": 5856,
      "ĠBill": 5857,
      "ĠFÃģS": 5858,
      "eannaigh": 5859,
      "ĠLim": 5860,
      "ĠshiÃºl": 5861,
      "Ġualach": 5862,
      "ltÃºir": 5863,
      "less": 5864,
      "Ġcuibhe": 5865,
      "cess": 5866,
      "Ġtabh": 5867,
      "Ġothair": 5868,
      "Ġluaite": 5869,
      "oibrithe": 5870,
      "ampa": 5871,
      "tÃºin": 5872,
      "onarthaÃŃ": 5873,
      "Ġneamhr": 5874,
      "ĠchÃºiteamh": 5875,
      "Ġrialaitheoir": 5876,
      "Ġlaghdaithe": 5877,
      "low": 5878,
      "Ġinnealt": 5879,
      "ĠlÃ©igh": 5880,
      "Ġ1939": 5881,
      "Ġcaomh": 5882,
      "Ġdomhanda": 5883,
      "Ġ1946": 5884,
      "ĠplÃ©": 5885,
      "ĠCliceÃ¡il": 5886,
      "ĠdhiÃºlt": 5887,
      "ĠinfheistÃŃocht": 5888,
      "ĠcliceÃ¡il": 5889,
      "ĠteachÃŃn": 5890,
      "Ġcoda": 5891,
      "ĠlaethÃºil": 5892,
      "ĠcoiriÃºla": 5893,
      "Ġaimsire": 5894,
      "ĠDubh": 5895,
      "ĠglasraÃŃ": 5896,
      "Ã¡istiÃº": 5897,
      "ĠUnivers": 5898,
      "ĠÃ¡iseanna": 5899,
      "bhuan": 5900,
      "ĠtOireachtas": 5901,
      "ĠCumarsÃ¡ide": 5902,
      "ĠUathoibrÃŃoch": 5903,
      "Ġathnuachan": 5904,
      "ĠsiopaÃŃ": 5905,
      "ĠNational": 5906,
      "30": 5907,
      "IB": 5908,
      "go": 5909,
      "ii": 5910,
      "ÃŃd": 5911,
      "Ġsaibh": 5912,
      "Ġsruth": 5913,
      "Ġsoith": 5914,
      "ĠfomhÃŃr": 5915,
      "ĠchustaimÃ©irÃŃ": 5916,
      "ĠchrÃŃche": 5917,
      "usc": 5918,
      "ĠCas": 5919,
      "ĠCoimisinÃ©ir": 5920,
      "ĠCainteoir": 5921,
      "Ġrad": 5922,
      "Ġban": 5923,
      "Ġbua": 5924,
      "ĠpointÃŃ": 5925,
      "ĠSE": 5926,
      "ĠST": 5927,
      "ĠStÃ¡": 5928,
      "tÃ¡l": 5929,
      "itheora": 5930,
      "ĠDiamond": 5931,
      "ĠChÃº": 5932,
      "ĠRÃ¡taÃŃ": 5933,
      "Ġmargaidh": 5934,
      "ĠghnÃ©": 5935,
      "ĠcomhlÃŃon": 5936,
      "Ã¡irc": 5937,
      "Ã¡rtaÃŃ": 5938,
      "Ã¡ladh": 5939,
      "ĠBhr": 5940,
      "ĠgcomhlÃŃonann": 5941,
      "ĠmeastÃ³ireacht": 5942,
      "eilleag": 5943,
      "Ġtseachtain": 5944,
      "ĠDÃ©antÃ³irÃŃ": 5945,
      "Ġ01": 5946,
      "ĠsainrÃ¡ite": 5947,
      "ĠsuimiÃºil": 5948,
      "Ġceanglas": 5949,
      "ĠcumarsÃ¡ide": 5950,
      "itheoireachta": 5951,
      "stitiÃºidÃŃ": 5952,
      "Ġinarb": 5953,
      "ĠgcuirfÃŃ": 5954,
      "Ġeagla": 5955,
      "ĠSuper": 5956,
      "Ġsaincheisteanna": 5957,
      "ĠOibre": 5958,
      "Ġfhreagra": 5959,
      "ĠdhÃ³igh": 5960,
      "ĠdifriÃºil": 5961,
      "ĠÃģirith": 5962,
      "ĠÂ»": 5963,
      "ĠLÃ©irÃŃonn": 5964,
      "Ġdaonna": 5965,
      "Ġspeicis": 5966,
      "ĠfÃ³graÃŃ": 5967,
      "Ġtuigfear": 5968,
      "ĠdhÃ¡ileadh": 5969,
      "DA": 5970,
      "IG": 5971,
      "bÃ³in": 5972,
      "oideachas": 5973,
      "Ġtas": 5974,
      "chÃ¡il": 5975,
      "ÃŃm": 5976,
      "Ġdeigh": 5977,
      "ino": 5978,
      "Ġfeas": 5979,
      "Ġcine": 5980,
      "Ġcod": 5981,
      "Ġciorc": 5982,
      "Ġchoinn": 5983,
      "Ġrabh": 5984,
      "ĠbealaÃŃ": 5985,
      "ration": 5986,
      "ĠTH": 5987,
      "ĠSA": 5988,
      "ĠSk": 5989,
      "ĠSna": 5990,
      "Ġdhearadh": 5991,
      "ĠDa": 5992,
      "Ġmhoill": 5993,
      "ileÃ¡n": 5994,
      "ĠGnÃ©": 5995,
      "ĠGearr": 5996,
      "rÃºdaithe": 5997,
      "oinsÃŃ": 5998,
      "aitheacha": 5999,
      "ĠdtÃŃr": 6000,
      "Ġdtogh": 6001,
      "ĠUachtar": 6002,
      "tachtaÃŃ": 6003,
      "Ġidirdh": 6004,
      "umais": 6005,
      "Ġfhorord": 6006,
      "Ġcrutha": 6007,
      "EAR": 6008,
      "Ġtuigthe": 6009,
      "ĠsolÃ¡thrÃ³irÃŃ": 6010,
      "Ġmheastar": 6011,
      "ĠmÃŃre": 6012,
      "ĠoibrÃŃ": 6013,
      "ĠcÃ¡ilÃŃocht": 6014,
      "Ġurscaoileadh": 6015,
      "ĠbrabÃºs": 6016,
      "ĠprÃŃomha": 6017,
      "ĠiasachtaÃŃ": 6018,
      "ĠtÃ¡bhacht": 6019,
      "ainmniÃº": 6020,
      "ĠdhiÃºltÃº": 6021,
      "ĠRoghnaigh": 6022,
      "ĠTagann": 6023,
      "ĠtrÃ¡chta": 6024,
      "ĠdÃŃosp": 6025,
      "Ġuasta": 6026,
      "Ġgheimhreadh": 6027,
      "ĠColÃ¡iste": 6028,
      "IALA": 6029,
      "ĠÃŃomhÃ¡": 6030,
      "Ġlotnaid": 6031,
      "11": 6032,
      "SC": 6033,
      "duithe": 6034,
      "kara": 6035,
      "liÃºntais": 6036,
      "ÃŃc": 6037,
      "aice": 6038,
      "Ġseirbh": 6039,
      "Ġlch": 6040,
      "Ġlog": 6041,
      "ĠgrÃºpaÃŃ": 6042,
      "ĠfÃº": 6043,
      "ileog": 6044,
      "uss": 6045,
      "Ġie": 6046,
      "ĠlenÃ¡r": 6047,
      "ĠbhÃ¡is": 6048,
      "ĠAma": 6049,
      "eoch": 6050,
      "lata": 6051,
      "ĠinniÃº": 6052,
      "ĠTeil": 6053,
      "ĠTuairimÃŃ": 6054,
      "ĠBe": 6055,
      "ĠIS": 6056,
      "Ġtheagh": 6057,
      "Ġthuairim": 6058,
      "ĠLimist": 6059,
      "Ġaonaid": 6060,
      "Ġmharc": 6061,
      "urrÃº": 6062,
      "ĠRiar": 6063,
      "caÃŃochtaÃŃ": 6064,
      "ĠNÃ³": 6065,
      "ĠghlÃ©as": 6066,
      "ĠGnÃ¡th": 6067,
      "ĠEile": 6068,
      "lib": 6069,
      "Ġscilling": 6070,
      "ser": 6071,
      "ses": 6072,
      "ĠÃºr": 6073,
      "ĠÃĥ": 6074,
      "ĠTÃ¡bla": 6075,
      "Ġchomhaon": 6076,
      "Ġ56": 6077,
      "Ã¡lfaidh": 6078,
      "Ġtarr": 6079,
      "Ġsiopa": 6080,
      "ĠBhun": 6081,
      "ĠsonrÃ³far": 6082,
      "ĠfrÃ¡": 6083,
      "ĠVII": 6084,
      "iotÃ¡il": 6085,
      "ĠpÃ¡irteanna": 6086,
      "ĠsolÃ¡thair": 6087,
      "ĠlÃ¡ithreÃ¡in": 6088,
      "Ġsrian": 6089,
      "Ġteachtaireacht": 6090,
      "Ãºinteoir": 6091,
      "oicimÃ©ad": 6092,
      "Ġ1990": 6093,
      "Ġbhforas": 6094,
      "ĠcatagÃ³irÃŃ": 6095,
      "ĠBreat": 6096,
      "ĠprÃ³iseÃ¡il": 6097,
      "ĠGoogle": 6098,
      "ĠvÃ³taÃŃ": 6099,
      "Ġcabhair": 6100,
      "Ġfolctha": 6101,
      "ĠrannphÃ¡irteach": 6102,
      "ĠnuÃ¡la": 6103,
      "Ġspriocanna": 6104,
      "aidrimh": 6105,
      "Ġvoltas": 6106,
      "Ġsmacht": 6107,
      "ĠGhael": 6108,
      "acket": 6109,
      "Ġceard": 6110,
      "ĠrÃŃomhphoist": 6111,
      "Ġdhualgas": 6112,
      "ĠMheiriceÃ¡": 6113,
      "leathan": 6114,
      "50": 6115,
      "AT": 6116,
      "IF": 6117,
      "ger": 6118,
      "lÃ³ir": 6119,
      "oise": 6120,
      "stÃ¡t": 6121,
      "tÃ³idh": 6122,
      "uisce": 6123,
      "ĠalÃºmanam": 6124,
      "mhaithe": 6125,
      "Ġfig": 6126,
      "Ġtaise": 6127,
      "ĠtograÃŃ": 6128,
      "Ġmair": 6129,
      "ĠCor": 6130,
      "ĠCinneadh": 6131,
      "ĠCruth": 6132,
      "ĠCiallaÃŃonn": 6133,
      "Ġraid": 6134,
      "ĠpÃ³sta": 6135,
      "ĠBÃŃ": 6136,
      "ĠBÃŃonn": 6137,
      "ĠBog": 6138,
      "ĠbhfostaÃŃocht": 6139,
      "itear": 6140,
      "ĠfhÃŃorÃº": 6141,
      "ĠMicr": 6142,
      "adÃ³ir": 6143,
      "ions": 6144,
      "ĠRes": 6145,
      "ĠshÃŃn": 6146,
      "ĠNÃ³s": 6147,
      "Ġghin": 6148,
      "liam": 6149,
      "lianta": 6150,
      "Ġcreat": 6151,
      "ert": 6152,
      "ĠOidh": 6153,
      "lub": 6154,
      "ĠleithdhÃ¡il": 6155,
      "nÃ³far": 6156,
      "ĠArm": 6157,
      "Ġ68": 6158,
      "oibreacha": 6159,
      "ĠHealth": 6160,
      "ĠfholaÃŃonn": 6161,
      "Ġmoladh": 6162,
      "Ġorainn": 6163,
      "ĠÃīire": 6164,
      "Ġbag": 6165,
      "Ġbaol": 6166,
      "Ġosp": 6167,
      "Ġwh": 6168,
      "Ġ1994": 6169,
      "Ġ1925": 6170,
      "Ġleictreachais": 6171,
      "ĠCorparÃ¡ide": 6172,
      "ismitheoir": 6173,
      "ĠFrith": 6174,
      "ĠlÃ¡rnach": 6175,
      "Ġdeiseanna": 6176,
      "ĠGnÃŃomhaÃŃochta": 6177,
      "Ġdeoch": 6178,
      "ĠÃºinÃ©ireacht": 6179,
      "ĠstÃ³rÃ¡la": 6180,
      "ĠrioscaÃŃ": 6181,
      "ĠÂ·": 6182,
      "ÃįOCHTA": 6183,
      "Ġeitilt": 6184,
      "tÃ¡iniam": 6185,
      "ĠgComhphobal": 6186,
      "ĠsamplaÃŃ": 6187,
      "ĠgearÃ¡n": 6188,
      "Ġolc": 6189,
      "ĠSainmhÃŃniÃº": 6190,
      "ĠFheidhmiÃº": 6191,
      "ĠhoibleagÃ¡idÃŃ": 6192,
      "Ġbronntanas": 6193,
      "ghlactha": 6194,
      "ĠdÃºbailte": 6195,
      "ĠmuinÃŃn": 6196,
      "Ġthurus": 6197,
      "untertop": 6198,
      "DF": 6199,
      "neas": 6200,
      "ting": 6201,
      "Ġail": 6202,
      "Ġaeir": 6203,
      "ĠdaltaÃŃ": 6204,
      "Ġseachad": 6205,
      "Ġceol": 6206,
      "Ġcoibh": 6207,
      "ont": 6208,
      "Ġnea": 6209,
      "Ġchiste": 6210,
      "ĠCR": 6211,
      "ĠCÃ³ir": 6212,
      "ĠCÃļ": 6213,
      "Ġres": 6214,
      "Ġreilig": 6215,
      "ĠAith": 6216,
      "ĠbÃŃodh": 6217,
      "ĠTE": 6218,
      "ĠTeacht": 6219,
      "ĠpatrÃº": 6220,
      "ĠhÃ©il": 6221,
      "ĠdhÃŃ": 6222,
      "ĠdhÃŃch": 6223,
      "Ġfheic": 6224,
      "ĠFaisnÃ©is": 6225,
      "omb": 6226,
      "ĠsÃ©ala": 6227,
      "ĠÃ³st": 6228,
      "Ġeuro": 6229,
      "ĠdÃ³ich": 6230,
      "Ġ66": 6231,
      "onnaithe": 6232,
      "ogaidh": 6233,
      "amb": 6234,
      "Ġngabh": 6235,
      "ĠngnÃ¡th": 6236,
      "arthaÃŃ": 6237,
      "Ġfhorordaithe": 6238,
      "ĠfhorghnÃŃomhÃº": 6239,
      "ĠÃģr": 6240,
      "uilleamh": 6241,
      "landÃ¡il": 6242,
      "oicind": 6243,
      "ailliÃº": 6244,
      "ĠsholÃ¡thraÃŃonn": 6245,
      "ĠÃĵN": 6246,
      "aispe": 6247,
      "Ġ1960": 6248,
      "Ġceangal": 6249,
      "Ġceangailte": 6250,
      "ĠCrÃŃoch": 6251,
      "ĠbhuisÃ©ad": 6252,
      "ĠcÃ³ireÃ¡la": 6253,
      "Ġgcuirfidh": 6254,
      "ĠtiomÃ¡na": 6255,
      "ĠreachtÃºla": 6256,
      "ĠrannphÃ¡irtÃŃocht": 6257,
      "ĠCommission": 6258,
      "Ġaimsir": 6259,
      "ĠfhÃ¡gann": 6260,
      "ĠExp": 6261,
      "Ġchomaoin": 6262,
      "ĠchlÃºdach": 6263,
      "ĠApple": 6264,
      "Ġcaoga": 6265,
      "Bh": 6266,
      "TAIS": 6267,
      "nscail": 6268,
      "rdÃº": 6269,
      "sta": 6270,
      "sing": 6271,
      "vol": 6272,
      "Ġgin": 6273,
      "Ġgluais": 6274,
      "Ġgluaiste": 6275,
      "Ġceoil": 6276,
      "Ġtithe": 6277,
      "Ġmm": 6278,
      "Ġmur": 6279,
      "Ġmiotail": 6280,
      "eifr": 6281,
      "ĠCal": 6282,
      "ĠAist": 6283,
      "Ġchuard": 6284,
      "Ġper": 6285,
      "ĠBia": 6286,
      "ĠBardas": 6287,
      "ĠIos": 6288,
      "its": 6289,
      "ĠfhostaÃŃ": 6290,
      "ĠMÃ©id": 6291,
      "Ã©adrom": 6292,
      "Ġmhian": 6293,
      "ĠRIALA": 6294,
      "Ġele": 6295,
      "ĠEacht": 6296,
      "ĠscÃ³r": 6297,
      "fhÃ©adfaÃŃ": 6298,
      "ĠtÃ¡bla": 6299,
      "ainnÃŃocht": 6300,
      "abhair": 6301,
      "ĠBhu": 6302,
      "ĠThos": 6303,
      "onartha": 6304,
      "Ġ80": 6305,
      "Ġiarrfaidh": 6306,
      "chuibh": 6307,
      "ĠrialÃ¡il": 6308,
      "ĠgnÃ³thas": 6309,
      "Ġmheasfaidh": 6310,
      "Ġmheasann": 6311,
      "ĠtSeirbhÃŃs": 6312,
      "ĠsrÃ¡id": 6313,
      "Ġdearmad": 6314,
      "Ġsaineolaithe": 6315,
      "ĠIarratais": 6316,
      "Ġfoirceannadh": 6317,
      "Ġ1972": 6318,
      "Ġriaradh": 6319,
      "eithiclÃŃ": 6320,
      "Ġeaspa": 6321,
      "Ġdathanna": 6322,
      "ĠÃįo": 6323,
      "ĠCluiche": 6324,
      "ĠgairmiÃºla": 6325,
      "Ġcomhshaoil": 6326,
      "ĠTabharfar": 6327,
      "ĠbunÃºsach": 6328,
      "ĠcomhdhÃ©anta": 6329,
      "ĠuirlisÃŃ": 6330,
      "Ġspeiceas": 6331,
      "ĠThuaidh": 6332,
      "ĠCFAE": 6333,
      "ĠEacnamaÃŃoch": 6334,
      "ĠIlghnÃ©itheacha": 6335,
      "ĠfÃ©ideartha": 6336,
      "ĠUniversity": 6337,
      "IAL": 6338,
      "crÃ¡in": 6339,
      "lÃ©ad": 6340,
      "leibhÃ©al": 6341,
      "out": 6342,
      "sic": 6343,
      "thacha": 6344,
      "Ãºile": 6345,
      "Ãºise": 6346,
      "ĠgÃºna": 6347,
      "ĠfÃ¡is": 6348,
      "ĠfÃ³rsaÃŃ": 6349,
      "Ġcathrach": 6350,
      "ĠcothabhÃ¡la": 6351,
      "Ġchoir": 6352,
      "ĠrÃºnaÃŃ": 6353,
      "ghrÃºpa": 6354,
      "Ġinbhuan": 6355,
      "ĠnÃ³ta": 6356,
      "ĠnÃ³taÃŃ": 6357,
      "ĠTuarascÃ¡lacha": 6358,
      "Ġpobail": 6359,
      "Ġpearsa": 6360,
      "ĠpÃ¡ipÃ©ir": 6361,
      "ĠSam": 6362,
      "Ġhum": 6363,
      "Ġgcl": 6364,
      "ĠdhÃŃth": 6365,
      "ĠBÃ¡n": 6366,
      "ĠBur": 6367,
      "Ġthrom": 6368,
      "ĠtheastaÃŃonn": 6369,
      "ĠFir": 6370,
      "ĠFostaÃŃochta": 6371,
      "ĠLig": 6372,
      "ĠmhÃŃnithe": 6373,
      "lif": 6374,
      "Ġcrainn": 6375,
      "eirme": 6376,
      "Ġachmair": 6377,
      "Ġforleathan": 6378,
      "ialacha": 6379,
      "Ġ59": 6380,
      "ĠiomlÃ¡ine": 6381,
      "Ġgurbh": 6382,
      "ĠÃºsÃ¡ideadh": 6383,
      "ĠÃ¡ireofar": 6384,
      "ĠprÃ¡taÃŃ": 6385,
      "stru": 6386,
      "ĠchÃºig": 6387,
      "ĠuaireadÃ³irÃŃ": 6388,
      "ĠTrÃ¡dÃ¡la": 6389,
      "ĠMhaigh": 6390,
      "Ġ187": 6391,
      "Ġful": 6392,
      "ĠShaor": 6393,
      "aiceach": 6394,
      "ĠbhforÃ¡lacha": 6395,
      "ĠbreithiÃºnas": 6396,
      "Ġ1988": 6397,
      "eograf": 6398,
      "aipitiÃºil": 6399,
      "ĠtÃ³gtha": 6400,
      "ĠdÃŃolachÃ¡in": 6401,
      "ĠLucht": 6402,
      "ĠdeonaÃŃodh": 6403,
      "Ġfuinneamh": 6404,
      "Ġfhaightear": 6405,
      "ĠCons": 6406,
      "ĠpacÃ¡iste": 6407,
      "Ġcasta": 6408,
      "ĠpionÃ³is": 6409,
      "Ġbeirt": 6410,
      "ĠmÃŃcheart": 6411,
      "Ġainmneacha": 6412,
      "ĠallmhairiÃº": 6413,
      "CHÃģIN": 6414,
      "ĠchoigeartÃº": 6415,
      "Ġtsamhraidh": 6416,
      "ĠbprÃ³iseas": 6417,
      "ĠmhÃŃchumas": 6418,
      "bas": 6419,
      "ks": 6420,
      "mpa": 6421,
      "trÃº": 6422,
      "tÃ©ar": 6423,
      "Ġeadh": 6424,
      "Ġaturnae": 6425,
      "Ã©ist": 6426,
      "mhÃŃ": 6427,
      "Ġfogh": 6428,
      "Ġcairde": 6429,
      "Ġtugtar": 6430,
      "Ġmas": 6431,
      "ĠCÃ¡": 6432,
      "ĠCÃºl": 6433,
      "Ġrian": 6434,
      "Ã©anach": 6435,
      "Ġhuath": 6436,
      "Ġbhfr": 6437,
      "ĠbhfÃ³gra": 6438,
      "Ġbhfoireann": 6439,
      "easmhach": 6440,
      "ĠthÃ¡s": 6441,
      "Ġsaoirse": 6442,
      "adÃ³ireacht": 6443,
      "olg": 6444,
      "olÃ¡iste": 6445,
      "Ġsha": 6446,
      "ĠshÃŃniÃº": 6447,
      "Ġsheol": 6448,
      "Ġmarg": 6449,
      "Ġcuain": 6450,
      "icÃ©ad": 6451,
      "ces": 6452,
      "Ġdtionsc": 6453,
      "Ġairm": 6454,
      "Ġleithreas": 6455,
      "Ġothar": 6456,
      "ĠionchÃºiseamh": 6457,
      "ally": 6458,
      "rachais": 6459,
      "eimhl": 6460,
      "ĠgcomhlÃŃonadh": 6461,
      "ĠgcomhthÃ©acs": 6462,
      "sage": 6463,
      "ĠgrÃ©ine": 6464,
      "Ġvitim": 6465,
      "Ġvideo": 6466,
      "Ġbpobal": 6467,
      "Ã³nta": 6468,
      "ĠgnÃ³chain": 6469,
      "ĠsholÃ¡thrÃ³idh": 6470,
      "ĠÃ©ilÃŃonn": 6471,
      "Ġ1937": 6472,
      "aoiseach": 6473,
      "Ġbreitheamh": 6474,
      "tÃŃre": 6475,
      "ochla": 6476,
      "ĠSolÃ¡thraÃŃonn": 6477,
      "Ãĵglaigh": 6478,
      "ĠcostaisÃŃ": 6479,
      "ĠuathÃºil": 6480,
      "ĠchrÃŃochnÃº": 6481,
      "Ġtimpeallacht": 6482,
      "ĠMeasfar": 6483,
      "ĠIompar": 6484,
      "ĠIrish": 6485,
      "ĠgcÃºrsa": 6486,
      "ĠÃŃomhÃ¡nna": 6487,
      "ĠComhshaoil": 6488,
      "ilvÃ©ise": 6489,
      "Ġsreabhadh": 6490,
      "ĠRÃ¡iteas": 6491,
      "ĠClibeanna": 6492,
      "ĠÃģiritheoidh": 6493,
      "Ġtasc": 6494,
      "ĠBreataine": 6495,
      "TC": 6496,
      "gra": 6497,
      "lon": 6498,
      "mir": 6499,
      "td": 6500,
      "vel": 6501,
      "zon": 6502,
      "chn": 6503,
      "iniciÃºil": 6504,
      "Ġlo": 6505,
      "Ġfoinse": 6506,
      "ĠfÃŃorÃº": 6507,
      "ĠchothÃº": 6508,
      "ĠCoinn": 6509,
      "ĠCeang": 6510,
      "ĠCumann": 6511,
      "ĠinÃ¡r": 6512,
      "ĠgcÃº": 6513,
      "ĠdhÃŃreach": 6514,
      "ĠIP": 6515,
      "ĠMion": 6516,
      "ĠPA": 6517,
      "ĠPC": 6518,
      "ĠuiscÃŃ": 6519,
      "ĠcomhiomlÃ¡n": 6520,
      "Ã³rtas": 6521,
      "Ġphinsin": 6522,
      "nasta": 6523,
      "uirÃŃ": 6524,
      "luaist": 6525,
      "Ġforas": 6526,
      "ĠUN": 6527,
      "ianach": 6528,
      "Ãºnuithe": 6529,
      "iber": 6530,
      "Ġcleith": 6531,
      "athar": 6532,
      "phost": 6533,
      "Ġspeisial": 6534,
      "shaol": 6535,
      "ĠsaorÃ¡nach": 6536,
      "ump": 6537,
      "ĠcÃ³c": 6538,
      "ĠgrÃ¡d": 6539,
      "ĠgnÃŃomhaire": 6540,
      "ĠhEilvÃ©ise": 6541,
      "ĠaisghabhÃ¡il": 6542,
      "ĠgnÃ³chan": 6543,
      "aipe": 6544,
      "ĠcheadÃºnais": 6545,
      "Ġ1961": 6546,
      "Ġ1978": 6547,
      "Ġtrasteorann": 6548,
      "ÃºinÃ©ir": 6549,
      "ĠsaothrÃº": 6550,
      "Ġteaghais": 6551,
      "ĠfolÃ¡ir": 6552,
      "Ġeagar": 6553,
      "ĠSula": 6554,
      "ÃĵIR": 6555,
      "ĠsnÃ¡mha": 6556,
      "Ġchruinnithe": 6557,
      "aistrithe": 6558,
      "ĠmhaoiniÃº": 6559,
      "ĠTuras": 6560,
      "ĠfeabhsÃº": 6561,
      "lÃ¡imh": 6562,
      "Ġithreach": 6563,
      "Ġhathruithe": 6564,
      "ilteora": 6565,
      "ĠOiliÃºna": 6566,
      "ĠealaÃŃne": 6567,
      "ĠiontrÃ¡il": 6568,
      "uirbhÃ©": 6569,
      "ĠGairmiÃºla": 6570,
      "Ġrolla": 6571,
      "Ġsoghluaiste": 6572,
      "Ġeisceacht": 6573,
      "Ġdheonadh": 6574,
      "Ġoidhreacht": 6575,
      "ĠseiceÃ¡lacha": 6576,
      "con": 6577,
      "dearg": 6578,
      "gar": 6579,
      "gint": 6580,
      "ox": 6581,
      "ood": 6582,
      "oide": 6583,
      "Ã¡ltais": 6584,
      "ĠsÃ©as": 6585,
      "Ġant": 6586,
      "Ã³ca": 6587,
      "Ã³faÃŃ": 6588,
      "taÃŃodh": 6589,
      "Ġgas": 6590,
      "dhÃ©anamh": 6591,
      "ĠnO": 6592,
      "ĠmÃ¡la": 6593,
      "ÃŃod": 6594,
      "Ġbhosca": 6595,
      "ĠConradh": 6596,
      "Ġrochtana": 6597,
      "gha": 6598,
      "ghair": 6599,
      "Ġhiarratas": 6600,
      "Ġfhoils": 6601,
      "ĠFad": 6602,
      "ĠFoirgn": 6603,
      "ĠDÃºin": 6604,
      "Ġsheas": 6605,
      "ĠPO": 6606,
      "ĠPrÃŃobh": 6607,
      "unda": 6608,
      "Ġmaraon": 6609,
      "Ġghaol": 6610,
      "ree": 6611,
      "reÃ¡": 6612,
      "onadh": 6613,
      "cebook": 6614,
      "Ġleanann": 6615,
      "Ġdtu": 6616,
      "Ġdtuairim": 6617,
      "ĠOff": 6618,
      "ifÃŃl": 6619,
      "ĠfeidhmÃŃochta": 6620,
      "rasÃ¡n": 6621,
      "ĠdÃ³iteÃ¡in": 6622,
      "Ġ67": 6623,
      "olÃ¡thair": 6624,
      "ibheacha": 6625,
      "Ġbreithe": 6626,
      "eicthe": 6627,
      "ĠsaorÃ¡naigh": 6628,
      "ĠPhoiblÃŃ": 6629,
      "ĠRialacha": 6630,
      "Ġcurrent": 6631,
      "ters": 6632,
      "ĠoifigiÃºla": 6633,
      "Ġfolamh": 6634,
      "Ġ98": 6635,
      "ĠÃīil": 6636,
      "eÃ¡naigh": 6637,
      "ÃģLA": 6638,
      "ĠshonrÃ³idh": 6639,
      "Ġtuaithe": 6640,
      "aicme": 6641,
      "Ġtionchair": 6642,
      "ĠrÃ©asÃºn": 6643,
      "ĠNÃ¡isiÃºn": 6644,
      "Ġgcuireann": 6645,
      "ĠCosaint": 6646,
      "ĠeagrÃº": 6647,
      "ĠcorparÃ¡ide": 6648,
      "Ġfoirmeacha": 6649,
      "ĠbÃ¡ndearg": 6650,
      "ĠthÃ¡irgtear": 6651,
      "bhunaithe": 6652,
      "Ġgceangal": 6653,
      "Ġdruga": 6654,
      "Ġteagaisc": 6655,
      "ĠnuashonrÃº": 6656,
      "national": 6657,
      "ĠgCOMHAIRLE": 6658,
      "ĠLimited": 6659,
      "aispeÃ¡na": 6660,
      "EID": 6661,
      "FÃ³mh": 6662,
      "iacha": 6663,
      "ital": 6664,
      "va": 6665,
      "Ġae": 6666,
      "Ġaigh": 6667,
      "chaipiteal": 6668,
      "eab": 6669,
      "Ġdramh": 6670,
      "Ġdaingean": 6671,
      "ÃºchÃ¡in": 6672,
      "dha": 6673,
      "Ġcoil": 6674,
      "ĠcainÃ©il": 6675,
      "ileach": 6676,
      "ontais": 6677,
      "Ġchustaim": 6678,
      "ĠtiÃº": 6679,
      "Ġtiarna": 6680,
      "ĠmeicniÃºil": 6681,
      "airc": 6682,
      "ories": 6683,
      "Ġradh": 6684,
      "alaithe": 6685,
      "raen": 6686,
      "ghalar": 6687,
      "Ġpait": 6688,
      "Ġsine": 6689,
      "ĠDÃ³": 6690,
      "ĠDigiteach": 6691,
      "ĠChl": 6692,
      "ĠRÃ¡": 6693,
      "ĠRÃ³": 6694,
      "ĠReacht": 6695,
      "ĠshÃ³isialta": 6696,
      "Ġmbaol": 6697,
      "Ġbhfuiltear": 6698,
      "sen": 6699,
      "icÃ©id": 6700,
      "ealladh": 6701,
      "ĠfÃ©achana": 6702,
      "oimirce": 6703,
      "ĠOsc": 6704,
      "abhar": 6705,
      "Ġioma": 6706,
      "ĠgCoiste": 6707,
      "ĠgClÃ¡r": 6708,
      "ded": 6709,
      "tro": 6710,
      "eimhnithe": 6711,
      "othar": 6712,
      "ĠbrÃ³ga": 6713,
      "ipe": 6714,
      "ĠneamhnÃŃ": 6715,
      "Ġ89": 6716,
      "ĠgnÃ³thais": 6717,
      "rÃŃbhn": 6718,
      "Ġtube": 6719,
      "ĠcontÃºirt": 6720,
      "ĠteachtaireachtaÃŃ": 6721,
      "ĠeisÃŃodh": 6722,
      "ĠtrÃ¡dmharc": 6723,
      "ĠsiÃºcra": 6724,
      "Ġ1934": 6725,
      "ograph": 6726,
      "ĠmianraÃŃ": 6727,
      "Ġtheorainn": 6728,
      "Ġchumann": 6729,
      "raitheach": 6730,
      "lisÃŃ": 6731,
      "ĠdÃŃoltÃ³ir": 6732,
      "ĠchaomhnÃº": 6733,
      "Ġinsint": 6734,
      "ĠteicneolaÃŃochta": 6735,
      "ĠDomhanda": 6736,
      "ĠclÃºdach": 6737,
      "ĠTeicneolaÃŃocht": 6738,
      "ĠaigÃ©ad": 6739,
      "ĠmorgÃ¡iste": 6740,
      "Ġaitheantas": 6741,
      "Ġdtugann": 6742,
      "ghrÃ¡dÃº": 6743,
      "istant": 6744,
      "liament": 6745,
      "ĠhuathoibrÃŃoch": 6746,
      "22": 6747,
      "UachtarÃ¡n": 6748,
      "ful": 6749,
      "iad": 6750,
      "iop": 6751,
      "ms": 6752,
      "pr": 6753,
      "chlib": 6754,
      "earas": 6755,
      "Ġdeal": 6756,
      "nad": 6757,
      "Ġcoth": 6758,
      "Ġnaisc": 6759,
      "ĠchÃ¡nach": 6760,
      "ĠtÃ©a": 6761,
      "Ġmalar": 6762,
      "Ġbhaill": 6763,
      "ĠAC": 6764,
      "ale": 6765,
      "ghnÃ³": 6766,
      "lama": 6767,
      "eard": 6768,
      "ĠTuairisc": 6769,
      "ĠSolas": 6770,
      "Ġhias": 6771,
      "ĠgcoinnÃŃollacha": 6772,
      "ĠgcÃºis": 6773,
      "Ġbhfocal": 6774,
      "ĠthÃ©armaÃŃ": 6775,
      "ĠDiÃº": 6776,
      "ĠModh": 6777,
      "Ġtriom": 6778,
      "Ġtroid": 6779,
      "ĠLit": 6780,
      "ĠPa": 6781,
      "ĠPobail": 6782,
      "ĠPÃ¡irtÃŃ": 6783,
      "ĠPDF": 6784,
      "ĠÃ³spidÃ©il": 6785,
      "ĠghÃ¡": 6786,
      "ĠGin": 6787,
      "nachtaÃŃ": 6788,
      "oirne": 6789,
      "iceach": 6790,
      "scÃ©al": 6791,
      "fhios": 6792,
      "ĠAnkara": 6793,
      "ĠdtÃ©armaÃŃ": 6794,
      "ĠchomhphÃ¡irt": 6795,
      "Ã³gÃ³": 6796,
      "Ġphearsa": 6797,
      "Ġastu": 6798,
      "abhta": 6799,
      "ĠÃ¡itiÃº": 6800,
      "nÃ³na": 6801,
      "Ġ63": 6802,
      "Ġ64": 6803,
      "ĠgcomhaltaÃŃ": 6804,
      "ĠbliantÃºla": 6805,
      "ipt": 6806,
      "Ġnglacadh": 6807,
      "ĠScileanna": 6808,
      "obair": 6809,
      "ĠPhr": 6810,
      "Ġ73": 6811,
      "eolaÃŃ": 6812,
      "Ġ03": 6813,
      "ĠbhunÃºs": 6814,
      "ĠÃ©ifeachtacht": 6815,
      "Ġroghnaigh": 6816,
      "ĠoibriÃºchÃ¡in": 6817,
      "Ġmheasfar": 6818,
      "ĠtosaÃŃochta": 6819,
      "ĠSpÃ¡inn": 6820,
      "Ġ1977": 6821,
      "iorad": 6822,
      "ĠIoncuim": 6823,
      "Ġ1980": 6824,
      "eamara": 6825,
      "ĠvÃ³tÃ¡la": 6826,
      "ĠtÃ³gadh": 6827,
      "Ġbainte": 6828,
      "ĠteaghrÃ¡n": 6829,
      "ĠtÃ¡bhachtaÃŃ": 6830,
      "lÃ¡intÃŃochta": 6831,
      "ĠOireachtais": 6832,
      "hongSh": 6833,
      "ĠTuaithe": 6834,
      "ĠZhongSh": 6835,
      "Ġcruinneas": 6836,
      "ĠclÃ¡rÃºchÃ¡in": 6837,
      "luchtaigh": 6838,
      "EANN": 6839,
      "ĠBreitheamh": 6840,
      "ĠtromchÃºiseach": 6841,
      "Ġgaolmhara": 6842,
      "ĠRÃ©igiÃºn": 6843,
      "ĠEochair": 6844,
      "ĠInternational": 6845,
      "ĠdheisiÃº": 6846,
      "Ġgcoinnibh": 6847,
      "ĠAndroid": 6848,
      "ĠlÃ©arscÃ¡il": 6849,
      "scrÃŃofa": 6850,
      "Ġthaifeadadh": 6851,
      "ĠphrÃŃobhÃ¡ideach": 6852,
      "Ġclasaiceach": 6853,
      "Ġhaischlib": 6854,
      "ology": 6855,
      "ĠZhongShan": 6856,
      "baigh": 6857,
      "faid": 6858,
      "faimid": 6859,
      "just": 6860,
      "min": 6861,
      "zel": 6862,
      "eataÃŃ": 6863,
      "ĠdÃ©anann": 6864,
      "ĠdÃºnta": 6865,
      "Ġsneachta": 6866,
      "than": 6867,
      "Ġfian": 6868,
      "Ġfaisin": 6869,
      "Ġfeiste": 6870,
      "Ġtweet": 6871,
      "Ġtoirmisc": 6872,
      "Ġbhliana": 6873,
      "oranta": 6874,
      "ĠrÃŃ": 6875,
      "Ġbal": 6876,
      "ĠbilliÃºn": 6877,
      "ĠbreÃ¡": 6878,
      "rag": 6879,
      "Ġpu": 6880,
      "aidhm": 6881,
      "Ġdochair": 6882,
      "ĠdhÃŃs": 6883,
      "ĠÃ©an": 6884,
      "Ã¡naithe": 6885,
      "ition": 6886,
      "Ġfhiach": 6887,
      "ĠMÃŃ": 6888,
      "ĠMÃ³": 6889,
      "Ġtreal": 6890,
      "ĠshaothrÃº": 6891,
      "ĠPÃ¡irt": 6892,
      "aighead": 6893,
      "cation": 6894,
      "ĠEis": 6895,
      "lian": 6896,
      "imhreacha": 6897,
      "Ã³rsa": 6898,
      "ĠÃķ": 6899,
      "Ġnde": 6900,
      "Ġndeon": 6901,
      "Ġphac": 6902,
      "ĠObair": 6903,
      "ifige": 6904,
      "ĠUir": 6905,
      "Ġiomarc": 6906,
      "ĠgCaibidil": 6907,
      "ĠÃ¡ititheoir": 6908,
      "ĠclÃ¡": 6909,
      "Ã©imhs": 6910,
      "ascailt": 6911,
      "ĠordachÃ¡n": 6912,
      "Ġmeasartha": 6913,
      "Ġleasmhara": 6914,
      "aiticiÃºil": 6915,
      "ĠbprÃŃomh": 6916,
      "Ġoibreoidh": 6917,
      "ĠTrealamh": 6918,
      "Ġ120": 6919,
      "ĠsolÃ¡thrÃ³ir": 6920,
      "ĠFuinn": 6921,
      "Ġsuime": 6922,
      "ĠJacket": 6923,
      "THA": 6924,
      "Ġsocraithe": 6925,
      "ĠbainistÃŃocht": 6926,
      "ĠdiÃºlt": 6927,
      "Ġcreidmheas": 6928,
      "ĠcreidiÃºnaithe": 6929,
      "Ġcaillteanais": 6930,
      "ĠCosÃºil": 6931,
      "ĠReg": 6932,
      "ĠLuach": 6933,
      "ĠtuairisciÃº": 6934,
      "ĠSOCR": 6935,
      "ĠImeachta": 6936,
      "cking": 6937,
      "Ġsmaointe": 6938,
      "ĠrannÃŃocaÃŃ": 6939,
      "ĠFhorbairt": 6940,
      "Ġadmh": 6941,
      "ĠeolaÃŃoch": 6942,
      "Ġconartha": 6943,
      "ĠprÃŃosÃºnacht": 6944,
      "ĠTairiscint": 6945,
      "Ġtarraingthe": 6946,
      "ĠrÃ¡thaÃŃocht": 6947,
      "ĠTeicneolaÃŃochta": 6948,
      "Ġgealltanas": 6949,
      "Ġsliocht": 6950,
      "ĠiomlÃ¡na": 6951,
      "ainmneacha": 6952,
      "ĠFacebook": 6953,
      "dhÃŃonach": 6954,
      "chÃ³naÃŃ": 6955,
      "'s": 6956,
      "SA": 6957,
      "UR": 6958,
      "co": 6959,
      "ding": 6960,
      "lor": 6961,
      "leachta": 6962,
      "lÃŃochta": 6963,
      "liÃºntas": 6964,
      "mraÃŃ": 6965,
      "reamh": 6966,
      "ullmh": 6967,
      "Ã¶": 6968,
      "ĠÃ¡il": 6969,
      "Ġaquarium": 6970,
      "chadh": 6971,
      "cheart": 6972,
      "Ġsia": 6973,
      "Ġsaill": 6974,
      "Ġga": 6975,
      "ĠgnÃ¡ch": 6976,
      "Ġcaidreamh": 6977,
      "arÃ¡ideach": 6978,
      "ones": 6979,
      "Ġtinn": 6980,
      "uspÃ³irÃŃ": 6981,
      "ĠbhrÃº": 6982,
      "ĠCoimeÃ¡d": 6983,
      "Ġro": 6984,
      "allamh": 6985,
      "ĠTogh": 6986,
      "ĠTaist": 6987,
      "ĠSÃŃne": 6988,
      "ĠServ": 6989,
      "Ġhas": 6990,
      "Ġgceap": 6991,
      "Ġgcaoi": 6992,
      "ĠdhÃŃr": 6993,
      "Ġbhfuair": 6994,
      "Ġthais": 6995,
      "ĠFaoin": 6996,
      "ĠFOR": 6997,
      "Ġchuntais": 6998,
      "ĠMeais": 6999,
      "ioncam": 7000,
      "ĠCha": 7001,
      "ĠCharm": 7002,
      "Ġsheo": 7003,
      "lex": 7004,
      "ici": 7005,
      "Ġ300": 7006,
      "ĠndÃŃol": 7007,
      "ĠphÃ¡": 7008,
      "ĠphlandaÃŃ": 7009,
      "ĠphlandÃ¡il": 7010,
      "Ġiarmhar": 7011,
      "Ġforb": 7012,
      "Ġ54": 7013,
      "Ãºnaigh": 7014,
      "Ã©asÃ¡n": 7015,
      "ĠroimhrÃ¡ite": 7016,
      "Ġtharml": 7017,
      "umb": 7018,
      "ĠPhobail": 7019,
      "ĠlÃ©irithe": 7020,
      "Ġ99": 7021,
      "ĠroghnaÃŃonn": 7022,
      "Ġaisling": 7023,
      "ÃīAD": 7024,
      "phÃ¡irteach": 7025,
      "ionannas": 7026,
      "ĠÃļcrÃ¡in": 7027,
      "Ġcons": 7028,
      "Ġinnealra": 7029,
      "ĠrÃŃomhaireachta": 7030,
      "Ġthriail": 7031,
      "ĠDhaoine": 7032,
      "Ġ1932": 7033,
      "Ġ1974": 7034,
      "THE": 7035,
      "Ãºineadh": 7036,
      "ĠSolÃ¡thar": 7037,
      "ĠcÃºramach": 7038,
      "ĠiniÃºchÃ³ir": 7039,
      "Ġgcumh": 7040,
      "ĠTalÃºn": 7041,
      "ĠfÃŃorais": 7042,
      "over": 7043,
      "ĠtrÃ¡dÃ¡laÃŃ": 7044,
      "ĠÃ¡rachas": 7045,
      "imÃ©adar": 7046,
      "ĠbarÃ¡ntas": 7047,
      "IÃļN": 7048,
      "Ġseachtracha": 7049,
      "ows": 7050,
      "ĠEuropol": 7051,
      "Ġfhrith": 7052,
      "Ġchathaoirleach": 7053,
      "ĠcruthÃºnas": 7054,
      "Ġfoirgnimh": 7055,
      "Ġathchomharc": 7056,
      "Ġtagtha": 7057,
      "ĠthiontÃº": 7058,
      "ĠboscaÃŃ": 7059,
      "ĠbunÃºsacha": 7060,
      "ghabhÃ¡la": 7061,
      "ĠcomhairliÃºchÃ¡in": 7062,
      "Ġtraenach": 7063,
      "ĠBailiÃºchÃ¡n": 7064,
      "Ġdlighfear": 7065,
      "ĠscolÃ¡irÃŃ": 7066,
      "ĠtabhaÃŃodh": 7067,
      "Ġfulaingt": 7068,
      "15": 7069,
      "Bank": 7070,
      "MP": 7071,
      "NC": 7072,
      "ah": 7073,
      "aer": 7074,
      "gniÃº": 7075,
      "iel": 7076,
      "ket": 7077,
      "riachta": 7078,
      "san": 7079,
      "uch": 7080,
      "work": 7081,
      "xx": 7082,
      "Åŀ": 7083,
      "chumann": 7084,
      "ĠdÃ©anach": 7085,
      "Ġsn": 7086,
      "Ġsona": 7087,
      "Ġsnasta": 7088,
      "Ġlear": 7089,
      "Ġlonnaithe": 7090,
      "bhainte": 7091,
      "isi": 7092,
      "Ġgain": 7093,
      "onnadh": 7094,
      "onograph": 7095,
      "ĠnÃĥ": 7096,
      "ĠnDaon": 7097,
      "Ġchaith": 7098,
      "ĠmalartÃº": 7099,
      "ĠCD": 7100,
      "ĠCaithfidh": 7101,
      "ors": 7102,
      "ĠAdh": 7103,
      "eofaÃŃ": 7104,
      "oite": 7105,
      "Ġinghlactha": 7106,
      "ĠTrae": 7107,
      "Ġplan": 7108,
      "Ġhiarr": 7109,
      "ĠgcolÃºn": 7110,
      "thaÃŃonn": 7111,
      "ĠfhostaÃŃocht": 7112,
      "Ġfhuinn": 7113,
      "ĠFair": 7114,
      "Ã³irithe": 7115,
      "ĠLeid": 7116,
      "iontÃ¡il": 7117,
      "ole": 7118,
      "eagasc": 7119,
      "ĠChÃ¡in": 7120,
      "ĠChina": 7121,
      "ĠPort": 7122,
      "ĠPublic": 7123,
      "leÃ¡n": 7124,
      "ĠscrÃºduithe": 7125,
      "ĠcrÃ©": 7126,
      "fhoireann": 7127,
      "oimirc": 7128,
      "Ġsular": 7129,
      "ĠÃºsÃ¡ideach": 7130,
      "Ġionfhabh": 7131,
      "nÃ©is": 7132,
      "ipp": 7133,
      "Ġfhormheas": 7134,
      "ĠPhrÃ³": 7135,
      "Ġ72": 7136,
      "Ġneamhgh": 7137,
      "Ġgream": 7138,
      "ostÃ³ir": 7139,
      "llar": 7140,
      "Ġrialtais": 7141,
      "ĠdÃŃriÃº": 7142,
      "AIGH": 7143,
      "ĠWind": 7144,
      "iod": 7145,
      "ĠÃ©ifeachtÃºlacht": 7146,
      "ĠcheadÃ³idh": 7147,
      "ĠDheireadh": 7148,
      "Ġ1959": 7149,
      "ĠeastÃ¡t": 7150,
      "ĠLagh": 7151,
      "ĠngnÃŃomhaÃŃochtaÃŃ": 7152,
      "ĠAthch": 7153,
      "ĠlÃ¡imhseÃ¡il": 7154,
      "ĠaoisliÃºntais": 7155,
      "Ġdeonadh": 7156,
      "bour": 7157,
      "ĠbÃ³thar": 7158,
      "ĠÃ©irÃŃonn": 7159,
      "ĠnGnÃŃomhaireacht": 7160,
      "Ġglacfaidh": 7161,
      "Ġtsaoil": 7162,
      "Ġgearrth": 7163,
      "Ġtomhalt": 7164,
      "ĠhIar": 7165,
      "ĠÃŃog": 7166,
      "Ġleathanaigh": 7167,
      "Ġcaipitil": 7168,
      "ĠeolaÃŃochta": 7169,
      "iompor": 7170,
      "Ġcearnach": 7171,
      "ĠoibrÃŃochtÃºil": 7172,
      "ĠcÃ³gas": 7173,
      "ĠGlacfaidh": 7174,
      "ĠchÃºrsaÃŃ": 7175,
      "Ãºbtha": 7176,
      "Ġdineadh": 7177,
      "Ġtaisce": 7178,
      "Ã©atadÃ¡n": 7179,
      "Ġfaisean": 7180,
      "ĠnDaonlathaithe": 7181,
      "IMH": 7182,
      "ME": 7183,
      "gas": 7184,
      "ianna": 7185,
      "lÃŃocht": 7186,
      "nÃŃodh": 7187,
      "tom": 7188,
      "choiste": 7189,
      "choimeÃ¡d": 7190,
      "chÃ³ras": 7191,
      "ÃŃll": 7192,
      "Ġdisc": 7193,
      "Ġsiam": 7194,
      "Ġscam": 7195,
      "ĠglÃº": 7196,
      "ĠfÃ©adf": 7197,
      "Ġfeitheamh": 7198,
      "Ġcith": 7199,
      "Ġciona": 7200,
      "Ġceannach": 7201,
      "illÃŃ": 7202,
      "Ġcheithre": 7203,
      "Ġmoill": 7204,
      "Ġmore": 7205,
      "achomharc": 7206,
      "ĠbhÃ¡s": 7207,
      "Ġbheatha": 7208,
      "eachtÃ¡la": 7209,
      "ĠCC": 7210,
      "iÃºnacht": 7211,
      "Ġromh": 7212,
      "Ġintu": 7213,
      "Ã¡ile": 7214,
      "ĠTÃ¡irge": 7215,
      "ĠTaispeÃ¡n": 7216,
      "Ġpo": 7217,
      "ĠSm": 7218,
      "ÃŃochÃ¡n": 7219,
      "ĠIAR": 7220,
      "Ġbhfuirm": 7221,
      "ĠthÃ©arma": 7222,
      "ĠFuair": 7223,
      "ĠMeirice": 7224,
      "Ã©adtar": 7225,
      "ĠmhÃ³": 7226,
      "Ġsheacht": 7227,
      "aighn": 7228,
      "ĠGO": 7229,
      "ĠEas": 7230,
      "rel": 7231,
      "liantÃºla": 7232,
      "imhne": 7233,
      "ĠcomhlÃ¡n": 7234,
      "ĠÃĤ": 7235,
      "ÃŃrinne": 7236,
      "ĠdtrÃŃ": 7237,
      "ĠchomhlÃŃonann": 7238,
      "ĠchomhlÃ¡nÃº": 7239,
      "ians": 7240,
      "rÃŃtear": 7241,
      "ĠAonair": 7242,
      "ĠÃºdaruithe": 7243,
      "Ã©ala": 7244,
      "Ġidirbheart": 7245,
      "ĠThÃ¡inig": 7246,
      "Ġmeastar": 7247,
      "Ġleagfar": 7248,
      "Ġorm": 7249,
      "Ġcruith": 7250,
      "Ġrialtas": 7251,
      "ĠtrÃ¡thanna": 7252,
      "ionadaithe": 7253,
      "Ġ188": 7254,
      "Ġchostais": 7255,
      "mhachtain": 7256,
      "Ãĥo": 7257,
      "Ġsrl": 7258,
      "ĠRialaithe": 7259,
      "Ġriachtanacha": 7260,
      "ĠcÃ¡ilitheach": 7261,
      "ARA": 7262,
      "ĠcumarsÃ¡id": 7263,
      "Ġfreagairt": 7264,
      "ĠbreithniÃº": 7265,
      "Ã¡ipÃ©is": 7266,
      "ĠeastÃ¡it": 7267,
      "Ġchumainn": 7268,
      "fheidhmithe": 7269,
      "fheidhmeannach": 7270,
      "ĠinchÃ¡nach": 7271,
      "ĠSuÃŃomh": 7272,
      "Ġtiomanta": 7273,
      "Ġbarra": 7274,
      "ĠslÃ¡ndÃ¡il": 7275,
      "ĠbhailÃŃocht": 7276,
      "ĠrannphÃ¡irtithe": 7277,
      "ĠrapÃ³irtÃ©ir": 7278,
      "ĠÃ©irigh": 7279,
      "ĠAmer": 7280,
      "ĠhÃ©ifeachtaÃŃ": 7281,
      "fhorÃ¡lacha": 7282,
      "ĠhionstraimÃŃ": 7283,
      "Ġcasadh": 7284,
      "ĠvÃ³taÃŃochta": 7285,
      "ĠPleanÃ¡la": 7286,
      "ĠTrÃŃÃº": 7287,
      "ĠdrugaÃŃ": 7288,
      "ĠmonatÃ³ireacht": 7289,
      "ĠfiosrÃºchÃ¡n": 7290,
      "ĠmionsonraÃŃ": 7291,
      "Ġcuardach": 7292,
      "Ġrothar": 7293,
      "ĠrÃŃomhphost": 7294,
      "Ġdheiridh": 7295,
      "ĠGaillimhe": 7296,
      "Ġbhfolach": 7297,
      "Ġthaisceadh": 7298,
      "ĠStatBank": 7299,
      "ĠilbhliantÃºil": 7300,
      "ĠmharcÃ¡il": 7301,
      "ĠOidhreachta": 7302,
      "ĠleithdhÃ¡ileadh": 7303,
      "Ġinbhuanaithe": 7304,
      "Ġeadhon": 7305,
      "undation": 7306,
      "House": 7307,
      "iol": 7308,
      "nÃŃonn": 7309,
      "ric": 7310,
      "scaoilte": 7311,
      "zz": 7312,
      "Ġeat": 7313,
      "Ġqu": 7314,
      "Ġoigh": 7315,
      "Ġsoicind": 7316,
      "thÃ¡ir": 7317,
      "thÃ¡la": 7318,
      "ision": 7319,
      "Ġgraf": 7320,
      "Ġflu": 7321,
      "Ġfacht": 7322,
      "Ġflash": 7323,
      "Ġcis": 7324,
      "Ġceantar": 7325,
      "Ġnorm": 7326,
      "ĠchealÃº": 7327,
      "ĠchiallaÃŃonn": 7328,
      "Ġtailte": 7329,
      "ĠCail": 7330,
      "ĠCaighdeÃ¡n": 7331,
      "ĠCoinnÃŃollacha": 7332,
      "Ġbaineann": 7333,
      "Ġchucu": 7334,
      "Ġpobal": 7335,
      "Ġhachtach": 7336,
      "ĠhÃŃocaÃŃochtaÃŃ": 7337,
      "Ġgcinneadh": 7338,
      "ĠIniÃº": 7339,
      "oss": 7340,
      "Ġfabh": 7341,
      "Ġfhear": 7342,
      "iness": 7343,
      "Ã©irigh": 7344,
      "ĠMais": 7345,
      "Ġmhaoirs": 7346,
      "olais": 7347,
      "ĠsheiceÃ¡il": 7348,
      "ĠÃ³r": 7349,
      "Ġmarbh": 7350,
      "Ġcomhachta": 7351,
      "Ġndu": 7352,
      "Ġleaba": 7353,
      "fhostaithe": 7354,
      "irect": 7355,
      "Ġachoimre": 7356,
      "Ġ400": 7357,
      "ĠionsÃº": 7358,
      "ĠÃ©isc": 7359,
      "phÃ¡ipÃ©ir": 7360,
      "Ġ69": 7361,
      "Ġbreosla": 7362,
      "ĠThug": 7363,
      "ĠmeastachÃ¡n": 7364,
      "Ġleasaithe": 7365,
      "Ġfhorchur": 7366,
      "Ġ76": 7367,
      "eisiÃºint": 7368,
      "Ġ07": 7369,
      "ĠceadÃºnaithe": 7370,
      "Ġ95": 7371,
      "Ġortha": 7372,
      "arraing": 7373,
      "ĠndÃ©anfadh": 7374,
      "Ġbhriseadh": 7375,
      "ĠseirbhÃŃseach": 7376,
      "mhairc": 7377,
      "ĠComhphobail": 7378,
      "Ġlaghd": 7379,
      "Ãºinteoireachta": 7380,
      "Ġcheapfar": 7381,
      "Ġ1931": 7382,
      "Ġ1935": 7383,
      "Ġ1964": 7384,
      "Ġbainteach": 7385,
      "IRT": 7386,
      "Ġbhuail": 7387,
      "ĠprÃŃomhch": 7388,
      "Ġ250": 7389,
      "ĠdÃŃobhÃ¡il": 7390,
      "ĠbPar": 7391,
      "ĠthorthaÃŃ": 7392,
      "Ġiasachta": 7393,
      "Ġthagartha": 7394,
      "ĠcÃºraim": 7395,
      "Ġuathu": 7396,
      "ĠseachtainiÃºil": 7397,
      "oinbhinsiÃºin": 7398,
      "ĠLEIS": 7399,
      "nÃŃmh": 7400,
      "ĠmhodhnÃº": 7401,
      "Ġstamp": 7402,
      "ĠFÃŃseÃ¡in": 7403,
      "ĠdlÃŃthiÃºla": 7404,
      "ĠstraitÃ©isÃŃ": 7405,
      "ĠChrÃŃos": 7406,
      "ĠsÃŃolÃ³ga": 7407,
      "Ġhuisce": 7408,
      "ĠlÃ¡idre": 7409,
      "ĠSaorstÃ¡t": 7410,
      "ĠEaglais": 7411,
      "ĠQu": 7412,
      "ĠghinearÃ¡ltacht": 7413,
      "ĠgcomhlÃŃonfaidh": 7414,
      "Ġthomhas": 7415,
      "ĠCrÃŃostaÃŃ": 7416,
      "Ġdorcha": 7417,
      "ĠgcruthÃ³far": 7418,
      "ĠdÃŃlseÃ¡nach": 7419,
      "eitril": 7420,
      "ĠFinance": 7421,
      "Ġcuimilteora": 7422,
      "ĠÃ³cÃ¡id": 7423,
      "ĠtapÃºla": 7424,
      "ĠInfheistÃŃochta": 7425,
      "ĠidirdhealÃº": 7426,
      "untertops": 7427,
      "12": 7428,
      "Iar": 7429,
      "Oifig": 7430,
      "UITHE": 7431,
      "for": 7432,
      "fid": 7433,
      "ix": 7434,
      "ning": 7435,
      "ze": 7436,
      "Ġairteagal": 7437,
      "ĠsÃ³": 7438,
      "mhaoin": 7439,
      "Ġlia": 7440,
      "Ġliachta": 7441,
      "Ġlampa": 7442,
      "ĠlÃ³gÃ³": 7443,
      "Ã³ige": 7444,
      "isÃ©id": 7445,
      "Ġgeograf": 7446,
      "ĠfÃ³ir": 7447,
      "Ġcaid": 7448,
      "ĠcÃ¡rtaÃŃ": 7449,
      "ary": 7450,
      "Ġcho": 7451,
      "Ġcheantair": 7452,
      "ÃŃocadh": 7453,
      "ansp": 7454,
      "achas": 7455,
      "ĠCion": 7456,
      "Ġreachtach": 7457,
      "ĠAcmhainnÃŃ": 7458,
      "ĠbÃ©im": 7459,
      "ĠbÃ¡is": 7460,
      "eod": 7461,
      "earra": 7462,
      "aince": 7463,
      "Ġinph": 7464,
      "ĠTiom": 7465,
      "ĠpÃºdar": 7466,
      "ĠpuiblÃŃ": 7467,
      "ĠSeapÃ¡in": 7468,
      "ĠdhÃŃobh": 7469,
      "ĠBliana": 7470,
      "ĠbhfomhÃŃr": 7471,
      "Ġthras": 7472,
      "ĠFoireann": 7473,
      "igit": 7474,
      "ĠÃ¡rasÃ¡n": 7475,
      "ĠDÃŃol": 7476,
      "Ã©adan": 7477,
      "ithr": 7478,
      "oms": 7479,
      "ĠLÃ©": 7480,
      "ĠLtd": 7481,
      "ionn": 7482,
      "ĠChorp": 7483,
      "ĠshÃ¡r": 7484,
      "ĠÃ³ige": 7485,
      "Ġeint": 7486,
      "ĠGnÃ©as": 7487,
      "ĠEarr": 7488,
      "Ġsceimhl": 7489,
      "Ġcomhlachais": 7490,
      "eannasaÃŃ": 7491,
      "ĠdÃ¡laÃŃ": 7492,
      "aimÃ©ad": 7493,
      "ĠtanaÃŃ": 7494,
      "eirde": 7495,
      "aothair": 7496,
      "Ġstrucht": 7497,
      "eartaithe": 7498,
      "Ġleithead": 7499,
      "ĠÃºsÃ¡idfear": 7500,
      "Ġtarchur": 7501,
      "Ġtarraingt": 7502,
      "ĠluÃŃ": 7503,
      "athanna": 7504,
      "onntar": 7505,
      "ĠScr": 7506,
      "ĠcÃ³n": 7507,
      "Ġgrinn": 7508,
      "Ã³rtÃ¡il": 7509,
      "ĠgnÃŃomhaireachtaÃŃ": 7510,
      "eolaÃŃoch": 7511,
      "ĠiarrthÃ³ra": 7512,
      "EACHTA": 7513,
      "iltin": 7514,
      "ÃŃlÃ¡r": 7515,
      "ĠStory": 7516,
      "ĠWh": 7517,
      "Ġardluais": 7518,
      "ĠLeasuithe": 7519,
      "ĠoiriÃºint": 7520,
      "eicnÃŃocht": 7521,
      "Ġdearfach": 7522,
      "ÃºintÃŃ": 7523,
      "impeallacht": 7524,
      "Ġceapfar": 7525,
      "IST": 7526,
      "Ġ1941": 7527,
      "ĠfolÃºn": 7528,
      "Ġcarachtair": 7529,
      "Ġgairme": 7530,
      "Ġbogadh": 7531,
      "ĠLeabaigh": 7532,
      "ĠtairbhÃŃ": 7533,
      "ĠstÃ¡isiÃºin": 7534,
      "ĠcomhphÃ¡irteanna": 7535,
      "ĠchÃ¡ilÃŃocht": 7536,
      "ionsabal": 7537,
      "ĠrannÃŃocaÃŃochtaÃŃ": 7538,
      "ĠÃļsÃ¡idtear": 7539,
      "Ġseans": 7540,
      "ĠFhorÃ¡sach": 7541,
      "ĠcÃºltaca": 7542,
      "ĠsÃŃntiÃº": 7543,
      "Ġneamhdhleathach": 7544,
      "ĠdÃ©ine": 7545,
      "ĠfiÃ¡in": 7546,
      "Ġhiarratais": 7547,
      "Ġligeann": 7548,
      "CHÃģN": 7549,
      "Ġslabhra": 7550,
      "ĠdÃŃchÃ¡ilithe": 7551,
      "ĠnÃ¡isiÃºnaigh": 7552,
      "Ġfhoirgneamh": 7553,
      "ĠthrÃ¡dÃ¡il": 7554,
      "ĠdhlÃŃthiÃºil": 7555,
      "ĠSÃ³isialaithe": 7556,
      "Ġmadra": 7557,
      "iniÃºchadh": 7558,
      "ĠmiondÃŃola": 7559,
      "ĠlotnaidÃŃ": 7560,
      "ĠfrÃ¡ma": 7561,
      "ĠbParliament": 7562,
      "13": 7563,
      "ACHT": 7564,
      "CO": 7565,
      "SS": 7566,
      "ab": 7567,
      "lÃ³far": 7568,
      "mu": 7569,
      "nd": 7570,
      "tin": 7571,
      "tle": 7572,
      "ult": 7573,
      "Ã¡nacht": 7574,
      "Ġseasta": 7575,
      "infheist": 7576,
      "mhairtÃŃ": 7577,
      "Ġgra": 7578,
      "Ġfuil": 7579,
      "Ġcairt": 7580,
      "Ġclu": 7581,
      "Ġceantair": 7582,
      "ĠcÃºnaimh": 7583,
      "Ġteirm": 7584,
      "Ġmicr": 7585,
      "Ġmaille": 7586,
      "Ġmaidin": 7587,
      "ĠmÃºinteoir": 7588,
      "Ġleid": 7589,
      "achais": 7590,
      "Ġbhoird": 7591,
      "ĠAfr": 7592,
      "ĠbÃ©il": 7593,
      "Ġchuma": 7594,
      "ĠintÃŃre": 7595,
      "ĠTF": 7596,
      "Ġpais": 7597,
      "Ġpoll": 7598,
      "ĠpolasaÃŃ": 7599,
      "ĠSil": 7600,
      "ĠSEAS": 7601,
      "Ġhailt": 7602,
      "ĠfhÃ©idir": 7603,
      "Ġthit": 7604,
      "Ġtheip": 7605,
      "ines": 7606,
      "ĠMona": 7607,
      "omm": 7608,
      "ailÃŃ": 7609,
      "ĠmhalartÃº": 7610,
      "urs": 7611,
      "eagair": 7612,
      "ĠCheartas": 7613,
      "ĠRÃºise": 7614,
      "ĠPinsean": 7615,
      "caÃŃonn": 7616,
      "ĠNCA": 7617,
      "ĠEP": 7618,
      "nachar": 7619,
      "Ġmbreith": 7620,
      "Ġcomhr": 7621,
      "ĠcomhordÃº": 7622,
      "ĠcomhoibriÃº": 7623,
      "fhÃ¡g": 7624,
      "ĠchomhlÃŃon": 7625,
      "Ġamharc": 7626,
      "Ã©ard": 7627,
      "Ġphinsean": 7628,
      "ĠphlÃ©": 7629,
      "Ġlenar": 7630,
      "ĠformhÃ³r": 7631,
      "Ġover": 7632,
      "rÃ³ra": 7633,
      "ĠBhainc": 7634,
      "ĠcÃºitimh": 7635,
      "athrÃº": 7636,
      "ĠgcomhaontÃº": 7637,
      "Ġblia": 7638,
      "ĠionadaÃŃocht": 7639,
      "shoc": 7640,
      "ĠfhorÃ¡iltear": 7641,
      "aibhr": 7642,
      "ĠlÃ©ireofar": 7643,
      "Ġiarrann": 7644,
      "row": 7645,
      "Ġfochuideachta": 7646,
      "ĠrialÃ¡la": 7647,
      "Ġroghnaithe": 7648,
      "ĠseirbhÃŃsigh": 7649,
      "ĠtrÃ¡thnÃ³na": 7650,
      "Ġcheannaigh": 7651,
      "Ġinnill": 7652,
      "ĠmheasÃºnacht": 7653,
      "Ġdleachtanna": 7654,
      "ĠÃĵglaigh": 7655,
      "ĠtionÃ³": 7656,
      "ĠChomhaontÃº": 7657,
      "ĠfreagraÃŃ": 7658,
      "Ġ1958": 7659,
      "aipitil": 7660,
      "ĠdÃŃolmhaithe": 7661,
      "Ġbhaineas": 7662,
      "ĠStage": 7663,
      "ized": 7664,
      "mhÃ©ide": 7665,
      "ĠmÃ©adaithe": 7666,
      "ĠAmach": 7667,
      "ĠathchÃ³iriÃº": 7668,
      "Ġtomhais": 7669,
      "ĠcolÃºn": 7670,
      "Ġmacasamhail": 7671,
      "Ġdaonra": 7672,
      "ĠTugadh": 7673,
      "ĠbhÃ©arfar": 7674,
      "ĠgceadÃºnas": 7675,
      "ĠchailÃŃnÃŃ": 7676,
      "ĠnglacfaÃŃ": 7677,
      "oft": 7678,
      "ĠchÃºrsa": 7679,
      "roinnte": 7680,
      "ĠCÃ³ipeÃ¡il": 7681,
      "ĠChÃ³iste": 7682,
      "ĠDearbhuithe": 7683,
      "eilleagar": 7684,
      "iotÃ¡ille": 7685,
      "Ġchuardach": 7686,
      "lifier": 7687,
      "Ġtrealaimh": 7688,
      "ĠLeideanna": 7689,
      "ĠhachtachÃ¡in": 7690,
      "ĠNCAA": 7691,
      "19": 7692,
      "MI": 7693,
      "OL": 7694,
      "ater": 7695,
      "cas": 7696,
      "king": 7697,
      "men": 7698,
      "ri": 7699,
      "raitheoir": 7700,
      "yr": 7701,
      "Ġus": 7702,
      "chos": 7703,
      "chleacht": 7704,
      "eait": 7705,
      "Ġdoimh": 7706,
      "mhÃŃnÃŃtear": 7707,
      "Ã³ite": 7708,
      "bhs": 7709,
      "Ġfillte": 7710,
      "dhlÃŃ": 7711,
      "Ġcoimhd": 7712,
      "Ġchothrom": 7713,
      "ĠchroÃŃ": 7714,
      "Ġtim": 7715,
      "ĠmÃ¡laÃŃ": 7716,
      "Ġnaoi": 7717,
      "ĠCaibid": 7718,
      "Ġbru": 7719,
      "eodh": 7720,
      "eanaid": 7721,
      "ĠTomh": 7722,
      "Ġhard": 7723,
      "ĠhÃ¡bhar": 7724,
      "ĠhÃŃocaÃŃochta": 7725,
      "Ġgcaiteachas": 7726,
      "Ġgceantar": 7727,
      "thadh": 7728,
      "ĠBeal": 7729,
      "osoft": 7730,
      "Ġbhfu": 7731,
      "ĠbhfaisnÃ©is": 7732,
      "Ġfhu": 7733,
      "ĠfhaillÃŃ": 7734,
      "Ġthoirmeasc": 7735,
      "ĠFÃ³rsaÃŃ": 7736,
      "ĠDÃŃ": 7737,
      "ĠDÃ¡il": 7738,
      "ĠMS": 7739,
      "ĠMp": 7740,
      "ĠMÃ¡irt": 7741,
      "Ġmhic": 7742,
      "ĠRa": 7743,
      "Ġshraith": 7744,
      "ĠPre": 7745,
      "ĠPoist": 7746,
      "ĠmargaÃŃ": 7747,
      "Ġuait": 7748,
      "ÃŃnt": 7749,
      "Ġmban": 7750,
      "Ġmbord": 7751,
      "Ġmbainist": 7752,
      "aithean": 7753,
      "Ġamanna": 7754,
      "Ġstrap": 7755,
      "ife": 7756,
      "uab": 7757,
      "ianadh": 7758,
      "ĠtÃºisce": 7759,
      "ĠionsaÃŃ": 7760,
      "tric": 7761,
      "Ġclog": 7762,
      "Ġ62": 7763,
      "ged": 7764,
      "Ġathraithe": 7765,
      "umainn": 7766,
      "Ġpro": 7767,
      "ĠiarrthÃ³irÃŃ": 7768,
      "rown": 7769,
      "Ġ08": 7770,
      "ĠhAoine": 7771,
      "ette": 7772,
      "ely": 7773,
      "ĠoibrÃŃochta": 7774,
      "Ã³sadh": 7775,
      "AIL": 7776,
      "ĠMhar": 7777,
      "Ġaisghairm": 7778,
      "Ġ184": 7779,
      "ĠÃ©ifeachtÃºil": 7780,
      "Ġdleachta": 7781,
      "ĠuiscedhÃŃonach": 7782,
      "ĠDeontais": 7783,
      "Ġ1995": 7784,
      "ĠDhia": 7785,
      "Ġ1968": 7786,
      "Ġ1970": 7787,
      "Ġ1971": 7788,
      "ĠprÃ³isis": 7789,
      "ĠÃ¡iritheoidh": 7790,
      "orgÃ¡iste": 7791,
      "ĠFreagra": 7792,
      "ĠFraince": 7793,
      "ĠbailiÃºchÃ¡n": 7794,
      "Ġinfheidhmithe": 7795,
      "ĠcomhphÃ¡irtithe": 7796,
      "ĠsuiteÃ¡il": 7797,
      "Ġmolta": 7798,
      "ĠBainfidh": 7799,
      "ĠBunÃºs": 7800,
      "ĠchumasÃº": 7801,
      "Ġsamhail": 7802,
      "ĠbhrabÃºis": 7803,
      "Ġglaoch": 7804,
      "ĠballaphÃ¡ipÃ©ir": 7805,
      "ĠTacaÃŃocht": 7806,
      "ĠgceanglaÃŃtear": 7807,
      "ĠsÃŃneadh": 7808,
      "ĠtOrdÃº": 7809,
      "ĠEng": 7810,
      "ĠgcÃºrsaÃŃ": 7811,
      "ĠTechn": 7812,
      "Ġtraein": 7813,
      "Ġcriostail": 7814,
      "ĠCBL": 7815,
      "ĠUSB": 7816,
      "ĠhÃ©igean": 7817,
      "Ġbheirt": 7818,
      "ratch": 7819,
      "threorach": 7820,
      "ĠmÃ¡istir": 7821,
      "ĠscÃ¡ileÃ¡n": 7822,
      "ĠcruthaÃŃodh": 7823,
      "ĠLimistÃ©ar": 7824,
      "Ġsheolann": 7825,
      "ĠSEASAMH": 7826,
      "60": 7827,
      "eur": 7828,
      "form": 7829,
      "iqu": 7830,
      "ste": 7831,
      "Ġsea": 7832,
      "ĠsÃŃniÃº": 7833,
      "Ã³dh": 7834,
      "taÃŃochtaÃŃ": 7835,
      "ĠgÃ¡s": 7836,
      "ĠfÃŃo": 7837,
      "Ġcil": 7838,
      "Ġceil": 7839,
      "ĠchÃ¡is": 7840,
      "Ġcheachtar": 7841,
      "ĠtÃ©igh": 7842,
      "ustr": 7843,
      "anga": 7844,
      "Ġbheag": 7845,
      "Ġbhag": 7846,
      "Ġnas": 7847,
      "ĠCL": 7848,
      "ĠCeap": 7849,
      "ĠCÃºirt": 7850,
      "ĠAims": 7851,
      "ĠAmharc": 7852,
      "ids": 7853,
      "lay": 7854,
      "laÃŃocht": 7855,
      "ĠTÃ©igh": 7856,
      "ĠTour": 7857,
      "ĠSch": 7858,
      "Ġhair": 7859,
      "ĠBig": 7860,
      "ĠIW": 7861,
      "Ġfhair": 7862,
      "Ġfhol": 7863,
      "ĠFiÃº": 7864,
      "ĠFaoiseamh": 7865,
      "ĠFoirne": 7866,
      "Ã©ire": 7867,
      "ĠDR": 7868,
      "Ġmhac": 7869,
      "ĠRÃ©im": 7870,
      "Ġshanna": 7871,
      "Ġshibhialta": 7872,
      "ĠPe": 7873,
      "unc": 7874,
      "ĠEit": 7875,
      "ĠcultÃºrtha": 7876,
      "ĠÃºin": 7877,
      "aÃŃl": 7878,
      "aitheacht": 7879,
      "uairisce": 7880,
      "Ġiarainn": 7881,
      "lÃ¡ndÃ¡il": 7882,
      "ĠBhÃ³ithre": 7883,
      "Ġdtabharfaidh": 7884,
      "ĠsonraÃŃochtaÃŃ": 7885,
      "get": 7886,
      "Ġacad": 7887,
      "Ġgcomhalta": 7888,
      "Ġmeasa": 7889,
      "ĠvÃŃosa": 7890,
      "Ġ84": 7891,
      "ĠbhfeidhmiÃº": 7892,
      "Ġ09": 7893,
      "ĠÃ©agumas": 7894,
      "ĠAireacht": 7895,
      "Ãºird": 7896,
      "iocfadh": 7897,
      "Ġsaineolas": 7898,
      "Ġrannchuid": 7899,
      "ealaÃŃon": 7900,
      "ĠchÃ³naÃŃ": 7901,
      "ĠchÃ³naÃŃonn": 7902,
      "ĠthuismitheoirÃŃ": 7903,
      "spidÃ©al": 7904,
      "Ġ1981": 7905,
      "Ġ1989": 7906,
      "ĠtoghachÃ¡in": 7907,
      "Ġbainise": 7908,
      "ĠbreiseÃ¡n": 7909,
      "Ã³cmhainnÃŃ": 7910,
      "ĠAthrÃº": 7911,
      "ĠminicÃŃocht": 7912,
      "ĠinfheistÃŃochtaÃŃ": 7913,
      "ASC": 7914,
      "ĠdÃ¡ileog": 7915,
      "ĠshealbhÃ³ir": 7916,
      "Ġshainaithint": 7917,
      "ĠhoibrÃŃochtaÃŃ": 7918,
      "ĠfÃ³mhar": 7919,
      "ĠcomhthÃ¡ite": 7920,
      "ĠiontaobhaÃŃ": 7921,
      "Ġstampa": 7922,
      "Ġchorpraithe": 7923,
      "Ġsamhlacha": 7924,
      "Ġtaifeadadh": 7925,
      "ĠPleanÃ¡il": 7926,
      "ĠÃ¡itreibh": 7927,
      "ĠTuirce": 7928,
      "ĠealaÃŃon": 7929,
      "oirgneamh": 7930,
      "Ġclaochla": 7931,
      "Ġfhreagairt": 7932,
      "ĠpolaitiÃºla": 7933,
      "Ġgcinnfidh": 7934,
      "Ġcraol": 7935,
      "Ġbheirtear": 7936,
      "Ġiris": 7937,
      "imintÃŃ": 7938,
      "Ġuirbeach": 7939,
      "Ġtuirling": 7940,
      "ĠEachtracha": 7941,
      "Ġtharmligean": 7942,
      "ĠWindows": 7943,
      "Ġleideanna": 7944,
      "BC": 7945,
      "PS": 7946,
      "ata": 7947,
      "balta": 7948,
      "ja": 7949,
      "leachtaÃŃ": 7950,
      "lÃ³id": 7951,
      "tuairisc": 7952,
      "uc": 7953,
      "up": 7954,
      "Ã¤": 7955,
      "Ġduille": 7956,
      "Ġste": 7957,
      "thear": 7958,
      "nap": 7959,
      "Ġloigh": 7960,
      "ĠfÃŃs": 7961,
      "Ġfeasta": 7962,
      "dhÃ¡ta": 7963,
      "Ġcaol": 7964,
      "orld": 7965,
      "Ġbus": 7966,
      "Ġbair": 7967,
      "ĠbrÃ³": 7968,
      "raon": 7969,
      "ghÃ©illeadh": 7970,
      "ainmhithe": 7971,
      "Ġinfo": 7972,
      "ĠSion": 7973,
      "ĠSol": 7974,
      "ĠSlÃ¡intÃŃochta": 7975,
      "Ġbhfoils": 7976,
      "ĠDan": 7977,
      "ĠDeimhniÃº": 7978,
      "ĠDoicimÃ©id": 7979,
      "ĠMad": 7980,
      "ĠMed": 7981,
      "ĠMaoirs": 7982,
      "itheacht": 7983,
      "ĠLas": 7984,
      "Ġmhais": 7985,
      "Ġmheabhair": 7986,
      "ĠPE": 7987,
      "ĠGrÃ©": 7988,
      "ĠGearmÃ¡in": 7989,
      "ĠETI": 7990,
      "Ġsciar": 7991,
      "oiriÃºnach": 7992,
      "Ġmblian": 7993,
      "ican": 7994,
      "eannacht": 7995,
      "Ġ202": 7996,
      "oilÃ©ir": 7997,
      "ĠndÃ©ile": 7998,
      "fheicthe": 7999,
      "Ġchomhth": 8000,
      "Ġairleac": 8001,
      "ĠOp": 8002,
      "ister": 8003,
      "ruailliÃº": 8004,
      "Ġobh": 8005,
      "Ġochta": 8006,
      "ibr": 8007,
      "ibhlÃ©id": 8008,
      "ĠThar": 8009,
      "Ġ06": 8010,
      "EACH": 8011,
      "ĠrialaÃŃtear": 8012,
      "ÃŃlse": 8013,
      "ĠComhaontÃº": 8014,
      "Ġtuismitheoir": 8015,
      "eanad": 8016,
      "eanada": 8017,
      "leanÃºnach": 8018,
      "ĠtSeanaid": 8019,
      "Ãºlra": 8020,
      "aife": 8021,
      "Ġ1962": 8022,
      "ĠJust": 8023,
      "ives": 8024,
      "Ġ130": 8025,
      "ĠNaomh": 8026,
      "ĠfheidhmÃŃocht": 8027,
      "ĠtÃ¡stÃ¡lacha": 8028,
      "ĠOifigeach": 8029,
      "Ġbhuan": 8030,
      "Ġ1940": 8031,
      "ĠplÃ¡ta": 8032,
      "Ġbaineadh": 8033,
      "ĠphrÃ³isis": 8034,
      "ĠIdirlÃŃon": 8035,
      "ĠCathaoirleach": 8036,
      "Ãºnaer": 8037,
      "Ġgcreid": 8038,
      "ĠtrÃ¡tha": 8039,
      "Ġcoisc": 8040,
      "ĠcoiriÃºil": 8041,
      "Ġnasctha": 8042,
      "Ġthairbh": 8043,
      "ĠBuan": 8044,
      "Ġiontaobhas": 8045,
      "ĠslÃ¡intiÃºil": 8046,
      "Ġlitreacha": 8047,
      "ĠLÃ¡ith": 8048,
      "ĠtomhaltÃ³irÃŃ": 8049,
      "Ġchumhdach": 8050,
      "ĠclÃºdaithe": 8051,
      "TION": 8052,
      "Ġcomhaontaithe": 8053,
      "ĠIndia": 8054,
      "imeÃ¡d": 8055,
      "ĠLeanÃºint": 8056,
      "Ġcnaipe": 8057,
      "Ġxxx": 8058,
      "Ġdhualgais": 8059,
      "ĠLiosta": 8060,
      "ĠiomlÃ¡nach": 8061,
      "ĠfhostÃ³ir": 8062,
      "ĠtrÃ©dhearcach": 8063,
      "ĠMastur": 8064,
      "Ġloingseoireachta": 8065,
      "dhlÃºite": 8066,
      "ĠheagraÃŃochtaÃŃ": 8067,
      "Ġsaibhir": 8068,
      "ĠGnÃ©ithe": 8069,
      "Ġailse": 8070,
      "ĠBursa": 8071,
      "tÃ©armach": 8072,
      "Ġfoghlama": 8073,
      "ĠsÃ©asÃºr": 8074,
      "aispeÃ¡nann": 8075,
      "EIDH": 8076,
      "Ġdealraitheach": 8077,
      "Ġshannadh": 8078,
      "ĠETIAS": 8079,
      "EanÃ¡ir": 8080,
      "RD": 8081,
      "bÃ¡in": 8082,
      "fÃ©ar": 8083,
      "nÃ¡in": 8084,
      "tÃ³far": 8085,
      "uf": 8086,
      "uÃŃodh": 8087,
      "vest": 8088,
      "eaca": 8089,
      "ĠdlÃº": 8090,
      "Ġsann": 8091,
      "Ġseis": 8092,
      "Ġseam": 8093,
      "ĠsÃŃnithe": 8094,
      "ince": 8095,
      "mhuin": 8096,
      "Ġleann": 8097,
      "ĠlÃŃtear": 8098,
      "bhuirg": 8099,
      "iseach": 8100,
      "ĠfÃ¡n": 8101,
      "Ġfilleadh": 8102,
      "Ġfeirme": 8103,
      "Ġcaip": 8104,
      "onta": 8105,
      "Ġchoisc": 8106,
      "ĠbheartaÃŃtear": 8107,
      "ĠClas": 8108,
      "ĠCoiriÃºil": 8109,
      "Ġbeann": 8110,
      "Ġchuici": 8111,
      "aisghairtear": 8112,
      "ĠTra": 8113,
      "ĠToisc": 8114,
      "Ġhairgead": 8115,
      "ĠIarr": 8116,
      "osa": 8117,
      "ĠthuarascÃ¡il": 8118,
      "ĠthaispeÃ¡n": 8119,
      "ĠMes": 8120,
      "ĠMAID": 8121,
      "ĠtriÃºr": 8122,
      "ĠtrÃŃocha": 8123,
      "ĠLog": 8124,
      "ols": 8125,
      "ĠChearta": 8126,
      "ĠChathair": 8127,
      "ĠRIAL": 8128,
      "ĠPoblacht": 8129,
      "Ġgheofar": 8130,
      "ĠEs": 8131,
      "oiriÃºnacht": 8132,
      "Ġmbonn": 8133,
      "icy": 8134,
      "ÃŃric": 8135,
      "ĠdtÃ³g": 8136,
      "ĠtÃ¡ib": 8137,
      "aobh": 8138,
      "ocsaÃŃ": 8139,
      "ÃŃseachta": 8140,
      "iang": 8141,
      "mat": 8142,
      "ges": 8143,
      "Ġsperm": 8144,
      "Ġbrain": 8145,
      "ĠmeasÃºnacht": 8146,
      "umarsÃ¡ide": 8147,
      "ĠScann": 8148,
      "ĠPhÃ¡irtÃŃ": 8149,
      "ĠprÃ¡": 8150,
      "Ġtsraith": 8151,
      "ĠInmh": 8152,
      "Ġ93": 8153,
      "arlaiminte": 8154,
      "ĠComhth": 8155,
      "ĠComhar": 8156,
      "ĠStÃŃl": 8157,
      "ĠWHO": 8158,
      "ĠiarratasÃ³ra": 8159,
      "ĠlÃ¡ithreacha": 8160,
      "eicnÃŃc": 8161,
      "Ġwith": 8162,
      "ĠÃĵga": 8163,
      "Ġkom": 8164,
      "Ġ1929": 8165,
      "ĠcatagÃ³ir": 8166,
      "ĠtÃ¡scairÃŃ": 8167,
      "ĠriarthÃ³ir": 8168,
      "Ġ1953": 8169,
      "Ġ1983": 8170,
      "Ġ1949": 8171,
      "ĠplÃ¡": 8172,
      "Ġullmhaithe": 8173,
      "ĠAthbhreithniÃº": 8174,
      "ĠdTu": 8175,
      "ĠtiomÃ¡int": 8176,
      "ĠOrg": 8177,
      "ĠOrduithe": 8178,
      "ĠState": 8179,
      "ĠhÃºsÃ¡idtear": 8180,
      "ĠghrÃ¡d": 8181,
      "ĠImeachtaÃŃ": 8182,
      "Ġteileaf": 8183,
      "ĠchatagÃ³ir": 8184,
      "ĠfaireachÃ¡in": 8185,
      "Ġdroichead": 8186,
      "ĠchorparÃ¡ide": 8187,
      "Ã³ilÃŃn": 8188,
      "ĠoibrÃŃochtÃºla": 8189,
      "Ġchonaic": 8190,
      "ĠOibrÃŃonn": 8191,
      "ĠRÃ©amhrÃ¡": 8192,
      "ĠbhallÃ³ide": 8193,
      "ĠTÃ¡stÃ¡il": 8194,
      "ĠthiomÃ¡int": 8195,
      "ualainn": 8196,
      "ĠmÃºnla": 8197,
      "Ġluadhfar": 8198,
      "ĠchuimsiÃº": 8199,
      "Ġclocha": 8200,
      "ĠinniÃºlacht": 8201,
      "ĠghiniÃºint": 8202,
      "ĠthÃ¡stÃ¡il": 8203,
      "ĠEochairfhocal": 8204,
      "Ġgaineamh": 8205,
      "Ġeatramh": 8206,
      "ita": 8207,
      "mid": 8208,
      "nraÃŃ": 8209,
      "reoirÃŃ": 8210,
      "vent": 8211,
      "zine": 8212,
      "Ãľ": 8213,
      "Ġaill": 8214,
      "chÃºirt": 8215,
      "Ã¡dh": 8216,
      "Ġdiosca": 8217,
      "Ġsur": 8218,
      "Ġsorc": 8219,
      "mhuir": 8220,
      "Ġfoth": 8221,
      "ĠfoilsiÃº": 8222,
      "ĠcÃŃosa": 8223,
      "ĠmÃŃoch": 8224,
      "ĠmÃ¡thair": 8225,
      "ustam": 8226,
      "Ġbhia": 8227,
      "ĠCNC": 8228,
      "ĠrÃŃth": 8229,
      "Ġbuille": 8230,
      "ĠTS": 8231,
      "ĠTithe": 8232,
      "ĠSeoladh": 8233,
      "ĠgcÃ¡il": 8234,
      "ĠBas": 8235,
      "ĠBlac": 8236,
      "ĠImp": 8237,
      "Ġtheach": 8238,
      "ĠthÃºs": 8239,
      "ĠFÃ¡ilte": 8240,
      "ĠFÃ©adfidh": 8241,
      "ĠDeal": 8242,
      "ĠDFÃ³mh": 8243,
      "ĠMA": 8244,
      "ĠMnÃ¡": 8245,
      "Ġsaghas": 8246,
      "ĠLiÃºntas": 8247,
      "Ġmheabh": 8248,
      "ĠCheap": 8249,
      "Ġsheilbh": 8250,
      "ĠEle": 8251,
      "Ġcup": 8252,
      "aithfear": 8253,
      "ĠnÃ¡is": 8254,
      "ĠchomhrÃ©ir": 8255,
      "Ã³gais": 8256,
      "Ġphian": 8257,
      "ifr": 8258,
      "luacha": 8259,
      "Ġsuib": 8260,
      "ĠmÃ³ide": 8261,
      "des": 8262,
      "Ġtarchurtha": 8263,
      "ĠfeidhmÃŃocht": 8264,
      "Ġluibh": 8265,
      "Ġ61": 8266,
      "ugadh": 8267,
      "ogram": 8268,
      "ĠidirlÃŃon": 8269,
      "Ġchleachtadh": 8270,
      "ĠleasachÃ¡in": 8271,
      "oifigigh": 8272,
      "Ġ77": 8273,
      "ĠneamhniÃº": 8274,
      "Ġgreann": 8275,
      "terling": 8276,
      "Ġ86": 8277,
      "Ġbhfeidhmeanna": 8278,
      "ĠoifigÃŃ": 8279,
      "Ġ94": 8280,
      "Ġansan": 8281,
      "ĠsÃŃc": 8282,
      "ardaithe": 8283,
      "Ġ125": 8284,
      "ĠShÃ¡bhÃ¡ilteacht": 8285,
      "Ã¡chan": 8286,
      "aicmÃŃ": 8287,
      "Ġghabhas": 8288,
      "ÃºsÃ¡ideoirÃŃ": 8289,
      "Ġww": 8290,
      "Ġtairg": 8291,
      "ĠcÃ¡ilÃŃochtaÃŃ": 8292,
      "Ġ1930": 8293,
      "Ġ1975": 8294,
      "Ġcaora": 8295,
      "ĠcumhrÃ¡in": 8296,
      "ĠaerÃ¡ide": 8297,
      "Ġ1950": 8298,
      "ĠlÃ¡naimseartha": 8299,
      "ĠSolÃ¡thair": 8300,
      "ducation": 8301,
      "ĠCÃ³d": 8302,
      "ĠReport": 8303,
      "Ġghlacann": 8304,
      "ĠonnmhairiÃº": 8305,
      "ĠcomhphÃ¡irteach": 8306,
      "ĠshainmhÃŃnÃŃtear": 8307,
      "Ġstad": 8308,
      "ĠinmheÃ¡nacha": 8309,
      "ĠhinstitiÃºidÃŃ": 8310,
      "Ġchailleann": 8311,
      "ĠchomhshÃ³": 8312,
      "ĠTeaghrÃ¡n": 8313,
      "iobar": 8314,
      "ĠthomhaltÃ³irÃŃ": 8315,
      "ĠeadrÃ¡": 8316,
      "ĠCumhachtaÃŃ": 8317,
      "ĠdhÃºnadh": 8318,
      "ĠcontrÃ¡rtha": 8319,
      "ĠLeithead": 8320,
      "ĠgalÃ¡nta": 8321,
      "ĠBhreithiÃºnais": 8322,
      "ĠnuÃ¡laÃŃocht": 8323,
      "ĠMicrosoft": 8324,
      "ĠSOCRÃļ": 8325,
      "ĠtomhaltÃ³ir": 8326,
      "Ġciseal": 8327,
      "Ġndualg": 8328,
      "ĠMAIDIR": 8329,
      "26": 8330,
      "40": 8331,
      "EM": 8332,
      "ML": 8333,
      "UN": 8334,
      "beÃ¡in": 8335,
      "cÃ³ide": 8336,
      "eh": 8337,
      "ey": 8338,
      "gg": 8339,
      "nce": 8340,
      "nÃ³irÃŃ": 8341,
      "oh": 8342,
      "ugh": 8343,
      "ven": 8344,
      "ye": 8345,
      "chÃ¡nach": 8346,
      "chÃ³n": 8347,
      "intear": 8348,
      "Ãºsa": 8349,
      "Ġlao": 8350,
      "Ã³sÃº": 8351,
      "bhachtach": 8352,
      "Ġfli": 8353,
      "dhÃŃol": 8354,
      "Ġcair": 8355,
      "Ġcearr": 8356,
      "Ġcaird": 8357,
      "ility": 8358,
      "ĠnI": 8359,
      "Ġnaimh": 8360,
      "ĠchineÃ¡lacha": 8361,
      "Ġtocsain": 8362,
      "ĠmÃ©ar": 8363,
      "Ġmog": 8364,
      "Ġid": 8365,
      "Ġarbh": 8366,
      "ĠCM": 8367,
      "ĠClÃº": 8368,
      "ĠCÃ³rais": 8369,
      "ĠCON": 8370,
      "ida": 8371,
      "aladh": 8372,
      "Ġboil": 8373,
      "Ġbint": 8374,
      "Ġboird": 8375,
      "ghluaiste": 8376,
      "earbh": 8377,
      "ains": 8378,
      "omhas": 8379,
      "ĠTo": 8380,
      "ĠSH": 8381,
      "ĠSeacht": 8382,
      "teorainn": 8383,
      "ĠgcoinnÃŃoll": 8384,
      "ĠdhÃŃo": 8385,
      "ĠBrÃº": 8386,
      "Ġbhfabhar": 8387,
      "ĠseomraÃŃ": 8388,
      "Ġfheiste": 8389,
      "Ġthreor": 8390,
      "ĠtheicniÃºla": 8391,
      "ĠDÃºn": 8392,
      "ĠMov": 8393,
      "ithche": 8394,
      "oma": 8395,
      "ĠLÃ¡thair": 8396,
      "ĠLeana": 8397,
      "ĠChar": 8398,
      "ĠRT": 8399,
      "ĠRoinnt": 8400,
      "ĠPion": 8401,
      "Ã©idear": 8402,
      "ileÃ¡in": 8403,
      "ĠghnÃ©as": 8404,
      "Ġua": 8405,
      "Ġuain": 8406,
      "ĠEl": 8407,
      "Ġcomhbh": 8408,
      "Ġcomhla": 8409,
      "airteag": 8410,
      "cer": 8411,
      "ĠdtÃŃortha": 8412,
      "Ġhaois": 8413,
      "ĠstiÃºradh": 8414,
      "Ġaschur": 8415,
      "Ġnocht": 8416,
      "ĠmÃ³tar": 8417,
      "Ã¡ltar": 8418,
      "oibreoir": 8419,
      "ĠspÃ³rt": 8420,
      "ester": 8421,
      "ĠidirlÃŃn": 8422,
      "Ġngeall": 8423,
      "Ġtharraing": 8424,
      "sanacht": 8425,
      "eilg": 8426,
      "ĠÃģbhair": 8427,
      "Ġ05": 8428,
      "ĠÃ©agtha": 8429,
      "Ġbhunaidh": 8430,
      "Ġ108": 8431,
      "ĠTrans": 8432,
      "oilsithe": 8433,
      "ĠStruchtÃºr": 8434,
      "ĠmBun": 8435,
      "ĠmBanc": 8436,
      "Ġfuasc": 8437,
      "Ġluachanna": 8438,
      "Ġrithte": 8439,
      "ĠChomhphobal": 8440,
      "Ġ1979": 8441,
      "Ġchinnidh": 8442,
      "Ġchionta": 8443,
      "ochaÃŃ": 8444,
      "Ġgcionn": 8445,
      "Ġtoghadh": 8446,
      "Ġluafar": 8447,
      "ĠcÃ³irÃŃocht": 8448,
      "ĠrialÃºchÃ¡in": 8449,
      "Ġiontaoibh": 8450,
      "ĠcothromaÃŃocht": 8451,
      "ĠrÃ©igiÃºnacha": 8452,
      "ĠtÃŃrdhreach": 8453,
      "Ġmaoinithe": 8454,
      "ĠgnÃ¡thchÃ³naÃŃ": 8455,
      "ÃºnaÃŃocht": 8456,
      "oillsiÃº": 8457,
      "ĠLEE": 8458,
      "ĠbhainistÃŃ": 8459,
      "ĠnGall": 8460,
      "Ġcruthaithe": 8461,
      "ĠcomhthÃ¡thÃº": 8462,
      "Ġollscoil": 8463,
      "Ġlitr": 8464,
      "ĠtairiscintÃŃ": 8465,
      "ĠCÃºnamh": 8466,
      "Ġdhearbh": 8467,
      "Ġbhrath": 8468,
      "ĠDearg": 8469,
      "ĠgComhaontÃº": 8470,
      "ĠScoileanna": 8471,
      "aighdeoirÃŃ": 8472,
      "ĠhOifige": 8473,
      "Ġpianbhreith": 8474,
      "ĠsolÃºbtha": 8475,
      "Ġmilis": 8476,
      "Ġ1908": 8477,
      "ĠCuideachtan": 8478,
      "ĠAoisghrÃºpa": 8479,
      "Ġhidir": 8480,
      "ĠTreoracha": 8481,
      "ĠtÃŃolac": 8482,
      "ĠcheiliÃºradh": 8483,
      "nasctha": 8484,
      "ĠSams": 8485,
      "ĠfianÃ¡in": 8486,
      "Ġintuigthe": 8487,
      "ĠCaibidle": 8488,
      "Ġnascadh": 8489,
      "ĠplÃ¡tÃ¡ilte": 8490,
      "ĠdTuaisceart": 8491,
      "ĠrÃŃthÃ¡bhachtach": 8492,
      "Ġwww": 8493,
      "beÃ¡int": 8494,
      "16": 8495,
      "ban": 8496,
      "ball": 8497,
      "core": 8498,
      "eisc": 8499,
      "ft": 8500,
      "fimid": 8501,
      "he": 8502,
      "pro": 8503,
      "tÃŃonn": 8504,
      "yst": 8505,
      "cheantar": 8506,
      "eak": 8507,
      "aict": 8508,
      "Ġdis": 8509,
      "Ġsex": 8510,
      "Ã©ill": 8511,
      "bhealach": 8512,
      "Ġgener": 8513,
      "Ġfead": 8514,
      "dhÃŃlse": 8515,
      "aradh": 8516,
      "ild": 8517,
      "ily": 8518,
      "illa": 8519,
      "Ġchas": 8520,
      "ĠchÃŃos": 8521,
      "ĠchuspÃ³ir": 8522,
      "Ġtaibh": 8523,
      "ĠtÃŃolacadh": 8524,
      "ĠCP": 8525,
      "ĠCAI": 8526,
      "ĠCart": 8527,
      "iÃºscartha": 8528,
      "oration": 8529,
      "laÃŃoch": 8530,
      "aiseach": 8531,
      "ĠTim": 8532,
      "ĠTeanga": 8533,
      "ĠTION": 8534,
      "ĠpÃ¡ir": 8535,
      "ĠSÃ©": 8536,
      "ĠSli": 8537,
      "ĠSIS": 8538,
      "ĠSrÃ¡id": 8539,
      "ĠhÃŃocadh": 8540,
      "Ġdhein": 8541,
      "ĠbhfÃŃric": 8542,
      "ĠfhÃŃrinne": 8543,
      "Ġtheideal": 8544,
      "ĠthaithÃŃ": 8545,
      "Ã©irg": 8546,
      "ĠMeith": 8547,
      "ĠMam": 8548,
      "ĠMara": 8549,
      "ĠMAR": 8550,
      "ĠLaistigh": 8551,
      "ĠLiÃºntais": 8552,
      "Ġaonfhoirm": 8553,
      "ĠmhÃºn": 8554,
      "Ġmhonar": 8555,
      "ĠmhnÃ¡": 8556,
      "ĠChor": 8557,
      "ĠChur": 8558,
      "ĠChlÃ¡ir": 8559,
      "ĠPos": 8560,
      "ĠPST": 8561,
      "ĠNÃ³ta": 8562,
      "Ġghear": 8563,
      "ĠGlÃ©as": 8564,
      "ĠES": 8565,
      "ĠscrÃŃbhn": 8566,
      "Ġmbr": 8567,
      "ices": 8568,
      "Ġcomhfhreag": 8569,
      "Ã³rach": 8570,
      "Ã³rtais": 8571,
      "ĠfÃ©ar": 8572,
      "Ġtae": 8573,
      "Ġairbheart": 8574,
      "Ġphunt": 8575,
      "Ġformheas": 8576,
      "ĠUllmh": 8577,
      "ĠiomaÃŃocht": 8578,
      "rÃŃbe": 8579,
      "Ġionchuir": 8580,
      "ĠdÃ©antÃº": 8581,
      "nÃ³s": 8582,
      "Ġcliste": 8583,
      "Ã©imhe": 8584,
      "Ã¡dÃºr": 8585,
      "Ġidirbhearta": 8586,
      "ĠcosantÃ³ir": 8587,
      "ĠThionsc": 8588,
      "ĠmeastÃ³ireachta": 8589,
      "ĠPhoblacht": 8590,
      "ĠgnÃŃomhairÃŃ": 8591,
      "ĠÃģis": 8592,
      "aitlic": 8593,
      "Ġ96": 8594,
      "ĠÃīad": 8595,
      "Ġbhronnta": 8596,
      "aingne": 8597,
      "ĠWord": 8598,
      "ĠardÃ¡n": 8599,
      "Ã©adfÃ¡": 8600,
      "ĠcheartÃº": 8601,
      "ĠmBaile": 8602,
      "Ġtub": 8603,
      "rÃ©ig": 8604,
      "ĠForas": 8605,
      "aoithe": 8606,
      "Ġeisiamh": 8607,
      "ealad": 8608,
      "Ã©iseach": 8609,
      "airdÃŃnÃŃ": 8610,
      "aigin": 8611,
      "ĠBreath": 8612,
      "Ġscairchaipiteal": 8613,
      "Ġ1942": 8614,
      "iubh": 8615,
      "Ġlasta": 8616,
      "ĠCHO": 8617,
      "ĠTalamh": 8618,
      "ĠdhiÃºl": 8619,
      "ĠshuÃŃ": 8620,
      "ĠforbairtÃŃ": 8621,
      "ĠsealbhÃ³irÃŃ": 8622,
      "Ġtuairiscithe": 8623,
      "Ġneamhchomh": 8624,
      "ĠXX": 8625,
      "ĠrannphÃ¡irtÃŃ": 8626,
      "Ġcoirp": 8627,
      "ĠuasghrÃ¡dÃº": 8628,
      "ĠdifriÃºla": 8629,
      "ĠcomhthÃ©acs": 8630,
      "Ã¡istithe": 8631,
      "ewel": 8632,
      "Ġinslithe": 8633,
      "ĠdlÃŃtheanach": 8634,
      "ĠDÃºithche": 8635,
      "ike": 8636,
      "ĠvÃ³tanna": 8637,
      "ĠDomhan": 8638,
      "Ġbezel": 8639,
      "TIO": 8640,
      "ÃŃoltÃ³ir": 8641,
      "ĠÃ¡isiÃºil": 8642,
      "Ġhinfheist": 8643,
      "Ġtobann": 8644,
      "ĠtromchÃºiseacha": 8645,
      "Ġloinge": 8646,
      "orcaigh": 8647,
      "ĠUaireanta": 8648,
      "Ġdtosach": 8649,
      "Ġmhionn": 8650,
      "ĠnuachtÃ¡n": 8651,
      "ĠSÃŃnis": 8652,
      "Ġtsamhail": 8653,
      "ĠphionÃ³s": 8654,
      "ĠphionÃ³sÃº": 8655,
      "ĠdÃŃfhostaÃŃochta": 8656,
      "ĠchorÃ³in": 8657,
      "Ġmainneachtain": 8658,
      "Ġthabhaigh": 8659,
      "ĠeascraÃŃonn": 8660,
      "ĠtÃŃotÃ¡iniam": 8661,
      "ĠEolaÃŃochta": 8662,
      "Ġcodlata": 8663,
      "ĠTeilifÃŃse": 8664,
      "ĠISO": 8665,
      "ĠghlÃ©asra": 8666,
      "ĠraidiÃ³": 8667,
      "ĠBogearraÃŃ": 8668,
      "ĠThosaigh": 8669,
      "Ġiomarcach": 8670,
      "ĠFuinnimh": 8671,
      "Ġromhainn": 8672,
      "Ġgeografach": 8673,
      "eaitseÃ¡il": 8674,
      "tuairiscÃŃ": 8675,
      "70": 8676,
      "TU": 8677,
      "by": 8678,
      "car": 8679,
      "ect": 8680,
      "line": 8681,
      "llamh": 8682,
      "mara": 8683,
      "sithe": 8684,
      "sman": 8685,
      "yd": 8686,
      "Ġeip": 8687,
      "Ġana": 8688,
      "Ġsw": 8689,
      "ĠseiceÃ¡il": 8690,
      "Ġsaighd": 8691,
      "Ġsoilsithe": 8692,
      "thaire": 8693,
      "Ġlon": 8694,
      "Ã³radh": 8695,
      "Ġgearradh": 8696,
      "Ġcirt": 8697,
      "Ġcala": 8698,
      "Ġchluas": 8699,
      "Ġchonartha": 8700,
      "Ġtram": 8701,
      "Ġmach": 8702,
      "ÃŃolac": 8703,
      "any": 8704,
      "Ġbhac": 8705,
      "eachumarsÃ¡ide": 8706,
      "ĠCÃ¡rta": 8707,
      "ĠCathair": 8708,
      "ĠComhairl": 8709,
      "ĠAda": 8710,
      "ĠAonad": 8711,
      "Ġbo": 8712,
      "Ġbanc": 8713,
      "ĠinrÃ¡": 8714,
      "ĠTO": 8715,
      "ĠTaoiseach": 8716,
      "Ġpeitril": 8717,
      "ĠSC": 8718,
      "ĠhurrÃº": 8719,
      "Ġgcontae": 8720,
      "ĠgciseÃ¡n": 8721,
      "Ġdollar": 8722,
      "Ġdhaon": 8723,
      "ĠfhÃ³": 8724,
      "ĠFÃ¡sta": 8725,
      "igiÃº": 8726,
      "Ã¡sal": 8727,
      "ĠDea": 8728,
      "ĠDar": 8729,
      "imeachtaÃŃ": 8730,
      "ĠMus": 8731,
      "ĠMÃ©ad": 8732,
      "ĠMag": 8733,
      "Ã©adach": 8734,
      "ĠLeath": 8735,
      "Ã©annachta": 8736,
      "Ġeil": 8737,
      "ĠeHouse": 8738,
      "ĠNet": 8739,
      "ĠGla": 8740,
      "ĠEducation": 8741,
      "liachta": 8742,
      "led": 8743,
      "Ġscuab": 8744,
      "ĠcultÃºr": 8745,
      "Ã¡thaithe": 8746,
      "idhe": 8747,
      "eallach": 8748,
      "aitheachta": 8749,
      "ĠOme": 8750,
      "luchta": 8751,
      "ĠforiomlÃ¡n": 8752,
      "Ġiomar": 8753,
      "rugaÃŃ": 8754,
      "Ġoch": 8755,
      "tachais": 8756,
      "Ġdtabhar": 8757,
      "phone": 8758,
      "ĠAonaid": 8759,
      "ĠspÃ©is": 8760,
      "Ġgcomhshaol": 8761,
      "Ġcosmaid": 8762,
      "shlÃ¡inte": 8763,
      "Ġchlog": 8764,
      "ating": 8765,
      "ĠPhort": 8766,
      "ĠtsolÃ¡thair": 8767,
      "ĠcrÃŃochnaitheach": 8768,
      "Ġiarrtar": 8769,
      "ĠÃģIR": 8770,
      "Ġ97": 8771,
      "ĠComhlacht": 8772,
      "ĠtrÃ¡thÃºil": 8773,
      "gazine": 8774,
      "rÃ¡taÃŃ": 8775,
      "ĠoiriÃºnÃº": 8776,
      "ealbhÃ³irÃŃ": 8777,
      "ĠcheadaÃŃonn": 8778,
      "ĠSpÃ³irt": 8779,
      "Ġ1992": 8780,
      "ĠDhÃ¡": 8781,
      "ĠDhÃºn": 8782,
      "ARASC": 8783,
      "Ġ1938": 8784,
      "Ġ1973": 8785,
      "Ġcap": 8786,
      "Ġbracelet": 8787,
      "ĠBronnta": 8788,
      "Ġchionroinnt": 8789,
      "Ġcumainn": 8790,
      "ĠlÃºb": 8791,
      "Ġtugann": 8792,
      "Ġscairshealbh": 8793,
      "ĠOifigigh": 8794,
      "Ġbhuaigh": 8795,
      "Ġaithne": 8796,
      "oiteanna": 8797,
      "Ã¡ipÃ©irÃŃ": 8798,
      "Ġ1985": 8799,
      "ĠdÃŃd": 8800,
      "Ġeagraithe": 8801,
      "ĠtrÃ©ithe": 8802,
      "ĠbailÃŃocht": 8803,
      "ĠfoirmiÃº": 8804,
      "ĠdÃŃotÃ¡il": 8805,
      "lÃŃnse": 8806,
      "Ġfuinneog": 8807,
      "ĠsoilÃ©ire": 8808,
      "Ġghlacfaidh": 8809,
      "ĠnGa": 8810,
      "ĠIonchur": 8811,
      "ture": 8812,
      "Ġglacfar": 8813,
      "ĠhoibriÃº": 8814,
      "ITIÃļ": 8815,
      "ĠBarbour": 8816,
      "Ġtromlach": 8817,
      "ĠparlaimintÃŃ": 8818,
      "ĠUnited": 8819,
      "ĠDomhnach": 8820,
      "ĠdeacrachtaÃŃ": 8821,
      "uarastal": 8822,
      "ĠdÃŃlseachÃ¡in": 8823,
      "ĠeacnamaÃŃocha": 8824,
      "Ġfoilsithe": 8825,
      "ĠfoilsÃŃodh": 8826,
      "Ġfaoisimh": 8827,
      "ionadaÃŃ": 8828,
      "ĠbhÃ³thair": 8829,
      "ĠneamhdhÃŃreach": 8830,
      "ĠstÃŃleanna": 8831,
      "ĠCeadaÃŃonn": 8832,
      "ĠsÃºile": 8833,
      "ĠgcomhlÃŃontar": 8834,
      "taobhaithe": 8835,
      "ĠFoilseachÃ¡in": 8836,
      "Ġmhainneachtain": 8837,
      "ĠtaiscÃŃ": 8838,
      "Ġcuimhneamh": 8839,
      "insÃŃmÃŃ": 8840,
      "ĠrÃ¡saÃŃocht": 8841,
      "ĠcÃ³gaisÃŃochta": 8842,
      "ĠrÃ©altaÃŃ": 8843,
      "ĠSeinn": 8844,
      "ĠBlÃ¡thanna": 8845,
      "Ġaitheantais": 8846,
      "ĠLeighis": 8847,
      "Ġgcostas": 8848,
      "ĠCÃ¡ilÃŃochta": 8849,
      "Ġdrochuair": 8850,
      "Ġhoifigigh": 8851,
      "Ġsceidealta": 8852,
      "tÃ¡lfar": 8853,
      "ĠdÃŃospÃ³id": 8854,
      "Ġfheiceann": 8855,
      "ĠgineadÃ³ir": 8856,
      "ĠRIALACHÃģN": 8857,
      "chuibhithe": 8858,
      "ĠsrÃ¡idbh": 8859,
      "ĠPATIO": 8860,
      "ĠDÃ³iteÃ¡in": 8861,
      "ĠndeÃ¡r": 8862,
      "ĠadmhÃ¡il": 8863,
      "ĠÃ¡illeacht": 8864,
      "ĠMeaisÃŃn": 8865,
      "ĠIniÃºch": 8866,
      "Ġsceimhlitheoireachta": 8867,
      "EIDHM": 8868,
      "ufac": 8869,
      "ocsaÃŃd": 8870,
      "ĠTSÃŃn": 8871,
      "ĠLeanann": 8872,
      "ARASCÃģIL": 8873,
      "25": 8874,
      "BA": 8875,
      "EC": 8876,
      "GE": 8877,
      "GN": 8878,
      "IAN": 8879,
      "LÃį": 8880,
      "OIR": 8881,
      "cumb": 8882,
      "ked": 8883,
      "nment": 8884,
      "ty": 8885,
      "Ä°": 8886,
      "Ġdaor": 8887,
      "Ġsiltin": 8888,
      "naÃŃocht": 8889,
      "Ġfireann": 8890,
      "Ġfearas": 8891,
      "Ġcaint": 8892,
      "artar": 8893,
      "Ġneod": 8894,
      "Ġchla": 8895,
      "Ġchine": 8896,
      "Ġchiona": 8897,
[...]
