{
  "version": "1.0",
  "truncation": null,
  "padding": null,
  "added_tokens": [
    {
      "id": 0,
      "content": "[UNK]",
      "single_word": false,
      "lstrip": false,
      "rstrip": false,
      "normalized": false,
      "special": true
    },
    {
      "id": 1,
      "content": "[CLS]",
      "single_word": false,
      "lstrip": false,
      "rstrip": false,
      "normalized": false,
      "special": true
    },
    {
      "id": 2,
      "content": "[SEP]",
      "single_word": false,
      "lstrip": false,
      "rstrip": false,
      "normalized": false,
      "special": true
    },
    {
      "id": 3,
      "content": "[PAD]",
      "single_word": false,
      "lstrip": false,
      "rstrip": false,
      "normalized": false,
      "special": true
    },
    {
      "id": 4,
      "content": "[MASK]",
      "single_word": false,
      "lstrip": false,
      "rstrip": false,
      "normalized": false,
      "special": true
    }
  ],
  "normalizer": {
    "type": "NFKC"
  },
  "pre_tokenizer": {
    "type": "Whitespace"
  },
  "post_processor": null,
  "decoder": null,
  "model": {
    "type": "WordPiece",
    "unk_token": "[UNK]",
    "continuing_subword_prefix": "##",
    "max_input_chars_per_word": 100,
    "vocab": {
      "[UNK]": 0,
      "[CLS]": 1,
      "[SEP]": 2,
      "[PAD]": 3,
      "[MASK]": 4,
      "!": 5,
      "\"": 6,
      "#": 7,
      "$": 8,
      "%": 9,
      "&": 10,
      "'": 11,
      "(": 12,
      ")": 13,
      "*": 14,
      "+": 15,
      ",": 16,
      "-": 17,
      ".": 18,
      "/": 19,
      "0": 20,
      "1": 21,
      "2": 22,
      "3": 23,
      "4": 24,
      "5": 25,
      "6": 26,
      "7": 27,
      "8": 28,
      "9": 29,
      ":": 30,
      ";": 31,
      "=": 32,
      "?": 33,
      "@": 34,
      "A": 35,
      "B": 36,
      "C": 37,
      "D": 38,
      "E": 39,
      "F": 40,
      "G": 41,
      "H": 42,
      "I": 43,
      "J": 44,
      "K": 45,
      "L": 46,
      "M": 47,
      "N": 48,
      "O": 49,
      "P": 50,
      "Q": 51,
      "R": 52,
      "S": 53,
      "T": 54,
      "U": 55,
      "V": 56,
      "W": 57,
      "X": 58,
      "Y": 59,
      "Z": 60,
      "[": 61,
      "\\": 62,
      "]": 63,
      "^": 64,
      "_": 65,
      "`": 66,
      "a": 67,
      "b": 68,
      "c": 69,
      "d": 70,
      "e": 71,
      "f": 72,
      "g": 73,
      "h": 74,
      "i": 75,
      "j": 76,
      "k": 77,
      "l": 78,
      "m": 79,
      "n": 80,
      "o": 81,
      "p": 82,
      "q": 83,
      "r": 84,
      "s": 85,
      "t": 86,
      "u": 87,
      "v": 88,
      "w": 89,
      "x": 90,
      "y": 91,
      "z": 92,
      "{": 93,
      "|": 94,
      "}": 95,
      "~": 96,
      "¢": 97,
      "£": 98,
      "¥": 99,
      "§": 100,
      "©": 101,
      "«": 102,
      "¬": 103,
      "®": 104,
      "°": 105,
      "±": 106,
      "¶": 107,
      "·": 108,
      "»": 109,
      "¿": 110,
      "À": 111,
      "Á": 112,
      "Â": 113,
      "Ã": 114,
      "Ä": 115,
      "Å": 116,
      "Æ": 117,
      "Ç": 118,
      "È": 119,
      "É": 120,
      "Ê": 121,
      "Í": 122,
      "Î": 123,
      "Ï": 124,
      "Ñ": 125,
      "Ó": 126,
      "Ô": 127,
      "Õ": 128,
      "Ö": 129,
      "×": 130,
      "Ø": 131,
      "Ú": 132,
      "Ü": 133,
      "ß": 134,
      "à": 135,
      "á": 136,
      "â": 137,
      "ã": 138,
      "ä": 139,
      "å": 140,
      "æ": 141,
      "ç": 142,
      "è": 143,
      "é": 144,
      "ê": 145,
      "ë": 146,
      "ì": 147,
      "í": 148,
      "î": 149,
      "ï": 150,
      "ð": 151,
      "ñ": 152,
      "ò": 153,
      "ó": 154,
      "ô": 155,
      "õ": 156,
      "ö": 157,
      "÷": 158,
      "ø": 159,
      "ù": 160,
      "ú": 161,
      "ü": 162,
      "ý": 163,
      "Ā": 164,
      "ā": 165,
      "Ă": 166,
      "ă": 167,
      "Ą": 168,
      "Ć": 169,
      "ć": 170,
      "Č": 171,
      "č": 172,
      "đ": 173,
      "Ē": 174,
      "ē": 175,
      "Ė": 176,
      "ė": 177,
      "Ę": 178,
      "ę": 179,
      "ě": 180,
      "ğ": 181,
      "ħ": 182,
      "ī": 183,
      "ı": 184,
      "Ķ": 185,
      "ĺ": 186,
      "ļ": 187,
      "Ł": 188,
      "ł": 189,
      "Ń": 190,
      "ń": 191,
      "Ņ": 192,
      "ņ": 193,
      "ň": 194,
      "Ŏ": 195,
      "ŏ": 196,
      "ő": 197,
      "Ř": 198,
      "ř": 199,
      "Ś": 200,
      "ś": 201,
      "Ş": 202,
      "ş": 203,
      "Š": 204,
      "š": 205,
      "ţ": 206,
      "ū": 207,
      "ŭ": 208,
      "ů": 209,
      "ų": 210,
      "Ż": 211,
      "ż": 212,
      "Ž": 213,
      "ž": 214,
      "ǂ": 215,
      "ǔ": 216,
      "ǝ": 217,
      "Ț": 218,
      "ț": 219,
      "ə": 220,
      "ɛ": 221,
      "ɝ": 222,
      "ɣ": 223,
      "ɦ": 224,
      "ɪ": 225,
      "ɴ": 226,
      "ɼ": 227,
      "ʀ": 228,
      "ʟ": 229,
      "ʻ": 230,
      "ʼ": 231,
      "ˈ": 232,
      "ː": 233,
      "́": 234,
      "̊": 235,
      "̣": 236,
      "̪": 237,
      "̲": 238,
      "Ω": 239,
      "δ": 240,
      "μ": 241,
      "ύ": 242,
      "Ф": 243,
      "ً": 244,
      "٣": 245,
      "ଥ": 246,
      "ღ": 247,
      "ᴀ": 248,
      "ᴄ": 249,
      "ᴋ": 250,
      "ᴏ": 251,
      "ᴛ": 252,
      "ṇ": 253,
      "ṣ": 254,
      "ế": 255,
      "ệ": 256,
      "‐": 257,
      "–": 258,
      "—": 259,
      "―": 260,
      "‘": 261,
      "’": 262,
      "‚": 263,
      "“": 264,
      "”": 265,
      "‟": 266,
      "†": 267,
      "‡": 268,
      "•": 269,
      "′": 270,
      "›": 271,
      "※": 272,
      "⁄": 273,
      "⁊": 274,
      "₩": 275,
      "₫": 276,
      "€": 277,
      "₱": 278,
      "₴": 279,
      "₸": 280,
      "⃣": 281,
      "←": 282,
      "↑": 283,
      "→": 284,
      "↓": 285,
      "↘": 286,
      "↪": 287,
      "↹": 288,
      "∆": 289,
      "−": 290,
      "∙": 291,
      "√": 292,
      "∧": 293,
      "∨": 294,
      "≤": 295,
      "≥": 296,
      "⊙": 297,
      "⋆": 298,
      "⌧": 299,
      "⌬": 300,
      "⏺": 301,
      "┝": 302,
      "╔": 303,
      "▌": 304,
      "▐": 305,
      "■": 306,
      "□": 307,
      "▪": 308,
      "▲": 309,
      "△": 310,
      "►": 311,
      "▻": 312,
      "▼": 313,
      "▽": 314,
      "▾": 315,
      "◄": 316,
      "◆": 317,
      "◇": 318,
      "○": 319,
      "●": 320,
      "◐": 321,
      "◦": 322,
      "◻": 323,
      "◾": 324,
      "☀": 325,
      "☃": 326,
      "★": 327,
      "☆": 328,
      "☉": 329,
      "☎": 330,
      "☏": 331,
      "☑": 332,
      "☛": 333,
      "☝": 334,
      "☢": 335,
      "☭": 336,
      "☾": 337,
      "♂": 338,
      "♋": 339,
      "♍": 340,
      "♏": 341,
      "♔": 342,
      "♛": 343,
      "♡": 344,
      "♥": 345,
      "♦": 346,
      "♪": 347,
      "♻": 348,
      "⚓": 349,
      "⚖": 350,
      "⚡": 351,
      "⚪": 352,
      "⚽": 353,
      "⛅": 354,
      "⛈": 355,
      "⛳": 356,
      "✅": 357,
      "✌": 358,
      "✔": 359,
      "✝": 360,
      "✞": 361,
      "✨": 362,
      "✮": 363,
      "❀": 364,
      "❄": 365,
      "❌": 366,
      "❗": 367,
      "❝": 368,
      "❞": 369,
      "❤": 370,
      "➍": 371,
      "➎": 372,
      "➡": 373,
      "➥": 374,
      "➫": 375,
      "➶": 376,
      "「": 377,
      "」": 378,
      "〖": 379,
      "〗": 380,
      "佳": 381,
      "貴": 382,
      "사": 383,
      "이": 384,
      "트": 385,
      "🅕": 386,
      "🅥": 387,
      "🆘": 388,
      "🇦": 389,
      "🇧": 390,
      "🇨": 391,
      "🇩": 392,
      "🇪": 393,
      "🇫": 394,
      "🇬": 395,
      "🇱": 396,
      "🇴": 397,
      "🇷": 398,
      "🇸": 399,
      "🇺": 400,
      "🇻": 401,
      "🇾": 402,
      "🇿": 403,
      "🌈": 404,
      "🌎": 405,
      "🌓": 406,
      "🌙": 407,
      "🌟": 408,
      "🌠": 409,
      "🌹": 410,
      "🌻": 411,
      "🌼": 412,
      "🍁": 413,
      "🍑": 414,
      "🍭": 415,
      "🍰": 416,
      "🎄": 417,
      "🎗": 418,
      "🎤": 419,
      "🎧": 420,
      "🎭": 421,
      "🎮": 422,
      "🎵": 423,
      "🎶": 424,
      "🎸": 425,
      "🎹": 426,
      "🏒": 427,
      "🏠": 428,
      "🏳": 429,
      "🏴": 430,
      "🏻": 431,
      "🏼": 432,
      "🐙": 433,
      "🐯": 434,
      "🐼": 435,
      "🐾": 436,
      "👀": 437,
      "👁": 438,
      "👌": 439,
      "👍": 440,
      "👏": 441,
      "👑": 442,
      "👠": 443,
      "👶": 444,
      "👹": 445,
      "👺": 446,
      "👼": 447,
      "💅": 448,
      "💎": 449,
      "💓": 450,
      "💚": 451,
      "💥": 452,
      "💧": 453,
      "💭": 454,
      "📅": 455,
      "📣": 456,
      "📻": 457,
      "🔂": 458,
      "🔎": 459,
      "🔙": 460,
      "🔥": 461,
      "🔴": 462,
      "🕊": 463,
      "🖤": 464,
      "😏": 465,
      "😔": 466,
      "😲": 467,
      "🙂": 468,
      "🙋": 469,
      "🙌": 470,
      "🚴": 471,
      "🛰": 472,
      "🤨": 473,
      "🥀": 474,
      "🦁": 475,
      "🦃": 476,
      "🦄": 477,
      "🦅": 478,
      "🦇": 479,
      "🦋": 480,
      "🧩": 481,
      "##n": 482,
      "##t": 483,
      "##e": 484,
      "##r": 485,
      "##d": 486,
      "##i": 487,
      "##s": 488,
      "##c": 489,
      "##D": 490,
      "##u": 491,
      "##k": 492,
      "##U": 493,
      "##a": 494,
      "##h": 495,
      "##o": 496,
      "##m": 497,
      "##f": 498,
      "##á": 499,
      "##í": 500,
      "##S": 501,
      "##C": 502,
      "##_": 503,
      "##T": 504,
      "##B": 505,
      "##O": 506,
      "##H": 507,
      "##é": 508,
      "##l": 509,
      "##J": 510,
      "##P": 511,
      "##L": 512,
      "##F": 513,
      "##ó": 514,
      "##p": 515,
      "##N": 516,
      "##v": 517,
      "##b": 518,
      "##V": 519,
      "##g": 520,
      "##y": 521,
      "##M": 522,
      "##R": 523,
      "##w": 524,
      "##A": 525,
      "##E": 526,
      "##1": 527,
      "##0": 528,
      "##ú": 529,
      "##x": 530,
      "##6": 531,
      "##4": 532,
      "##7": 533,
      "##3": 534,
      "##I": 535,
      "##Í": 536,
      "##9": 537,
      "##j": 538,
      "##Y": 539,
      "##G": 540,
      "##z": 541,
      "##q": 542,
      "##”": 543,
      "##,": 544,
      "##8": 545,
      "##5": 546,
      "##2": 547,
      "##K": 548,
      "##Ä": 549,
      "##à": 550,
      "##)": 551,
      "##Q": 552,
      "##ě": 553,
      "##ž": 554,
      "##ä": 555,
      "##å": 556,
      "##X": 557,
      "##è": 558,
      "##;": 559,
      "##\"": 560,
      "##Z": 561,
      "##Á": 562,
      "##W": 563,
      "##ɝ": 564,
      "##ː": 565,
      "##Ú": 566,
      "##ö": 567,
      "##.": 568,
      "##/": 569,
      "##:": 570,
      "##Ó": 571,
      "##Č": 572,
      "##É": 573,
      "###": 574,
      "##!": 575,
      "##(": 576,
      "##-": 577,
      "##ŭ": 578,
      "##]": 579,
      "##â": 580,
      "##Ç": 581,
      "##ñ": 582,
      "##ø": 583,
      "##ý": 584,
      "##[": 585,
      "##♍": 586,
      "##ë": 587,
      "##§": 588,
      "##Ć": 589,
      "##Ă": 590,
      "##ł": 591,
      "##š": 592,
      "##$": 593,
      "##ଥ": 594,
      "##ï": 595,
      "##ň": 596,
      "##🇴": 597,
      "##–": 598,
      "##?": 599,
      "##ü": 600,
      "##ɦ": 601,
      "##ɛ": 602,
      "##ū": 603,
      "##*": 604,
      "##Ö": 605,
      "##ī": 606,
      "##Ï": 607,
      "##Î": 608,
      "##Å": 609,
      "##|": 610,
      "##%": 611,
      "##ő": 612,
      "##ē": 613,
      "##ř": 614,
      "##Š": 615,
      "##'": 616,
      "##ā": 617,
      "##🇸": 618,
      "##ò": 619,
      "##Ã": 620,
      "##ů": 621,
      "##🇷": 622,
      "##ã": 623,
      "##+": 624,
      "##\\": 625,
      "##ç": 626,
      "##ô": 627,
      "##č": 628,
      "##ı": 629,
      "##ế": 630,
      "##“": 631,
      "##̲": 632,
      "##—": 633,
      "##ɼ": 634,
      "##ə": 635,
      "##`": 636,
      "##🇦": 637,
      "##’": 638,
      "##ð": 639,
      "##ĺ": 640,
      "##≥": 641,
      "##ț": 642,
      "##»": 643,
      "##Æ": 644,
      "##Ü": 645,
      "##⃣": 646,
      "##ć": 647,
      "##@": 648,
      "##&": 649,
      "##£": 650,
      "##Ā": 651,
      "##Ω": 652,
      "##›": 653,
      "##ś": 654,
      "##ß": 655,
      "##ê": 656,
      "##€": 657,
      "##¥": 658,
      "##🇧": 659,
      "##🏻": 660,
      "##~": 661,
      "##貴": 662,
      "##õ": 663,
      "##ǂ": 664,
      "##^": 665,
      "##Ń": 666,
      "##Ø": 667,
      "##ų": 668,
      "##Ê": 669,
      "##æ": 670,
      "##Ņ": 671,
      "##♋": 672,
      "##Ł": 673,
      "##ş": 674,
      "##🇺": 675,
      "##🏼": 676,
      "##ļ": 677,
      "##Ė": 678,
      "##ǝ": 679,
      "##🌈": 680,
      "##‘": 681,
      "##ń": 682,
      "##î": 683,
      "##◻": 684,
      "##È": 685,
      "##ż": 686,
      "##ệ": 687,
      "##ğ": 688,
      "##❤": 689,
      "##ᴀ": 690,
      "##ʀ": 691,
      "##ʟ": 692,
      "##ᴏ": 693,
      "##ɴ": 694,
      "##ţ": 695,
      "##Ñ": 696,
      "##ŏ": 697,
      "##Ş": 698,
      "##▐": 699,
      "##ņ": 700,
      "##°": 701,
      "##đ": 702,
      "##❄": 703,
      "##ᴛ": 704,
      "##ɪ": 705,
      "##ᴄ": 706,
      "##ᴋ": 707,
      "##ì": 708,
      "##☑": 709,
      "##♂": 710,
      "##Ф": 711,
      "##Ą": 712,
      "##Ż": 713,
      "##🇻": 714,
      "##′": 715,
      "##ħ": 716,
      "##δ": 717,
      "##ă": 718,
      "##̣": 719,
      "##★": 720,
      "##·": 721,
      "##🇾": 722,
      "##ʼ": 723,
      "##ǔ": 724,
      "##ù": 725,
      "##⌧": 726,
      "##Ę": 727,
      "##×": 728,
      "##🙌": 729,
      "##←": 730,
      "##→": 731,
      "##Ř": 732,
      "##―": 733,
      "##®": 734,
      "##ę": 735,
      "##😔": 736,
      "##ύ": 737,
      "##ṣ": 738,
      "##ṇ": 739,
      "##ė": 740,
      "##ღ": 741,
      "##̪": 742,
      "##ɣ": 743,
      "##±": 744,
      "##사": 745,
      "##이": 746,
      "##트": 747,
      "##ea": 748,
      "##ai": 749,
      "##ch": 750,
      "##th": 751,
      "##in": 752,
      "##ir": 753,
      "an": 754,
      "##ta": 755,
      "##il": 756,
      "##mh": 757,
      "##na": 758,
      "ag": 759,
      "##is": 760,
      "ar": 761,
      "##ar": 762,
      "##dh": 763,
      "ch": 764,
      "##ío": 765,
      "##us": 766,
      "agus": 767,
      "le": 768,
      "##ach": 769,
      "##on": 770,
      "##an": 771,
      "na": 772,
      "bh": 773,
      "##air": 774,
      "##eo": 775,
      "##ra": 776,
      "##id": 777,
      "##ith": 778,
      "##bh": 779,
      "##each": 780,
      "##gh": 781,
      "##iú": 782,
      "##ean": 783,
      "##al": 784,
      "##or": 785,
      "##eá": 786,
      "##la": 787,
      "de": 788,
      "##ain": 789,
      "##ear": 790,
      "##te": 791,
      "##aith": 792,
      "chu": 793,
      "##inn": 794,
      "##omh": 795,
      "##sc": 796,
      "##éa": 797,
      "##ao": 798,
      "##áil": 799,
      "go": 800,
      "seo": 801,
      "##íoch": 802,
      "##ais": 803,
      "bhf": 804,
      "##uil": 805,
      "##ei": 806,
      "fh": 807,
      "do": 808,
      "th": 809,
      "in": 810,
      "tú": 811,
      "lea": 812,
      "nó": 813,
      "##it": 814,
      "dh": 815,
      "##rea": 816,
      "co": 817,
      "Ch": 818,
      "##aigh": 819,
      "##im": 820,
      "mh": 821,
      "##ur": 822,
      "gc": 823,
      "##ithe": 824,
      "##as": 825,
      "##tá": 826,
      "##ee": 827,
      "##ig": 828,
      "is": 829,
      "##aidh": 830,
      "##lá": 831,
      "bhfuil": 832,
      "##tas": 833,
      "##ad": 834,
      "leis": 835,
      "##eadh": 836,
      "##wee": 837,
      "##imh": 838,
      "sa": 839,
      "##tha": 840,
      "An": 841,
      "##eidh": 842,
      "##os": 843,
      "##uir": 844,
      "##ail": 845,
      "##ial": 846,
      "##un": 847,
      "##ic": 848,
      "##eann": 849,
      "##óir": 850,
      "##íon": 851,
      "chun": 852,
      "sin": 853,
      "sh": 854,
      "##om": 855,
      "##áin": 856,
      "fé": 857,
      "##ine": 858,
      "##aithe": 859,
      "##eith": 860,
      "##ín": 861,
      "##isc": 862,
      "##nach": 863,
      "##eal": 864,
      "tr": 865,
      "##er": 866,
      "sc": 867,
      "##ist": 868,
      "##ás": 869,
      "##nú": 870,
      "##eacht": 871,
      "##éad": 872,
      "##eáin": 873,
      "##éir": 874,
      "leat": 875,
      "##tan": 876,
      "##ion": 877,
      "##lach": 878,
      "##áid": 879,
      "20": 880,
      "##ile": 881,
      "fao": 882,
      "##íochta": 883,
      "##eamh": 884,
      "##re": 885,
      "sé": 886,
      "##abh": 887,
      "##le": 888,
      "##adh": 889,
      "##airt": 890,
      "gur": 891,
      "Twee": 892,
      "mar": 893,
      "##eachta": 894,
      "##íomh": 895,
      "##oc": 896,
      "##eas": 897,
      "##ib": 898,
      "aon": 899,
      "du": 900,
      "cinn": 901,
      "##ís": 902,
      "##áir": 903,
      "##án": 904,
      "##tanna": 905,
      "comh": 906,
      "##aim": 907,
      "##reath": 908,
      "##ann": 909,
      "atá": 910,
      "##aid": 911,
      "##reathnú": 912,
      "cosc": 913,
      "##íonn": 914,
      "##eán": 915,
      "##éana": 916,
      "den": 917,
      "##li": 918,
      "gh": 919,
      "##rú": 920,
      "##éan": 921,
      "Tweetanna": 922,
      "Is": 923,
      "##ói": 924,
      "##lt": 925,
      "##íocht": 926,
      "##eáil": 927,
      "##íos": 928,
      "##aí": 929,
      "##eoir": 930,
      "##idir": 931,
      "Tá": 932,
      "##eanna": 933,
      "##tear": 934,
      "##ol": 935,
      "##ge": 936,
      "##ór": 937,
      "##cht": 938,
      "mb": 939,
      "mhaith": 940,
      "féidir": 941,
      "tá": 942,
      "faoi": 943,
      "##gra": 944,
      "##eir": 945,
      "cinnte": 946,
      "##ru": 947,
      "breathnú": 948,
      "Chuir": 949,
      "ro": 950,
      "##ead": 951,
      "Meáin": 952,
      "##ona": 953,
      "##éanamh": 954,
      "201": 955,
      "##int": 956,
      "##ac": 957,
      "lá": 958,
      "##arra": 959,
      "am": 960,
      "##iún": 961,
      "##igh": 962,
      "##sáid": 963,
      "##lo": 964,
      "##ae": 965,
      "ina": 966,
      "##if": 967,
      "eile": 968,
      "##tar": 969,
      "##lu": 970,
      "cu": 971,
      "chomh": 972,
      "##leadh": 973,
      "dhéanamh": 974,
      "##orn": 975,
      "##aint": 976,
      "##isce": 977,
      "##ag": 978,
      "##far": 979,
      "##en": 980,
      "chur": 981,
      "trí": 982,
      "##eart": 983,
      "as": 984,
      "##eag": 985,
      "bheith": 986,
      "##am": 987,
      "##eidhm": 988,
      "su": 989,
      "##oir": 990,
      "dt": 991,
      "##imhn": 992,
      "dá": 993,
      "##uilleadh": 994,
      "ná": 995,
      "##ath": 996,
      "ph": 997,
      "##at": 998,
      "##anna": 999,
      "##untas": 1000,
      "nu": 1001,
      "##ainn": 1002,
      "##raí": 1003,
      "alt": 1004,
      "##oil": 1005,
      "##idh": 1006,
      "air": 1007,
      "##ír": 1008,
      "##faidh": 1009,
      "##éar": 1010,
      "##úna": 1011,
      "don": 1012,
      "##agh": 1013,
      "##aidir": 1014,
      "nd": 1015,
      "deimhn": 1016,
      "duine": 1017,
      "saor": 1018,
      "##niú": 1019,
      "úsáid": 1020,
      "##es": 1021,
      "##ro": 1022,
      "##lí": 1023,
      "lean": 1024,
      "##rá": 1025,
      "##taí": 1026,
      "Tuilleadh": 1027,
      "##arr": 1028,
      "##arratas": 1029,
      "##óip": 1030,
      "##ich": 1031,
      "##orp": 1032,
      "Ar": 1033,
      "maidir": 1034,
      "##óirí": 1035,
      "Co": 1036,
      "##abhairt": 1037,
      "deimhnithe": 1038,
      "ach": 1039,
      "amh": 1040,
      "##úil": 1041,
      "Ní": 1042,
      "nasc": 1043,
      "##acha": 1044,
      "19": 1045,
      "##éid": 1046,
      "##ing": 1047,
      "fu": 1048,
      "##éas": 1049,
      "##ích": 1050,
      "st": 1051,
      "níos": 1052,
      "porn": 1053,
      "##ian": 1054,
      "gn": 1055,
      "##isiún": 1056,
      "gach": 1057,
      "br": 1058,
      "aisce": 1059,
      "##aighd": 1060,
      "##se": 1061,
      "##aoine": 1062,
      "##iúil": 1063,
      "##tais": 1064,
      "##acht": 1065,
      "##óipeáil": 1066,
      "##aeil": 1067,
      "ón": 1068,
      "##ras": 1069,
      "##aeilge": 1070,
      "##lacha": 1071,
      "##ála": 1072,
      "##weet": 1073,
      "nach": 1074,
      "san": 1075,
      "##ois": 1076,
      "##nas": 1077,
      "Cóipeáil": 1078,
      "##teach": 1079,
      "##tach": 1080,
      "##íne": 1081,
      "##Cuntas": 1082,
      "iom": 1083,
      "##éim": 1084,
      "##dú": 1085,
      "##olá": 1086,
      "Ag": 1087,
      "Bh": 1088,
      "si": 1089,
      "fáil": 1090,
      "##eirbh": 1091,
      "or": 1092,
      "chuid": 1093,
      "bhain": 1094,
      "mó": 1095,
      "uair": 1096,
      "##ire": 1097,
      "##chial": 1098,
      "##irt": 1099,
      "##eitheamh": 1100,
      "ní": 1101,
      "lena": 1102,
      "##omhair": 1103,
      "áir": 1104,
      "frea": 1105,
      "sp": 1106,
      "maith": 1107,
      "##ibr": 1108,
      "Th": 1109,
      "##eirbhís": 1110,
      "##dir": 1111,
      "##aghaidh": 1112,
      "ion": 1113,
      "##ug": 1114,
      "ann": 1115,
      "haghaidh": 1116,
      "##las": 1117,
      "##luich": 1118,
      "chlo": 1119,
      "##ineá": 1120,
      "##ter": 1121,
      "##ph": 1122,
      "##eic": 1123,
      "##aíochta": 1124,
      "gC": 1125,
      "im": 1126,
      "##ia": 1127,
      "lu": 1128,
      "chloig": 1129,
      "##uair": 1130,
      "##ún": 1131,
      "##oinn": 1132,
      "##oláth": 1133,
      "##ob": 1134,
      "##tr": 1135,
      "iad": 1136,
      "##iste": 1137,
      "leanúna": 1138,
      "réir": 1139,
      "shin": 1140,
      "##éis": 1141,
      "##eacha": 1142,
      "##eist": 1143,
      "##ná": 1144,
      "##earr": 1145,
      "##ud": 1146,
      "##ítear": 1147,
      "for": 1148,
      "##reis": 1149,
      "##bhar": 1150,
      "##áirt": 1151,
      "##uid": 1152,
      "##lán": 1153,
      "##..": 1154,
      "##all": 1155,
      "ath": 1156,
      "##dar": 1157,
      "##eang": 1158,
      "Aon": 1159,
      "##aon": 1160,
      "tweet": 1161,
      "##sú": 1162,
      "##ll": 1163,
      "##eoirí": 1164,
      "##ineál": 1165,
      "##asc": 1166,
      "##éal": 1167,
      "##lac": 1168,
      "##oisc": 1169,
      "idir": 1170,
      "##radh": 1171,
      "##óis": 1172,
      "leith": 1173,
      "##and": 1174,
      "##eannach": 1175,
      "##fh": 1176,
      "##00": 1177,
      "amháin": 1178,
      "ac": 1179,
      "##aibh": 1180,
      "iarratas": 1181,
      "##sa": 1182,
      "nua": 1183,
      "Cuir": 1184,
      "##fear": 1185,
      "rial": 1186,
      "bheidh": 1187,
      "sain": 1188,
      "##omhairle": 1189,
      "##eis": 1190,
      "##ios": 1191,
      "##lár": 1192,
      "amach": 1193,
      "mór": 1194,
      "gan": 1195,
      "##nn": 1196,
      "##ifig": 1197,
      "##io": 1198,
      "##iom": 1199,
      "áit": 1200,
      "siad": 1201,
      "##gead": 1202,
      "##amh": 1203,
      "um": 1204,
      "faoin": 1205,
      "líne": 1206,
      "##óg": 1207,
      "thabhairt": 1208,
      "##aighdeán": 1209,
      "pr": 1210,
      "##ma": 1211,
      "Sc": 1212,
      "##aimniú": 1213,
      "Acht": 1214,
      "fís": 1215,
      "Ph": 1216,
      "##laigh": 1217,
      "##éach": 1218,
      "Comh": 1219,
      "féin": 1220,
      "déan": 1221,
      "nG": 1222,
      "##laim": 1223,
      "son": 1224,
      "##um": 1225,
      "##rith": 1226,
      "##fidh": 1227,
      "gr": 1228,
      "Dích": 1229,
      "rud": 1230,
      "ans": 1231,
      "##sh": 1232,
      "##inte": 1233,
      "Eorp": 1234,
      "Díchoisc": 1235,
      "##anta": 1236,
      "cr": 1237,
      "##naí": 1238,
      "raibh": 1239,
      "##isiúnta": 1240,
      "cú": 1241,
      "##ait": 1242,
      "##et": 1243,
      "foc": 1244,
      "##íniú": 1245,
      "##the": 1246,
      "##ireann": 1247,
      "##st": 1248,
      "##ip": 1249,
      "ár": 1250,
      "ain": 1251,
      "fháil": 1252,
      "éis": 1253,
      "Má": 1254,
      "cineál": 1255,
      "cheannach": 1256,
      "In": 1257,
      "gcás": 1258,
      "Féach": 1259,
      "rá": 1260,
      "##ord": 1261,
      "##eabh": 1262,
      "##thair": 1263,
      "bli": 1264,
      "feidhm": 1265,
      "##aíocht": 1266,
      "##ige": 1267,
      "##ill": 1268,
      "isteach": 1269,
      "##ed": 1270,
      "tar": 1271,
      "bun": 1272,
      "##innt": 1273,
      "daoine": 1274,
      "##pa": 1275,
      "##el": 1276,
      "fearr": 1277,
      "íoc": 1278,
      "##onn": 1279,
      "##tú": 1280,
      "##rí": 1281,
      "##ogh": 1282,
      "ng": 1283,
      "##ló": 1284,
      "cluich": 1285,
      "##ana": 1286,
      "Gh": 1287,
      "beidh": 1288,
      "##áirg": 1289,
      "##oth": 1290,
      "##ionsc": 1291,
      "bhí": 1292,
      "fó": 1293,
      "##íonna": 1294,
      "rogh": 1295,
      "##lú": 1296,
      "##íodh": 1297,
      "focal": 1298,
      "suíomh": 1299,
      "Mar": 1300,
      "acu": 1301,
      "##eachtaí": 1302,
      "seirbhís": 1303,
      "##lta": 1304,
      "Rial": 1305,
      "##cháin": 1306,
      "freagra": 1307,
      "cru": 1308,
      "##artha": 1309,
      "com": 1310,
      "##ibh": 1311,
      "iarr": 1312,
      "##mhíniú": 1313,
      "nGaeilge": 1314,
      "iona": 1315,
      "ainm": 1316,
      "airgead": 1317,
      "fhor": 1318,
      "##aile": 1319,
      "##ealaigh": 1320,
      "##ialta": 1321,
      "##eola": 1322,
      "roimh": 1323,
      "má": 1324,
      "##éimh": 1325,
      "HD": 1326,
      "tA": 1327,
      "ceal": 1328,
      "##raithe": 1329,
      "##ard": 1330,
      "trá": 1331,
      "##nó": 1332,
      "éag": 1333,
      "mbeidh": 1334,
      "Mh": 1335,
      "cos": 1336,
      "##och": 1337,
      "Cealaigh": 1338,
      "neamh": 1339,
      "fhrith": 1340,
      "##eap": 1341,
      "200": 1342,
      "##aoin": 1343,
      "ard": 1344,
      "##ithr": 1345,
      "##ts": 1346,
      "##inne": 1347,
      "thar": 1348,
      "léir": 1349,
      "mo": 1350,
      "údar": 1351,
      "méid": 1352,
      "##níomh": 1353,
      "bp": 1354,
      "sainmhíniú": 1355,
      "##íl": 1356,
      "##aill": 1357,
      "bríonna": 1358,
      "##íor": 1359,
      "linn": 1360,
      "##ost": 1361,
      "fuaimniú": 1362,
      "##rach": 1363,
      "ceann": 1364,
      "##lacht": 1365,
      "##chiallaigh": 1366,
      "comhchiallaigh": 1367,
      "##chiallach": 1368,
      "fhrithchiallach": 1369,
      "dta": 1370,
      "##néis": 1371,
      "##dáil": 1372,
      "Sh": 1373,
      "##ce": 1374,
      "gcomh": 1375,
      "ts": 1376,
      "##og": 1377,
      "##ata": 1378,
      "cur": 1379,
      "##reisin": 1380,
      "##iúla": 1381,
      "féach": 1382,
      "##arlaim": 1383,
      "##aist": 1384,
      "##olas": 1385,
      "##achta": 1386,
      "anseo": 1387,
      "##oim": 1388,
      "##nadh": 1389,
      "freisin": 1390,
      "gá": 1391,
      "),": 1392,
      "##íobh": 1393,
      "cuid": 1394,
      "##aisnéis": 1395,
      "##táil": 1396,
      "##rom": 1397,
      "##bair": 1398,
      "##ite": 1399,
      "##éadf": 1400,
      "...": 1401,
      "##éadfaidh": 1402,
      "##bairt": 1403,
      "##íol": 1404,
      "Déan": 1405,
      "##úr": 1406,
      "dtí": 1407,
      "##aisc": 1408,
      "anois": 1409,
      "##ins": 1410,
      "##oirm": 1411,
      "##ara": 1412,
      "dul": 1413,
      "oibr": 1414,
      "##ábh": 1415,
      "ceart": 1416,
      "chéad": 1417,
      "Lea": 1418,
      "có": 1419,
      "tabhairt": 1420,
      "##ásta": 1421,
      "leanas": 1422,
      "duit": 1423,
      "##eall": 1424,
      "##éasáin": 1425,
      "tu": 1426,
      "ri": 1427,
      "gníomh": 1428,
      "ábhar": 1429,
      "feitheamh": 1430,
      "##éimhse": 1431,
      "##thaí": 1432,
      "Roinn": 1433,
      "##laíonn": 1434,
      "Iarratas": 1435,
      "láithr": 1436,
      "##éile": 1437,
      "##eana": 1438,
      "hE": 1439,
      "##táit": 1440,
      "sna": 1441,
      "10": 1442,
      "Feitheamh": 1443,
      "sao": 1444,
      "##de": 1445,
      "cuir": 1446,
      "##ánach": 1447,
      "oifig": 1448,
      "##aire": 1449,
      "bhaineann": 1450,
      "no": 1451,
      "agh": 1452,
      "##onar": 1453,
      "##éil": 1454,
      "nuair": 1455,
      "##ideach": 1456,
      "Le": 1457,
      "bhreathnú": 1458,
      "aghaidh": 1459,
      "bhainfear": 1460,
      "##íochtaí": 1461,
      "Sa": 1462,
      "##íoc": 1463,
      "Gaeilge": 1464,
      "mB": 1465,
      "##oib": 1466,
      "St": 1467,
      "éagsú": 1468,
      "sonraí": 1469,
      "ré": 1470,
      "Eorpach": 1471,
      "agat": 1472,
      "##ómh": 1473,
      "##ers": 1474,
      "##earta": 1475,
      "##tát": 1476,
      "obair": 1477,
      "bu": 1478,
      "chuig": 1479,
      "##ga": 1480,
      "iomlán": 1481,
      "##ne": 1482,
      "##roí": 1483,
      "##liain": 1484,
      "roinnt": 1485,
      "##eil": 1486,
      "dáta": 1487,
      "tS": 1488,
      "bhaint": 1489,
      "Beidh": 1490,
      "dír": 1491,
      "Fh": 1492,
      "##aing": 1493,
      "18": 1494,
      "bhfeidhm": 1495,
      "cáil": 1496,
      "soláth": 1497,
      "##atag": 1498,
      "##úint": 1499,
      "Ach": 1500,
      "##uithe": 1501,
      "hÉ": 1502,
      "##airm": 1503,
      "at": 1504,
      "arna": 1505,
      "##wit": 1506,
      "gréasáin": 1507,
      "##ims": 1508,
      "scr": 1509,
      "##istí": 1510,
      "tréimhse": 1511,
      "sí": 1512,
      "##rta": 1513,
      "##lacadh": 1514,
      "##ragh": 1515,
      "dea": 1516,
      "12": 1517,
      "AE": 1518,
      "##óidh": 1519,
      "##ot": 1520,
      "Go": 1521,
      "ba": 1522,
      "##witter": 1523,
      "##íocha": 1524,
      "Sp": 1525,
      "fad": 1526,
      "cheart": 1527,
      "##áirgí": 1528,
      "Coim": 1529,
      "fhéadf": 1530,
      "Twitter": 1531,
      "##irteag": 1532,
      "##éirí": 1533,
      "to": 1534,
      "ais": 1535,
      "##álacha": 1536,
      "cluiche": 1537,
      "##oiblí": 1538,
      "##pla": 1539,
      "##aobh": 1540,
      "hÉireann": 1541,
      "##áis": 1542,
      "Lean": 1543,
      "leor": 1544,
      "dó": 1545,
      "##alls": 1546,
      "éagsúla": 1547,
      "dú": 1548,
      "dhá": 1549,
      "bhun": 1550,
      "##eor": 1551,
      "físeáin": 1552,
      "##chán": 1553,
      "scoth": 1554,
      "##úis": 1555,
      "leag": 1556,
      "##ri": 1557,
      "dhaoine": 1558,
      "tac": 1559,
      "éif": 1560,
      "15": 1561,
      "##eireadh": 1562,
      "##raith": 1563,
      "Bain": 1564,
      "##osc": 1565,
      "##lean": 1566,
      "##ideal": 1567,
      "##ust": 1568,
      "Aontais": 1569,
      "síos": 1570,
      "##órt": 1571,
      "hA": 1572,
      "##irteagal": 1573,
      "teacht": 1574,
      "##álta": 1575,
      "##thú": 1576,
      "hEorp": 1577,
      "##iúnach": 1578,
      "mea": 1579,
      "u1": 1580,
      "##istr": 1581,
      "hEorpa": 1582,
      "ionad": 1583,
      "##aip": 1584,
      "bith": 1585,
      "##aíochtaí": 1586,
      "##pháirt": 1587,
      "íos": 1588,
      "##aic": 1589,
      "##ilt": 1590,
      "##aisp": 1591,
      "chéile": 1592,
      "deir": 1593,
      "lagh": 1594,
      "##op": 1595,
      "##eagmh": 1596,
      "aige": 1597,
      "físeán": 1598,
      "##arlaimint": 1599,
      ").": 1600,
      "caighdeán": 1601,
      "mé": 1602,
      "tionsc": 1603,
      "##ala": 1604,
      "áirithe": 1605,
      "fho": 1606,
      "##éanna": 1607,
      "##imp": 1608,
      "##par": 1609,
      "so": 1610,
      "##inneadh": 1611,
      "##éanann": 1612,
      "cheann": 1613,
      "##onc": 1614,
      "##iv": 1615,
      "ndéan": 1616,
      "##oll": 1617,
      "##achán": 1618,
      "##láinte": 1619,
      "Fu": 1620,
      "##lárú": 1621,
      "dear": 1622,
      "phr": 1623,
      "##tal": 1624,
      "Tr": 1625,
      "##íní": 1626,
      "freag": 1627,
      "##saí": 1628,
      "##ub": 1629,
      "##ura": 1630,
      "##gadh": 1631,
      "##arc": 1632,
      "##lódáil": 1633,
      "meas": 1634,
      "##raghas": 1635,
      "Dh": 1636,
      "fo": 1637,
      "##ró": 1638,
      "##reagra": 1639,
      "##ua": 1640,
      "##onta": 1641,
      "domh": 1642,
      "##éarla": 1643,
      "##thanach": 1644,
      "##taithe": 1645,
      "2018": 1646,
      "gcuid": 1647,
      "##ram": 1648,
      "fásta": 1649,
      "##reith": 1650,
      "láthair": 1651,
      "##oils": 1652,
      "##dála": 1653,
      "mbain": 1654,
      "##ús": 1655,
      "##tálacha": 1656,
      "##ent": 1657,
      "##ladh": 1658,
      "dói": 1659,
      "bhliain": 1660,
      "For": 1661,
      "Aire": 1662,
      "##eisteanna": 1663,
      "chaighdeán": 1664,
      "##iscthe": 1665,
      "##ibé": 1666,
      "Ba": 1667,
      "Ná": 1668,
      "suas": 1669,
      "scann": 1670,
      "beag": 1671,
      "##osta": 1672,
      "leo": 1673,
      "EN": 1674,
      "##aine": 1675,
      "áirítear": 1676,
      "ordú": 1677,
      "lé": 1678,
      "Iúil": 1679,
      "cheana": 1680,
      "Air": 1681,
      "dheis": 1682,
      "bain": 1683,
      "cead": 1684,
      "##ant": 1685,
      "oib": 1686,
      "##thar": 1687,
      "##od": 1688,
      "dhéan": 1689,
      "féachaint": 1690,
      "oir": 1691,
      "##éamh": 1692,
      "##aif": 1693,
      "Airteagal": 1694,
      "##obh": 1695,
      "##20": 1696,
      "cibé": 1697,
      "Coiscthe": 1698,
      "dlí": 1699,
      "##ears": 1700,
      "##acháin": 1701,
      "bliana": 1702,
      "##ábháil": 1703,
      "##iúr": 1704,
      "Tweet": 1705,
      "Fís": 1706,
      "gcó": 1707,
      "más": 1708,
      "##oibr": 1709,
      "##mhainn": 1710,
      "chóir": 1711,
      "Éir": 1712,
      "##uí": 1713,
      "ríomh": 1714,
      "##cha": 1715,
      "##weetálacha": 1716,
      "tAire": 1717,
      "atweetálacha": 1718,
      "Porn": 1719,
      "11": 1720,
      "2017": 1721,
      "##íonadh": 1722,
      "Cu": 1723,
      "##em": 1724,
      "cl": 1725,
      "Ath": 1726,
      "##úirt": 1727,
      "##racha": 1728,
      "##iona": 1729,
      "chru": 1730,
      "##land": 1731,
      "Deireadh": 1732,
      "At": 1733,
      "díreach": 1734,
      "Dé": 1735,
      "Márta": 1736,
      "##aoil": 1737,
      "rann": 1738,
      "fhéadfadh": 1739,
      "Chomhairle": 1740,
      "eolas": 1741,
      "réim": 1742,
      "##únach": 1743,
      "##llmh": 1744,
      "##aistigh": 1745,
      "##thu": 1746,
      "foir": 1747,
      "leas": 1748,
      "##iallaíonn": 1749,
      "##ie": 1750,
      "##reid": 1751,
      "##ealach": 1752,
      "##eol": 1753,
      "údarás": 1754,
      "Chun": 1755,
      "aois": 1756,
      "##ón": 1757,
      "líon": 1758,
      "sórt": 1759,
      "siú": 1760,
      "seirbhísí": 1761,
      "Chomh": 1762,
      "##éag": 1763,
      "coth": 1764,
      "##aol": 1765,
      "inn": 1766,
      "Tug": 1767,
      "gnó": 1768,
      "##laí": 1769,
      "##ct": 1770,
      "leath": 1771,
      "íoslódáil": 1772,
      "Br": 1773,
      "The": 1774,
      "chos": 1775,
      "##aíonn": 1776,
      "##alta": 1777,
      "laistigh": 1778,
      "##ontae": 1779,
      "##úl": 1780,
      "##uaire": 1781,
      "Béarla": 1782,
      "leibh": 1783,
      "uisce": 1784,
      "##iaidh": 1785,
      "30": 1786,
      "De": 1787,
      "tras": 1788,
      "sholáth": 1789,
      "Oir": 1790,
      "Cluich": 1791,
      "##úir": 1792,
      "##eanga": 1793,
      "##ul": 1794,
      "##ort": 1795,
      "seach": 1796,
      "##imid": 1797,
      "scoil": 1798,
      "Ard": 1799,
      "Comhrá": 1800,
      "huaire": 1801,
      "##lann": 1802,
      "chuir": 1803,
      "ndáil": 1804,
      "##aireacht": 1805,
      "##ideachais": 1806,
      "##atagóir": 1807,
      "mí": 1808,
      "##eachtais": 1809,
      "iar": 1810,
      "2019": 1811,
      "##ss": 1812,
      "táirgí": 1813,
      "##lais": 1814,
      "leathanach": 1815,
      "##tóir": 1816,
      "Oifig": 1817,
      "láithreán": 1818,
      "ea": 1819,
      "aistr": 1820,
      "feadh": 1821,
      "iontach": 1822,
      "Leab": 1823,
      "##ailte": 1824,
      "##ang": 1825,
      "faisnéis": 1826,
      "##ice": 1827,
      "##iscint": 1828,
      "mbaineann": 1829,
      "24": 1830,
      "16": 1831,
      "##eagmháil": 1832,
      "##of": 1833,
      "tal": 1834,
      "Na": 1835,
      "14": 1836,
      "luach": 1837,
      "fós": 1838,
      "min": 1839,
      "##iar": 1840,
      "Com": 1841,
      "##sp": 1842,
      "thu": 1843,
      "##tála": 1844,
      "mheas": 1845,
      "##iméad": 1846,
      "##ap": 1847,
      "##iúint": 1848,
      "##ash": 1849,
      "Uimh": 1850,
      "##ast": 1851,
      "##áiste": 1852,
      "13": 1853,
      "##áth": 1854,
      "##obail": 1855,
      "##earsanta": 1856,
      "oibre": 1857,
      "##onraí": 1858,
      "##ág": 1859,
      "clár": 1860,
      "bhíonn": 1861,
      "mbeadh": 1862,
      "##oile": 1863,
      "##ity": 1864,
      "##eath": 1865,
      "Baile": 1866,
      "tráth": 1867,
      "##eideal": 1868,
      "cothrom": 1869,
      "iarraidh": 1870,
      "##eabhsú": 1871,
      "##ré": 1872,
      "##char": 1873,
      "choinn": 1874,
      "##ond": 1875,
      "##tóirí": 1876,
      "páirt": 1877,
      "Ean": 1878,
      "##arasc": 1879,
      "tos": 1880,
      "of": 1881,
      "cluichí": 1882,
      "17": 1883,
      "##cs": 1884,
      "gComhairle": 1885,
      "##weetáil": 1886,
      "##iúcháin": 1887,
      "déanta": 1888,
      "##achtach": 1889,
      "mhí": 1890,
      "##eicn": 1891,
      "##ár": 1892,
      "##aig": 1893,
      "##ation": 1894,
      "##eiceáil": 1895,
      "##ut": 1896,
      "éil": 1897,
      "coinn": 1898,
      "amp": 1899,
      "##altaí": 1900,
      "##eisialta": 1901,
      "gheall": 1902,
      "##ish": 1903,
      "Agus": 1904,
      "##ríbh": 1905,
      "infh": 1906,
      "##rúpa": 1907,
      "fud": 1908,
      "scéim": 1909,
      "##eách": 1910,
      "Leabaigh": 1911,
      "##ck": 1912,
      "##obal": 1913,
      "céanna": 1914,
      "##ab": 1915,
      "##líonadh": 1916,
      "Atweetáil": 1917,
      "##mhacht": 1918,
      "nós": 1919,
      "##ómhair": 1920,
      "Tu": 1921,
      "áireamh": 1922,
      "againn": 1923,
      "féadfaidh": 1924,
      "thug": 1925,
      "dóibh": 1926,
      "seacht": 1927,
      "gnéas": 1928,
      "eis": 1929,
      "##náisiúnta": 1930,
      "rogha": 1931,
      "##agairt": 1932,
      "Leas": 1933,
      "##óisialta": 1934,
      "aith": 1935,
      "##eoidh": 1936,
      "sm": 1937,
      "Soláth": 1938,
      "##ew": 1939,
      "##íche": 1940,
      "fógra": 1941,
      "Pr": 1942,
      "##aoi": 1943,
      "orthu": 1944,
      "cion": 1945,
      "Fómhair": 1946,
      "breis": 1947,
      "##aoir": 1948,
      "bliain": 1949,
      "##eimh": 1950,
      "Comhairle": 1951,
      "leic": 1952,
      "athrú": 1953,
      "##ide": 1954,
      "scríobh": 1955,
      "##ráid": 1956,
      "##iúin": 1957,
      "liom": 1958,
      "##anda": 1959,
      "mhír": 1960,
      "tuair": 1961,
      "ráta": 1962,
      "##raíonn": 1963,
      "mír": 1964,
      "##stit": 1965,
      "##abhair": 1966,
      "Beal": 1967,
      "cé": 1968,
      "##ruithe": 1969,
      "##íre": 1970,
      "##réir": 1971,
      "Cé": 1972,
      "Fuaimniú": 1973,
      "tSín": 1974,
      "tug": 1975,
      "##chuí": 1976,
      "##ael": 1977,
      "cum": 1978,
      "##nd": 1979,
      "deis": 1980,
      "Gnó": 1981,
      "críocha": 1982,
      "##ow": 1983,
      "##táin": 1984,
      "##thóir": 1985,
      "gcónaí": 1986,
      "##achtar": 1987,
      "##ca": 1988,
      "##íollacha": 1989,
      "Lu": 1990,
      "leibhéal": 1991,
      "##ustaim": 1992,
      "Aontaithe": 1993,
      "Balls": 1994,
      "ciallaíonn": 1995,
      "bra": 1996,
      "199": 1997,
      "Féadfaidh": 1998,
      "fhreagra": 1999,
      "feidhme": 2000,
      "##bhair": 2001,
      "bhfo": 2002,
      "baint": 2003,
      "iomchuí": 2004,
      "##ay": 2005,
      "fheabhsú": 2006,
      "25": 2007,
      "náisiúnta": 2008,
      "ghlacadh": 2009,
      "##iosta": 2010,
      "##lamh": 2011,
      "mhéid": 2012,
      "Eorpaigh": 2013,
      "2016": 2014,
      "scannán": 2015,
      "éifeacht": 2016,
      "aer": 2017,
      "##aispeáin": 2018,
      "##laidh": 2019,
      "##eád": 2020,
      "##aighde": 2021,
      "Coimisiún": 2022,
      "##scoil": 2023,
      "comhair": 2024,
      "##isin": 2025,
      "##éadú": 2026,
      "Éirinn": 2027,
      "##eoladh": 2028,
      "##lainn": 2029,
      "amhlaidh": 2030,
      "taobh": 2031,
      "##luais": 2032,
      "Seirbhís": 2033,
      "tríd": 2034,
      "tion": 2035,
      "Su": 2036,
      "ró": 2037,
      "measc": 2038,
      "##ism": 2039,
      "Físeán": 2040,
      "##áirge": 2041,
      "háir": 2042,
      "croí": 2043,
      "leictr": 2044,
      "príomh": 2045,
      "Rialachán": 2046,
      "##arraí": 2047,
      "##idí": 2048,
      "##str": 2049,
      "##art": 2050,
      "##iomlán": 2051,
      "mian": 2052,
      "##nacha": 2053,
      "##abhar": 2054,
      "cail": 2055,
      "aic": 2056,
      "ur": 2057,
      "Iar": 2058,
      "##iu": 2059,
      "muid": 2060,
      "100": 2061,
      "fheidhm": 2062,
      "##iam": 2063,
      "##bhreith": 2064,
      "##iteach": 2065,
      "Nach": 2066,
      "##eagh": 2067,
      "fhorbairt": 2068,
      "tábh": 2069,
      "haon": 2070,
      "cáilíochta": 2071,
      "##lé": 2072,
      "##aimh": 2073,
      "##irí": 2074,
      "##ps": 2075,
      "Cru": 2076,
      "##inear": 2077,
      "##eam": 2078,
      "##arraing": 2079,
      "lú": 2080,
      "##achtaí": 2081,
      "##ós": 2082,
      "##eatha": 2083,
      "##imhe": 2084,
      "Samh": 2085,
      "##ov": 2086,
      "##ok": 2087,
      "##éadfar": 2088,
      "##tanais": 2089,
      "Stáit": 2090,
      "rith": 2091,
      "ailt": 2092,
      "21": 2093,
      "##eofar": 2094,
      "##ailiú": 2095,
      "Nuair": 2096,
      "hú": 2097,
      "Náisiúnta": 2098,
      "##inearálta": 2099,
      "aims": 2100,
      "háirithe": 2101,
      "##olais": 2102,
      "Cuntas": 2103,
      "CE": 2104,
      "fhios": 2105,
      "speisialta": 2106,
      "##ler": 2107,
      "##eim": 2108,
      "Airgead": 2109,
      "Oireachtais": 2110,
      "Stát": 2111,
      "éasc": 2112,
      "gcuir": 2113,
      "##airí": 2114,
      "##eanta": 2115,
      "##arratais": 2116,
      "##áistí": 2117,
      "uaire": 2118,
      "##aontú": 2119,
      "##stitiú": 2120,
      "##CH": 2121,
      "##mheas": 2122,
      "deireadh": 2123,
      "lae": 2124,
      "chomhrá": 2125,
      "##me": 2126,
      "##aite": 2127,
      "##náth": 2128,
      "freagairt": 2129,
      "##namh": 2130,
      "##oimisiún": 2131,
      "chlárú": 2132,
      "##org": 2133,
      "##raigh": 2134,
      "dhéanann": 2135,
      "fíor": 2136,
      "uile": 2137,
      "##AI": 2138,
      "000": 2139,
      "##leach": 2140,
      "##ior": 2141,
      "##láir": 2142,
      "##chur": 2143,
      "##anc": 2144,
      "Bhí": 2145,
      "ansin": 2146,
      "##ics": 2147,
      "uir": 2148,
      "##onradh": 2149,
      "ís": 2150,
      "sholáthar": 2151,
      "ghníomh": 2152,
      "Ceisteanna": 2153,
      "##per": 2154,
      "Pharlaimint": 2155,
      "##oghlaim": 2156,
      "poiblí": 2157,
      "chr": 2158,
      "lán": 2159,
      "réimse": 2160,
      "tair": 2161,
      "##íola": 2162,
      "##isín": 2163,
      "##éanaí": 2164,
      "Dáil": 2165,
      "gcoinn": 2166,
      "##maí": 2167,
      "23": 2168,
      "téar": 2169,
      "##lín": 2170,
      "##bo": 2171,
      "##aitheamh": 2172,
      "##reat": 2173,
      "próis": 2174,
      "Am": 2175,
      "##chtain": 2176,
      "ii": 2177,
      "bhrí": 2178,
      "##eithic": 2179,
      "airgeadra": 2180,
      "riachta": 2181,
      "Feabh": 2182,
      "Ro": 2183,
      "monar": 2184,
      "##ies": 2185,
      "##onad": 2186,
      "##EA": 2187,
      "##man": 2188,
      "éig": 2189,
      "##uine": 2190,
      "modh": 2191,
      "##da": 2192,
      "##eicneola": 2193,
      "##tachta": 2194,
      "##ola": 2195,
      "##reag": 2196,
      "suim": 2197,
      "cuideachta": 2198,
      "beart": 2199,
      "ghnó": 2200,
      "##ka": 2201,
      "##arascáil": 2202,
      "bia": 2203,
      "31": 2204,
      "cosúil": 2205,
      "##usp": 2206,
      "shu": 2207,
      "22": 2208,
      "##eartha": 2209,
      "dif": 2210,
      "Im": 2211,
      "pearsanta": 2212,
      "áitiúil": 2213,
      "##ict": 2214,
      "##dúr": 2215,
      "bhu": 2216,
      "2015": 2217,
      "##íortha": 2218,
      "##abháil": 2219,
      "##eaptha": 2220,
      "##ríbhinn": 2221,
      "##mhainní": 2222,
      "##onas": 2223,
      "cabh": 2224,
      "imeachta": 2225,
      "##faí": 2226,
      "ceang": 2227,
      "##éacs": 2228,
      "cuí": 2229,
      "imirt": 2230,
      "Rinne": 2231,
      "Tithe": 2232,
      "staid": 2233,
      "gl": 2234,
      "##óra": 2235,
      "Comm": 2236,
      "##ampla": 2237,
      "rialacha": 2238,
      "##ianta": 2239,
      "##aitéis": 2240,
      "Seo": 2241,
      "déanaí": 2242,
      "##ou": 2243,
      "Aontas": 2244,
      "##bartha": 2245,
      "##líon": 2246,
      "2014": 2247,
      "##lachtaí": 2248,
      "oil": 2249,
      "roghnú": 2250,
      "##ealbh": 2251,
      "##graítear": 2252,
      "cho": 2253,
      "Gr": 2254,
      "ord": 2255,
      "praghas": 2256,
      "##sca": 2257,
      "##liana": 2258,
      "##arlaiminte": 2259,
      "airgeadais": 2260,
      "##osca": 2261,
      "chead": 2262,
      "cumh": 2263,
      "bunaithe": 2264,
      "Idir": 2265,
      "sábháil": 2266,
      "##éithe": 2267,
      "##ioc": 2268,
      "##oiste": 2269,
      "Gnóthaí": 2270,
      "Bu": 2271,
      "soc": 2272,
      "Átha": 2273,
      "teas": 2274,
      "32": 2275,
      "earraí": 2276,
      "Parlaiminte": 2277,
      "sná": 2278,
      "##aise": 2279,
      "##alaíon": 2280,
      "Cli": 2281,
      "##ick": 2282,
      "mura": 2283,
      "##ate": 2284,
      "##gn": 2285,
      "##imist": 2286,
      "mal": 2287,
      "##nacht": 2288,
      "str": 2289,
      "Catagóir": 2290,
      "##reas": 2291,
      "Níl": 2292,
      "ort": 2293,
      "Do": 2294,
      "##uigh": 2295,
      "##naithe": 2296,
      "fiú": 2297,
      "aonair": 2298,
      "teanga": 2299,
      "##áirteach": 2300,
      "Ballstáit": 2301,
      "##iúir": 2302,
      "uath": 2303,
      "sheoladh": 2304,
      "chum": 2305,
      "Conas": 2306,
      "##eoireachta": 2307,
      "##aige": 2308,
      "##óin": 2309,
      "##eora": 2310,
      "##istiú": 2311,
      "Gael": 2312,
      "coinníollacha": 2313,
      "chinnt": 2314,
      "dhear": 2315,
      "hiomlán": 2316,
      "##sí": 2317,
      "##ong": 2318,
      "##ideachas": 2319,
      "dtagraítear": 2320,
      "gairm": 2321,
      "éad": 2322,
      "##dach": 2323,
      "##arn": 2324,
      "Noll": 2325,
      "##ack": 2326,
      "gcomhréir": 2327,
      "##nithe": 2328,
      "##orthaí": 2329,
      "##est": 2330,
      "##ons": 2331,
      "gcr": 2332,
      "dtug": 2333,
      "Cluichí": 2334,
      "chás": 2335,
      "roimhe": 2336,
      "tagairt": 2337,
      "lucht": 2338,
      "domhain": 2339,
      "##áilte": 2340,
      "saol": 2341,
      "seachas": 2342,
      "##ver": 2343,
      "##aithí": 2344,
      "iomp": 2345,
      "chosaint": 2346,
      "shampla": 2347,
      "##eála": 2348,
      "##ontas": 2349,
      "Fr": 2350,
      "ta": 2351,
      "##ff": 2352,
      "Cliath": 2353,
      "##earraí": 2354,
      "Re": 2355,
      "gcéad": 2356,
      "cruinn": 2357,
      "##ly": 2358,
      "Cr": 2359,
      "2013": 2360,
      "##chta": 2361,
      "nádúr": 2362,
      "thr": 2363,
      "laghdú": 2364,
      "Tugadh": 2365,
      "bhfor": 2366,
      "##iteas": 2367,
      "osc": 2368,
      "##qu": 2369,
      "##ille": 2370,
      "##eicniú": 2371,
      "##lic": 2372,
      "##thas": 2373,
      "##únas": 2374,
      "gceist": 2375,
      "tacaíocht": 2376,
      "Cur": 2377,
      "##tair": 2378,
      "##áidí": 2379,
      "##acna": 2380,
      "sr": 2381,
      "##rao": 2382,
      "Mí": 2383,
      "po": 2384,
      "##fa": 2385,
      "##úla": 2386,
      "cúr": 2387,
      "cad": 2388,
      "thos": 2389,
      "eag": 2390,
      "os": 2391,
      "eagra": 2392,
      "##ino": 2393,
      "teor": 2394,
      "##áip": 2395,
      "##Fómh": 2396,
      "##ve": 2397,
      "##ents": 2398,
      "dtaobh": 2399,
      "úsáidtear": 2400,
      "cruach": 2401,
      "Airgeadais": 2402,
      "Rá": 2403,
      "##ileanna": 2404,
      "##ke": 2405,
      "Cad": 2406,
      "##itheoirí": 2407,
      "##ions": 2408,
      "iúl": 2409,
      "Treoir": 2410,
      "Lá": 2411,
      "dío": 2412,
      "##tu": 2413,
      "inmh": 2414,
      "26": 2415,
      "##inbh": 2416,
      "cli": 2417,
      "ionc": 2418,
      "##aítear": 2419,
      "cás": 2420,
      "bpr": 2421,
      "oiriúnach": 2422,
      "##eanas": 2423,
      "chó": 2424,
      "##ise": 2425,
      "##achtanais": 2426,
      "##ófar": 2427,
      "Saor": 2428,
      "Más": 2429,
      "##osm": 2430,
      "dúinn": 2431,
      "Dá": 2432,
      "dl": 2433,
      "shon": 2434,
      "27": 2435,
      "##líne": 2436,
      "##athair": 2437,
      "##darás": 2438,
      "dath": 2439,
      "##ex": 2440,
      "##oncler": 2441,
      "leanaí": 2442,
      "conas": 2443,
      "##ostaíochta": 2444,
      "##atagóirí": 2445,
      "##isinéirí": 2446,
      "##oireann": 2447,
      "Clár": 2448,
      "Mór": 2449,
      "fhág": 2450,
      "Nua": 2451,
      "car": 2452,
      "aistriú": 2453,
      "eolais": 2454,
      "##iz": 2455,
      "##paí": 2456,
      "##aiteach": 2457,
      "##one": 2458,
      "bog": 2459,
      "forálacha": 2460,
      ".”": 2461,
      "##ore": 2462,
      "##aib": 2463,
      "Éireann": 2464,
      "##ID": 2465,
      "fr": 2466,
      "##iangh": 2467,
      "##ógra": 2468,
      "vó": 2469,
      "##AR": 2470,
      "chuige": 2471,
      "idirnáisiúnta": 2472,
      "inar": 2473,
      "tír": 2474,
      "##ideo": 2475,
      "##ltúr": 2476,
      "siúl": 2477,
      "chroí": 2478,
      "ghnáth": 2479,
      "láithreach": 2480,
      "##ógáil": 2481,
      "táirge": 2482,
      "##fach": 2483,
      "##lis": 2484,
      "di": 2485,
      "teagmháil": 2486,
      "tho": 2487,
      "thaobh": 2488,
      "##eachtach": 2489,
      "fhonn": 2490,
      "doic": 2491,
      "##ustaiméirí": 2492,
      "Bord": 2493,
      "laghad": 2494,
      "inniu": 2495,
      "Cas": 2496,
      "bhealach": 2497,
      "##áinig": 2498,
      "gcoinne": 2499,
      "##arsáid": 2500,
      "##rúdú": 2501,
      "##eartas": 2502,
      "bP": 2503,
      "u2": 2504,
      "ndiaidh": 2505,
      "Ghaeilge": 2506,
      "chinntiú": 2507,
      "28": 2508,
      "##gid": 2509,
      "cheang": 2510,
      "Trá": 2511,
      "Dú": 2512,
      "cinneadh": 2513,
      "##umas": 2514,
      "Gaill": 2515,
      "tuilleadh": 2516,
      "Meán": 2517,
      "foirm": 2518,
      "tús": 2519,
      "leagan": 2520,
      "##ris": 2521,
      "##oimeád": 2522,
      "cuireadh": 2523,
      "réamh": 2524,
      "phróis": 2525,
      "chineál": 2526,
      "ullmh": 2527,
      "Or": 2528,
      "bearta": 2529,
      "mhór": 2530,
      "chruthú": 2531,
      "infheist": 2532,
      "breise": 2533,
      "dara": 2534,
      "29": 2535,
      "sláinte": 2536,
      "##áide": 2537,
      "déanamh": 2538,
      "rinneadh": 2539,
      "Sláinte": 2540,
      "dáil": 2541,
      "##realamh": 2542,
      "Aibr": 2543,
      "Gach": 2544,
      "##gas": 2545,
      "197": 2546,
      "##rac": 2547,
      "cánach": 2548,
      "##ailt": 2549,
      "##agann": 2550,
      "fuinn": 2551,
      "athbhreith": 2552,
      "##eapadh": 2553,
      "córas": 2554,
      "réas": 2555,
      "##ailís": 2556,
      "forbairt": 2557,
      "##mhar": 2558,
      "II": 2559,
      "Ionc": 2560,
      "Áit": 2561,
      "##eánach": 2562,
      "dhuine": 2563,
      "maoin": 2564,
      "tás": 2565,
      "##iúna": 2566,
      "Achta": 2567,
      "dtugtar": 2568,
      "##mra": 2569,
      "##ess": 2570,
      "leathan": 2571,
      "rialú": 2572,
      "oifigeach": 2573,
      "Rogh": 2574,
      "##aird": 2575,
      "éasca": 2576,
      "dí": 2577,
      "iarratais": 2578,
      "##tán": 2579,
      "##íoctha": 2580,
      "leanbh": 2581,
      "cabhrú": 2582,
      "rochtain": 2583,
      "cath": 2584,
      "taighde": 2585,
      "##naigh": 2586,
      "margadh": 2587,
      "Fo": 2588,
      "bhonn": 2589,
      "##rioc": 2590,
      "Bainfidh": 2591,
      "sásta": 2592,
      "##tail": 2593,
      "Nu": 2594,
      "déanfar": 2595,
      "riachtanais": 2596,
      "tionscad": 2597,
      "##osmálta": 2598,
      "Un": 2599,
      "tiom": 2600,
      "imeachtaí": 2601,
      "##eala": 2602,
      "lámh": 2603,
      "céim": 2604,
      "tAcht": 2605,
      "mhar": 2606,
      "éileamh": 2607,
      "##IN": 2608,
      "bunaidh": 2609,
      "ábhair": 2610,
      "##und": 2611,
      "réig": 2612,
      "##stal": 2613,
      "##íona": 2614,
      "##rucht": 2615,
      "limist": 2616,
      "##fr": 2617,
      "dhiaidh": 2618,
      "tábhachtach": 2619,
      "difr": 2620,
      "the": 2621,
      "##ory": 2622,
      "Aib": 2623,
      "##ks": 2624,
      "196": 2625,
      "50": 2626,
      "##its": 2627,
      "##aireachta": 2628,
      "int": 2629,
      "##aimid": 2630,
      "riar": 2631,
      "dT": 2632,
      "léinn": 2633,
      "##ostaithe": 2634,
      "éist": 2635,
      "##aois": 2636,
      "aird": 2637,
      "##straim": 2638,
      "súil": 2639,
      "chuideachta": 2640,
      "##tigh": 2641,
      "##ionsa": 2642,
      "##let": 2643,
      "Eur": 2644,
      "hi": 2645,
      "##rat": 2646,
      "##aor": 2647,
      "##antúil": 2648,
      "ionta": 2649,
      "diú": 2650,
      "##uirear": 2651,
      "##adhb": 2652,
      "curtha": 2653,
      "Cos": 2654,
      "##eachtain": 2655,
      "ama": 2656,
      "neart": 2657,
      "##aighdeáin": 2658,
      "gt": 2659,
      "rinne": 2660,
      "##bla": 2661,
      "creid": 2662,
      "thíos": 2663,
      "##ompar": 2664,
      "##oibríoch": 2665,
      "##naíonn": 2666,
      "dhosmálta": 2667,
      "mbliana": 2668,
      "griangh": 2669,
      "eas": 2670,
      "##iúch": 2671,
      "##aifead": 2672,
      "glacadh": 2673,
      "##aispeáint": 2674,
      "En": 2675,
      "##ual": 2676,
      "Oideachais": 2677,
      "sainch": 2678,
      "Al": 2679,
      "ghabh": 2680,
      "sam": 2681,
      "##aipit": 2682,
      "talamh": 2683,
      "Aibreán": 2684,
      "##eirm": 2685,
      "amhail": 2686,
      "##ianaise": 2687,
      "tríú": 2688,
      "áirith": 2689,
      "domhan": 2690,
      "198": 2691,
      "Scoil": 2692,
      "Sonraí": 2693,
      "catagóirí": 2694,
      "##ál": 2695,
      "##reabh": 2696,
      "minic": 2697,
      "con": 2698,
      "fhaisnéis": 2699,
      "Chúirt": 2700,
      "##óc": 2701,
      "##ive": 2702,
      "nádúrtha": 2703,
      "##naíodh": 2704,
      "##ment": 2705,
      "##itheach": 2706,
      "##easta": 2707,
      "leanúint": 2708,
      "Se": 2709,
      "scéal": 2710,
      "##implí": 2711,
      "lig": 2712,
      "soch": 2713,
      "airde": 2714,
      "##úinteoirí": 2715,
      "soil": 2716,
      "##idhr": 2717,
      "críoch": 2718,
      "##éin": 2719,
      "##óireachta": 2720,
      "tapa": 2721,
      "Cath": 2722,
      "mu": 2723,
      "íseal": 2724,
      "##máin": 2725,
      "##irg": 2726,
      "mac": 2727,
      "##ling": 2728,
      "choinneáil": 2729,
      "##ble": 2730,
      "##únú": 2731,
      "##ress": 2732,
      "##áirgeadh": 2733,
      "##odh": 2734,
      "##éig": 2735,
      "meách": 2736,
      "arís": 2737,
      "##itianta": 2738,
      "##ind": 2739,
      "32nd": 2740,
      "##SA": 2741,
      "amlíne": 2742,
      "ndear": 2743,
      "ndéanfar": 2744,
      "Soláthraithe": 2745,
      "las": 2746,
      "mol": 2747,
      "comhrá": 2748,
      "2012": 2749,
      "Bun": 2750,
      "slán": 2751,
      "##intí": 2752,
      "Faigh": 2753,
      "##orm": 2754,
      "chomhlíonadh": 2755,
      "chuireann": 2756,
      "##olla": 2757,
      "##únamh": 2758,
      "freastal": 2759,
      "##36": 2760,
      "ábhartha": 2761,
      "dte": 2762,
      "##íobháid": 2763,
      "##acnama": 2764,
      "Máirt": 2765,
      "Tar": 2766,
      "scair": 2767,
      "gurb": 2768,
      "lár": 2769,
      "Gníomh": 2770,
      "Lond": 2771,
      "##our": 2772,
      "Gaeltachta": 2773,
      "al": 2774,
      "iasc": 2775,
      "##raf": 2776,
      "##illiún": 2777,
      "##ána": 2778,
      "##lec": 2779,
      "cruth": 2780,
      "fada": 2781,
      "##iciúil": 2782,
      "##óireacht": 2783,
      "istigh": 2784,
      "plean": 2785,
      "cuairt": 2786,
      "scoile": 2787,
      "torthaí": 2788,
      "Úsáid": 2789,
      "comhlacht": 2790,
      "rialacháin": 2791,
      "nithe": 2792,
      "##éard": 2793,
      "timp": 2794,
      "##aomh": 2795,
      "feabh": 2796,
      "uimh": 2797,
      "##rad": 2798,
      "bó": 2799,
      "lit": 2800,
      "##cho": 2801,
      "##inneo": 2802,
      "##óif": 2803,
      "Scéim": 2804,
      "##eaghlaigh": 2805,
      "ionas": 2806,
      "Eanáir": 2807,
      "Ioncaim": 2808,
      "láid": 2809,
      "stíl": 2810,
      "Faoi": 2811,
      "##ton": 2812,
      "treoir": 2813,
      "Domh": 2814,
      "##órais": 2815,
      "##allstát": 2816,
      "##thabh": 2817,
      "thoradh": 2818,
      "##thóirí": 2819,
      "bhreis": 2820,
      "ghlac": 2821,
      "iompar": 2822,
      "##eannta": 2823,
      "##ostaíocht": 2824,
      "##pp": 2825,
      "##aitheoir": 2826,
      "bhfad": 2827,
      "fear": 2828,
      "clips": 2829,
      "##taine": 2830,
      "leasú": 2831,
      "díobh": 2832,
      "him": 2833,
      "sraith": 2834,
      "Tionsc": 2835,
      "##ld": 2836,
      "nóiméad": 2837,
      "toil": 2838,
      "úsáide": 2839,
      "ginearálta": 2840,
      "##éann": 2841,
      "chlár": 2842,
      "Moncler": 2843,
      "2020": 2844,
      "seirbhíse": 2845,
      "##aitheoirí": 2846,
      "##óisial": 2847,
      "##10": 2848,
      "íocaíocht": 2849,
      "iníoctha": 2850,
      "níl": 2851,
      "éigin": 2852,
      "##ríomh": 2853,
      "##airte": 2854,
      "##oraip": 2855,
      "soláthraí": 2856,
      "riachtanach": 2857,
      "##aibid": 2858,
      "teicneola": 2859,
      "Sceideal": 2860,
      "naisc": 2861,
      "chug": 2862,
      "pol": 2863,
      "##itheoir": 2864,
      "##aithfidh": 2865,
      "Chuid": 2866,
      "195": 2867,
      "déanfaidh": 2868,
      "##aispeán": 2869,
      "cá": 2870,
      "dar": 2871,
      "##únta": 2872,
      "##anacht": 2873,
      "cúram": 2874,
      "iarracht": 2875,
      "húsáid": 2876,
      "Eoraip": 2877,
      "sheach": 2878,
      "##act": 2879,
      "##ings": 2880,
      "##iúntas": 2881,
      "gníomhaíochtaí": 2882,
      "sean": 2883,
      "##óirt": 2884,
      "##ome": 2885,
      "airgid": 2886,
      "ardch": 2887,
      "##ional": 2888,
      "comhalta": 2889,
      "sprioc": 2890,
      "##chúis": 2891,
      "##unt": 2892,
      "##othú": 2893,
      "léi": 2894,
      "tuairim": 2895,
      "aici": 2896,
      "##daithe": 2897,
      "##bal": 2898,
      "##eantar": 2899,
      "Gn": 2900,
      "##teacht": 2901,
      "##ys": 2902,
      "freagrach": 2903,
      "tuairisc": 2904,
      "Uachtar": 2905,
      "Chr": 2906,
      "scríbhinn": 2907,
      "Cluiche": 2908,
      "##róidh": 2909,
      "##eachais": 2910,
      "##iche": 2911,
      "##oilsiú": 2912,
      "##ber": 2913,
      "chaitheamh": 2914,
      "Cuid": 2915,
      "há": 2916,
      "##isiúin": 2917,
      "##omp": 2918,
      "frith": 2919,
      "##ik": 2920,
      "##eangacha": 2921,
      "Meitheamh": 2922,
      "liosta": 2923,
      "dearadh": 2924,
      "##AN": 2925,
      "##ordú": 2926,
      "##uairisc": 2927,
      "soláthar": 2928,
      "Cum": 2929,
      "##airde": 2930,
      "Contae": 2931,
      "Oil": 2932,
      "fhé": 2933,
      "pac": 2934,
      "tháinig": 2935,
      "##erv": 2936,
      "lorg": 2937,
      "Leasú": 2938,
      "##iach": 2939,
      "##chlár": 2940,
      "Feidhm": 2941,
      "##omhal": 2942,
      "mbun": 2943,
      "##chtanna": 2944,
      "reatha": 2945,
      "##ens": 2946,
      "faisnéise": 2947,
      "cóir": 2948,
      "##neacha": 2949,
      "chú": 2950,
      "192": 2951,
      "##ell": 2952,
      "thair": 2953,
      "##áiríre": 2954,
      "##ismitheoirí": 2955,
      "##MS": 2956,
      "cláraithe": 2957,
      "##uas": 2958,
      "bharr": 2959,
      "cúis": 2960,
      "##dhíola": 2961,
      "##ans": 2962,
      "Casino": 2963,
      "cusp": 2964,
      "2009": 2965,
      "Comments": 2966,
      "dteideal": 2967,
      "meaisín": 2968,
      "Ac": 2969,
      "##iamh": 2970,
      "Rialtais": 2971,
      "cóip": 2972,
      "dhíol": 2973,
      "Bealtaine": 2974,
      "straitéis": 2975,
      "lo": 2976,
      "stá": 2977,
      "##load": 2978,
      "##álaí": 2979,
      "00": 2980,
      "porno": 2981,
      "scoileanna": 2982,
      "bhféadf": 2983,
      "téarma": 2984,
      "Londain": 2985,
      "cearta": 2986,
      "##ghaidh": 2987,
      "leabhar": 2988,
      "tionchar": 2989,
      "Stiúr": 2990,
      "gcrích": 2991,
      "Monar": 2992,
      "te": 2993,
      "éir": 2994,
      "##les": 2995,
      "breith": 2996,
      "##iocfaidh": 2997,
      "Ceann": 2998,
      "fheiceáil": 2999,
      "Coiste": 3000,
      "Nollaig": 3001,
      "ghairm": 3002,
      "dhéantar": 3003,
      "taithí": 3004,
      "leigh": 3005,
      "##ork": 3006,
      "##ream": 3007,
      "Coimisinéirí": 3008,
      "##arnáil": 3009,
      "##iath": 3010,
      "shuíomh": 3011,
      "New": 3012,
      "##tc": 3013,
      "Léir": 3014,
      "Maidir": 3015,
      "iniúch": 3016,
      "fios": 3017,
      "##alar": 3018,
      "Aghaidh": 3019,
      "chinneadh": 3020,
      "oibriú": 3021,
      "pict": 3022,
      "simplí": 3023,
      "##thach": 3024,
      "##IT": 3025,
      "##chóir": 3026,
      "##lachta": 3027,
      "ngach": 3028,
      "deara": 3029,
      "##mad": 3030,
      "2011": 3031,
      "##tóireacht": 3032,
      "bheadh": 3033,
      "gCoimisiún": 3034,
      "soiléir": 3035,
      "uas": 3036,
      "rudaí": 3037,
      "Cén": 3038,
      "sampla": 3039,
      "##óifíl": 3040,
      "Naisc": 3041,
      "##uan": 3042,
      "##rúchán": 3043,
      "##omparáid": 3044,
      "tíortha": 3045,
      "##ak": 3046,
      "anailís": 3047,
      "##erm": 3048,
      "trádála": 3049,
      "Pro": 3050,
      "siúd": 3051,
      "##orc": 3052,
      "##reamh": 3053,
      "thart": 3054,
      "ias": 3055,
      "pé": 3056,
      "deimhniú": 3057,
      "seoladh": 3058,
      "nár": 3059,
      "úin": 3060,
      "Ind": 3061,
      "##OR": 3062,
      "bhr": 3063,
      "##ghníomh": 3064,
      "rannpháirt": 3065,
      "fhéidir": 3066,
      "and": 3067,
      "thoil": 3068,
      "fanacht": 3069,
      "chumas": 3070,
      "##lectr": 3071,
      "Tal": 3072,
      "daon": 3073,
      "##raíocht": 3074,
      "##aoileadh": 3075,
      "As": 3076,
      "##luiche": 3077,
      "##raoi": 3078,
      "Str": 3079,
      "Cuireann": 3080,
      "reachta": 3081,
      "ins": 3082,
      "Déanfar": 3083,
      "toisc": 3084,
      "##atch": 3085,
      "##shaoil": 3086,
      "togra": 3087,
      "##ted": 3088,
      "údaráis": 3089,
      "tóg": 3090,
      "##scoile": 3091,
      "fhaigh": 3092,
      "raon": 3093,
      "##íth": 3094,
      "##eanach": 3095,
      "hé": 3096,
      "choimeád": 3097,
      "dhéanfaidh": 3098,
      "##luaiseacht": 3099,
      "áirithiú": 3100,
      "gearr": 3101,
      "cháil": 3102,
      "mion": 3103,
      "gcomparáid": 3104,
      "ríomhaire": 3105,
      "re": 3106,
      "thionsc": 3107,
      "clo": 3108,
      "athbhreithniú": 3109,
      "##easc": 3110,
      "##earradh": 3111,
      "##oist": 3112,
      "sula": 3113,
      "##daráis": 3114,
      "Chu": 3115,
      "réiteach": 3116,
      "Meith": 3117,
      "##bhú": 3118,
      "##abharfaidh": 3119,
      "Có": 3120,
      "feithic": 3121,
      "rún": 3122,
      "##iméid": 3123,
      "Athraigh": 3124,
      "ghabhann": 3125,
      "##eon": 3126,
      "malairte": 3127,
      "AN": 3128,
      "sóisialta": 3129,
      "##fe": 3130,
      "##urb": 3131,
      "costais": 3132,
      "ranníoc": 3133,
      "Grúpa": 3134,
      "##ance": 3135,
      "##oird": 3136,
      "##fheidhm": 3137,
      "scannáin": 3138,
      "cas": 3139,
      "##AS": 3140,
      "cear": 3141,
      "monaróirí": 3142,
      "mná": 3143,
      "##eac": 3144,
      "char": 3145,
      "shoc": 3146,
      "shonraí": 3147,
      "cúig": 3148,
      "##insean": 3149,
      "Liosta": 3150,
      "##IS": 3151,
      "bhF": 3152,
      "##eachtas": 3153,
      "##ure": 3154,
      "shain": 3155,
      "##adadh": 3156,
      "##ánaigh": 3157,
      "##eicniúil": 3158,
      "comhpháirt": 3159,
      "laeth": 3160,
      "##mp": 3161,
      "##fo": 3162,
      "##leag": 3163,
      "ndáiríre": 3164,
      "Bhaile": 3165,
      "##...": 3166,
      "tuarascáil": 3167,
      "oideachais": 3168,
      "##een": 3169,
      "fáilte": 3170,
      "##ineálacha": 3171,
      "##earadh": 3172,
      "institiú": 3173,
      "##ime": 3174,
      "luath": 3175,
      "##óga": 3176,
      "leagtha": 3177,
      "##úile": 3178,
      "adh": 3179,
      "rio": 3180,
      "##ina": 3181,
      "chúis": 3182,
      "##maid": 3183,
      "fhoirm": 3184,
      "##oill": 3185,
      "ionann": 3186,
      "leagtar": 3187,
      "dhearna": 3188,
      "):": 3189,
      "##av": 3190,
      "##inniú": 3191,
      "gnáth": 3192,
      "tAontas": 3193,
      "##ainc": 3194,
      "gru": 3195,
      "thagann": 3196,
      "ad": 3197,
      "earnáil": 3198,
      "léas": 3199,
      "##muigh": 3200,
      "tacú": 3201,
      "mhaoin": 3202,
      "##íosa": 3203,
      "##llscoil": 3204,
      "##ábhair": 3205,
      "chion": 3206,
      "##innte": 3207,
      "ullmhú": 3208,
      "limistéar": 3209,
      "Plean": 3210,
      "léamh": 3211,
      "##istíochta": 3212,
      "Tweetáil": 3213,
      "strucht": 3214,
      "##idhm": 3215,
      "Du": 3216,
      "##orpar": 3217,
      "CO": 3218,
      "feist": 3219,
      "##mhaíochta": 3220,
      "##aitheach": 3221,
      "##itis": 3222,
      "fén": 3223,
      "stór": 3224,
      "faoina": 3225,
      "##raíochta": 3226,
      "forbartha": 3227,
      "áitiúla": 3228,
      "deac": 3229,
      "Díl": 3230,
      "ie": 3231,
      "chl": 3232,
      "##rap": 3233,
      "Tac": 3234,
      "seas": 3235,
      "##úrsa": 3236,
      "saothair": 3237,
      "Pornload": 3238,
      "deo": 3239,
      "##eocht": 3240,
      "##arraingt": 3241,
      "óga": 3242,
      "Electr": 3243,
      "etc": 3244,
      "##íoll": 3245,
      "193": 3246,
      "Sta": 3247,
      "##úin": 3248,
      "##tes": 3249,
      "##eiric": 3250,
      "fuar": 3251,
      "##ól": 3252,
      "##ruth": 3253,
      "Seirbhísí": 3254,
      "táil": 3255,
      "##iotail": 3256,
      "Dílean": 3257,
      "inch": 3258,
      "chugainn": 3259,
      "##éigh": 3260,
      "teorainn": 3261,
      "trealamh": 3262,
      "##eobh": 3263,
      "##end": 3264,
      "##arsáide": 3265,
      "##leath": 3266,
      "##láin": 3267,
      "Ans": 3268,
      "ioncam": 3269,
      "Dear": 3270,
      "Leis": 3271,
      "aidhm": 3272,
      "togh": 3273,
      "##ointe": 3274,
      "##dháil": 3275,
      "chail": 3276,
      "##arda": 3277,
      "il": 3278,
      "mhéadú": 3279,
      "##ligh": 3280,
      "##úirte": 3281,
      "Ad": 3282,
      "fol": 3283,
      "bhunú": 3284,
      "thugann": 3285,
      "Cl": 3286,
      "##chtála": 3287,
      "chinn": 3288,
      "ionstraim": 3289,
      "cosaint": 3290,
      "réidh": 3291,
      "tugadh": 3292,
      "ról": 3293,
      "##eb": 3294,
      "##óid": 3295,
      "##iteáil": 3296,
      "##ochta": 3297,
      "##ry": 3298,
      "##eithre": 3299,
      "##éara": 3300,
      "áis": 3301,
      "leanúnach": 3302,
      "194": 3303,
      "Thu": 3304,
      "Feabhra": 3305,
      "EU": 3306,
      "cuntas": 3307,
      "dár": 3308,
      "ho": 3309,
      "##reland": 3310,
      "##amhail": 3311,
      "cosanta": 3312,
      "teideal": 3313,
      "##tanka": 3314,
      "##ashtanka": 3315,
      "##spl": 3316,
      "Mac": 3317,
      "fáth": 3318,
      "##nu": 3319,
      "2010": 3320,
      "##fadh": 3321,
      "##alla": 3322,
      "##omharc": 3323,
      "dháta": 3324,
      "##aoirleach": 3325,
      "chríoch": 3326,
      "Físeáin": 3327,
      "##asturb": 3328,
      "##tacha": 3329,
      "léiriú": 3330,
      "Déanfaidh": 3331,
      "sá": 3332,
      "álainn": 3333,
      "phobal": 3334,
      "díol": 3335,
      "##uill": 3336,
      "ráiteas": 3337,
      "##ramh": 3338,
      "##pháirteach": 3339,
      "dom": 3340,
      "##aidreamh": 3341,
      "ainmh": 3342,
      "##eilbh": 3343,
      "##lish": 3344,
      "##eigh": 3345,
      "clárú": 3346,
      "##icial": 3347,
      "fuair": 3348,
      "imr": 3349,
      "##inneoin": 3350,
      "hu": 3351,
      "rang": 3352,
      "bhaile": 3353,
      "##láint": 3354,
      "agam": 3355,
      "##iota": 3356,
      "##CE": 3357,
      "##IR": 3358,
      "##mhéid": 3359,
      "##earmáin": 3360,
      "dochar": 3361,
      "##eadóirí": 3362,
      "##inbhins": 3363,
      "dam": 3364,
      "spraoi": 3365,
      "fheidhmiú": 3366,
      "San": 3367,
      "méad": 3368,
      "##gen": 3369,
      "ndéantar": 3370,
      "smaoin": 3371,
      "snáithe": 3372,
      "Ealaíon": 3373,
      "##ní": 3374,
      "##uc": 3375,
      "phoiblí": 3376,
      "bail": 3377,
      "hion": 3378,
      "pl": 3379,
      "##mhair": 3380,
      "##eog": 3381,
      "dtaca": 3382,
      "Eacht": 3383,
      "Éire": 3384,
      "##inse": 3385,
      "ngníomh": 3386,
      "##chla": 3387,
      "scileanna": 3388,
      "##up": 3389,
      "##itigh": 3390,
      "##lteanas": 3391,
      "phríomh": 3392,
      "##ec": 3393,
      "##achais": 3394,
      "##aitn": 3395,
      "Rialacháin": 3396,
      "Ina": 3397,
      "ainneoin": 3398,
      "gcomhair": 3399,
      "##obi": 3400,
      "láidir": 3401,
      "seomra": 3402,
      "gcu": 3403,
      "##inm": 3404,
      "##eoil": 3405,
      "marg": 3406,
      "roghanna": 3407,
      ".—": 3408,
      "foils": 3409,
      "méadú": 3410,
      "##rúpaí": 3411,
      "Leabhar": 3412,
      "##acnamaíoch": 3413,
      "on": 3414,
      "Choim": 3415,
      "##ainne": 3416,
      "Thr": 3417,
      "##lóid": 3418,
      "uimhir": 3419,
      "Lún": 3420,
      "##rán": 3421,
      "##ier": 3422,
      "##ous": 3423,
      "##PA": 3424,
      "láimh": 3425,
      "Choimisiún": 3426,
      "##insin": 3427,
      "iompair": 3428,
      "##ank": 3429,
      "thógáil": 3430,
      "Líne": 3431,
      "##tí": 3432,
      "##50": 3433,
      "dteagmháil": 3434,
      "##oic": 3435,
      "##MH": 3436,
      "trom": 3437,
      "##CHT": 3438,
      "##365": 3439,
      "rath": 3440,
      "dtá": 3441,
      "ic": 3442,
      "sonraithe": 3443,
      "##ráin": 3444,
      "##thi": 3445,
      "inniú": 3446,
      "fion": 3447,
      "##ats": 3448,
      "Ireland": 3449,
      "tairbh": 3450,
      "##eata": 3451,
      "Phríomh": 3452,
      "cén": 3453,
      "##mar": 3454,
      "##liantúil": 3455,
      "críche": 3456,
      "Taispeáin": 3457,
      "táirg": 3458,
      "comp": 3459,
      "dóigh": 3460,
      "fhágáil": 3461,
      "dáileoir": 3462,
      "Cú": 3463,
      "##íofa": 3464,
      "##eobhaidh": 3465,
      "40": 3466,
      "eacht": 3467,
      "páistí": 3468,
      "riamh": 3469,
      "teil": 3470,
      "Údarás": 3471,
      "bogearraí": 3472,
      "Jack": 3473,
      "Trí": 3474,
      "meán": 3475,
      "##12": 3476,
      "##aide": 3477,
      "mbíonn": 3478,
      "gnéithe": 3479,
      "uirlis": 3480,
      "beo": 3481,
      "##mm": 3482,
      "éadaí": 3483,
      "scaireanna": 3484,
      "doiciméad": 3485,
      "grá": 3486,
      "mobi": 3487,
      "##tic": 3488,
      "##Ch": 3489,
      "##ight": 3490,
      "Electron": 3491,
      "Parlaimint": 3492,
      "tíre": 3493,
      "Pol": 3494,
      "##nna": 3495,
      "##IL": 3496,
      "phost": 3497,
      "cionn": 3498,
      "##uth": 3499,
      "údaraithe": 3500,
      "deiridh": 3501,
      "fuinnimh": 3502,
      "hO": 3503,
      "##irce": 3504,
      "##thabháil": 3505,
      "porno365": 3506,
      "MFómh": 3507,
      "hI": 3508,
      "dhiú": 3509,
      "stair": 3510,
      "##ionann": 3511,
      "##áipéar": 3512,
      "##aiteachas": 3513,
      "fhógra": 3514,
      "2008": 3515,
      "clú": 3516,
      "Rann": 3517,
      "##léir": 3518,
      "##iúchán": 3519,
      "pháirt": 3520,
      "bunús": 3521,
      "##lúth": 3522,
      "ceall": 3523,
      "bán": 3524,
      "##opa": 3525,
      "##lit": 3526,
      "##eric": 3527,
      "thion": 3528,
      "cheangal": 3529,
      "##uim": 3530,
      "##ren": 3531,
      "##lex": 3532,
      "brath": 3533,
      "meáchan": 3534,
      "Meas": 3535,
      "##aireach": 3536,
      "##eamara": 3537,
      "Masturb": 3538,
      "Poiblí": 3539,
      "chomhalta": 3540,
      "acmhainní": 3541,
      "Electronics": 3542,
      "Wh": 3543,
      "##ES": 3544,
      "sheirbhís": 3545,
      "Déantar": 3546,
      "Tugann": 3547,
      "cumhachta": 3548,
      "teagmh": 3549,
      "##oirt": 3550,
      "##mb": 3551,
      "bhra": 3552,
      "##íochas": 3553,
      "scrúdú": 3554,
      "aisíoc": 3555,
      "leictreo": 3556,
      "úinéir": 3557,
      "Fáilte": 3558,
      "##ood": 3559,
      "##iséad": 3560,
      "comhairle": 3561,
      "##iorc": 3562,
      "beartaithe": 3563,
      "Sain": 3564,
      "bhráid": 3565,
      "##iúntais": 3566,
      "uirthi": 3567,
      "ex": 3568,
      "##iail": 3569,
      "##az": 3570,
      "neamhspl": 3571,
      "páirteach": 3572,
      "##ocal": 3573,
      "##rúd": 3574,
      "##aitneamh": 3575,
      "arb": 3576,
      "taist": 3577,
      "##ileach": 3578,
      "##nar": 3579,
      "chluiche": 3580,
      "fhoghlaim": 3581,
      "##laisteach": 3582,
      "##amp": 3583,
      "##oirgn": 3584,
      "##lash": 3585,
      "##ailiúchán": 3586,
      "##róirí": 3587,
      "##ral": 3588,
      "foirne": 3589,
      "lasmuigh": 3590,
      "Leag": 3591,
      "áfach": 3592,
      "##raif": 3593,
      "hAchtanna": 3594,
      "cumas": 3595,
      "suntas": 3596,
      "##lan": 3597,
      "Rialtas": 3598,
      "##ósta": 3599,
      "glac": 3600,
      "##ball": 3601,
      "##ealaí": 3602,
      "chumhacht": 3603,
      "Con": 3604,
      "fhoireann": 3605,
      "costas": 3606,
      "se": 3607,
      "gcion": 3608,
      "##asamhail": 3609,
      "##áirc": 3610,
      "##romchla": 3611,
      "Áitiúil": 3612,
      "##úrsaí": 3613,
      "Bó": 3614,
      "##lat": 3615,
      "##eannas": 3616,
      "##arraige": 3617,
      "Leanaí": 3618,
      "NA": 3619,
      "brú": 3620,
      "faigh": 3621,
      "##itim": 3622,
      "éifeachtach": 3623,
      "Faisnéis": 3624,
      "Sóisialta": 3625,
      "óg": 3626,
      "##óil": 3627,
      "##thr": 3628,
      "téacs": 3629,
      "##SP": 3630,
      "achomharc": 3631,
      "luaithe": 3632,
      "##idhreachta": 3633,
      "##ien": 3634,
      "##áiltear": 3635,
      "coitianta": 3636,
      "Lúna": 3637,
      "barr": 3638,
      "sta": 3639,
      "##naimh": 3640,
      "Forbartha": 3641,
      "Lúnasa": 3642,
      "taisc": 3643,
      "nósanna": 3644,
      "DFómh": 3645,
      "Seol": 3646,
      "Te": 3647,
      "tóir": 3648,
      "gclár": 3649,
      "Príomh": 3650,
      "feabhas": 3651,
      "faire": 3652,
      "féadfar": 3653,
      "mic": 3654,
      "##bhs": 3655,
      "scrios": 3656,
      "measfar": 3657,
      "réimsí": 3658,
      "Gaillimhe": 3659,
      "cúnamh": 3660,
      "fás": 3661,
      "un": 3662,
      "##thá": 3663,
      "Trádála": 3664,
      "smaoineamh": 3665,
      "Car": 3666,
      "Ed": 3667,
      "##arán": 3668,
      "chéanna": 3669,
      "coim": 3670,
      "tré": 3671,
      "##ipéid": 3672,
      "##llmhór": 3673,
      "toiliú": 3674,
      "Dlí": 3675,
      "##iúradh": 3676,
      "##reagadh": 3677,
      "comhaltaí": 3678,
      "seachtaine": 3679,
      "Ionad": 3680,
      "ceallraí": 3681,
      "Tion": 3682,
      "Táirgí": 3683,
      "fir": 3684,
      "fostaíochta": 3685,
      "##mhara": 3686,
      "eagraíochtaí": 3687,
      "reacht": 3688,
      "teach": 3689,
      "##rúcháin": 3690,
      "##ltúir": 3691,
      "rátaí": 3692,
      "chuirtear": 3693,
      "##eiriceá": 3694,
      "dro": 3695,
      "##low": 3696,
      "gCuid": 3697,
      "blianta": 3698,
      "ceadúnas": 3699,
      "próiseas": 3700,
      "##sCuntas": 3701,
      "Samhain": 3702,
      "ealaíon": 3703,
      "##iss": 3704,
      "bhfoirm": 3705,
      "##éanta": 3706,
      "cód": 3707,
      "saoire": 3708,
      "mBallstát": 3709,
      "500": 3710,
      "##LA": 3711,
      "chreid": 3712,
      "ainmniú": 3713,
      "##rófar": 3714,
      "Céad": 3715,
      "chomhair": 3716,
      "Éireannach": 3717,
      "Stiúrthóir": 3718,
      "Ion": 3719,
      "mona": 3720,
      "bhfaigh": 3721,
      "gcomhairle": 3722,
      "##inbhinsiún": 3723,
      "dtáirg": 3724,
      "Soc": 3725,
      "taitneamh": 3726,
      "Áir": 3727,
      "##chaí": 3728,
      "dtabhar": 3729,
      "##ábhachtach": 3730,
      "Cá": 3731,
      "Réig": 3732,
      "sábháilte": 3733,
      "fadhb": 3734,
      "##seach": 3735,
      "téarmaí": 3736,
      "Jacket": 3737,
      "##ocht": 3738,
      "##eibh": 3739,
      "mhodh": 3740,
      "ghn": 3741,
      "Bhord": 3742,
      "Bíonn": 3743,
      "Oibr": 3744,
      "taifead": 3745,
      "chéim": 3746,
      "##eantair": 3747,
      "##aibidil": 3748,
      "struchtúr": 3749,
      "Déanann": 3750,
      "##ithre": 3751,
      "##ainm": 3752,
      "tháirgeadh": 3753,
      "##urg": 3754,
      "phobail": 3755,
      "imsc": 3756,
      "##uairim": 3757,
      "feidhmeanna": 3758,
      "infheidhm": 3759,
      "##ms": 3760,
      "##áinn": 3761,
      "thaispeáint": 3762,
      "coir": 3763,
      "##imhin": 3764,
      "soláthraithe": 3765,
      "talún": 3766,
      "SMS": 3767,
      "híoc": 3768,
      "oideachas": 3769,
      "##FC": 3770,
      "##ER": 3771,
      "##eit": 3772,
      "foirgn": 3773,
      "gléas": 3774,
      "##liceáil": 3775,
      "ndearnadh": 3776,
      "Féadfar": 3777,
      "bíonn": 3778,
      "##chuir": 3779,
      "gruaige": 3780,
      "Fion": 3781,
      "Freagra": 3782,
      "##teachta": 3783,
      "##bhun": 3784,
      "fuaim": 3785,
      "##aisceart": 3786,
      "Fhor": 3787,
      "##eimhniú": 3788,
      "Ríocht": 3789,
      "ball": 3790,
      "##aitear": 3791,
      "marc": 3792,
      "tosaigh": 3793,
      "Idirnáisiúnta": 3794,
      "mích": 3795,
      "##insí": 3796,
      "##landaí": 3797,
      "##racht": 3798,
      "##abharfar": 3799,
      "iniúchadh": 3800,
      "nD": 3801,
      "crua": 3802,
      "saincheaptha": 3803,
      "##ium": 3804,
      "thuas": 3805,
      "tionscadal": 3806,
      "héif": 3807,
      "traid": 3808,
      "##ora": 3809,
      "##oine": 3810,
      "##oibriú": 3811,
      "##ofa": 3812,
      "Vic": 3813,
      "kashtanka": 3814,
      "##oh": 3815,
      "anuas": 3816,
      "##igeart": 3817,
      "Baineann": 3818,
      "Ainm": 3819,
      "Mura": 3820,
      "Nolla": 3821,
      "faide": 3822,
      "ola": 3823,
      "sín": 3824,
      "##16": 3825,
      "dtr": 3826,
      "cuirfear": 3827,
      "seachtain": 3828,
      "Roimhe": 3829,
      "teastáil": 3830,
      "Nollag": 3831,
      "be": 3832,
      "##óide": 3833,
      "mBan": 3834,
      "##réacht": 3835,
      "aig": 3836,
      "seilbh": 3837,
      "leasa": 3838,
      "oibreoir": 3839,
      "##aoirs": 3840,
      "##línte": 3841,
      "##taigh": 3842,
      "theannta": 3843,
      "##nár": 3844,
      "rialta": 3845,
      "##oy": 3846,
      "ghr": 3847,
      "spreagadh": 3848,
      "áitreabh": 3849,
      "grianghraif": 3850,
      "bealach": 3851,
      "fos": 3852,
      "teag": 3853,
      "óc": 3854,
      "##nann": 3855,
      "##scríbhinn": 3856,
      "cuma": 3857,
      "damáiste": 3858,
      "fág": 3859,
      "bheas": 3860,
      "##lam": 3861,
      "##éagóirí": 3862,
      "##ltúrtha": 3863,
      "Óga": 3864,
      "##nal": 3865,
      "##earc": 3866,
      "##aims": 3867,
      "eit": 3868,
      "##chéim": 3869,
      "cheap": 3870,
      "##óigh": 3871,
      "##lub": 3872,
      "##eimic": 3873,
      "Eng": 3874,
      "Eachtracha": 3875,
      "chuntas": 3876,
      "dubh": 3877,
      "comhdh": 3878,
      "2007": 3879,
      "Uimhir": 3880,
      "polait": 3881,
      "Gnéas": 3882,
      "ind": 3883,
      "gco": 3884,
      "samh": 3885,
      "arm": 3886,
      "##eolas": 3887,
      "##ánta": 3888,
      "Níor": 3889,
      "Ollscoil": 3890,
      "cineálacha": 3891,
      "##athoibríoch": 3892,
      "siar": 3893,
      "cheapadh": 3894,
      "##eoireacht": 3895,
      "rialachán": 3896,
      "gníomhú": 3897,
      "cuirfidh": 3898,
      "##éardaoin": 3899,
      "##ue": 3900,
      "mhaithe": 3901,
      "##iall": 3902,
      "##únais": 3903,
      "feidhmiú": 3904,
      "##ivers": 3905,
      "Straitéis": 3906,
      "Déardaoin": 3907,
      "déil": 3908,
      "gal": 3909,
      "milliún": 3910,
      "##ástáil": 3911,
      "stiúr": 3912,
      "##rd": 3913,
      "##íosp": 3914,
      "dtús": 3915,
      "ngl": 3916,
      "foghlaim": 3917,
      "##laithe": 3918,
      "deiseanna": 3919,
      "oscailte": 3920,
      "##11": 3921,
      "mhéad": 3922,
      "tacaíochta": 3923,
      "ceanglais": 3924,
      "Gaillimh": 3925,
      "Bra": 3926,
      "##sta": 3927,
      "##ah": 3928,
      "##be": 3929,
      "##naítear": 3930,
      "dhlí": 3931,
      "##eallacht": 3932,
      "gComh": 3933,
      "##éalta": 3934,
      "nglac": 3935,
      "oscailt": 3936,
      "Rúis": 3937,
      "##aireachtaí": 3938,
      "##oblacht": 3939,
      "dhéanfar": 3940,
      "oiread": 3941,
      "Aistr": 3942,
      "mhonar": 3943,
      "##igiteach": 3944,
      "ndéanfaidh": 3945,
      "Cead": 3946,
      "##bail": 3947,
      "Dún": 3948,
      "Par": 3949,
      "bronn": 3950,
      "Íos": 3951,
      "##tuithe": 3952,
      "##pe": 3953,
      "scolá": 3954,
      "##lacháin": 3955,
      "deimhin": 3956,
      "sub": 3957,
      "háit": 3958,
      "hin": 3959,
      "##reacha": 3960,
      "##omhas": 3961,
      "spreag": 3962,
      "cúrsaí": 3963,
      "Europ": 3964,
      "Táimid": 3965,
      "sibh": 3966,
      "dírithe": 3967,
      "Vicipéid": 3968,
      "Foils": 3969,
      "Sean": 3970,
      "eur": 3971,
      "##fí": 3972,
      "bhailiú": 3973,
      "shábháil": 3974,
      "##lainne": 3975,
      "fostaithe": 3976,
      "Ár": 3977,
      "araon": 3978,
      "##táistí": 3979,
      "dual": 3980,
      "leictreach": 3981,
      "Seinn": 3982,
      ".,": 3983,
      "Páirt": 3984,
      "díl": 3985,
      "post": 3986,
      "##lay": 3987,
      "##ace": 3988,
      "acmhainn": 3989,
      "##eastaíonn": 3990,
      "Tú": 3991,
      "fais": 3992,
      "##láine": 3993,
      "##row": 3994,
      "neamhspleách": 3995,
      "ceaptha": 3996,
      "##loine": 3997,
      "##oiriúnach": 3998,
      "##....": 3999,
      "ceisteanna": 4000,
      "glas": 4001,
      "##éine": 4002,
      "##lon": 4003,
      "turas": 4004,
      "Ex": 4005,
      "video": 4006,
      "suite": 4007,
      "Cail": 4008,
      "oíche": 4009,
      "##chu": 4010,
      "##eagar": 4011,
      "Alt": 4012,
      "Uair": 4013,
      "céad": 4014,
      "gear": 4015,
      "éard": 4016,
      "##raíodh": 4017,
      "##ghabháil": 4018,
      "gcuideachta": 4019,
      "##ashon": 4020,
      "##CC": 4021,
      "##lóir": 4022,
      "lenár": 4023,
      "comhaontú": 4024,
      "gheobhaidh": 4025,
      "Tuarascáil": 4026,
      "iasacht": 4027,
      "Cánach": 4028,
      "chaoi": 4029,
      "Choiste": 4030,
      "##íneáil": 4031,
      "##ardach": 4032,
      "Dubh": 4033,
      "CU": 4034,
      "##achas": 4035,
      "##fheist": 4036,
      "tseirbhís": 4037,
      "##scoileanna": 4038,
      "aimseartha": 4039,
      "tionscadail": 4040,
      "##iotaíocht": 4041,
      "u8": 4042,
      "##pt": 4043,
      "##ious": 4044,
      "##ordach": 4045,
      "abairt": 4046,
      "cláir": 4047,
      "liúntas": 4048,
      "sealbh": 4049,
      "chosc": 4050,
      "##ock": 4051,
      "comhlachtaí": 4052,
      "Theas": 4053,
      "aithean": 4054,
      "Cliceáil": 4055,
      "en": 4056,
      "mm": 4057,
      "##bhuan": 4058,
      "##saíocht": 4059,
      "príobháid": 4060,
      "##róid": 4061,
      "ríomhph": 4062,
      "doiciméid": 4063,
      "ainmhithe": 4064,
      "##30": 4065,
      "deon": 4066,
      "measúnú": 4067,
      "##aiteachais": 4068,
      "Man": 4069,
      "rach": 4070,
      "Chonradh": 4071,
      "rialaithe": 4072,
      "Inn": 4073,
      "tomhal": 4074,
      "##BC": 4075,
      "##ON": 4076,
      "##luaist": 4077,
      "iontu": 4078,
      "dúsh": 4079,
      "##actory": 4080,
      "parlaimint": 4081,
      "gcur": 4082,
      "ceithre": 4083,
      "líonadh": 4084,
      "##aw": 4085,
      "##oid": 4086,
      "shealbh": 4087,
      "bpraghas": 4088,
      "gníomhartha": 4089,
      "tugtha": 4090,
      "bonn": 4091,
      "tag": 4092,
      "úsáideann": 4093,
      "##staint": 4094,
      "dlíth": 4095,
      "caillteanas": 4096,
      "maoiniú": 4097,
      "feiceáil": 4098,
      "móra": 4099,
      "spás": 4100,
      "gcásanna": 4101,
      "pobail": 4102,
      "##ithíochta": 4103,
      "##alach": 4104,
      "cod": 4105,
      "mheán": 4106,
      "ghearr": 4107,
      "leighis": 4108,
      "##are": 4109,
      "fhreag": 4110,
      "gcomhar": 4111,
      "##stráil": 4112,
      "##eicniúla": 4113,
      "shocrú": 4114,
      "Col": 4115,
      "teaghlaigh": 4116,
      "íocaíochtaí": 4117,
      "Cruach": 4118,
      "bhféadfadh": 4119,
      "Dara": 4120,
      "##rimh": 4121,
      "Char": 4122,
      "shlí": 4123,
      "##airtear": 4124,
      "úsáideoirí": 4125,
      "Thos": 4126,
      "##eaghlach": 4127,
      "tra": 4128,
      "##chan": 4129,
      "fhad": 4130,
      "stiúir": 4131,
      "##ostóir": 4132,
      "tuiscint": 4133,
      "cuireann": 4134,
      "seasamh": 4135,
      "Íoc": 4136,
      "bhreith": 4137,
      "##omhír": 4138,
      "##imhne": 4139,
      "Scileanna": 4140,
      "cúpla": 4141,
      "beaga": 4142,
      "##thacht": 4143,
      "beartais": 4144,
      "reachtaíocht": 4145,
      "##TA": 4146,
      "chaill": 4147,
      "##olaíochta": 4148,
      "réasúnach": 4149,
      "36": 4150,
      "teocht": 4151,
      "##omhairc": 4152,
      "mórdhíola": 4153,
      "60": 4154,
      "Déagóirí": 4155,
      "gabháil": 4156,
      "##19": 4157,
      "##onna": 4158,
      "##éarmaí": 4159,
      "oiliúna": 4160,
      "Nat": 4161,
      "solas": 4162,
      "tío": 4163,
      "##dhchaí": 4164,
      "##amb": 4165,
      "##eolaíochta": 4166,
      "eagraíocht": 4167,
      "bpróis": 4168,
      "mhargadh": 4169,
      "##sanna": 4170,
      "##artlann": 4171,
      "thairiscint": 4172,
      "##lama": 4173,
      "thóg": 4174,
      "fhéadfaí": 4175,
      "tástála": 4176,
      "Factory": 4177,
      "##US": 4178,
      "##hub": 4179,
      "##untais": 4180,
      "oifigiúil": 4181,
      "Cúirte": 4182,
      "cáin": 4183,
      "##únachta": 4184,
      "Pac": 4185,
      "caite": 4186,
      "amuigh": 4187,
      "staidéar": 4188,
      "Gan": 4189,
      "múinteoirí": 4190,
      "slí": 4191,
      "##uk": 4192,
      "##ary": 4193,
      "tharlaíonn": 4194,
      "caipit": 4195,
      "eala": 4196,
      "##oo": 4197,
      "##gaí": 4198,
      "##ont": 4199,
      "##laoch": 4200,
      "prionsa": 4201,
      "##olasaí": 4202,
      "##mheasa": 4203,
      "nochta": 4204,
      "##unet": 4205,
      "2006": 4206,
      "oiliúint": 4207,
      "CB": 4208,
      "##ger": 4209,
      "##eagra": 4210,
      "chúl": 4211,
      "ghearradh": 4212,
      "##tús": 4213,
      "Bille": 4214,
      "hath": 4215,
      "##lanna": 4216,
      "##ten": 4217,
      "tharraingt": 4218,
      "trádáil": 4219,
      "##oladh": 4220,
      "##ml": 4221,
      "##olog": 4222,
      "##shaol": 4223,
      "eisiúint": 4224,
      "ngleic": 4225,
      "ab": 4226,
      "plá": 4227,
      "##reacht": 4228,
      "##co": 4229,
      "##AM": 4230,
      "##24": 4231,
      "##ink": 4232,
      "##dhío": 4233,
      "##íochána": 4234,
      "##ees": 4235,
      "Leanúint": 4236,
      "ardchaighdeán": 4237,
      "flash": 4238,
      "##OS": 4239,
      "ndaoine": 4240,
      "##lack": 4241,
      "##íleata": 4242,
      "fhaigheann": 4243,
      "Ábhar": 4244,
      "##álach": 4245,
      "##chas": 4246,
      "##íorú": 4247,
      "éigean": 4248,
      "Glac": 4249,
      "chatagóir": 4250,
      "##ghabh": 4251,
      "##aille": 4252,
      "Eorpacha": 4253,
      "##oghlama": 4254,
      "léiríonn": 4255,
      "dearmad": 4256,
      "oibleag": 4257,
      "Céadaoin": 4258,
      "óir": 4259,
      "pornhub": 4260,
      "scríofa": 4261,
      "##ríbhn": 4262,
      "éisteacht": 4263,
      "grianghraf": 4264,
      "infheidhme": 4265,
      "héa": 4266,
      "ham": 4267,
      "##ein": 4268,
      "fhu": 4269,
      "##ealú": 4270,
      "##abhlóid": 4271,
      "comhartha": 4272,
      "##tachán": 4273,
      "##imsiú": 4274,
      "uathúil": 4275,
      "phróiseáil": 4276,
      "Choimisiúin": 4277,
      "##son": 4278,
      "gceann": 4279,
      "##lánú": 4280,
      "##raítear": 4281,
      "##aimseartha": 4282,
      "dromchla": 4283,
      "phlean": 4284,
      "##eoracha": 4285,
      "cruinniú": 4286,
      "dtáirgí": 4287,
      "Siar": 4288,
      "##únaithe": 4289,
      "tairiscint": 4290,
      "##td": 4291,
      "##eacháin": 4292,
      "##táiste": 4293,
      "##uirir": 4294,
      "comhar": 4295,
      "Institiú": 4296,
      "##ibhialta": 4297,
      "##raitheann": 4298,
      "beagnach": 4299,
      "fhiosrúchán": 4300,
      "Súile": 4301,
      "cal": 4302,
      "ollmhór": 4303,
      "##trá": 4304,
      "##aíodh": 4305,
      "chorp": 4306,
      "##fhoirm": 4307,
      "ainmnithe": 4308,
      "inneal": 4309,
      "institiúidí": 4310,
      "##das": 4311,
      "##ogra": 4312,
      "cheist": 4313,
      "Chiste": 4314,
      "##icí": 4315,
      "Roinne": 4316,
      "Céim": 4317,
      "hamh": 4318,
      "##feadh": 4319,
      "##thaithe": 4320,
      "##old": 4321,
      "cuidiú": 4322,
      "dearg": 4323,
      "leibhéil": 4324,
      "brab": 4325,
      "riaracháin": 4326,
      "##aomhnú": 4327,
      "Act": 4328,
      "Oideachas": 4329,
      "##TE": 4330,
      "##gais": 4331,
      "cuspóirí": 4332,
      "cairde": 4333,
      "”,": 4334,
      "##lite": 4335,
      "gcóras": 4336,
      "teicneolaíocht": 4337,
      "adhmaid": 4338,
      ".\"": 4339,
      "tí": 4340,
      "dheon": 4341,
      "##istíocht": 4342,
      "Inter": 4343,
      "páirtithe": 4344,
      "pictiúir": 4345,
      "##eg": 4346,
      "##ainéal": 4347,
      "gceart": 4348,
      "cumhacht": 4349,
      "##íchumas": 4350,
      "déag": 4351,
      "“(": 4352,
      "##ió": 4353,
      "##13": 4354,
      "thrá": 4355,
      "mhal": 4356,
      "luas": 4357,
      "##onnaithe": 4358,
      "Hard": 4359,
      "Tag": 4360,
      "mais": 4361,
      "slo": 4362,
      "##eictr": 4363,
      "éisteachta": 4364,
      "Cons": 4365,
      "US": 4366,
      "##gaidh": 4367,
      "##AL": 4368,
      "##scaoileadh": 4369,
      "##iceáil": 4370,
      "bréag": 4371,
      "Oidhreachta": 4372,
      "##core": 4373,
      "##scairt": 4374,
      "##thaíonn": 4375,
      "stoc": 4376,
      "##eapáin": 4377,
      "gáis": 4378,
      "todhchaí": 4379,
      "iii": 4380,
      "ioncaim": 4381,
      "Cathrach": 4382,
      "Ciste": 4383,
      "mothú": 4384,
      "##iel": 4385,
      "##lea": 4386,
      "##ghairm": 4387,
      "##lanadh": 4388,
      "comhoiriúnach": 4389,
      "éifeachtaí": 4390,
      "páirtí": 4391,
      "héasca": 4392,
      "léar": 4393,
      "théann": 4394,
      "##loch": 4395,
      "##íreach": 4396,
      "tráchtála": 4397,
      "##ogle": 4398,
      "thugtar": 4399,
      "Seirbhíse": 4400,
      "daltaí": 4401,
      "Bo": 4402,
      "Il": 4403,
      "Son": 4404,
      "labhairt": 4405,
      "pío": 4406,
      "déantar": 4407,
      "##spid": 4408,
      "chóras": 4409,
      "grúpa": 4410,
      "Éabhlóid": 4411,
      "éirí": 4412,
      "##líona": 4413,
      "##PS": 4414,
      "##úb": 4415,
      "##achan": 4416,
      "Chontae": 4417,
      "trína": 4418,
      "branda": 4419,
      "bhreise": 4420,
      "Sóisial": 4421,
      "díosp": 4422,
      "##agra": 4423,
      "##port": 4424,
      "##nachta": 4425,
      "asal": 4426,
      "##ame": 4427,
      "orainn": 4428,
      "fhorálacha": 4429,
      "húdaráis": 4430,
      "35": 4431,
      "baile": 4432,
      "tarraing": 4433,
      "##láiste": 4434,
      "nGall": 4435,
      "##aifid": 4436,
      "foirfe": 4437,
      "Cláraigh": 4438,
      "sochair": 4439,
      "nA": 4440,
      "##pl": 4441,
      "##únaí": 4442,
      "sperm": 4443,
      "Dhún": 4444,
      "ísle": 4445,
      "##leathan": 4446,
      "Níos": 4447,
      "u4": 4448,
      "##line": 4449,
      "thiom": 4450,
      "malar": 4451,
      "caighdeáin": 4452,
      "íomh": 4453,
      "##osaint": 4454,
      "aistrithe": 4455,
      "modhanna": 4456,
      "uathoibríoch": 4457,
      "lín": 4458,
      "miotail": 4459,
      "ós": 4460,
      "##neach": 4461,
      "##eill": 4462,
      "##uirbh": 4463,
      "mba": 4464,
      "Atweetáilte": 4465,
      "Roghchlár": 4466,
      "ceamara": 4467,
      "fi": 4468,
      "Ós": 4469,
      "##áilithe": 4470,
      "##ube": 4471,
      "smao": 4472,
      "vóta": 4473,
      "Nuacht": 4474,
      "##thaigh": 4475,
      "##chtáil": 4476,
      "aithint": 4477,
      "gairmiúla": 4478,
      "laethanta": 4479,
      "Tits": 4480,
      "bosca": 4481,
      "shá": 4482,
      "fadhbanna": 4483,
      "Daon": 4484,
      "baill": 4485,
      "##ainte": 4486,
      "##oms": 4487,
      "mbu": 4488,
      "##ifís": 4489,
      "sonrach": 4490,
      "2003": 4491,
      "Aer": 4492,
      "eacnamaíoch": 4493,
      "##por": 4494,
      "chóipeáil": 4495,
      "##eanais": 4496,
      "org": 4497,
      "Ballstát": 4498,
      "bás": 4499,
      "Óg": 4500,
      "##téar": 4501,
      "##ran": 4502,
      "##inks": 4503,
      "##mharc": 4504,
      "comhaid": 4505,
      "oifige": 4506,
      "scéalta": 4507,
      "##chóiriú": 4508,
      "hordú": 4509,
      "sóc": 4510,
      "##súil": 4511,
      "##iúnaithe": 4512,
      "##éise": 4513,
      "##eathrú": 4514,
      "sheachaint": 4515,
      "nochtadh": 4516,
      "Tabhair": 4517,
      "plé": 4518,
      "##nam": 4519,
      "leabhair": 4520,
      "##umann": 4521,
      "##eananna": 4522,
      "##arascálacha": 4523,
      "sláint": 4524,
      "##IM": 4525,
      "##eaisín": 4526,
      "Ama": 4527,
      "Ró": 4528,
      "daing": 4529,
      "##xx": 4530,
      "##oláiste": 4531,
      "áiteanna": 4532,
      "##ochair": 4533,
      "traidisiúnta": 4534,
      "##iversity": 4535,
      "##bhuanaithe": 4536,
      "bord": 4537,
      "hearraí": 4538,
      "##DF": 4539,
      "##odáil": 4540,
      "cháin": 4541,
      "##iteamh": 4542,
      "scoir": 4543,
      "Bhoird": 4544,
      "##illeacht": 4545,
      "Fheidhm": 4546,
      "##ollar": 4547,
      "míreanna": 4548,
      "cásanna": 4549,
      "suntasach": 4550,
      "farraige": 4551,
      "pro": 4552,
      "romh": 4553,
      "##ty": 4554,
      "##ba": 4555,
      "##tanas": 4556,
      "##ealth": 4557,
      "##ester": 4558,
      "toradh": 4559,
      "tionscal": 4560,
      "cliceáil": 4561,
      "Americ": 4562,
      "socruithe": 4563,
      "snáith": 4564,
      "iontaobh": 4565,
      "ligean": 4566,
      "sás": 4567,
      "uait": 4568,
      "##NA": 4569,
      "##théacs": 4570,
      "chustaiméirí": 4571,
      "spóirt": 4572,
      "neamhch": 4573,
      "u12": 4574,
      "deartha": 4575,
      "glan": 4576,
      "##ots": 4577,
      "ardú": 4578,
      "gcru": 4579,
      "##ose": 4580,
      "##aillí": 4581,
      "##aidió": 4582,
      "luaitear": 4583,
      "##tóireachta": 4584,
      "tástáil": 4585,
      "shonraítear": 4586,
      "mhalairt": 4587,
      "##líonann": 4588,
      "Iomp": 4589,
      "##raic": 4590,
      "##áint": 4591,
      "##órtas": 4592,
      "mBord": 4593,
      "aimsiú": 4594,
      "ócáid": 4595,
      "Eolas": 4596,
      "par": 4597,
      "té": 4598,
      "taispeán": 4599,
      "thac": 4600,
      "cuirtear": 4601,
      "réitigh": 4602,
      "##raghsanna": 4603,
      "timpeall": 4604,
      "CUID": 4605,
      "##25": 4606,
      "bheag": 4607,
      "forleathan": 4608,
      "##eolaíocht": 4609,
      "##ardaigh": 4610,
      "##otball": 4611,
      "Spáinn": 4612,
      "cailíní": 4613,
      "sábháilteachta": 4614,
      "gairmiúil": 4615,
      "níor": 4616,
      "##dhearc": 4617,
      "##bheart": 4618,
      "##orld": 4619,
      "siop": 4620,
      "##ordaithe": 4621,
      "dúirt": 4622,
      "teasa": 4623,
      "tagairtí": 4624,
      "Foirm": 4625,
      "fis": 4626,
      "gu": 4627,
      "lasc": 4628,
      "##ical": 4629,
      "##ibre": 4630,
      "##eorainn": 4631,
      "liath": 4632,
      "lonnaithe": 4633,
      "taispeáint": 4634,
      "##mid": 4635,
      "##Údarás": 4636,
      "fheithic": 4637,
      "##urs": 4638,
      "##eirt": 4639,
      "íocaíochta": 4640,
      "##celet": 4641,
      "##táiniam": 4642,
      "corp": 4643,
      "plaisteach": 4644,
      "éin": 4645,
      "##pi": 4646,
      "##eos": 4647,
      "athruithe": 4648,
      "iontaofa": 4649,
      "himeachtaí": 4650,
      "onn": 4651,
      "##imes": 4652,
      "##ians": 4653,
      "##túla": 4654,
      "##níomhaireacht": 4655,
      "hAirteagal": 4656,
      "pleanála": 4657,
      "Christ": 4658,
      "Teicneola": 4659,
      "##illeadh": 4660,
      "##nat": 4661,
      "faois": 4662,
      "chomhaontú": 4663,
      "nuála": 4664,
      "Cuirtear": 4665,
      "aitheanta": 4666,
      "##ect": 4667,
      "##ceanna": 4668,
      "##maíochta": 4669,
      "comhsh": 4670,
      "poist": 4671,
      "##__": 4672,
      "##ern": 4673,
      "ndóigh": 4674,
      "iarratasóir": 4675,
      "##lúine": 4676,
      "oibríonn": 4677,
      "Google": 4678,
      "##own": 4679,
      "cailín": 4680,
      "Gréasáin": 4681,
      "slándála": 4682,
      "Min": 4683,
      "##lin": 4684,
      "ghabháil": 4685,
      "cuims": 4686,
      "sreang": 4687,
      "éirigh": 4688,
      "Gu": 4689,
      "clas": 4690,
      "uaireadóirí": 4691,
      "##churtha": 4692,
      "Dúin": 4693,
      "Síochána": 4694,
      "u3": 4695,
      "deich": 4696,
      "##ltú": 4697,
      "##achana": 4698,
      "imeacht": 4699,
      "saothar": 4700,
      "Speisialta": 4701,
      "leathnú": 4702,
      "thréimhse": 4703,
      "phróiseas": 4704,
      "moltaí": 4705,
      "Mo": 4706,
      "caint": 4707,
      "buan": 4708,
      "##orparáid": 4709,
      "Rinneadh": 4710,
      "UN": 4711,
      "fianaise": 4712,
      "seala": 4713,
      "bhean": 4714,
      "##ghn": 4715,
      "##red": 4716,
      "fón": 4717,
      "##úinteoir": 4718,
      "foireann": 4719,
      "dlit": 4720,
      "##istir": 4721,
      "athnu": 4722,
      "tsórt": 4723,
      "oifigigh": 4724,
      "samplaí": 4725,
      "ceol": 4726,
      "##RO": 4727,
      "##che": 4728,
      "##iciúla": 4729,
      "mbealach": 4730,
      "bhainistiú": 4731,
      "cáilithe": 4732,
      "##iúnacha": 4733,
      "##eolaithe": 4734,
      "orduithe": 4735,
      ");": 4736,
      "Bar": 4737,
      "allmh": 4738,
      "deas": 4739,
      "ru": 4740,
      "##inín": 4741,
      "neamhdh": 4742,
      "Déantóirí": 4743,
      "Aibí": 4744,
      "Uachtarán": 4745,
      "Neamh": 4746,
      "rás": 4747,
      "##EN": 4748,
      "##iúnaí": 4749,
      "##innithe": 4750,
      "sheol": 4751,
      "scaip": 4752,
      "phraghas": 4753,
      "##roid": 4754,
      "coimeád": 4755,
      "Daoine": 4756,
      "Eo": 4757,
      "OÉ": 4758,
      "links": 4759,
      "sl": 4760,
      "úr": 4761,
      "##bas": 4762,
      "Iarscríbhinn": 4763,
      "Monarcha": 4764,
      "córais": 4765,
      "##21": 4766,
      "bhó": 4767,
      "##ráma": 4768,
      "##eabhair": 4769,
      "##allstáit": 4770,
      "riachtanas": 4771,
      "dathanna": 4772,
      "friotaíocht": 4773,
      "##óisialaigh": 4774,
      "Cás": 4775,
      "Comhair": 4776,
      "Iris": 4777,
      "cn": 4778,
      "##FA": 4779,
      "##res": 4780,
      "fuck": 4781,
      "foráil": 4782,
      "##samh": 4783,
      "Ir": 4784,
      "##leacht": 4785,
      "##ws": 4786,
      "##AT": 4787,
      "##ington": 4788,
      "leithéid": 4789,
      "choinníoll": 4790,
      "tuairimí": 4791,
      "cuspóir": 4792,
      "compordach": 4793,
      "Hardcore": 4794,
      "Tags": 4795,
      "##úlacht": 4796,
      "chom": 4797,
      "bheart": 4798,
      "fhoilsiú": 4799,
      "inár": 4800,
      "##ltóir": 4801,
      "comhairl": 4802,
      "monarcha": 4803,
      "réasúnta": 4804,
      "Bia": 4805,
      "gar": 4806,
      "##ros": 4807,
      "##árta": 4808,
      "##bóin": 4809,
      "##ilv": 4810,
      "##mhach": 4811,
      "bhua": 4812,
      "scag": 4813,
      "##ltais": 4814,
      "focail": 4815,
      "cónaí": 4816,
      "##AIR": 4817,
      "hiarratas": 4818,
      "Léiríonn": 4819,
      "chúirt": 4820,
      "##aoth": 4821,
      "##igthe": 4822,
      "shaol": 4823,
      "suí": 4824,
      "fhoráil": 4825,
      "##ited": 4826,
      "CN": 4827,
      "caithfidh": 4828,
      "dlúth": 4829,
      "gabh": 4830,
      "hábhair": 4831,
      "u5": 4832,
      "##van": 4833,
      "##alt": 4834,
      "##aidin": 4835,
      "##eiliúradh": 4836,
      "Oifigiúil": 4837,
      "##off": 4838,
      "difriúil": 4839,
      "Fearr": 4840,
      "Fostaíochta": 4841,
      "Praghas": 4842,
      "Pobail": 4843,
      "Preas": 4844,
      "caitheamh": 4845,
      "##mhachta": 4846,
      "ndéanann": 4847,
      "buntáistí": 4848,
      "tuismitheoirí": 4849,
      "##uspóir": 4850,
      "LE": 4851,
      "Sm": 4852,
      "Taighde": 4853,
      "##ód": 4854,
      "##irim": 4855,
      "##isteoir": 4856,
      "Mheán": 4857,
      "##ews": 4858,
      "réigiún": 4859,
      "leictreonach": 4860,
      "scriosadh": 4861,
      "fuaime": 4862,
      "sol": 4863,
      "##iob": 4864,
      "dhíth": 4865,
      "bliantúil": 4866,
      "cáilíocht": 4867,
      "domhanda": 4868,
      "##ceannadh": 4869,
      "Tair": 4870,
      "chearta": 4871,
      "docht": 4872,
      "Cho": 4873,
      "treo": 4874,
      "##ianch": 4875,
      "thosaigh": 4876,
      "III": 4877,
      "sheachadadh": 4878,
      "déileáil": 4879,
      "Ltd": 4880,
      "mions": 4881,
      "sli": 4882,
      "##thóg": 4883,
      "##labh": 4884,
      "tháirgí": 4885,
      "##ianáin": 4886,
      "##aiceann": 4887,
      "gcuirfear": 4888,
      "cathracha": 4889,
      "deacair": 4890,
      "parlaiminteach": 4891,
      "National": 4892,
      "##leabhar": 4893,
      "80": 4894,
      "lear": 4895,
      "tÚdarás": 4896,
      "##eoga": 4897,
      "##iúnú": 4898,
      "tharla": 4899,
      "gcuirtear": 4900,
      "Faisnéise": 4901,
      "Institiúid": 4902,
      "Clárú": 4903,
      "Cabhair": 4904,
      "Dollar": 4905,
      "Eag": 4906,
      "##léas": 4907,
      "triail": 4908,
      "Cuirfidh": 4909,
      "bunaíodh": 4910,
      "##únacht": 4911,
      "socrú": 4912,
      "##oideachais": 4913,
      "Aisce": 4914,
      "plandaí": 4915,
      "u6": 4916,
      "##sy": 4917,
      "##press": 4918,
      "##chuid": 4919,
      "comhaon": 4920,
      "athsh": 4921,
      "hAoine": 4922,
      "bainte": 4923,
      "Thosaitheoirí": 4924,
      "Mol": 4925,
      "res": 4926,
      "##áistiú": 4927,
      "##gy": 4928,
      "##ipt": 4929,
      "##reataine": 4930,
      "##álaithe": 4931,
      "45": 4932,
      "Líon": 4933,
      "blas": 4934,
      "lios": 4935,
      "##scr": 4936,
      "táimid": 4937,
      "gCoim": 4938,
      "athch": 4939,
      "##chool": 4940,
      "táille": 4941,
      "##faimid": 4942,
      "##thosca": 4943,
      "##isíní": 4944,
      "##less": 4945,
      "siopa": 4946,
      "Phen": 4947,
      "##ánacht": 4948,
      "Suíomh": 4949,
      "urrú": 4950,
      "##mheasanna": 4951,
      "bpróifíl": 4952,
      "aice": 4953,
      "foghlama": 4954,
      "mún": 4955,
      "sea": 4956,
      "##fort": 4957,
      "And": 4958,
      "phearsanta": 4959,
      "tosú": 4960,
      "chothabháil": 4961,
      "inmheánach": 4962,
      "34": 4963,
      "fíneáil": 4964,
      "hainm": 4965,
      "##mer": 4966,
      "##máid": 4967,
      "##irc": 4968,
      "cheantar": 4969,
      "##itheacha": 4970,
      "##lad": 4971,
      "theacht": 4972,
      "oibrithe": 4973,
      "Astráil": 4974,
      "Nó": 4975,
      "Sraith": 4976,
      "u9": 4977,
      "##ky": 4978,
      "##liú": 4979,
      "##lfar": 4980,
      "##EM": 4981,
      "##II": 4982,
      "thuilleadh": 4983,
      "Chosaint": 4984,
      "##eachtadh": 4985,
      "reá": 4986,
      "”.": 4987,
      "##tac": 4988,
      "##ale": 4989,
      "mhic": 4990,
      "##edia": 4991,
      "Ghnó": 4992,
      "droch": 4993,
      "Video": 4994,
      "##ness": 4995,
      "##cr": 4996,
      "##15": 4997,
      "##unc": 4998,
      "shóisialta": 4999,
      "dtu": 5000,
      "##roich": 5001,
      "##phobal": 5002,
      "soláthróirí": 5003,
      "37": 5004,
      "Mic": 5005,
      "cor": 5006,
      "earr": 5007,
      "##aisí": 5008,
      "##ochar": 5009,
      "infheistíochta": 5010,
      "Jackets": 5011,
      "..": 5012,
      "Ri": 5013,
      "bíodh": 5014,
      "fór": 5015,
      "inbhuanaithe": 5016,
      "##ung": 5017,
      "dearbhú": 5018,
      "shuiteáil": 5019,
      "táillí": 5020,
      "carr": 5021,
      "dr": 5022,
      "hoibr": 5023,
      "##vis": 5024,
      "##work": 5025,
      "2000": 5026,
      "imní": 5027,
      "údarú": 5028,
      "éagsúlacht": 5029,
      "leathanaigh": 5030,
      "Cabh": 5031,
      "Leictr": 5032,
      "Qu": 5033,
      "Uisce": 5034,
      "geal": 5035,
      "liúntais": 5036,
      "sn": 5037,
      "##eat": 5038,
      "##lia": 5039,
      "luaidh": 5040,
      "##ltacht": 5041,
      "hamháin": 5042,
      "Sábháil": 5043,
      "uachtar": 5044,
      "Éist": 5045,
      "##HO": 5046,
      "##PE": 5047,
      "dheireadh": 5048,
      "Chéad": 5049,
      "crit": 5050,
      "tairbhe": 5051,
      "mhonarcha": 5052,
      "Oibre": 5053,
      "caiteachas": 5054,
      "gloine": 5055,
      "pion": 5056,
      "ndéanamh": 5057,
      "Coláiste": 5058,
      "árachais": 5059,
      "iarrthóir": 5060,
      "stát": 5061,
      "##ya": 5062,
      "fhoils": 5063,
      "##ley": 5064,
      "##iúnais": 5065,
      "##taítear": 5066,
      "Tugtar": 5067,
      "pacáiste": 5068,
      "bo": 5069,
      "tO": 5070,
      "##mhas": 5071,
      "##laítear": 5072,
      "##eed": 5073,
      "##easa": 5074,
      "##athanna": 5075,
      "nuashon": 5076,
      "rátha": 5077,
      "2004": 5078,
      "cuideachtaí": 5079,
      "u14": 5080,
      "Síne": 5081,
      "Serv": 5082,
      "hair": 5083,
      "##ita": 5084,
      "##airtí": 5085,
      "##aem": 5086,
      "##táilte": 5087,
      "English": 5088,
      "Cáil": 5089,
      "cuntais": 5090,
      "##yd": 5091,
      "##adóir": 5092,
      "asbh": 5093,
      "fóill": 5094,
      "lámha": 5095,
      "Talmhaíochta": 5096,
      "Thuaidh": 5097,
      "##eesome": 5098,
      "Iom": 5099,
      "óna": 5100,
      "óige": 5101,
      "##CT": 5102,
      "conar": 5103,
      "##adal": 5104,
      "##ters": 5105,
      "crios": 5106,
      "Forbairt": 5107,
      "teoranta": 5108,
      "cárta": 5109,
      "Barr": 5110,
      "Creid": 5111,
      "Teanga": 5112,
      "contae": 5113,
      "dru": 5114,
      "fá": 5115,
      "##18": 5116,
      "bhail": 5117,
      "##lag": 5118,
      "fhadhb": 5119,
      "##igire": 5120,
      "Anois": 5121,
      "##lucht": 5122,
      "tionscail": 5123,
      "infheistíocht": 5124,
      "tíotáiniam": 5125,
      "reáchtáil": 5126,
      "Dia": 5127,
      "Seoladh": 5128,
      "##ev": 5129,
      "##óca": 5130,
      "##RA": 5131,
      "##14": 5132,
      "##than": 5133,
      "thuairisc": 5134,
      "ghnóthú": 5135,
      "cumhachtaí": 5136,
      "Gearmáin": 5137,
      "Teach": 5138,
      "Táirge": 5139,
      "ceap": 5140,
      "pinsean": 5141,
      "choiste": 5142,
      "##iúlacht": 5143,
      "##ence": 5144,
      "Ráiteas": 5145,
      "lárnach": 5146,
      "substaint": 5147,
      "bpróiseas": 5148,
      "onnmhair": 5149,
      "##rainc": 5150,
      "##inc": 5151,
      "##ass": 5152,
      "##ánna": 5153,
      "comhch": 5154,
      "##uds": 5155,
      "2001": 5156,
      "University": 5157,
      "90": 5158,
      "Bí": 5159,
      "dlite": 5160,
      "##aíoch": 5161,
      "##SC": 5162,
      "##TH": 5163,
      "##chais": 5164,
      "##rag": 5165,
      "gceang": 5166,
      "##athaoirleach": 5167,
      "##annaí": 5168,
      "íoctha": 5169,
      "u10": 5170,
      "Críos": 5171,
      "neartú": 5172,
      "riosca": 5173,
      "##dhíonach": 5174,
      "Ais": 5175,
      "Play": 5176,
      "ma": 5177,
      "chláir": 5178,
      "##earn": 5179,
      "sheiceáil": 5180,
      "dócha": 5181,
      "##luaiste": 5182,
      "sábháilteacht": 5183,
      "pointe": 5184,
      "intinn": 5185,
      "Threesome": 5186,
      "smaointe": 5187,
      ".)": 5188,
      "70": 5189,
      "Leigh": 5190,
      "aonad": 5191,
      "muirear": 5192,
      "tor": 5193,
      "##irte": 5194,
      "thagairt": 5195,
      "scáil": 5196,
      "chomhlacht": 5197,
      "uaireanta": 5198,
      "trast": 5199,
      "##book": 5200,
      "##idhreacht": 5201,
      "rachaidh": 5202,
      "38": 5203,
      "gaol": 5204,
      "##raidh": 5205,
      "##saithe": 5206,
      "##by": 5207,
      "chontae": 5208,
      "mhá": 5209,
      "##lian": 5210,
      "úsáideoir": 5211,
      "##éimhsí": 5212,
      "bhforáiltear": 5213,
      "##londe": 5214,
      "33": 5215,
      "abh": 5216,
      "grúpaí": 5217,
      "##OL": 5218,
      "##ireacht": 5219,
      "##earach": 5220,
      "coiste": 5221,
      "ceard": 5222,
      "hoifig": 5223,
      "##igeartú": 5224,
      "dréacht": 5225,
      "pinsin": 5226,
      "##SE": 5227,
      "##chair": 5228,
      "Chlár": 5229,
      "breá": 5230,
      "bpobal": 5231,
      "bpointe": 5232,
      "talmhaíochta": 5233,
      "ghairmiúil": 5234,
      "méadar": 5235,
      "Cal": 5236,
      "mil": 5237,
      "stáit": 5238,
      "Ís": 5239,
      "##CD": 5240,
      "chabh": 5241,
      "##itheoireachta": 5242,
      "Coinn": 5243,
      "##aighdeánach": 5244,
      "mBaile": 5245,
      "difear": 5246,
      "stóráil": 5247,
      "Tras": 5248,
      "gcroí": 5249,
      "comhréir": 5250,
      "Phoiblí": 5251,
      "greann": 5252,
      "Mheiriceá": 5253,
      "Irish": 5254,
      "Iodáil": 5255,
      "déanann": 5256,
      "ithe": 5257,
      "meáin": 5258,
      "##raíochtaí": 5259,
      "##íosaí": 5260,
      "##ating": 5261,
      "achtachán": 5262,
      "líonra": 5263,
      "thuras": 5264,
      "720": 5265,
      "Réamh": 5266,
      "Sín": 5267,
      "beartas": 5268,
      "##way": 5269,
      "##usc": 5270,
      "##eachas": 5271,
      "##lao": 5272,
      "##adail": 5273,
      "cinnt": 5274,
      "beagán": 5275,
      "Black": 5276,
      "Cóir": 5277,
      "Sch": 5278,
      "sráid": 5279,
      "##mach": 5280,
      "##inge": 5281,
      "##antas": 5282,
      "##eip": 5283,
      "##ltóirí": 5284,
      "##ighn": 5285,
      "dteannta": 5286,
      "ndéanfaí": 5287,
      "Forálacha": 5288,
      "aicme": 5289,
      "Mórdhíola": 5290,
      "tromchúis": 5291,
      "##rúduithe": 5292,
      "log": 5293,
      "pobal": 5294,
      "##ush": 5295,
      "cinntí": 5296,
      "gné": 5297,
      "2005": 5298,
      "##ónta": 5299,
      "##mhachtain": 5300,
      "leigheas": 5301,
      "Réigiún": 5302,
      "Dearadh": 5303,
      "Ma": 5304,
      "feirm": 5305,
      "tur": 5306,
      "ús": 5307,
      "—(": 5308,
      "##ors": 5309,
      "tsuim": 5310,
      "....": 5311,
      "cóimh": 5312,
      "##aiceach": 5313,
      "éascú": 5314,
      "cheadú": 5315,
      "##eibhéal": 5316,
      "Cailíní": 5317,
      "PhenQ": 5318,
      "chothú": 5319,
      "##adóirí": 5320,
      "aire": 5321,
      "##rotic": 5322,
      "gCúirt": 5323,
      "tionscnamh": 5324,
      "casta": 5325,
      "taisteal": 5326,
      "bealaí": 5327,
      "net": 5328,
      "##gg": 5329,
      "##inní": 5330,
      "##ene": 5331,
      "Stair": 5332,
      "Ansin": 5333,
      "uirlisí": 5334,
      "sibhialta": 5335,
      "allmhair": 5336,
      "Afr": 5337,
      "bac": 5338,
      "oc": 5339,
      "##daíonn": 5340,
      "##17": 5341,
      "dhí": 5342,
      "##omb": 5343,
      "scaoileadh": 5344,
      "ghrúpa": 5345,
      "##othrom": 5346,
      "##oirmeasc": 5347,
      "##réithe": 5348,
      "meáchain": 5349,
      "teilifís": 5350,
      "dtreo": 5351,
      "AG": 5352,
      "linbh": 5353,
      "maoine": 5354,
      "##nt": 5355,
      "##ains": 5356,
      "thiar": 5357,
      "scáth": 5358,
      "sty": 5359,
      "éagsúil": 5360,
      "##ónaithe": 5361,
      "scéimeanna": 5362,
      "smacht": 5363,
      "ciontach": 5364,
      "timpeallacht": 5365,
      "stádas": 5366,
      "laethúil": 5367,
      "fuarthas": 5368,
      "##mbuds": 5369,
      "Tos": 5370,
      "ceist": 5371,
      "dramh": 5372,
      "##ád": 5373,
      "##íocháin": 5374,
      "##iteann": 5375,
      "láimhe": 5376,
      "orm": 5377,
      "gníomhach": 5378,
      "##pháirtíocht": 5379,
      "ceadaithe": 5380,
      "##earsan": 5381,
      "chuirfidh": 5382,
      "dífh": 5383,
      "loings": 5384,
      "pictiúr": 5385,
      "##orparáide": 5386,
      "rathúil": 5387,
      "ealaíne": 5388,
      "Meaisín": 5389,
      "Osc": 5390,
      "cabhair": 5391,
      "conradh": 5392,
      "me": 5393,
      "páipéar": 5394,
      "tirim": 5395,
      "##job": 5396,
      "##zz": 5397,
      "##scáil": 5398,
      "aeráide": 5399,
      "cúrsa": 5400,
      "rannpháirtíocht": 5401,
      "Lé": 5402,
      "caith": 5403,
      "##RE": 5404,
      "##22": 5405,
      "##mha": 5406,
      "##ories": 5407,
      "thal": 5408,
      "##iteáin": 5409,
      "gcaoi": 5410,
      "Cuireadh": 5411,
      "sonracha": 5412,
      "láithreáin": 5413,
      "iarbh": 5414,
      "príomha": 5415,
      "éineacht": 5416,
      "Aith": 5417,
      "Mu": 5418,
      "beatha": 5419,
      "gluaiseacht": 5420,
      "##to": 5421,
      "##ste": 5422,
      "##CB": 5423,
      "##CA": 5424,
      "##yCuntas": 5425,
      "##isean": 5426,
      "##rab": 5427,
      "dhi": 5428,
      "##eathach": 5429,
      "macasamhail": 5430,
      "IP": 5431,
      "RT": 5432,
      "aist": 5433,
      "réal": 5434,
      "red": 5435,
      "tabharfaidh": 5436,
      "bhall": 5437,
      "##iúl": 5438,
      "##ere": 5439,
      "cúirte": 5440,
      "éadrom": 5441,
      "Bónas": 5442,
      "##mbudsman": 5443,
      "maoirs": 5444,
      "taifid": 5445,
      "##eiste": 5446,
      "##óras": 5447,
      "##thais": 5448,
      "##aisl": 5449,
      "roinn": 5450,
      "stop": 5451,
      "Mhuir": 5452,
      "gearán": 5453,
      "aitheantas": 5454,
      "Deir": 5455,
      "PDF": 5456,
      "dtar": 5457,
      "eola": 5458,
      "Údaráis": 5459,
      "##ridh": 5460,
      "##ls": 5461,
      "##luas": 5462,
      "spéis": 5463,
      "##phobail": 5464,
      "idirlín": 5465,
      "airgeadraí": 5466,
      "##ublic": 5467,
      "bainc": 5468,
      "taisce": 5469,
      "39": 5470,
      "Dan": 5471,
      "Hot": 5472,
      "rian": 5473,
      "##ric": 5474,
      "##uch": 5475,
      "##íc": 5476,
      "shaor": 5477,
      "méideanna": 5478,
      "##ower": 5479,
      "##ianchloch": 5480,
      "béim": 5481,
      "gair": 5482,
      "##min": 5483,
      "mhuirear": 5484,
      "tSeirbhís": 5485,
      "meascán": 5486,
      "thosach": 5487,
      "sogh": 5488,
      "##cadh": 5489,
      "fhóg": 5490,
      "##igean": 5491,
      "gheimh": 5492,
      "bainistíochta": 5493,
      "scéime": 5494,
      "céimeanna": 5495,
      "chúram": 5496,
      "\".": 5497,
      "Tarraing": 5498,
      "##ki": 5499,
      "choir": 5500,
      "dhó": 5501,
      "Bhu": 5502,
      "##eisial": 5503,
      "##iotal": 5504,
      "Gharda": 5505,
      "fola": 5506,
      "rannpháirteach": 5507,
      "tosach": 5508,
      "litir": 5509,
      "feithiclí": 5510,
      "trédhearc": 5511,
      "Íoslódáil": 5512,
      "scoláirí": 5513,
      "faoiseamh": 5514,
      "Tuairisc": 5515,
      "ciorc": 5516,
      "stáin": 5517,
      "tob": 5518,
      "##itinne": 5519,
      "##oss": 5520,
      "comhlíonadh": 5521,
      "##intir": 5522,
      "##achtair": 5523,
      "Cuirfear": 5524,
      "folaíonn": 5525,
      "Monaróirí": 5526,
      "Bliain": 5527,
      "Conradh": 5528,
      "Lit": 5529,
      "pat": 5530,
      "##reach": 5531,
      "##ban": 5532,
      "chiallaíonn": 5533,
      "##laíocht": 5534,
      "##icéid": 5535,
      "##ínithe": 5536,
      "rialtais": 5537,
      "deireanach": 5538,
      ".”.": 5539,
      "teorainneacha": 5540,
      "##ouse": 5541,
      "Ailt": 5542,
      "CA": 5543,
      "bean": 5544,
      "ceimic": 5545,
      "##nnas": 5546,
      "##kin": 5547,
      "##istan": 5548,
      "chathair": 5549,
      "##bhaigh": 5550,
      "##reithe": 5551,
      "leithligh": 5552,
      "tseachtain": 5553,
      "##news": 5554,
      "##leachtas": 5555,
      "Bailiúchán": 5556,
      "CC": 5557,
      "ail": 5558,
      "gúna": 5559,
      "heala": 5560,
      "rad": 5561,
      "Leasaítear": 5562,
      "Crua": 5563,
      "ndearna": 5564,
      "Córas": 5565,
      "teagmhála": 5566,
      "01": 5567,
      "Iarr": 5568,
      "Léigh": 5569,
      "##róir": 5570,
      "##form": 5571,
      "gcead": 5572,
      "##aeltacht": 5573,
      "Ghníomhaireacht": 5574,
      "Achtanna": 5575,
      "##úsaem": 5576,
      "Tuaithe": 5577,
      "cúraim": 5578,
      "inti": 5579,
      "##ration": 5580,
      "##chóirithe": 5581,
      "##ienc": 5582,
      "Iompair": 5583,
      "Banc": 5584,
      "IN": 5585,
      "barán": 5586,
      "custaiméirí": 5587,
      "##chomh": 5588,
      "##igit": 5589,
      "##éireachta": 5590,
      "##eachtar": 5591,
      "##eáilte": 5592,
      "dtos": 5593,
      "Scr": 5594,
      "Coimirce": 5595,
      "Cultúir": 5596,
      "Idirlíon": 5597,
      "imscrúdú": 5598,
      "iarbhír": 5599,
      "Fógra": 5600,
      "Fostaíocht": 5601,
      "sruth": 5602,
      "##mus": 5603,
      "##wood": 5604,
      "##ark": 5605,
      "##aitheacha": 5606,
      "##enn": 5607,
      "##aicí": 5608,
      "Athbhreith": 5609,
      "srl": 5610,
      "limistéir": 5611,
      "dheonú": 5612,
      "44": 5613,
      "Health": 5614,
      "Solas": 5615,
      "##ít": 5616,
      "##ET": 5617,
      "theastaíonn": 5618,
      "##láth": 5619,
      "ghinearálta": 5620,
      "##llscoile": 5621,
      "feidhmíocht": 5622,
      "leasanna": 5623,
      "uiscedhíonach": 5624,
      "Roghnaigh": 5625,
      "thiontú": 5626,
      "Whats": 5627,
      "sheirbhísí": 5628,
      "##tháite": 5629,
      "Breataine": 5630,
      "coileach": 5631,
      "##chtana": 5632,
      "díolacháin": 5633,
      "Cumann": 5634,
      "Dearg": 5635,
      "IO": 5636,
      "Moms": 5637,
      "saibh": 5638,
      "táirgeadh": 5639,
      "ualach": 5640,
      "##ách": 5641,
      "chuaigh": 5642,
      "scor": 5643,
      "amhras": 5644,
      "rialtas": 5645,
      "##aiteoir": 5646,
      "Ghearmáin": 5647,
      "Shaor": 5648,
      "u16": 5649,
      "##oft": 5650,
      "##ártaí": 5651,
      "bónas": 5652,
      "ranganna": 5653,
      "pá": 5654,
      "##IA": 5655,
      "fhoir": 5656,
      "scríbhn": 5657,
      "déantús": 5658,
      "ionadaithe": 5659,
      "chostas": 5660,
      "eagrú": 5661,
      "gcoitinne": 5662,
      "CH": 5663,
      "pe": 5664,
      "##raois": 5665,
      "##earsa": 5666,
      "dtír": 5667,
      "idirdh": 5668,
      "Fhrainc": 5669,
      "##cking": 5670,
      "tiomanta": 5671,
      "euro": 5672,
      "codanna": 5673,
      "sócmhainní": 5674,
      "Tír": 5675,
      "feas": 5676,
      "##ute": 5677,
      "##uaill": 5678,
      "##SS": 5679,
      "##ÍO": 5680,
      "##zel": 5681,
      "##80": 5682,
      "##irse": 5683,
      "##mhór": 5684,
      "##dhó": 5685,
      "##anga": 5686,
      "##eadán": 5687,
      "ionaid": 5688,
      "cumarsáide": 5689,
      "Lucht": 5690,
      "##INT": 5691,
      "cúiseanna": 5692,
      "##alartú": 5693,
      "feistithe": 5694,
      "imreoir": 5695,
      "imreoirí": 5696,
      "##ohn": 5697,
      "\",": 5698,
      "46": 5699,
      "mach": 5700,
      "##du": 5701,
      "##vel": 5702,
      "##orth": 5703,
      "col": 5704,
      "fhorléir": 5705,
      "tábhachtaí": 5706,
      "##línse": 5707,
      "difríocht": 5708,
      "creidmheasa": 5709,
      "Tionscail": 5710,
      "solúb": 5711,
      "Sin": 5712,
      "Star": 5713,
      "géar": 5714,
      "heagra": 5715,
      "##ST": 5716,
      "chúrsa": 5717,
      "nuacht": 5718,
      "príos": 5719,
      "##eorann": 5720,
      "Brunet": 5721,
      "thuiscint": 5722,
      "Duine": 5723,
      "aeir": 5724,
      "ríth": 5725,
      "ste": 5726,
      "sreabh": 5727,
      "##sm": 5728,
      "##LE": 5729,
      "##scaí": 5730,
      "##aolú": 5731,
      "##aintréithe": 5732,
      "phlé": 5733,
      "díriú": 5734,
      "leordhó": 5735,
      "Bainistíochta": 5736,
      "Domhanda": 5737,
      "Iasc": 5738,
      "easc": 5739,
      "mad": 5740,
      "pas": 5741,
      "saille": 5742,
      "##ey": 5743,
      "chairde": 5744,
      "fhion": 5745,
      "cobh": 5746,
      "Bhun": 5747,
      "tslí": 5748,
      "Super": 5749,
      "sochar": 5750,
      "Áirítear": 5751,
      "Lo": 5752,
      "##bailte": 5753,
      "##raon": 5754,
      "##eard": 5755,
      "bhfianaise": 5756,
      "comhionann": 5757,
      "##aidrimh": 5758,
      "oibreacha": 5759,
      "##aispeá": 5760,
      "tugann": 5761,
      "##isinéir": 5762,
      "##iamond": 5763,
      "alc": 5764,
      "##liteanas": 5765,
      "faighte": 5766,
      "Beo": 5767,
      "Big": 5768,
      "praghsanna": 5769,
      "dhaing": 5770,
      "##reast": 5771,
      "dteangacha": 5772,
      "lua": 5773,
      "Comhshaoil": 5774,
      "ngairtear": 5775,
      "staidéir": 5776,
      "Úsáidtear": 5777,
      "bronntanas": 5778,
      "shárú": 5779,
      "titim": 5780,
      "u7": 5781,
      "uisc": 5782,
      "##king": 5783,
      "##bhearta": 5784,
      "thaifead": 5785,
      "##lána": 5786,
      "cuimhn": 5787,
      "cuardach": 5788,
      "##oláir": 5789,
      "cúl": 5790,
      "Mhaigh": 5791,
      "athbhreithnithe": 5792,
      "EUR": 5793,
      "ceapadh": 5794,
      "uaidh": 5795,
      "##mais": 5796,
      "##abhta": 5797,
      "feithicle": 5798,
      "Óglaigh": 5799,
      "clasaiceach": 5800,
      "ríthábhachtach": 5801,
      "So": 5802,
      "##af": 5803,
      "##ileog": 5804,
      "##aladh": 5805,
      "##eálacha": 5806,
      "##inneamh": 5807,
      "fheic": 5808,
      "féachana": 5809,
      "##nachar": 5810,
      "mban": 5811,
      "éilimh": 5812,
      "próiseála": 5813,
      "Dúiche": 5814,
      "Pleanála": 5815,
      "romhainn": 5816,
      "critéir": 5817,
      "Fir": 5818,
      "Gairm": 5819,
      "Post": 5820,
      "Tóg": 5821,
      "##rais": 5822,
      "##DA": 5823,
      "##onraithe": 5824,
      "gov": 5825,
      "##ife": 5826,
      "Náisiún": 5827,
      "ghníomhaíochtaí": 5828,
      "suimiúil": 5829,
      "##bhsálaí": 5830,
      "leordhóthanach": 5831,
      "Céard": 5832,
      "teicniúla": 5833,
      "vol": 5834,
      "##o_": 5835,
      "bhrú": 5836,
      "bhraitheann": 5837,
      "##aitheacht": 5838,
      "dtíortha": 5839,
      "Tháinig": 5840,
      "Infheist": 5841,
      "eagar": 5842,
      "taistil": 5843,
      "díls": 5844,
      "Mad": 5845,
      "pais": 5846,
      "##ital": 5847,
      "chórais": 5848,
      "##eánacha": 5849,
      "thú": 5850,
      "Chorc": 5851,
      "##eagasc": 5852,
      "##inger": 5853,
      "tsraith": 5854,
      "##pháirtíochta": 5855,
      "1999": 5856,
      "tábhacht": 5857,
      "##áipéir": 5858,
      "réigiúin": 5859,
      "Cosanta": 5860,
      "bhféadfaí": 5861,
      "thionscnamh": 5862,
      "mhaoiniú": 5863,
      "##oirgneamh": 5864,
      "dtabharfar": 5865,
      "Afraic": 5866,
      ")(": 5867,
      "Ríomh": 5868,
      "teaghlach": 5869,
      "##foirt": 5870,
      "##ánaí": 5871,
      "##CO": 5872,
      "thrí": 5873,
      "ghlanadh": 5874,
      "##nasta": 5875,
      "oibríochtaí": 5876,
      "mBun": 5877,
      "##saítear": 5878,
      "##outh": 5879,
      "láimhs": 5880,
      "deontais": 5881,
      "##lithe": 5882,
      "##pro": 5883,
      "cultúrtha": 5884,
      "tionscla": 5885,
      "Comp": 5886,
      "Dáta": 5887,
      "teicneolaíochta": 5888,
      "fheithicil": 5889,
      "gCoimisinéirí": 5890,
      "Dr": 5891,
      "ol": 5892,
      "tithíochta": 5893,
      "##ked": 5894,
      "##ild": 5895,
      "##iúirí": 5896,
      "deontas": 5897,
      "##teurs": 5898,
      "dheimhniú": 5899,
      "##túin": 5900,
      "cónaithe": 5901,
      "##airdeas": 5902,
      "##undation": 5903,
      "asbhaint": 5904,
      "Cor": 5905,
      "Net": 5906,
      "Sráid": 5907,
      "toir": 5908,
      "teangacha": 5909,
      "##nítear": 5910,
      "##ias": 5911,
      "##ike": 5912,
      "##uf": 5913,
      "chon": 5914,
      "##agaz": 5915,
      "##eng": 5916,
      "mbainfidh": 5917,
      "##cks": 5918,
      "srian": 5919,
      "dleathach": 5920,
      "55": 5921,
      "75": 5922,
      "##rid": 5923,
      "##60": 5924,
      "##iús": 5925,
      "chumh": 5926,
      "thír": 5927,
      "##luach": 5928,
      "##ataisí": 5929,
      "spins": 5930,
      "##nálacha": 5931,
      "dtag": 5932,
      "##abraic": 5933,
      "incháilithe": 5934,
      "huathoibríoch": 5935,
      "monatóireacht": 5936,
      "siopaí": 5937,
      "##ghné": 5938,
      "43": 5939,
      "Lios": 5940,
      "gream": 5941,
      "téa": 5942,
      "##cy": 5943,
      "##oe": 5944,
      "##40": 5945,
      "##aighn": 5946,
      "##iontáil": 5947,
      "Bhallstáit": 5948,
      "##iana": 5949,
      "##aisce": 5950,
      "mBéarla": 5951,
      "##oscaí": 5952,
      "tionscnaimh": 5953,
      "##eamar": 5954,
      "##acnamaíochta": 5955,
      "bunúsach": 5956,
      "##labhra": 5957,
      "PH": 5958,
      "béil": 5959,
      "##ilip": 5960,
      "##nasc": 5961,
      "fhos": 5962,
      "mholadh": 5963,
      "roghnaigh": 5964,
      "Rialú": 5965,
      "inneall": 5966,
      "tugtar": 5967,
      "Rátáil": 5968,
      "fuinneamh": 5969,
      "##uirearaithe": 5970,
      "eol": 5971,
      "fú": 5972,
      "faireach": 5973,
      "##net": 5974,
      "##tra": 5975,
      "##údar": 5976,
      "chaith": 5977,
      "##aoch": 5978,
      "dhearadh": 5979,
      "##ica": 5980,
      "shláinte": 5981,
      "##iomp": 5982,
      "iarrthóirí": 5983,
      "##ánacha": 5984,
      "##aipe": 5985,
      "Oireachtas": 5986,
      "Turas": 5987,
      "ardchaighdeáin": 5988,
      "Ceannais": 5989,
      "Edit": 5990,
      "Amateurs": 5991,
      "Poblacht": 5992,
      "Slán": 5993,
      "##daigh": 5994,
      "##out": 5995,
      "##fimid": 5996,
      "##CP": 5997,
      "gcos": 5998,
      "chomhaltaí": 5999,
      "##ams": 6000,
      "##roinnt": 6001,
      "bpáirt": 6002,
      "Imirt": 6003,
      "inmhuirearaithe": 6004,
      "críochnaithe": 6005,
      "muinín": 6006,
      "News": 6007,
      "fiosrúcháin": 6008,
      "rannpháirtithe": 6009,
      "sárú": 6010,
      "reachtúil": 6011,
      "bhfaighidh": 6012,
      "íomhá": 6013,
      "sealadach": 6014,
      "6ú": 6015,
      "Eagra": 6016,
      "Mam": 6017,
      "caidreamh": 6018,
      "cartlann": 6019,
      "##nigh": 6020,
      "##taíochtaí": 6021,
      "fhianaise": 6022,
      "shás": 6023,
      "##éireacht": 6024,
      "strap": 6025,
      "threoir": 6026,
      "dleacht": 6027,
      "##fheidhmiú": 6028,
      "chinnfidh": 6029,
      "American": 6030,
      "dochtúir": 6031,
      "Limist": 6032,
      "hoib": 6033,
      "ocht": 6034,
      "pu": 6035,
      "tap": 6036,
      "##ix": 6037,
      "##ábhar": 6038,
      "##lóidh": 6039,
      "##——": 6040,
      "##airc": 6041,
      "##bhrú": 6042,
      "treoracha": 6043,
      "scála": 6044,
      "Sheirbhís": 6045,
      "Caithfidh": 6046,
      "Uathoibríoch": 6047,
      "ceoil": 6048,
      "geall": 6049,
      "##cra": 6050,
      "##pm": 6051,
      "##IC": 6052,
      "##thóra": 6053,
      "##scne": 6054,
      "bhféadfaidh": 6055,
      "##ices": 6056,
      "##ames": 6057,
      "##éasán": 6058,
      "u13": 6059,
      "##ction": 6060,
      "gcuirfí": 6061,
      "dualgais": 6062,
      "##eosla": 6063,
      "48": 6064,
      "Aois": 6065,
      "Off": 6066,
      "Stá": 6067,
      "To": 6068,
      "cíos": 6069,
      "vitim": 6070,
      "##SO": 6071,
      "##ideanna": 6072,
      "chuí": 6073,
      "bhfoireann": 6074,
      "##len": 6075,
      "leanfaidh": 6076,
      "##ráitis": 6077,
      "Bhallstát": 6078,
      "##ugadh": 6079,
      "feidhmíochta": 6080,
      "u18": 6081,
      "##ionannas": 6082,
      "1998": 6083,
      "aigéad": 6084,
      "ríomhphost": 6085,
      "300": 6086,
      "eisc": 6087,
      "##ctha": 6088,
      "##ful": 6089,
      "##úc": 6090,
      "bhféadfar": 6091,
      "##olún": 6092,
      "iomarc": 6093,
      "athchóiriú": 6094,
      "##ógó": 6095,
      "Phort": 6096,
      "##rachtaí": 6097,
      "u15": 6098,
      "leictreachais": 6099,
      "##thabhála": 6100,
      "chiontú": 6101,
      "feistí": 6102,
      "héifeachtach": 6103,
      "fostaí": 6104,
      "07": 6105,
      "Iarratais": 6106,
      "Rú": 6107,
      "dé": 6108,
      "wh": 6109,
      "##com": 6110,
      "##bians": 6111,
      "##lah": 6112,
      "mhu": 6113,
      "##ealladh": 6114,
      "phac": 6115,
      "speisial": 6116,
      "Spóirt": 6117,
      "hArd": 6118,
      "42": 6119,
      "Cineál": 6120,
      "saill": 6121,
      "##léid": 6122,
      "##idil": 6123,
      "##iúnas": 6124,
      "gcumas": 6125,
      "##iness": 6126,
      "##eanada": 6127,
      "##uairimí": 6128,
      "Aistriúchán": 6129,
      "thalamh": 6130,
      "IT": 6131,
      "IV": 6132,
      "Tagann": 6133,
      "fiche": 6134,
      "múinteoir": 6135,
      "rol": 6136,
      "##tube": 6137,
      "bhliantúil": 6138,
      "leasaítear": 6139,
      "gcéanna": 6140,
      "##iff": 6141,
      "thuismitheoirí": 6142,
      "Luain": 6143,
      "treoirlínte": 6144,
      "tógála": 6145,
      "áiseanna": 6146,
      "dúshláin": 6147,
      "Bog": 6148,
      "Cíocha": 6149,
      "Hum": 6150,
      "Ré": 6151,
      "bl": 6152,
      "brea": 6153,
      "fíorú": 6154,
      "hais": 6155,
      "réad": 6156,
      "Óige": 6157,
      "##ym": 6158,
      "##eoite": 6159,
      "fhomhír": 6160,
      "##ité": 6161,
      "##att": 6162,
      "##lass": 6163,
      "ngnó": 6164,
      "leasuithe": 6165,
      "fhaightear": 6166,
      "Macasamhail": 6167,
      "##aisleán": 6168,
      "fhorléiriú": 6169,
      "Ciallaíonn": 6170,
      "Dí": 6171,
      "Teaghlaigh": 6172,
      "alú": 6173,
      "cistí": 6174,
      "creat": 6175,
      "##icéad": 6176,
      "##iod": 6177,
      "##ochaí": 6178,
      "éifeachta": 6179,
      "Dhá": 6180,
      "##perienc": 6181,
      "pointí": 6182,
      "Scoileanna": 6183,
      "ghnéas": 6184,
      "galánta": 6185,
      "##ology": 6186,
      "##official": 6187,
      "Dúirt": 6188,
      "Ome": 6189,
      "cap": 6190,
      "dlú": 6191,
      "##eur": 6192,
      "##i_": 6193,
      "##zh": 6194,
      "##inch": 6195,
      "##illi": 6196,
      "##dhá": 6197,
      "comhad": 6198,
      "##aitist": 6199,
      "ionadaí": 6200,
      "##ónais": 6201,
      "Ord": 6202,
      "saincheisteanna": 6203,
      "institiúid": 6204,
      "pháirtí": 6205,
      "##piacha": 6206,
      "##agazine": 6207,
      "World": 6208,
      "hach": 6209,
      "##MA": 6210,
      "chúrsaí": 6211,
      "##lachais": 6212,
      "tábla": 6213,
      "##ibhe": 6214,
      "##onarthaí": 6215,
      "##rótac": 6216,
      "bainistiú": 6217,
      "chruinniú": 6218,
      "Bréag": 6219,
      "Cumarsáide": 6220,
      "##omhaltóirí": 6221,
      "Tech": 6222,
      "##tháthú": 6223,
      "greannmhar": 6224,
      "Ass": 6225,
      "Eas": 6226,
      "Féad": 6227,
      "Ginearálta": 6228,
      "Liúntas": 6229,
      "Teas": 6230,
      "WHO": 6231,
      "ca": 6232,
      "catagóir": 6233,
      "chor": 6234,
      "chaomhnú": 6235,
      "##eachán": 6236,
      "mara": 6237,
      "##aíl": 6238,
      "##ruis": 6239,
      "2002": 6240,
      "##onclú": 6241,
      "Cuimsiú": 6242,
      "aimsire": 6243,
      "mhargaidh": 6244,
      "teagaisc": 6245,
      "chuntasaíochta": 6246,
      "09": 6247,
      "Meiriceá": 6248,
      "tine": 6249,
      "##gal": 6250,
      "##inéirí": 6251,
      "##iallu": 6252,
      "##log": 6253,
      "##ráite": 6254,
      "##phr": 6255,
      "bpost": 6256,
      "##iarna": 6257,
      "##eimhl": 6258,
      "##perienced": 6259,
      "ha": 6260,
      "tae": 6261,
      "tsamh": 6262,
      "##_S": 6263,
      "##líocht": 6264,
      "##eoch": 6265,
      "##lata": 6266,
      "##omhais": 6267,
      "thástáil": 6268,
      "##eer": 6269,
      "##imhd": 6270,
      "##thaíodh": 6271,
      "##únadh": 6272,
      "moladh": 6273,
      "fhéadfá": 6274,
      "##reithiúnais": 6275,
      "##experienced": 6276,
      "easpa": 6277,
      "##ualgas": 6278,
      "spriocanna": 6279,
      "shainch": 6280,
      "táirgthe": 6281,
      "nglacfaí": 6282,
      "##ialluíonn": 6283,
      "Dath": 6284,
      "caill": 6285,
      "míleata": 6286,
      "tógáil": 6287,
      "##tam": 6288,
      "creim": 6289,
      "##iew": 6290,
      "dhearbhú": 6291,
      "cruthaithe": 6292,
      "cearn": 6293,
      "dlíthiúil": 6294,
      "brabúis": 6295,
      "Beag": 6296,
      "Eacnamaíoch": 6297,
      "ló": 6298,
      "shiúl": 6299,
      "##éire": 6300,
      "dtionsc": 6301,
      "Bhain": 6302,
      "##sage": 6303,
      "Inexperienced": 6304,
      "bualadh": 6305,
      "Samhna": 6306,
      "ghníomhaíocht": 6307,
      "Áitiúla": 6308,
      "##acebook": 6309,
      "tagtha": 6310,
      "Mná": 6311,
      "clá": 6312,
      "##ford": 6313,
      "##AC": 6314,
      "sheachtain": 6315,
      "meaisíní": 6316,
      "chóireáil": 6317,
      "ríomhaireachta": 6318,
      "chuirfear": 6319,
      "Dúradh": 6320,
      "##aoiseamh": 6321,
      "Euro": 6322,
      "cúramach": 6323,
      "##chéime": 6324,
      "corpraithe": 6325,
      "Mus": 6326,
      "Sao": 6327,
      "long": 6328,
      "##LAI": 6329,
      "##óidí": 6330,
      "##tad": 6331,
      "ghin": 6332,
      "phríobháid": 6333,
      "foirmeacha": 6334,
      "Cosaint": 6335,
      "##chúiseamh": 6336,
      "pleananna": 6337,
      "lascaine": 6338,
      "Af": 6339,
      "Aims": 6340,
      "Taispeán": 6341,
      "tasc": 6342,
      "##ple": 6343,
      "Chill": 6344,
      "mhona": 6345,
      "##órtáil": 6346,
      "roth": 6347,
      "íocadh": 6348,
      "mheasúnachta": 6349,
      "cruinnithe": 6350,
      "Éireannacha": 6351,
      "stylish": 6352,
      "dhiailiú": 6353,
      "03": 6354,
      "Trealamh": 6355,
      "fír": 6356,
      "meicniúil": 6357,
      "seic": 6358,
      "snasta": 6359,
      "##gan": 6360,
      "nóim": 6361,
      "gcustaiméirí": 6362,
      "mbliain": 6363,
      "gréine": 6364,
      "tuar": 6365,
      "gníomhaíochta": 6366,
      "dearfach": 6367,
      "ceadúnais": 6368,
      "Rolex": 6369,
      "Grianchloch": 6370,
      "seans": 6371,
      "chailleadh": 6372,
      "##uncil": 6373,
      "nuashonrú": 6374,
      "Feir": 6375,
      "digiteach": 6376,
      "erotic": 6377,
      "id": 6378,
      "séas": 6379,
      "##ME": 6380,
      "##orts": 6381,
      "##aitheora": 6382,
      "thábhachtach": 6383,
      "##roim": 6384,
      "##oimre": 6385,
      "gcríoch": 6386,
      "dTu": 6387,
      "bunúsacha": 6388,
      "Sainch": 6389,
      "Fhorbairt": 6390,
      "Chorcaí": 6391,
      "47": 6392,
      "65": 6393,
      "AD": 6394,
      "Bán": 6395,
      "SCE": 6396,
      "Tabharfaidh": 6397,
      "caighdeánach": 6398,
      "dian": 6399,
      "fig": 6400,
      "ospid": 6401,
      "##aíola": 6402,
      "##po": 6403,
      "##G4": 6404,
      "mhná": 6405,
      "##ifr": 6406,
      "suiteáil": 6407,
      "##iop": 6408,
      "oibríocht": 6409,
      "Soláthraíonn": 6410,
      "##orgáiste": 6411,
      "##ORPA": 6412,
      "dualgas": 6413,
      "Uaireanta": 6414,
      "sealbhóir": 6415,
      "ríomhphoist": 6416,
      "prionsabal": 6417,
      "Rómáin": 6418,
      "scaipeadh": 6419,
      "Ste": 6420,
      "watch": 6421,
      "##nróid": 6422,
      "##tion": 6423,
      "##rileach": 6424,
      "##Uachtar": 6425,
      "##bol": 6426,
      "##gáir": 6427,
      "##23": 6428,
      "##ane": 6429,
      "##bhu": 6430,
      "##scartha": 6431,
      "dhír": 6432,
      "Coinbhinsiún": 6433,
      "ainmneacha": 6434,
      "gníomhaíocht": 6435,
      "##eilig": 6436,
      "1997": 6437,
      "ordaithe": 6438,
      "cheadúnas": 6439,
      "##icket": 6440,
      "cathaoirleach": 6441,
      "Nuála": 6442,
      "##leathach": 6443,
      "Leabharlann": 6444,
      "sloinne": 6445,
      "Aic": 6446,
      "Coir": 6447,
      "City": 6448,
      "Just": 6449,
      "Ur": 6450,
      "othar": 6451,
      "ranga": 6452,
      "##níonn": 6453,
      "##_A": 6454,
      "##any": 6455,
      "##igeann": 6456,
      "saoránaigh": 6457,
      "##úraim": 6458,
      "buiséad": 6459,
      "##áipéis": 6460,
      "Cód": 6461,
      "inniúil": 6462,
      "Tra": 6463,
      "Taois": 6464,
      "Watch": 6465,
      "beirt": 6466,
      "sú": 6467,
      "ÁSP": 6468,
      "##ribh": 6469,
      "##ding": 6470,
      "##ianna": 6471,
      "##ugh": 6472,
      "##ww": 6473,
      "##úsáid": 6474,
      "##aice": 6475,
      "##readh": 6476,
      "mhíchumas": 6477,
      "##erg": 6478,
      "##umais": 6479,
      "craiceann": 6480,
      "gcomhthéacs": 6481,
      "ÁSPC": 6482,
      "Gluaiseacht": 6483,
      "Liom": 6484,
      "Pl": 6485,
      "hac": 6486,
      "##iac": 6487,
      "##taíonn": 6488,
      "thiocfaidh": 6489,
      "mhol": 6490,
      "cuim": 6491,
      "##ama": 6492,
      "prait": 6493,
      "seachadadh": 6494,
      "ceangal": 6495,
      "Láithr": 6496,
      "dhiúscairt": 6497,
      "oibleagáid": 6498,
      "##uirbhé": 6499,
      "loingseoireachta": 6500,
      "MP": 6501,
      "Tuir": 6502,
      "Tástáil": 6503,
      "You": 6504,
      "teicn": 6505,
      "áilleacht": 6506,
      "##iet": 6507,
      "##leac": 6508,
      "##úram": 6509,
      "bhéal": 6510,
      "##real": 6511,
      "##imintí": 6512,
      "sine": 6513,
      "saoráidí": 6514,
      "##eirbheáil": 6515,
      "Rialacha": 6516,
      "##saíd": 6517,
      "Bunaíodh": 6518,
      "comhpháirteanna": 6519,
      "clúdach": 6520,
      "shealbhú": 6521,
      "chailleann": 6522,
      "prionsabail": 6523,
      "liathróid": 6524,
      "##istant": 6525,
      "Corp": 6526,
      "Obair": 6527,
      "Ombudsman": 6528,
      "Taithí": 6529,
      "aiste": 6530,
      "cialluíonn": 6531,
      "fianáin": 6532,
      "labh": 6533,
      "oidhreacht": 6534,
      "punt": 6535,
      "##ket": 6536,
      "##fas": 6537,
      "##_B": 6538,
      "##TS": 6539,
      "##ada": 6540,
      "pháistí": 6541,
      "Scann": 6542,
      "##aingt": 6543,
      "choigeartú": 6544,
      "fhágann": 6545,
      "hiarr": 6546,
      "chríochnú": 6547,
      "stiúrthóir": 6548,
      "tomhaltóirí": 6549,
      "snáithín": 6550,
      "dhaingniú": 6551,
      "',": 6552,
      "Bosca": 6553,
      "Méid": 6554,
      "Raidió": 6555,
      "##áist": 6556,
      "##_M": 6557,
      "##ilte": 6558,
      "##aradh": 6559,
      "bhaill": 6560,
      "bháis": 6561,
      "##scéal": 6562,
      "comhshaoil": 6563,
      "chomhlánú": 6564,
      "bunú": 6565,
      "##pháirtithe": 6566,
      "##ashington": 6567,
      "daonna": 6568,
      "foirgneamh": 6569,
      "Éisteachta": 6570,
      "Gearmáinis": 6571,
      "teilifíse": 6572,
      "Bréagáin": 6573,
      "Blonde": 6574,
      "La": 6575,
      "áras": 6576,
      "##ii": 6577,
      "##mraí": 6578,
      "##lar": 6579,
      "##thachta": 6580,
      "##eifr": 6581,
      "fhás": 6582,
      "##aiméad": 6583,
      "##lianta": 6584,
      "amharc": 6585,
      "trád": 6586,
      "Achomhairc": 6587,
      "##aoilte": 6588,
      "iascaireachta": 6589,
      "foilsíodh": 6590,
      "teagasc": 6591,
      "Ab": 6592,
      "Bail": 6593,
      "Cáin": 6594,
      "Res": 6595,
      "Sw": 6596,
      "Uí": 6597,
      "hidir": 6598,
      "sal": 6599,
      "##ult": 6600,
      "##pr": 6601,
      "féid": 6602,
      "troid": 6603,
      "##adhn": 6604,
      "phointe": 6605,
      "nuach": 6606,
      "##túir": 6607,
      "##eoranta": 6608,
      "soic": 6609,
      "Airgid": 6610,
      "bhfolach": 6611,
      "fheidhmeanna": 6612,
      "stáisiún": 6613,
      "chailíní": 6614,
      "bezel": 6615,
      "CBL": 6616,
      "comhoiriúnacht": 6617,
      "##eilleagar": 6618,
      "hainmneacha": 6619,
      "06": 6620,
      "Croí": 6621,
      "Seas": 6622,
      "Ta": 6623,
      "hiom": 6624,
      "##dúil": 6625,
      "##oph": 6626,
      "##IF": 6627,
      "bhosca": 6628,
      "##eochta": 6629,
      "##ghrá": 6630,
      "##allamh": 6631,
      "iomláine": 6632,
      "Thug": 6633,
      "gCoiste": 6634,
      "Ins": 6635,
      "cliste": 6636,
      "Leasa": 6637,
      "suimeanna": 6638,
      "Domhnach": 6639,
      "margaidh": 6640,
      "--": 6641,
      "Eala": 6642,
      "Rang": 6643,
      "Tiocfaidh": 6644,
      "foláir": 6645,
      "sil": 6646,
      "##óiste": 6647,
      "##90": 6648,
      "chlú": 6649,
      "mhalartú": 6650,
      "##omair": 6651,
      "acad": 6652,
      "##ipe": 6653,
      "íocfar": 6654,
      "u19": 6655,
      "cumarsáid": 6656,
      "stíleanna": 6657,
      "Threoir": 6658,
      "éigeandála": 6659,
      "Athbhreithniú": 6660,
      "Sna": 6661,
      "TU": 6662,
      "eacnama": 6663,
      "fair": 6664,
      "##dy": 6665,
      "##45": 6666,
      "tréimhsí": 6667,
      "Phobail": 6668,
      "cóc": 6669,
      "monaróir": 6670,
      "ceangailte": 6671,
      "Seomra": 6672,
      "faisean": 6673,
      "voltas": 6674,
      "AR": 6675,
      "Blu": 6676,
      "dích": 6677,
      "halt": 6678,
      "lip": 6679,
      "##ater": 6680,
      "##lant": 6681,
      "##va": 6682,
      "##onnadh": 6683,
      "##ghná": 6684,
      "dheo": 6685,
      "dháil": 6686,
      "dheir": 6687,
      "cultúr": 6688,
      "saineolaithe": 6689,
      "ardán": 6690,
      "hEORPA": 6691,
      "##aireachtáil": 6692,
      "Iarthair": 6693,
      "aimsir": 6694,
      "cruinneas": 6695,
      "Fheidhmiú": 6696,
      "Comhairl": 6697,
      "Reacht": 6698,
      "Sl": 6699,
      "u20": 6700,
      "áthas": 6701,
      "ór": 6702,
      "##PR": 6703,
      "##val": 6704,
      "##77": 6705,
      "thabharfaidh": 6706,
      "imthosca": 6707,
      "ceannairí": 6708,
      "Stíl": 6709,
      "##úinteoireachta": 6710,
      "##ustaiméir": 6711,
      "próiseáil": 6712,
      "cháilíocht": 6713,
      "ionstraimí": 6714,
      "cuimsitheach": 6715,
      "Brunette": 6716,
      "##onclúidí": 6717,
      "Amh": 6718,
      "SEA": 6719,
      "aighn": 6720,
      "gás": 6721,
      "muirir": 6722,
      "pian": 6723,
      "seis": 6724,
      "tarraingt": 6725,
      "##CS": 6726,
      "##úcháin": 6727,
      "##eaf": 6728,
      "##usiness": 6729,
      "##éasc": 6730,
      "doras": 6731,
      "theanga": 6732,
      "coig": 6733,
      "##asta": 6734,
      "##iceach": 6735,
      "##ampa": 6736,
      "dtiocfaidh": 6737,
      "Mhárta": 6738,
      "tsráid": 6739,
      "u11": 6740,
      "baineann": 6741,
      "vótáil": 6742,
      "u22": 6743,
      "diúltú": 6744,
      "inniúla": 6745,
      "glactha": 6746,
      "chomhairle": 6747,
      "European": 6748,
      "príobháideach": 6749,
      "##ograph": 6750,
      "mionsonraithe": 6751,
      "resistant": 6752,
      "AGUS": 6753,
      "##LAIM": 6754,
      "All": 6755,
      "TS": 6756,
      "Togh": 6757,
      "##pol": 6758,
      "##28": 6759,
      "##earaí": 6760,
      "##ince": 6761,
      "ant": 6762,
      "anal": 6763,
      "mhion": 6764,
      "sheas": 6765,
      "##ocs": 6766,
      "##arraigh": 6767,
      "tharchur": 6768,
      "éilíonn": 6769,
      "##eimhnithe": 6770,
      "##ARLAIM": 6771,
      "Gníomhaíochta": 6772,
      "toghcháin": 6773,
      "thiomáint": 6774,
      "daingean": 6775,
      "nuálaíocht": 6776,
      "Anal": 6777,
      "Bl": 6778,
      "Cinneadh": 6779,
      "Seic": 6780,
      "haois": 6781,
      "prá": 6782,
      "pósta": 6783,
      "##iat": 6784,
      "##News": 6785,
      "##chr": 6786,
      "##illa": 6787,
      "##eorach": 6788,
      "dhaon": 6789,
      "dhliteanas": 6790,
      "##led": 6791,
      "mbaol": 6792,
      "úsáideach": 6793,
      "cúirt": 6794,
      "##illte": 6795,
      "saoil": 6796,
      "150": 6797,
      "##over": 6798,
      "Ordú": 6799,
      "ghlacann": 6800,
      "##ghníomhú": 6801,
      "ghréasáin": 6802,
      "Uaireadóirí": 6803,
      "díospóireacht": 6804,
      "##ARLAIMINT": 6805,
      "Eile": 6806,
      "Foir": 6807,
      "Faoin": 6808,
      "Taisce": 6809,
      "billiún": 6810,
      "ceannach": 6811,
      "tithe": 6812,
      "tuir": 6813,
      "##nóidh": 6814,
      "##féar": 6815,
      "thogh": 6816,
      "##eep": 6817,
      "##rún": 6818,
      "chomhlachta": 6819,
      "saoránach": 6820,
      "tarlú": 6821,
      "##part": 6822,
      "Athrú": 6823,
      "##astail": 6824,
      "aerár": 6825,
      "bhforbairt": 6826,
      "##que": 6827,
      "litr": 6828,
      "oibleagáidí": 6829,
      "Teicneolaíochta": 6830,
      "Preasráitis": 6831,
      "soicind": 6832,
      "Tithíochta": 6833,
      "fostóir": 6834,
      "lógó": 6835,
      "rap": 6836,
      "##eisc": 6837,
      "##fer": 6838,
      "##In": 6839,
      "thío": 6840,
      "tháirg": 6841,
      "##urious": 6842,
      "comhfh": 6843,
      "ráitis": 6844,
      "Mhic": 6845,
      "fadtéar": 6846,
      "u17": 6847,
      "sholáthraíonn": 6848,
      "##aoirse": 6849,
      "##ized": 6850,
      "Oiliúna": 6851,
      "miond": 6852,
      "léasair": 6853,
      "redtube": 6854,
      "Caith": 6855,
      "Creat": 6856,
      "Dub": 6857,
      "Op": 6858,
      "Páirc": 6859,
      "ear": 6860,
      "##ker": 6861,
      "##men": 6862,
      "##for": 6863,
      "##balta": 6864,
      "bhord": 6865,
      "thomhas": 6866,
      "##unn": 6867,
      "##atr": 6868,
      "iontrá": 6869,
      "##únaimh": 6870,
      "##réig": 6871,
      "seachtrach": 6872,
      "Masturbate": 6873,
      "##oirgnimh": 6874,
      "El": 6875,
      "Eis": 6876,
      "Sr": 6877,
      "qu": 6878,
      "teicniúil": 6879,
      "tabharfar": 6880,
      "##BH": 6881,
      "##p3": 6882,
      "##100": 6883,
      "##chadh": 6884,
      "##earm": 6885,
      "gcúrsa": 6886,
      "gceannas": 6887,
      "##adóireacht": 6888,
      "bóithre": 6889,
      "##úineadh": 6890,
      "ealaíontóirí": 6891,
      "Charm": 6892,
      "nAchtanna": 6893,
      "scáileán": 6894,
      "PHARLAIMINT": 6895,
      "Port": 6896,
      "Teagmháil": 6897,
      "##ointí": 6898,
      "##úchán": 6899,
      "##thin": 6900,
      "##achaillí": 6901,
      "##alaithe": 6902,
      "fhéadfaidh": 6903,
      "dhío": 6904,
      "sciath": 6905,
      "##rel": 6906,
      "chomhar": 6907,
      "gClár": 6908,
      "luaite": 6909,
      "oibriúcháin": 6910,
      "Strap": 6911,
      "##lisí": 6912,
      "##airdín": 6913,
      "##uilleamh": 6914,
      "bhrabhsálaí": 6915,
      "mbunaítear": 6916,
      "Deimhniú": 6917,
      "MB": 6918,
      "Maith": 6919,
      "SE": 6920,
      "eil": 6921,
      "mas": 6922,
      "saintréithe": 6923,
      "íog": 6924,
      "##taire": 6925,
      "chuims": 6926,
      "Ange": 6927,
      "Bhliantúil": 6928,
      "##tert": 6929,
      "Aonair": 6930,
      "roghnaithe": 6931,
      "Mara": 6932,
      "gcomhlacht": 6933,
      "bPríomh": 6934,
      "##ualainn": 6935,
      "Bracelet": 6936,
      "##rown": 6937,
      "Inneal": 6938,
      "ghearrthóg": 6939,
      "Gearr": 6940,
      "Les": 6941,
      "Mion": 6942,
      "bainne": 6943,
      "bláth": 6944,
      "lamh": 6945,
      "uainn": 6946,
      "##yn": 6947,
      "bhog": 6948,
      "##icel": 6949,
      "##rew": 6950,
      "pháiste": 6951,
      "speic": 6952,
      "ionsaí": 6953,
      "idirghabh": 6954,
      "Comhaontú": 6955,
      "##shoc": 6956,
      "buataisí": 6957,
      "##impeallacht": 6958,
      "##arcel": 6959,
      "éifeachtúlacht": 6960,
      "CEE": 6961,
      "Frainc": 6962,
      "##ext": 6963,
      "dáileadh": 6964,
      "##eorainneacha": 6965,
      "CNC": 6966,
      "RTÉ": 6967,
      "400": 6968,
      "59": 6969,
      "Caibidil": 6970,
      "Mens": 6971,
      "Poist": 6972,
      "School": 6973,
      "Tiom": 6974,
      "póca": 6975,
      "tv": 6976,
      "##nóir": 6977,
      "##cam": 6978,
      "##DS": 6979,
      "##ussy": 6980,
      "##itear": 6981,
      "Bhean": 6982,
      "luí": 6983,
      "##try": 6984,
      "##ostóirí": 6985,
      "gcomhlíonann": 6986,
      "##raitheach": 6987,
      "íosta": 6988,
      "oiriúnú": 6989,
      "siúcra": 6990,
      "##ewel": 6991,
      "##board": 6992,
      "##ionsabal": 6993,
      "diúl": 6994,
      "Allah": 6995,
      "Cuideachta": 6996,
      "Oileán": 6997,
      "comhdhéanta": 6998,
      "polaitiúil": 6999,
      "hinstitiú": 7000,
      "comharthaí": 7001,
      "rubair": 7002,
      "##ufact": 7003,
      "##adhnraí": 7004,
      "58": 7005,
      "66": 7006,
      "Bíodh": 7007,
      "Cinnt": 7008,
      "Med": 7009,
      "cla": 7010,
      "www": 7011,
      "##tor": 7012,
      "##rial": 7013,
      "chaipit": 7014,
      "##aos": 7015,
      "leanann": 7016,
      "Chearta": 7017,
      "mhais": 7018,
      "trial": 7019,
      "astaíochtaí": 7020,
      "##éarma": 7021,
      "shonrú": 7022,
      "dliteanas": 7023,
      "idirdhealú": 7024,
      "##ufactur": 7025,
      "57": 7026,
      "Ceang": 7027,
      "Cap": 7028,
      "Diamond": 7029,
      "Mas": 7030,
      "Sochar": 7031,
      "crao": 7032,
      "cártaí": 7033,
      "hid": 7034,
      "##con": 7035,
      "##vo": 7036,
      "##br": 7037,
      "##EL": 7038,
      "##KO": 7039,
      "bhfu": 7040,
      "thíortha": 7041,
      "dhul": 7042,
      "shibhialta": 7043,
      "##ocail": 7044,
      "comhábhair": 7045,
      "cúiteamh": 7046,
      "##ipí": 7047,
      "ngairm": 7048,
      "oifigiúla": 7049,
      "páirteanna": 7050,
      "srianta": 7051,
      "Acad": 7052,
      "stórála": 7053,
      "áisiúil": 7054,
      "bailí": 7055,
      "Masturbation": 7056,
      "fágtha": 7057,
      "stiúrthóirí": 7058,
      "línte": 7059,
      "Breis": 7060,
      "Foilsiú": 7061,
      "dor": 7062,
      "loch": 7063,
      "##bs": 7064,
      "##bl": 7065,
      "##nae": 7066,
      "chuairt": 7067,
      "##uirí": 7068,
      "sceideal": 7069,
      "190": 7070,
      "##tráil": 7071,
      "iarrachtaí": 7072,
      "uathu": 7073,
      "réigiúnach": 7074,
      "Cathracha": 7075,
      "iascaigh": 7076,
      "Masturbating": 7077,
      "fhreagairt": 7078,
      "##rótacal": 7079,
      "caiteachais": 7080,
      "leacht": 7081,
      "tabh": 7082,
      "téigh": 7083,
      "toirt": 7084,
      "##_m": 7085,
      "##xurious": 7086,
      "##26": 7087,
      "##ister": 7088,
      "##lathaithe": 7089,
      "chuma": 7090,
      "##innimh": 7091,
      "seol": 7092,
      "thabh": 7093,
      "thús": 7094,
      "##icn": 7095,
      "shín": 7096,
      "sheirbheáil": 7097,
      "##erman": 7098,
      "scór": 7099,
      "sceimhl": 7100,
      "##tacháin": 7101,
      "forb": 7102,
      "cruthaíodh": 7103,
      "##nófar": 7104,
      "dúbailte": 7105,
      "Cuims": 7106,
      "Próifíl": 7107,
      "Rátaí": 7108,
      "díolúine": 7109,
      "tograí": 7110,
      "riocht": 7111,
      "Tacaíocht": 7112,
      "eitilt": 7113,
      "Críostaí": 7114,
      "App": 7115,
      "Beartas": 7116,
      "Nós": 7117,
      "Pand": 7118,
      "míl": 7119,
      "##ven": 7120,
      "leathair": 7121,
      "##eet": 7122,
      "shóisialaigh": 7123,
      "##enter": 7124,
      "achomhairc": 7125,
      "leithdháil": 7126,
      "##fhabh": 7127,
      "Scoile": 7128,
      "Cuardaigh": 7129,
      "chruth": 7130,
      "Tuarascálacha": 7131,
      "urscaoileadh": 7132,
      "u23": 7133,
      "Oileáin": 7134,
      "cóipeanna": 7135,
      "Manufactur": 7136,
      "##dháta": 7137,
      "##arcelona": 7138,
      "SA": 7139,
      "Téigh": 7140,
      "VI": 7141,
      "dlínse": 7142,
      "feic": 7143,
      "galar": 7144,
      "Ón": 7145,
      "##neoidh": 7146,
      "##daítear": 7147,
      "##lor": 7148,
      "##líochta": 7149,
      "##lóirí": 7150,
      "bhris": 7151,
      "##tee": 7152,
      "##tel": 7153,
      "cothabháil": 7154,
      "mhúinteoirí": 7155,
      "comhoibriú": 7156,
      "##lteanais": 7157,
      "##lactha": 7158,
      "roghnaíonn": 7159,
      "dearbh": 7160,
      "chruinnithe": 7161,
      "shonrófar": 7162,
      "##itseáil": 7163,
      "cábla": 7164,
      "##óirtéir": 7165,
      "indéanta": 7166,
      "athnuachan": 7167,
      "mBunreacht": 7168,
      ",”": 7169,
      "04": 7170,
      "DO": 7171,
      "Sil": 7172,
      "hard": 7173,
      "radh": 7174,
      "##mí": 7175,
      "##chain": 7176,
      "##ireachta": 7177,
      "##íoló": 7178,
      "##erc": 7179,
      "##oclóir": 7180,
      "bhainfidh": 7181,
      "##iorad": 7182,
      "##ills": 7183,
      "hAl": 7184,
      "cathrach": 7185,
      "bóthair": 7186,
      "cóireáil": 7187,
      "Anseo": 7188,
      "##oiciméad": 7189,
      "bhrath": 7190,
      "Christian": 7191,
      "##icelist": 7192,
      "Pandora": 7193,
      "!!": 7194,
      "41": 7195,
      "earra": 7196,
      "ugg": 7197,
      "##pers": 7198,
      "##thain": 7199,
      "##inneach": 7200,
      "##lege": 7201,
      "buí": 7202,
      "aisgh": 7203,
      "choinníollacha": 7204,
      "maoinithe": 7205,
      "Cúram": 7206,
      "##léireofar": 7207,
      "##lowjob": 7208,
      "Choinbhinsiún": 7209,
      "Léinn": 7210,
      "##aighnéad": 7211,
      "Saincheaptha": 7212,
      "Adh": 7213,
      "Breath": 7214,
      "BBC": 7215,
      "Lár": 7216,
      "##35": 7217,
      "##99": 7218,
      "##ithn": 7219,
      "bhfuair": 7220,
      "##lie": 7221,
      "##tachtaí": 7222,
      "##earrbh": 7223,
      "idirbheart": 7224,
      "gcomhlíon": 7225,
      "Fhion": 7226,
      "mheasúnú": 7227,
      "##CHA": 7228,
      "##éigean": 7229,
      "##Chat": 7230,
      "innealra": 7231,
      "mháthair": 7232,
      "healaíona": 7233,
      "solúbtha": 7234,
      "Lim": 7235,
      "Rúnaí": 7236,
      "Uir": 7237,
      "céile": 7238,
      "gearradh": 7239,
      "rabh": 7240,
      "teirm": 7241,
      "##UK": 7242,
      "##ject": 7243,
      "##za": 7244,
      "##arlais": 7245,
      "##ones": 7246,
      "throm": 7247,
      "Choláiste": 7248,
      "gcinn": 7249,
      "náisiún": 7250,
      "Arm": 7251,
      "##teacha": 7252,
      "Shábháil": 7253,
      "##eilg": 7254,
      "cleachtais": 7255,
      "cionta": 7256,
      "##IDEA": 7257,
      "##mhéide": 7258,
      "Rúipí": 7259,
      "Ban": 7260,
      "Seapáin": 7261,
      "earc": 7262,
      "fostaíocht": 7263,
      "##tre": 7264,
      "##ota": 7265,
      "##íd": 7266,
      "##SB": 7267,
      "##GA": 7268,
      "##eálfar": 7269,
      "##ainéil": 7270,
      "fheirm": 7271,
      "thaisc": 7272,
      "gcuntas": 7273,
      "##ade": 7274,
      "##rúdaithe": 7275,
      "tarml": 7276,
      "bhíthin": 7277,
      "##úrs": 7278,
      "tuaithe": 7279,
      "dóiteáin": 7280,
      "##aife": 7281,
      "Cumhacht": 7282,
      "míle": 7283,
      "off": 7284,
      "difriúla": 7285,
      "Domhnaigh": 7286,
      "deoch": 7287,
      "margaí": 7288,
      "foilsithe": 7289,
      "hOifig": 7290,
      "Rannóg": 7291,
      "criostail": 7292,
      "05": 7293,
      "Cinn": 7294,
      "Facebook": 7295,
      "TR": 7296,
      "bol": 7297,
      "fiach": 7298,
      "rugadh": 7299,
      "##age": 7300,
      "##óradh": 7301,
      "##inos": 7302,
      "dhea": 7303,
      "cothabhála": 7304,
      "##adóireachta": 7305,
      "##aiteoirí": 7306,
      "suíomhanna": 7307,
      "máthair": 7308,
      "cón": 7309,
      "riail": 7310,
      "bracelet": 7311,
      "leictreacha": 7312,
      "##ilvéise": 7313,
      "gheimhridh": 7314,
      "heagraíochtaí": 7315,
      "Fraincis": 7316,
      "02": 7317,
      "95": 7318,
      "Fág": 7319,
      "gior": 7320,
      "lag": 7321,
      "laoch": 7322,
      "##cráin": 7323,
      "##oideachas": 7324,
      "##leas": 7325,
      "##ófaí": 7326,
      "##íoga": 7327,
      "##ontais": 7328,
      "##eogra": 7329,
      "ingh": 7330,
      "Cheann": 7331,
      "mhún": 7332,
      "shao": 7333,
      "##ibe": 7334,
      "luxurious": 7335,
      "Phlean": 7336,
      "buíochas": 7337,
      "##ionad": 7338,
      "luachanna": 7339,
      "##oker": 7340,
      "gcuirfidh": 7341,
      "##reasta": 7342,
      "Franc": 7343,
      "##exy": 7344,
      "gCuideachtaí": 7345,
      "aigne": 7346,
      "brabús": 7347,
      "bhóthar": 7348,
      "láimhseáil": 7349,
      "eacnamaíocha": 7350,
      "08": 7351,
      "Ball": 7352,
      "Ios": 7353,
      "Maoin": 7354,
      "Rí": 7355,
      "We": 7356,
      "##UN": 7357,
      "##gar": 7358,
      "##ja": 7359,
      "##ily": 7360,
      "bhearta": 7361,
      "##ithíocht": 7362,
      "##eeps": 7363,
      "##aily": 7364,
      "tásc": 7365,
      "##eagair": 7366,
      "forordaithe": 7367,
      "##llaigh": 7368,
      "##eannacht": 7369,
      "##manam": 7370,
      "##ette": 7371,
      "##nóna": 7372,
      "tSeapáin": 7373,
      "príomhch": 7374,
      "ordóidh": 7375,
      "bogadh": 7376,
      "Football": 7377,
      "dhlíth": 7378,
      "##rosoft": 7379,
      "Foghlaim": 7380,
      "Me": 7381,
      "Oíche": 7382,
      "Power": 7383,
      "Ros": 7384,
      "cra": 7385,
      "dia": 7386,
      "reilig": 7387,
      "vid": 7388,
      "éarlais": 7389,
      "##nóirí": 7390,
      "##df": 7391,
      "inro": 7392,
      "roinnte": 7393,
      "chomhshaoil": 7394,
      "astu": 7395,
      "úsáideora": 7396,
      "##irteagail": 7397,
      "bainteach": 7398,
      "u21": 7399,
      "u24": 7400,
      "Chríos": 7401,
      "úinéireacht": 7402,
      "Stiúrthóireacht": 7403,
      "##orparáideach": 7404,
      "soghluaiste": 7405,
      "tobac": 7406,
      "machnamh": 7407,
      "dtagann": 7408,
      "CR": 7409,
      "iv": 7410,
      "maireachtáil": 7411,
      "píosa": 7412,
      "“...": 7413,
      "##no": 7414,
      "##rann": 7415,
      "##cess": 7416,
      "##_C": 7417,
      "##IÚ": 7418,
      "##88": 7419,
      "##eataí": 7420,
      "##eachtanna": 7421,
      "##itimh": 7422,
      "##ailí": 7423,
      "##err": 7424,
      "ghrá": 7425,
      "pró": 7426,
      "##sheas": 7427,
      "Ghaeltacht": 7428,
      "##rionad": 7429,
      "##oibrithe": 7430,
      "##uímh": 7431,
      "Cruinniú": 7432,
      "próisis": 7433,
      "1976": 7434,
      "1952": 7435,
      "Uachtaránacht": 7436,
      "rioscaí": 7437,
      "##ionannais": 7438,
      "##amburg": 7439,
      "caipitil": 7440,
      "comhaontuithe": 7441,
      "Tuirc": 7442,
      "AP": 7443,
      "Gl": 7444,
      "MO": 7445,
      "Riar": 7446,
      "baol": 7447,
      "caomh": 7448,
      "míniú": 7449,
      "Óir": 7450,
      "##áit": 7451,
      "##_R": 7452,
      "##Fo": 7453,
      "##ini": 7454,
      "chónaithe": 7455,
      "##eodh": 7456,
      "##uille": 7457,
      "##ition": 7458,
      "Chathair": 7459,
      "mhair": 7460,
      "##ible": 7461,
      "ghléas": 7462,
      "##eisirí": 7463,
      "mórán": 7464,
      "Pháirt": 7465,
      "trácht": 7466,
      "tsaoil": 7467,
      "##oscaireacht": 7468,
      "##urac": 7469,
      "ceadú": 7470,
      "Ardch": 7471,
      "míre": 7472,
      "Cruth": 7473,
      "##inneog": 7474,
      "straitéisí": 7475,
      "India": 7476,
      "Sainmhíniú": 7477,
      "léarscáil": 7478,
      "Services": 7479,
      "tromchúiseach": 7480,
      "Dó": 7481,
      "Mag": 7482,
      "Times": 7483,
      "gluaist": 7484,
      "la": 7485,
      "moncler": 7486,
      "tim": 7487,
      "uil": 7488,
      "##oi": 7489,
      "##blaí": 7490,
      "##VC": 7491,
      "##ze": 7492,
      "##chláir": 7493,
      "##airist": 7494,
      "dhú": 7495,
      "shíniú": 7496,
      "##iber": 7497,
      "super": 7498,
      "gCiste": 7499,
      "físe": 7500,
      "Inmh": 7501,
      "íocfaidh": 7502,
      "Ghathanna": 7503,
      "Mheith": 7504,
      "hEilvéise": 7505,
      "freagracht": 7506,
      "chostais": 7507,
      "##bour": 7508,
      "oileán": 7509,
      "folctha": 7510,
      "Microsoft": 7511,
      "pionós": 7512,
      "WhatsChat": 7513,
      "thíolacadh": 7514,
      "53": 7515,
      "Dial": 7516,
      "Met": 7517,
      "Sé": 7518,
      "York": 7519,
      "fóg": 7520,
      "gao": 7521,
      "##my": 7522,
      "##_s": 7523,
      "##go": 7524,
      "##ars": 7525,
      "chaidreamh": 7526,
      "fhostóir": 7527,
      "dhéag": 7528,
      "ghear": 7529,
      "##rúin": 7530,
      "Council": 7531,
      "iomaíocht": 7532,
      "iomaíoch": 7533,
      "idirlíon": 7534,
      "oibrí": 7535,
      "gníomhaireachtaí": 7536,
      "##ott": 7537,
      "Soláthar": 7538,
      "Soláthraí": 7539,
      "fheidhmíocht": 7540,
      "réigiúnacha": 7541,
      "láidre": 7542,
      "Gnéithe": 7543,
      "ghné": 7544,
      "chúlghairm": 7545,
      "Sóisialaí": 7546,
      "##national": 7547,
      "thaifeadadh": 7548,
      "AC": 7549,
      "Cearta": 7550,
      "Cumas": 7551,
      "Fin": 7552,
      "GA": 7553,
      "Glas": 7554,
      "Loch": 7555,
      "Long": 7556,
      "Réalta": 7557,
      "Sláint": 7558,
      "gluais": 7559,
      "##cheart": 7560,
      "##ants": 7561,
      "##alú": 7562,
      "##ities": 7563,
      "sagh": 7564,
      "Anailís": 7565,
      "##une": 7566,
      "sho": 7567,
      "marbh": 7568,
      "ionsú": 7569,
      "forlíon": 7570,
      "##lly": 7571,
      "##iosca": 7572,
      "##ltaca": 7573,
      "soláthair": 7574,
      "Tríon": 7575,
      "##stitute": 7576,
      "1967": 7577,
      "Answ": 7578,
      "clárúcháin": 7579,
      "saibhir": 7580,
      "Techn": 7581,
      "49": 7582,
      "56": 7583,
      "CL": 7584,
      "Life": 7585,
      "##mo": 7586,
      "##leibhéal": 7587,
      "chathaoirleach": 7588,
      "##itheora": 7589,
      "iniú": 7590,
      "nasctha": 7591,
      "gníomhaire": 7592,
      "foinse": 7593,
      "Naomh": 7594,
      "choinne": 7595,
      "carbóin": 7596,
      "uasta": 7597,
      "Thuaisceart": 7598,
      "tagartha": 7599,
      "##ield": 7600,
      "urrús": 7601,
      "fíorúil": 7602,
      "díola": 7603,
      "ed": 7604,
      "mam": 7605,
      "raidió": 7606,
      "##Un": 7607,
      "##48": 7608,
      "##quir": 7609,
      "chonradh": 7610,
      "chothrom": 7611,
      "leideanna": 7612,
      "##aineach": 7613,
      "##earthacht": 7614,
      "bhfreagra": 7615,
      "thabharfar": 7616,
      "formhór": 7617,
      "gnólachtaí": 7618,
      "##able": 7619,
      "gcuireann": 7620,
      "Rochtain": 7621,
      "eagla": 7622,
      "##SAMH": 7623,
      "Indiach": 7624,
      "bhronn": 7625,
      "charm": 7626,
      "gcruinniú": 7627,
      "eisceacht": 7628,
      "dlús": 7629,
      "séasúr": 7630,
      "Cúirt": 7631,
      "Fuair": 7632,
      "Gar": 7633,
      "Ior": 7634,
      "Múinteoirí": 7635,
      "Taist": 7636,
      "poll": 7637,
      "úis": 7638,
      "##tt": 7639,
      "##GH": 7640,
      "##ange": 7641,
      "mhac": 7642,
      "##eadáin": 7643,
      "airíonna": 7644,
      "tuarascálacha": 7645,
      "##ney": 7646,
      "top": 7647,
      "bhunús": 7648,
      "Doic": 7649,
      "tábhachtacha": 7650,
      "clúdaithe": 7651,
      "héifeacht": 7652,
      "fostú": 7653,
      "dliteanais": 7654,
      "fórsaí": 7655,
      "conarthaí": 7656,
      "SEASAMH": 7657,
      "mílte": 7658,
      "Answers": 7659,
      "Fú": 7660,
      "Frith": 7661,
      "bal": 7662,
      "feabhsú": 7663,
      "##ole": 7664,
      "##_P": 7665,
      "##ying": 7666,
      "##AO": 7667,
      "##27": 7668,
      "##ility": 7669,
      "##mhithe": 7670,
      "##mhaíocht": 7671,
      "naked": 7672,
      "##aince": 7673,
      "##eifear": 7674,
      "sheeps": 7675,
      "##íric": 7676,
      "nascadh": 7677,
      "1916": 7678,
      "##rasmus": 7679,
      "Shóisialaigh": 7680,
      "tuism": 7681,
      "##aingean": 7682,
      "18K": 7683,
      "ionadaíocht": 7684,
      "clin": 7685,
      "aistriúcháin": 7686,
      "bhformáid": 7687,
      "ligeann": 7688,
      "##ucation": 7689,
      "gaolmhara": 7690,
      "Eagraíocht": 7691,
      "##aitisticí": 7692,
      "Feirste": 7693,
      "Tríonóide": 7694,
      "sheepskin": 7695,
      "1ú": 7696,
      "Be": 7697,
      "Lae": 7698,
      "boinn": 7699,
      "eochair": 7700,
      "iP": 7701,
      "lch": 7702,
      "meabh": 7703,
      "maidin": 7704,
      "othair": 7705,
      "##nuithe": 7706,
      "##TI": 7707,
      "##wa": 7708,
      "##eálaí": 7709,
      "##íochán": 7710,
      "theicniúil": 7711,
      "##áine": 7712,
      "##áire": 7713,
      "##éarach": 7714,
      "##ógais": 7715,
      "pricelist": 7716,
      "##úlra": 7717,
      "Depart": 7718,
      "lánaimseartha": 7719,
      "inarb": 7720,
      "molta": 7721,
      "Feidhmiúcháin": 7722,
      "daonra": 7723,
      "daonla": 7724,
      "##arántas": 7725,
      "Ceadaíonn": 7726,
      "##chuibh": 7727,
      "léargas": 7728,
      "##earsanra": 7729,
      "maoirseachta": 7730,
      "ailse": 7731,
      "##Uachtarán": 7732,
      "Bre": 7733,
      "Data": 7734,
      "Gal": 7735,
      "Las": 7736,
      "PE": 7737,
      "Teacht": 7738,
      "aonar": 7739,
      "cis": 7740,
      "ceannas": 7741,
      "din": 7742,
      "dis": 7743,
      "mill": 7744,
      "nE": 7745,
      "fhostaíocht": 7746,
      "theas": 7747,
      "gcúirt": 7748,
      "##aidhm": 7749,
      "truaill": 7750,
      "aonaid": 7751,
      "comhth": 7752,
      "chomhch": 7753,
      "iomlána": 7754,
      "##arthaí": 7755,
      "fhorchur": 7756,
      "Staid": 7757,
      "teachtaireacht": 7758,
      "##ops": 7759,
      "seachad": 7760,
      "riachtanacha": 7761,
      "ceanglas": 7762,
      "Chuideachta": 7763,
      "##uthor": 7764,
      "Rúisis": 7765,
      "glasraí": 7766,
      "Oscailte": 7767,
      "##ghnéitheacha": 7768,
      "Aoine": 7769,
      "Dír": 7770,
      "Oral": 7771,
      "Pinsean": 7772,
      "Slo": 7773,
      "cló": 7774,
      "fil": 7775,
      "héil": 7776,
      "tinn": 7777,
      "Éil": 7778,
      "##cu": 7779,
      "##ED": 7780,
      "##55": 7781,
      "##thear": 7782,
      "bheatha": 7783,
      "##earg": 7784,
      "dhíl": 7785,
      "##urnae": 7786,
      "aschur": 7787,
      "dtéann": 7788,
      "stu": 7789,
      "##amhsa": 7790,
      "Phoblacht": 7791,
      "léirithe": 7792,
      "Déanta": 7793,
      "saoirse": 7794,
      "oifigí": 7795,
      "##aingéil": 7796,
      "dlíthe": 7797,
      "Oifigeach": 7798,
      "seachtracha": 7799,
      "fógraí": 7800,
      "##athairn": 7801,
      "hiarratais": 7802,
      "insint": 7803,
      "##aireachtála": 7804,
      "sláintiúil": 7805,
      "taispeántas": 7806,
      "cnaipe": 7807,
      "dramhaíola": 7808,
      "hAlban": 7809,
      "vidio": 7810,
      "7ú": 7811,
      "Blowjob": 7812,
      "DC": 7813,
      "Erasmus": 7814,
      "Lagh": 7815,
      "ceiliúradh": 7816,
      "ele": 7817,
      "gin": 7818,
      "mainn": 7819,
      "op": 7820,
      "pre": 7821,
      "Áilleacht": 7822,
      "##uin": 7823,
      "##mhaithe": 7824,
      "choim": 7825,
      "dhaltaí": 7826,
      "##eek": 7827,
      "##enc": 7828,
      "stoic": 7829,
      "iontráil": 7830,
      "luch": 7831,
      "##éalainn": 7832,
      "Chomhphobail": 7833,
      "carachtair": 7834,
      "Fiontar": 7835,
      "Páirtí": 7836,
      "sreabhadh": 7837,
      "cuimilt": 7838,
      "##ghrádú": 7839,
      ":—": 7840,
      "Bal": 7841,
      "Mont": 7842,
      "Toscaireacht": 7843,
      "caid": 7844,
      "fabraic": 7845,
      "lon": 7846,
      "per": 7847,
      "seiceáil": 7848,
      "tam": 7849,
      "taise": 7850,
      "ábalta": 7851,
      "éinne": 7852,
      "’,": 7853,
      "##siú": 7854,
      "##car": 7855,
      "##he": 7856,
      "##otán": 7857,
      "##péir": 7858,
      "##ves": 7859,
      "##aithint": 7860,
      "gceantar": 7861,
      "gcruth": 7862,
      "##ists": 7863,
      "##olait": 7864,
      "##luaite": 7865,
      "Thair": 7866,
      "##oláthar": 7867,
      "##uidéal": 7868,
      "rialála": 7869,
      "Margadh": 7870,
      "##ltanas": 7871,
      "##oto": 7872,
      "foraois": 7873,
      "iarnróid": 7874,
      "dtugann": 7875,
      "foirmiúil": 7876,
      "##airdiúil": 7877,
      "Ranníoc": 7878,
      "fiac": 7879,
      "drugaí": 7880,
      "trasteorann": 7881,
      "##ewelry": 7882,
      "Cirt": 7883,
      "Fomhair": 7884,
      "Pe": 7885,
      "Sol": 7886,
      "Washington": 7887,
      "iris": 7888,
      "ollscoil": 7889,
      "##HE": 7890,
      "##bur": 7891,
      "##earas": 7892,
      "##chead": 7893,
      "chóip": 7894,
      "chuspóir": 7895,
      "##éatad": 7896,
      "##ines": 7897,
      "rothar": 7898,
      "airm": 7899,
      "brunet": 7900,
      "Bhr": 7901,
      "Thar": 7902,
      "chlog": 7903,
      "##ianach": 7904,
      "rialaitheoir": 7905,
      "ngnáth": 7906,
      "##lúin": 7907,
      "Mhar": 7908,
      "cáilíochtaí": 7909,
      "atmais": 7910,
      "120": 7911,
      "aithne": 7912,
      "##leachtanna": 7913,
      "sochaí": 7914,
      "tógadh": 7915,
      "State": 7916,
      "##CHTA": 7917,
      "##litir": 7918,
      "##ission": 7919,
      "Foilsithe": 7920,
      "Glacann": 7921,
      "International": 7922,
      "múnla": 7923,
      "mhuirearú": 7924,
      "creimeadh": 7925,
      "##IDEAL": 7926,
      "Fúinn": 7927,
      "Pu": 7928,
      "Pal": 7929,
      "foch": 7930,
      "##cas": 7931,
      "##DH": 7932,
      "##DM": 7933,
      "agóid": 7934,
      "##dhíol": 7935,
      "gcóir": 7936,
      "##omen": 7937,
      "##ásach": 7938,
      "##eirme": 7939,
      "chomhaon": 7940,
      "##roinn": 7941,
      "neamhcho": 7942,
      "tsochaí": 7943,
      "Stoc": 7944,
      "dúradh": 7945,
      "##mhainne": 7946,
      "##csaig": 7947,
      "mianraí": 7948,
      "##eithiclí": 7949,
      "bpríomh": 7950,
      "vótaí": 7951,
      "##ruchtúr": 7952,
      "foirgnimh": 7953,
      "Spáinnis": 7954,
      "substaintí": 7955,
      "ocsaíd": 7956,
      "Infheistíochta": 7957,
      "##úcairist": 7958,
      "dTuaisceart": 7959,
      "hacmhainní": 7960,
      "Gold": 7961,
      "Mona": 7962,
      "Next": 7963,
      "boscaí": 7964,
      "ceachtar": 7965,
      "dúnta": 7966,
      "##earch": 7967,
      "mhea": 7968,
      "mhainn": 7969,
      "shots": 7970,
      "ghuth": 7971,
      "gnách": 7972,
      "gCo": 7973,
      "Inc": 7974,
      "##radam": 7975,
      "Acmhainní": 7976,
      "deacrachtaí": 7977,
      "Tacaíonn": 7978,
      "Tionól": 7979,
      "calories": 7980,
      "Íseal": 7981,
      "réaltaí": 7982,
      "##ruiséil": 7983,
      "dháileadh": 7984,
      "Cent": 7985,
      "Club": 7986,
      "MS": 7987,
      "On": 7988,
      "OEM": 7989,
      "South": 7990,
      "bor": 7991,
      "li": 7992,
      "more": 7993,
      "misean": 7994,
      "oll": 7995,
      "##tóra": 7996,
      "##zrel": 7997,
      "chomp": 7998,
      "dhualgas": 7999,
      "mhaolú": 8000,
      "comhtháite": 8001,
      "##onadh": 8002,
      "Bhó": 8003,
      "idirghníomh": 8004,
      "##uspóirí": 8005,
      "diúité": 8006,
      "admh": 8007,
      "Leagtar": 8008,
      "taispeántais": 8009,
      "luaidhe": 8010,
      "Croíthe": 8011,
      "Dublin": 8012,
      "Dar": 8013,
      "Iniú": 8014,
      "Mil": 8015,
      "Mach": 8016,
      "Tru": 8017,
      "cam": 8018,
      "cara": 8019,
      "eolaíochta": 8020,
      "##mat": 8021,
      "##mpa": 8022,
      "##gle": 8023,
      "##74": 8024,
      "##ÁIL": 8025,
      "chabhair": 8026,
      "##usa": 8027,
      "##earbh": 8028,
      "chuardach": 8029,
      "##áillí": 8030,
      "thuairim": 8031,
      "##lámhas": 8032,
      "##uirg": 8033,
      "##órsa": 8034,
      "dtrá": 8035,
      "áitribh": 8036,
      "Comhdháil": 8037,
      "##ump": 8038,
      "##eolaíoch": 8039,
      "bainise": 8040,
      "Próis": 8041,
      "250": 8042,
      "##reastal": 8043,
      "vótála": 8044,
      "##orcaigh": 8045,
      "feithicil": 8046,
      "ranníocaíochtaí": 8047,
      "comhpháirtithe": 8048,
      "ainmhí": 8049,
      "England": 8050,
      "gComhphobal": 8051,
      "##aispeánann": 8052,
      "52": 8053,
      "99": 8054,
      "Ciorc": 8055,
      "Deis": 8056,
      "Eolaíochta": 8057,
      "Glo": 8058,
      "Pict": 8059,
      "Sathairn": 8060,
      "Tabharfar": 8061,
      "aib": 8062,
      "breithe": 8063,
      "ga": 8064,
      "gra": 8065,
      "gorm": 8066,
      "nO": 8067,
      "sío": 8068,
      "##ónaí": 8069,
      "##zal": 8070,
      "##ÁS": 8071,
      "##arú": 8072,
      "##eod": 8073,
      "Chon": 8074,
      "Chláir": 8075,
      "mhó": 8076,
      "gcaitheamh": 8077,
      "gcluiche": 8078,
      "tréithe": 8079,
      "scrúduithe": 8080,
      "cuimhne": 8081,
      "##agn": 8082,
      "spórt": 8083,
      "gContae": 8084,
      "athair": 8085,
      "árach": 8086,
      "Ghlac": 8087,
      "##ibheacha": 8088,
      "Athchóirithe": 8089,
      "tiomáint": 8090,
      "1963": 8091,
      "tógtha": 8092,
      "traen": 8093,
      "pláta": 8094,
      "plátáilte": 8095,
      "Linn": 8096,
      "el": 8097,
      "fíon": 8098,
      "léim": 8099,
      "mála": 8100,
      "éisc": 8101,
      "##BA": 8102,
      "chod": 8103,
      "##eomra": 8104,
      "##ores": 8105,
      "gcaithfidh": 8106,
      "##astal": 8107,
      "##igin": 8108,
      "##eamhn": 8109,
      "ghru": 8110,
      "##olo": 8111,
      "##ights": 8112,
      "phoist": 8113,
      "ionfhabh": 8114,
      "##lándáil": 8115,
      "##eanad": 8116,
      "##eme": 8117,
      "##eather": 8118,
      "##ations": 8119,
      "Lucs": 8120,
      "uirb": 8121,
      "Green": 8122,
      "bParlaimint": 8123,
      "United": 8124,
      "diúscairt": 8125,
      "uimhreacha": 8126,
      "cloí": 8127,
      "##lation": 8128,
      "##bhunaithe": 8129,
      "Ainmneacha": 8130,
      "scoirfidh": 8131,
      "Danmhair": 8132,
      "fhógairt": 8133,
      "Limistéar": 8134,
      "teicníc": 8135,
      "saghas": 8136,
      "neamhchoitianta": 8137,
      "AS": 8138,
      "Clú": 8139,
      "Eabh": 8140,
      "Sli": 8141,
      "Seachtain": 8142,
      "caol": 8143,
      "daor": 8144,
      "féad": 8145,
      "facht": 8146,
      "moill": 8147,
      "tomhais": 8148,
      "##DR": 8149,
      "##áras": 8150,
      "##eálann": 8151,
      "bhfeic": 8152,
      "fhéadfar": 8153,
      "Chúirte": 8154,
      "mhíniú": 8155,
      "##osh": 8156,
      "dtogh": 8157,
      "dteanga": 8158,
      "dteastaíonn": 8159,
      "achoimre": 8160,
      "Bhruiséil": 8161,
      "Marc": 8162,
      "neamhbh": 8163,
      "léirmheasanna": 8164,
      "Story": 8165,
      "laghdaithe": 8166,
      "##eáchan": 8167,
      "Amach": 8168,
      "shonraithe": 8169,
      "díbh": 8170,
      "faisin": 8171,
      "##laochlad": 8172,
      "fisiciúil": 8173,
      "Teicneolaíocht": 8174,
      "Ghnóthaí": 8175,
      "vitimíní": 8176,
      "Bogearraí": 8177,
      "Seice": 8178,
      "Lucsamburg": 8179,
      "Ana": 8180,
      "Ben": 8181,
      "Den": 8182,
      "Ríoga": 8183,
      "bailiúchán": 8184,
      "solais": 8185,
      "Ábhair": 8186,
      "##ft": 8187,
      "##choiste": 8188,
      "##thacha": 8189,
      "chaiteachas": 8190,
      "##ustam": 8191,
      "##eofaí": 8192,
      "##ges": 8193,
      "##órtais": 8194,
      "##ainníocht": 8195,
      "##éimhs": 8196,
      "##ives": 8197,
      "ndéanfadh": 8198,
      "##olly": 8199,
      "leasmhara": 8200,
      "Deontais": 8201,
      "Luim": 8202,
      "##ustaiméara": 8203,
      "Buíochas": 8204,
      "éiríonn": 8205,
      "gcuimhne": 8206,
      "Tríú": 8207,
      "mícheart": 8208,
      "éifeachtacht": 8209,
      "Lesbians": 8210,
      "Fire": 8211,
      "Hel": 8212,
      "ban": 8213,
      "ith": 8214,
      "málaí": 8215,
      "polasaí": 8216,
      "##raing": 8217,
      "##ham": 8218,
      "##laith": 8219,
      "##33": 8220,
      "##chiste": 8221,
      "##ladach": 8222,
      "Cheap": 8223,
      "##ínítear": 8224,
      "##éireach": 8225,
      "##eamhan": 8226,
      "##ísh": 8227,
      "##ánaithe": 8228,
      "airt": 8229,
      "Bhreithiúnais": 8230,
      "ionch": 8231,
      "próifíl": 8232,
      "aisghabháil": 8233,
      "##sport": 8234,
      "bhuiséad": 8235,
      "Ráta": 8236,
      "##ization": 8237,
      "Tráchtála": 8238,
      "éireoidh": 8239,
      "Add": 8240,
      "polaitiúla": 8241,
      "comhairliúcháin": 8242,
      "faireachán": 8243,
      "SCEIDEAL": 8244,
      "##bolone": 8245,
      "Scannán": 8246,
      "hinstitiúidí": 8247,
      "Author": 8248,
      "DE": 8249,
      "Dul": 8250,
      "Win": 8251,
      "ce": 8252,
      "píosaí": 8253,
      "rolla": 8254,
      "##níodh": 8255,
      "##uts": 8256,
      "##thch": 8257,
      "##naíochta": 8258,
      "##íoma": 8259,
      "##onic": 8260,
      "##altas": 8261,
      "theach": 8262,
      "inchurtha": 8263,
      "##ery": 8264,
      "achar": 8265,
      "meastar": 8266,
      "Dheireadh": 8267,
      "comhairimh": 8268,
      "socraithe": 8269,
      "chónaí": 8270,
      "hábhar": 8271,
      "iasachtaí": 8272,
      "ANKO": 8273,
      "ballóide": 8274,
      "aitheantais": 8275,
      "bhreithniú": 8276,
      "íomhánna": 8277,
      "Cáilíochta": 8278,
      "Airteagail": 8279,
      "Toisc": 8280,
      "Tour": 8281,
      "beacht": 8282,
      "eint": 8283,
      "fío": 8284,
      "filleadh": 8285,
      "oid": 8286,
      "páipéir": 8287,
      "sorc": 8288,
      "tabhair": 8289,
      "éan": 8290,
      "##DC": 8291,
      "##TC": 8292,
      "##vent": 8293,
      "##MP": 8294,
      "##íob": 8295,
      "##ainí": 8296,
      "bhfíric": 8297,
      "fhéach": 8298,
      "##ittee": 8299,
      "##lás": 8300,
      "##ása": 8301,
      "##áireamh": 8302,
      "comhlíon": 8303,
      "##aidí": 8304,
      "##annadh": 8305,
      "##roup": 8306,
      "##ibrary": 8307,
      "forais": 8308,
      "Comhionannais": 8309,
      "Eorpaí": 8310,
      "##aitéarach": 8311,
      "saoth": 8312,
      "bua": 8313,
      "Cuimhn": 8314,
      "coinníoll": 8315,
      "Sula": 8316,
      "bhuaigh": 8317,
      "inslithe": 8318,
      "faigheann": 8319,
      "híocaíochtaí": 8320,
      "spreagúil": 8321,
      "bheartais": 8322,
      "##vision": 8323,
      "##igiteacha": 8324,
      "Iascaigh": 8325,
      "toirch": 8326,
      "mhuintir": 8327,
      "phríobháideach": 8328,
      "Atha": 8329,
      "Caiteachais": 8330,
      "Dío": 8331,
      "IR": 8332,
      "Rad": 8333,
      "Riail": 8334,
      "cig": 8335,
      "cigire": 8336,
      "páirc": 8337,
      "seamhan": 8338,
      "##tle": 8339,
      "##bu": 8340,
      "##70": 8341,
      "##illí": 8342,
      "fhíorú": 8343,
      "théarmaí": 8344,
      "##itch": 8345,
      "##tálaí": 8346,
      "##óite": 8347,
      "##ighe": 8348,
      "chomhdh": 8349,
      "phion": 8350,
      "foclóir": 8351,
      "##illing": 8352,
      "Ghael": 8353,
      "oiriúint": 8354,
      "cheadúnais": 8355,
      "##gasms": 8356,
      "1988": 8357,
      "Úsáideann": 8358,
      "tuairisceán": 8359,
      "Dearbh": 8360,
      "Slándála": 8361,
      "hachomair": 8362,
      "54": 8363,
      "Ceart": 8364,
      "Digiteach": 8365,
      "Leith": 8366,
      "May": 8367,
      "Sibhialta": 8368,
      "by": 8369,
      "seasta": 8370,
      "Árach": 8371,
      "##oint": 8372,
      "##Sh": 8373,
      "##VID": 8374,
      "##ther": 8375,
      "cheiliúradh": 8376,
      "##íobla": 8377,
      "bhéar": 8378,
      "bhia": 8379,
      "bhalla": 8380,
      "gcreid": 8381,
      "gcúrsaí": 8382,
      "##iscí": 8383,
      "scior": 8384,
      "##áirimh": 8385,
      "##olainn": 8386,
      "mbeart": 8387,
      "rochtana": 8388,
      "bróga": 8389,
      "Bhainc": 8390,
      "##000": 8391,
      "##ustra": 8392,
      "líonraí": 8393,
      "Luach": 8394,
      "Luan": 8395,
      "##ova": 8396,
      "pleanáil": 8397,
      "ainmniúcháin": 8398,
      "##eibhéil": 8399,
      "galair": 8400,
      "Páirteanna": 8401,
      "rásaí": 8402,
      "Turasóireachta": 8403,
      "féideartha": 8404,
      "Amharc": 8405,
      "Breith": 8406,
      "FC": 8407,
      "Foireann": 8408,
      "Mon": 8409,
      "Mich": 8410,
      "Modh": 8411,
      "Nios": 8412,
      "Seach": 8413,
      "Togra": 8414,
      "cith": 8415,
      "hear": 8416,
      "nú": 8417,
      "ocsaig": 8418,
      "rí": 8419,
      "réalta": 8420,
      "##macha": 8421,
      "##óram": 8422,
      "##bia": 8423,
      "##65": 8424,
      "##mhan": 8425,
      "chánach": 8426,
      "##aiste": 8427,
      "##imate": 8428,
      "##asach": 8429,
      "##núin": 8430,
      "duais": 8431,
      "##ense": 8432,
      "sular": 8433,
      "##obair": 8434,
      "##elle": 8435,
      "neamhghná": 8436,
      "léirítear": 8437,
      "tionónta": 8438,
      "Committee": 8439,
      "aistriúchán": 8440,
      "phróisis": 8441,
      "ullmhaithe": 8442,
      "Nuashon": 8443,
      "tiomána": 8444,
      "Bunús": 8445,
      "##pport": 8446,
      "teicneolaíochtaí": 8447,
      "cóireála": 8448,
      "péint": 8449,
      "chleachtais": 8450,
      "Tacaíochta": 8451,
      "deonacha": 8452,
      "dtabharfaidh": 8453,
      "##chuirtear": 8454,
      "Fiont": 8455,
      "samhail": 8456,
      "bheaga": 8457,
      "ráthaíocht": 8458,
      "iniúchta": 8459,
      "78": 8460,
      "Bliana": 8461,
      "Eolais": 8462,
      "Foclóir": 8463,
      "He": 8464,
      "Plaisteach": 8465,
      "SF": 8466,
      "Sea": 8467,
      "taibh": 8468,
      "treal": 8469,
      "##iation": 8470,
      "##oras": 8471,
      "##facha": 8472,
      "##álais": 8473,
      "##video": 8474,
      "##yc": 8475,
      "nótaí": 8476,
      "Chumann": 8477,
      "##ert": 8478,
      "gurbh": 8479,
      "##lot": 8480,
      "chomhshaol": 8481,
      "iarratasóirí": 8482,
      "crann": 8483,
      "cáiliúil": 8484,
      "cáiliúla": 8485,
      "Sprioc": 8486,
      "aisling": 8487,
      "aiseolas": 8488,
      "##riail": 8489,
      "dearcadh": 8490,
      "dlífear": 8491,
      "cleachtas": 8492,
      "Leabú": 8493,
      "##iubh": 8494,
      "Imeachtaí": 8495,
      "cuairteoirí": 8496,
      "clog": 8497,
      "teileaf": 8498,
      "dhiúltú": 8499,
      "Education": 8500,
      "chreidiúint": 8501,
      "sloinnte": 8502,
      "Tairiscint": 8503,
      "rapóirtéir": 8504,
      "ghruaig": 8505,
      "Béal": 8506,
      "Díol": 8507,
      "Em": 8508,
      "EC": 8509,
      "Red": 8510,
      "Rómh": 8511,
      "Sk": 8512,
      "heis": 8513,
      "man": 8514,
      "pdf": 8515,
      "vo": 8516,
      "##eck": 8517,
      "##gú": 8518,
      "Chaibidil": 8519,
      "mhoill": 8520,
      "Tábla": 8521,
      "##gram": 8522,
      "ionchúiseamh": 8523,
      "Philip": 8524,
      "ngabh": 8525,
      "Fhaisnéis": 8526,
      "Nádúr": 8527,
      "rannchuid": 8528,
      "Bronn": 8529,
      "Príobháid": 8530,
      "##ows": 8531,
      "1990": 8532,
      "1000": 8533,
      "##fficial": 8534,
      "##unty": 8535,
      "bhfaigheann": 8536,
      "cheapfaidh": 8537,
      "dúshlán": 8538,
      "Android": 8539,
      "olc": 8540,
      "##iodrá": 8541,
      "##incheap": 8542,
      "Assoc": 8543,
      "Taispeántas": 8544,
      "Caighdeán": 8545,
      "Iompar": 8546,
      "Log": 8547,
      "Tim": 8548,
      "Team": 8549,
      "feirme": 8550,
      "gun": 8551,
      "geimh": 8552,
      "Áis": 8553,
      "chog": 8554,
      "##uss": 8555,
      "seomraí": 8556,
      "shamh": 8557,
      "##rey": 8558,
      "ghrúpaí": 8559,
      "Coda": 8560,
      "##tery": 8561,
      "##phlé": 8562,
      "íocann": 8563,
      "meastóireacht": 8564,
      "Airm": 8565,
      "bainist": 8566,
      "Imeachta": 8567,
      "soilse": 8568,
      "##ava": 8569,
      "hionstraim": 8570,
      "sínithe": 8571,
      "caipitiúil": 8572,
      "píopa": 8573,
      "sláintíochta": 8574,
      "..../": 8575,
      "tionsclaíoch": 8576,
      "atmaisféar": 8577,
      "Aonad": 8578,
      "Cart": 8579,
      "Day": 8580,
      "No": 8581,
      "TE": 8582,
      "aos": 8583,
      "ead": 8584,
      "pait": 8585,
      "sár": 8586,
      "teagh": 8587,
      "##ula": 8588,
      "##HR": 8589,
      "##pph": 8590,
      "##póin": 8591,
      "##taobh": 8592,
      "chleachtas": 8593,
      "thras": 8594,
      "bhfuiltear": 8595,
      "##imhs": 8596,
      "comhgh": 8597,
      "phá": 8598,
      "Bhéal": 8599,
      "spiorad": 8600,
      "##éalach": 8601,
      "Scríbhn": 8602,
      "féinfh": 8603,
      "ngr": 8604,
      "ceannais": 8605,
      "phríos": 8606,
      "316": 8607,
      "Treoirlínte": 8608,
      "##áltas": 8609,
      "Gníomhaireacht": 8610,
      "Pleanáil": 8611,
      "##ience": 8612,
      "seachtainiúil": 8613,
      "hathruithe": 8614,
      "Bhuel": 8615,
      "Kashtanka": 8616,
      "MA": 8617,
      "cadhnraí": 8618,
      "hord": 8619,
      "iarra": 8620,
      "por": 8621,
      "pussy": 8622,
      "súile": 8623,
      "taos": 8624,
      "##ward": 8625,
      "##thrá": 8626,
      "##laíochta": 8627,
      "##uile": 8628,
      "fheabh": 8629,
      "info": 8630,
      "##iteanna": 8631,
      "dhích": 8632,
      "coibh": 8633,
      "cuardaigh": 8634,
      "ioma": 8635,
      "##andaí": 8636,
      "cruinne": 8637,
      "##onartha": 8638,
      "Coimisinéir": 8639,
      "##play": 8640,
      "##pháirtí": 8641,
      "Forb": 8642,
      "Chomhaontú": 8643,
      "eisíodh": 8644,
      "Suas": 8645,
      "##ósadh": 8646,
      "bhuail": 8647,
      "Fraince": 8648,
      ".”,": 8649,
      "thogra": 8650,
      "##ratch": 8651,
      "creidiúnaithe": 8652,
      "feabhsaithe": 8653,
      "##leagáidí": 8654,
      "comhsheas": 8655,
      "Riachta": 8656,
      "gairid": 8657,
      "tapúla": 8658,
      "Pháirtí": 8659,
      "Halla": 8660,
      "Nasc": 8661,
      "Pay": 8662,
      "ROS": 8663,
      "Taobh": 8664,
      "cao": 8665,
      "síniú": 8666,
      "##sing": 8667,
      "##ha": 8668,
      "##oli": 8669,
      "##mon": 8670,
      "##yal": 8671,
      "##irl": 8672,
      "##ilium": 8673,
      "##eitr": 8674,
      "fhoirgneamh": 8675,
      "intu": 8676,
      "mhian": 8677,
      "##isceana": 8678,
      "trosc": 8679,
      "##rog": 8680,
      "brí": 8681,
      "##oise": 8682,
      "Comhdh": 8683,
      "fhorlíonadh": 8684,
      "Mhór": 8685,
      "Leathar": 8686,
      "cóid": 8687,
      "##eilt": 8688,
      "189": 8689,
      "thuaidh": 8690,
      "Iarthar": 8691,
      "chúig": 8692,
      "chumasú": 8693,
      "Tele": 8694,
      "foirgníochta": 8695,
      "europa": 8696,
      "fhada": 8697,
      "##ports": 8698,
      "téip": 8699,
      "cobhsaí": 8700,
      "fhostaí": 8701,
      "bhriseadh": 8702,
      "Limited": 8703,
      "airteag": 8704,
      "96": 8705,
      "Aeir": 8706,
      "ST": 8707,
      "Wind": 8708,
      "teochta": 8709,
      "##ti": 8710,
      "##_D": 8711,
      "##chum": 8712,
      "##mhairtí": 8713,
      "chois": 8714,
      "##onograph": 8715,
      "##rable": 8716,
      "coimhd": 8717,
      "##imint": 8718,
      "##istin": 8719,
      "##núil": 8720,
      "sucking": 8721,
      "##arrth": 8722,
      "##aighdean": 8723,
      "mótar": 8724,
      "sainráite": 8725,
      "déanmhas": 8726,
      "gcomhaontú": 8727,
      "1996": 8728,
      "1994": 8729,
      "ghníomhaire": 8730,
      "##EAN": 8731,
      "31st": 8732,
      "riaradh": 8733,
      "##ualgais": 8734,
      "1924": 8735,
      "1923": 8736,
      "Chuarda": 8737,
      "Socruithe": 8738,
      "síneadh": 8739,
      "pionóis": 8740,
      "Service": 8741,
      "##ragon": 8742,
      "fhoirceannadh": 8743,
      "shásamh": 8744,
      "76": 8745,
      "CM": 8746,
      "Don": 8747,
      "Fair": 8748,
      "German": 8749,
      "caibid": 8750,
      "fóir": 8751,
      "gé": 8752,
      "mon": 8753,
      "meit": 8754,
      "oireann": 8755,
      "tiocfaidh": 8756,
      "##eh": 8757,
      "##ko": 8758,
      "##mas": 8759,
      "##war": 8760,
      "##IAN": 8761,
      "##chumann": 8762,
      "##table": 8763,
      "##ainse": 8764,
      "fhear": 8765,
      "nóta": 8766,
      "dhíreach": 8767,
      "gcaith": 8768,
      "##éadan": 8769,
      "##eicthe": 8770,
      "##éala": 8771,
      "Phr": 8772,
      "íoctar": 8773,
      "iarrtar": 8774,
      "neamhfhoirm": 8775,
      "##éilleadh": 8776,
      "Lena": 8777,
      "cáilitheach": 8778,
      "laghd": 8779,
      "measúnachta": 8780,
      "cumann": 8781,
      "inmheánacha": 8782,
      "##........": 8783,
      "Consilium": 8784,
      "onnmhairiú": 8785,
      "rianú": 8786,
      "mhonarú": 8787,
      "fadtéarmach": 8788,
      "sceimhlitheoireachta": 8789,
      "Caipit": 8790,
      "Eilv": 8791,
      "FÁS": 8792,
      "Mc": 8793,
      "Ríochta": 8794,
      "mall": 8795,
      "##cadóirí": 8796,
      "##_L": 8797,
      "##omhanda": 8798,
      "Chur": 8799,
      "##ign": 8800,
      "shoil": 8801,
      "sceith": 8802,
      "comhpháirteach": 8803,
      "Thionsc": 8804,
      "forléireofar": 8805,
      "forlámhas": 8806,
      "##andy": 8807,
      "rácadóirí": 8808,
      "freagraí": 8809,
      "##eolaí": 8810,
      "##ithreachais": 8811,
      "##olasaithe": 8812,
      "luachmhar": 8813,
      "##iméadar": 8814,
      "##ution": 8815,
      "eispéir": 8816,
      "shonróidh": 8817,
      "slándáil": 8818,
      "breithiúnas": 8819,
      "cuntasaíochta": 8820,
      "Líonra": 8821,
      "UniversityCuntas": 8822,
      "dílsithe": 8823,
      "bláthanna": 8824,
      "dhlíthiúil": 8825,
      "Eilvéis": 8826,
      "Aut": 8827,
      "Clo": 8828,
      "Cana": 8829,
      "Dis": 8830,
      "Fad": 8831,
      "Ho": 8832,
      "líomh": 8833,
      "##ting": 8834,
      "##ríche": 8835,
      "##ódh": 8836,
      "##yan": 8837,
      "##34": 8838,
      "##nad": 8839,
      "##eonach": 8840,
      "##scrúdú": 8841,
      "thaispeán": 8842,
      "Chóir": 8843,
      "gceantair": 8844,
      "##thadh": 8845,
      "##lachas": 8846,
      "chomhlíonann": 8847,
      "##éarchéim": 8848,
      "Coitianta": 8849,
      "Ghrúpa": 8850,
      "##ánachta": 8851,
      "##ubstaint": 8852,
      "bainistíocht": 8853,
      "gnóthaí": 8854,
      "tionó": 8855,
      "lúb": 8856,
      "bhuachan": 8857,
      "Críoch": 8858,
      "thosú": 8859,
      "táirgeachta": 8860,
      "##rent": 8861,
      "White": 8862,
      "suntasacha": 8863,
      "Cárta": 8864,
      "bronntanais": 8865,
      "malartú": 8866,
      "gabhálais": 8867,
      "seaicéid": 8868,
      "Nuálaíochta": 8869,
      "tabhaíodh": 8870,
      "Ca": 8871,
      "Fáil": 8872,
      "Seacht": 8873,
      "cm": 8874,
      "háis": 8875,
      "Éad": 8876,
      "Éasc": 8877,
      "##DE": 8878,
      "##máidí": 8879,
      "##íle": 8880,
      "##OT": 8881,
      "##gu": 8882,
      "##RC": 8883,
      "chlé": 8884,
      "##scéalta": 8885,
      "gcoimeád": 8886,
      "shr": 8887,
      "2021": 8888,
      "##óiv": 8889,
      "##lum": 8890,
      "chomhlachtaí": 8891,
      "chomhrac": 8892,
      "áireofar": 8893,
      "##llar": 8894,
      "saineolas": 8895,
      "áititheoir": 8896,
      "##stair": 8897,
      "tráchta": 8898,
      "bpáistí": 8899,
      "Shamh": 8900,
      "##atam": 8901,
      "oibrigh": 8902,
      "oibreoidh": 8903,
      "Fuinnimh": 8904,
      "foirceannadh": 8905,
      "Soláthair": 8906,
      "cumhachtach": 8907,
      "##iocfadh": 8908,
      "strus": 8909,
      "##key": 8910,
      "thairg": 8911,
      "Asal": 8912,
      "gearrthóg": 8913,
      "hOllscoile": 8914,
      "phleanáil": 8915,
      "iontaobhais": 8916,
      "Eaglais": 8917,
      "urrúis": 8918,
      "luaidhtear": 8919,
      "fhoilsigh": 8920,
      "hairgead": 8921,
      "shaoránaigh": 8922,
      "eascraíonn": 8923,
      "##reasts": 8924,
      "aisghairtear": 8925,
      ";&": 8926,
      "Gra": 8927,
      "Leibhéal": 8928,
      "Mal": 8929,
      "NY": 8930,
      "fonn": 8931,
      "glaoch": 8932,
      "lov": 8933,
      "us": 8934,
      "##kh": 8935,
      "##arb": 8936,
      "chultúrtha": 8937,
      "##eich": 8938,
      "comhlán": 8939,
      "##eánaigh": 8940,
      "Déantús": 8941,
      "tuig": 8942,
      "##ope": 8943,
      "soladach": 8944,
      "Tran": 8945,
      "Treoracha": 8946,
      "##ondon": 8947,
      "1992": 8948,
      "suimiúla": 8949,
      "bhuíochas": 8950,
      "chugat": 8951,
      "pacáistiú": 8952,
      "chúiseanna": 8953,
      "hIar": 8954,
      "thionchar": 8955,
      "Ionstraim": 8956,
      "Íocaíocht": 8957,
      "Pacáistiú": 8958,
      "thrádáil": 8959,
      "##iompartha": 8960,
      "##bhrúite": 8961,
      "Human": 8962,
      "Omega": 8963,
      "earnálacha": 8964,
      "íogair": 8965,
      "giorra": 8966,
      "Eabhrac": 8967,
      "85": 8968,
      "Baint": 8969,
      "Ceamara": 8970,
      "Féile": 8971,
      "Pearsanta": 8972,
      "PVC": 8973,
      "TFC": 8974,
      "app": 8975,
      "balla": 8976,
      "ceantair": 8977,
      "fabh": 8978,
      "feiste": 8979,
      "graf": 8980,
      "mair": 8981,
      "pearsa": 8982,
      "##PC": 8983,
      "##view": 8984,
      "##thion": 8985,
      "##dhéanta": 8986,
      "##use": 8987,
      "##onCuntas": 8988,
      "fhostaithe": 8989,
      "ing": 8990,
      "inst": 8991,
      "##igital": 8992,
      "##lánach": 8993,
      "##eallachta": 8994,
      "triúr": 8995,
      "##rest": 8996,
      "##iblí": 8997,
      "Art": 8998,
      "Cogadh": 8999,
      "ful": 9000,
      "Bhreat": 9001,
      "rialáil": 9002,
      "##ship": 9003,
      "Institute": 9004,
      "cosmaid": 9005,
      "dheisiú": 9006,
      "##ofacht": 9007,
      "tráthnóna": 9008,
      "tosaíochta": 9009,
      "Cuidíonn": 9010,
      "straitéiseach": 9011,
      "Ceannaigh": 9012,
      "Asraon": 9013,
      "háiteanna": 9014,
      "dlíthiúla": 9015,
      "eolaíocht": 9016,
      "cuimhneamh": 9017,
      "tarmligthe": 9018,
      "europapress": 9019,
      "67": 9020,
      "98": 9021,
      "Aud": 9022,
      "Léar": 9023,
      "Réal": 9024,
      "club": 9025,
      "damhsa": 9026,
      "han": 9027,
      "mur": 9028,
      "##den": 9029,
      "##_T": 9030,
      "##_E": 9031,
      "##pend": 9032,
      "##yp": 9033,
      "##IP": 9034,
      "doch": 9035,
      "mhealladh": 9036,
      "##omm": 9037,
      "##erCuntas": 9038,
      "ghá": 9039,
      "##tary": 9040,
      "Bhéarla": 9041,
      "orlach": 9042,
      "Thrá": 9043,
      "##oláthair": 9044,
      "Gheobhaidh": 9045,
      "tSualainn": 9046,
      "hAcht": 9047,
      "Cumhachta": 9048,
      "spriocdháta": 9049,
      "gearrtha": 9050,
      "##ochtúir": 9051,
      "##igeartaithe": 9052,
      "College": 9053,
      "Ilghnéitheacha": 9054,
      "##ranais": 9055,
      "chomaoin": 9056,
      "##laoigh": 9057,
      "Taoiseach": 9058,
      "%)": 9059,
      "Ceanada": 9060,
      "Fais": 9061,
      "Féin": 9062,
      "Gall": 9063,
      "Home": 9064,
      "North": 9065,
      "Sas": 9066,
      "cart": 9067,
      "em": 9068,
      "eacnamaíochta": 9069,
      "fosta": 9070,
      "sw": 9071,
      "sexy": 9072,
      "tonn": 9073,
      "web": 9074,
      "’.": 9075,
      "##now": 9076,
      "##tin": 9077,
      "##raig": 9078,
      "##leachta": 9079,
      "##VD": 9080,
      "##yl": 9081,
      "##isrí": 9082,
      "##ony": 9083,
      "##eartaítear": 9084,
      "inf": 9085,
      "coil": 9086,
      "gcinneadh": 9087,
      "##eráide": 9088,
      "séala": 9089,
      "##lop": 9090,
      "##oire": 9091,
      "##athaoir": 9092,
      "pholait": 9093,
      "##oilg": 9094,
      "úsáideadh": 9095,
      "amhrán": 9096,
      "##lófar": 9097,
      "##lúintí": 9098,
      "gcomhlíonadh": 9099,
      "Trans": 9100,
      "##angua": 9101,
      "##eáchtá": 9102,
      "caillteanais": 9103,
      "aicrileach": 9104,
      "##chtaineacht": 9105,
      "folún": 9106,
      "nDaon": 9107,
      "malartacha": 9108,
      "neamhdhleathach": 9109,
      "Moltar": 9110,
      "athchúrs": 9111,
      "Phortaingéil": 9112,
      "TSín": 9113,
      "iontrála": 9114,
      "##pphire": 9115,
      "64": 9116,
      "69": 9117,
      "Cam": 9118,
      "Fios": 9119,
      "Lao": 9120,
      "Mó": 9121,
      "Ollmhór": 9122,
      "Teil": 9123,
      "Torthaí": 9124,
      "Téarmaí": 9125,
      "bí": 9126,
      "bónais": 9127,
      "daite": 9128,
      "hur": 9129,
      "out": 9130,
      "salach": 9131,
      "tocs": 9132,
      "éinní": 9133,
      "##dacha": 9134,
      "##_b": 9135,
      "##MB": 9136,
      "##ÉA": 9137,
      "##chéile": 9138,
      "##tháir": 9139,
      "##iséid": 9140,
      "charr": 9141,
      "##bhr": 9142,
      "##eál": 9143,
      "bhfógra": 9144,
      "##ostú": 9145,
      "shraith": 9146,
      "aontú": 9147,
      "##íste": 9148,
      "##liz": 9149,
      "##get": 9150,
      "##esh": 9151,
      "oibreoirí": 9152,
      "aturnae": 9153,
      "1995": 9154,
      "urram": 9155,
      "##ealbhóirí": 9156,
      "eagraithe": 9157,
      "1989": 9158,
      "Talún": 9159,
      "reachtaíochta": 9160,
      "cearnach": 9161,
      "##thriall": 9162,
      "leictreachas": 9163,
      "príobháideacha": 9164,
      "fhreagracht": 9165,
      "cainteoirí": 9166,
      "##scríobh": 9167,
      "Iomlán": 9168,
      "trastomhas": 9169,
      "alúmanam": 9170,
      "Iorua": 9171,
      "trealaimh": 9172,
      "3D": 9173,
      "73": 9174,
      "Gabh": 9175,
      "Lio": 9176,
      "Laidin": 9177,
      "Public": 9178,
      "Tí": 9179,
      "Tren": 9180,
      "UK": 9181,
      "Voy": 9182,
      "breath": 9183,
      "jewelry": 9184,
      "seán": 9185,
      "tiubh": 9186,
[...]
