{
  "version": "1.0",
  "truncation": null,
  "padding": null,
  "added_tokens": [
    {
      "id": 0,
      "content": "[UNK]",
      "single_word": false,
      "lstrip": false,
      "rstrip": false,
      "normalized": false,
      "special": true
    },
    {
      "id": 1,
      "content": "[CLS]",
      "single_word": false,
      "lstrip": false,
      "rstrip": false,
      "normalized": false,
      "special": true
    },
    {
      "id": 2,
      "content": "[SEP]",
      "single_word": false,
      "lstrip": false,
      "rstrip": false,
      "normalized": false,
      "special": true
    },
    {
      "id": 3,
      "content": "[PAD]",
      "single_word": false,
      "lstrip": false,
      "rstrip": false,
      "normalized": false,
      "special": true
    },
    {
      "id": 4,
      "content": "[MASK]",
      "single_word": false,
      "lstrip": false,
      "rstrip": false,
      "normalized": false,
      "special": true
    }
  ],
  "normalizer": {
    "type": "NFKC"
  },
  "pre_tokenizer": {
    "type": "Whitespace"
  },
  "post_processor": null,
  "decoder": null,
  "model": {
    "type": "WordPiece",
    "unk_token": "[UNK]",
    "continuing_subword_prefix": "##",
    "max_input_chars_per_word": 100,
    "vocab": {
      "[UNK]": 0,
      "[CLS]": 1,
      "[SEP]": 2,
      "[PAD]": 3,
      "[MASK]": 4,
      "!": 5,
      "\"": 6,
      "#": 7,
      "%": 8,
      "&": 9,
      "'": 10,
      "(": 11,
      ")": 12,
      "*": 13,
      ",": 14,
      "-": 15,
      ".": 16,
      "/": 17,
      "0": 18,
      "1": 19,
      "2": 20,
      "3": 21,
      "4": 22,
      "5": 23,
      "6": 24,
      "7": 25,
      "8": 26,
      "9": 27,
      ":": 28,
      ";": 29,
      "?": 30,
      "@": 31,
      "A": 32,
      "B": 33,
      "C": 34,
      "D": 35,
      "E": 36,
      "F": 37,
      "G": 38,
      "H": 39,
      "I": 40,
      "J": 41,
      "K": 42,
      "L": 43,
      "M": 44,
      "N": 45,
      "O": 46,
      "P": 47,
      "Q": 48,
      "R": 49,
      "S": 50,
      "T": 51,
      "U": 52,
      "V": 53,
      "W": 54,
      "X": 55,
      "Y": 56,
      "Z": 57,
      "[": 58,
      "\\": 59,
      "]": 60,
      "_": 61,
      "a": 62,
      "b": 63,
      "c": 64,
      "d": 65,
      "e": 66,
      "f": 67,
      "g": 68,
      "h": 69,
      "i": 70,
      "j": 71,
      "k": 72,
      "l": 73,
      "m": 74,
      "n": 75,
      "o": 76,
      "p": 77,
      "q": 78,
      "r": 79,
      "s": 80,
      "t": 81,
      "u": 82,
      "v": 83,
      "w": 84,
      "x": 85,
      "y": 86,
      "z": 87,
      "{": 88,
      "}": 89,
      "§": 90,
      "«": 91,
      "­": 92,
      "·": 93,
      "»": 94,
      "Á": 95,
      "Â": 96,
      "Ã": 97,
      "Ä": 98,
      "Å": 99,
      "Ç": 100,
      "É": 101,
      "Í": 102,
      "Ï": 103,
      "Ó": 104,
      "Ô": 105,
      "Õ": 106,
      "Ö": 107,
      "Ø": 108,
      "Ú": 109,
      "Ü": 110,
      "Ý": 111,
      "ß": 112,
      "à": 113,
      "á": 114,
      "â": 115,
      "ã": 116,
      "ä": 117,
      "å": 118,
      "æ": 119,
      "ç": 120,
      "è": 121,
      "é": 122,
      "ê": 123,
      "ë": 124,
      "ì": 125,
      "í": 126,
      "î": 127,
      "ï": 128,
      "ð": 129,
      "ñ": 130,
      "ò": 131,
      "ó": 132,
      "ô": 133,
      "ö": 134,
      "ø": 135,
      "ú": 136,
      "ü": 137,
      "ý": 138,
      "þ": 139,
      "ā": 140,
      "Ă": 141,
      "ă": 142,
      "Ą": 143,
      "Ć": 144,
      "ć": 145,
      "Č": 146,
      "Ė": 147,
      "Ę": 148,
      "ğ": 149,
      "İ": 150,
      "ı": 151,
      "Ł": 152,
      "ł": 153,
      "Ń": 154,
      "Ň": 155,
      "œ": 156,
      "ř": 157,
      "ś": 158,
      "Ş": 159,
      "ş": 160,
      "Š": 161,
      "š": 162,
      "ţ": 163,
      "ů": 164,
      "Ÿ": 165,
      "ż": 166,
      "Ž": 167,
      "ș": 168,
      "Ț": 169,
      "ʼ": 170,
      "̈": 171,
      "̊": 172,
      "̲": 173,
      "Δ": 174,
      "Π": 175,
      "Ω": 176,
      "ά": 177,
      "ή": 178,
      "ί": 179,
      "δ": 180,
      "ι": 181,
      "λ": 182,
      "μ": 183,
      "π": 184,
      "ς": 185,
      "ω": 186,
      "ώ": 187,
      "Д": 188,
      "П": 189,
      "Ш": 190,
      "Я": 191,
      "б": 192,
      "д": 193,
      "и": 194,
      "й": 195,
      "л": 196,
      "п": 197,
      "ч": 198,
      "ш": 199,
      "ы": 200,
      "ю": 201,
      "я": 202,
      "є": 203,
      "ا": 204,
      "ب": 205,
      "ج": 206,
      "ح": 207,
      "ر": 208,
      "ش": 209,
      "ع": 210,
      "ك": 211,
      "ل": 212,
      "و": 213,
      "ي": 214,
      "ٱ": 215,
      "‐": 216,
      "–": 217,
      "—": 218,
      "―": 219,
      "‘": 220,
      "’": 221,
      "‚": 222,
      "“": 223,
      "”": 224,
      "†": 225,
      "‡": 226,
      "•": 227,
      "‰": 228,
      "′": 229,
      "›": 230,
      "※": 231,
      "⁄": 232,
      "⁊": 233,
      "➍": 234,
      "・": 235,
      "初": 236,
      "力": 237,
      "压": 238,
      "头": 239,
      "水": 240,
      "潤": 241,
      "艹": 242,
      "触": 243,
      "餅": 244,
      "##h": 245,
      "##a": 246,
      "##i": 247,
      "##n": 248,
      "##o": 249,
      "##r": 250,
      "##d": 251,
      "##t": 252,
      "##e": 253,
      "##c": 254,
      "##í": 255,
      "##s": 256,
      "##p": 257,
      "##g": 258,
      "##m": 259,
      "##u": 260,
      "##ó": 261,
      "##ú": 262,
      "##l": 263,
      "##á": 264,
      "##b": 265,
      "##2": 266,
      "##1": 267,
      "##L": 268,
      "##A": 269,
      "##k": 270,
      "##é": 271,
      "##y": 272,
      "##F": 273,
      "##T": 274,
      "##ç": 275,
      "##z": 276,
      "##f": 277,
      "##x": 278,
      "##M": 279,
      "##R": 280,
      "##O": 281,
      "##D": 282,
      "##U": 283,
      "##7": 284,
      "##5": 285,
      "##ş": 286,
      "##8": 287,
      "##N": 288,
      "##V": 289,
      "##H": 290,
      "##I": 291,
      "##G": 292,
      "##P": 293,
      "##C": 294,
      "##B": 295,
      "##6": 296,
      "##3": 297,
      "##S": 298,
      "##v": 299,
      "##Ú": 300,
      "##Á": 301,
      "##w": 302,
      "##4": 303,
      "##E": 304,
      "##Í": 305,
      "##Ã": 306,
      "##ı": 307,
      "##Z": 308,
      "##9": 309,
      "##X": 310,
      "##ğ": 311,
      "##K": 312,
      "##Ó": 313,
      "##0": 314,
      "##q": 315,
      "##Y": 316,
      "##j": 317,
      "##W": 318,
      "##Ø": 319,
      "##É": 320,
      "##å": 321,
      "##ö": 322,
      "##ü": 323,
      "##J": 324,
      "##Ş": 325,
      "##ä": 326,
      "##Ü": 327,
      "##Ш": 328,
      "##Q": 329,
      "##è": 330,
      "##μ": 331,
      "##š": 332,
      "##ć": 333,
      "##â": 334,
      "##İ": 335,
      "##Ω": 336,
      "##ś": 337,
      "##ø": 338,
      "##ю": 339,
      "##д": 340,
      "##и": 341,
      "##_": 342,
      "##Â": 343,
      "##Č": 344,
      "##Ý": 345,
      "##я": 346,
      "##ы": 347,
      "##л": 348,
      "##à": 349,
      "##ł": 350,
      "##ô": 351,
      "##ï": 352,
      "##ê": 353,
      "##й": 354,
      "##ñ": 355,
      "##ш": 356,
      "##ب": 357,
      "##ي": 358,
      "##ك": 359,
      "##Ă": 360,
      "##Ą": 361,
      "##Ö": 362,
      "##Ä": 363,
      "##П": 364,
      "##ș": 365,
      "##Ł": 366,
      "##Ę": 367,
      "##ă": 368,
      "##ţ": 369,
      "##ż": 370,
      "##ش": 371,
      "##ر": 372,
      "##ã": 373,
      "##æ": 374,
      "##Ț": 375,
      "##π": 376,
      "##ά": 377,
      "##ω": 378,
      "##Ć": 379,
      "##ل": 380,
      "##ا": 381,
      "##ā": 382,
      "##п": 383,
      "##ч": 384,
      "##δ": 385,
      "##ì": 386,
      "##ج": 387,
      "##ý": 388,
      "##.": 389,
      "##ů": 390,
      "##ι": 391,
      "##ί": 392,
      "##ς": 393,
      "##Ÿ": 394,
      "##Ń": 395,
      "##λ": 396,
      "##ή": 397,
      "##力": 398,
      "##ß": 399,
      "##Š": 400,
      "##ώ": 401,
      "##′": 402,
      "##Ň": 403,
      "##头": 404,
      "##ë": 405,
      "##Ė": 406,
      "##Ï": 407,
      "##ř": 408,
      "##ò": 409,
      "##б": 410,
      "##ea": 411,
      "##ai": 412,
      "##ch": 413,
      "##ir": 414,
      "##th": 415,
      "##in": 416,
      "an": 417,
      "##mh": 418,
      "##ar": 419,
      "##dh": 420,
      "##on": 421,
      "##ta": 422,
      "ag": 423,
      "##il": 424,
      "##is": 425,
      "ch": 426,
      "##na": 427,
      "##us": 428,
      "le": 429,
      "agus": 430,
      "##ach": 431,
      "##an": 432,
      "ar": 433,
      "##ío": 434,
      "bh": 435,
      "##each": 436,
      "##ei": 437,
      "na": 438,
      "##air": 439,
      "##bh": 440,
      "##iú": 441,
      "##id": 442,
      "##ra": 443,
      "##eo": 444,
      "##al": 445,
      "##gh": 446,
      "##la": 447,
      "de": 448,
      "##ean": 449,
      "##ear": 450,
      "##ao": 451,
      "##the": 452,
      "chu": 453,
      "##ad": 454,
      "##ain": 455,
      "##or": 456,
      "nó": 457,
      "##omh": 458,
      "##ais": 459,
      "go": 460,
      "##áil": 461,
      "##as": 462,
      "##íoch": 463,
      "th": 464,
      "##te": 465,
      "in": 466,
      "##aidh": 467,
      "do": 468,
      "gc": 469,
      "##eidh": 470,
      "##inn": 471,
      "dh": 472,
      "sin": 473,
      "##im": 474,
      "fh": 475,
      "##án": 476,
      "##áin": 477,
      "##os": 478,
      "##it": 479,
      "bhf": 480,
      "seo": 481,
      "is": 482,
      "##ig": 483,
      "##eas": 484,
      "##tá": 485,
      "##ithe": 486,
      "##ine": 487,
      "chun": 488,
      "##ás": 489,
      "##lt": 490,
      "##tha": 491,
      "##aithe": 492,
      "##éir": 493,
      "fao": 494,
      "aon": 495,
      "leis": 496,
      "##ith": 497,
      "##óir": 498,
      "tr": 499,
      "##íon": 500,
      "##eann": 501,
      "##éad": 502,
      "##ion": 503,
      "##om": 504,
      "##imh": 505,
      "##ana": 506,
      "mh": 507,
      "##eachta": 508,
      "##ial": 509,
      "##cht": 510,
      "Ch": 511,
      "##eacht": 512,
      "den": 513,
      "cu": 514,
      "##ist": 515,
      "##ail": 516,
      "##eadh": 517,
      "##adh": 518,
      "##uil": 519,
      "sh": 520,
      "sé": 521,
      "##irt": 522,
      "##éan": 523,
      "##aigh": 524,
      "##eith": 525,
      "fé": 526,
      "##ile": 527,
      "##ic": 528,
      "alt": 529,
      "##eag": 530,
      "##far": 531,
      "##lach": 532,
      "sc": 533,
      "du": 534,
      "##aid": 535,
      "mar": 536,
      "faoi": 537,
      "gh": 538,
      "##lá": 539,
      "##íochta": 540,
      "##tear": 541,
      "##re": 542,
      "sa": 543,
      "##áid": 544,
      "##ib": 545,
      "##le": 546,
      "##abh": 547,
      "##un": 548,
      "##ín": 549,
      "##faidh": 550,
      "##éana": 551,
      "mb": 552,
      "bhfuil": 553,
      "##íomh": 554,
      "##oc": 555,
      "##se": 556,
      "##eanna": 557,
      "##li": 558,
      "##tas": 559,
      "##íonn": 560,
      "##idh": 561,
      "##ann": 562,
      "##ead": 563,
      "##rú": 564,
      "comh": 565,
      "atá": 566,
      "##aí": 567,
      "##eal": 568,
      "##ur": 569,
      "##eamh": 570,
      "##airt": 571,
      "##íos": 572,
      "##irg": 573,
      "ina": 574,
      "20": 575,
      "dá": 576,
      "##raí": 577,
      "##eidhm": 578,
      "##nach": 579,
      "##iún": 580,
      "##aith": 581,
      "##igh": 582,
      "##ag": 583,
      "##if": 584,
      "##eoir": 585,
      "##ór": 586,
      "ná": 587,
      "##íocht": 588,
      "tá": 589,
      "ro": 590,
      "##isc": 591,
      "##éanamh": 592,
      "##sc": 593,
      "19": 594,
      "san": 595,
      "eile": 596,
      "ion": 597,
      "bheith": 598,
      "chur": 599,
      "nd": 600,
      "duine": 601,
      "lá": 602,
      "cr": 603,
      "##aidir": 604,
      "##er": 605,
      "##aim": 606,
      "so": 607,
      "lea": 608,
      "##int": 609,
      "dt": 610,
      "dhéanamh": 611,
      "Tá": 612,
      "don": 613,
      "##ire": 614,
      "An": 615,
      "maidir": 616,
      "am": 617,
      "##ír": 618,
      "##éid": 619,
      "##lí": 620,
      "iar": 621,
      "Acht": 622,
      "##aint": 623,
      "##sáid": 624,
      "##tar": 625,
      "chomh": 626,
      "##eir": 627,
      "##oir": 628,
      "##anna": 629,
      "ha": 630,
      "##taí": 631,
      "amh": 632,
      "##ol": 633,
      "réir": 634,
      "##dar": 635,
      "st": 636,
      "##uair": 637,
      "ph": 638,
      "nach": 639,
      "##dú": 640,
      "##oim": 641,
      "##ac": 642,
      "##óg": 643,
      "##éar": 644,
      "ach": 645,
      "bheidh": 646,
      "##eart": 647,
      "as": 648,
      "Is": 649,
      "lena": 650,
      "##nas": 651,
      "##ála": 652,
      "féid": 653,
      "##orp": 654,
      "áir": 655,
      "##isiún": 656,
      "or": 657,
      "##ainn": 658,
      "gach": 659,
      "féidir": 660,
      "##iúil": 661,
      "##lacha": 662,
      "iom": 663,
      "##tais": 664,
      "##iste": 665,
      "##ian": 666,
      "trí": 667,
      "##níomh": 668,
      "##oinn": 669,
      "201": 670,
      "##lu": 671,
      "su": 672,
      "##ialach": 673,
      "##rach": 674,
      "##ru": 675,
      "no": 676,
      "for": 677,
      "##oil": 678,
      "ní": 679,
      "úsáid": 680,
      "##am": 681,
      "níos": 682,
      "##uir": 683,
      "##ath": 684,
      "##ún": 685,
      "lu": 686,
      "leith": 687,
      "sao": 688,
      "##amh": 689,
      "##ghaidh": 690,
      "faoin": 691,
      "##ró": 692,
      "chuid": 693,
      "##en": 694,
      "##óirí": 695,
      "##éim": 696,
      "##ras": 697,
      "##niú": 698,
      "##rí": 699,
      "gcás": 700,
      "##teach": 701,
      "gur": 702,
      "gC": 703,
      "mó": 704,
      "tú": 705,
      "##acht": 706,
      "##ís": 707,
      "##ál": 708,
      "##omhair": 709,
      "##aíochta": 710,
      "##de": 711,
      "##áth": 712,
      "##eid": 713,
      "si": 714,
      "##uid": 715,
      "áit": 716,
      "tar": 717,
      "##íol": 718,
      "##ifig": 719,
      "##láth": 720,
      "##aineann": 721,
      "##aoine": 722,
      "##isce": 723,
      "feidhm": 724,
      "##asc": 725,
      "im": 726,
      "údar": 727,
      "##úil": 728,
      "##chta": 729,
      "##abhairt": 730,
      "déan": 731,
      "Bh": 732,
      "##lán": 733,
      "##ing": 734,
      "##bhar": 735,
      "##eirbh": 736,
      "##eacha": 737,
      "éis": 738,
      "##all": 739,
      "ann": 740,
      "iad": 741,
      "##eist": 742,
      "##né": 743,
      "##eic": 744,
      "cú": 745,
      "haghaidh": 746,
      "##irteag": 747,
      "tA": 748,
      "íoc": 749,
      "dta": 750,
      "##ua": 751,
      "##nó": 752,
      "##st": 753,
      "##ibr": 754,
      "son": 755,
      "dó": 756,
      "##ré": 757,
      "##áirt": 758,
      "##eimh": 759,
      "##lac": 760,
      "##éadfaidh": 761,
      "ath": 762,
      "##ud": 763,
      "ón": 764,
      "##ítear": 765,
      "##ibh": 766,
      "##at": 767,
      "##dir": 768,
      "##fh": 769,
      "##irgead": 770,
      "##irteagal": 771,
      "##ios": 772,
      "beidh": 773,
      "Ar": 774,
      "##ise": 775,
      "Ní": 776,
      "##fidh": 777,
      "Aon": 778,
      "thabhairt": 779,
      "amháin": 780,
      "##achta": 781,
      "##álacha": 782,
      "co": 783,
      "air": 784,
      "##ord": 785,
      "##raithe": 786,
      "##radh": 787,
      "ac": 788,
      "##ph": 789,
      "tré": 790,
      "roimh": 791,
      "##omhairle": 792,
      "##las": 793,
      "##rá": 794,
      "##ich": 795,
      "ré": 796,
      "sp": 797,
      "##ige": 798,
      "fo": 799,
      "##ug": 800,
      "mbeidh": 801,
      "um": 802,
      "##ro": 803,
      "bli": 804,
      "##imhse": 805,
      "to": 806,
      "gcomh": 807,
      "##isin": 808,
      "##lo": 809,
      "rá": 810,
      "méid": 811,
      "gan": 812,
      "##ip": 813,
      "##eang": 814,
      "idir": 815,
      "##aon": 816,
      "amach": 817,
      "siad": 818,
      "##artha": 819,
      "##anta": 820,
      "##éal": 821,
      "isteach": 822,
      "ng": 823,
      "##and": 824,
      "##íne": 825,
      "cos": 826,
      "fho": 827,
      "fhor": 828,
      "Airteagal": 829,
      "thar": 830,
      "##eoirí": 831,
      "fáil": 832,
      "Th": 833,
      "##cháin": 834,
      "##es": 835,
      "meas": 836,
      "##eap": 837,
      "##eá": 838,
      "leas": 839,
      "##iom": 840,
      "##laíonn": 841,
      "Sc": 842,
      "oifig": 843,
      "##uithe": 844,
      "##eil": 845,
      "##ite": 846,
      "##tú": 847,
      "arna": 848,
      "##um": 849,
      "rud": 850,
      "##eirbhís": 851,
      "saor": 852,
      "deimh": 853,
      "má": 854,
      "br": 855,
      "##uar": 856,
      "ts": 857,
      "##onn": 858,
      "Ph": 859,
      "##sh": 860,
      "##ca": 861,
      "mór": 862,
      "200": 863,
      "féin": 864,
      "Rialach": 865,
      "cuid": 866,
      "neamh": 867,
      "##eabh": 868,
      "tréimhse": 869,
      "##thair": 870,
      "##íodh": 871,
      "##aighde": 872,
      "acu": 873,
      "##ll": 874,
      "bhí": 875,
      "##orn": 876,
      "##earr": 877,
      "##eachtaí": 878,
      "##tát": 879,
      "##isiúnta": 880,
      "ain": 881,
      "cinn": 882,
      "##lár": 883,
      "##fear": 884,
      "##ma": 885,
      "##naí": 886,
      "nua": 887,
      "la": 888,
      "##áir": 889,
      "iarra": 890,
      "có": 891,
      "In": 892,
      "ri": 893,
      "##tach": 894,
      "10": 895,
      "airgead": 896,
      "##íse": 897,
      "tAire": 898,
      "##ia": 899,
      "##aibh": 900,
      "leanas": 901,
      "daoine": 902,
      "##aist": 903,
      "##oimisiún": 904,
      "gá": 905,
      "##líon": 906,
      "##órt": 907,
      "##eáil": 908,
      "fháil": 909,
      "##ionsc": 910,
      "##eall": 911,
      "##onar": 912,
      "##aíocht": 913,
      "##raítear": 914,
      "##táit": 915,
      "pl": 916,
      "##íoc": 917,
      "##nithe": 918,
      "cur": 919,
      "Uimh": 920,
      "bun": 921,
      "##alls": 922,
      "gníomh": 923,
      "##eideal": 924,
      "##ill": 925,
      "Aire": 926,
      "léir": 927,
      "ábhar": 928,
      "##lacht": 929,
      "##ob": 930,
      "##ost": 931,
      "maith": 932,
      "##ilt": 933,
      "##liain": 934,
      "##ógra": 935,
      "rialach": 936,
      "##acha": 937,
      "##nn": 938,
      "##ce": 939,
      "##lú": 940,
      "##aisné": 941,
      "##ná": 942,
      "ionad": 943,
      "Eorp": 944,
      "mo": 945,
      "ceann": 946,
      "údarás": 947,
      "chuig": 948,
      "Ag": 949,
      "ordú": 950,
      "fr": 951,
      "críoch": 952,
      "EN": 953,
      "##ialta": 954,
      "##éile": 955,
      "cuir": 956,
      "##arr": 957,
      "bhaineann": 958,
      "##ríomh": 959,
      "sna": 960,
      "oibr": 961,
      "##CH": 962,
      "##laim": 963,
      "##láin": 964,
      "St": 965,
      "##ter": 966,
      "##og": 967,
      "##ánach": 968,
      "##ibé": 969,
      "##et": 970,
      "ainm": 971,
      "##ins": 972,
      "##íobh": 973,
      "chú": 974,
      "iarr": 975,
      "##pa": 976,
      "##uí": 977,
      "##sú": 978,
      "##oirm": 979,
      "bhun": 980,
      "con": 981,
      "uair": 982,
      "bhfeidhm": 983,
      "##ait": 984,
      "cibé": 985,
      "##ích": 986,
      "##iúir": 987,
      "éag": 988,
      "aisce": 989,
      "aige": 990,
      "sonraí": 991,
      "##ois": 992,
      "linn": 993,
      "Déan": 994,
      "cial": 995,
      "agh": 996,
      "iarratas": 997,
      "aghaidh": 998,
      "##oláth": 999,
      "##uill": 1000,
      "táirg": 1001,
      "bp": 1002,
      "raibh": 1003,
      "##aoin": 1004,
      "éif": 1005,
      "más": 1006,
      "lé": 1007,
      "Beidh": 1008,
      "##ge": 1009,
      "##innt": 1010,
      "Má": 1011,
      "##lacadh": 1012,
      "##áis": 1013,
      "leat": 1014,
      "##obh": 1015,
      "hA": 1016,
      "##airm": 1017,
      "##earta": 1018,
      "cead": 1019,
      "##iúla": 1020,
      "##oinníol": 1021,
      "##éirí": 1022,
      "lean": 1023,
      "Gh": 1024,
      "leag": 1025,
      "nuair": 1026,
      "##luich": 1027,
      "##eachas": 1028,
      "dtí": 1029,
      "Rialachán": 1030,
      "dhá": 1031,
      "dhéan": 1032,
      "cru": 1033,
      "##eis": 1034,
      "hE": 1035,
      "##ara": 1036,
      "##untas": 1037,
      "##eola": 1038,
      "##éanna": 1039,
      "##réir": 1040,
      "##aire": 1041,
      "féadfaidh": 1042,
      "##ainist": 1043,
      "rial": 1044,
      "##EA": 1045,
      "ndéan": 1046,
      "dul": 1047,
      "rogh": 1048,
      "dtag": 1049,
      "porn": 1050,
      "fre": 1051,
      "ard": 1052,
      "##bairt": 1053,
      "áirithe": 1054,
      "ans": 1055,
      "##óidh": 1056,
      "trá": 1057,
      "seirbhís": 1058,
      "bhr": 1059,
      "freisin": 1060,
      "##el": 1061,
      "líne": 1062,
      "bhliain": 1063,
      "##cha": 1064,
      "##ct": 1065,
      "##00": 1066,
      "##íochtaí": 1067,
      "##rom": 1068,
      "ais": 1069,
      "Co": 1070,
      "##sa": 1071,
      "dáta": 1072,
      "tal": 1073,
      "scr": 1074,
      "##mhair": 1075,
      "##inneadh": 1076,
      "##aing": 1077,
      "bhfo": 1078,
      "##ard": 1079,
      "dlí": 1080,
      "ciallaíonn": 1081,
      "dír": 1082,
      "ndáil": 1083,
      "cion": 1084,
      "##arlaim": 1085,
      "Mh": 1086,
      "##nna": 1087,
      "##AI": 1088,
      "chéad": 1089,
      "mé": 1090,
      "##inne": 1091,
      "Ro": 1092,
      "##eath": 1093,
      "##nú": 1094,
      "##eán": 1095,
      "##ós": 1096,
      "mbaineann": 1097,
      "##iúr": 1098,
      "##úirt": 1099,
      "cho": 1100,
      "Comh": 1101,
      "##rian": 1102,
      "##laidh": 1103,
      "##arc": 1104,
      "##arlaimint": 1105,
      "amhlaidh": 1106,
      "sí": 1107,
      "bliana": 1108,
      "aist": 1109,
      "##chuí": 1110,
      "ailt": 1111,
      "##io": 1112,
      "sórt": 1113,
      "deir": 1114,
      "##álta": 1115,
      "Féadfaidh": 1116,
      "fearr": 1117,
      "dtagraítear": 1118,
      "##oib": 1119,
      "##aíochtaí": 1120,
      "bith": 1121,
      "##aile": 1122,
      "iomchuí": 1123,
      "##ne": 1124,
      "##eor": 1125,
      "##aisnéis": 1126,
      "tráth": 1127,
      "##ár": 1128,
      "##íor": 1129,
      "##éadf": 1130,
      "##aill": 1131,
      "##íl": 1132,
      "12": 1133,
      "mír": 1134,
      "##ireann": 1135,
      "críocha": 1136,
      "cheart": 1137,
      "##ura": 1138,
      "Mar": 1139,
      "##tr": 1140,
      "cheann": 1141,
      "##thú": 1142,
      "##aistigh": 1143,
      "##alta": 1144,
      "deimhnithe": 1145,
      "##éadfar": 1146,
      "##osta": 1147,
      "ár": 1148,
      "lagh": 1149,
      "##ón": 1150,
      "feidhme": 1151,
      "Balls": 1152,
      "clá": 1153,
      "Le": 1154,
      "##uilleadh": 1155,
      "páirt": 1156,
      "##ábh": 1157,
      "##char": 1158,
      "iomlán": 1159,
      "gnó": 1160,
      "##olas": 1161,
      "hEorp": 1162,
      "##ent": 1163,
      "mB": 1164,
      "stiúir": 1165,
      "##aip": 1166,
      "hEorpa": 1167,
      "##táil": 1168,
      "bhaint": 1169,
      "ba": 1170,
      "ear": 1171,
      "##eoidh": 1172,
      "shon": 1173,
      "dea": 1174,
      "laistigh": 1175,
      "##iúnach": 1176,
      "áirítear": 1177,
      "tu": 1178,
      "fógra": 1179,
      "roinnt": 1180,
      "##pháirt": 1181,
      "##ram": 1182,
      "fad": 1183,
      "##ineál": 1184,
      "gcomhréir": 1185,
      "inn": 1186,
      "##ID": 1187,
      "18": 1188,
      "Sh": 1189,
      "leor": 1190,
      "##ríbh": 1191,
      "##aighdeán": 1192,
      "##náth": 1193,
      "soláth": 1194,
      "iomp": 1195,
      "##siú": 1196,
      "mheas": 1197,
      "##namh": 1198,
      "Achta": 1199,
      "aistr": 1200,
      "Con": 1201,
      "Tr": 1202,
      "pr": 1203,
      "##únach": 1204,
      "##thaí": 1205,
      "Aontais": 1206,
      "##ant": 1207,
      "##dáil": 1208,
      "##ioc": 1209,
      "éifeacht": 1210,
      "leo": 1211,
      "Ion": 1212,
      "##úir": 1213,
      "##oinníollacha": 1214,
      "Fh": 1215,
      "##eana": 1216,
      "Cuntas": 1217,
      "##ásta": 1218,
      "chos": 1219,
      "##aise": 1220,
      "láith": 1221,
      "luach": 1222,
      "haon": 1223,
      "##thóir": 1224,
      "Leas": 1225,
      "duit": 1226,
      "##aobh": 1227,
      "##iar": 1228,
      "díreach": 1229,
      "feadh": 1230,
      "oir": 1231,
      "éagsú": 1232,
      "##ló": 1233,
      "##oiblí": 1234,
      "##op": 1235,
      "##oimisin": 1236,
      "líon": 1237,
      "##ga": 1238,
      "##bair": 1239,
      "##líonadh": 1240,
      "##taithe": 1241,
      "##da": 1242,
      "chóir": 1243,
      "##eofar": 1244,
      "Coimisiún": 1245,
      "síos": 1246,
      "##éanann": 1247,
      "##uaim": 1248,
      "eis": 1249,
      "##mhacht": 1250,
      "##dála": 1251,
      "##éil": 1252,
      "éil": 1253,
      "##tála": 1254,
      "##iaidh": 1255,
      "bu": 1256,
      "##únas": 1257,
      "chr": 1258,
      "forálacha": 1259,
      "láthair": 1260,
      "soil": 1261,
      "Iar": 1262,
      "Eorpach": 1263,
      "CE": 1264,
      "tS": 1265,
      "##úis": 1266,
      "##ed": 1267,
      "chéile": 1268,
      "##iúch": 1269,
      "##ibre": 1270,
      "AE": 1271,
      "##reith": 1272,
      "dl": 1273,
      "ríomh": 1274,
      "##oin": 1275,
      "##eád": 1276,
      "##aoil": 1277,
      "##mhainn": 1278,
      "mhéid": 1279,
      "ii": 1280,
      "dear": 1281,
      "##eicn": 1282,
      "sain": 1283,
      "##oibr": 1284,
      "cuideachta": 1285,
      "scéim": 1286,
      "##abhar": 1287,
      "##agairt": 1288,
      "##ríbhinn": 1289,
      "ord": 1290,
      "##ears": 1291,
      "cluich": 1292,
      "##eala": 1293,
      "##CHT": 1294,
      "tionsc": 1295,
      "##óis": 1296,
      "##racha": 1297,
      "dú": 1298,
      "##úint": 1299,
      "##aítear": 1300,
      "teacht": 1301,
      "gcuid": 1302,
      "##iúint": 1303,
      "##aif": 1304,
      "nós": 1305,
      "áireamh": 1306,
      "tos": 1307,
      "Ard": 1308,
      "15": 1309,
      "uisce": 1310,
      "##ong": 1311,
      "infh": 1312,
      "Agus": 1313,
      "Chun": 1314,
      "Stát": 1315,
      "##úr": 1316,
      "##úl": 1317,
      "sholáth": 1318,
      "iarraidh": 1319,
      "##oimeád": 1320,
      "monar": 1321,
      "##imp": 1322,
      "suas": 1323,
      "téar": 1324,
      "ghabh": 1325,
      "Ba": 1326,
      "tuair": 1327,
      "##istí": 1328,
      "seirbhísí": 1329,
      "mí": 1330,
      "##láinte": 1331,
      "11": 1332,
      "Cuir": 1333,
      "##lé": 1334,
      "##omp": 1335,
      "##tal": 1336,
      "chead": 1337,
      "##óid": 1338,
      "mhí": 1339,
      "Airgead": 1340,
      "aic": 1341,
      "##aoi": 1342,
      "##icim": 1343,
      "For": 1344,
      "ur": 1345,
      "##aic": 1346,
      "comhair": 1347,
      "##tae": 1348,
      "##ealbh": 1349,
      "imeachta": 1350,
      "Sp": 1351,
      "##ruithe": 1352,
      "rann": 1353,
      "mhír": 1354,
      "Rial": 1355,
      "##aireacht": 1356,
      "##ladh": 1357,
      "##eachtain": 1358,
      "mbeadh": 1359,
      "gheall": 1360,
      "##aisc": 1361,
      "##éarla": 1362,
      "déanfar": 1363,
      "beag": 1364,
      "##luais": 1365,
      "féach": 1366,
      "Lch": 1367,
      "ceart": 1368,
      "gt": 1369,
      "##caim": 1370,
      "##pla": 1371,
      "##nadh": 1372,
      "##aol": 1373,
      "##áiste": 1374,
      "##ófar": 1375,
      "riachta": 1376,
      "cheap": 1377,
      "##eisteanna": 1378,
      "##irtear": 1379,
      "éagsúla": 1380,
      "De": 1381,
      "##ot": 1382,
      "##ús": 1383,
      "##thar": 1384,
      "fén": 1385,
      "seachas": 1386,
      "##ragh": 1387,
      "tac": 1388,
      "##fa": 1389,
      "gComhairle": 1390,
      "##raith": 1391,
      "dtaobh": 1392,
      "Seo": 1393,
      "tair": 1394,
      "##ugtar": 1395,
      "céanna": 1396,
      "##aoir": 1397,
      "##altaí": 1398,
      "##reag": 1399,
      "ghlacadh": 1400,
      "roimhe": 1401,
      "##éadfadh": 1402,
      "Ballstáit": 1403,
      "chru": 1404,
      "##ers": 1405,
      "##uarasc": 1406,
      "##oimisinéirí": 1407,
      "bhrí": 1408,
      "199": 1409,
      "cáil": 1410,
      "airgeadais": 1411,
      "tion": 1412,
      "##aisp": 1413,
      "dhu": 1414,
      "##oinne": 1415,
      "pé": 1416,
      "##raim": 1417,
      "freag": 1418,
      "Dh": 1419,
      "fheidhm": 1420,
      "##maí": 1421,
      "Tw": 1422,
      "##ust": 1423,
      "##eachais": 1424,
      "oifigeach": 1425,
      "hú": 1426,
      "siú": 1427,
      "suim": 1428,
      "dóibh": 1429,
      "AN": 1430,
      "coinníollacha": 1431,
      "amp": 1432,
      "pland": 1433,
      "Ach": 1434,
      "##eagh": 1435,
      "Airgeadais": 1436,
      "chó": 1437,
      "##ailte": 1438,
      "##íní": 1439,
      "##ianaise": 1440,
      "obair": 1441,
      "##AR": 1442,
      "192": 1443,
      "eag": 1444,
      "rith": 1445,
      "##íoctha": 1446,
      "Béarla": 1447,
      "mura": 1448,
      "##thu": 1449,
      "ghnó": 1450,
      "##ábháil": 1451,
      "II": 1452,
      "cl": 1453,
      "##saí": 1454,
      "##iscint": 1455,
      "193": 1456,
      "leibh": 1457,
      "##eáin": 1458,
      "##tóir": 1459,
      "##réas": 1460,
      "réim": 1461,
      "##iúin": 1462,
      "##iúcháin": 1463,
      "sco": 1464,
      "##llmh": 1465,
      "##chair": 1466,
      "Chomh": 1467,
      "##iomlán": 1468,
      "cuí": 1469,
      "leath": 1470,
      "gcó": 1471,
      "Cu": 1472,
      "##chur": 1473,
      "náisiúnta": 1474,
      "##achtaí": 1475,
      "áitr": 1476,
      "Chomhairle": 1477,
      "##reise": 1478,
      "30": 1479,
      "##IN": 1480,
      "##imhe": 1481,
      "Fuaim": 1482,
      "196": 1483,
      "eolas": 1484,
      "rialacha": 1485,
      "##eisialta": 1486,
      "cun": 1487,
      "##aiteach": 1488,
      "##mheas": 1489,
      "Ga": 1490,
      "##eatha": 1491,
      "##ealach": 1492,
      "##eannach": 1493,
      "##raíonn": 1494,
      "talamh": 1495,
      "##earsanta": 1496,
      "cé": 1497,
      "táirgí": 1498,
      "físe": 1499,
      "háir": 1500,
      "thu": 1501,
      "Tuilleadh": 1502,
      "197": 1503,
      "14": 1504,
      "##ims": 1505,
      "déanta": 1506,
      "##iv": 1507,
      "##eagmh": 1508,
      "bhíonn": 1509,
      "##rúpa": 1510,
      "tríd": 1511,
      "13": 1512,
      "ráta": 1513,
      "##sp": 1514,
      "beart": 1515,
      "##reach": 1516,
      "chlá": 1517,
      "##éis": 1518,
      "lae": 1519,
      "##inear": 1520,
      "ceap": 1521,
      "min": 1522,
      "##LA": 1523,
      "##imist": 1524,
      "Fuaimniú": 1525,
      "Sa": 1526,
      "##uirear": 1527,
      "bra": 1528,
      "##ort": 1529,
      "cumh": 1530,
      "fu": 1531,
      "##aird": 1532,
      "##lais": 1533,
      "##TH": 1534,
      "chlo": 1535,
      "déanfaidh": 1536,
      "##óra": 1537,
      "iníoctha": 1538,
      "baint": 1539,
      "ceang": 1540,
      "domh": 1541,
      "chion": 1542,
      "##réasáin": 1543,
      "dhaoine": 1544,
      "ansin": 1545,
      "##inearálta": 1546,
      "doicim": 1547,
      "##íche": 1548,
      "16": 1549,
      "Oifig": 1550,
      "iasc": 1551,
      "of": 1552,
      "##raf": 1553,
      "##darás": 1554,
      "áitiúil": 1555,
      "Sceideal": 1556,
      "##ict": 1557,
      "##IS": 1558,
      "##éadú": 1559,
      "bhu": 1560,
      "ghníomh": 1561,
      "##dach": 1562,
      "bhfor": 1563,
      "##eon": 1564,
      "aer": 1565,
      "##ala": 1566,
      "##MH": 1567,
      "##aig": 1568,
      "##igean": 1569,
      "##oll": 1570,
      "tAcht": 1571,
      "háirithe": 1572,
      "soc": 1573,
      "tagairt": 1574,
      "Go": 1575,
      "##ocal": 1576,
      "Faoi": 1577,
      "pró": 1578,
      "aith": 1579,
      "uir": 1580,
      "deon": 1581,
      "scair": 1582,
      "rialacháin": 1583,
      "réas": 1584,
      "aois": 1585,
      "##ata": 1586,
      "##cmhainn": 1587,
      "orthu": 1588,
      "inmh": 1589,
      "chuideachta": 1590,
      "teor": 1591,
      "Bord": 1592,
      "Cr": 1593,
      "uile": 1594,
      "cheang": 1595,
      "Chuid": 1596,
      "bliain": 1597,
      "modh": 1598,
      "lú": 1599,
      "cum": 1600,
      "##ation": 1601,
      "deimhniú": 1602,
      "Ná": 1603,
      "##eilge": 1604,
      "##iúrthóir": 1605,
      "##náisiúnta": 1606,
      "##aráid": 1607,
      "tás": 1608,
      "tug": 1609,
      "Pharlaimint": 1610,
      "CU": 1611,
      "tras": 1612,
      "##gadh": 1613,
      "##bhreith": 1614,
      "##eirbhíse": 1615,
      "leibhéal": 1616,
      "##aimh": 1617,
      "fhéadfadh": 1618,
      "bainist": 1619,
      "##acháin": 1620,
      "lios": 1621,
      "##laigh": 1622,
      "dhéanann": 1623,
      "##iteach": 1624,
      "Chúirt": 1625,
      "leasú": 1626,
      "##raghas": 1627,
      "mion": 1628,
      "##IR": 1629,
      "##aite": 1630,
      "agat": 1631,
      "##osca": 1632,
      "athrú": 1633,
      "Coimisinéirí": 1634,
      "##aíonn": 1635,
      "chuir": 1636,
      "##ut": 1637,
      "##lean": 1638,
      "##aontú": 1639,
      "Na": 1640,
      "foir": 1641,
      "gné": 1642,
      "diú": 1643,
      "##naithe": 1644,
      "##íniú": 1645,
      "áirith": 1646,
      "anseo": 1647,
      "deireadh": 1648,
      "Comhairle": 1649,
      "##uigh": 1650,
      "riar": 1651,
      "tSín": 1652,
      "tor": 1653,
      "speisialta": 1654,
      "chloig": 1655,
      "toil": 1656,
      "breith": 1657,
      "earraí": 1658,
      "déana": 1659,
      "os": 1660,
      "sholáthar": 1661,
      "##achtar": 1662,
      "##eora": 1663,
      "##obail": 1664,
      "hé": 1665,
      "limist": 1666,
      "##ómhair": 1667,
      "##alt": 1668,
      "##itiú": 1669,
      "##iteas": 1670,
      "Br": 1671,
      "bearta": 1672,
      "tho": 1673,
      "di": 1674,
      "25": 1675,
      "##land": 1676,
      "##throm": 1677,
      "##inneo": 1678,
      "##eithic": 1679,
      "##straim": 1680,
      "bunaithe": 1681,
      "príomh": 1682,
      "195": 1683,
      "gréasáin": 1684,
      "##ang": 1685,
      "##chtanna": 1686,
      "rinneadh": 1687,
      "##póir": 1688,
      "##áip": 1689,
      "chon": 1690,
      "cánach": 1691,
      "##ora": 1692,
      "##eanas": 1693,
      "##aib": 1694,
      "##abháil": 1695,
      "##uarascáil": 1696,
      "17": 1697,
      "Cé": 1698,
      "mian": 1699,
      "scríbhinn": 1700,
      "Stáit": 1701,
      "##íola": 1702,
      "##rúdú": 1703,
      "##irgid": 1704,
      "chuige": 1705,
      "##org": 1706,
      "ís": 1707,
      "aistriú": 1708,
      "liún": 1709,
      "##me": 1710,
      "Chéad": 1711,
      "hiomlán": 1712,
      "##irgn": 1713,
      "íos": 1714,
      "##áidí": 1715,
      "##uim": 1716,
      "##ment": 1717,
      "ndear": 1718,
      "##róidh": 1719,
      "Corp": 1720,
      "##leag": 1721,
      "creid": 1722,
      "##riangh": 1723,
      "ghabhann": 1724,
      "dif": 1725,
      "déanamh": 1726,
      "hÉ": 1727,
      "##ul": 1728,
      "##antúil": 1729,
      "##faí": 1730,
      "##itiúid": 1731,
      "pearsanta": 1732,
      "198": 1733,
      "##róid": 1734,
      "cinneadh": 1735,
      "ndéanfar": 1736,
      "##ág": 1737,
      "láithre": 1738,
      "vó": 1739,
      "iniúch": 1740,
      "oiriúnach": 1741,
      "##órais": 1742,
      "##ola": 1743,
      "thug": 1744,
      "Eorpaigh": 1745,
      "##tion": 1746,
      "##eam": 1747,
      "chás": 1748,
      "thóg": 1749,
      "Fómhair": 1750,
      "éad": 1751,
      "##itheoir": 1752,
      "mhaith": 1753,
      "cuireadh": 1754,
      "##úna": 1755,
      "chum": 1756,
      "thos": 1757,
      "gcéad": 1758,
      "##lachtaí": 1759,
      "féachaint": 1760,
      "CUID": 1761,
      "Nuair": 1762,
      "##AN": 1763,
      "##reon": 1764,
      "##stitiúid": 1765,
      "##lann": 1766,
      "áitreabh": 1767,
      "clár": 1768,
      "##ocht": 1769,
      "##thas": 1770,
      "##eat": 1771,
      "##alar": 1772,
      "##ordú": 1773,
      "staid": 1774,
      "dhuine": 1775,
      "##bhair": 1776,
      "##raíocht": 1777,
      "##nais": 1778,
      "##raing": 1779,
      "HD": 1780,
      "cabh": 1781,
      "fiú": 1782,
      "faisnéis": 1783,
      "taobh": 1784,
      "##ior": 1785,
      "##alg": 1786,
      "gcion": 1787,
      "24": 1788,
      "lán": 1789,
      "##eireadh": 1790,
      "údaráis": 1791,
      "measc": 1792,
      "##aipit": 1793,
      "éileamh": 1794,
      "díol": 1795,
      "##bla": 1796,
      "##ideachais": 1797,
      "##eiceáil": 1798,
      "Ceisteanna": 1799,
      "aonair": 1800,
      "téarma": 1801,
      "dar": 1802,
      "teagmh": 1803,
      "##eannas": 1804,
      "suíomh": 1805,
      "##rán": 1806,
      "cail": 1807,
      "##úla": 1808,
      "##inniú": 1809,
      "Ioncaim": 1810,
      "000": 1811,
      "ionta": 1812,
      "##oils": 1813,
      "togh": 1814,
      "rogha": 1815,
      "Más": 1816,
      "##tu": 1817,
      "194": 1818,
      "dhéanfaidh": 1819,
      "dí": 1820,
      "##áirg": 1821,
      "##únú": 1822,
      "##aisnéise": 1823,
      "huair": 1824,
      "Soláth": 1825,
      "cad": 1826,
      "##íre": 1827,
      "chomhlíonadh": 1828,
      "déanaí": 1829,
      "hÉireann": 1830,
      "##ointe": 1831,
      "##iu": 1832,
      "##eanta": 1833,
      "##imid": 1834,
      "Bhí": 1835,
      "ábhartha": 1836,
      "##obal": 1837,
      "sm": 1838,
      "##inéir": 1839,
      "##omharc": 1840,
      "thr": 1841,
      "##scoil": 1842,
      "ndiaidh": 1843,
      "##ustaim": 1844,
      "plandaí": 1845,
      "muid": 1846,
      "oibre": 1847,
      "##ána": 1848,
      "##arn": 1849,
      "##earraí": 1850,
      "fhonn": 1851,
      "##eachtas": 1852,
      "2017": 1853,
      "Roimhe": 1854,
      "##ailt": 1855,
      "mhonar": 1856,
      "##od": 1857,
      "##iocfaidh": 1858,
      "griangh": 1859,
      "##aitheoir": 1860,
      "Déanfar": 1861,
      "Roinn": 1862,
      "poiblí": 1863,
      "Rialacháin": 1864,
      "cóir": 1865,
      "eas": 1866,
      "Déanfaidh": 1867,
      "Com": 1868,
      "Eur": 1869,
      "bP": 1870,
      "díobh": 1871,
      "tóg": 1872,
      "ullmh": 1873,
      "##aine": 1874,
      "2016": 1875,
      "fás": 1876,
      "iúl": 1877,
      "sr": 1878,
      "##cam": 1879,
      "##chán": 1880,
      "##áilte": 1881,
      "##aibid": 1882,
      "huaire": 1883,
      "##iam": 1884,
      "##óireachta": 1885,
      "úsáidtear": 1886,
      "##rích": 1887,
      "dháta": 1888,
      "##eet": 1889,
      "bhain": 1890,
      "mho": 1891,
      "rialú": 1892,
      "Pro": 1893,
      "##iúna": 1894,
      "##chtain": 1895,
      "scríobh": 1896,
      "Treoir": 1897,
      "fhaisnéis": 1898,
      "teas": 1899,
      "##anc": 1900,
      "dhíol": 1901,
      "tábh": 1902,
      "31": 1903,
      "NA": 1904,
      "éist": 1905,
      "##sí": 1906,
      "##OR": 1907,
      "##ide": 1908,
      "##thabh": 1909,
      "táirge": 1910,
      "Do": 1911,
      "féadfar": 1912,
      "##ub": 1913,
      "dochar": 1914,
      "comhalta": 1915,
      "##rtha": 1916,
      "inar": 1917,
      "dhiaidh": 1918,
      "scoil": 1919,
      "dteideal": 1920,
      "##daráis": 1921,
      "##tair": 1922,
      "##US": 1923,
      "##aitheamh": 1924,
      "laghad": 1925,
      "21": 1926,
      "##ism": 1927,
      "##aispeáin": 1928,
      "ta": 1929,
      "##mhar": 1930,
      "cluichí": 1931,
      "AG": 1932,
      "ias": 1933,
      "##du": 1934,
      "##IL": 1935,
      "##aireachta": 1936,
      "##alla": 1937,
      "ghnáth": 1938,
      "nár": 1939,
      "nu": 1940,
      "##eachad": 1941,
      "gceist": 1942,
      "cosúil": 1943,
      "fásta": 1944,
      "osc": 1945,
      "##tail": 1946,
      "2018": 1947,
      "bain": 1948,
      "##iseanna": 1949,
      "##itter": 1950,
      "chosaint": 1951,
      "las": 1952,
      "##uth": 1953,
      "tog": 1954,
      "láithreán": 1955,
      "chineál": 1956,
      "##léas": 1957,
      "áirithiú": 1958,
      "Dá": 1959,
      "Son": 1960,
      "chaighdeán": 1961,
      "bheas": 1962,
      "ceadúnas": 1963,
      "##ainne": 1964,
      "Phríomh": 1965,
      "La": 1966,
      "##thach": 1967,
      "gcuir": 1968,
      "tsórt": 1969,
      "bhráid": 1970,
      "##eicneola": 1971,
      "22": 1972,
      "choinn": 1973,
      "CH": 1974,
      "rinne": 1975,
      "##iail": 1976,
      "comhlacht": 1977,
      "cúram": 1978,
      "##eoladh": 1979,
      "cluiche": 1980,
      "seirbhíse": 1981,
      "##lit": 1982,
      "teagh": 1983,
      "éir": 1984,
      "##ble": 1985,
      "bhonn": 1986,
      "ama": 1987,
      "réimse": 1988,
      "tír": 1989,
      "amhail": 1990,
      "laghdú": 1991,
      "sásta": 1992,
      "éasc": 1993,
      "##ss": 1994,
      "cheana": 1995,
      "íocaíocht": 1996,
      "leagtha": 1997,
      "iompar": 1998,
      "dath": 1999,
      "##airí": 2000,
      "##acs": 2001,
      "aird": 2002,
      "Maidir": 2003,
      "##ec": 2004,
      "##mp": 2005,
      "inch": 2006,
      "##liana": 2007,
      "físeáin": 2008,
      "cás": 2009,
      "té": 2010,
      "chinneadh": 2011,
      "measfar": 2012,
      "breise": 2013,
      "tháirg": 2014,
      "gcoinne": 2015,
      "##agann": 2016,
      "gurb": 2017,
      "gCoimisiún": 2018,
      "dúinn": 2019,
      "Twitter": 2020,
      "##och": 2021,
      "##leach": 2022,
      "##thóirí": 2023,
      "##reis": 2024,
      "Porn": 2025,
      "##lis": 2026,
      "anois": 2027,
      "imeachtaí": 2028,
      "cothrom": 2029,
      "##insean": 2030,
      "gcónaí": 2031,
      "Féadfar": 2032,
      "fhorbairt": 2033,
      "The": 2034,
      "monaróirí": 2035,
      "scaireanna": 2036,
      "eol": 2037,
      "fud": 2038,
      "dheon": 2039,
      "fhios": 2040,
      "réig": 2041,
      "##eilbh": 2042,
      "Cos": 2043,
      "Ré": 2044,
      "Tal": 2045,
      "##ris": 2046,
      "##ócmhainn": 2047,
      "tríú": 2048,
      "Níl": 2049,
      "##lódáil": 2050,
      "dara": 2051,
      "##pp": 2052,
      "2013": 2053,
      "Aontaithe": 2054,
      "leagan": 2055,
      "infheist": 2056,
      "26": 2057,
      "cineál": 2058,
      "ró": 2059,
      "##íocha": 2060,
      "##itheoirí": 2061,
      "nádú": 2062,
      "##oird": 2063,
      "Aontas": 2064,
      "##ostaíochta": 2065,
      "##abharfaidh": 2066,
      "Su": 2067,
      "Éir": 2068,
      "##rait": 2069,
      "sonraithe": 2070,
      "réamh": 2071,
      "Stiúrthóir": 2072,
      "fós": 2073,
      "##lan": 2074,
      "##ond": 2075,
      "Leasú": 2076,
      "##aiteachas": 2077,
      "##inneoin": 2078,
      "reatha": 2079,
      "faoina": 2080,
      "curtha": 2081,
      "limistéar": 2082,
      "Aghaidh": 2083,
      "Cad": 2084,
      "ainneoin": 2085,
      "nithe": 2086,
      "##úin": 2087,
      "##éag": 2088,
      "##eac": 2089,
      "##eog": 2090,
      "##áiltear": 2091,
      "gcomhairle": 2092,
      "##ity": 2093,
      "##eachtach": 2094,
      "##achtach": 2095,
      "ngníomh": 2096,
      "minic": 2097,
      "toiliú": 2098,
      "fi": 2099,
      "sláinte": 2100,
      "##ash": 2101,
      "gcu": 2102,
      "##ligh": 2103,
      "##racht": 2104,
      "bia": 2105,
      "fíor": 2106,
      "##nróid": 2107,
      "##reas": 2108,
      "##bartha": 2109,
      "##itheach": 2110,
      "lár": 2111,
      "críche": 2112,
      "##ostaithe": 2113,
      "##aoileadh": 2114,
      "##ille": 2115,
      "##iche": 2116,
      "##orm": 2117,
      "phró": 2118,
      "##rófar": 2119,
      "##oinníoll": 2120,
      "trádála": 2121,
      "##óisialta": 2122,
      "torthaí": 2123,
      "árach": 2124,
      "##ml": 2125,
      "##chan": 2126,
      "##aor": 2127,
      "##aifead": 2128,
      "##ON": 2129,
      "ráiteas": 2130,
      "hAchtanna": 2131,
      "Gaeilge": 2132,
      "##ideachas": 2133,
      "shin": 2134,
      "##ampla": 2135,
      "cúig": 2136,
      "bhunú": 2137,
      "hAirteagal": 2138,
      "Or": 2139,
      "bail": 2140,
      "choimeád": 2141,
      "##igin": 2142,
      "ionstraim": 2143,
      "##únta": 2144,
      "Náisiúnta": 2145,
      "##iseas": 2146,
      "bhfianaise": 2147,
      "##allstát": 2148,
      "glacadh": 2149,
      "##ies": 2150,
      "##lla": 2151,
      "dhiú": 2152,
      "ghairm": 2153,
      "ioncam": 2154,
      "chomhalta": 2155,
      "##ábháilt": 2156,
      "léas": 2157,
      "##airdín": 2158,
      "Ath": 2159,
      "liom": 2160,
      "##éach": 2161,
      "and": 2162,
      "chéanna": 2163,
      "##oireann": 2164,
      "bláth": 2165,
      "oib": 2166,
      "##isiúin": 2167,
      "##eartha": 2168,
      "##aois": 2169,
      "int": 2170,
      "##láir": 2171,
      "##athoibr": 2172,
      "100": 2173,
      "San": 2174,
      "dT": 2175,
      "maoin": 2176,
      "##ok": 2177,
      "##bhú": 2178,
      "28": 2179,
      "Lu": 2180,
      "uimh": 2181,
      "##óin": 2182,
      "##ghníomh": 2183,
      "Chon": 2184,
      "##unt": 2185,
      "##niúla": 2186,
      "soilsiú": 2187,
      "riachtanach": 2188,
      "AGUS": 2189,
      "Cuid": 2190,
      "##ver": 2191,
      "2012": 2192,
      "2014": 2193,
      "idirnáisiúnta": 2194,
      "cláraithe": 2195,
      "cuntas": 2196,
      "Gach": 2197,
      "céim": 2198,
      "fear": 2199,
      "lo": 2200,
      "##oiste": 2201,
      "##ealt": 2202,
      "nasc": 2203,
      "##abhair": 2204,
      "##íobháid": 2205,
      "Tar": 2206,
      "dío": 2207,
      "##ate": 2208,
      "##ie": 2209,
      "##muigh": 2210,
      "##chúis": 2211,
      "rochtain": 2212,
      "údaraithe": 2213,
      "Gníomh": 2214,
      "Idir": 2215,
      "Léim": 2216,
      "slí": 2217,
      "sheoladh": 2218,
      "##ice": 2219,
      "##athaoir": 2220,
      "Cru": 2221,
      "him": 2222,
      "##chtála": 2223,
      "##íofa": 2224,
      "thaobh": 2225,
      "costais": 2226,
      "tuarascáil": 2227,
      "athbhreith": 2228,
      "Cluich": 2229,
      "##aomh": 2230,
      "##eannta": 2231,
      "dtugtar": 2232,
      "luaithe": 2233,
      "corp": 2234,
      "tiom": 2235,
      "Áit": 2236,
      "thionsc": 2237,
      "##áinig": 2238,
      "cuirfidh": 2239,
      "Có": 2240,
      "##léir": 2241,
      "##wn": 2242,
      "##arthaí": 2243,
      "córas": 2244,
      "thoradh": 2245,
      "Act": 2246,
      "caighdeán": 2247,
      "##airtear": 2248,
      "plean": 2249,
      "Uimhir": 2250,
      "Ean": 2251,
      "Leic": 2252,
      "airgid": 2253,
      "faisnéise": 2254,
      "##ex": 2255,
      "##AS": 2256,
      "##eol": 2257,
      "##iméad": 2258,
      "mhar": 2259,
      "achomharc": 2260,
      "##anda": 2261,
      "2009": 2262,
      "Dé": 2263,
      "foirm": 2264,
      "##arsáid": 2265,
      "shampla": 2266,
      "##eirbhísí": 2267,
      "cóip": 2268,
      "scrios": 2269,
      "tuairim": 2270,
      "Baile": 2271,
      "al": 2272,
      "bhainist": 2273,
      "##oirc": 2274,
      "##eanga": 2275,
      "##umas": 2276,
      "leanbh": 2277,
      "orduithe": 2278,
      "táil": 2279,
      "againn": 2280,
      "##eitheamh": 2281,
      "léi": 2282,
      "soláthar": 2283,
      "cheapadh": 2284,
      "chlárú": 2285,
      "togra": 2286,
      "23": 2287,
      "Sta": 2288,
      "##daigh": 2289,
      "chl": 2290,
      "##easc": 2291,
      "shoc": 2292,
      "2015": 2293,
      "##art": 2294,
      "##raíochtaí": 2295,
      "2019": 2296,
      "siúl": 2297,
      "cus": 2298,
      "onn": 2299,
      "##nt": 2300,
      "##ogh": 2301,
      "chinn": 2302,
      "##óireacht": 2303,
      "##aithí": 2304,
      "##scríbhinn": 2305,
      "ionann": 2306,
      "deara": 2307,
      "Aibre": 2308,
      "Oir": 2309,
      "##paí": 2310,
      "##maid": 2311,
      "##inbh": 2312,
      "fhógra": 2313,
      "##igthe": 2314,
      "##ithre": 2315,
      "##lachta": 2316,
      "##acna": 2317,
      "dhéanfar": 2318,
      "cruach": 2319,
      "scoth": 2320,
      "Corpora": 2321,
      "adh": 2322,
      "rún": 2323,
      "úinéir": 2324,
      "##málta": 2325,
      "chlár": 2326,
      "##achán": 2327,
      "chomhair": 2328,
      "doiciméad": 2329,
      "tugadh": 2330,
      "choinneáil": 2331,
      "##daithe": 2332,
      "forbairt": 2333,
      "gníomhaíochtaí": 2334,
      "##abharfar": 2335,
      "aims": 2336,
      "##osc": 2337,
      "téarmaí": 2338,
      "##aibidil": 2339,
      "gnáth": 2340,
      "seachtain": 2341,
      "##lgh": 2342,
      "##one": 2343,
      "cheannach": 2344,
      "leic": 2345,
      "roghnú": 2346,
      "freagrach": 2347,
      "fheidhmiú": 2348,
      "##arnar": 2349,
      "karnar": 2350,
      "oil": 2351,
      "##ay": 2352,
      "##oist": 2353,
      "##eanach": 2354,
      "seoladh": 2355,
      "##láint": 2356,
      "íoslódáil": 2357,
      "leictr": 2358,
      "##thanach": 2359,
      "##irgí": 2360,
      "##staint": 2361,
      "cuirfear": 2362,
      "##úirte": 2363,
      "beartaithe": 2364,
      "##aispeáint": 2365,
      "bhail": 2366,
      "saol": 2367,
      "leagtar": 2368,
      "##ealamh": 2369,
      "faid": 2370,
      "gairm": 2371,
      "hion": 2372,
      "chumhacht": 2373,
      "infheidhm": 2374,
      "húsáid": 2375,
      "29": 2376,
      "dam": 2377,
      "seilbh": 2378,
      "##ve": 2379,
      "##rao": 2380,
      "##íortha": 2381,
      "Conas": 2382,
      "##lín": 2383,
      "##CE": 2384,
      "bhealach": 2385,
      "cosanta": 2386,
      "sainch": 2387,
      "liúntas": 2388,
      "mhonarcha": 2389,
      "##rioc": 2390,
      "##alair": 2391,
      "##osmálta": 2392,
      "##ineálacha": 2393,
      "margadh": 2394,
      "iompair": 2395,
      "50": 2396,
      "Re": 2397,
      "bar": 2398,
      "bog": 2399,
      "díl": 2400,
      "sealbh": 2401,
      "##easta": 2402,
      "Choimisiún": 2403,
      "ghlac": 2404,
      "sub": 2405,
      "##eánach": 2406,
      "conas": 2407,
      "##atag": 2408,
      "feithic": 2409,
      "slán": 2410,
      "uas": 2411,
      "arb": 2412,
      "##adal": 2413,
      "##aitheach": 2414,
      "Rogh": 2415,
      "Tionsc": 2416,
      "gr": 2417,
      "praghas": 2418,
      "éigin": 2419,
      "##ps": 2420,
      "##lic": 2421,
      "##áistí": 2422,
      "##eim": 2423,
      "##ionsa": 2424,
      "scann": 2425,
      "airde": 2426,
      "##raitéis": 2427,
      "cearta": 2428,
      "dóigh": 2429,
      "tuairisc": 2430,
      "cheangal": 2431,
      "fos": 2432,
      "teach": 2433,
      "cháil": 2434,
      "gCuid": 2435,
      "ciontach": 2436,
      "##árta": 2437,
      "tacaíocht": 2438,
      "chruthú": 2439,
      "nádúrtha": 2440,
      "Fr": 2441,
      "dei": 2442,
      "seacht": 2443,
      "Údarás": 2444,
      "##eantar": 2445,
      "gcr": 2446,
      "iarratais": 2447,
      "talún": 2448,
      "chríoch": 2449,
      "##uthor": 2450,
      "ginearálta": 2451,
      "sná": 2452,
      "##TI": 2453,
      "chuntas": 2454,
      "imirt": 2455,
      "##íneáil": 2456,
      "scríofa": 2457,
      "##iúchán": 2458,
      "ndearnadh": 2459,
      "Author": 2460,
      "Feidhm": 2461,
      "Im": 2462,
      "neamhch": 2463,
      "grianghraf": 2464,
      "shu": 2465,
      "iontach": 2466,
      "shonraítear": 2467,
      "soiléir": 2468,
      "domhain": 2469,
      "barr": 2470,
      "fol": 2471,
      "fuar": 2472,
      "##ling": 2473,
      "leigh": 2474,
      "bheadh": 2475,
      "##óga": 2476,
      "láithreach": 2477,
      "##bo": 2478,
      "##NA": 2479,
      "bhéal": 2480,
      "dhosmálta": 2481,
      "2011": 2482,
      "##réimhse": 2483,
      "ndéanfaidh": 2484,
      "inniu": 2485,
      "ullmhú": 2486,
      "bó": 2487,
      "##tóirí": 2488,
      "##isín": 2489,
      "##illiún": 2490,
      "rialachán": 2491,
      "oibriú": 2492,
      "ainmniú": 2493,
      "Ballstát": 2494,
      "##thabháil": 2495,
      "onnmhair": 2496,
      "##iath": 2497,
      "bhreith": 2498,
      "##ostaíocht": 2499,
      "##iarna": 2500,
      "feist": 2501,
      "##qu": 2502,
      "mhaoin": 2503,
      "Chiste": 2504,
      "leanaí": 2505,
      "deiridh": 2506,
      "##eicniúil": 2507,
      "Aibreán": 2508,
      "Parlaimint": 2509,
      "bán": 2510,
      "reacht": 2511,
      "##iz": 2512,
      "##per": 2513,
      "deis": 2514,
      "##adhb": 2515,
      "##ler": 2516,
      "phr": 2517,
      "##fheidhm": 2518,
      "ngach": 2519,
      "##insin": 2520,
      "##AIR": 2521,
      "aici": 2522,
      "uimhir": 2523,
      "Corporate": 2524,
      "27": 2525,
      "Lea": 2526,
      "Mon": 2527,
      "Noll": 2528,
      "SO": 2529,
      "hordú": 2530,
      "súil": 2531,
      "##nu": 2532,
      "luath": 2533,
      "athch": 2534,
      "##únachta": 2535,
      "Eanáir": 2536,
      "##hong": 2537,
      "##TE": 2538,
      "##thaithe": 2539,
      "##naíonn": 2540,
      "thagann": 2541,
      "##iteamh": 2542,
      "##íosa": 2543,
      "frith": 2544,
      "rannpháirt": 2545,
      "tairbh": 2546,
      "abairt": 2547,
      "ca": 2548,
      "ho": 2549,
      "##irbh": 2550,
      "##mha": 2551,
      "##alairt": 2552,
      "Coiste": 2553,
      "riachtanais": 2554,
      "##eachadadh": 2555,
      "LE": 2556,
      "focal": 2557,
      "hu": 2558,
      "teideal": 2559,
      "##inní": 2560,
      "ioncaim": 2561,
      "saothair": 2562,
      "##implí": 2563,
      "##luaiseacht": 2564,
      "teorainn": 2565,
      "sá": 2566,
      "##reacha": 2567,
      "##mhaíochta": 2568,
      "##eartas": 2569,
      "##oill": 2570,
      "lucht": 2571,
      "cuntais": 2572,
      "##mheasa": 2573,
      "Feabh": 2574,
      "cáin": 2575,
      "##laí": 2576,
      "##itigh": 2577,
      "##ocail": 2578,
      "##uairisc": 2579,
      "dtabhar": 2580,
      "chreid": 2581,
      "Comm": 2582,
      "lasmuigh": 2583,
      "coir": 2584,
      "il": 2585,
      "##aíodh": 2586,
      "shealbh": 2587,
      "##ianta": 2588,
      "##aighdeáin": 2589,
      "ACHT": 2590,
      "Tu": 2591,
      "híoc": 2592,
      "Éireann": 2593,
      "##tuithe": 2594,
      "##inse": 2595,
      "feidhmeanna": 2596,
      "Bhord": 2597,
      "mórdh": 2598,
      "fion": 2599,
      "méad": 2600,
      "sócmhainn": 2601,
      "##reacht": 2602,
      "ionas": 2603,
      "gníomhartha": 2604,
      "eisiúint": 2605,
      "ceaptha": 2606,
      "mhodh": 2607,
      "Cánach": 2608,
      "díos": 2609,
      "stá": 2610,
      "thair": 2611,
      "treoir": 2612,
      "shlí": 2613,
      "úsáide": 2614,
      "##iseáil": 2615,
      "siúd": 2616,
      "Iúil": 2617,
      "##em": 2618,
      "comhaltaí": 2619,
      "##únais": 2620,
      "toisc": 2621,
      "##eathach": 2622,
      "ceanglais": 2623,
      "gcrích": 2624,
      "bhfoirm": 2625,
      "chúis": 2626,
      "difr": 2627,
      "cabhrú": 2628,
      "##athoibríoch": 2629,
      "Pr": 2630,
      "##ITH": 2631,
      "##aitear": 2632,
      "##iciúil": 2633,
      "##eirm": 2634,
      "##athair": 2635,
      "III": 2636,
      "Mo": 2637,
      "et": 2638,
      "chinnt": 2639,
      "tháinig": 2640,
      "treo": 2641,
      "shain": 2642,
      "comhsh": 2643,
      "sprioc": 2644,
      "Du": 2645,
      "Féach": 2646,
      "comhpháirt": 2647,
      "iontaobh": 2648,
      "Cluichí": 2649,
      "dáil": 2650,
      "nG": 2651,
      "##ní": 2652,
      "mhéadú": 2653,
      "stór": 2654,
      "siar": 2655,
      "acmhainn": 2656,
      "laeth": 2657,
      "Europ": 2658,
      "##duct": 2659,
      "ra": 2660,
      "##liath": 2661,
      "##níomhaireacht": 2662,
      "##rucht": 2663,
      "dtaca": 2664,
      "liosta": 2665,
      "feabh": 2666,
      "tabhairt": 2667,
      "teil": 2668,
      "arís": 2669,
      "##rae": 2670,
      "##omhír": 2671,
      "dhó": 2672,
      "fhorálacha": 2673,
      "ndéantar": 2674,
      "fada": 2675,
      "urrú": 2676,
      "Tweet": 2677,
      "gnéas": 2678,
      "íseal": 2679,
      "car": 2680,
      "halt": 2681,
      "rios": 2682,
      "##naíodh": 2683,
      "##ted": 2684,
      "mhalairt": 2685,
      "##lárú": 2686,
      "##eartú": 2687,
      "dhéantar": 2688,
      "Ceann": 2689,
      "DO": 2690,
      "Rá": 2691,
      "glac": 2692,
      "##naigh": 2693,
      "##ure": 2694,
      "##ly": 2695,
      "##aige": 2696,
      "##ind": 2697,
      "##lag": 2698,
      "the": 2699,
      "docht": 2700,
      "feidhmiú": 2701,
      "chúirt": 2702,
      "cruinn": 2703,
      "etc": 2704,
      "Fo": 2705,
      "Áir": 2706,
      "##eobh": 2707,
      "sula": 2708,
      "imsc": 2709,
      "mBord": 2710,
      "comhairle": 2711,
      "réasúnach": 2712,
      "##raingt": 2713,
      "##acnama": 2714,
      "Nollaig": 2715,
      "Bu": 2716,
      "taighde": 2717,
      "##mra": 2718,
      "##eoireachta": 2719,
      "##uairim": 2720,
      "cúis": 2721,
      "##ordaithe": 2722,
      "aisíoc": 2723,
      "##óide": 2724,
      "ranníoc": 2725,
      "##aoirs": 2726,
      "##athaoirleach": 2727,
      "Am": 2728,
      "Soil": 2729,
      "seach": 2730,
      "mhór": 2731,
      "##eachtais": 2732,
      "##ónta": 2733,
      "páirtí": 2734,
      "iasacht": 2735,
      "damáiste": 2736,
      "Cuar": 2737,
      "EU": 2738,
      "com": 2739,
      "fair": 2740,
      "há": 2741,
      "pict": 2742,
      "fhaigh": 2743,
      "##álaí": 2744,
      "##uirir": 2745,
      "foirgn": 2746,
      "cosaint": 2747,
      "nósanna": 2748,
      "doiciméid": 2749,
      "éadrom": 2750,
      "infheidhme": 2751,
      "##ionsab": 2752,
      "céad": 2753,
      "scrúdú": 2754,
      "measúnú": 2755,
      "Trá": 2756,
      "fios": 2757,
      "fíneáil": 2758,
      "hoibr": 2759,
      "##earm": 2760,
      "##réithe": 2761,
      "bliantúil": 2762,
      "##llscoil": 2763,
      "##tachán": 2764,
      "ábhair": 2765,
      "##treon": 2766,
      "##AL": 2767,
      "##mhéid": 2768,
      "cumhacht": 2769,
      "mba": 2770,
      "##scairt": 2771,
      "freas": 2772,
      "leanúint": 2773,
      "riaracháin": 2774,
      "glas": 2775,
      "meá": 2776,
      "##eacháin": 2777,
      "##éanta": 2778,
      "##eithre": 2779,
      "comhth": 2780,
      "deimhin": 2781,
      "te": 2782,
      "##éann": 2783,
      "choiste": 2784,
      "Leictreon": 2785,
      "Cliath": 2786,
      "##reoir": 2787,
      "##ff": 2788,
      "chuireann": 2789,
      "ins": 2790,
      "gcru": 2791,
      "##itis": 2792,
      "dualg": 2793,
      "údarú": 2794,
      "Product": 2795,
      "bláthanna": 2796,
      "sta": 2797,
      "##rta": 2798,
      "##ól": 2799,
      "##earradh": 2800,
      "fhág": 2801,
      "nochta": 2802,
      "##áirtí": 2803,
      "cinnt": 2804,
      "##aiteachais": 2805,
      "faide": 2806,
      "CO": 2807,
      "lit": 2808,
      "raon": 2809,
      "##iséad": 2810,
      "##rac": 2811,
      "##aidr": 2812,
      "##omhairc": 2813,
      "Rialtais": 2814,
      "Bainist": 2815,
      "fó": 2816,
      "##oint": 2817,
      "##ast": 2818,
      "institiúid": 2819,
      "##ínithe": 2820,
      "suite": 2821,
      "páirteach": 2822,
      "ex": 2823,
      "gabháil": 2824,
      "gléas": 2825,
      "mu": 2826,
      "sláint": 2827,
      "##áist": 2828,
      "##chuid": 2829,
      "##igire": 2830,
      "trom": 2831,
      "##lite": 2832,
      "tús": 2833,
      "cinnte": 2834,
      "Márta": 2835,
      "Iarscríbhinn": 2836,
      "##luaiste": 2837,
      "chiontú": 2838,
      "héif": 2839,
      "tábhachtach": 2840,
      "Iomp": 2841,
      "on": 2842,
      "ola": 2843,
      "##20": 2844,
      "##fadh": 2845,
      "chorp": 2846,
      "bharr": 2847,
      "nóiméad": 2848,
      "bhfad": 2849,
      "##icí": 2850,
      "##leá": 2851,
      "comhlachtaí": 2852,
      "sochair": 2853,
      "lorg": 2854,
      "reachta": 2855,
      "##ow": 2856,
      "##ochair": 2857,
      "##tor": 2858,
      "phoiblí": 2859,
      "forbartha": 2860,
      "níl": 2861,
      "thart": 2862,
      "oifige": 2863,
      "mBallstát": 2864,
      "tionchar": 2865,
      "Air": 2866,
      "Bar": 2867,
      "##fach": 2868,
      "##chu": 2869,
      "##raíochta": 2870,
      "2008": 2871,
      "##ustaiméirí": 2872,
      "oibleag": 2873,
      "##búis": 2874,
      "ainmnithe": 2875,
      "húdaráis": 2876,
      "Meán": 2877,
      "Sláinte": 2878,
      "saint": 2879,
      "##ráin": 2880,
      "##ew": 2881,
      "##rad": 2882,
      "thugtar": 2883,
      "##liantúil": 2884,
      "##rúd": 2885,
      "costas": 2886,
      "ainmh": 2887,
      "##insiún": 2888,
      "Éirinn": 2889,
      "freastal": 2890,
      "Bain": 2891,
      "Monar": 2892,
      "ball": 2893,
      "ith": 2894,
      "##ri": 2895,
      "##roinn": 2896,
      "##póirí": 2897,
      "##TA": 2898,
      "##IÚ": 2899,
      "##íochána": 2900,
      "dubh": 2901,
      "##eimhniú": 2902,
      "léamh": 2903,
      "aisgh": 2904,
      "iii": 2905,
      "tosach": 2906,
      "éasca": 2907,
      "Soilse": 2908,
      "Deireadh": 2909,
      "Físe": 2910,
      "Líne": 2911,
      "dro": 2912,
      "tuilleadh": 2913,
      "##chlár": 2914,
      "##thi": 2915,
      "##mhara": 2916,
      "choinníoll": 2917,
      "##naítear": 2918,
      "fhoirm": 2919,
      "##anacht": 2920,
      "##olta": 2921,
      "gníomhú": 2922,
      "##ósta": 2923,
      "clárú": 2924,
      "inniúil": 2925,
      "Leasaítear": 2926,
      "Rialtas": 2927,
      "déile": 2928,
      "timp": 2929,
      "taithí": 2930,
      "##eata": 2931,
      "gceannas": 2932,
      "##ité": 2933,
      "ort": 2934,
      "dearadh": 2935,
      "##IDEA": 2936,
      "##óisial": 2937,
      "thugann": 2938,
      "thógáil": 2939,
      "substaint": 2940,
      "Lá": 2941,
      "comp": 2942,
      "taist": 2943,
      "##ab": 2944,
      "##ck": 2945,
      "##lteanas": 2946,
      "iarnróid": 2947,
      "ham": 2948,
      "##end": 2949,
      "Gha": 2950,
      "##spid": 2951,
      "uirthi": 2952,
      "chumas": 2953,
      "tapa": 2954,
      "Gu": 2955,
      "fáth": 2956,
      "mích": 2957,
      "parlaimint": 2958,
      "##raíodh": 2959,
      "dhlí": 2960,
      "leabhar": 2961,
      "##oimisiúin": 2962,
      "##oilsiú": 2963,
      "déantóir": 2964,
      "##réag": 2965,
      "##onnta": 2966,
      "##ismitheoirí": 2967,
      "nochtadh": 2968,
      "Mór": 2969,
      "Nua": 2970,
      "muirear": 2971,
      "##gaidh": 2972,
      "##ona": 2973,
      "Bhoird": 2974,
      "##aráide": 2975,
      "Gnó": 2976,
      "List": 2977,
      "Uachtar": 2978,
      "cá": 2979,
      "gearr": 2980,
      "##mharc": 2981,
      "##eibh": 2982,
      "gcomhlíon": 2983,
      "##shan": 2984,
      "iarratasóir": 2985,
      "##elta": 2986,
      "##arda": 2987,
      "Bun": 2988,
      "clo": 2989,
      "simplí": 2990,
      "##raigh": 2991,
      "##adail": 2992,
      "##áide": 2993,
      "mbain": 2994,
      "stoc": 2995,
      "##ess": 2996,
      "##illeadh": 2997,
      "caiteachas": 2998,
      "pac": 2999,
      "Úsáid": 3000,
      "##neamh": 3001,
      "bhua": 3002,
      "gheobh": 3003,
      "fhoráil": 3004,
      "##umann": 3005,
      "##ostóir": 3006,
      "fuinn": 3007,
      "athbhreithniú": 3008,
      "##hongshan": 3009,
      "Clár": 3010,
      "córais": 3011,
      "sraith": 3012,
      "tomh": 3013,
      "zhongshan": 3014,
      "mbliana": 3015,
      "cáilíochta": 3016,
      "thuras": 3017,
      "saintréithe": 3018,
      "Meas": 3019,
      "fuair": 3020,
      "fostaíochta": 3021,
      "##iach": 3022,
      "##únaí": 3023,
      "##lainn": 3024,
      "##arm": 3025,
      "leict": 3026,
      "##eigh": 3027,
      "fhreag": 3028,
      "luaitear": 3029,
      "##réacht": 3030,
      "##ogra": 3031,
      "rialaithe": 3032,
      "dlíth": 3033,
      "deac": 3034,
      "Fhor": 3035,
      "tairiscint": 3036,
      "Cén": 3037,
      "Tag": 3038,
      "re": 3039,
      "##chain": 3040,
      "##ileanna": 3041,
      "##ealú": 3042,
      "ngairtear": 3043,
      "oifigigh": 3044,
      "Contae": 3045,
      "eolais": 3046,
      "adhmaid": 3047,
      "leictreon": 3048,
      "Samh": 3049,
      "balla": 3050,
      "sean": 3051,
      "##fe": 3052,
      "##itianta": 3053,
      "trealamh": 3054,
      "foráil": 3055,
      "##eimhr": 3056,
      "leanúnach": 3057,
      "físeán": 3058,
      "grúpa": 3059,
      "mea": 3060,
      "##ER": 3061,
      "##chuir": 3062,
      "##EAS": 3063,
      "##eathnú": 3064,
      "aistrithe": 3065,
      "##aispeán": 3066,
      "tagairtí": 3067,
      "bord": 3068,
      "cas": 3069,
      "cineálacha": 3070,
      "grá": 3071,
      "##son": 3072,
      "##fo": 3073,
      "##eanais": 3074,
      "##itim": 3075,
      "##únaithe": 3076,
      "rátaí": 3077,
      "leasa": 3078,
      "domhan": 3079,
      "##áipéar": 3080,
      "at": 3081,
      "cm": 3082,
      "##reo": 3083,
      "##be": 3084,
      "##ÍO": 3085,
      "scoir": 3086,
      "réiteach": 3087,
      "folaíonn": 3088,
      "trádáil": 3089,
      "##alaíon": 3090,
      "vóta": 3091,
      "iniúchadh": 3092,
      "##arsáide": 3093,
      "40": 3094,
      "Alt": 3095,
      "Cú": 3096,
      "Cl": 3097,
      "Clárú": 3098,
      "Un": 3099,
      "be": 3100,
      "hI": 3101,
      "hiar": 3102,
      "nA": 3103,
      "seas": 3104,
      "##fr": 3105,
      "##MS": 3106,
      "chaitheamh": 3107,
      "spreag": 3108,
      "earn": 3109,
      "gcuideachta": 3110,
      "bhforáiltear": 3111,
      "sócmhainní": 3112,
      "Léir": 3113,
      "TV": 3114,
      "focail": 3115,
      "##tigh": 3116,
      "thion": 3117,
      "dom": 3118,
      "##aimid": 3119,
      "Táirgí": 3120,
      "##lucht": 3121,
      "2006": 3122,
      "léiriú": 3123,
      "##ive": 3124,
      "cumhachtaí": 3125,
      "smaoin": 3126,
      "##ábháilteacht": 3127,
      "shocrú": 3128,
      "To": 3129,
      "mac": 3130,
      "##cler": 3131,
      "##PA": 3132,
      "##ance": 3133,
      "##íolt": 3134,
      "chumh": 3135,
      "theacht": 3136,
      "fheabh": 3137,
      "straitéis": 3138,
      "dlit": 3139,
      "ríomhaire": 3140,
      "Cuirfidh": 3141,
      "Lawn": 3142,
      "scannán": 3143,
      "chinntiú": 3144,
      "Dú": 3145,
      "ad": 3146,
      "caith": 3147,
      "eit": 3148,
      "##óil": 3149,
      "##lta": 3150,
      "gclár": 3151,
      "##táiste": 3152,
      "comhréir": 3153,
      "cúr": 3154,
      "##ibhe": 3155,
      "cláir": 3156,
      "teagmháil": 3157,
      "##ealtaine": 3158,
      "scriosadh": 3159,
      "35": 3160,
      "all": 3161,
      "gco": 3162,
      "samh": 3163,
      "##eannadh": 3164,
      "láimh": 3165,
      "##luíonn": 3166,
      "##atch": 3167,
      "ainmn": 3168,
      "Ghníomhaireacht": 3169,
      "##éadfaí": 3170,
      "As": 3171,
      "fostaithe": 3172,
      "tíortha": 3173,
      "##gaí": 3174,
      "##bheart": 3175,
      "##aisin": 3176,
      "istigh": 3177,
      "saoire": 3178,
      "cúnamh": 3179,
      "airgeadra": 3180,
      "##EAN": 3181,
      "teicneola": 3182,
      "taifead": 3183,
      "##naimh": 3184,
      "##éin": 3185,
      "cháin": 3186,
      "dhí": 3187,
      "##eachtar": 3188,
      "##let": 3189,
      "##aitheoirí": 3190,
      "##IDEAL": 3191,
      "Domh": 3192,
      "clú": 3193,
      "pion": 3194,
      "Éist": 3195,
      "##sithe": 3196,
      "##BH": 3197,
      "araon": 3198,
      "##ltúr": 3199,
      "##und": 3200,
      "##seirbh": 3201,
      "##athrach": 3202,
      "luaidh": 3203,
      "áitiúla": 3204,
      "íocaíochtaí": 3205,
      "cosc": 3206,
      "oibreacha": 3207,
      "Seirbhísí": 3208,
      "pol": 3209,
      "##dháil": 3210,
      "##ghlaim": 3211,
      "Choiste": 3212,
      "asbh": 3213,
      "Bhaile": 3214,
      "##insí": 3215,
      "socrú": 3216,
      "cli": 3217,
      "daon": 3218,
      "eola": 3219,
      "oideachais": 3220,
      "dhear": 3221,
      "iarracht": 3222,
      "##LAS": 3223,
      "##únacht": 3224,
      "Sonraí": 3225,
      "32": 3226,
      "VI": 3227,
      "meán": 3228,
      "tag": 3229,
      "##rd": 3230,
      "##thosca": 3231,
      "bhreise": 3232,
      "fhoireann": 3233,
      "Stiúrthóireacht": 3234,
      "Cúirte": 3235,
      "Dear": 3236,
      "SCE": 3237,
      "rach": 3238,
      "rialta": 3239,
      "bhfaigh": 3240,
      "##éara": 3241,
      "éifeachtach": 3242,
      "éisteacht": 3243,
      "Gan": 3244,
      "Tion": 3245,
      "geall": 3246,
      "láid": 3247,
      "teanga": 3248,
      "##ium": 3249,
      "##Daon": 3250,
      "##earadh": 3251,
      "##mhan": 3252,
      "##aireachtaí": 3253,
      "fhéid": 3254,
      "tslí": 3255,
      "leathan": 3256,
      "teastáil": 3257,
      "árachais": 3258,
      "##íobháideach": 3259,
      "SCEIDEAL": 3260,
      "glan": 3261,
      "pinsean": 3262,
      "síol": 3263,
      "##caí": 3264,
      "##Údarás": 3265,
      "##íoca": 3266,
      "##ratas": 3267,
      "rudaí": 3268,
      "riamh": 3269,
      "léinn": 3270,
      "ghnóthú": 3271,
      "scoile": 3272,
      "tástála": 3273,
      "45": 3274,
      "Bliain": 3275,
      "Síochána": 3276,
      "coimeád": 3277,
      "post": 3278,
      "punt": 3279,
      "##fí": 3280,
      "##bhu": 3281,
      "##eoga": 3282,
      "##ore": 3283,
      "ind": 3284,
      "##ailís": 3285,
      "shao": 3286,
      "ndáir": 3287,
      "##álfar": 3288,
      "méideanna": 3289,
      "##uaras": 3290,
      "##landaí": 3291,
      "Áitiúil": 3292,
      "Grúpa": 3293,
      "Nu": 3294,
      "milliún": 3295,
      "##éacs": 3296,
      "##OS": 3297,
      "thagairt": 3298,
      "gcur": 3299,
      "gcomhair": 3300,
      "##eiric": 3301,
      "tharraingt": 3302,
      "contae": 3303,
      "ísle": 3304,
      "dheonú": 3305,
      "ndáiríre": 3306,
      "Cur": 3307,
      "Ceist": 3308,
      "So": 3309,
      "caipit": 3310,
      "méadú": 3311,
      "ús": 3312,
      "##IM": 3313,
      "##iss": 3314,
      "##áilithe": 3315,
      "Choimisiúin": 3316,
      "##ack": 3317,
      "blianta": 3318,
      "díospóir": 3319,
      "allmhair": 3320,
      "Tug": 3321,
      "gla": 3322,
      "##das": 3323,
      "##ionann": 3324,
      "mbun": 3325,
      "##scaoileadh": 3326,
      "##oirmeasc": 3327,
      "##ealadach": 3328,
      "##churtha": 3329,
      "éisteachta": 3330,
      "Cuardaigh": 3331,
      "Lond": 3332,
      "Plean": 3333,
      "cear": 3334,
      "hearraí": 3335,
      "un": 3336,
      "cheist": 3337,
      "##aisteach": 3338,
      "##íreach": 3339,
      "##olún": 3340,
      "##allstáit": 3341,
      "oibríocht": 3342,
      "cialluíonn": 3343,
      "dtabharfar": 3344,
      "Iris": 3345,
      "Meitheamh": 3346,
      "baile": 3347,
      "##sanna": 3348,
      "bhra": 3349,
      "fheiceáil": 3350,
      "Chr": 3351,
      "comhaontú": 3352,
      "##eallán": 3353,
      "stiúr": 3354,
      "íocaíochta": 3355,
      "Scoil": 3356,
      "príos": 3357,
      "##úinteoirí": 3358,
      "cumhachta": 3359,
      "inmheánach": 3360,
      "##oirceallán": 3361,
      "táille": 3362,
      "##ITHE": 3363,
      "Poirceallán": 3364,
      "Te": 3365,
      "fanacht": 3366,
      "tÚdarás": 3367,
      "##dong": 3368,
      "##eoil": 3369,
      "thíos": 3370,
      "mbu": 3371,
      "##irge": 3372,
      "suí": 3373,
      "íocfar": 3374,
      "##eaptha": 3375,
      "bunús": 3376,
      "dleacht": 3377,
      "dearbhú": 3378,
      "##spleá": 3379,
      "##angdong": 3380,
      "liúntais": 3381,
      "thionscnamh": 3382,
      "Guangdong": 3383,
      "Fac": 3384,
      "cao": 3385,
      "##thrú": 3386,
      "##mhach": 3387,
      "bhaile": 3388,
      "##alach": 3389,
      "##ainc": 3390,
      "##imsiú": 3391,
      "##íonna": 3392,
      "scéal": 3393,
      "sam": 3394,
      "comhaon": 3395,
      "##ings": 3396,
      "fola": 3397,
      "páirtithe": 3398,
      "plandáil": 3399,
      "uirlis": 3400,
      "foirne": 3401,
      "creidmheasa": 3402,
      "deich": 3403,
      "33": 3404,
      "IV": 3405,
      "Ina": 3406,
      "Oibr": 3407,
      "Ollscoil": 3408,
      "##ik": 3409,
      "##cho": 3410,
      "##eantair": 3411,
      "chuirtear": 3412,
      "inniúla": 3413,
      "gceang": 3414,
      "##ltú": 3415,
      "##taítear": 3416,
      "##fheist": 3417,
      "##loine": 3418,
      "tráchtála": 3419,
      "##romch": 3420,
      "chuntasaíochta": 3421,
      "Teach": 3422,
      "fuaim": 3423,
      "lín": 3424,
      "##ous": 3425,
      "##LE": 3426,
      "##GH": 3427,
      "##igiteach": 3428,
      "comhdh": 3429,
      "##ifíse": 3430,
      "##ráite": 3431,
      "chothabháil": 3432,
      "cheadú": 3433,
      "aicme": 3434,
      "tacú": 3435,
      "bainistíochta": 3436,
      "thosach": 3437,
      "oscailte": 3438,
      "##seirbhís": 3439,
      "Lé": 3440,
      "Sao": 3441,
      "cóg": 3442,
      "caite": 3443,
      "Átha": 3444,
      "##cal": 3445,
      "##ba": 3446,
      "##IT": 3447,
      "faois": 3448,
      "cuairt": 3449,
      "marc": 3450,
      "gComh": 3451,
      "coig": 3452,
      "##loch": 3453,
      "tsuim": 3454,
      "cheadúnas": 3455,
      "##uarascálacha": 3456,
      "scoileanna": 3457,
      "bogearraí": 3458,
      "##ruchtúr": 3459,
      "dochtúir": 3460,
      "##acnamaíoch": 3461,
      "gheobhaidh": 3462,
      "Ais": 3463,
      "Mura": 3464,
      "dlite": 3465,
      "hin": 3466,
      "##thin": 3467,
      "##laítear": 3468,
      "thoil": 3469,
      "bhféadfadh": 3470,
      "##ight": 3471,
      "Ans": 3472,
      "phríomh": 3473,
      "Ind": 3474,
      "ardch": 3475,
      "cionn": 3476,
      "chosc": 3477,
      "##oinse": 3478,
      "liostaithe": 3479,
      "Soláthraithe": 3480,
      "Chonradh": 3481,
      "60": 3482,
      "Eag": 3483,
      "Tiarna": 3484,
      "ceithre": 3485,
      "ligean": 3486,
      "Íoc": 3487,
      "##caire": 3488,
      "##thaigh": 3489,
      "thrá": 3490,
      "thréimhse": 3491,
      "mhéad": 3492,
      "##reen": 3493,
      "##eadóirí": 3494,
      "ndéanamh": 3495,
      "##éarmaí": 3496,
      "##amp": 3497,
      "íoctha": 3498,
      "réidh": 3499,
      "##aitneamh": 3500,
      "##eathrú": 3501,
      "##ónaithe": 3502,
      "##ábhair": 3503,
      "corpraithe": 3504,
      "36": 3505,
      "déag": 3506,
      "maoine": 3507,
      "pe": 3508,
      "##chas": 3509,
      "##iúnaithe": 3510,
      "tarml": 3511,
      "cod": 3512,
      "tharla": 3513,
      "2007": 3514,
      "prionsab": 3515,
      "dleathach": 3516,
      "réasúnta": 3517,
      "chontae": 3518,
      "difear": 3519,
      "pleanála": 3520,
      "##eimic": 3521,
      "Físeán": 3522,
      "sampla": 3523,
      "beo": 3524,
      "fá": 3525,
      "mná": 3526,
      "srian": 3527,
      "álainn": 3528,
      "éard": 3529,
      "##ontas": 3530,
      "##eachán": 3531,
      "gheimhr": 3532,
      "mbíonn": 3533,
      "##erm": 3534,
      "stair": 3535,
      "##amhail": 3536,
      "##eorann": 3537,
      "cuspóirí": 3538,
      "34": 3539,
      "Bille": 3540,
      "Bealtaine": 3541,
      "Foinse": 3542,
      "Oideachais": 3543,
      "faigh": 3544,
      "##róir": 3545,
      "##RE": 3546,
      "bhéar": 3547,
      "thaispeáint": 3548,
      "dho": 3549,
      "mhuirear": 3550,
      "scor": 3551,
      "##láiste": 3552,
      "iontu": 3553,
      "stíl": 3554,
      "gcásanna": 3555,
      "##irteagail": 3556,
      "tob": 3557,
      "tosaigh": 3558,
      "earnáil": 3559,
      "fheabhsú": 3560,
      "cíos": 3561,
      "faire": 3562,
      "fianaise": 3563,
      "sl": 3564,
      "teo": 3565,
      "éigean": 3566,
      "##AD": 3567,
      "arm": 3568,
      "##iúradh": 3569,
      "dteannta": 3570,
      "chomhsh": 3571,
      "2010": 3572,
      "neamhspleá": 3573,
      "Déantar": 3574,
      "scéime": 3575,
      "##aifid": 3576,
      "gcóras": 3577,
      "tugtha": 3578,
      "oscailt": 3579,
      "Oireachtas": 3580,
      "bhailiú": 3581,
      "##atagóirí": 3582,
      "Feabhra": 3583,
      "laethanta": 3584,
      "riosca": 3585,
      "Londain": 3586,
      "Ain": 3587,
      "Trí": 3588,
      "bréag": 3589,
      "uath": 3590,
      "##raif": 3591,
      "##íorú": 3592,
      "coiste": 3593,
      "oifigiúil": 3594,
      "bhíthin": 3595,
      "bpointe": 3596,
      "##AIS": 3597,
      "brath": 3598,
      "##alairte": 3599,
      "SOLAS": 3600,
      "sláintíochta": 3601,
      "ainmhithe": 3602,
      "500": 3603,
      "brú": 3604,
      "dúirt": 3605,
      "gabh": 3606,
      "Údaráis": 3607,
      "##oile": 3608,
      "##ein": 3609,
      "##bús": 3610,
      "##ina": 3611,
      "##ars": 3612,
      "bhó": 3613,
      "achtachán": 3614,
      "##eicniúla": 3615,
      "##phobail": 3616,
      "##tacha": 3617,
      "##láine": 3618,
      "hoifig": 3619,
      "mbainfidh": 3620,
      "leictreonach": 3621,
      "En": 3622,
      "bonn": 3623,
      "foils": 3624,
      "uachtar": 3625,
      "##óras": 3626,
      "##irce": 3627,
      "chéim": 3628,
      "scaoileadh": 3629,
      "##rúpaí": 3630,
      "crit": 3631,
      "crích": 3632,
      "speic": 3633,
      "##iota": 3634,
      "soilse": 3635,
      "cén": 3636,
      "crícheanna": 3637,
      "Airgid": 3638,
      "Lean": 3639,
      "dtá": 3640,
      "fág": 3641,
      "hach": 3642,
      "sín": 3643,
      "tO": 3644,
      "uaidh": 3645,
      "##ráid": 3646,
      "##roim": 3647,
      "##lóidh": 3648,
      "##ltais": 3649,
      "##lex": 3650,
      "leathanach": 3651,
      "##únasa": 3652,
      "rachaidh": 3653,
      "##romchla": 3654,
      "Dia": 3655,
      "Eor": 3656,
      "hi": 3657,
      "##ov": 3658,
      "##ys": 3659,
      "gcead": 3660,
      "seomra": 3661,
      "Chuir": 3662,
      "ghearradh": 3663,
      "comhlíonadh": 3664,
      "coitianta": 3665,
      "Scéim": 3666,
      "neamhdh": 3667,
      "##eorainn": 3668,
      "##ábháilte": 3669,
      "próiseas": 3670,
      "##línte": 3671,
      "Daon": 3672,
      "PH": 3673,
      "dé": 3674,
      "##AMH": 3675,
      "bhreis": 3676,
      "cruinniú": 3677,
      "##CHTA": 3678,
      "socruithe": 3679,
      "deontas": 3680,
      "cumas": 3681,
      "phróiseáil": 3682,
      "##ghníomhú": 3683,
      "onnmhaireoirí": 3684,
      "fhéidir": 3685,
      "Cead": 3686,
      "Dlí": 3687,
      "Tuir": 3688,
      "ea": 3689,
      "fiche": 3690,
      "long": 3691,
      "óga": 3692,
      "##irte": 3693,
      "##inte": 3694,
      "chaill": 3695,
      "##alamh": 3696,
      "##ltar": 3697,
      "##age": 3698,
      "stiúrthóir": 3699,
      "##eirbheáil": 3700,
      "##túla": 3701,
      "chóras": 3702,
      "iontao": 3703,
      "CHU": 3704,
      "leighis": 3705,
      "Moncler": 3706,
      "pictiúir": 3707,
      "parlaiminteach": 3708,
      "Saor": 3709,
      "lío": 3710,
      "##róirí": 3711,
      "##táistí": 3712,
      "##ithíochta": 3713,
      "##eachtadh": 3714,
      "shá": 3715,
      "##aighd": 3716,
      "##lacháin": 3717,
      "ghla": 3718,
      "##ens": 3719,
      "##áthair": 3720,
      "cúiteamh": 3721,
      "breathnú": 3722,
      "##lúth": 3723,
      "oiread": 3724,
      "##oinbh": 3725,
      "Forálacha": 3726,
      "##áipéir": 3727,
      "##liteanas": 3728,
      "##aidreamh": 3729,
      "##eltachta": 3730,
      "Naisc": 3731,
      "dru": 3732,
      "fadhb": 3733,
      "##table": 3734,
      "chail": 3735,
      "gcúr": 3736,
      "##omair": 3737,
      "##álaithe": 3738,
      "##asca": 3739,
      "##aitist": 3740,
      "gnéithe": 3741,
      "asbhaint": 3742,
      "00": 3743,
      "Príomh": 3744,
      "TC": 3745,
      "eacht": 3746,
      "oideachas": 3747,
      "taitneamh": 3748,
      "##táin": 3749,
      "##seach": 3750,
      "##uas": 3751,
      "##chaí": 3752,
      "agam": 3753,
      "##ainm": 3754,
      "gceann": 3755,
      "fhad": 3756,
      "##ánta": 3757,
      "sheirbhís": 3758,
      "sheachadadh": 3759,
      "2001": 3760,
      "##aingean": 3761,
      "##raghsanna": 3762,
      "tionónta": 3763,
      "freagra": 3764,
      "thuas": 3765,
      "fuarthas": 3766,
      "meaisín": 3767,
      "Eoraip": 3768,
      "Ad": 3769,
      "DH": 3770,
      "malairte": 3771,
      "neart": 3772,
      "rath": 3773,
      "suntas": 3774,
      "tí": 3775,
      "tabharfaidh": 3776,
      "##chloch": 3777,
      "##eip": 3778,
      "chug": 3779,
      "##imhsí": 3780,
      "##les": 3781,
      "roinn": 3782,
      "luas": 3783,
      "cionta": 3784,
      "##aiceann": 3785,
      "cáilithe": 3786,
      "sárú": 3787,
      "fhaigheann": 3788,
      "Éisteachta": 3789,
      "Dara": 3790,
      "Ex": 3791,
      "Lúnasa": 3792,
      "cal": 3793,
      "gar": 3794,
      "mon": 3795,
      "sú": 3796,
      "áfach": 3797,
      "íomh": 3798,
      "##eála": 3799,
      "traid": 3800,
      "##aillí": 3801,
      "ghinearálta": 3802,
      "##lect": 3803,
      "##ínse": 3804,
      "org": 3805,
      "trína": 3806,
      "úsáideoirí": 3807,
      "Bhallstáit": 3808,
      "##ealaí": 3809,
      "tionscadal": 3810,
      "comhairl": 3811,
      "brabúis": 3812,
      "Glac": 3813,
      "Rann": 3814,
      "gear": 3815,
      "prá": 3816,
      "##dán": 3817,
      "##IA": 3818,
      "##chéim": 3819,
      "##íolacadh": 3820,
      "cúraim": 3821,
      "sonrach": 3822,
      "athnu": 3823,
      "dlífear": 3824,
      "##íleata": 3825,
      "turas": 3826,
      "caillteanas": 3827,
      "Idirnáisiúnta": 3828,
      "sealbhóir": 3829,
      "Tags": 3830,
      "Breith": 3831,
      "Ciste": 3832,
      "Poiblí": 3833,
      "hO": 3834,
      "sóisialta": 3835,
      "##iana": 3836,
      "##reachta": 3837,
      "##iúnaí": 3838,
      "fhoilsiú": 3839,
      "##iscí": 3840,
      "lámh": 3841,
      "tACHT": 3842,
      "##áirimh": 3843,
      "plé": 3844,
      "##oimisinéir": 3845,
      "tuairisce": 3846,
      "##uirearaithe": 3847,
      "##léiriú": 3848,
      "##raoi": 3849,
      "37": 3850,
      "Tair": 3851,
      "mic": 3852,
      "##ts": 3853,
      "##est": 3854,
      "##leacht": 3855,
      "##ES": 3856,
      "mhaithe": 3857,
      "##ress": 3858,
      "##urg": 3859,
      "iontr": 3860,
      "##load": 3861,
      "nglac": 3862,
      "##rianchloch": 3863,
      "Talmhan": 3864,
      "Roghchlár": 3865,
      "fuinnimh": 3866,
      "39": 3867,
      "AR": 3868,
      "Aois": 3869,
      "Baineann": 3870,
      "Fógra": 3871,
      "Soc": 3872,
      "Teagh": 3873,
      "bás": 3874,
      "duill": 3875,
      "fir": 3876,
      "##álach": 3877,
      "theannta": 3878,
      "##ánaigh": 3879,
      "##itte": 3880,
      "##itheacha": 3881,
      "scaip": 3882,
      "mara": 3883,
      "phobal": 3884,
      "leithligh": 3885,
      "spás": 3886,
      "ngairm": 3887,
      "##aighdeánach": 3888,
      "plaisteach": 3889,
      "##arraige": 3890,
      "Gharda": 3891,
      "talmhaíochta": 3892,
      "ordaithe": 3893,
      "réimsí": 3894,
      "cásanna": 3895,
      "tháirgeadh": 3896,
      "##ashon": 3897,
      "##ábháilteachta": 3898,
      "tuairimí": 3899,
      "fostaí": 3900,
      "fiosrú": 3901,
      "Cum": 3902,
      "Se": 3903,
      "mol": 3904,
      "ocht": 3905,
      "tseirbhís": 3906,
      "##RA": 3907,
      "##che": 3908,
      "cheannas": 3909,
      "bhF": 3910,
      "##eit": 3911,
      "##ghabháil": 3912,
      "##airtí": 3913,
      "meastóir": 3914,
      "##iomp": 3915,
      "##iteáil": 3916,
      "cruth": 3917,
      "##AIM": 3918,
      "##AIN": 3919,
      "inmhuirearaithe": 3920,
      "modhanna": 3921,
      "mionson": 3922,
      "Gnóthaí": 3923,
      "Bra": 3924,
      "Oil": 3925,
      "Sain": 3926,
      "éinní": 3927,
      "úna": 3928,
      "##ap": 3929,
      "##íte": 3930,
      "##fort": 3931,
      "##ireacht": 3932,
      "##mhíniú": 3933,
      "##earsa": 3934,
      "##nacha": 3935,
      "cro": 3936,
      "chomhlacht": 3937,
      "phobail": 3938,
      "##rachtaí": 3939,
      "gCoimisinéirí": 3940,
      "cúpla": 3941,
      "athruithe": 3942,
      "##phobal": 3943,
      "tharlaíonn": 3944,
      "míreanna": 3945,
      "mheasúnachta": 3946,
      "Fheidhm": 3947,
      "chóireáil": 3948,
      "tionscadail": 3949,
      "eagraíocht": 3950,
      "leathnú": 3951,
      "ceapadh": 3952,
      "iascaireachta": 3953,
      "##ríche": 3954,
      "##earmáin": 3955,
      "dualgais": 3956,
      "tromchúis": 3957,
      "Ghaeilge": 3958,
      "díospóireacht": 3959,
      "Fu": 3960,
      "Tóg": 3961,
      "maoirs": 3962,
      "sealadach": 3963,
      "##nb": 3964,
      "##dhó": 3965,
      "##ish": 3966,
      "chórais": 3967,
      "##earc": 3968,
      "cuard": 3969,
      "scileanna": 3970,
      "ndéanann": 3971,
      "solas": 3972,
      "iarbh": 3973,
      "hath": 3974,
      "leithéid": 3975,
      "réitigh": 3976,
      "##cel": 3977,
      "iarrthóir": 3978,
      "conradh": 3979,
      "ceadúnais": 3980,
      "buan": 3981,
      "Cuireadh": 3982,
      "teoranta": 3983,
      "gcuirfear": 3984,
      "táillí": 3985,
      "##lghairm": 3986,
      "mórdhíola": 3987,
      "clips": 3988,
      "stiúrthóirí": 3989,
      "46": 3990,
      "Oideachas": 3991,
      "UM": 3992,
      "cn": 3993,
      "pro": 3994,
      "##neacht": 3995,
      "##úlacht": 3996,
      "anuas": 3997,
      "##ghabh": 3998,
      "##orc": 3999,
      "aonad": 4000,
      "Chu": 4001,
      "##órsaí": 4002,
      "déanmh": 4003,
      "##ichead": 4004,
      "roghanna": 4005,
      "míle": 4006,
      "1999": 4007,
      "##INT": 4008,
      "bPríomh": 4009,
      "imscrúdú": 4010,
      "Hot": 4011,
      "Ríocht": 4012,
      "Uair": 4013,
      "pian": 4014,
      "toir": 4015,
      "##eiste": 4016,
      "##nann": 4017,
      "bheart": 4018,
      "##eos": 4019,
      "##aolú": 4020,
      "thiocfaidh": 4021,
      "gceart": 4022,
      "dheimhniú": 4023,
      "##eoireacht": 4024,
      "chomhaltaí": 4025,
      "déantar": 4026,
      "inneall": 4027,
      "leordhó": 4028,
      "iascaigh": 4029,
      "réigiún": 4030,
      "gcuirtear": 4031,
      "alos": 4032,
      "reachtaíocht": 4033,
      "tarmligthe": 4034,
      "Al": 4035,
      "Alla": 4036,
      "Hel": 4037,
      "Iasc": 4038,
      "aib": 4039,
      "sábháilte": 4040,
      "##thóra": 4041,
      "##iúnas": 4042,
      "##iallaíonn": 4043,
      "191": 4044,
      "##aims": 4045,
      "leabhair": 4046,
      "Táimid": 4047,
      "##annaí": 4048,
      "áiteanna": 4049,
      "dócha": 4050,
      "Achtanna": 4051,
      "1924": 4052,
      "Gaeltachta": 4053,
      "Dáta": 4054,
      "chomhairle": 4055,
      "cábla": 4056,
      "Iom": 4057,
      "Leag": 4058,
      "othair": 4059,
      "tabharfar": 4060,
      "##oad": 4061,
      "##úine": 4062,
      "##liú": 4063,
      "##éise": 4064,
      "##ainte": 4065,
      "##ork": 4066,
      "thuilleadh": 4067,
      "cuirtear": 4068,
      "##urna": 4069,
      "##iúnais": 4070,
      "##iúntais": 4071,
      "##aitheann": 4072,
      "sochar": 4073,
      "gCúirt": 4074,
      "sonracha": 4075,
      "2005": 4076,
      "oibríochtaí": 4077,
      "éifeachtaí": 4078,
      "##iúnacha": 4079,
      "líonadh": 4080,
      "Iarnróid": 4081,
      "monarcha": 4082,
      "limistéir": 4083,
      "##ORPA": 4084,
      "Cruach": 4085,
      "##atagóir": 4086,
      "##ittee": 4087,
      "38": 4088,
      "42": 4089,
      "bosca": 4090,
      "caighdeáin": 4091,
      "dréacht": 4092,
      "tóir": 4093,
      "##oic": 4094,
      "chom": 4095,
      "##ans": 4096,
      "thalamh": 4097,
      "chomhaontú": 4098,
      "##éard": 4099,
      "forordaithe": 4100,
      "##réamh": 4101,
      "Threoir": 4102,
      "leasanna": 4103,
      "cláruithe": 4104,
      "suimeanna": 4105,
      "##altóirí": 4106,
      "grianghraif": 4107,
      "chinnfidh": 4108,
      "Committee": 4109,
      "treoracha": 4110,
      "raghaidh": 4111,
      "institiúidí": 4112,
      "únaer": 4113,
      "Aer": 4114,
      "BH": 4115,
      "Tac": 4116,
      "caiteachais": 4117,
      "fóg": 4118,
      "tíre": 4119,
      "##riú": 4120,
      "thuairisc": 4121,
      "fhos": 4122,
      "##óirt": 4123,
      "##ome": 4124,
      "sheirbheáil": 4125,
      "phost": 4126,
      "cúiseanna": 4127,
      "toradh": 4128,
      "gcomhar": 4129,
      "Inn": 4130,
      "uaireanta": 4131,
      "monaróir": 4132,
      "diúité": 4133,
      "Porno": 4134,
      "saincheaptha": 4135,
      "slándála": 4136,
      "##óisialaigh": 4137,
      "BliainDaon": 4138,
      "faoiseamh": 4139,
      "Caibidil": 4140,
      "blas": 4141,
      "gaol": 4142,
      "gloine": 4143,
      "oíche": 4144,
      "pinsin": 4145,
      "se": 4146,
      "éin": 4147,
      "anailís": 4148,
      "bhliantúil": 4149,
      "##ainéal": 4150,
      "dheireadh": 4151,
      "##ions": 4152,
      "##ics": 4153,
      "lua": 4154,
      "rátha": 4155,
      "Thu": 4156,
      "leasaítear": 4157,
      "##iteáin": 4158,
      "trád": 4159,
      "dírithe": 4160,
      "ghabháil": 4161,
      "aice": 4162,
      "próise": 4163,
      "dhiúscairt": 4164,
      "oiliúint": 4165,
      "reachtúil": 4166,
      "tairbhe": 4167,
      "cinntí": 4168,
      "##roinnt": 4169,
      "BliainDaonáirimh": 4170,
      "aig": 4171,
      "feiceáil": 4172,
      "hoib": 4173,
      "iP": 4174,
      "##laithe": 4175,
      "##CA": 4176,
      "##SP": 4177,
      "bhall": 4178,
      "##ideo": 4179,
      "##orthaí": 4180,
      "gcéanna": 4181,
      "dhliteanas": 4182,
      "mhion": 4183,
      "##ick": 4184,
      "comhar": 4185,
      "phlean": 4186,
      "Screen": 4187,
      "cuideachtaí": 4188,
      "##CHA": 4189,
      "##eananna": 4190,
      "éagsúlacht": 4191,
      "ríomhph": 4192,
      "aithint": 4193,
      "ndearna": 4194,
      "thosaigh": 4195,
      "##léireofar": 4196,
      "mhargadh": 4197,
      "teilifíse": 4198,
      "déileáil": 4199,
      "luaidhtear": 4200,
      "Ansin": 4201,
      "critéir": 4202,
      "leordhóthanach": 4203,
      "Gné": 4204,
      "SMS": 4205,
      "cla": 4206,
      "col": 4207,
      "lig": 4208,
      "taispeáint": 4209,
      "trae": 4210,
      "##ki": 4211,
      "chearta": 4212,
      "##rap": 4213,
      "##eachtanna": 4214,
      "##isceana": 4215,
      "##lánú": 4216,
      "2004": 4217,
      "##celet": 4218,
      "ionadaí": 4219,
      "##ardas": 4220,
      "tuiscint": 4221,
      "##ARL": 4222,
      "leibhéil": 4223,
      "aerár": 4224,
      "chuirfidh": 4225,
      "##ochtúir": 4226,
      "##iorc": 4227,
      "Réig": 4228,
      "Réamh": 4229,
      "##lghné": 4230,
      "acmhainní": 4231,
      "urrús": 4232,
      "EUR": 4233,
      "Uachtarán": 4234,
      "deacair": 4235,
      "Ainm": 4236,
      "Help": 4237,
      "Leis": 4238,
      "Sraith": 4239,
      "Teicneola": 4240,
      "dromchla": 4241,
      "mais": 4242,
      "plá": 4243,
      "teag": 4244,
      "##fas": 4245,
      "théann": 4246,
      "gcon": 4247,
      "fhomhír": 4248,
      "##iteann": 4249,
      "##lian": 4250,
      "comhionann": 4251,
      "dtos": 4252,
      "##ence": 4253,
      "tarraing": 4254,
      "##fhoirm": 4255,
      "##eabhair": 4256,
      "##arraing": 4257,
      "chúr": 4258,
      "uaire": 4259,
      "Coda": 4260,
      "beagnach": 4261,
      "Pornload": 4262,
      "leigheas": 4263,
      "##ointí": 4264,
      "smaoineamh": 4265,
      "iarbhír": 4266,
      "..": 4267,
      "Ac": 4268,
      "Foils": 4269,
      "IO": 4270,
      "IN": 4271,
      "gl": 4272,
      "gair": 4273,
      "tithíochta": 4274,
      "##ier": 4275,
      "##era": 4276,
      "##mí": 4277,
      "##mb": 4278,
      "##Load": 4279,
      "##EN": 4280,
      "##dhchaí": 4281,
      "##airde": 4282,
      "##idí": 4283,
      "##ramh": 4284,
      "fhéadfaidh": 4285,
      "comhad": 4286,
      "ndaoine": 4287,
      "##roid": 4288,
      "leasuithe": 4289,
      "Eorpacha": 4290,
      "bpost": 4291,
      "##earsan": 4292,
      "Cuireann": 4293,
      "bhainfidh": 4294,
      "seachtaine": 4295,
      "shuíomh": 4296,
      "##spidéil": 4297,
      "Mórdh": 4298,
      "##aisinéirí": 4299,
      "PornoLoad": 4300,
      "...": 4301,
      "6ú": 4302,
      "Banc": 4303,
      "ab": 4304,
      "bac": 4305,
      "fíon": 4306,
      "gairdín": 4307,
      "ló": 4308,
      "ollmh": 4309,
      "##ry": 4310,
      "##ee": 4311,
      "##man": 4312,
      "##uib": 4313,
      "##IC": 4314,
      "##ST": 4315,
      "##thais": 4316,
      "##are": 4317,
      "##ratais": 4318,
      "##tes": 4319,
      "dheas": 4320,
      "mhainn": 4321,
      "cuma": 4322,
      "##red": 4323,
      "2020": 4324,
      "##áthú": 4325,
      "tAontas": 4326,
      "íocadh": 4327,
      "hEORPA": 4328,
      "##daíonn": 4329,
      "Split": 4330,
      "tástáil": 4331,
      "##alartú": 4332,
      "téacs": 4333,
      "bhainistiú": 4334,
      "stóráil": 4335,
      "Iompair": 4336,
      "spreagadh": 4337,
      "##íoltóirí": 4338,
      "##oinbhinsiún": 4339,
      "Lár": 4340,
      "par": 4341,
      "taisc": 4342,
      "taifid": 4343,
      "##ou": 4344,
      "##glaigh": 4345,
      "##mad": 4346,
      "##irim": 4347,
      "char": 4348,
      "##ther": 4349,
      "fhóg": 4350,
      "##ung": 4351,
      "crios": 4352,
      "##rachas": 4353,
      "móra": 4354,
      "##inge": 4355,
      "Institiúid": 4356,
      "##CHÁ": 4357,
      "soláthraí": 4358,
      "bunaíodh": 4359,
      "Speisialta": 4360,
      "tacaíochta": 4361,
      "1923": 4362,
      "1976": 4363,
      "Chuideachta": 4364,
      "cuntasaíochta": 4365,
      "oibleagáidí": 4366,
      "taistil": 4367,
      "líoma": 4368,
      "Allah": 4369,
      "70": 4370,
      "ceisteanna": 4371,
      "uathoibríoch": 4372,
      "##neachta": 4373,
      "##sta": 4374,
      "##ual": 4375,
      "##eolas": 4376,
      "##ghas": 4377,
      "cuimh": 4378,
      "##aille": 4379,
      "sheach": 4380,
      "sheachtain": 4381,
      "comhaid": 4382,
      "nách": 4383,
      "úsáideoir": 4384,
      "fhorléiriú": 4385,
      "Theas": 4386,
      "bunaidh": 4387,
      "##aingniú": 4388,
      "dearg": 4389,
      "ordóidh": 4390,
      "dhualg": 4391,
      "thogh": 4392,
      "nuacht": 4393,
      "éirí": 4394,
      "##ext": 4395,
      "Duine": 4396,
      "polait": 4397,
      "##ARLAIM": 4398,
      "Déanann": 4399,
      "TU": 4400,
      "Uisce": 4401,
      "pointe": 4402,
      "rang": 4403,
      "Ábhar": 4404,
      "éinne": 4405,
      "##raidh": 4406,
      "##AO": 4407,
      "ardú": 4408,
      "bhord": 4409,
      "##eoch": 4410,
      "mheán": 4411,
      "Chos": 4412,
      "ghné": 4413,
      "ghairdín": 4414,
      "##idhm": 4415,
      "##eallacht": 4416,
      "##scne": 4417,
      "crann": 4418,
      "crua": 4419,
      "cúirte": 4420,
      "íocfaidh": 4421,
      "##lash": 4422,
      "##olasaí": 4423,
      "shonraí": 4424,
      "Cuirfear": 4425,
      "##eagmháil": 4426,
      "beartais": 4427,
      "héasca": 4428,
      "staidéar": 4429,
      "teaghlaigh": 4430,
      "ról": 4431,
      "seasamh": 4432,
      "Tugann": 4433,
      "##celona": 4434,
      "75": 4435,
      "Céad": 4436,
      "Fearr": 4437,
      "Grianchloch": 4438,
      "US": 4439,
      "coinn": 4440,
      "carr": 4441,
      "##chomh": 4442,
      "##tam": 4443,
      "agóid": 4444,
      "thomh": 4445,
      "gcoinn": 4446,
      "fhianaise": 4447,
      "bhféadfar": 4448,
      "##reland": 4449,
      "##roí": 4450,
      "Stair": 4451,
      "ceadú": 4452,
      "##aoilte": 4453,
      "chláir": 4454,
      "Euro": 4455,
      "infheistíochta": 4456,
      "feistí": 4457,
      "feabhas": 4458,
      "háit": 4459,
      "pionós": 4460,
      "athnuach": 4461,
      "##ARLAIMINT": 4462,
      "Airteagail": 4463,
      "CB": 4464,
      "Gairm": 4465,
      "ceall": 4466,
      "caill": 4467,
      "easc": 4468,
      "gluaiseacht": 4469,
      "mil": 4470,
      "rás": 4471,
      "sás": 4472,
      "##eb": 4473,
      "##p3": 4474,
      "##tacal": 4475,
      "##eithe": 4476,
      "##ltóir": 4477,
      "comhch": 4478,
      "struchtúr": 4479,
      "sibh": 4480,
      "imeacht": 4481,
      "bronnta": 4482,
      "cailín": 4483,
      "himeachtaí": 4484,
      "oiliúna": 4485,
      "droch": 4486,
      "##iotaíocht": 4487,
      "41": 4488,
      "CF": 4489,
      "Ginearálta": 4490,
      "Nó": 4491,
      "Sín": 4492,
      "Togra": 4493,
      "dr": 4494,
      "##ric": 4495,
      "##lithe": 4496,
      "##lainne": 4497,
      "##ank": 4498,
      "thabh": 4499,
      "shábháil": 4500,
      "féil": 4501,
      "dár": 4502,
      "##scoile": 4503,
      "ndó": 4504,
      "amuigh": 4505,
      "##achtair": 4506,
      "fhoirgn": 4507,
      "##ited": 4508,
      "##illte": 4509,
      "Mheiric": 4510,
      "aithean": 4511,
      "tógáil": 4512,
      "Ord": 4513,
      "##aomhnú": 4514,
      "feithiclí": 4515,
      "méadar": 4516,
      "Bainistíochta": 4517,
      "cógais": 4518,
      "Conn": 4519,
      "Gr": 4520,
      "Ireland": 4521,
      "Watch": 4522,
      "aidhm": 4523,
      "cárta": 4524,
      "ead": 4525,
      "óir": 4526,
      "##léid": 4527,
      "##II": 4528,
      "##irí": 4529,
      "##thacht": 4530,
      "##óiriú": 4531,
      "##uille": 4532,
      "scag": 4533,
      "chomhlachta": 4534,
      "##éarma": 4535,
      "##áltas": 4536,
      "Inter": 4537,
      "##oblacht": 4538,
      "oibrithe": 4539,
      "cont": 4540,
      "Mheán": 4541,
      "choig": 4542,
      "tuig": 4543,
      "príobháideach": 4544,
      "Ionad": 4545,
      "líonra": 4546,
      "beagán": 4547,
      "##aipiteal": 4548,
      "sreang": 4549,
      "Chontae": 4550,
      "ithir": 4551,
      "láidir": 4552,
      "fuaime": 4553,
      "tobac": 4554,
      "hachomair": 4555,
      "croí": 4556,
      "##uiblí": 4557,
      "Next": 4558,
      "liath": 4559,
      "morg": 4560,
      "seic": 4561,
      "íosta": 4562,
      "##súil": 4563,
      "##bate": 4564,
      "##irc": 4565,
      "chónaithe": 4566,
      "thabharfaidh": 4567,
      "gcóir": 4568,
      "##innithe": 4569,
      "##ime": 4570,
      "fhoirc": 4571,
      "##ántas": 4572,
      "##taisí": 4573,
      "##eidil": 4574,
      "##réine": 4575,
      "chúlghairm": 4576,
      "earra": 4577,
      "Treo": 4578,
      "##omparáid": 4579,
      "chuirfear": 4580,
      "fostú": 4581,
      "thairiscint": 4582,
      "meáchan": 4583,
      "##rúduithe": 4584,
      "geallta": 4585,
      "comhaontuithe": 4586,
      "fadhbanna": 4587,
      "chugainn": 4588,
      "traidisiúnta": 4589,
      "Tás": 4590,
      "Tabhair": 4591,
      "baill": 4592,
      "breis": 4593,
      "eisc": 4594,
      "reá": 4595,
      "tirim": 4596,
      "##rais": 4597,
      "##DD": 4598,
      "##CR": 4599,
      "##weet": 4600,
      "##dhearc": 4601,
      "chlú": 4602,
      "fhás": 4603,
      "##erv": 4604,
      "saothar": 4605,
      "tréimhsí": 4606,
      "2000": 4607,
      "##eabhadh": 4608,
      "bunú": 4609,
      "leanfaidh": 4610,
      "beaga": 4611,
      "chruinniú": 4612,
      "1963": 4613,
      "teorann": 4614,
      "Creid": 4615,
      "##ments": 4616,
      "nuashon": 4617,
      "##aoiseamh": 4618,
      "intinn": 4619,
      "aimseartha": 4620,
      "teorainneacha": 4621,
      "Barcelona": 4622,
      "bréagach": 4623,
      "ngairmtear": 4624,
      "éineacht": 4625,
      "55": 4626,
      "Lios": 4627,
      "Neamh": 4628,
      "abh": 4629,
      "ceachtar": 4630,
      "fostóir": 4631,
      "géar": 4632,
      "lamh": 4633,
      "pá": 4634,
      "stát": 4635,
      "##iob": 4636,
      "##taigh": 4637,
      "##smaí": 4638,
      "##eabhar": 4639,
      "chor": 4640,
      "##ainí": 4641,
      "ingh": 4642,
      "fhu": 4643,
      "fheithic": 4644,
      "sho": 4645,
      "190": 4646,
      "dtiocfaidh": 4647,
      "hamh": 4648,
      "##ollag": 4649,
      "phion": 4650,
      "spraoi": 4651,
      "buiséad": 4652,
      "scéimeanna": 4653,
      "1933": 4654,
      "Cuirtear": 4655,
      "staidéir": 4656,
      "dífh": 4657,
      "Córas": 4658,
      "Tionscail": 4659,
      "gcríoch": 4660,
      "Leanaí": 4661,
      "Dúiche": 4662,
      "dhearbhú": 4663,
      "mbunaítear": 4664,
      "neamhspleách": 4665,
      "PHARLAIMINT": 4666,
      "líomatáiste": 4667,
      "ceallraí": 4668,
      "Bláth": 4669,
      "Níor": 4670,
      "Nollag": 4671,
      "bo": 4672,
      "bealach": 4673,
      "caitheamh": 4674,
      "sla": 4675,
      "sábháilteachta": 4676,
      "tv": 4677,
      "titim": 4678,
      "##rimh": 4679,
      "##mm": 4680,
      "##AE": 4681,
      "##éilleadh": 4682,
      "##ft": 4683,
      "##ÁIL": 4684,
      "thabharfar": 4685,
      "gcuntas": 4686,
      "##less": 4687,
      "Bhu": 4688,
      "##réimh": 4689,
      "Ghnó": 4690,
      "##eolaíocht": 4691,
      "deireanach": 4692,
      "dlínse": 4693,
      "Críos": 4694,
      "fiach": 4695,
      "athbhreithnithe": 4696,
      "shuiteáil": 4697,
      "##uairimí": 4698,
      "##tory": 4699,
      "ndóigh": 4700,
      "Faigh": 4701,
      "Líon": 4702,
      "dích": 4703,
      "hid": 4704,
      "##údar": 4705,
      "chabh": 4706,
      "##nacht": 4707,
      "##uspóir": 4708,
      "##ainéil": 4709,
      "dheis": 4710,
      "fhion": 4711,
      "##áint": 4712,
      "##tálacha": 4713,
      "##imhd": 4714,
      "mhích": 4715,
      "##lachais": 4716,
      "##aithfidh": 4717,
      "##scr": 4718,
      "iarsmaí": 4719,
      "chomhlíon": 4720,
      "iomlá": 4721,
      "imthosca": 4722,
      "ráitis": 4723,
      "ngnó": 4724,
      "Coinbh": 4725,
      "shonrófar": 4726,
      "dearbh": 4727,
      "tionscail": 4728,
      "dúb": 4729,
      "thógaint": 4730,
      "##thabhála": 4731,
      "Cuideachta": 4732,
      "nAchtanna": 4733,
      "##ission": 4734,
      "teocht": 4735,
      "##aitisticí": 4736,
      "ollmhór": 4737,
      "65": 4738,
      "Bosca": 4739,
      "Eolas": 4740,
      "New": 4741,
      "Plandaí": 4742,
      "ceal": 4743,
      "cath": 4744,
      "gru": 4745,
      "rí": 4746,
      "ualach": 4747,
      "##ld": 4748,
      "##feadh": 4749,
      "chaoi": 4750,
      "chuí": 4751,
      "thiom": 4752,
      "dhéag": 4753,
      "##ánna": 4754,
      "##ionad": 4755,
      "##old": 4756,
      "siop": 4757,
      "athsh": 4758,
      "##look": 4759,
      "##nách": 4760,
      "Comhsh": 4761,
      "##oibriú": 4762,
      "Oifigiúil": 4763,
      "##MHAIR": 4764,
      "##ectable": 4765,
      "Cóip": 4766,
      "dílsithe": 4767,
      "##oltage": 4768,
      "compord": 4769,
      "suntasach": 4770,
      "sheachaint": 4771,
      "53": 4772,
      "Faisnéise": 4773,
      "Níos": 4774,
      "ce": 4775,
      "níor": 4776,
      "wash": 4777,
      "##nuithe": 4778,
      "##oid": 4779,
      "##ctha": 4780,
      "##ke": 4781,
      "##ÉAN": 4782,
      "##iseadh": 4783,
      "##bhs": 4784,
      "##íochas": 4785,
      "thac": 4786,
      "gcinn": 4787,
      "sogh": 4788,
      "dtreo": 4789,
      "And": 4790,
      "##ama": 4791,
      "##ráma": 4792,
      "cónaí": 4793,
      "##aisceart": 4794,
      "Chomhphobail": 4795,
      "áitribh": 4796,
      "1967": 4797,
      "foirfe": 4798,
      "##oscaí": 4799,
      "leictreach": 4800,
      "European": 4801,
      "Tráchtála": 4802,
      "##chuideachta": 4803,
      "dliteanas": 4804,
      "duilleoga": 4805,
      "App": 4806,
      "Foirm": 4807,
      "Leigh": 4808,
      "Out": 4809,
      "Pé": 4810,
      "Pró": 4811,
      "Sean": 4812,
      "Sóisialta": 4813,
      "Tabharfaidh": 4814,
      "ceist": 4815,
      "gorm": 4816,
      "hair": 4817,
      "oidh": 4818,
      "sli": 4819,
      "tuaras": 4820,
      "##gen": 4821,
      "##ink": 4822,
      "##isis": 4823,
      "##isean": 4824,
      "##áillí": 4825,
      "dháil": 4826,
      "fhéadfaí": 4827,
      "##chtáil": 4828,
      "mbealach": 4829,
      "dtús": 4830,
      "##chtana": 4831,
      "saoráidí": 4832,
      "léiríonn": 4833,
      "ceadaithe": 4834,
      "shonrú": 4835,
      "luacháil": 4836,
      "fheidhmeanna": 4837,
      "eagraíochtaí": 4838,
      "Cumh": 4839,
      "Talmhaíochta": 4840,
      "##chúiseamh": 4841,
      "shealbhú": 4842,
      "scoirfidh": 4843,
      "Factory": 4844,
      "Tuirc": 4845,
      "CHUN": 4846,
      "aibí": 4847,
      "Mórdhíola": 4848,
      "Connectable": 4849,
      "Iosta": 4850,
      "Ilghné": 4851,
      "díola": 4852,
      "earr": 4853,
      "labhairt": 4854,
      "muir": 4855,
      "po": 4856,
      "praghsanna": 4857,
      "##nóir": 4858,
      "##neoidh": 4859,
      "##port": 4860,
      "##leic": 4861,
      "##quar": 4862,
      "choinne": 4863,
      "##bhun": 4864,
      "gcos": 4865,
      "dhú": 4866,
      "dhíon": 4867,
      "bhféadfaidh": 4868,
      "##scartha": 4869,
      "amhras": 4870,
      "pháirt": 4871,
      "úsáideann": 4872,
      "Bhallstát": 4873,
      "##low": 4874,
      "ionadaithe": 4875,
      "##iotail": 4876,
      "##táilte": 4877,
      "Forbartha": 4878,
      "Achomhairc": 4879,
      "ghníomhaíochtaí": 4880,
      "trast": 4881,
      "##iorra": 4882,
      "éascú": 4883,
      "Ordú": 4884,
      "alc": 4885,
      "urrúis": 4886,
      "litir": 4887,
      "oibleagáid": 4888,
      "##eibhéal": 4889,
      "Ealaíon": 4890,
      "Seirbhíse": 4891,
      "eacnamaíoch": 4892,
      "galar": 4893,
      "mún": 4894,
      "tais": 4895,
      "##oo": 4896,
      "##eálacha": 4897,
      "##uítear": 4898,
      "##óithre": 4899,
      "##lanna": 4900,
      "##SE": 4901,
      "##thain": 4902,
      "bhe": 4903,
      "##lam": 4904,
      "ghrúpa": 4905,
      "##iúntas": 4906,
      "##luas": 4907,
      "cóimh": 4908,
      "bpró": 4909,
      "hArd": 4910,
      "##luiche": 4911,
      "##ious": 4912,
      "189": 4913,
      "tosú": 4914,
      "riachtanas": 4915,
      "inti": 4916,
      "cuspóir": 4917,
      "Monarcha": 4918,
      "##EASÚ": 4919,
      "##íocaíocht": 4920,
      "Cáil": 4921,
      "Pol": 4922,
      "cor": 4923,
      "cathaoirleach": 4924,
      "cigire": 4925,
      "nD": 4926,
      "##av": 4927,
      "##rithe": 4928,
      "##ton": 4929,
      "##chéile": 4930,
      "##irse": 4931,
      "##aiste": 4932,
      "fhr": 4933,
      "mhaolú": 4934,
      "##iall": 4935,
      "Chúirte": 4936,
      "scáth": 4937,
      "##ren": 4938,
      "mbliain": 4939,
      "##uro": 4940,
      "Anois": 4941,
      "stoic": 4942,
      "phraghas": 4943,
      "luadh": 4944,
      "##eilleag": 4945,
      "críochnaithe": 4946,
      "##AID": 4947,
      "Rolex": 4948,
      "iascach": 4949,
      "##ational": 4950,
      "foirc": 4951,
      "éadaí": 4952,
      "threoir": 4953,
      "mholadh": 4954,
      "bainc": 4955,
      "incháilithe": 4956,
      "##eolaithe": 4957,
      "##eastaíonn": 4958,
      "snáithe": 4959,
      "Feidhmiúcháin": 4960,
      "bhreithniú": 4961,
      "Áirítear": 4962,
      "muin": 4963,
      "Samhain": 4964,
      "bhfaighidh": 4965,
      "ghlanadh": 4966,
      "TCDD": 4967,
      "tuairisceán": 4968,
      "##nbúl": 4969,
      "##aimseartha": 4970,
      "Outlook": 4971,
      "Iostanbúl": 4972,
      "48": 4973,
      "Car": 4974,
      "Gaill": 4975,
      "Par": 4976,
      "cistí": 4977,
      "feirm": 4978,
      "fréamh": 4979,
      "hábhair": 4980,
      "léar": 4981,
      "linbh": 4982,
      "múinteoirí": 4983,
      "páipéar": 4984,
      "##iachta": 4985,
      "##ábhar": 4986,
      "##ánaí": 4987,
      "##chr": 4988,
      "##onna": 4989,
      "bhar": 4990,
      "##ghairm": 4991,
      "thíolacadh": 4992,
      "##res": 4993,
      "##ighe": 4994,
      "dtar": 4995,
      "pháirtí": 4996,
      "##luach": 4997,
      "##ruth": 4998,
      "todhchaí": 4999,
      "oibríonn": 5000,
      "táirgeadh": 5001,
      "bpáirt": 5002,
      "shonraithe": 5003,
      "Shóisialaigh": 5004,
      "éilimh": 5005,
      "tionscal": 5006,
      "tionscnaimh": 5007,
      "1998": 5008,
      "##ollar": 5009,
      "diúltú": 5010,
      "éirigh": 5011,
      "maoiniú": 5012,
      "foirgneamh": 5013,
      "dualgas": 5014,
      "substaintí": 5015,
      "síolta": 5016,
      "shárú": 5017,
      "##urnae": 5018,
      "washer": 5019,
      "##quarium": 5020,
      "44": 5021,
      "At": 5022,
      "Cathrach": 5023,
      "Mac": 5024,
      "Post": 5025,
      "Tos": 5026,
      "úis": 5027,
      "##leath": 5028,
      "##MA": 5029,
      "##ÁS": 5030,
      "##cheann": 5031,
      "##chtaí": 5032,
      "bheag": 5033,
      "##bhra": 5034,
      "##iús": 5035,
      "##iúl": 5036,
      "thrí": 5037,
      "thaifead": 5038,
      "iniú": 5039,
      "dheir": 5040,
      "##itinne": 5041,
      "triail": 5042,
      "satail": 5043,
      "tábla": 5044,
      "lámha": 5045,
      "stop": 5046,
      "##lub": 5047,
      "forála": 5048,
      "2002": 5049,
      "cónaithe": 5050,
      "cruthú": 5051,
      "Leasa": 5052,
      "tionscnamh": 5053,
      "cheaptha": 5054,
      "díolúine": 5055,
      "Áitiúla": 5056,
      "feistithe": 5057,
      "difríocht": 5058,
      "faireachán": 5059,
      "comhréireachta": 5060,
      "teicneolaíocht": 5061,
      "moltaí": 5062,
      "déanmhas": 5063,
      "49": 5064,
      "Bail": 5065,
      "Cineál": 5066,
      "DE": 5067,
      "Rúis": 5068,
      "Sm": 5069,
      "TH": 5070,
      "heag": 5071,
      "teicniúil": 5072,
      "áis": 5073,
      "##TS": 5074,
      "##chl": 5075,
      "bhean": 5076,
      "##ory": 5077,
      "dhíl": 5078,
      "tru": 5079,
      "comharthaí": 5080,
      "phearsanta": 5081,
      "##ams": 5082,
      "branda": 5083,
      "Inscne": 5084,
      "buntáistí": 5085,
      "soláthraithe": 5086,
      "uirb": 5087,
      "foireann": 5088,
      "iasachtaí": 5089,
      "tháirgí": 5090,
      "gairmiúil": 5091,
      "bóithre": 5092,
      "iontaobhais": 5093,
      "Ceannais": 5094,
      "cruinnithe": 5095,
      "##spidéal": 5096,
      "Léigh": 5097,
      "ardchaighdeán": 5098,
      "srianta": 5099,
      "Chosaint": 5100,
      "satailíte": 5101,
      "01": 5102,
      "90": 5103,
      "Atha": 5104,
      "Fion": 5105,
      "app": 5106,
      "bíonn": 5107,
      "beatha": 5108,
      "din": 5109,
      "en": 5110,
      "lip": 5111,
      "me": 5112,
      "míniú": 5113,
      "sal": 5114,
      "tine": 5115,
      "Óglaigh": 5116,
      "##oy": 5117,
      "##tic": 5118,
      "##altas": 5119,
      "##earg": 5120,
      "gcomparáid": 5121,
      "##inneach": 5122,
      "seol": 5123,
      "##lteanais": 5124,
      "##anam": 5125,
      "Chlár": 5126,
      "##iceáil": 5127,
      "##eadóir": 5128,
      "rolla": 5129,
      "phointe": 5130,
      "##uidéal": 5131,
      "##fhreag": 5132,
      "measúnachta": 5133,
      "##eapáin": 5134,
      "##túirt": 5135,
      "2003": 5136,
      "cuidiú": 5137,
      "riail": 5138,
      "chúram": 5139,
      "leanúna": 5140,
      "ndéanfaí": 5141,
      "##eoranta": 5142,
      "1997": 5143,
      "##inneog": 5144,
      "chonradh": 5145,
      "teagmhas": 5146,
      "##scoileanna": 5147,
      "##iailiú": 5148,
      "réigiúin": 5149,
      "ionstraimí": 5150,
      "dílse": 5151,
      "snáith": 5152,
      "stádas": 5153,
      "dáileadh": 5154,
      "hoibreacha": 5155,
      "timpeall": 5156,
      "taisteal": 5157,
      "##ltúrtha": 5158,
      "línte": 5159,
      "codanna": 5160,
      "sibhialta": 5161,
      "51": 5162,
      "eochair": 5163,
      "fis": 5164,
      "mainn": 5165,
      "muirir": 5166,
      "sábháilteacht": 5167,
      "óc": 5168,
      "##théacs": 5169,
      "##taobh": 5170,
      "##ush": 5171,
      "##eoite": 5172,
      "##lation": 5173,
      "##tel": 5174,
      "##imint": 5175,
      "##imilt": 5176,
      "fhadhb": 5177,
      "Chuar": 5178,
      "ghearr": 5179,
      "##ocs": 5180,
      "##ock": 5181,
      "##únaimh": 5182,
      "imp": 5183,
      "trédhearc": 5184,
      "##ránach": 5185,
      "gcomhlacht": 5186,
      "##áirc": 5187,
      "éagsúil": 5188,
      "tuismitheoirí": 5189,
      "mheasúnú": 5190,
      "##iciméid": 5191,
      "comhairimh": 5192,
      "cumann": 5193,
      "diúscairt": 5194,
      "tógála": 5195,
      "teasa": 5196,
      "oibrí": 5197,
      "céimeanna": 5198,
      "feithicle": 5199,
      "Tweets": 5200,
      "meáchain": 5201,
      "ballóide": 5202,
      "gcoitinne": 5203,
      "DHÉAN": 5204,
      "cúraimí": 5205,
      "fhoirceannadh": 5206,
      "Dúirt": 5207,
      "Fin": 5208,
      "Local": 5209,
      "Nach": 5210,
      "PR": 5211,
      "Reacht": 5212,
      "dian": 5213,
      "iv": 5214,
      "lasc": 5215,
      "lot": 5216,
      "ol": 5217,
      "pearsan": 5218,
      "réad": 5219,
      "tiocfaidh": 5220,
      "ós": 5221,
      "##az": 5222,
      "##ias": 5223,
      "##our": 5224,
      "##ue": 5225,
      "##ád": 5226,
      "##áite": 5227,
      "##eitr": 5228,
      "thur": 5229,
      "gcoimeád": 5230,
      "dhochtúir": 5231,
      "##easa": 5232,
      "##thaíonn": 5233,
      "##lachas": 5234,
      "ghrian": 5235,
      "##ínítear": 5236,
      "comhartha": 5237,
      "##ealra": 5238,
      "##scáil": 5239,
      "##luaite": 5240,
      "##ród": 5241,
      "Bhreith": 5242,
      "idirdh": 5243,
      "fhoghlaim": 5244,
      "##lúm": 5245,
      "ceannaigh": 5246,
      "##ogadh": 5247,
      "##iúirí": 5248,
      "éifeachta": 5249,
      "hAchta": 5250,
      "bhraitheann": 5251,
      "éilíonn": 5252,
      "Rialú": 5253,
      "dhul": 5254,
      "Cumhacht": 5255,
      "##cmhainní": 5256,
      "bainistiú": 5257,
      "bainisteoir": 5258,
      "gcionta": 5259,
      "cóireáil": 5260,
      "phróiseas": 5261,
      "Leabhar": 5262,
      "gcruth": 5263,
      "dhlíth": 5264,
      "dlíthiúil": 5265,
      "dliteanais": 5266,
      "cúrsaí": 5267,
      "##EANNA": 5268,
      "Nuacht": 5269,
      "ceard": 5270,
      "gheimhridh": 5271,
      "02": 5272,
      "57": 5273,
      "Cás": 5274,
      "Freag": 5275,
      "Gairdín": 5276,
      "Rinne": 5277,
      "bl": 5278,
      "buí": 5279,
      "ceimic": 5280,
      "oc": 5281,
      "res": 5282,
      "teicniúla": 5283,
      "voltage": 5284,
      "##eaf": 5285,
      "##ista": 5286,
      "##alú": 5287,
      "##itimh": 5288,
      "bhféadfaí": 5289,
      "##ileán": 5290,
      "##icéad": 5291,
      "náisiún": 5292,
      "##omhairl": 5293,
      "##lactha": 5294,
      "##atrú": 5295,
      "coin": 5296,
      "ngleic": 5297,
      "breac": 5298,
      "##oirmisc": 5299,
      "chláraithe": 5300,
      "ghníomhaíocht": 5301,
      "teagmhála": 5302,
      "díbh": 5303,
      "teaghlach": 5304,
      "scannáin": 5305,
      "chreidiúint": 5306,
      "héifeacht": 5307,
      "Monaróirí": 5308,
      "iontaofa": 5309,
      "dheasca": 5310,
      "##lúmanam": 5311,
      "52": 5312,
      "Daoine": 5313,
      "Min": 5314,
      "Tí": 5315,
      "bainne": 5316,
      "cist": 5317,
      "clas": 5318,
      "custaim": 5319,
      "dligh": 5320,
      "galair": 5321,
      "míleata": 5322,
      "páistí": 5323,
      "sil": 5324,
      "tuarascálacha": 5325,
      "vol": 5326,
      "Íos": 5327,
      "##iamh": 5328,
      "##cadh": 5329,
      "cheantar": 5330,
      "bhearta": 5331,
      "##bhearta": 5332,
      "##íocháin": 5333,
      "dhroim": 5334,
      "fhéadfar": 5335,
      "mhíniú": 5336,
      "sceideal": 5337,
      "##lia": 5338,
      "##scrúdú": 5339,
      "##oiriúil": 5340,
      "##olog": 5341,
      "achomhairc": 5342,
      "gCiste": 5343,
      "spóirt": 5344,
      "toirt": 5345,
      "##eangacha": 5346,
      "Infheist": 5347,
      "gníomhach": 5348,
      "friotaíocht": 5349,
      "cuireann": 5350,
      "hAcht": 5351,
      "trácht": 5352,
      "chostas": 5353,
      "thuiscint": 5354,
      "aitheanta": 5355,
      "deontais": 5356,
      "threo": 5357,
      "mhargaidh": 5358,
      "##fheidhmiú": 5359,
      "glactha": 5360,
      "caithfidh": 5361,
      "indéanta": 5362,
      "thagairtí": 5363,
      "prionsabail": 5364,
      "faighte": 5365,
      "éigeandála": 5366,
      "maoirseachta": 5367,
      "Iascaigh": 5368,
      "féilire": 5369,
      "hamháin": 5370,
      "DHÉANAMH": 5371,
      "1ú": 5372,
      "43": 5373,
      "58": 5374,
      "Be": 5375,
      "Comp": 5376,
      "Gluaiseacht": 5377,
      "Ró": 5378,
      "Sóisial": 5379,
      "Té": 5380,
      "aimsiú": 5381,
      "bean": 5382,
      "caighdeánach": 5383,
      "eala": 5384,
      "geal": 5385,
      "hais": 5386,
      "lag": 5387,
      "mad": 5388,
      "tío": 5389,
      "óna": 5390,
      "##daítear": 5391,
      "##cairí": 5392,
      "##mar": 5393,
      "##leac": 5394,
      "##éas": 5395,
      "##chais": 5396,
      "##mhór": 5397,
      "##ilv": 5398,
      "##eifear": 5399,
      "##earn": 5400,
      "##ass": 5401,
      "##ten": 5402,
      "gcumas": 5403,
      "Chó": 5404,
      "##icr": 5405,
      "scála": 5406,
      "sciath": 5407,
      "ghr": 5408,
      "##ealth": 5409,
      "ionaid": 5410,
      "craiceann": 5411,
      "saoil": 5412,
      "foláir": 5413,
      "Inc": 5414,
      "Straitéis": 5415,
      "Fhr": 5416,
      "Forbairt": 5417,
      "urscaoileadh": 5418,
      "cheapfaidh": 5419,
      "meascán": 5420,
      "mórdhíoltóirí": 5421,
      "stáisiún": 5422,
      "ainmneacha": 5423,
      "Dearbh": 5424,
      "##eorainneacha": 5425,
      "rathúil": 5426,
      "contrá": 5427,
      "47": 5428,
      "Barr": 5429,
      "Cabh": 5430,
      "Catagóirí": 5431,
      "Eola": 5432,
      "Praghas": 5433,
      "Ríomh": 5434,
      "Ur": 5435,
      "brí": 5436,
      "cig": 5437,
      "deas": 5438,
      "gu": 5439,
      "meabh": 5440,
      "othar": 5441,
      "poist": 5442,
      "stáit": 5443,
      "tao": 5444,
      "tuir": 5445,
      "##oideachais": 5446,
      "##máid": 5447,
      "##áit": 5448,
      "##way": 5449,
      "##dhíon": 5450,
      "chaiteachais": 5451,
      "##lathaithe": 5452,
      "##asamhail": 5453,
      "##éadfidh": 5454,
      "shann": 5455,
      "sheirbhísí": 5456,
      "##unter": 5457,
      "##ainteoir": 5458,
      "áititheoir": 5459,
      "##nóidh": 5460,
      "##iseán": 5461,
      "gcomhpháirt": 5462,
      "##shuim": 5463,
      "cód": 5464,
      "##etro": 5465,
      "Iarratas": 5466,
      "dúradh": 5467,
      "##leagáidí": 5468,
      "cailíní": 5469,
      "tap": 5470,
      "##lish": 5471,
      "ghairmiúil": 5472,
      "bóthair": 5473,
      "fionraí": 5474,
      "pictiúr": 5475,
      "gcruinniú": 5476,
      "fóill": 5477,
      "Daonra": 5478,
      "Bracelet": 5479,
      "iniúchta": 5480,
      "Pac": 5481,
      "Tras": 5482,
      "ciste": 5483,
      "dlúth": 5484,
      "heis": 5485,
      "hainm": 5486,
      "leacht": 5487,
      "tabh": 5488,
      "toirmeasc": 5489,
      "áiseanna": 5490,
      "óg": 5491,
      "##nítear": 5492,
      "##ness": 5493,
      "##raic": 5494,
      "##dáin": 5495,
      "##Ã3": 5496,
      "##chó": 5497,
      "##ireachta": 5498,
      "##ary": 5499,
      "cheil": 5500,
      "charm": 5501,
      "chluiche": 5502,
      "##íod": 5503,
      "thiar": 5504,
      "dhaingniú": 5505,
      "mhair": 5506,
      "shláinte": 5507,
      "shaol": 5508,
      "##iciúla": 5509,
      "mbeart": 5510,
      "láimhe": 5511,
      "staitisticí": 5512,
      "cúirt": 5513,
      "##ibhialta": 5514,
      "Mhárta": 5515,
      "inmhuirir": 5516,
      "1952": 5517,
      "iniúchóireachta": 5518,
      "toghchán": 5519,
      "##ublic": 5520,
      "bailí": 5521,
      "feithicil": 5522,
      "gCuideachtaí": 5523,
      "ainmniúcháin": 5524,
      "difriúil": 5525,
      "##foirt": 5526,
      "Coinbhinsiún": 5527,
      "compordach": 5528,
      "Cáin": 5529,
      "Dollar": 5530,
      "TR": 5531,
      "Tuarascáil": 5532,
      "ail": 5533,
      "beartas": 5534,
      "fír": 5535,
      "fostaíocht": 5536,
      "farraige": 5537,
      "meáin": 5538,
      "neartú": 5539,
      "ru": 5540,
      "óst": 5541,
      "##neach": 5542,
      "##naid": 5543,
      "##oine": 5544,
      "##ít": 5545,
      "##pers": 5546,
      "##mais": 5547,
      "##mer": 5548,
      "##leabhar": 5549,
      "##10": 5550,
      "##nasc": 5551,
      "##rat": 5552,
      "chuaigh": 5553,
      "theas": 5554,
      "inniú": 5555,
      "##ical": 5556,
      "##íosaí": 5557,
      "táimid": 5558,
      "dteagmháil": 5559,
      "##annas": 5560,
      "iomláine": 5561,
      "forais": 5562,
      "riocht": 5563,
      "pleananna": 5564,
      "Stiúr": 5565,
      "táirgthe": 5566,
      "##eolaíochta": 5567,
      "CEE": 5568,
      "tairisceana": 5569,
      "eagrú": 5570,
      "##INN": 5571,
      "##ivers": 5572,
      "1956": 5573,
      "##ANNA": 5574,
      "##ubstaint": 5575,
      "tírdh": 5576,
      "réigiúnach": 5577,
      "Éireannach": 5578,
      "fiac": 5579,
      "aimsire": 5580,
      "treoirlínte": 5581,
      "comhshoc": 5582,
      "foirgníochta": 5583,
      "bhéarfaidh": 5584,
      "liathróid": 5585,
      "reáchtáil": 5586,
      "fheithicil": 5587,
      "Céim": 5588,
      "Déard": 5589,
      "Leith": 5590,
      "LEASÚ": 5591,
      "Sin": 5592,
      "Seirbhís": 5593,
      "aire": 5594,
      "coinníoll": 5595,
      "giorra": 5596,
      "hord": 5597,
      "líomh": 5598,
      "pío": 5599,
      "taispeán": 5600,
      "##ió": 5601,
      "##net": 5602,
      "##naitheach": 5603,
      "##téir": 5604,
      "##top": 5605,
      "##cuim": 5606,
      "##uin": 5607,
      "##leathach": 5608,
      "##ber": 5609,
      "##LÁ": 5610,
      "##feas": 5611,
      "choinníollacha": 5612,
      "##iúlacht": 5613,
      "##ghrá": 5614,
      "##earch": 5615,
      "thag": 5616,
      "theicniúil": 5617,
      "dhiailiú": 5618,
      "sine": 5619,
      "Choinbhinsiún": 5620,
      "##nachta": 5621,
      "dtug": 5622,
      "áireofar": 5623,
      "iomarc": 5624,
      "forlíon": 5625,
      "forléireofar": 5626,
      "##uirm": 5627,
      "##enc": 5628,
      "athar": 5629,
      "foghlaim": 5630,
      "##eilig": 5631,
      "máist": 5632,
      "conarthaí": 5633,
      "##EACHT": 5634,
      "earrach": 5635,
      "##antóir": 5636,
      "suimiúil": 5637,
      "cleachtais": 5638,
      "cheanglaítear": 5639,
      "infheistíocht": 5640,
      "cóipeanna": 5641,
      "hionstraim": 5642,
      "Tionscadal": 5643,
      "seachtrach": 5644,
      "fhágáil": 5645,
      "gléasra": 5646,
      "##chuirtear": 5647,
      "##ouse": 5648,
      "dtáirgí": 5649,
      "##chéime": 5650,
      "Teaghlaigh": 5651,
      "mionsonraithe": 5652,
      "##eosla": 5653,
      "Iomlán": 5654,
      "fhostaí": 5655,
      "próiseála": 5656,
      "fréamhacha": 5657,
      "Chuarda": 5658,
      "Fhrainc": 5659,
      "Joint": 5660,
      "Lo": 5661,
      "Man": 5662,
      "Roinne": 5663,
      "Taighde": 5664,
      "Taispeáin": 5665,
      "gal": 5666,
      "ithe": 5667,
      "##ah": 5668,
      "##opa": 5669,
      "##ran": 5670,
      "##tra": 5671,
      "##cu": 5672,
      "##íd": 5673,
      "##saithe": 5674,
      "##por": 5675,
      "##maíochta": 5676,
      "##lar": 5677,
      "##FC": 5678,
      "##UM": 5679,
      "##chead": 5680,
      "chaiteachas": 5681,
      "chigire": 5682,
      "nao": 5683,
      "thaisc": 5684,
      "fhoils": 5685,
      "##ásach": 5686,
      "##itheora": 5687,
      "##aidin": 5688,
      "##iúnú": 5689,
      "gCO": 5690,
      "##álann": 5691,
      "imní": 5692,
      "##atóireacht": 5693,
      "aca": 5694,
      "tharchur": 5695,
      "fáilte": 5696,
      "##túin": 5697,
      "gníomhaíochta": 5698,
      "deartha": 5699,
      "1926": 5700,
      "1936": 5701,
      "##póirtéir": 5702,
      "vótáil": 5703,
      "toghcháin": 5704,
      "Cosanta": 5705,
      "Leictr": 5706,
      "phríos": 5707,
      "cúrsa": 5708,
      "scaipeadh": 5709,
      "Céadaoin": 5710,
      "gruaige": 5711,
      "##MHAIRLE": 5712,
      "shanntar": 5713,
      "Déardaoin": 5714,
      "Me": 5715,
      "Rú": 5716,
      "Riail": 5717,
      "Slán": 5718,
      "Tugtar": 5719,
      "Tiocfaidh": 5720,
      "céile": 5721,
      "digiteach": 5722,
      "ealaíon": 5723,
      "fais": 5724,
      "Ós": 5725,
      "##hone": 5726,
      "##nigh": 5727,
      "##póid": 5728,
      "##thachta": 5729,
      "bhliana": 5730,
      "##earach": 5731,
      "##eartaítear": 5732,
      "##adóir": 5733,
      "gcúirt": 5734,
      "##inné": 5735,
      "scar": 5736,
      "scáil": 5737,
      "marg": 5738,
      "##oimre": 5739,
      "tarlú": 5740,
      "feidhmiúcháin": 5741,
      "Bhun": 5742,
      "gáis": 5743,
      "mothú": 5744,
      "oibreoir": 5745,
      "chúnamh": 5746,
      "léigh": 5747,
      "Ghearmáin": 5748,
      "##EAD": 5749,
      "##iotal": 5750,
      "innealt": 5751,
      "##ots": 5752,
      "1927": 5753,
      "eagla": 5754,
      "táscaire": 5755,
      "miond": 5756,
      "##liceáil": 5757,
      "ilbh": 5758,
      "casta": 5759,
      "eitilt": 5760,
      "tagartha": 5761,
      "Saoire": 5762,
      "prionsabal": 5763,
      "mhuirearú": 5764,
      "bhóthar": 5765,
      "cuardaigh": 5766,
      "Uaireadóirí": 5767,
      "athnuachan": 5768,
      "##ocsain": 5769,
      "80": 5770,
      "Bill": 5771,
      "Dearadh": 5772,
      "National": 5773,
      "Rinneadh": 5774,
      "bró": 5775,
      "custaiméirí": 5776,
      "héil": 5777,
      "máil": 5778,
      "pas": 5779,
      "paisinéirí": 5780,
      "seachadadh": 5781,
      "##han": 5782,
      "##pt": 5783,
      "##mair": 5784,
      "##btha": 5785,
      "##ireachtas": 5786,
      "chathair": 5787,
      "##nation": 5788,
      "##lata": 5789,
      "debate": 5790,
      "inchurtha": 5791,
      "gcaitheamh": 5792,
      "##éireachta": 5793,
      "Chaibidil": 5794,
      "cuims": 5795,
      "ghin": 5796,
      "ghrá": 5797,
      "##rent": 5798,
      "comhlíon": 5799,
      "##ealaigh": 5800,
      "##scail": 5801,
      "leathair": 5802,
      "Tábla": 5803,
      "phland": 5804,
      "úsáidfear": 5805,
      "##réitigh": 5806,
      "##fhabh": 5807,
      "cothabháil": 5808,
      "##tús": 5809,
      "gníomhaíocht": 5810,
      "##ogle": 5811,
      "iarrfaidh": 5812,
      "dtagann": 5813,
      "laghdaithe": 5814,
      "mBan": 5815,
      "dúsh": 5816,
      "chóip": 5817,
      "ghníomhaire": 5818,
      "tógtha": 5819,
      "Gníomhaireachta": 5820,
      "##book": 5821,
      "laethúil": 5822,
      "héifeachtach": 5823,
      "Clib": 5824,
      "caipitiúil": 5825,
      "fágtha": 5826,
      "iPhone": 5827,
      "siopaí": 5828,
      "Cliceáil": 5829,
      "Diam": 5830,
      "FÁS": 5831,
      "Il": 5832,
      "Lim": 5833,
      "Mag": 5834,
      "No": 5835,
      "Uathoibríoch": 5836,
      "buidéal": 5837,
      "caomh": 5838,
      "dia": 5839,
      "rad": 5840,
      "##rth": 5841,
      "##cra": 5842,
      "##cum": 5843,
      "##óthar": 5844,
      "##ION": 5845,
      "##SC": 5846,
      "##thr": 5847,
      "##tan": 5848,
      "##usc": 5849,
      "##ltúir": 5850,
      "##eannaigh": 5851,
      "cuibhe": 5852,
      "shiúl": 5853,
      "phlé": 5854,
      "##dúil": 5855,
      "luaite": 5856,
      "##fhocal": 5857,
      "coda": 5858,
      "idirbheart": 5859,
      "fhorchur": 5860,
      "chúiteamh": 5861,
      "rialaitheoir": 5862,
      "cliceáil": 5863,
      "1939": 5864,
      "domhanda": 5865,
      "1946": 5866,
      "eastát": 5867,
      "tábhacht": 5868,
      "Super": 5869,
      "dhiúlt": 5870,
      "himthosca": 5871,
      "Stat": 5872,
      "aimsir": 5873,
      "teachín": 5874,
      "coiriúla": 5875,
      "Dubh": 5876,
      "glasraí": 5877,
      "##áistiú": 5878,
      "Univers": 5879,
      "uirlisí": 5880,
      "speicis": 5881,
      "tOireachtas": 5882,
      "Cumarsáide": 5883,
      "Aist": 5884,
      "Aib": 5885,
      "Coimisinéir": 5886,
      "Cainteoir": 5887,
      "Limist": 5888,
      "Oibre": 5889,
      "SE": 5890,
      "Stá": 5891,
      "cine": 5892,
      "feas": 5893,
      "fón": 5894,
      "fomhír": 5895,
      "lam": 5896,
      "pointí": 5897,
      "saibh": 5898,
      "##ax": 5899,
      "##ii": 5900,
      "##nród": 5901,
      "##stát": 5902,
      "##ka": 5903,
      "##IB": 5904,
      "##vers": 5905,
      "##arb": 5906,
      "##dhéanta": 5907,
      "chustaiméirí": 5908,
      "chríche": 5909,
      "dhearadh": 5910,
      "aonaid": 5911,
      "mharc": 5912,
      "mhoill": 5913,
      "Chú": 5914,
      "shín": 5915,
      "scill": 5916,
      "margaidh": 5917,
      "ghléas": 5918,
      "##scaoilte": 5919,
      "str": 5920,
      "##éarm": 5921,
      "##áladh": 5922,
      "fhorghníomhú": 5923,
      "Scr": 5924,
      "tseachtain": 5925,
      "chúl": 5926,
      "Déantóirí": 5927,
      "##eisial": 5928,
      "Coláiste": 5929,
      "##ártaí": 5930,
      "sainráite": 5931,
      "scoláir": 5932,
      "brabús": 5933,
      "ceanglas": 5934,
      "cumarsáide": 5935,
      "##itheoireachta": 5936,
      "inarb": 5937,
      "gcuirfí": 5938,
      "lárnach": 5939,
      "saincheisteanna": 5940,
      "deigh": 5941,
      "dhóigh": 5942,
      "Rátaí": 5943,
      "Áirith": 5944,
      "gcomhlíonann": 5945,
      "aturnae": 5946,
      "Léiríonn": 5947,
      "daonna": 5948,
      "##bhuan": 5949,
      "gheimhreadh": 5950,
      "íomhá": 5951,
      "iontráil": 5952,
      "meastóireacht": 5953,
      "fógraí": 5954,
      "tuigfear": 5955,
      "dháileadh": 5956,
      "lotnaid": 5957,
      "Diamond": 5958,
      "56": 5959,
      "7ú": 5960,
      "Bí": 5961,
      "Gearr": 5962,
      "IS": 5963,
      "SA": 5964,
      "Sk": 5965,
      "Sna": 5966,
      "Tagann": 5967,
      "ban": 5968,
      "bealaí": 5969,
      "ciorc": 5970,
      "úr": 5971,
      "##ole": 5972,
      "##uíonn": 5973,
      "##DA": 5974,
      "##HO": 5975,
      "##IG": 5976,
      "##chiste": 5977,
      "##dhlú": 5978,
      "chiste": 5979,
      "##uss": 5980,
      "##lamh": 5981,
      "theagh": 5982,
      "fhíorú": 5983,
      "shás": 5984,
      "##irgeadh": 5985,
      "##aithint": 5986,
      "##aitheacha": 5987,
      "ionchúiseamh": 5988,
      "dtír": 5989,
      "dtogh": 5990,
      "chomhaon": 5991,
      "##rachais": 5992,
      "##amhraidh": 5993,
      "##ibhn": 5994,
      "##iosca": 5995,
      "fhorord": 5996,
      "Ins": 5997,
      "##EAR": 5998,
      "tráchta": 5999,
      "##aingt": 6000,
      "tuigthe": 6001,
      "soláthróirí": 6002,
      "mheastar": 6003,
      "teachtaireacht": 6004,
      "míre": 6005,
      "Spá": 6006,
      "1990": 6007,
      "cáilíocht": 6008,
      "##rafach": 6009,
      "príomha": 6010,
      "chumann": 6011,
      "smacht": 6012,
      "##odanna": 6013,
      "dhiúltú": 6014,
      "Athch": 6015,
      "úinéireacht": 6016,
      "uasta": 6017,
      "Roghnaigh": 6018,
      "mhaoiniú": 6019,
      "admh": 6020,
      "##IALA": 6021,
      "##eilleagar": 6022,
      "foirceannadh": 6023,
      "ócáid": 6024,
      "thurus": 6025,
      "voltas": 6026,
      "tírdhreach": 6027,
      "Ama": 6028,
      "Col": 6029,
      "Eile": 6030,
      "Gnáth": 6031,
      "Res": 6032,
      "Teil": 6033,
      "Tuairimí": 6034,
      "airteagal": 6035,
      "catagóirí": 6036,
      "euro": 6037,
      "fú": 6038,
      "flash": 6039,
      "grúpaí": 6040,
      "ie": 6041,
      "lch": 6042,
      "log": 6043,
      "rabh": 6044,
      "seirbh": 6045,
      "tur": 6046,
      "taise": 6047,
      "##íc": 6048,
      "##kara": 6049,
      "##form": 6050,
      "##cheap": 6051,
      "##ino": 6052,
      "##mhaithe": 6053,
      "##ilte": 6054,
      "##ileog": 6055,
      "chathaoirleach": 6056,
      "lená": 6057,
      "bháis": 6058,
      "##bhach": 6059,
      "thuairim": 6060,
      "##itear": 6061,
      "##omb": 6062,
      "Cho": 6063,
      "cuimilt": 6064,
      "ghá": 6065,
      "##ses": 6066,
      "##rúchán": 6067,
      "leithdháil": 6068,
      "##álfaidh": 6069,
      "siopa": 6070,
      "cúl": 6071,
      "sonrófar": 6072,
      "##rácht": 6073,
      "##ánacha": 6074,
      "##ets": 6075,
      "iarrthóirí": 6076,
      "bpr": 6077,
      "bhforas": 6078,
      "##iotáil": 6079,
      "páirteanna": 6080,
      "##ábhachtach": 6081,
      "soláthair": 6082,
      "##úinteoir": 6083,
      "##últa": 6084,
      "Deon": 6085,
      "Google": 6086,
      "próiseáil": 6087,
      "##bhreithniú": 6088,
      "Breat": 6089,
      "láithreáin": 6090,
      "vótaí": 6091,
      "cabhair": 6092,
      "nuála": 6093,
      "folctha": 6094,
      "rannpháirteach": 6095,
      "spriocanna": 6096,
      "stórála": 6097,
      "rioscaí": 6098,
      "##aidrimh": 6099,
      "chomaoin": 6100,
      "ríomhphoist": 6101,
      "dhualgas": 6102,
      "Mheiriceá": 6103,
      "chlúdach": 6104,
      "oidhreacht": 6105,
      "olc": 6106,
      "lenár": 6107,
      "68": 6108,
      "Bíonn": 6109,
      "Bog": 6110,
      "Cinneadh": 6111,
      "Ciallaíonn": 6112,
      "Ear": 6113,
      "Eacnamaíoch": 6114,
      "Health": 6115,
      "Nós": 6116,
      "Oidh": 6117,
      "Riar": 6118,
      "Teacht": 6119,
      "alúmanam": 6120,
      "bag": 6121,
      "dor": 6122,
      "deoch": 6123,
      "fig": 6124,
      "mair": 6125,
      "pósta": 6126,
      "raid": 6127,
      "rian": 6128,
      "reilig": 6129,
      "uiscí": 6130,
      "wh": 6131,
      "Éire": 6132,
      "##tán": 6133,
      "##tóidh": 6134,
      "##part": 6135,
      "##óta": 6136,
      "##lóir": 6137,
      "##AT": 6138,
      "##DF": 6139,
      "##IF": 6140,
      "deiseanna": 6141,
      "##eard": 6142,
      "chuard": 6143,
      "dhích": 6144,
      "fheic": 6145,
      "fhost": 6146,
      "fhreas": 6147,
      "bhfostaíocht": 6148,
      "##tál": 6149,
      "aontú": 6150,
      "mhian": 6151,
      "sheo": 6152,
      "##lianta": 6153,
      "##rúcháin": 6154,
      "##rúdaithe": 6155,
      "##ighn": 6156,
      "láimhse": 6157,
      "creat": 6158,
      "orainn": 6159,
      "##nófar": 6160,
      "Arm": 6161,
      "ngnáth": 6162,
      "fholaíonn": 6163,
      "##umais": 6164,
      "moladh": 6165,
      "laghd": 6166,
      "##iciméad": 6167,
      "##aicí": 6168,
      "1994": 6169,
      "1925": 6170,
      "Corparáide": 6171,
      "##ismitheoir": 6172,
      "tograí": 6173,
      "éiríonn": 6174,
      "dathanna": 6175,
      "Gníomhaíochta": 6176,
      "leictreachais": 6177,
      "Frith": 6178,
      "Iompar": 6179,
      "##ÍOCHTA": 6180,
      "gComhphobal": 6181,
      "samplaí": 6182,
      "##táiniam": 6183,
      "Exp": 6184,
      "íomhánna": 6185,
      "gearán": 6186,
      "Sainmhíniú": 6187,
      "Fheidhmiú": 6188,
      "hoibleagáidí": 6189,
      "bronntanas": 6190,
      "dúbailte": 6191,
      "muinín": 6192,
      "##untertop": 6193,
      "66": 6194,
      "63": 6195,
      "73": 6196,
      "Aith": 6197,
      "CÚ": 6198,
      "Cal": 6199,
      "Cas": 6200,
      "Cóir": 6201,
      "Faisnéis": 6202,
      "Pl": 6203,
      "TE": 6204,
      "aeir": 6205,
      "bre": 6206,
      "bíodh": 6207,
      "coinne": 6208,
      "ceol": 6209,
      "daltaí": 6210,
      "he": 6211,
      "mm": 6212,
      "nea": 6213,
      "patrú": 6214,
      "seachad": 6215,
      "Ár": 6216,
      "ÓN": 6217,
      "##aice": 6218,
      "##ghrúpa": 6219,
      "##aoise": 6220,
      "dhíreach": 6221,
      "##éireacht": 6222,
      "séala": 6223,
      "cré": 6224,
      "##erg": 6225,
      "##amb": 6226,
      "##str": 6227,
      "##stru": 6228,
      "dóich": 6229,
      "ngabh": 6230,
      "fhorordaithe": 6231,
      "##onnaithe": 6232,
      "##áireamh": 6233,
      "##uilleamh": 6234,
      "##ailliú": 6235,
      "ordachán": 6236,
      "sholáthraíonn": 6237,
      "cheadúnais": 6238,
      "##aispeá": 6239,
      "1960": 6240,
      "ful": 6241,
      "ceangal": 6242,
      "ceangailte": 6243,
      "bhuiséad": 6244,
      "Críoch": 6245,
      "riaradh": 6246,
      "iniúchóir": 6247,
      "cóireála": 6248,
      "gcuirfidh": 6249,
      "tiomána": 6250,
      "reachtúla": 6251,
      "rannpháirtíocht": 6252,
      "Commission": 6253,
      "fhágann": 6254,
      "allmhairiú": 6255,
      "Irish": 6256,
      "caoga": 6257,
      "Thuaidh": 6258,
      "aigéad": 6259,
      "Apple": 6260,
      "59": 6261,
      "Ab": 6262,
      "Bur": 6263,
      "Bia": 6264,
      "Bardas": 6265,
      "CR": 6266,
      "Cor": 6267,
      "Eacht": 6268,
      "Fostaíochta": 6269,
      "Ios": 6270,
      "Méid": 6271,
      "PC": 6272,
      "RIALA": 6273,
      "Tabharfar": 6274,
      "baol": 6275,
      "cló": 6276,
      "ceoil": 6277,
      "gin": 6278,
      "gluais": 6279,
      "gluaiste": 6280,
      "hum": 6281,
      "miotail": 6282,
      "tithe": 6283,
      "##ience": 6284,
      "##nscail": 6285,
      "##sal": 6286,
      "##mpa": 6287,
      "##TAIS": 6288,
      "##inéirí": 6289,
      "##eifr": 6290,
      "##ration": 6291,
      "##adóireacht": 6292,
      "inbhuan": 6293,
      "##its": 6294,
      "##imhne": 6295,
      "scór": 6296,
      "##ser": 6297,
      "##liam": 6298,
      "202": 6299,
      "##ert": 6300,
      "iarmhar": 6301,
      "féideartha": 6302,
      "##ainníocht": 6303,
      "airm": 6304,
      "Thos": 6305,
      "rialáil": 6306,
      "##ction": 6307,
      "gnóthas": 6308,
      "mheasfaidh": 6309,
      "mheasann": 6310,
      "Iarratais": 6311,
      "tSeirbhís": 6312,
      "dearmad": 6313,
      "saineolaithe": 6314,
      "eagar": 6315,
      "1972": 6316,
      "sráid": 6317,
      "sreabhadh": 6318,
      "díolacháin": 6319,
      "Cluiche": 6320,
      "gairmiúla": 6321,
      "comhshaoil": 6322,
      "aisghabháil": 6323,
      "gearrth": 6324,
      "bunúsach": 6325,
      "comhdhéanta": 6326,
      "speiceas": 6327,
      "CFAE": 6328,
      "aitheantas": 6329,
      "choigeartú": 6330,
      "Ilghnéitheacha": 6331,
      "##leathan": 6332,
      "University": 6333,
      "Bán": 6334,
      "Diú": 6335,
      "Fir": 6336,
      "Lig": 6337,
      "Tuarascálacha": 6338,
      "cathrach": 6339,
      "fáis": 6340,
      "fórsaí": 6341,
      "gúna": 6342,
      "mur": 6343,
      "mp3": 6344,
      "per": 6345,
      "pobail": 6346,
      "páipéir": 6347,
      "rúnaí": 6348,
      "sruth": 6349,
      "vitim": 6350,
      "video": 6351,
      "áras": 6352,
      "##iac": 6353,
      "##to": 6354,
      "##tí": 6355,
      "##trú": 6356,
      "##cráin": 6357,
      "##úile": 6358,
      "##lon": 6359,
      "##léad": 6360,
      "##liúntais": 6361,
      "##ks": 6362,
      "##ya": 6363,
      "##IAL": 6364,
      "choir": 6365,
      "nóta": 6366,
      "nótaí": 6367,
      "thás": 6368,
      "throm": 6369,
      "theastaíonn": 6370,
      "mhínithe": 6371,
      "##icéid": 6372,
      "##icind": 6373,
      "##láraithe": 6374,
      "##aitheora": 6375,
      "crainn": 6376,
      "chomhpháirt": 6377,
      "##oirne": 6378,
      "achmair": 6379,
      "forleathan": 6380,
      "úsáideadh": 6381,
      "##uirbh": 6382,
      "gurbh": 6383,
      "cúlta": 6384,
      "cothabhála": 6385,
      "gcomhthéacs": 6386,
      "##ipp": 6387,
      "tsamhraidh": 6388,
      "chúig": 6389,
      "uaireadóirí": 6390,
      "Mhaigh": 6391,
      "tube": 6392,
      "187": 6393,
      "##aiceach": 6394,
      "bhforálacha": 6395,
      "deonaíodh": 6396,
      "breithiúnas": 6397,
      "1988": 6398,
      "##aipitiúil": 6399,
      "easpa": 6400,
      "nádúr": 6401,
      "##aoiseach": 6402,
      "Lucht": 6403,
      "fhaightear": 6404,
      "Trádála": 6405,
      "##chuibh": 6406,
      "ithreach": 6407,
      "mícheart": 6408,
      "pacáiste": 6409,
      "fuinneamh": 6410,
      "beirt": 6411,
      "hiarratas": 6412,
      "dhíth": 6413,
      "pionóis": 6414,
      "prátaí": 6415,
      "##CHÁIN": 6416,
      "eisceacht": 6417,
      "mhíchumas": 6418,
      "bpróiseas": 6419,
      "Cá": 6420,
      "Cinn": 6421,
      "Coinn": 6422,
      "Deir": 6423,
      "Dúin": 6424,
      "IP": 6425,
      "Meiric": 6426,
      "PA": 6427,
      "cairde": 6428,
      "eadh": 6429,
      "eat": 6430,
      "gréine": 6431,
      "hur": 6432,
      "tasc": 6433,
      "tugtar": 6434,
      "éan": 6435,
      "##aghas": 6436,
      "##oifig": 6437,
      "##sic": 6438,
      "##mid": 6439,
      "##leibhéal": 6440,
      "##airc": 6441,
      "intu": 6442,
      "bhfógra": 6443,
      "bhfoireann": 6444,
      "##easmhach": 6445,
      "##ithí": 6446,
      "cuain": 6447,
      "sheas": 6448,
      "shíniú": 6449,
      "##lif": 6450,
      "rochtana": 6451,
      "dtionsc": 6452,
      "##eirme": 6453,
      "##olg": 6454,
      "phinsin": 6455,
      "##ialacha": 6456,
      "leithreas": 6457,
      "saoirse": 6458,
      "Bhr": 6459,
      "##eimhl": 6460,
      "##roich": 6461,
      "gcomhlíonadh": 6462,
      "##uarthas": 6463,
      "oibreoidh": 6464,
      "bpobal": 6465,
      "gnóchain": 6466,
      "sholáthróidh": 6467,
      "chruinnithe": 6468,
      "1937": 6469,
      "1961": 6470,
      "scairch": 6471,
      "breitheamh": 6472,
      "Soláthraíonn": 6473,
      "##ochla": 6474,
      "díoltóir": 6475,
      "costaisí": 6476,
      "chríochnú": 6477,
      "athchomharc": 6478,
      "feabhsú": 6479,
      "Ráiteas": 6480,
      "timpeallacht": 6481,
      "Measfar": 6482,
      "uathúil": 6483,
      "gcúrsa": 6484,
      "fhoirgneamh": 6485,
      "Comhshaoil": 6486,
      "ealaíne": 6487,
      "##ilvéise": 6488,
      "Clibeanna": 6489,
      "Áiritheoidh": 6490,
      "Breataine": 6491,
      "67": 6492,
      "AC": 6493,
      "Ceang": 6494,
      "Cumann": 6495,
      "Mion": 6496,
      "Srian": 6497,
      "UN": 6498,
      "ae": 6499,
      "fíorú": 6500,
      "mála": 6501,
      "radh": 6502,
      "##ron": 6503,
      "##td": 6504,
      "##ell": 6505,
      "##ger": 6506,
      "##zon": 6507,
      "##ÓIR": 6508,
      "##eab": 6509,
      "##iniciúil": 6510,
      "##dha": 6511,
      "##rag": 6512,
      "inár": 6513,
      "gcú": 6514,
      "fhé": 6515,
      "fhiach": 6516,
      "comhiomlán": 6517,
      "##órtas": 6518,
      "roth": 6519,
      "ndeon": 6520,
      "Ankara": 6521,
      "##nasta": 6522,
      "ioma": 6523,
      "##luaist": 6524,
      "úsáideach": 6525,
      "##únuithe": 6526,
      "saothrú": 6527,
      "saoránach": 6528,
      "##ener": 6529,
      "gCon": 6530,
      "áitiú": 6531,
      "foras": 6532,
      "foinse": 6533,
      "blian": 6534,
      "##ump": 6535,
      "##shaol": 6536,
      "neamhr": 6537,
      "cóc": 6538,
      "gníomhaire": 6539,
      "hEilvéise": 6540,
      "chothú": 6541,
      "cheannaigh": 6542,
      "gnóchan": 6543,
      "##aipe": 6544,
      "príobháid": 6545,
      "cleith": 6546,
      "1978": 6547,
      "##THE": 6548,
      "teaghais": 6549,
      "dheonadh": 6550,
      "Sula": 6551,
      "nasctha": 6552,
      "snámha": 6553,
      "Turas": 6554,
      "clúdach": 6555,
      "##ianach": 6556,
      "Oiliúna": 6557,
      "hathruithe": 6558,
      "chúrsa": 6559,
      "gcoinnibh": 6560,
      "Gairmiúla": 6561,
      "seiceálacha": 6562,
      "soghluaiste": 6563,
      "trasteorann": 6564,
      "##national": 6565,
      "64": 6566,
      "89": 6567,
      "98": 6568,
      "Digiteach": 6569,
      "Eo": 6570,
      "Fad": 6571,
      "Fre": 6572,
      "Gin": 6573,
      "Mea": 6574,
      "Osc": 6575,
      "Off": 6576,
      "PO": 6577,
      "haist": 6578,
      "nO": 6579,
      "Éil": 6580,
      "íog": 6581,
      "óspidéil": 6582,
      "##ater": 6583,
      "##oise": 6584,
      "##dearg": 6585,
      "##ebook": 6586,
      "##mir": 6587,
      "##úsáid": 6588,
      "##úcháin": 6589,
      "##áltais": 6590,
      "##SA": 6591,
      "##ÁLA": 6592,
      "##chn": 6593,
      "ant": 6594,
      "##tacht": 6595,
      "chánach": 6596,
      "bhaill": 6597,
      "##asach": 6598,
      "fhostóir": 6599,
      "##ithigh": 6600,
      "shóisialta": 6601,
      "séas": 6602,
      "maraon": 6603,
      "ghaol": 6604,
      "##abhta": 6605,
      "##ifíl": 6606,
      "leanann": 6607,
      "dtu": 6608,
      "dtuairim": 6609,
      "feidhmíochta": 6610,
      "##eicthe": 6611,
      "dóiteáin": 6612,
      "##ibheacha": 6613,
      "##ipe": 6614,
      "oifigiúla": 6615,
      "saoránaigh": 6616,
      "breithe": 6617,
      "Phoiblí": 6618,
      "Rialacha": 6619,
      "current": 6620,
      "##eánaigh": 6621,
      "shonróidh": 6622,
      "tuaithe": 6623,
      "innealra": 6624,
      "Conradh": 6625,
      "éifeachtúlacht": 6626,
      "##ealaíon": 6627,
      "tionchair": 6628,
      "Oifigeach": 6629,
      "réasún": 6630,
      "mianraí": 6631,
      "##ránaigh": 6632,
      "gcuireann": 6633,
      "tháirgtear": 6634,
      "Cosaint": 6635,
      "riachtanacha": 6636,
      "corparáide": 6637,
      "foirmeacha": 6638,
      "##TIÚ": 6639,
      "bándearg": 6640,
      "cruinneas": 6641,
      "Foirgn": 6642,
      "Domhanda": 6643,
      "gceangal": 6644,
      "druga": 6645,
      "Teicneolaíocht": 6646,
      "teagaisc": 6647,
      "nuashonrú": 6648,
      "fhrith": 6649,
      "éifeachtacht": 6650,
      "gCOMHAIRLE": 6651,
      "Limited": 6652,
      "03": 6653,
      "300": 6654,
      "Dó": 6655,
      "Micr": 6656,
      "Public": 6657,
      "coil": 6658,
      "cainéil": 6659,
      "daingean": 6660,
      "hiomp": 6661,
      "meicniúil": 6662,
      "pait": 6663,
      "tiarna": 6664,
      "ór": 6665,
      "##ital": 6666,
      "##téarm": 6667,
      "##cess": 6668,
      "##ómh": 6669,
      "##Fómh": 6670,
      "##EID": 6671,
      "chustaim": 6672,
      "chaomhnú": 6673,
      "##raen": 6674,
      "##gha": 6675,
      "##ories": 6676,
      "théarmaí": 6677,
      "fhostaíocht": 6678,
      "##ition": 6679,
      "triom": 6680,
      "##iceach": 6681,
      "mbaol": 6682,
      "bhfuiltear": 6683,
      "##sen": 6684,
      "##ealladh": 6685,
      "ionfhabh": 6686,
      "chomhth": 6687,
      "##oimirce": 6688,
      "##act": 6689,
      "gClár": 6690,
      "gCoiste": 6691,
      "tarraingt": 6692,
      "##ascailt": 6693,
      "##eimhnithe": 6694,
      "speisial": 6695,
      "##ipt": 6696,
      "bróga": 6697,
      "neamhní": 6698,
      "bhunús": 6699,
      "contúirt": 6700,
      "##oláthair": 6701,
      "rialtas": 6702,
      "120": 6703,
      "gnóthais": 6704,
      "##ríbhn": 6705,
      "eisíodh": 6706,
      "teachtaireachtaí": 6707,
      "féachana": 6708,
      "##raitheach": 6709,
      "siúcra": 6710,
      "1934": 6711,
      "##aráideach": 6712,
      "thriail": 6713,
      "árachas": 6714,
      "##llamh": 6715,
      "phríobháideach": 6716,
      "huathoibríoch": 6717,
      "insint": 6718,
      "teicneolaíochta": 6719,
      "folamh": 6720,
      "hOifig": 6721,
      "tromchúiseach": 6722,
      "trádmharc": 6723,
      "thaifeadadh": 6724,
      "cruthúnas": 6725,
      "##istant": 6726,
      "##ghrádú": 6727,
      "dtugann": 6728,
      "##liament": 6729,
      "07": 6730,
      "400": 6731,
      "95": 6732,
      "Eochair": 6733,
      "Jack": 6734,
      "Lit": 6735,
      "Mí": 6736,
      "Pobail": 6737,
      "Páirtí": 6738,
      "PDF": 6739,
      "ST": 6740,
      "Solas": 6741,
      "Tuairisc": 6742,
      "Zhong": 6743,
      "crao": 6744,
      "deal": 6745,
      "eint": 6746,
      "malar": 6747,
      "naisc": 6748,
      "##iat": 6749,
      "##iacha": 6750,
      "##nar": 6751,
      "##oltais": 6752,
      "##par": 6753,
      "##gead": 6754,
      "##uch": 6755,
      "##líne": 6756,
      "##ful": 6757,
      "##Shan": 6758,
      "##earas": 6759,
      "##onadh": 6760,
      "##tacháin": 6761,
      "##ileach": 6762,
      "bhrú": 6763,
      "##alaithe": 6764,
      "gcoinníollacha": 6765,
      "gcúis": 6766,
      "bhfreag": 6767,
      "bhfocal": 6768,
      "troid": 6769,
      "##áideacha": 6770,
      "##lie": 6771,
      "dtéarmaí": 6772,
      "phá": 6773,
      "##ógó": 6774,
      "astu": 6775,
      "##uirí": 6776,
      "##ded": 6777,
      "údaruithe": 6778,
      "##nóna": 6779,
      "airleac": 6780,
      "##roichead": 6781,
      "gcomhaltaí": 6782,
      "nglacadh": 6783,
      "tharml": 6784,
      "Scileanna": 6785,
      "##tachtaí": 6786,
      "oibriúcháin": 6787,
      "roghnaigh": 6788,
      "##iorad": 6789,
      "mheasfar": 6790,
      "Cons": 6791,
      "Ioncuim": 6792,
      "tosaíochta": 6793,
      "1977": 6794,
      "1980": 6795,
      "vótála": 6796,
      "##eamara": 6797,
      "tógadh": 6798,
      "tábhachtaí": 6799,
      "bainte": 6800,
      "teaghrán": 6801,
      "éireoidh": 6802,
      "Cosúil": 6803,
      "infheistíochtaí": 6804,
      "loings": 6805,
      "Oireachtais": 6806,
      "##láintíochta": 6807,
      "Imeachta": 6808,
      "Tuaithe": 6809,
      "díospóid": 6810,
      "Modh": 6811,
      "clárúcháin": 6812,
      "##ograph": 6813,
      "Fhorbairt": 6814,
      "##luchtaigh": 6815,
      "##EANN": 6816,
      "hias": 6817,
      "Breitheamh": 6818,
      "gaolmhara": 6819,
      "Réigiún": 6820,
      "International": 6821,
      "morgáiste": 6822,
      "dheisiú": 6823,
      "Android": 6824,
      "léarscáil": 6825,
      "##chlib": 6826,
      "clasaiceach": 6827,
      "##ology": 6828,
      "haischlib": 6829,
      "Spáinn": 6830,
      "bliantúla": 6831,
      "ZhongShan": 6832,
      "61": 6833,
      "76": 6834,
      "99": 6835,
      "Bo": 6836,
      "Bliana": 6837,
      "Caighdeán": 6838,
      "Dí": 6839,
      "Eas": 6840,
      "Mó": 6841,
      "Obair": 6842,
      "Páirt": 6843,
      "Qu": 6844,
      "Uir": 6845,
      "billiún": 6846,
      "déanann": 6847,
      "dúnta": 6848,
      "fian": 6849,
      "faisin": 6850,
      "feiste": 6851,
      "gas": 6852,
      "ollscoil": 6853,
      "sn": 6854,
      "ste": 6855,
      "sneachta": 6856,
      "snasta": 6857,
      "tweet": 6858,
      "toirmisc": 6859,
      "Úcráin": 6860,
      "##atal": 6861,
      "##iog": 6862,
      "##oft": 6863,
      "##con": 6864,
      "##ms": 6865,
      "##up": 6866,
      "##baigh": 6867,
      "##faid": 6868,
      "##faimid": 6869,
      "##just": 6870,
      "##eataí": 6871,
      "##than": 6872,
      "##thacha": 6873,
      "##ors": 6874,
      "dochair": 6875,
      "dhír": 6876,
      "fhear": 6877,
      "##ánaithe": 6878,
      "treal": 6879,
      "##aighead": 6880,
      "##ileáin": 6881,
      "##órsa": 6882,
      "##eric": 6883,
      "solú": 6884,
      "amanna": 6885,
      "chomhar": 6886,
      "phac": 6887,
      "gCaibidil": 6888,
      "fogh": 6889,
      "fhormheas": 6890,
      "measartha": 6891,
      "leasmhara": 6892,
      "oifigí": 6893,
      "##onarthach": 6894,
      "conartha": 6895,
      "bpríomh": 6896,
      "aisling": 6897,
      "##iod": 6898,
      "soláthróir": 6899,
      "Trealamh": 6900,
      "##ealbhóirí": 6901,
      "suime": 6902,
      "##THA": 6903,
      "socraithe": 6904,
      "Náisiún": 6905,
      "bainistíocht": 6906,
      "diúlt": 6907,
      "creidmheas": 6908,
      "creidiúnaithe": 6909,
      "caillteanais": 6910,
      "31ú": 6911,
      "Luach": 6912,
      "hionad": 6913,
      "Reg": 6914,
      "díls": 6915,
      "gream": 6916,
      "tuairisciú": 6917,
      "cháilíocht": 6918,
      "SOCR": 6919,
      "rapóirtéir": 6920,
      "ranníocaí": 6921,
      "aisghairtear": 6922,
      "##cking": 6923,
      "##eltacht": 6924,
      "smaointe": 6925,
      "eolaíoch": 6926,
      "shaothrú": 6927,
      "príosúnacht": 6928,
      "Facebook": 6929,
      "Tairiscint": 6930,
      "ráthaíocht": 6931,
      "Teicneolaíochta": 6932,
      "tarraingthe": 6933,
      "Orduithe": 6934,
      "gealltanas": 6935,
      "##scríobh": 6936,
      "iomlána": 6937,
      "sliocht": 6938,
      "##chónaí": 6939,
      "ailse": 6940,
      "breá": 6941,
      "54": 6942,
      "Coimeád": 6943,
      "Faoin": 6944,
      "FOR": 6945,
      "Síne": 6946,
      "Serv": 6947,
      "Taist": 6948,
      "Togh": 6949,
      "aquarium": 6950,
      "boscaí": 6951,
      "caidreamh": 6952,
      "foilsiú": 6953,
      "gnách": 6954,
      "haic": 6955,
      "oll": 6956,
      "pu": 6957,
      "pó": 6958,
      "saill": 6959,
      "tinn": 6960,
      "##neacha": 6961,
      "##reamh": 6962,
      "##mraí": 6963,
      "##leachta": 6964,
      "##líochta": 6965,
      "##bas": 6966,
      "##zel": 6967,
      "##UR": 6968,
      "##NC": 6969,
      "##ÉAD": 6970,
      "##chadh": 6971,
      "##tháir": 6972,
      "##arach": 6973,
      "##dhéanamh": 6974,
      "##onc": 6975,
      "##ones": 6976,
      "##uspóirí": 6977,
      "##lama": 6978,
      "thais": 6979,
      "thorthaí": 6980,
      "gcom": 6981,
      "gceap": 6982,
      "gcaoi": 6983,
      "bhfuair": 6984,
      "chuntais": 6985,
      "##anadh": 6986,
      "Charm": 6987,
      "China": 6988,
      "##ici": 6989,
      "ionsú": 6990,
      "amharc": 6991,
      "phlandaí": 6992,
      "phearsa": 6993,
      "suirbh": 6994,
      "forb": 6995,
      "##únaigh": 6996,
      "sia": 6997,
      "roimhráite": 6998,
      "Phró": 6999,
      "Phobail": 7000,
      "neamhgh": 7001,
      "##illeacht": 7002,
      "léirithe": 7003,
      "##ters": 7004,
      "crutha": 7005,
      "##eolaí": 7006,
      "roghnaíonn": 7007,
      "bhriseadh": 7008,
      "chostais": 7009,
      "ríomhaireachta": 7010,
      "dearfach": 7011,
      "Dhaoine": 7012,
      "1932": 7013,
      "##tóireacht": 7014,
      "##réasán": 7015,
      "1974": 7016,
      "chumainn": 7017,
      "Soláthar": 7018,
      "##allamh": 7019,
      "cúramach": 7020,
      "Talún": 7021,
      "##úineadh": 7022,
      "gcumh": 7023,
      "fíorais": 7024,
      "trádálaí": 7025,
      "##iméadar": 7026,
      "barántas": 7027,
      "seachtracha": 7028,
      "iontaobhas": 7029,
      "Europol": 7030,
      "carachtair": 7031,
      "foirgnimh": 7032,
      "##ows": 7033,
      "##IÚN": 7034,
      "dlítheanach": 7035,
      "thiontú": 7036,
      "eolaíochta": 7037,
      "tagtha": 7038,
      "bunúsacha": 7039,
      "comhairliúcháin": 7040,
      "Fuinn": 7041,
      "traenach": 7042,
      "chúrsaí": 7043,
      "Bailiúchán": 7044,
      "idirdhealú": 7045,
      "resistant": 7046,
      "dlighfear": 7047,
      "##dhíonach": 7048,
      "tabhaíodh": 7049,
      "phlandáil": 7050,
      "scoláirí": 7051,
      "fulaingt": 7052,
      "árasán": 7053,
      "72": 7054,
      "Adh": 7055,
      "Aims": 7056,
      "CC": 7057,
      "Cro": 7058,
      "Caithfidh": 7059,
      "Fair": 7060,
      "Leid": 7061,
      "Port": 7062,
      "Trae": 7063,
      "Wind": 7064,
      "disc": 7065,
      "gain": 7066,
      "iris": 7067,
      "lear": 7068,
      "lonnaithe": 7069,
      "malartú": 7070,
      "nDaon": 7071,
      "Údar": 7072,
      "##min": 7073,
      "##ófaí": 7074,
      "##xx": 7075,
      "##MP": 7076,
      "##Bank": 7077,
      "##mhithe": 7078,
      "##ons": 7079,
      "##onnadh": 7080,
      "##onograph": 7081,
      "##ision": 7082,
      "chaith": 7083,
      "##antas": 7084,
      "##bhr": 7085,
      "##eofaí": 7086,
      "##ale": 7087,
      "théarma": 7088,
      "inné": 7089,
      "gcl": 7090,
      "gcolún": 7091,
      "##oss": 7092,
      "##ostú": 7093,
      "##óirithe": 7094,
      "##iontáil": 7095,
      "##anaí": 7096,
      "Cháin": 7097,
      "##eagar": 7098,
      "scrúduithe": 7099,
      "ghalar": 7100,
      "##leg": 7101,
      "##leán": 7102,
      "##irgniú": 7103,
      "náis": 7104,
      "rothar": 7105,
      "##oimirc": 7106,
      "sular": 7107,
      "##néis": 7108,
      "sona": 7109,
      "Aonair": 7110,
      "réalta": 7111,
      "##éala": 7112,
      "tsaoil": 7113,
      "##llar": 7114,
      "bhunaithe": 7115,
      "dhéanta": 7116,
      "rialtais": 7117,
      "díriú": 7118,
      "##AIGH": 7119,
      "aistrí": 7120,
      "##pháirteach": 7121,
      "cheadóidh": 7122,
      "Dheireadh": 7123,
      "Gael": 7124,
      "deonadh": 7125,
      "aoisliúntais": 7126,
      "##atadán": 7127,
      "déanach": 7128,
      "1959": 7129,
      "Lagh": 7130,
      "ngníomhaíochtaí": 7131,
      "bóthar": 7132,
      "athchóiriú": 7133,
      "nGníomhaireacht": 7134,
      "glacfaidh": 7135,
      "grád": 7136,
      "leathanaigh": 7137,
      "caipitil": 7138,
      "cearnach": 7139,
      "oibríochtúil": 7140,
      "cógas": 7141,
      "Glacfaidh": 7142,
      "pléasc": 7143,
      "inghlactha": 7144,
      "taisce": 7145,
      "dineadh": 7146,
      "faisean": 7147,
      "leithdháileadh": 7148,
      "láimhseáil": 7149,
      "inbhuanaithe": 7150,
      "scairchaipiteal": 7151,
      "nDaonlathaithe": 7152,
      "09": 7153,
      "62": 7154,
      "69": 7155,
      "CD": 7156,
      "Cail": 7157,
      "Eis": 7158,
      "Fuair": 7159,
      "GO": 7160,
      "IAR": 7161,
      "Op": 7162,
      "Taispeán": 7163,
      "baineann": 7164,
      "bua": 7165,
      "cith": 7166,
      "féadf": 7167,
      "feitheamh": 7168,
      "glú": 7169,
      "hachta": 7170,
      "moill": 7171,
      "more": 7172,
      "romh": 7173,
      "éisc": 7174,
      "##ita": 7175,
      "##odáil": 7176,
      "##out": 7177,
      "##rdú": 7178,
      "##ding": 7179,
      "##líocht": 7180,
      "##IMH": 7181,
      "##work": 7182,
      "##Ão": 7183,
      "##illí": 7184,
      "cheithre": 7185,
      "bhás": 7186,
      "bheatha": 7187,
      "##eachtála": 7188,
      "##aster": 7189,
      "inph": 7190,
      "fhéach": 7191,
      "bhfuirm": 7192,
      "##éadtar": 7193,
      "##ionannas": 7194,
      "mhó": 7195,
      "sheacht": 7196,
      "##aighn": 7197,
      "##eagasc": 7198,
      "scam": 7199,
      "comhlán": 7200,
      "##aimí": 7201,
      "soicind": 7202,
      "leaba": 7203,
      "dtrí": 7204,
      "##írinne": 7205,
      "iarmhéid": 7206,
      "chomhlánú": 7207,
      "orm": 7208,
      "##ibhéis": 7209,
      "airbheart": 7210,
      "Tháinig": 7211,
      "meastar": 7212,
      "Phr": 7213,
      "cón": 7214,
      "leagfar": 7215,
      "cruith": 7216,
      "seirbhíseach": 7217,
      "bhfolach": 7218,
      "ciona": 7219,
      "tráthanna": 7220,
      "innill": 7221,
      "188": 7222,
      "##lóid": 7223,
      "##mhachtain": 7224,
      "##aoirse": 7225,
      "cáilitheach": 7226,
      "freagairt": 7227,
      "##ARA": 7228,
      "cumarsáid": 7229,
      "diúl": 7230,
      "breithniú": 7231,
      "250": 7232,
      "##áipéis": 7233,
      "##stitiúidí": 7234,
      "eastáit": 7235,
      "easpor": 7236,
      "srl": 7237,
      "##iúnacht": 7238,
      "inchánach": 7239,
      "Suíomh": 7240,
      "Org": 7241,
      "tiomanta": 7242,
      "##acnamaíochta": 7243,
      "bhailíocht": 7244,
      "barra": 7245,
      "slándáil": 7246,
      "##bour": 7247,
      "rannpháirtithe": 7248,
      "stamp": 7249,
      "héifeachtaí": 7250,
      "casadh": 7251,
      "vótaíochta": 7252,
      "hIar": 7253,
      "##undation": 7254,
      "síológa": 7255,
      "Pleanála": 7256,
      "Eaglais": 7257,
      "thrádáil": 7258,
      "Tríú": 7259,
      "uathu": 7260,
      "drugaí": 7261,
      "monatóireacht": 7262,
      "fiosrúchán": 7263,
      "mionsonraí": 7264,
      "cuardach": 7265,
      "ríomhphost": 7266,
      "##liantúla": 7267,
      "chomhlíonann": 7268,
      "Gaillimhe": 7269,
      "dheiridh": 7270,
      "hionstraimí": 7271,
      "thaisceadh": 7272,
      "ilbhliantúil": 7273,
      "StatBank": 7274,
      "mharcáil": 7275,
      "Oidhreachta": 7276,
      "eadhon": 7277,
      "08": 7278,
      "Beag": 7279,
      "Cinnt": 7280,
      "Coinníollacha": 7281,
      "Iniú": 7282,
      "Mais": 7283,
      "PE": 7284,
      "Tiom": 7285,
      "béim": 7286,
      "cis": 7287,
      "ceantar": 7288,
      "flu": 7289,
      "facht": 7290,
      "geog": 7291,
      "norm": 7292,
      "oigh": 7293,
      "pobal": 7294,
      "tailte": 7295,
      "tanaí": 7296,
      "óige": 7297,
      "##ianna": 7298,
      "##tom": 7299,
      "##men": 7300,
      "##ME": 7301,
      "##House": 7302,
      "##EC": 7303,
      "##chóras": 7304,
      "##dhlí": 7305,
      "chealú": 7306,
      "chiallaíonn": 7307,
      "##ansp": 7308,
      "bhosca": 7309,
      "chucu": 7310,
      "gcinneadh": 7311,
      "##iness": 7312,
      "mhic": 7313,
      "Chorp": 7314,
      "sheiceáil": 7315,
      "sceimhl": 7316,
      "marbh": 7317,
      "##láimh": 7318,
      "##rúis": 7319,
      "comhachta": 7320,
      "##ife": 7321,
      "ndu": 7322,
      "Táirge": 7323,
      "##irect": 7324,
      "##olais": 7325,
      "phoist": 7326,
      "achar": 7327,
      "achoimre": 7328,
      "ortha": 7329,
      "luí": 7330,
      "leithead": 7331,
      "##achtacha": 7332,
      "cobhs": 7333,
      "##pháipéir": 7334,
      "##row": 7335,
      "Thug": 7336,
      "meastachán": 7337,
      "leasaithe": 7338,
      "breosla": 7339,
      "##insiúin": 7340,
      "iarrann": 7341,
      "éagumas": 7342,
      "ceadúnaithe": 7343,
      "ndéanfadh": 7344,
      "ardán": 7345,
      "Mhar": 7346,
      "Comhphobail": 7347,
      "Shaor": 7348,
      "mheasúnacht": 7349,
      "##lófar": 7350,
      "##úinteoireachta": 7351,
      "Rialaithe": 7352,
      "cheapfar": 7353,
      "1931": 7354,
      "1935": 7355,
      "1964": 7356,
      "bainteach": 7357,
      "príomhch": 7358,
      "bPar": 7359,
      "díobháil": 7360,
      "iasachta": 7361,
      "##lisí": 7362,
      "seachtainiúil": 7363,
      "##fheidhmithe": 7364,
      "LEIS": 7365,
      "huisce": 7366,
      "híocaíochtaí": 7367,
      "mhodhnú": 7368,
      "comhpháirteanna": 7369,
      "##nímh": 7370,
      "ranníocaíochtaí": 7371,
      "##astur": 7372,
      "Físeáin": 7373,
      "gcomhlíonfaidh": 7374,
      "dlíthiúla": 7375,
      "straitéisí": 7376,
      "láidre": 7377,
      "Chríos": 7378,
      "Eng": 7379,
      "hiarr": 7380,
      "Saorstát": 7381,
      "ghinearáltacht": 7382,
      "plátáilte": 7383,
      "thomhas": 7384,
      "eadrá": 7385,
      "Críostaí": 7386,
      "dílseánach": 7387,
      "Finance": 7388,
      "##eitril": 7389,
      "gcruthófar": 7390,
      "Infheistíochta": 7391,
      "madra": 7392,
      "tapúla": 7393,
      "thagartha": 7394,
      "cuimilteora": 7395,
      "dorcha": 7396,
      "##untertops": 7397,
      "84": 7398,
      "91": 7399,
      "Acmhainní": 7400,
      "Cion": 7401,
      "Díol": 7402,
      "Earr": 7403,
      "Foireann": 7404,
      "Ltd": 7405,
      "Seapáin": 7406,
      "Wh": 7407,
      "báis": 7408,
      "caid": 7409,
      "cártaí": 7410,
      "dlú": 7411,
      "fío": 7412,
      "fóir": 7413,
      "fillte": 7414,
      "fráma": 7415,
      "liachta": 7416,
      "lógó": 7417,
      "ma": 7418,
      "nI": 7419,
      "puiblí": 7420,
      "púdar": 7421,
      "reachtach": 7422,
      "só": 7423,
      "##iel": 7424,
      "##níonn": 7425,
      "##ota": 7426,
      "##uc": 7427,
      "##ult": 7428,
      "##áta": 7429,
      "##ket": 7430,
      "##TC": 7431,
      "##fid": 7432,
      "##UITHE": 7433,
      "##iséid": 7434,
      "##isíní": 7435,
      "cheantair": 7436,
      "chroí": 7437,
      "##raobh": 7438,
      "##eod": 7439,
      "##aince": 7440,
      "##íochán": 7441,
      "thras": 7442,
      "thré": 7443,
      "dhíobh": 7444,
      "##itse": 7445,
      "bhfomhír": 7446,
      "aonar": 7447,
      "##éadan": 7448,
      "##oms": 7449,
      "mheabh": 7450,
      "sheol": 7451,
      "##eannasaí": 7452,
      "comhlachais": 7453,
      "dálaí": 7454,
      "##aiméad": 7455,
      "##eirde": 7456,
      "strucht": 7457,
      "##eartaithe": 7458,
      "##ians": 7459,
      "tarchur": 7460,
      "##onntar": 7461,
      "##órtáil": 7462,
      "gníomhaireachtaí": 7463,
      "##iltin": 7464,
      "Story": 7465,
      "iarrthóra": 7466,
      "##eolaíoch": 7467,
      "##EACHTA": 7468,
      "ardluais": 7469,
      "prait": 7470,
      "Leasuithe": 7471,
      "oiriúint": 7472,
      "##eicníocht": 7473,
      "##úintí": 7474,
      "##impeallacht": 7475,
      "##raitheann": 7476,
      "1995": 7477,
      "ceapfar": 7478,
      "bhuail": 7479,
      "1941": 7480,
      "fiáin": 7481,
      "gairme": 7482,
      "bogadh": 7483,
      "grinn": 7484,
      "folún": 7485,
      "##fheidhmeannach": 7486,
      "Leabaigh": 7487,
      "tairbhí": 7488,
      "shealbhóir": 7489,
      "stáisiúin": 7490,
      "thairg": 7491,
      "iontaobhaí": 7492,
      "Americ": 7493,
      "##ionsabal": 7494,
      "Úsáidtear": 7495,
      "tomhais": 7496,
      "Fhorásach": 7497,
      "seans": 7498,
      "hiarratais": 7499,
      "sínt": 7500,
      "neamhdhleathach": 7501,
      "déine": 7502,
      "Gnéas": 7503,
      "ligeann": 7504,
      "##CHÁN": 7505,
      "slabhra": 7506,
      "dícháilithe": 7507,
      "dhlíthiúil": 7508,
      "náisiúnaigh": 7509,
      "Sóisialaithe": 7510,
      "miondíola": 7511,
      "Limistéar": 7512,
      "lampa": 7513,
      "lotnaidí": 7514,
      "chuardach": 7515,
      "cúltaca": 7516,
      "bParliament": 7517,
      "AIR": 7518,
      "Beal": 7519,
      "EP": 7520,
      "Metro": 7521,
      "NCA": 7522,
      "Pinsean": 7523,
      "Rúnaí": 7524,
      "Sil": 7525,
      "SEAS": 7526,
      "TF": 7527,
      "béil": 7528,
      "cairt": 7529,
      "colún": 7530,
      "ceantair": 7531,
      "cúnaimh": 7532,
      "eir": 7533,
      "fuil": 7534,
      "fabh": 7535,
      "has": 7536,
      "hailt": 7537,
      "maille": 7538,
      "maidin": 7539,
      "múinteoir": 7540,
      "over": 7541,
      "pais": 7542,
      "poll": 7543,
      "polasaí": 7544,
      "seasta": 7545,
      "teirm": 7546,
      "tocsain": 7547,
      "##nce": 7548,
      "##rs": 7549,
      "##tle": 7550,
      "##co": 7551,
      "##pr": 7552,
      "##gg": 7553,
      "##line": 7554,
      "##bal": 7555,
      "##balta": 7556,
      "##11": 7557,
      "##MI": 7558,
      "##mhairtí": 7559,
      "chíos": 7560,
      "leid": 7561,
      "bhoird": 7562,
      "##raon": 7563,
      "##lao": 7564,
      "chuma": 7565,
      "theip": 7566,
      "fhair": 7567,
      "fhol": 7568,
      "##thadh": 7569,
      "mhalartú": 7570,
      "Cheartas": 7571,
      "##ailí": 7572,
      "shuim": 7573,
      "##unc": 7574,
      "mbreith": 7575,
      "comhordú": 7576,
      "comhoibriú": 7577,
      "##nachar": 7578,
      "ionsaí": 7579,
      "phinsean": 7580,
      "formhór": 7581,
      "imreoir": 7582,
      "Bhainc": 7583,
      "cúitimh": 7584,
      "fochuideachta": 7585,
      "gcomhaontú": 7586,
      "fhoráiltear": 7587,
      "##aistrithe": 7588,
      "léireofar": 7589,
      "ionadaíocht": 7590,
      "##ette": 7591,
      "iarrtar": 7592,
      "rialála": 7593,
      "roghnaithe": 7594,
      "seirbhísigh": 7595,
      "chothrom": 7596,
      "##iop": 7597,
      "tráthnóna": 7598,
      "aistriúchán": 7599,
      "éifeachtúil": 7600,
      "eisiamh": 7601,
      "dleachtanna": 7602,
      "##óidí": 7603,
      "##raitheoir": 7604,
      "tionó": 7605,
      "freagraí": 7606,
      "fheidhmíocht": 7607,
      "Chomhaontú": 7608,
      "1971": 7609,
      "áiritheoidh": 7610,
      "1958": 7611,
      "##aipitil": 7612,
      "díolmhaithe": 7613,
      "bhaineas": 7614,
      "bainise": 7615,
      "minicíocht": 7616,
      "intíre": 7617,
      "infheidhmithe": 7618,
      "méadaithe": 7619,
      "Amach": 7620,
      "clog": 7621,
      "fhreagra": 7622,
      "macasamhail": 7623,
      "daonra": 7624,
      "Tugadh": 7625,
      "bhéarfar": 7626,
      "gceadúnas": 7627,
      "chailíní": 7628,
      "nglacfaí": 7629,
      "cnaipe": 7630,
      "traein": 7631,
      "Cóipeáil": 7632,
      "Chóiste": 7633,
      "Dearbhuithe": 7634,
      "Rúise": 7635,
      "scilling": 7636,
      "##iotáille": 7637,
      "##stráil": 7638,
      "##lifier": 7639,
      "tharmligean": 7640,
      "trealaimh": 7641,
      "Leideanna": 7642,
      "hachtacháin": 7643,
      "NCAA": 7644,
      "Clo": 7645,
      "Caibid": 7646,
      "Dáil": 7647,
      "Fórsaí": 7648,
      "Jo": 7649,
      "MS": 7650,
      "Máirt": 7651,
      "Pre": 7652,
      "Poist": 7653,
      "SH": 7654,
      "Sch": 7655,
      "Tomh": 7656,
      "aighn": 7657,
      "bair": 7658,
      "bru": 7659,
      "ceannach": 7660,
      "eacnama": 7661,
      "hard": 7662,
      "kom": 7663,
      "málaí": 7664,
      "molta": 7665,
      "oileán": 7666,
      "pearsa": 7667,
      "qu": 7668,
      "sea": 7669,
      "uait": 7670,
      "##ix": 7671,
      "##níodh": 7672,
      "##ood": 7673,
      "##tin": 7674,
      "##gram": 7675,
      "##mu": 7676,
      "##king": 7677,
      "##OL": 7678,
      "##PS": 7679,
      "##BC": 7680,
      "##inc": 7681,
      "##mhínítear": 7682,
      "##taíonn": 7683,
      "lenar": 7684,
      "##ral": 7685,
      "##altóir": 7686,
      "##eanaid": 7687,
      "##aoth": 7688,
      "chuims": 7689,
      "thoirmeasc": 7690,
      "gcaiteachas": 7691,
      "gceantar": 7692,
      "fhaillí": 7693,
      "##osoft": 7694,
      "##itu": 7695,
      "##iteacha": 7696,
      "bhfaisnéis": 7697,
      "mhol": 7698,
      "Chur": 7699,
      "Chumann": 7700,
      "shraith": 7701,
      "##eagair": 7702,
      "margaí": 7703,
      "mban": 7704,
      "mbord": 7705,
      "mbainist": 7706,
      "##scéal": 7707,
      "ndíol": 7708,
      "strap": 7709,
      "nocht": 7710,
      "##athanna": 7711,
      "túisce": 7712,
      "tarrth": 7713,
      "Bhóithre": 7714,
      "##ally": 7715,
      "athair": 7716,
      "athraithe": 7717,
      "coimhd": 7718,
      "neamhth": 7719,
      "oibríochta": 7720,
      "hAoine": 7721,
      "##AIL": 7722,
      "##ósadh": 7723,
      "tuismitheoir": 7724,
      "184": 7725,
      "iompor": 7726,
      "eisigh": 7727,
      "dleachta": 7728,
      "uiscedhíonach": 7729,
      "Cuims": 7730,
      "1968": 7731,
      "1970": 7732,
      "130": 7733,
      "##IST": 7734,
      "héigean": 7735,
      "ullmhaithe": 7736,
      "bailiúchán": 7737,
      "Athrú": 7738,
      "Fraince": 7739,
      "##ized": 7740,
      "híocaíochta": 7741,
      "comhpháirtithe": 7742,
      "hábhar": 7743,
      "stampa": 7744,
      "suiteáil": 7745,
      "ainmhí": 7746,
      "Bainfidh": 7747,
      "aisghairm": 7748,
      "droichead": 7749,
      "chumasú": 7750,
      "Bunús": 7751,
      "ballapháipéir": 7752,
      "glaoch": 7753,
      "bhrabúis": 7754,
      "Techn": 7755,
      "gceanglaítear": 7756,
      "síneadh": 7757,
      "tOrdú": 7758,
      "gcúrsaí": 7759,
      "Tacaíocht": 7760,
      "aerárthach": 7761,
      "criostail": 7762,
      "USB": 7763,
      "CBL": 7764,
      "bheirt": 7765,
      "uirbeach": 7766,
      "##ratch": 7767,
      "atharú": 7768,
      "máistir": 7769,
      "naoi": 7770,
      "scáileán": 7771,
      "Deontais": 7772,
      "sheolann": 7773,
      "cruthaíodh": 7774,
      "SEASAMH": 7775,
      "06": 7776,
      "5ú": 7777,
      "93": 7778,
      "Amharc": 7779,
      "Afr": 7780,
      "Big": 7781,
      "CL": 7782,
      "Ceap": 7783,
      "Cúirt": 7784,
      "DR": 7785,
      "Dan": 7786,
      "Fiú": 7787,
      "Faoiseamh": 7788,
      "Foirne": 7789,
      "IW": 7790,
      "Mp3": 7791,
      "Réim": 7792,
      "Réal": 7793,
      "cil": 7794,
      "ceil": 7795,
      "duille": 7796,
      "fost": 7797,
      "ga": 7798,
      "gás": 7799,
      "ochta": 7800,
      "síniú": 7801,
      "sínithe": 7802,
      "tim": 7803,
      "víosa": 7804,
      "##righ": 7805,
      "##eg": 7806,
      "##cs": 7807,
      "##ste": 7808,
      "##sing": 7809,
      "##gal": 7810,
      "##ACHT": 7811,
      "##ze": 7812,
      "##zz": 7813,
      "##chum": 7814,
      "##choimeád": 7815,
      "##taíochtaí": 7816,
      "##ild": 7817,
      "cháis": 7818,
      "cheachtar": 7819,
      "##any": 7820,
      "##ids": 7821,
      "##raois": 7822,
      "##lay": 7823,
      "##laíocht": 7824,
      "inf": 7825,
      "fhan": 7826,
      "fhostaithe": 7827,
      "##éire": 7828,
      "##ionn": 7829,
      "##imhneacht": 7830,
      "mhac": 7831,
      "cultúrtha": 7832,
      "shanna": 7833,
      "shibhialta": 7834,
      "##rel": 7835,
      "##aíl": 7836,
      "##aitheacht": 7837,
      "iarainn": 7838,
      "iarrachtaí": 7839,
      "##uairisce": 7840,
      "aschur": 7841,
      "##lándáil": 7842,
      "sonraíochtaí": 7843,
      "acad": 7844,
      "gcomhalta": 7845,
      "idirghabh": 7846,
      "measa": 7847,
      "##eilg": 7848,
      "bhfeidhmiú": 7849,
      "##ged": 7850,
      "##iocfadh": 7851,
      "##úird": 7852,
      "saineolas": 7853,
      "rannchuid": 7854,
      "ranníoca": 7855,
      "tairg": 7856,
      "tionón": 7857,
      "chónaí": 7858,
      "chónaíonn": 7859,
      "áitreibh": 7860,
      "1962": 7861,
      "thuismitheoirí": 7862,
      "próisis": 7863,
      "1981": 7864,
      "1989": 7865,
      "toghacháin": 7866,
      "##duc": 7867,
      "téigh": 7868,
      "breiseán": 7869,
      "réigiúnacha": 7870,
      "Idirlíon": 7871,
      "Feidhmeanna": 7872,
      "onnmhairiú": 7873,
      "dtabharfaidh": 7874,
      "Príobháid": 7875,
      "shainaithint": 7876,
      "iontaobhaithe": 7877,
      "dáileog": 7878,
      "hoibríochtaí": 7879,
      "comhtháite": 7880,
      "fómhar": 7881,
      "chorpraithe": 7882,
      "Aireacht": 7883,
      "fhreagairt": 7884,
      "samhail": 7885,
      "samhlacha": 7886,
      "taifeadadh": 7887,
      "Pleanáil": 7888,
      "Tuirce": 7889,
      "micr": 7890,
      "claochla": 7891,
      "polaitiúla": 7892,
      "gcinnfidh": 7893,
      "bheirtear": 7894,
      "##imintí": 7895,
      "Téigh": 7896,
      "tuirling": 7897,
      "inniúlacht": 7898,
      "Bursa": 7899,
      "Eachtracha": 7900,
      "Windows": 7901,
      "leideanna": 7902,
      "1A": 7903,
      "Amp": 7904,
      "Cathaoirleach": 7905,
      "Deimhniú": 7906,
      "Es": 7907,
      "ETI": 7908,
      "Gearmáin": 7909,
      "Just": 7910,
      "Mad": 7911,
      "Med": 7912,
      "Maoirs": 7913,
      "Mastur": 7914,
      "Naomh": 7915,
      "Poblacht": 7916,
      "Sé": 7917,
      "Sion": 7918,
      "Sláintíochta": 7919,
      "bus": 7920,
      "caol": 7921,
      "fís": 7922,
      "feasta": 7923,
      "lítear": 7924,
      "obh": 7925,
      "oid": 7926,
      "ran": 7927,
      "uathoibr": 7928,
      "xxx": 7929,
      "ádh": 7930,
      "úinéirí": 7931,
      "##iad": 7932,
      "##ning": 7933,
      "##dmharc": 7934,
      "##clú": 7935,
      "##íll": 7936,
      "##ódh": 7937,
      "##lor": 7938,
      "##leachtaí": 7939,
      "##yc": 7940,
      "##yp": 7941,
      "##60": 7942,
      "##eaca": 7943,
      "##thear": 7944,
      "##threo": 7945,
      "##rab": 7946,
      "##ghéilleadh": 7947,
      "##orld": 7948,
      "theideal": 7949,
      "thuarascáil": 7950,
      "info": 7951,
      "##aidhm": 7952,
      "gcroí": 7953,
      "##imeád": 7954,
      "fhaibh": 7955,
      "fhaoiseamh": 7956,
      "bhfoils": 7957,
      "##itheacht": 7958,
      "mhais": 7959,
      "mheabhair": 7960,
      "shoil": 7961,
      "sciar": 7962,
      "ghear": 7963,
      "mblian": 7964,
      "táib": 7965,
      "ndéile": 7966,
      "dtr": 7967,
      "##ruailliú": 7968,
      "íocann": 7969,
      "##ibhléid": 7970,
      "##ats": 7971,
      "coisc": 7972,
      "Thar": 7973,
      "brain": 7974,
      "Pháirtí": 7975,
      "Phoblacht": 7976,
      "##ogaidh": 7977,
      "rialaítear": 7978,
      "##EACH": 7979,
      "trátha": 7980,
      "Comhaontú": 7981,
      "##eanad": 7982,
      "##eanada": 7983,
      "tSeanaid": 7984,
      "##aife": 7985,
      "húdar": 7986,
      "##ives": 7987,
      "bhuan": 7988,
      "tástálacha": 7989,
      "##leanúnach": 7990,
      "chonaic": 7991,
      "1940": 7992,
      "Doiciméid": 7993,
      "baineadh": 7994,
      "##ócmhainní": 7995,
      "dTu": 7996,
      "loigh": 7997,
      "##ASC": 7998,
      "bhainisteoir": 7999,
      "Stage": 8000,
      "##vest": 8001,
      "uasghrádú": 8002,
      "greann": 8003,
      "gcreid": 8004,
      "##TION": 8005,
      "coiriúil": 8006,
      "thairbh": 8007,
      "spriocdh": 8008,
      "Buan": 8009,
      "##mhéide": 8010,
      "litreacha": 8011,
      "sláintiúil": 8012,
      "##roinnte": 8013,
      "clocha": 8014,
      "tomhaltóirí": 8015,
      "chumhdach": 8016,
      "clúdaithe": 8017,
      "comhaontaithe": 8018,
      "chomhshó": 8019,
      "Leanúint": 8020,
      "Gnéithe": 8021,
      "pláta": 8022,
      "dhualgais": 8023,
      "Tástáil": 8024,
      "Liosta": 8025,
      "iomlánach": 8026,
      "thiomáint": 8027,
      "hairgead": 8028,
      "heagraíochtaí": 8029,
      "trédhearcach": 8030,
      "saibhir": 8031,
      "##aispeánann": 8032,
      "séasúr": 8033,
      "##téarmach": 8034,
      "##EIDH": 8035,
      "dealraitheach": 8036,
      "loingseoireachta": 8037,
      "foghlama": 8038,
      "shannadh": 8039,
      "ETIAS": 8040,
      "77": 8041,
      "96": 8042,
      "Clas": 8043,
      "Coiriúil": 8044,
      "Eit": 8045,
      "Log": 8046,
      "MAID": 8047,
      "RIAL": 8048,
      "Sr": 8049,
      "SC": 8050,
      "Word": 8051,
      "WHO": 8052,
      "aill": 8053,
      "atr": 8054,
      "beann": 8055,
      "caip": 8056,
      "catagóir": 8057,
      "eil": 8058,
      "fán": 8059,
      "filleadh": 8060,
      "feirme": 8061,
      "graf": 8062,
      "id": 8063,
      "lao": 8064,
      "leann": 8065,
      "sann": 8066,
      "seis": 8067,
      "seam": 8068,
      "sorc": 8069,
      "tU": 8070,
      "with": 8071,
      "Óga": 8072,
      "áthas": 8073,
      "##náin": 8074,
      "##tófar": 8075,
      "##tuairisc": 8076,
      "##cas": 8077,
      "##uf": 8078,
      "##ugh": 8079,
      "##féar": 8080,
      "##RD": 8081,
      "##vent": 8082,
      "##ja": 8083,
      "##chaighdeáin": 8084,
      "##isí": 8085,
      "##iseach": 8086,
      "chatagóir": 8087,
      "bhia": 8088,
      "bheartaítear": 8089,
      "##last": 8090,
      "chuimsiú": 8091,
      "chuici": 8092,
      "thaispeán": 8093,
      "fheiste": 8094,
      "##iteanna": 8095,
      "triúr": 8096,
      "tríocha": 8097,
      "mhorg": 8098,
      "Cheann": 8099,
      "Chearta": 8100,
      "Chathair": 8101,
      "cup": 8102,
      "sheilbh": 8103,
      "gheofar": 8104,
      "##ínt": 8105,
      "mbonn": 8106,
      "##urs": 8107,
      "náir": 8108,
      "dtóg": 8109,
      "##íric": 8110,
      "iarnród": 8111,
      "chomhréir": 8112,
      "##ols": 8113,
      "móide": 8114,
      "##íseachta": 8115,
      "tarchurtha": 8116,
      "##fheicthe": 8117,
      "airíonna": 8118,
      "sperm": 8119,
      "idirlíon": 8120,
      "measúnacht": 8121,
      "Scann": 8122,
      "tsraith": 8123,
      "Inmh": 8124,
      "##onarthacha": 8125,
      "Stíl": 8126,
      "iarratasóra": 8127,
      "##arlaiminte": 8128,
      "choisc": 8129,
      "Comhth": 8130,
      "185": 8131,
      "láithreacha": 8132,
      "##eicníc": 8133,
      "aicmí": 8134,
      "1929": 8135,
      "eagraithe": 8136,
      "aeráide": 8137,
      "táscairí": 8138,
      "riarthóir": 8139,
      "1953": 8140,
      "1983": 8141,
      "1949": 8142,
      "phróisis": 8143,
      "Athbhreithniú": 8144,
      "tiomáint": 8145,
      "State": 8146,
      "húsáidtear": 8147,
      "Imeachtaí": 8148,
      "teileaf": 8149,
      "faireacháin": 8150,
      "inslithe": 8151,
      "chorparáide": 8152,
      "tomhaltóir": 8153,
      "Toisc": 8154,
      "##óilín": 8155,
      "oibríochtúla": 8156,
      "bhrath": 8157,
      "Oibríonn": 8158,
      "bhallóide": 8159,
      "Réamhrá": 8160,
      "##ualainn": 8161,
      "eascraíonn": 8162,
      "múnla": 8163,
      "luadhfar": 8164,
      "Freagra": 8165,
      "galánta": 8166,
      "ghiniúint": 8167,
      "##últaca": 8168,
      "thástáil": 8169,
      "Eochairfhocal": 8170,
      "gaineamh": 8171,
      "05": 8172,
      "85": 8173,
      "86": 8174,
      "94": 8175,
      "Blac": 8176,
      "Bro": 8177,
      "CNC": 8178,
      "Deal": 8179,
      "DFómh": 8180,
      "FH": 8181,
      "Fáilte": 8182,
      "Féadfidh": 8183,
      "Gen": 8184,
      "Imp": 8185,
      "Las": 8186,
      "Láthair": 8187,
      "Liúntas": 8188,
      "MA": 8189,
      "Mná": 8190,
      "Sol": 8191,
      "Seoladh": 8192,
      "TS": 8193,
      "Tithe": 8194,
      "blo": 8195,
      "buille": 8196,
      "cíosa": 8197,
      "healaíon": 8198,
      "lia": 8199,
      "míoch": 8200,
      "máthair": 8201,
      "ua": 8202,
      "uain": 8203,
      "ullamh": 8204,
      "ww": 8205,
      "##oth": 8206,
      "##oter": 8207,
      "##reoirí": 8208,
      "##ting": 8209,
      "##ect": 8210,
      "##bers": 8211,
      "##SS": 8212,
      "##vie": 8213,
      "##cheart": 8214,
      "##chón": 8215,
      "##chúr": 8216,
      "##chumann": 8217,
      "##ince": 8218,
      "##mhuin": 8219,
      "##onta": 8220,
      "##nap": 8221,
      "##ustam": 8222,
      "##eachum": 8223,
      "##eodh": 8224,
      "##aladh": 8225,
      "theach": 8226,
      "thús": 8227,
      "gcáil": 8228,
      "dhío": 8229,
      "fheirm": 8230,
      "mhaoirs": 8231,
      "Cheap": 8232,
      "##icy": 8233,
      "scua": 8234,
      "saghas": 8235,
      "##led": 8236,
      "##untais": 8237,
      "##liuch": 8238,
      "comhla": 8239,
      "##aithfear": 8240,
      "##ighne": 8241,
      "phian": 8242,
      "##ógais": 8243,
      "iomaíocht": 8244,
      "##iang": 8245,
      "suib": 8246,
      "luibh": 8247,
      "feidhmíocht": 8248,
      "##fhios": 8249,
      "Art": 8250,
      "##ugadh": 8251,
      "##rotic": 8252,
      "fhorála": 8253,
      "tharraing": 8254,
      "##eár": 8255,
      "##eáchan": 8256,
      "leasacháin": 8257,
      "neamhniú": 8258,
      "##terling": 8259,
      "bhfeidhmeanna": 8260,
      "ansan": 8261,
      "síc": 8262,
      "125": 8263,
      "Shábháilteacht": 8264,
      "Trans": 8265,
      "ghabhas": 8266,
      "cáilíochtaí": 8267,
      "1930": 8268,
      "1975": 8269,
      "cumhráin": 8270,
      "1950": 8271,
      "lánaimseartha": 8272,
      "Soláthair": 8273,
      "Cód": 8274,
      "chleachtadh": 8275,
      "##artlann": 8276,
      "Report": 8277,
      "ghlacann": 8278,
      "shainmhínítear": 8279,
      "comhpháirteach": 8280,
      "carb": 8281,
      "stad": 8282,
      "tairiscintí": 8283,
      "vótanna": 8284,
      "Scoileanna": 8285,
      "inmheánacha": 8286,
      "caora": 8287,
      "hinstitiúidí": 8288,
      "chailleann": 8289,
      "Teaghrán": 8290,
      "thomhaltóirí": 8291,
      "##iobar": 8292,
      "choróin": 8293,
      "ríth": 8294,
      "Cumhachtaí": 8295,
      "dhúnadh": 8296,
      "Bhreithiúnais": 8297,
      "contrártha": 8298,
      "Leithead": 8299,
      "admháil": 8300,
      "nuálaíocht": 8301,
      "Microsoft": 8302,
      "solúbtha": 8303,
      "SOCRÚ": 8304,
      "ciseal": 8305,
      "ndualg": 8306,
      "##ducation": 8307,
      "MAIDIR": 8308,
      "04": 8309,
      "83": 8310,
      "Bas": 8311,
      "Brú": 8312,
      "CM": 8313,
      "CP": 8314,
      "Clú": 8315,
      "Córais": 8316,
      "CON": 8317,
      "Dr": 8318,
      "Dún": 8319,
      "ES": 8320,
      "Freas": 8321,
      "Iarr": 8322,
      "Kom": 8323,
      "Leana": 8324,
      "Ma": 8325,
      "Mol": 8326,
      "Mes": 8327,
      "Pion": 8328,
      "RT": 8329,
      "Seacht": 8330,
      "Sams": 8331,
      "Tim": 8332,
      "bint": 8333,
      "boil": 8334,
      "boird": 8335,
      "cair": 8336,
      "cearr": 8337,
      "caird": 8338,
      "dis": 8339,
      "hearn": 8340,
      "labh": 8341,
      "mú": 8342,
      "mach": 8343,
      "méar": 8344,
      "naimh": 8345,
      "ospidéil": 8346,
      "sw": 8347,
      "sex": 8348,
      "Ábhair": 8349,
      "##nraí": 8350,
      "##nóirí": 8351,
      "##neofar": 8352,
      "##ox": 8353,
      "##eh": 8354,
      "##cóide": 8355,
      "##ósú": 8356,
      "##árach": 8357,
      "##báin": 8358,
      "##beáin": 8359,
      "##yd": 8360,
      "##yst": 8361,
      "##ML": 8362,
      "##UN": 8363,
      "##EM": 8364,
      "##intear": 8365,
      "##ility": 8366,
      "chineálacha": 8367,
      "##nal": 8368,
      "##naíocht": 8369,
      "##ustr": 8370,
      "arbh": 8371,
      "##earbh": 8372,
      "##aoithe": 8373,
      "##aoint": 8374,
      "##ains": 8375,
      "##omhas": 8376,
      "theicniúla": 8377,
      "dos": 8378,
      "gcoinníoll": 8379,
      "fhó": 8380,
      "bhfabhar": 8381,
      "seomraí": 8382,
      "##ithche": 8383,
      "mhún": 8384,
      "scratch": 8385,
      "comhcho": 8386,
      "comhfhreag": 8387,
      "##aithean": 8388,
      "dtíortha": 8389,
      "##oiriúnacht": 8390,
      "##olla": 8391,
      "stiúradh": 8392,
      "##luacha": 8393,
      "mótar": 8394,
      "##des": 8395,
      "##réige": 8396,
      "spórt": 8397,
      "idirth": 8398,
      "idirlín": 8399,
      "idirbhearta": 8400,
      "ngeall": 8401,
      "fhorlíonadh": 8402,
      "Thionsc": 8403,
      "##ester": 8404,
      "##shoc": 8405,
      "108": 8406,
      "gníomhairí": 8407,
      "Struchtúr": 8408,
      "bhunaidh": 8409,
      "éagtha": 8410,
      "cruthaithe": 8411,
      "##mhairc": 8412,
      "mBun": 8413,
      "mBanc": 8414,
      "luachanna": 8415,
      "oiriúnú": 8416,
      "rithte": 8417,
      "##saíd": 8418,
      "Chomhphobal": 8419,
      "1979": 8420,
      "chionta": 8421,
      "Breath": 8422,
      "##eithiclí": 8423,
      "##únaíocht": 8424,
      "gcionn": 8425,
      "toghadh": 8426,
      "Roinnt": 8427,
      "cóiríocht": 8428,
      "rialúcháin": 8429,
      "lasta": 8430,
      "##ochaí": 8431,
      "cothromaíocht": 8432,
      "maoinithe": 8433,
      "nascadh": 8434,
      "bhainistí": 8435,
      "chinnidh": 8436,
      "gnáthchónaí": 8437,
      "LEE": 8438,
      "##oillsiú": 8439,
      "nGall": 8440,
      "comhtháthú": 8441,
      "Cúnamh": 8442,
      "dhearbh": 8443,
      "Dearg": 8444,
      "gComhaontú": 8445,
      "thrádála": 8446,
      "tobann": 8447,
      "##arsanacht": 8448,
      "##aighdeoirí": 8449,
      "##lection": 8450,
      "Aoisghrúpa": 8451,
      "pianbhreith": 8452,
      "luafar": 8453,
      "milis": 8454,
      "fhoirgnimh": 8455,
      "Treoracha": 8456,
      "1908": 8457,
      "hidir": 8458,
      "Cuideachtan": 8459,
      "áisiúil": 8460,
      "Eolaíochta": 8461,
      "cheiliúradh": 8462,
      "iomarcach": 8463,
      "comhlíonta": 8464,
      "##dhlúite": 8465,
      "intuigthe": 8466,
      "hOifige": 8467,
      "fianáin": 8468,
      "Caibidle": 8469,
      "dTuaisceart": 8470,
      "ailléir": 8471,
      "www": 8472,
      "##beáint": 8473,
      "CAI": 8474,
      "El": 8475,
      "Gléas": 8476,
      "Laistigh": 8477,
      "Liúntais": 8478,
      "Meith": 8479,
      "Mam": 8480,
      "Mara": 8481,
      "MAR": 8482,
      "Pos": 8483,
      "PST": 8484,
      "SIS": 8485,
      "Sráid": 8486,
      "Teanga": 8487,
      "TION": 8488,
      "Ullmh": 8489,
      "XX": 8490,
      "fead": 8491,
      "haois": 8492,
      "iol": 8493,
      "lon": 8494,
      "saighd": 8495,
      "taibh": 8496,
      "tíolacadh": 8497,
      "turg": 8498,
      "ÁIR": 8499,
      "Éad": 8500,
      "áilleacht": 8501,
      "##he": 8502,
      "##iqu": 8503,
      "##nd": 8504,
      "##ote": 8505,
      "##ríocht": 8506,
      "##ty": 8507,
      "##eur": 8508,
      "##core": 8509,
      "##áire": 8510,
      "##fimid": 8511,
      "##OIR": 8512,
      "##CP": 8513,
      "##eak": 8514,
      "##aict": 8515,
      "##chánach": 8516,
      "##aradh": 8517,
      "##dheon": 8518,
      "##taíodh": 8519,
      "##ily": 8520,
      "##illa": 8521,
      "##isi": 8522,
      "chas": 8523,
      "chuspóir": 8524,
      "bhac": 8525,
      "bhalla": 8526,
      "##iúscartha": 8527,
      "##laíoch": 8528,
      "thaithí": 8529,
      "dhe": 8530,
      "dhein": 8531,
      "fhírinne": 8532,
      "bhfíric": 8533,
      "aonfhoirm": 8534,
      "##ithr": 8535,
      "mhná": 8536,
      "Chor": 8537,
      "Chláir": 8538,
      "shuí": 8539,
      "##ices": 8540,
      "scríbhn": 8541,
      "##órach": 8542,
      "##órtais": 8543,
      "ionchuir": 8544,
      "phunt": 8545,
      "formheas": 8546,
      "saoth": 8547,
      "##ríbe": 8548,
      "siams": 8549,
      "##ascailte": 8550,
      "##réimhe": 8551,
      "athraíonn": 8552,
      "Aonad": 8553,
      "cobh": 8554,
      "cosantóir": 8555,
      "tsamhail": 8556,
      "oibreoirí": 8557,
      "##aitlic": 8558,
      "bhronnta": 8559,
      "##aingne": 8560,
      "bhfoirgn": 8561,
      "choda": 8562,
      "##éadfá": 8563,
      "cheartú": 8564,
      "mBaile": 8565,
      "tub": 8566,
      "Fheabh": 8567,
      "eisiúna": 8568,
      "deartháir": 8569,
      "##ealad": 8570,
      "110": 8571,
      "urscaoilte": 8572,
      "Dhá": 8573,
      "Dhia": 8574,
      "cliste": 8575,
      "1938": 8576,
      "##airdíní": 8577,
      "Oifigigh": 8578,
      "iascaireacht": 8579,
      "ghníomhach": 8580,
      "aerfort": 8581,
      "##aigin": 8582,
      "scairsh": 8583,
      "chonartha": 8584,
      "##ture": 8585,
      "1942": 8586,
      "##iubh": 8587,
      "tae": 8588,
      "CHO": 8589,
      "Talamh": 8590,
      "infheisteoirí": 8591,
      "loinge": 8592,
      "chleachtas": 8593,
      "##oghlaim": 8594,
      "forbairtí": 8595,
      "sealbhóirí": 8596,
      "tuairiscithe": 8597,
      "cháilithe": 8598,
      "##TIO": 8599,
      "neamhchomh": 8600,
      "rannpháirtí": 8601,
      "cap": 8602,
      "coirp": 8603,
      "híocadh": 8604,
      "difriúla": 8605,
      "Foras": 8606,
      "comhthéacs": 8607,
      "##áistithe": 8608,
      "##ewel": 8609,
      "United": 8610,
      "bezel": 8611,
      "Dúithche": 8612,
      "Domhan": 8613,
      "hinfheist": 8614,
      "codlata": 8615,
      "bhóthair": 8616,
      "fhada": 8617,
      "meastóireachta": 8618,
      "tromchúiseacha": 8619,
      "##orcaigh": 8620,
      "Uaireanta": 8621,
      "mhionn": 8622,
      "aerárthaí": 8623,
      "dtosach": 8624,
      "nuachtán": 8625,
      "Nóta": 8626,
      "Sínis": 8627,
      "thabhaigh": 8628,
      "fhuascailt": 8629,
      "phionós": 8630,
      "phionósú": 8631,
      "dífhostaíochta": 8632,
      "Gaillimh": 8633,
      "mainneachtain": 8634,
      "tíotáiniam": 8635,
      "ghléasra": 8636,
      "ISO": 8637,
      "Teilifíse": 8638,
      "Bogearraí": 8639,
      "raidió": 8640,
      "Thosaigh": 8641,
      "##enerálta": 8642,
      "Meaisín": 8643,
      "íogair": 8644,
      "Fuinnimh": 8645,
      "romhainn": 8646,
      "geografach": 8647,
      "##dhlíthe": 8648,
      "sceimhlitheoireachta": 8649,
      "##itseáil": 8650,
      "##tuairiscí": 8651,
      "600": 8652,
      "97": 8653,
      "Beo": 8654,
      "Cárta": 8655,
      "Cathair": 8656,
      "Comhairl": 8657,
      "Dea": 8658,
      "Education": 8659,
      "Fé": 8660,
      "Fásta": 8661,
      "Leath": 8662,
      "Mus": 8663,
      "Méad": 8664,
      "Net": 8665,
      "Ome": 8666,
      "TO": 8667,
      "Tarraing": 8668,
      "Taoiseach": 8669,
      "abhar": 8670,
      "banc": 8671,
      "bolg": 8672,
      "cirt": 8673,
      "diosca": 8674,
      "eip": 8675,
      "eHouse": 8676,
      "feic": 8677,
      "gearradh": 8678,
      "ir": 8679,
      "ospidéal": 8680,
      "peitril": 8681,
      "seiceáil": 8682,
      "tram": 8683,
      "watch": 8684,
      "ábalta": 8685,
      "éig": 8686,
      "ít": 8687,
      "íon": 8688,
      "##nic": 8689,
      "##oideachas": 8690,
      "##ep": 8691,
      "##sman": 8692,
      "##gar": 8693,
      "##uíodh": 8694,
      "##óradh": 8695,
      "##by": 8696,
      "##ban": 8697,
      "##13": 8698,
      "##vel": 8699,
      "##chúirt": 8700,
      "##cheantar": 8701,
      "##mhuir": 8702,
      "chluas": 8703,
      "##nam": 8704,
      "##aslag": 8705,
      "inrá": 8706,
      "dollar": 8707,
      "gciseán": 8708,
      "dhaon": 8709,
      "fhíor": 8710,
      "##osh": 8711,
      "##igiú": 8712,
      "##ines": 8713,
      "##ásal": 8714,
      "mháthair": 8715,
      "cultúr": 8716,
      "shri": 8717,
      "shábháilteacht": 8718,
      "##éannachta": 8719,
      "##ica": 8720,
      "scríbe": 8721,
      "ghluaiste": 8722,
      "##unna": 8723,
      "##éanaí": 8724,
      "##liachta": 8725,
      "##idhe": 8726,
      "##aitheachta": 8727,
      "##ago": 8728,
      "ndeár": 8729,
      "##ister": 8730,
      "##luchta": 8731,
      "##luaise": 8732,
      "##rugaí": 8733,
      "foriomlán": 8734,
      "##amaí": 8735,
      "déantús": 8736,
      "íoctar": 8737,
      "dtabh": 8738,
      "##ating": 8739,
      "Aonaid": 8740,
      "coibhéis": 8741,
      "##phone": 8742,
      "tréithe": 8743,
      "réaltaí": 8744,
      "spéis": 8745,
      "gcomhshaol": 8746,
      "cosmaid": 8747,
      "tsoláthair": 8748,
      "Phort": 8749,
      "##thaire": 8750,
      "Inst": 8751,
      "##tachais": 8752,
      "críochnaitheach": 8753,
      "##ardaithe": 8754,
      "choinbh": 8755,
      "Comhlacht": 8756,
      "tráthúil": 8757,
      "iompróir": 8758,
      "Ionchur": 8759,
      "eisithe": 8760,
      "soilsithe": 8761,
      "míthreo": 8762,
      "cheadaíonn": 8763,
      "Spóirt": 8764,
      "mhíreanna": 8765,
      "1992": 8766,
      "Dhún": 8767,
      "##ARASC": 8768,
      "1965": 8769,
      "1973": 8770,
      "bracelet": 8771,
      "fuinneog": 8772,
      "chlog": 8773,
      "chionroinnt": 8774,
      "bhuaigh": 8775,
      "aithne": 8776,
      "cumainn": 8777,
      "tugann": 8778,
      "##achtarán": 8779,
      "Bronnta": 8780,
      "diag": 8781,
      "##áipéirí": 8782,
      "1985": 8783,
      "1945": 8784,
      "díd": 8785,
      "bailíocht": 8786,
      "díotáil": 8787,
      "foirmiú": 8788,
      "chleachtais": 8789,
      "##línse": 8790,
      "ghlacfaidh": 8791,
      "uasmhéid": 8792,
      "soiléire": 8793,
      "fiont": 8794,
      "nGa": 8795,
      "glacfar": 8796,
      "hoibriú": 8797,
      "tromlach": 8798,
      "Barbour": 8799,
      "##riachta": 8800,
      "parlaimintí": 8801,
      "gcomhlíontar": 8802,
      "deacrachtaí": 8803,
      "thionónta": 8804,
      "Domhnach": 8805,
      "##insímí": 8806,
      "faoisimh": 8807,
      "stíleanna": 8808,
      "hoifigigh": 8809,
      "foilsithe": 8810,
      "foilsíodh": 8811,
      "neamhdhíreach": 8812,
      "Ceadaíonn": 8813,
      "roinnte": 8814,
      "súile": 8815,
      "toirch": 8816,
      "gcontae": 8817,
      "Foilseacháin": 8818,
      "mhainneachtain": 8819,
      "taiscí": 8820,
      "cuimhneamh": 8821,
      "TUAIR": 8822,
      "TUARASC": 8823,
      "rásaíocht": 8824,
      "drochuair": 8825,
      "Mheiriceánach": 8826,
      "aitheantais": 8827,
      "cógaisíochta": 8828,
      "Bláthanna": 8829,
      "Leighis": 8830,
      "gcostas": 8831,
      "Cáilíochta": 8832,
      "##azine": 8833,
      "sceidealta": 8834,
      "contrár": 8835,
      "theaghlach": 8836,
      "fheiceann": 8837,
      "##tálfar": 8838,
      "RIALACHÁN": 8839,
      "gineadóir": 8840,
      "sráidbh": 8841,
      "##chuibhithe": 8842,
      "PATIO": 8843,
      "Dóiteáin": 8844,
      "dílseacháin": 8845,
      "eacnamaíocha": 8846,
      "##EIDHM": 8847,
      "TSín": 8848,
      "##eachumarsáide": 8849,
      "Leanann": 8850,
      "TUARASCÁIL": 8851,
      "71": 8852,
      "74": 8853,
      "AIS": 8854,
      "Aquarium": 8855,
      "Breise": 8856,
      "Ceart": 8857,
      "Céard": 8858,
      "EES": 8859,
      "Fóg": 8860,
      "Feist": 8861,
      "GN": 8862,
      "GH": 8863,
      "Glas": 8864,
      "IX": 8865,
      "MP": 8866,
      "Mens": 8867,
      "Pá": 8868,
      "RE": 8869,
      "Siú": 8870,
      "Sine": 8871,
      "SIN": 8872,
      "Tío": 8873,
      "Tuaras": 8874,
      "aos": 8875,
      "acht": 8876,
      "by": 8877,
      "caint": 8878,
      "cent": 8879,
      "cala": 8880,
      "daor": 8881,
      "fireann": 8882,
      "fearas": 8883,
      "hob": 8884,
      "kg": 8885,
      "lí": 8886,
      "míosa": 8887,
      "musc": 8888,
      "neod": 8889,
      "op": 8890,
      "out": 8891,
      "píosa": 8892,
      "reifr": 8893,
      "rugadh": 8894,
      "siltin": 8895,
      "tam": 8896,
      "Éif": 8897,
      "ól": 8898,
      "##nment": 8899,
      "##of": 8900,
      "##mat": 8901,
      "##ulation": 8902,
      "##liúntas": 8903,
      "##áltar": 8904,
      "##ball": 8905,
      "##LÍ": 8906,
      "##ked": 8907,
      "##GN": 8908,
      "##GE": 8909,
      "##BA": 8910,
      "##va": 8911,
      "##chóirí": 8912,
      "##artar": 8913,
      "chla": 8914,
      "chine": 8915,
      "chabhair": 8916,
      "chiseán": 8917,
      "chogaidh": 8918,
      "##achaillí": 8919,
      "##rael": 8920,
      "##ghairtear": 8921,
      "##laíochta": 8922,
      "##earra": 8923,
      "##earthacht": 8924,
      "##adóireachta": 8925,
      "##aiseach": 8926,
      "##aisleán": 8927,
      "thé": 8928,
      "gcúl": 8929,
      "gcósta": 8930,
      "##inneamh": 8931,
      "fhoillsiú": 8932,
      "##áine": 8933,
      "bhfuarthas": 8934,
      "##ltóirí": 8935,
      "##éadach": 8936,
      "shé": 8937,
      "shubstaint": 8938,
      "féar": 8939,
      "scian": 8940,
      "scrúd": 8941,
      "scaoilte": 8942,
      "##iber": 8943,
      "mbr": 8944,
      "comhbh": 8945,
      "comhábhair": 8946,
      "dátaí": 8947,
      "ndeach": 8948,
      "ndiú": 8949,
      "dtéann": 8950,
      "dtiocfadh": 8951,
      "Táthar": 8952,
      "##acáiste": 8953,
      "oráiste": 8954,
      "úsáideora": 8955,
      "##ame": 8956,
      "##engen": 8957,
      "##ísh": 8958,
      "coth": 8959,
      "coinbh": 8960,
      "gcomhaon": 8961,
      "fhorais": 8962,
      "Thair": 8963,
      "cóid": 8964,
      "##ills": 8965,
      "léirítear": 8966,
      "ceannais": 8967,
      "Staid": 8968,
      "chúiseanna": 8969,
      "cong": 8970,
      "const": 8971,
      "iarratasóirí": 8972,
      "dlíthe": 8973,
      "Mhór": 8974,
      "mBéarla": 8975,
      "##pháirtíochta": 8976,
      "print": 8977,
      "##tálaí": 8978,
      "chronograph": 8979,
      "dearcadh": 8980,
      "aicm": 8981,
      "##aireachtáil": 8982,
      "Seomra": 8983,
      "chruth": 8984,
      "chólíonadh": 8985,
      "1920": 8986,
      "ghnóthais": 8987,
      "chiona": 8988,
      "bhuaidh": 8989,
      "bhformáid": 8990,
      "aithris": 8991,
      "##ations": 8992,
      "deimhniúcháin": 8993,
      "bainistí": 8994,
      "##leanúint": 8995,
      "íosluchtaigh": 8996,
      "thosaíonn": 8997,
      "thráth": 8998,
      "easnamh": 8999,
      "Lae": 9000,
      "chleacht": 9001,
      "leictreacha": 9002,
      "frithsh": 9003,
      "Tuismitheoirí": 9004,
      "Ceannaigh": 9005,
      "údarúcháin": 9006,
      "COM": 9007,
      "exp": 9008,
      "##ower": 9009,
      "Láithre": 9010,
      "míchumas": 9011,
      "gearrtha": 9012,
      "chumhachtaí": 9013,
      "samhradh": 9014,
      "taifeadta": 9015,
      "luaidhe": 9016,
      "VII": 9017,
      "##ike": 9018,
      "comhdhéanamh": 9019,
      "Íocaíochtaí": 9020,
      "##eorannú": 9021,
      "sleamh": 9022,
      "hoifige": 9023,
      "chaillteanas": 9024,
      "fiosrúcháin": 9025,
      "Seinn": 9026,
      "##SPC": 9027,
      "teagasc": 9028,
      "Acad": 9029,
      "gaireas": 9030,
      "##eral": 9031,
      "lóiste": 9032,
      "caillte": 9033,
      "dearbhuithe": 9034,
      "ceint": 9035,
      "alcóil": 9036,
      "thríú": 9037,
      "lipéad": 9038,
      "meabhrán": 9039,
      "rubair": 9040,
      "Stiúrthóra": 9041,
      "Slándála": 9042,
      "innealtóireachta": 9043,
      "cuimsitheach": 9044,
      "dhiúltóidh": 9045,
      "patrún": 9046,
      "##uirbhé": 9047,
      "thaisbeáint": 9048,
      "náisiúnach": 9049,
      "English": 9050,
      "Schengen": 9051,
      "Technology": 9052,
      "Afraic": 9053,
      "ranga": 9054,
      "Scannán": 9055,
      "ailléirg": 9056,
      "ÁIRITHE": 9057,
      "dheineann": 9058,
      "##ithreachais": 9059,
      "cobhsaí": 9060,
      "79": 9061,
      "92": 9062,
[...]
