{
  "version": "1.0",
  "truncation": null,
  "padding": null,
  "added_tokens": [
    {
      "id": 0,
      "content": "[UNK]",
      "single_word": false,
      "lstrip": false,
      "rstrip": false,
      "normalized": false,
      "special": true
    },
    {
      "id": 1,
      "content": "[CLS]",
      "single_word": false,
      "lstrip": false,
      "rstrip": false,
      "normalized": false,
      "special": true
    },
    {
      "id": 2,
      "content": "[SEP]",
      "single_word": false,
      "lstrip": false,
      "rstrip": false,
      "normalized": false,
      "special": true
    },
    {
      "id": 3,
      "content": "[PAD]",
      "single_word": false,
      "lstrip": false,
      "rstrip": false,
      "normalized": false,
      "special": true
    },
    {
      "id": 4,
      "content": "[MASK]",
      "single_word": false,
      "lstrip": false,
      "rstrip": false,
      "normalized": false,
      "special": true
    }
  ],
  "normalizer": {
    "type": "NFKC"
  },
  "pre_tokenizer": {
    "type": "Whitespace"
  },
  "post_processor": null,
  "decoder": null,
  "model": {
    "type": "BPE",
    "dropout": null,
    "unk_token": null,
    "continuing_subword_prefix": null,
    "end_of_word_suffix": null,
    "fuse_unk": false,
    "byte_fallback": false,
    "ignore_merges": false,
    "vocab": {
      "[UNK]": 0,
      "[CLS]": 1,
      "[SEP]": 2,
      "[PAD]": 3,
      "[MASK]": 4,
      "!": 5,
      "\"": 6,
      "#": 7,
      "%": 8,
      "&": 9,
      "'": 10,
      "(": 11,
      ")": 12,
      "*": 13,
      ",": 14,
      "-": 15,
      ".": 16,
      "/": 17,
      "0": 18,
      "1": 19,
      "2": 20,
      "3": 21,
      "4": 22,
      "5": 23,
      "6": 24,
      "7": 25,
      "8": 26,
      "9": 27,
      ":": 28,
      ";": 29,
      "?": 30,
      "@": 31,
      "A": 32,
      "B": 33,
      "C": 34,
      "D": 35,
      "E": 36,
      "F": 37,
      "G": 38,
      "H": 39,
      "I": 40,
      "J": 41,
      "K": 42,
      "L": 43,
      "M": 44,
      "N": 45,
      "O": 46,
      "P": 47,
      "Q": 48,
      "R": 49,
      "S": 50,
      "T": 51,
      "U": 52,
      "V": 53,
      "W": 54,
      "X": 55,
      "Y": 56,
      "Z": 57,
      "[": 58,
      "\\": 59,
      "]": 60,
      "_": 61,
      "a": 62,
      "b": 63,
      "c": 64,
      "d": 65,
      "e": 66,
      "f": 67,
      "g": 68,
      "h": 69,
      "i": 70,
      "j": 71,
      "k": 72,
      "l": 73,
      "m": 74,
      "n": 75,
      "o": 76,
      "p": 77,
      "q": 78,
      "r": 79,
      "s": 80,
      "t": 81,
      "u": 82,
      "v": 83,
      "w": 84,
      "x": 85,
      "y": 86,
      "z": 87,
      "{": 88,
      "}": 89,
      "§": 90,
      "«": 91,
      "­": 92,
      "·": 93,
      "»": 94,
      "Á": 95,
      "Â": 96,
      "Ã": 97,
      "Ä": 98,
      "Å": 99,
      "Ç": 100,
      "É": 101,
      "Í": 102,
      "Ï": 103,
      "Ó": 104,
      "Ô": 105,
      "Õ": 106,
      "Ö": 107,
      "Ø": 108,
      "Ú": 109,
      "Ü": 110,
      "Ý": 111,
      "ß": 112,
      "à": 113,
      "á": 114,
      "â": 115,
      "ã": 116,
      "ä": 117,
      "å": 118,
      "æ": 119,
      "ç": 120,
      "è": 121,
      "é": 122,
      "ê": 123,
      "ë": 124,
      "ì": 125,
      "í": 126,
      "î": 127,
      "ï": 128,
      "ð": 129,
      "ñ": 130,
      "ò": 131,
      "ó": 132,
      "ô": 133,
      "ö": 134,
      "ø": 135,
      "ú": 136,
      "ü": 137,
      "ý": 138,
      "þ": 139,
      "ā": 140,
      "Ă": 141,
      "ă": 142,
      "Ą": 143,
      "Ć": 144,
      "ć": 145,
      "Č": 146,
      "Ė": 147,
      "Ę": 148,
      "ğ": 149,
      "İ": 150,
      "ı": 151,
      "Ł": 152,
      "ł": 153,
      "Ń": 154,
      "Ň": 155,
      "œ": 156,
      "ř": 157,
      "ś": 158,
      "Ş": 159,
      "ş": 160,
      "Š": 161,
      "š": 162,
      "ţ": 163,
      "ů": 164,
      "Ÿ": 165,
      "ż": 166,
      "Ž": 167,
      "ș": 168,
      "Ț": 169,
      "ʼ": 170,
      "̈": 171,
      "̊": 172,
      "̲": 173,
      "Δ": 174,
      "Π": 175,
      "Ω": 176,
      "ά": 177,
      "ή": 178,
      "ί": 179,
      "δ": 180,
      "ι": 181,
      "λ": 182,
      "μ": 183,
      "π": 184,
      "ς": 185,
      "ω": 186,
      "ώ": 187,
      "Д": 188,
      "П": 189,
      "Ш": 190,
      "Я": 191,
      "б": 192,
      "д": 193,
      "и": 194,
      "й": 195,
      "л": 196,
      "п": 197,
      "ч": 198,
      "ш": 199,
      "ы": 200,
      "ю": 201,
      "я": 202,
      "є": 203,
      "ا": 204,
      "ب": 205,
      "ج": 206,
      "ح": 207,
      "ر": 208,
      "ش": 209,
      "ع": 210,
      "ك": 211,
      "ل": 212,
      "و": 213,
      "ي": 214,
      "ٱ": 215,
      "‐": 216,
      "–": 217,
      "—": 218,
      "―": 219,
      "‘": 220,
      "’": 221,
      "‚": 222,
      "“": 223,
      "”": 224,
      "†": 225,
      "‡": 226,
      "•": 227,
      "‰": 228,
      "′": 229,
      "›": 230,
      "※": 231,
      "⁄": 232,
      "⁊": 233,
      "➍": 234,
      "・": 235,
      "初": 236,
      "力": 237,
      "压": 238,
      "头": 239,
      "水": 240,
      "潤": 241,
      "艹": 242,
      "触": 243,
      "餅": 244,
      "ch": 245,
      "an": 246,
      "ai": 247,
      "ar": 248,
      "in": 249,
      "th": 250,
      "ea": 251,
      "ir": 252,
      "dh": 253,
      "mh": 254,
      "na": 255,
      "ag": 256,
      "bh": 257,
      "le": 258,
      "is": 259,
      "ta": 260,
      "on": 261,
      "us": 262,
      "il": 263,
      "ío": 264,
      "ach": 265,
      "agus": 266,
      "ei": 267,
      "air": 268,
      "each": 269,
      "al": 270,
      "de": 271,
      "iú": 272,
      "or": 273,
      "te": 274,
      "id": 275,
      "gh": 276,
      "as": 277,
      "the": 278,
      "oi": 279,
      "chu": 280,
      "se": 281,
      "ain": 282,
      "la": 283,
      "nó": 284,
      "ra": 285,
      "ais": 286,
      "ad": 287,
      "ann": 288,
      "omh": 289,
      "tá": 290,
      "go": 291,
      "tr": 292,
      "lá": 293,
      "fh": 294,
      "íoch": 295,
      "áil": 296,
      "inn": 297,
      "sin": 298,
      "sa": 299,
      "sc": 300,
      "aidh": 301,
      "gc": 302,
      "eidh": 303,
      "ear": 304,
      "do": 305,
      "éan": 306,
      "tha": 307,
      "seo": 308,
      "fa": 309,
      "éi": 310,
      "aon": 311,
      "bhf": 312,
      "io": 313,
      "ion": 314,
      "oir": 315,
      "aithe": 316,
      "ithe": 317,
      "anna": 318,
      "áin": 319,
      "ine": 320,
      "amh": 321,
      "éir": 322,
      "chun": 323,
      "cu": 324,
      "leis": 325,
      "án": 326,
      "éad": 327,
      "sh": 328,
      "óir": 329,
      "it": 330,
      "ás": 331,
      "ce": 332,
      "im": 333,
      "re": 334,
      "eas": 335,
      "nach": 336,
      "ail": 337,
      "os": 338,
      "ial": 339,
      "du": 340,
      "den": 341,
      "eacht": 342,
      "Ch": 343,
      "eachta": 344,
      "cht": 345,
      "eadh": 346,
      "íon": 347,
      "li": 348,
      "áir": 349,
      "eag": 350,
      "ith": 351,
      "ist": 352,
      "alt": 353,
      "mar": 354,
      "sé": 355,
      "tear": 356,
      "uil": 357,
      "aigh": 358,
      "ná": 359,
      "far": 360,
      "fé": 361,
      "eith": 362,
      "am": 363,
      "lach": 364,
      "ig": 365,
      "ol": 366,
      "faoi": 367,
      "íochta": 368,
      "aid": 369,
      "adh": 370,
      "tar": 371,
      "mb": 372,
      "ro": 373,
      "un": 374,
      "dá": 375,
      "nío": 376,
      "eann": 377,
      "ín": 378,
      "Air": 379,
      "faidh": 380,
      "bhfuil": 381,
      "me": 382,
      "ao": 383,
      "dhéan": 384,
      "rú": 385,
      "eal": 386,
      "lu": 387,
      "ór": 388,
      "tú": 389,
      "dú": 390,
      "ina": 391,
      "atá": 392,
      "íonn": 393,
      "ru": 394,
      "20": 395,
      "ph": 396,
      "comh": 397,
      "ur": 398,
      "tas": 399,
      "eamh": 400,
      "airt": 401,
      "san": 402,
      "agh": 403,
      "iar": 404,
      "idir": 405,
      "raí": 406,
      "chur": 407,
      "19": 408,
      "iún": 409,
      "Acht": 410,
      "st": 411,
      "áid": 412,
      "déan": 413,
      "so": 414,
      "uair": 415,
      "aí": 416,
      "íocht": 417,
      "ath": 418,
      "réir": 419,
      "iom": 420,
      "eile": 421,
      "bheith": 422,
      "aim": 423,
      "éis": 424,
      "duine": 425,
      "idh": 426,
      "int": 427,
      "igh": 428,
      "ic": 429,
      "aidir": 430,
      "ead": 431,
      "dt": 432,
      "dar": 433,
      "ge": 434,
      "aith": 435,
      "don": 436,
      "ca": 437,
      "br": 438,
      "dhéanamh": 439,
      "oin": 440,
      "chomh": 441,
      "iad": 442,
      "iste": 443,
      "rá": 444,
      "tais": 445,
      "lí": 446,
      "An": 447,
      "maidir": 448,
      "ús": 449,
      "bhí": 450,
      "che": 451,
      "Tá": 452,
      "lean": 453,
      "ní": 454,
      "eo": 455,
      "imh": 456,
      "taí": 457,
      "co": 458,
      "cr": 459,
      "ír": 460,
      "uir": 461,
      "óg": 462,
      "éar": 463,
      "aghaidh": 464,
      "acht": 465,
      "gach": 466,
      "río": 467,
      "lea": 468,
      "eidhm": 469,
      "éid": 470,
      "bhar": 471,
      "bheidh": 472,
      "aint": 473,
      "su": 474,
      "Is": 475,
      "for": 476,
      "ian": 477,
      "lena": 478,
      "ón": 479,
      "no": 480,
      "orp": 481,
      "trí": 482,
      "thar": 483,
      "isiún": 484,
      "er": 485,
      "féidir": 486,
      "iúil": 487,
      "lacha": 488,
      "níomh": 489,
      "ainn": 490,
      "ialach": 491,
      "fear": 492,
      "nd": 493,
      "leith": 494,
      "um": 495,
      "chuid": 496,
      "oil": 497,
      "níos": 498,
      "eart": 499,
      "údar": 500,
      "ró": 501,
      "Aire": 502,
      "oim": 503,
      "sp": 504,
      "201": 505,
      "ál": 506,
      "mó": 507,
      "íoc": 508,
      "íol": 509,
      "cú": 510,
      "ái": 511,
      "éas": 512,
      "teag": 513,
      "lán": 514,
      "oimh": 515,
      "óirí": 516,
      "gcás": 517,
      "gur": 518,
      "gC": 519,
      "bhr": 520,
      "dó": 521,
      "ac": 522,
      "úsáid": 523,
      "tu": 524,
      "sí": 525,
      "thabh": 526,
      "all": 527,
      "fig": 528,
      "ár": 529,
      "airle": 530,
      "aoine": 531,
      "aineann": 532,
      "to": 533,
      "eacha": 534,
      "faoin": 535,
      "Bh": 536,
      "son": 537,
      "niú": 538,
      "stá": 539,
      "ála": 540,
      "eid": 541,
      "láth": 542,
      "gcomh": 543,
      "tach": 544,
      "ítear": 545,
      "eir": 546,
      "Ar": 547,
      "nu": 548,
      "abh": 549,
      "lár": 550,
      "tion": 551,
      "haghaidh": 552,
      "ib": 553,
      "ise": 554,
      "uid": 555,
      "eimh": 556,
      "éadfaidh": 557,
      "lac": 558,
      "lian": 559,
      "gead": 560,
      "ang": 561,
      "cho": 562,
      "Airteag": 563,
      "éimh": 564,
      "Eorp": 565,
      "ord": 566,
      "Aon": 567,
      "amháin": 568,
      "éim": 569,
      "trá": 570,
      "ard": 571,
      "beidh": 572,
      "Ní": 573,
      "sú": 574,
      "fidh": 575,
      "isc": 576,
      "ibh": 577,
      "fo": 578,
      "thabhairt": 579,
      "acha": 580,
      "Airteagal": 581,
      "arna": 582,
      "áirt": 583,
      "ma": 584,
      "iona": 585,
      "and": 586,
      "ríomh": 587,
      "inne": 588,
      "roimh": 589,
      "ing": 590,
      "artha": 591,
      "gan": 592,
      "00": 593,
      "áit": 594,
      "íochtaí": 595,
      "neamh": 596,
      "mbeidh": 597,
      "álacha": 598,
      "éal": 599,
      "lo": 600,
      "obh": 601,
      "íos": 602,
      "onn": 603,
      "oibr": 604,
      "oifig": 605,
      "isin": 606,
      "ún": 607,
      "amach": 608,
      "úir": 609,
      "rai": 610,
      "ob": 611,
      "liain": 612,
      "isteach": 613,
      "éimhse": 614,
      "pe": 615,
      "fhor": 616,
      "siad": 617,
      "aire": 618,
      "Co": 619,
      "fr": 620,
      "oib": 621,
      "íne": 622,
      "asc": 623,
      "éag": 624,
      "ts": 625,
      "cháin": 626,
      "chuig": 627,
      "má": 628,
      "rí": 629,
      "Th": 630,
      "fáil": 631,
      "saor": 632,
      "eidhme": 633,
      "nithe": 634,
      "ordú": 635,
      "mór": 636,
      "léir": 637,
      "eap": 638,
      "oirí": 639,
      "gníomh": 640,
      "Ph": 641,
      "gá": 642,
      "omhairle": 643,
      "thu": 644,
      "laíonn": 645,
      "méid": 646,
      "seir": 647,
      "iarra": 648,
      "ait": 649,
      "áirithe": 650,
      "fho": 651,
      "rud": 652,
      "deimh": 653,
      "eic": 654,
      "éil": 655,
      "CH": 656,
      "ne": 657,
      "aighde": 658,
      "eis": 659,
      "tréimhse": 660,
      "ia": 661,
      "féin": 662,
      "acu": 663,
      "Rialach": 664,
      "seirbhí": 665,
      "leag": 666,
      "cuid": 667,
      "cos": 668,
      "cinn": 669,
      "iarr": 670,
      "seach": 671,
      "ceann": 672,
      "lú": 673,
      "ánach": 674,
      "eachtaí": 675,
      "raithe": 676,
      "siú": 677,
      "airgead": 678,
      "ri": 679,
      "nas": 680,
      "mo": 681,
      "nua": 682,
      "isiúnta": 683,
      "at": 684,
      "lais": 685,
      "200": 686,
      "ábhar": 687,
      "úil": 688,
      "tAire": 689,
      "íodh": 690,
      "leanas": 691,
      "daoine": 692,
      "iomlán": 693,
      "chú": 694,
      "oimisiún": 695,
      "ionad": 696,
      "éif": 697,
      "EN": 698,
      "por": 699,
      "eall": 700,
      "eabh": 701,
      "fháil": 702,
      "cuir": 703,
      "cru": 704,
      "leas": 705,
      "néis": 706,
      "onar": 707,
      "blian": 708,
      "Sc": 709,
      "cur": 710,
      "rial": 711,
      "raítear": 712,
      "Uimh": 713,
      "mp": 714,
      "ile": 715,
      "rialach": 716,
      "órt": 717,
      "ainm": 718,
      "maith": 719,
      "In": 720,
      "eideal": 721,
      "taobh": 722,
      "ios": 723,
      "allstá": 724,
      "ndéan": 725,
      "ean": 726,
      "chta": 727,
      "isce": 728,
      "éile": 729,
      "ost": 730,
      "údarás": 731,
      "cha": 732,
      "sho": 733,
      "fu": 734,
      "lacht": 735,
      "bun": 736,
      "dear": 737,
      "ógra": 738,
      "las": 739,
      "Déan": 740,
      "táir": 741,
      "aisnéis": 742,
      "ailt": 743,
      "aige": 744,
      "en": 745,
      "eadú": 746,
      "ite": 747,
      "inte": 748,
      "feidhm": 749,
      "bhun": 750,
      "líon": 751,
      "táil": 752,
      "críoch": 753,
      "iúla": 754,
      "sna": 755,
      "eist": 756,
      "bhaineann": 757,
      "10": 758,
      "Ag": 759,
      "cial": 760,
      "eol": 761,
      "nadh": 762,
      "mí": 763,
      "sonraí": 764,
      "iarratas": 765,
      "innt": 766,
      "og": 767,
      "ibé": 768,
      "áis": 769,
      "aisce": 770,
      "có": 771,
      "éirí": 772,
      "meas": 773,
      "gr": 774,
      "laim": 775,
      "linn": 776,
      "stiú": 777,
      "cibé": 778,
      "AN": 779,
      "radh": 780,
      "ter": 781,
      "pa": 782,
      "pl": 783,
      "ba": 784,
      "Stá": 785,
      "rach": 786,
      "mhar": 787,
      "oirm": 788,
      "mu": 789,
      "tigh": 790,
      "anta": 791,
      "raibh": 792,
      "ng": 793,
      "más": 794,
      "tal": 795,
      "lamh": 796,
      "bhfeidhm": 797,
      "Beidh": 798,
      "dhá": 799,
      "lacadh": 800,
      "leadh": 801,
      "áide": 802,
      "leat": 803,
      "bp": 804,
      "feidhme": 805,
      "lío": 806,
      "inníol": 807,
      "Gh": 808,
      "earta": 809,
      "nuair": 810,
      "thair": 811,
      "lui": 812,
      "AI": 813,
      "fre": 814,
      "str": 815,
      "char": 816,
      "dtí": 817,
      "naí": 818,
      "ndáil": 819,
      "Rialachán": 820,
      "Ballstá": 821,
      "chuir": 822,
      "aoin": 823,
      "tair": 824,
      "tóir": 825,
      "rogh": 826,
      "chóir": 827,
      "ae": 828,
      "chuí": 829,
      "amp": 830,
      "ábh": 831,
      "líne": 832,
      "dul": 833,
      "thú": 834,
      "mheas": 835,
      "íoca": 836,
      "féadfaidh": 837,
      "untas": 838,
      "ladh": 839,
      "airm": 840,
      "ialta": 841,
      "dtag": 842,
      "Ro": 843,
      "osc": 844,
      "ís": 845,
      "bairt": 846,
      "réi": 847,
      "ill": 848,
      "éanna": 849,
      "ll": 850,
      "bhliain": 851,
      "leath": 852,
      "nú": 853,
      "CE": 854,
      "freisin": 855,
      "di": 856,
      "porn": 857,
      "Éir": 858,
      "náisiúnta": 859,
      "Comh": 860,
      "dír": 861,
      "sain": 862,
      "deir": 863,
      "inneadh": 864,
      "dáta": 865,
      "ló": 866,
      "cheann": 867,
      "con": 868,
      "pr": 869,
      "gt": 870,
      "aic": 871,
      "dlí": 872,
      "dío": 873,
      "ii": 874,
      "ghabh": 875,
      "rea": 876,
      "aile": 877,
      "ciallaíonn": 878,
      "rth": 879,
      "gí": 880,
      "bhaint": 881,
      "II": 882,
      "arlaim": 883,
      "úirt": 884,
      "Mh": 885,
      "fadh": 886,
      "chéad": 887,
      "aill": 888,
      "mé": 889,
      "fí": 890,
      "mbaineann": 891,
      "oidh": 892,
      "teacht": 893,
      "es": 894,
      "ACH": 895,
      "amhl": 896,
      "tag": 897,
      "cheart": 898,
      "bu": 899,
      "tor": 900,
      "bhfo": 901,
      "Mar": 902,
      "et": 903,
      "arlaimint": 904,
      "amhlaidh": 905,
      "tráth": 906,
      "cion": 907,
      "roinnt": 908,
      "Má": 909,
      "ide": 910,
      "sórt": 911,
      "easc": 912,
      "bhu": 913,
      "pháirt": 914,
      "Féadfaidh": 915,
      "fearr": 916,
      "dtagraítear": 917,
      "easa": 918,
      "iomchuí": 919,
      "aise": 920,
      "oic": 921,
      "láthair": 922,
      "ora": 923,
      "mhair": 924,
      "aistr": 925,
      "12": 926,
      "lagh": 927,
      "ós": 928,
      "meá": 929,
      "críocha": 930,
      "ana": 931,
      "éifeacht": 932,
      "mhí": 933,
      "18": 934,
      "bith": 935,
      "iúl": 936,
      "iúnach": 937,
      "álta": 938,
      "Sh": 939,
      "ré": 940,
      "deimhnithe": 941,
      "Le": 942,
      "achta": 943,
      "bliana": 944,
      "líonadh": 945,
      "éadfar": 946,
      "éagsú": 947,
      "áirítear": 948,
      "luach": 949,
      "gadh": 950,
      "feadh": 951,
      "ID": 952,
      "rtha": 953,
      "rom": 954,
      "fad": 955,
      "uilleadh": 956,
      "shon": 957,
      "únach": 958,
      "mhéid": 959,
      "cheap": 960,
      "aird": 961,
      "tiú": 962,
      "gnó": 963,
      "rio": 964,
      "oll": 965,
      "hEorp": 966,
      "bain": 967,
      "stiúir": 968,
      "laistigh": 969,
      "hEorpa": 970,
      "AE": 971,
      "Iar": 972,
      "Sa": 973,
      "alta": 974,
      "laí": 975,
      "fógra": 976,
      "leor": 977,
      "íomh": 978,
      "eachais": 979,
      "scrí": 980,
      "ineál": 981,
      "gcomhréir": 982,
      "chéile": 983,
      "leo": 984,
      "dí": 985,
      "láthar": 986,
      "earraí": 987,
      "óras": 988,
      "aighdeán": 989,
      "aois": 990,
      "ghníomh": 991,
      "cal": 992,
      "namh": 993,
      "láith": 994,
      "eachas": 995,
      "náth": 996,
      "chr": 997,
      "dáil": 998,
      "iomp": 999,
      "ip": 1000,
      "ois": 1001,
      "Aontais": 1002,
      "díreach": 1003,
      "bhinn": 1004,
      "gco": 1005,
      "haon": 1006,
      "páirt": 1007,
      "téar": 1008,
      "AR": 1009,
      "Ard": 1010,
      "Cu": 1011,
      "aip": 1012,
      "inníollacha": 1013,
      "Fh": 1014,
      "eanna": 1015,
      "istí": 1016,
      "áireamh": 1017,
      "foir": 1018,
      "tre": 1019,
      "Cuntas": 1020,
      "ram": 1021,
      "mír": 1022,
      "15": 1023,
      "duit": 1024,
      "Cuir": 1025,
      "oig": 1026,
      "So": 1027,
      "ainne": 1028,
      "da": 1029,
      "anas": 1030,
      "saí": 1031,
      "oiblí": 1032,
      "oimisin": 1033,
      "chl": 1034,
      "uisce": 1035,
      "For": 1036,
      "gn": 1037,
      "síos": 1038,
      "ásta": 1039,
      "Coimisiún": 1040,
      "mhacht": 1041,
      "suim": 1042,
      "Oi": 1043,
      "irt": 1044,
      "bhain": 1045,
      "thaí": 1046,
      "soil": 1047,
      "forálacha": 1048,
      "iaidh": 1049,
      "Achta": 1050,
      "infh": 1051,
      "rann": 1052,
      "Eorpach": 1053,
      "ríobh": 1054,
      "taca": 1055,
      "bhreith": 1056,
      "cáil": 1057,
      "nós": 1058,
      "Fu": 1059,
      "mha": 1060,
      "íoctha": 1061,
      "om": 1062,
      "tuair": 1063,
      "ga": 1064,
      "teach": 1065,
      "30": 1066,
      "reoir": 1067,
      "ct": 1068,
      "tS": 1069,
      "eirbhí": 1070,
      "AS": 1071,
      "clui": 1072,
      "dála": 1073,
      "gin": 1074,
      "lárú": 1075,
      "scríbhinn": 1076,
      "oile": 1077,
      "tionsc": 1078,
      "rith": 1079,
      "clár": 1080,
      "achtaí": 1081,
      "Ion": 1082,
      "luais": 1083,
      "físe": 1084,
      "iarraidh": 1085,
      "tae": 1086,
      "rain": 1087,
      "iúint": 1088,
      "imeachta": 1089,
      "óis": 1090,
      "úin": 1091,
      "gcuid": 1092,
      "Chun": 1093,
      "cuideachta": 1094,
      "Agus": 1095,
      "Ba": 1096,
      "ceadú": 1097,
      "ionsc": 1098,
      "Bord": 1099,
      "ceart": 1100,
      "faisnéis": 1101,
      "monar": 1102,
      "oimeá": 1103,
      "aoil": 1104,
      "suas": 1105,
      "seirbhísí": 1106,
      "oimeád": 1107,
      "óidh": 1108,
      "earsan": 1109,
      "Stát": 1110,
      "osta": 1111,
      "láinte": 1112,
      "léas": 1113,
      "riacht": 1114,
      "Tu": 1115,
      "rian": 1116,
      "chos": 1117,
      "eicn": 1118,
      "fi": 1119,
      "fheidhm": 1120,
      "anach": 1121,
      "11": 1122,
      "Airgead": 1123,
      "oicim": 1124,
      "leibh": 1125,
      "eola": 1126,
      "el": 1127,
      "chru": 1128,
      "Rial": 1129,
      "eachtain": 1130,
      "mbeadh": 1131,
      "ealbh": 1132,
      "oifigeach": 1133,
      "íche": 1134,
      "gheall": 1135,
      "scrú": 1136,
      "beag": 1137,
      "déanfar": 1138,
      "De": 1139,
      "féach": 1140,
      "éarla": 1141,
      "Lch": 1142,
      "caim": 1143,
      "IN": 1144,
      "chum": 1145,
      "bhrí": 1146,
      "Ballstáit": 1147,
      "isteanna": 1148,
      "úsáide": 1149,
      "ghnó": 1150,
      "imp": 1151,
      "éagsúla": 1152,
      "chí": 1153,
      "LE": 1154,
      "gtar": 1155,
      "seachas": 1156,
      "fén": 1157,
      "tí": 1158,
      "reán": 1159,
      "Seo": 1160,
      "gComhairle": 1161,
      "bar": 1162,
      "dtaobh": 1163,
      "eagra": 1164,
      "obair": 1165,
      "Údar": 1166,
      "chán": 1167,
      "mhír": 1168,
      "thor": 1169,
      "Béarla": 1170,
      "Éireann": 1171,
      "anais": 1172,
      "aireacht": 1173,
      "ghlacadh": 1174,
      "arasc": 1175,
      "éadfadh": 1176,
      "roimhe": 1177,
      "táirgí": 1178,
      "eolas": 1179,
      "ire": 1180,
      "déanta": 1181,
      "oimisinéirí": 1182,
      "taithe": 1183,
      "chair": 1184,
      "199": 1185,
      "airgeadais": 1186,
      "pé": 1187,
      "dhu": 1188,
      "of": 1189,
      "láir": 1190,
      "céanna": 1191,
      "maí": 1192,
      "16": 1193,
      "min": 1194,
      "TH": 1195,
      "pland": 1196,
      "Tw": 1197,
      "údaráis": 1198,
      "chó": 1199,
      "áitr": 1200,
      "bre": 1201,
      "leacht": 1202,
      "dóibh": 1203,
      "achtach": 1204,
      "teor": 1205,
      "Chomh": 1206,
      "coinníollacha": 1207,
      "ACHT": 1208,
      "faí": 1209,
      "réim": 1210,
      "bra": 1211,
      "ailte": 1212,
      "Airgeadais": 1213,
      "aoi": 1214,
      "eagh": 1215,
      "íní": 1216,
      "ianaise": 1217,
      "Dh": 1218,
      "iniú": 1219,
      "14": 1220,
      "chlár": 1221,
      "mura": 1222,
      "ábháil": 1223,
      "uithe": 1224,
      "réas": 1225,
      "altaí": 1226,
      "gean": 1227,
      "iscint": 1228,
      "rialacha": 1229,
      "sean": 1230,
      "nt": 1231,
      "talamh": 1232,
      "Oifig": 1233,
      "iúcháin": 1234,
      "cuí": 1235,
      "ceáil": 1236,
      "chuideachta": 1237,
      "ust": 1238,
      "Me": 1239,
      "éithe": 1240,
      "bhfor": 1241,
      "cun": 1242,
      "24": 1243,
      "cail": 1244,
      "lan": 1245,
      "aghas": 1246,
      "Chomhairle": 1247,
      "lite": 1248,
      "oibre": 1249,
      "ola": 1250,
      "196": 1251,
      "25": 1252,
      "lé": 1253,
      "leic": 1254,
      "Gae": 1255,
      "aib": 1256,
      "13": 1257,
      "uirear": 1258,
      "nde": 1259,
      "ráta": 1260,
      "ealach": 1261,
      "duithe": 1262,
      "ioc": 1263,
      "Con": 1264,
      "ghairm": 1265,
      "earsanta": 1266,
      "IS": 1267,
      "maoin": 1268,
      "dhíol": 1269,
      "Tuilleadh": 1270,
      "ve": 1271,
      "bhíonn": 1272,
      "193": 1273,
      "197": 1274,
      "NA": 1275,
      "tríd": 1276,
      "rúpa": 1277,
      "fá": 1278,
      "eath": 1279,
      "cheang": 1280,
      "lim": 1281,
      "eofar": 1282,
      "mhe": 1283,
      "scoile": 1284,
      "éime": 1285,
      "túil": 1286,
      "cé": 1287,
      "lae": 1288,
      "car": 1289,
      "iasc": 1290,
      "áiste": 1291,
      "bo": 1292,
      "Achtanna": 1293,
      "díol": 1294,
      "aite": 1295,
      "Fuaim": 1296,
      "aif": 1297,
      "iúin": 1298,
      "ceap": 1299,
      "ver": 1300,
      "íor": 1301,
      "liún": 1302,
      "phob": 1303,
      "chúis": 1304,
      "leibhéal": 1305,
      "Fuaimniú": 1306,
      "tos": 1307,
      "arc": 1308,
      "MH": 1309,
      "Na": 1310,
      "oid": 1311,
      "iníoctha": 1312,
      "ice": 1313,
      "déanfaidh": 1314,
      "AL": 1315,
      "doicim": 1316,
      "cumh": 1317,
      "cháil": 1318,
      "aontú": 1319,
      "domh": 1320,
      "óc": 1321,
      "ansin": 1322,
      "tabhar": 1323,
      "earálta": 1324,
      "ceang": 1325,
      "dhaoine": 1326,
      "áitiúil": 1327,
      "oiliú": 1328,
      "lín": 1329,
      "chion": 1330,
      "Ce": 1331,
      "oc": 1332,
      "éadú": 1333,
      "Sceideal": 1334,
      "teanna": 1335,
      "speis": 1336,
      "Ach": 1337,
      "shu": 1338,
      "eac": 1339,
      "aistriú": 1340,
      "Fó": 1341,
      "dach": 1342,
      "gann": 1343,
      "gníomha": 1344,
      "baint": 1345,
      "tAcht": 1346,
      "tras": 1347,
      "fhoir": 1348,
      "háirithe": 1349,
      "ias": 1350,
      "pró": 1351,
      "ong": 1352,
      "ilge": 1353,
      "uaire": 1354,
      "léi": 1355,
      "uile": 1356,
      "tagairt": 1357,
      "oiriúnach": 1358,
      "laigh": 1359,
      "ruithe": 1360,
      "ráit": 1361,
      "CU": 1362,
      "Leas": 1363,
      "thag": 1364,
      "Faoi": 1365,
      "be": 1366,
      "raíonn": 1367,
      "Go": 1368,
      "tála": 1369,
      "scéim": 1370,
      "rialacháin": 1371,
      "gra": 1372,
      "uas": 1373,
      "orthu": 1374,
      "gcuir": 1375,
      "úr": 1376,
      "chon": 1377,
      "deireadh": 1378,
      "mian": 1379,
      "reach": 1380,
      "bliain": 1381,
      "ófar": 1382,
      "úna": 1383,
      "modh": 1384,
      "raith": 1385,
      "scoil": 1386,
      "Chuid": 1387,
      "gréas": 1388,
      "AG": 1389,
      "deimhniú": 1390,
      "rthóir": 1391,
      "aisc": 1392,
      "Ná": 1393,
      "aig": 1394,
      "soláth": 1395,
      "freag": 1396,
      "árta": 1397,
      "000": 1398,
      "óra": 1399,
      "aimh": 1400,
      "dhéanann": 1401,
      "athrú": 1402,
      "Pharlaimint": 1403,
      "US": 1404,
      "scaire": 1405,
      "inniú": 1406,
      "fhéadfadh": 1407,
      "sao": 1408,
      "amhail": 1409,
      "ille": 1410,
      "earr": 1411,
      "leasú": 1412,
      "sholáthar": 1413,
      "dhío": 1414,
      "críche": 1415,
      "agat": 1416,
      "acháin": 1417,
      "ainní": 1418,
      "Chúirt": 1419,
      "17": 1420,
      "ior": 1421,
      "reacht": 1422,
      "riar": 1423,
      "úis": 1424,
      "osca": 1425,
      "Comhairle": 1426,
      "uro": 1427,
      "ionann": 1428,
      "Ballstát": 1429,
      "Coimisinéirí": 1430,
      "cad": 1431,
      "eala": 1432,
      "limist": 1433,
      "Al": 1434,
      "leictr": 1435,
      "anseo": 1436,
      "cheanna": 1437,
      "reag": 1438,
      "íniú": 1439,
      "mion": 1440,
      "dtu": 1441,
      "cheadú": 1442,
      "tSín": 1443,
      "nár": 1444,
      "bunaithe": 1445,
      "chloig": 1446,
      "per": 1447,
      "scaoil": 1448,
      "imeachtaí": 1449,
      "áidí": 1450,
      "vó": 1451,
      "ama": 1452,
      "speisialta": 1453,
      "195": 1454,
      "26": 1455,
      "bearta": 1456,
      "olas": 1457,
      "iseanna": 1458,
      "naithe": 1459,
      "eithic": 1460,
      "Aontas": 1461,
      "seirbhís": 1462,
      "príomh": 1463,
      "chaighdeán": 1464,
      "gréasáin": 1465,
      "cánach": 1466,
      "rinneadh": 1467,
      "gid": 1468,
      "achtar": 1469,
      "uras": 1470,
      "arascáil": 1471,
      "ss": 1472,
      "IR": 1473,
      "tóirí": 1474,
      "mhainní": 1475,
      "ua": 1476,
      "breith": 1477,
      "Stáit": 1478,
      "íocaíocht": 1479,
      "Cé": 1480,
      "ull": 1481,
      "stit": 1482,
      "chuige": 1483,
      "bail": 1484,
      "thr": 1485,
      "mhaith": 1486,
      "ed": 1487,
      "Chéad": 1488,
      "lucht": 1489,
      "fiú": 1490,
      "hiomlán": 1491,
      "saíochta": 1492,
      "Údarás": 1493,
      "23": 1494,
      "Io": 1495,
      "ilbh": 1496,
      "ex": 1497,
      "tra": 1498,
      "táirge": 1499,
      "ghabhann": 1500,
      "áitreabh": 1501,
      "Bain": 1502,
      "Corp": 1503,
      "cra": 1504,
      "chead": 1505,
      "198": 1506,
      "scrúdú": 1507,
      "cóir": 1508,
      "déanamh": 1509,
      "oibriú": 1510,
      "Br": 1511,
      "sonraithe": 1512,
      "mm": 1513,
      "creid": 1514,
      "éileamh": 1515,
      "cinneadh": 1516,
      "ndéanfar": 1517,
      "Stiú": 1518,
      "thóg": 1519,
      "gcó": 1520,
      "chomhlíonadh": 1521,
      "grian": 1522,
      "pearsanta": 1523,
      "ocht": 1524,
      "scríobh": 1525,
      "órais": 1526,
      "Eorpaigh": 1527,
      "Por": 1528,
      "alg": 1529,
      "úsáidtear": 1530,
      "téarma": 1531,
      "chás": 1532,
      "tháir": 1533,
      "comhair": 1534,
      "dháta": 1535,
      "beart": 1536,
      "gcéad": 1537,
      "róid": 1538,
      "áip": 1539,
      "cuireadh": 1540,
      "Fómhair": 1541,
      "Roimh": 1542,
      "cead": 1543,
      "lachtaí": 1544,
      "féachaint": 1545,
      "CUID": 1546,
      "HD": 1547,
      "Nuair": 1548,
      "stitiú": 1549,
      "sco": 1550,
      "áint": 1551,
      "OR": 1552,
      "crú": 1553,
      "thas": 1554,
      "ionstr": 1555,
      "rocht": 1556,
      "TE": 1557,
      "arb": 1558,
      "ins": 1559,
      "mhór": 1560,
      "bhe": 1561,
      "alar": 1562,
      "togh": 1563,
      "dhuine": 1564,
      "Su": 1565,
      "tóg": 1566,
      "suíomh": 1567,
      "iam": 1568,
      "land": 1569,
      "usp": 1570,
      "cum": 1571,
      "éist": 1572,
      "mhú": 1573,
      "gcion": 1574,
      "staid": 1575,
      "measc": 1576,
      "aipit": 1577,
      "plandaí": 1578,
      "thais": 1579,
      "eiceáil": 1580,
      "aonair": 1581,
      "Ceisteanna": 1582,
      "achomh": 1583,
      "teagmh": 1584,
      "rogha": 1585,
      "úint": 1586,
      "po": 1587,
      "qu": 1588,
      "Treoir": 1589,
      "fás": 1590,
      "dhe": 1591,
      "Ioncaim": 1592,
      "áirith": 1593,
      "ointe": 1594,
      "Más": 1595,
      "aol": 1596,
      "dhéanfaidh": 1597,
      "194": 1598,
      "uimh": 1599,
      "choinne": 1600,
      "ábhartha": 1601,
      "Pro": 1602,
      "gabh": 1603,
      "hÉireann": 1604,
      "óid": 1605,
      "déanaí": 1606,
      "2017": 1607,
      "Bhí": 1608,
      "Re": 1609,
      "bal": 1610,
      "cam": 1611,
      "fe": 1612,
      "mhonar": 1613,
      "coth": 1614,
      "iompar": 1615,
      "dhí": 1616,
      "eachtas": 1617,
      "ndiaidh": 1618,
      "ustaim": 1619,
      "muid": 1620,
      "uath": 1621,
      "fhonn": 1622,
      "Roimhe": 1623,
      "stitiúid": 1624,
      "odh": 1625,
      "bhre": 1626,
      "iocfaidh": 1627,
      "griangh": 1628,
      "árach": 1629,
      "Déanfar": 1630,
      "Or": 1631,
      "gthe": 1632,
      "lis": 1633,
      "poiblí": 1634,
      "tabh": 1635,
      "éide": 1636,
      "aítear": 1637,
      "2016": 1638,
      "Rialacháin": 1639,
      "aitheoir": 1640,
      "óga": 1641,
      "Déanfaidh": 1642,
      "díobh": 1643,
      "ndearna": 1644,
      "50": 1645,
      "huaire": 1646,
      "iu": 1647,
      "aibid": 1648,
      "aine": 1649,
      "tábh": 1650,
      "láimh": 1651,
      "fhaisnéis": 1652,
      "eireadh": 1653,
      "rialú": 1654,
      "bP": 1655,
      "ách": 1656,
      "Te": 1657,
      "fhios": 1658,
      "istiú": 1659,
      "plean": 1660,
      "aireachta": 1661,
      "imid": 1662,
      "ábhair": 1663,
      "chosaint": 1664,
      "22": 1665,
      "ble": 1666,
      "dhear": 1667,
      "raf": 1668,
      "róidh": 1669,
      "réig": 1670,
      "laghdú": 1671,
      "Cli": 1672,
      "cl": 1673,
      "féadfar": 1674,
      "dochar": 1675,
      "comhalta": 1676,
      "tríú": 1677,
      "seirbhíse": 1678,
      "dhiaidh": 1679,
      "nasc": 1680,
      "dteideal": 1681,
      "Dá": 1682,
      "aitheamh": 1683,
      "laghad": 1684,
      "Euro": 1685,
      "aer": 1686,
      "leagan": 1687,
      "kar": 1688,
      "reachta": 1689,
      "tír": 1690,
      "choimeád": 1691,
      "leagtha": 1692,
      "cluichí": 1693,
      "Gníomh": 1694,
      "diú": 1695,
      "ism": 1696,
      "ghnáth": 1697,
      "samh": 1698,
      "cosúil": 1699,
      "fheidhmiú": 1700,
      "Oir": 1701,
      "chineál": 1702,
      "airde": 1703,
      "ligh": 1704,
      "réamh": 1705,
      "láithreán": 1706,
      "áirithiú": 1707,
      "fásta": 1708,
      "gceist": 1709,
      "2018": 1710,
      "ordaithe": 1711,
      "Son": 1712,
      "dath": 1713,
      "och": 1714,
      "itheoir": 1715,
      "itter": 1716,
      "iosta": 1717,
      "ionstraim": 1718,
      "27": 1719,
      "dhó": 1720,
      "Aib": 1721,
      "teagh": 1722,
      "bheas": 1723,
      "eitheamh": 1724,
      "ceadúnas": 1725,
      "28": 1726,
      "mB": 1727,
      "éac": 1728,
      "thos": 1729,
      "únú": 1730,
      "Phríomh": 1731,
      "nar": 1732,
      "ul": 1733,
      "chinneadh": 1734,
      "bhráid": 1735,
      "oibríoch": 1736,
      "tsórt": 1737,
      "gcoinne": 1738,
      "Tar": 1739,
      "ie": 1740,
      "lann": 1741,
      "The": 1742,
      "bhreithniú": 1743,
      "Noll": 1744,
      "rinne": 1745,
      "airí": 1746,
      "comhlacht": 1747,
      "cluiche": 1748,
      "físeáin": 1749,
      "eicneola": 1750,
      "réimse": 1751,
      "Gaeilge": 1752,
      "cás": 1753,
      "lio": 1754,
      "bhonn": 1755,
      "tail": 1756,
      "ort": 1757,
      "oit": 1758,
      "21": 1759,
      "cineál": 1760,
      "aillte": 1761,
      "Seirbhí": 1762,
      "bia": 1763,
      "cúram": 1764,
      "ps": 1765,
      "tástá": 1766,
      "ment": 1767,
      "cabh": 1768,
      "Maidir": 1769,
      "cheana": 1770,
      "measfar": 1771,
      "leach": 1772,
      "tús": 1773,
      "dúinn": 1774,
      "gurb": 1775,
      "gCoimisiún": 1776,
      "arda": 1777,
      "éifeachta": 1778,
      "Roinn": 1779,
      "Twitter": 1780,
      "breise": 1781,
      "thaobh": 1782,
      "fao": 1783,
      "nádú": 1784,
      "anga": 1785,
      "scaireanna": 1786,
      "maid": 1787,
      "anois": 1788,
      "insean": 1789,
      "ghaidh": 1790,
      "fhorbairt": 1791,
      "lódáil": 1792,
      "monaróirí": 1793,
      "gcónaí": 1794,
      "Féadfar": 1795,
      "dlite": 1796,
      "ána": 1797,
      "deon": 1798,
      "29": 1799,
      "Níl": 1800,
      "fud": 1801,
      "reatha": 1802,
      "limistéar": 1803,
      "ON": 1804,
      "TI": 1805,
      "Ta": 1806,
      "ghlac": 1807,
      "oird": 1808,
      "istíochta": 1809,
      "gníomhaíochtaí": 1810,
      "Tal": 1811,
      "chinn": 1812,
      "inar": 1813,
      "ghn": 1814,
      "sheach": 1815,
      "ceanna": 1816,
      "dara": 1817,
      "gcomhairle": 1818,
      "Aontaithe": 1819,
      "bhunú": 1820,
      "tic": 1821,
      "phró": 1822,
      "leasa": 1823,
      "ostaíochta": 1824,
      "Aghaidh": 1825,
      "ioncam": 1826,
      "shin": 1827,
      "2013": 1828,
      "Stiúrthóir": 1829,
      "fós": 1830,
      "ity": 1831,
      "éasca": 1832,
      "aiteachas": 1833,
      "ráiteas": 1834,
      "Leasú": 1835,
      "insin": 1836,
      "mhainn": 1837,
      "údaraithe": 1838,
      "curtha": 1839,
      "ainneoin": 1840,
      "faoina": 1841,
      "100": 1842,
      "Cad": 1843,
      "paí": 1844,
      "toiliú": 1845,
      "sheo": 1846,
      "cúig": 1847,
      "súil": 1848,
      "chumas": 1849,
      "rochtain": 1850,
      "Ath": 1851,
      "dir": 1852,
      "nróid": 1853,
      "sláinte": 1854,
      "chan": 1855,
      "San": 1856,
      "bó": 1857,
      "bartha": 1858,
      "fíor": 1859,
      "annta": 1860,
      "chomhalta": 1861,
      "sásta": 1862,
      "ala": 1863,
      "oire": 1864,
      "ailiú": 1865,
      "idirnáisiúnta": 1866,
      "ostaithe": 1867,
      "éacs": 1868,
      "til": 1869,
      "anc": 1870,
      "ainmh": 1871,
      "inníoll": 1872,
      "torthaí": 1873,
      "óisialta": 1874,
      "teas": 1875,
      "íocha": 1876,
      "áiltear": 1877,
      "eartú": 1878,
      "aifead": 1879,
      "31": 1880,
      "hAchtanna": 1881,
      "Lu": 1882,
      "geadh": 1883,
      "hAirteagal": 1884,
      "liom": 1885,
      "íocaíochtaí": 1886,
      "infheist": 1887,
      "Do": 1888,
      "OL": 1889,
      "Sp": 1890,
      "Tr": 1891,
      "isiúin": 1892,
      "orduithe": 1893,
      "úinéir": 1894,
      "thionsc": 1895,
      "bhfianaise": 1896,
      "léiriú": 1897,
      "glacadh": 1898,
      "éach": 1899,
      "cúr": 1900,
      "Au": 1901,
      "bst": 1902,
      "slá": 1903,
      "sábháil": 1904,
      "áilte": 1905,
      "airdín": 1906,
      "Náisiúnta": 1907,
      "Daon": 1908,
      "dam": 1909,
      "racha": 1910,
      "Idir": 1911,
      "bláth": 1912,
      "ogh": 1913,
      "thóir": 1914,
      "org": 1915,
      "iarratais": 1916,
      "minic": 1917,
      "Cos": 1918,
      "ck": 1919,
      "thach": 1920,
      "iseas": 1921,
      "oinbh": 1922,
      "scaoileadh": 1923,
      "liúntas": 1924,
      "IL": 1925,
      "úl": 1926,
      "itheoirí": 1927,
      "shamp": 1928,
      "2012": 1929,
      "ghabháil": 1930,
      "soilsiú": 1931,
      "AGUS": 1932,
      "sheoladh": 1933,
      "Gach": 1934,
      "tío": 1935,
      "nad": 1936,
      "bhealach": 1937,
      "shealbh": 1938,
      "2014": 1939,
      "anda": 1940,
      "tuairisc": 1941,
      "cláraithe": 1942,
      "Cuid": 1943,
      "mhuirear": 1944,
      "naíodh": 1945,
      "der": 1946,
      "ríobháid": 1947,
      "RE": 1948,
      "ash": 1949,
      "Chon": 1950,
      "mars": 1951,
      "unt": 1952,
      "muigh": 1953,
      "TA": 1954,
      "slí": 1955,
      "úla": 1956,
      "thaoir": 1957,
      "úirte": 1958,
      "cheapadh": 1959,
      "Cru": 1960,
      "Léim": 1961,
      "corp": 1962,
      "costais": 1963,
      "cuirfidh": 1964,
      "achomharc": 1965,
      "Cr": 1966,
      "daithe": 1967,
      "bhú": 1968,
      "tuarascáil": 1969,
      "aitéis": 1970,
      "Clui": 1971,
      "Ho": 1972,
      "luaithe": 1973,
      "soláthar": 1974,
      "dtugtar": 1975,
      "sealbh": 1976,
      "tiom": 1977,
      "chéanna": 1978,
      "arthaí": 1979,
      "fhógra": 1980,
      "liana": 1981,
      "Soláth": 1982,
      "BH": 1983,
      "bla": 1984,
      "córas": 1985,
      "chlárú": 1986,
      "airtear": 1987,
      "airgid": 1988,
      "ríosú": 1989,
      "togra": 1990,
      "2009": 1991,
      "Uimhir": 1992,
      "raingt": 1993,
      "thoradh": 1994,
      "Bu": 1995,
      "Ean": 1996,
      "Lo": 1997,
      "Leasa": 1998,
      "caighdeán": 1999,
      "wn": 2000,
      "bhéal": 2001,
      "fhoirm": 2002,
      "leanbh": 2003,
      "Dé": 2004,
      "nama": 2005,
      "chomhair": 2006,
      "tachta": 2007,
      "faisnéise": 2008,
      "Baile": 2009,
      "scrío": 2010,
      "tuairim": 2011,
      "Leic": 2012,
      "mhaoin": 2013,
      "athair": 2014,
      "leabhar": 2015,
      "cheangal": 2016,
      "againn": 2017,
      "sca": 2018,
      "iméad": 2019,
      "ónaithe": 2020,
      "2015": 2021,
      "íoslódáil": 2022,
      "oibleag": 2023,
      "easta": 2024,
      "2019": 2025,
      "eidhmeanna": 2026,
      "deara": 2027,
      "gear": 2028,
      "iv": 2029,
      "sithe": 2030,
      "Áit": 2031,
      "ara": 2032,
      "lachta": 2033,
      "siúl": 2034,
      "III": 2035,
      "chríoch": 2036,
      "teorainn": 2037,
      "doiciméad": 2038,
      "Du": 2039,
      "íre": 2040,
      "áinig": 2041,
      "Cho": 2042,
      "dhéanfar": 2043,
      "aithí": 2044,
      "ardaigh": 2045,
      "Corpora": 2046,
      "Oid": 2047,
      "man": 2048,
      "chtála": 2049,
      "one": 2050,
      "cruach": 2051,
      "roghnú": 2052,
      "tabharfar": 2053,
      "shampla": 2054,
      "Bar": 2055,
      "Im": 2056,
      "foirm": 2057,
      "ies": 2058,
      "málta": 2059,
      "tugadh": 2060,
      "trádála": 2061,
      "cheannach": 2062,
      "choinneáil": 2063,
      "ant": 2064,
      "éigin": 2065,
      "forbairt": 2066,
      "téarmaí": 2067,
      "Lean": 2068,
      "ceal": 2069,
      "gnáth": 2070,
      "ris": 2071,
      "éin": 2072,
      "achán": 2073,
      "rátaí": 2074,
      "aibidil": 2075,
      "sta": 2076,
      "seachtain": 2077,
      "ainmniú": 2078,
      "freagrach": 2079,
      "Tionsc": 2080,
      "chumhacht": 2081,
      "seoladh": 2082,
      "iompair": 2083,
      "ullmhú": 2084,
      "karnar": 2085,
      "Tag": 2086,
      "saol": 2087,
      "iontach": 2088,
      "leagtar": 2089,
      "cuirfear": 2090,
      "beartaithe": 2091,
      "dheon": 2092,
      "bstaint": 2093,
      "scríofa": 2094,
      "ok": 2095,
      "seilbh": 2096,
      "peáint": 2097,
      "ball": 2098,
      "fó": 2099,
      "tasaíochta": 2100,
      "phr": 2101,
      "AD": 2102,
      "bhra": 2103,
      "orm": 2104,
      "annán": 2105,
      "óireacht": 2106,
      "conas": 2107,
      "Conas": 2108,
      "phobail": 2109,
      "CO": 2110,
      "bog": 2111,
      "dain": 2112,
      "margadh": 2113,
      "oibreacha": 2114,
      "uimhir": 2115,
      "mhonarcha": 2116,
      "bán": 2117,
      "arm": 2118,
      "aráid": 2119,
      "alair": 2120,
      "ineálacha": 2121,
      "osmálta": 2122,
      "éard": 2123,
      "AIR": 2124,
      "tacaíocht": 2125,
      "La": 2126,
      "cáin": 2127,
      "Choimisiún": 2128,
      "dóigh": 2129,
      "tuithe": 2130,
      "feithic": 2131,
      "pic": 2132,
      "adal": 2133,
      "ionsa": 2134,
      "rófar": 2135,
      "iniúch": 2136,
      "scoileanna": 2137,
      "scoth": 2138,
      "nádúrtha": 2139,
      "Táir": 2140,
      "fol": 2141,
      "leigh": 2142,
      "urrú": 2143,
      "praghas": 2144,
      "chruthú": 2145,
      "fos": 2146,
      "cosanta": 2147,
      "abairt": 2148,
      "gCuid": 2149,
      "ciontach": 2150,
      "ay": 2151,
      "glas": 2152,
      "teideal": 2153,
      "eim": 2154,
      "ghluais": 2155,
      "imirt": 2156,
      "cearta": 2157,
      "dei": 2158,
      "op": 2159,
      "institiúid": 2160,
      "talún": 2161,
      "chreid": 2162,
      "SE": 2163,
      "sná": 2164,
      "aireach": 2165,
      "sheirbhí": 2166,
      "eastal": 2167,
      "íneáil": 2168,
      "eisiúint": 2169,
      "láithreach": 2170,
      "ginearálta": 2171,
      "ndearnadh": 2172,
      "Dear": 2173,
      "Trá": 2174,
      "ler": 2175,
      "gníomhartha": 2176,
      "treoir": 2177,
      "barr": 2178,
      "saothair": 2179,
      "Author": 2180,
      "Act": 2181,
      "St": 2182,
      "eet": 2183,
      "ipe": 2184,
      "inearálta": 2185,
      "thaithe": 2186,
      "dháil": 2187,
      "bheadh": 2188,
      "tré": 2189,
      "shonraítear": 2190,
      "soiléir": 2191,
      "domhain": 2192,
      "ut": 2193,
      "comhairle": 2194,
      "fuar": 2195,
      "riachtanach": 2196,
      "eáil": 2197,
      "ling": 2198,
      "chain": 2199,
      "chorp": 2200,
      "dhosmálta": 2201,
      "fhoil": 2202,
      "inniu": 2203,
      "dualg": 2204,
      "leanúint": 2205,
      "2011": 2206,
      "choiste": 2207,
      "ndéanfaidh": 2208,
      "THE": 2209,
      "phobal": 2210,
      "cas": 2211,
      "mheasa": 2212,
      "ioncaim": 2213,
      "thabháil": 2214,
      "rialachán": 2215,
      "illiún": 2216,
      "ostaíocht": 2217,
      "liosta": 2218,
      "taighde": 2219,
      "bheart": 2220,
      "iontaobh": 2221,
      "ithre": 2222,
      "iarna": 2223,
      "fuinn": 2224,
      "deiridh": 2225,
      "Pr": 2226,
      "naíonn": 2227,
      "raon": 2228,
      "Chiste": 2229,
      "leanaí": 2230,
      "riachtanais": 2231,
      "eicniúil": 2232,
      "Aibreán": 2233,
      "EU": 2234,
      "Parlaimint": 2235,
      "feist": 2236,
      "ngach": 2237,
      "mhéadú": 2238,
      "deis": 2239,
      "scéime": 2240,
      "aitheach": 2241,
      "aici": 2242,
      "díl": 2243,
      "tabhairt": 2244,
      "Corporate": 2245,
      "bac": 2246,
      "hordú": 2247,
      "vol": 2248,
      "mhaithe": 2249,
      "luath": 2250,
      "Eanáir": 2251,
      "Mo": 2252,
      "hong": 2253,
      "nais": 2254,
      "íosa": 2255,
      "iteamh": 2256,
      "abhair": 2257,
      "Coiste": 2258,
      "frith": 2259,
      "rannpháirt": 2260,
      "thagann": 2261,
      "Lá": 2262,
      "alairt": 2263,
      "adadh": 2264,
      "Feabh": 2265,
      "aíonn": 2266,
      "cusp": 2267,
      "sá": 2268,
      "mhodh": 2269,
      "oilse": 2270,
      "toisc": 2271,
      "focal": 2272,
      "implí": 2273,
      "cothrom": 2274,
      "coir": 2275,
      "céad": 2276,
      "cli": 2277,
      "taine": 2278,
      "ual": 2279,
      "ucht": 2280,
      "áistí": 2281,
      "chúirt": 2282,
      "aide": 2283,
      "ghear": 2284,
      "eartas": 2285,
      "mhaíochta": 2286,
      "cuntais": 2287,
      "dhíola": 2288,
      "sóc": 2289,
      "éamh": 2290,
      "tréithe": 2291,
      "sadh": 2292,
      "oifige": 2293,
      "siúd": 2294,
      "lasmuigh": 2295,
      "aíocht": 2296,
      "naimh": 2297,
      "íse": 2298,
      "irí": 2299,
      "mbain": 2300,
      "airtí": 2301,
      "stór": 2302,
      "oinse": 2303,
      "sprio": 2304,
      "Bhord": 2305,
      "aighdeáin": 2306,
      "feidhmeanna": 2307,
      "éifeachtach": 2308,
      "méad": 2309,
      "thrá": 2310,
      "shlí": 2311,
      "ige": 2312,
      "cinnte": 2313,
      "aistrithe": 2314,
      "DO": 2315,
      "fion": 2316,
      "úinte": 2317,
      "mara": 2318,
      "ionas": 2319,
      "sholáth": 2320,
      "ceaptha": 2321,
      "grianghraf": 2322,
      "tábhachtach": 2323,
      "Cánach": 2324,
      "hE": 2325,
      "bhfoirm": 2326,
      "rún": 2327,
      "iseáil": 2328,
      "rích": 2329,
      "rialaithe": 2330,
      "sprioc": 2331,
      "Iúil": 2332,
      "Uachtar": 2333,
      "gaidh": 2334,
      "dhlí": 2335,
      "táin": 2336,
      "ánaigh": 2337,
      "comhaltaí": 2338,
      "isteoir": 2339,
      "íocaíochta": 2340,
      "difr": 2341,
      "ceanglais": 2342,
      "tacht": 2343,
      "ínithe": 2344,
      "Comm": 2345,
      "cabhrú": 2346,
      "chinnt": 2347,
      "tóireacht": 2348,
      "gabháil": 2349,
      "Ca": 2350,
      "aitear": 2351,
      "aime": 2352,
      "tháinig": 2353,
      "inní": 2354,
      "ligean": 2355,
      "cheaptha": 2356,
      "Féach": 2357,
      "gtha": 2358,
      "rán": 2359,
      "sal": 2360,
      "siar": 2361,
      "cuim": 2362,
      "údarú": 2363,
      "réasúnach": 2364,
      "Cluichí": 2365,
      "PA": 2366,
      "ly": 2367,
      "fhá": 2368,
      "itheach": 2369,
      "iomlá": 2370,
      "leanúnach": 2371,
      "fhorálacha": 2372,
      "chuirtear": 2373,
      "leathan": 2374,
      "díosp": 2375,
      "mra": 2376,
      "sm": 2377,
      "orgá": 2378,
      "ted": 2379,
      "teil": 2380,
      "gcrích": 2381,
      "docht": 2382,
      "men": 2383,
      "dhéantar": 2384,
      "sula": 2385,
      "oifigigh": 2386,
      "peán": 2387,
      "íseal": 2388,
      "únachta": 2389,
      "MS": 2390,
      "feabh": 2391,
      "gluais": 2392,
      "ngníomh": 2393,
      "arís": 2394,
      "roinn": 2395,
      "cúis": 2396,
      "ndéantar": 2397,
      "feidhmiú": 2398,
      "fada": 2399,
      "gnéas": 2400,
      "iasacht": 2401,
      "40": 2402,
      "Sta": 2403,
      "fach": 2404,
      "halt": 2405,
      "pol": 2406,
      "mhalairt": 2407,
      "onc": 2408,
      "luas": 2409,
      "substaint": 2410,
      "etc": 2411,
      "Iarscríbhinn": 2412,
      "dtaca": 2413,
      "tomh": 2414,
      "bhair": 2415,
      "fhaigh": 2416,
      "mba": 2417,
      "sochair": 2418,
      "cruinn": 2419,
      "mBord": 2420,
      "Áir": 2421,
      "aidr": 2422,
      "Bhallstá": 2423,
      "mhara": 2424,
      "leathach": 2425,
      "línte": 2426,
      "Nollaig": 2427,
      "..": 2428,
      "dea": 2429,
      "glac": 2430,
      "iz": 2431,
      "muirear": 2432,
      "ras": 2433,
      "chlo": 2434,
      "ordó": 2435,
      "thabhar": 2436,
      "uairim": 2437,
      "dearadh": 2438,
      "nósanna": 2439,
      "thaoirleach": 2440,
      "Ceann": 2441,
      "bair": 2442,
      "oite": 2443,
      "suite": 2444,
      "páirtí": 2445,
      "réasún": 2446,
      "doiciméid": 2447,
      "sláint": 2448,
      "damáiste": 2449,
      "caillte": 2450,
      "glan": 2451,
      "lag": 2452,
      "naítear": 2453,
      "bhlian": 2454,
      "omhír": 2455,
      "gceanna": 2456,
      "uirir": 2457,
      "cosaint": 2458,
      "chuireann": 2459,
      "infheidhme": 2460,
      "eartais": 2461,
      "measúnú": 2462,
      "IDE": 2463,
      "laeth": 2464,
      "liúntais": 2465,
      "fíneáil": 2466,
      "lorg": 2467,
      "Ús": 2468,
      "deo": 2469,
      "bliantúil": 2470,
      "treon": 2471,
      "clá": 2472,
      "clú": 2473,
      "pla": 2474,
      "reor": 2475,
      "mbu": 2476,
      "íocfar": 2477,
      "riaracháin": 2478,
      "Gu": 2479,
      "ltú": 2480,
      "eithre": 2481,
      "roí": 2482,
      "bharr": 2483,
      "deimhin": 2484,
      "réiteach": 2485,
      "Porn": 2486,
      "Oireachtas": 2487,
      "pictiú": 2488,
      "60": 2489,
      "dte": 2490,
      "dro": 2491,
      "trom": 2492,
      "cumhacht": 2493,
      "ime": 2494,
      "igit": 2495,
      "pp": 2496,
      "gcru": 2497,
      "iii": 2498,
      "Produ": 2499,
      "Cliath": 2500,
      "bláthanna": 2501,
      "Tais": 2502,
      "aíochta": 2503,
      "faide": 2504,
      "gairm": 2505,
      "ham": 2506,
      "sio": 2507,
      "sanna": 2508,
      "inmhe": 2509,
      "trea": 2510,
      "éadrom": 2511,
      "thug": 2512,
      "aiteachais": 2513,
      "Éirinn": 2514,
      "diúl": 2515,
      "thion": 2516,
      "iséad": 2517,
      "teoir": 2518,
      "scr": 2519,
      "scairt": 2520,
      "nochta": 2521,
      "ainmnithe": 2522,
      "Rialtais": 2523,
      "Oll": 2524,
      "Se": 2525,
      "fios": 2526,
      "ura": 2527,
      "gheo": 2528,
      "inniúil": 2529,
      "ianta": 2530,
      "páirteach": 2531,
      "éideanna": 2532,
      "Ais": 2533,
      "Márta": 2534,
      "gléas": 2535,
      "theacht": 2536,
      "imth": 2537,
      "igire": 2538,
      "álaí": 2539,
      "chiontú": 2540,
      "mol": 2541,
      "slán": 2542,
      "art": 2543,
      "nóiméad": 2544,
      "gcr": 2545,
      "bhfad": 2546,
      "comhlachtaí": 2547,
      "eonach": 2548,
      "comp": 2549,
      "Clár": 2550,
      "mBallstát": 2551,
      "roi": 2552,
      "ól": 2553,
      "aisin": 2554,
      "phoiblí": 2555,
      "forbartha": 2556,
      "thart": 2557,
      "tionchar": 2558,
      "chúr": 2559,
      "táille": 2560,
      "dleacht": 2561,
      "iach": 2562,
      "pac": 2563,
      "toir": 2564,
      "uaidh": 2565,
      "mhaire": 2566,
      "bhaidh": 2567,
      "túla": 2568,
      "athbhreithniú": 2569,
      "icí": 2570,
      "níl": 2571,
      "2008": 2572,
      "chúl": 2573,
      "iarratasóir": 2574,
      "brab": 2575,
      "ustaiméirí": 2576,
      "Deireadh": 2577,
      "húdaráis": 2578,
      "if": 2579,
      "éann": 2580,
      "aing": 2581,
      "scoir": 2582,
      "scéal": 2583,
      "ósta": 2584,
      "Meán": 2585,
      "Iomp": 2586,
      "Product": 2587,
      "IÚ": 2588,
      "Sláinte": 2589,
      "TV": 2590,
      "gar": 2591,
      "naigh": 2592,
      "tur": 2593,
      "chla": 2594,
      "dom": 2595,
      "ionta": 2596,
      "nách": 2597,
      "freastal": 2598,
      "thugtar": 2599,
      "cóip": 2600,
      "insiún": 2601,
      "Físe": 2602,
      "Monar": 2603,
      "OS": 2604,
      "Soilse": 2605,
      "banna": 2606,
      "eil": 2607,
      "seacht": 2608,
      "thi": 2609,
      "íochána": 2610,
      "dubh": 2611,
      "eimhniú": 2612,
      "léamh": 2613,
      "Gael": 2614,
      "tosach": 2615,
      "Lei": 2616,
      "Líne": 2617,
      "RI": 2618,
      "cm": 2619,
      "céim": 2620,
      "clárú": 2621,
      "fir": 2622,
      "tuilleadh": 2623,
      "iarnróid": 2624,
      "choinníoll": 2625,
      "gníomhú": 2626,
      "shocrú": 2627,
      "Ghae": 2628,
      "Fhor": 2629,
      "oideachais": 2630,
      "Leasaítear": 2631,
      "nochtadh": 2632,
      "Beal": 2633,
      "Gnó": 2634,
      "déile": 2635,
      "fan": 2636,
      "gair": 2637,
      "timp": 2638,
      "taithí": 2639,
      "fhreag": 2640,
      "comhth": 2641,
      "aimse": 2642,
      "thugann": 2643,
      "eolais": 2644,
      "óisial": 2645,
      "Rialtas": 2646,
      "cháilithe": 2647,
      "thógáil": 2648,
      "oinbhinsiún": 2649,
      "Leictreon": 2650,
      "Str": 2651,
      "tapa": 2652,
      "olú": 2653,
      "uirthi": 2654,
      "ers": 2655,
      "rialta": 2656,
      "gceannas": 2657,
      "mad": 2658,
      "parlaimint": 2659,
      "bhaile": 2660,
      "intí": 2661,
      "oimisiúin": 2662,
      "fáth": 2663,
      "ismitheoirí": 2664,
      "IM": 2665,
      "Mór": 2666,
      "Nua": 2667,
      "To": 2668,
      "teachta": 2669,
      "aráide": 2670,
      "stoc": 2671,
      "déantóir": 2672,
      "Bhoird": 2673,
      "Ghníomh": 2674,
      "Rogh": 2675,
      "iniúchadh": 2676,
      "Cú": 2677,
      "Feidhm": 2678,
      "List": 2679,
      "húsáid": 2680,
      "eatha": 2681,
      "lic": 2682,
      "gcomhlíon": 2683,
      "trádáil": 2684,
      "mharc": 2685,
      "réitigh": 2686,
      "Meas": 2687,
      "UN": 2688,
      "caiteachas": 2689,
      "oist": 2690,
      "simplí": 2691,
      "ance": 2692,
      "age": 2693,
      "adail": 2694,
      "shan": 2695,
      "shaol": 2696,
      "trealamh": 2697,
      "clo": 2698,
      "thuras": 2699,
      "chumh": 2700,
      "luaitear": 2701,
      "spreag": 2702,
      "fhoráil": 2703,
      "ostóir": 2704,
      "míre": 2705,
      "ogra": 2706,
      "straitéis": 2707,
      "bhua": 2708,
      "hongshan": 2709,
      "córais": 2710,
      "ke": 2711,
      "zhongshan": 2712,
      "chóras": 2713,
      "óirt": 2714,
      "luíonn": 2715,
      "uairisc": 2716,
      "saintréithe": 2717,
      "treor": 2718,
      "cáilíochta": 2719,
      "34": 2720,
      "danna": 2721,
      "fostaíochta": 2722,
      "leachta": 2723,
      "ilt": 2724,
      "shaoil": 2725,
      "mer": 2726,
      "costas": 2727,
      "tairiscint": 2728,
      "físeán": 2729,
      "Cén": 2730,
      "coimeád": 2731,
      "ee": 2732,
      "foil": 2733,
      "eam": 2734,
      "tán": 2735,
      "shain": 2736,
      "adhmaid": 2737,
      "cheist": 2738,
      "ional": 2739,
      "ileanna": 2740,
      "ngairtear": 2741,
      "Contae": 2742,
      "aimseartha": 2743,
      "aor": 2744,
      "fuair": 2745,
      "grá": 2746,
      "gneamh": 2747,
      "inse": 2748,
      "treo": 2749,
      "saíocht": 2750,
      "Chu": 2751,
      "mbliana": 2752,
      "chean": 2753,
      "uirlis": 2754,
      "foráil": 2755,
      "eimhr": 2756,
      "oitianta": 2757,
      "cá": 2758,
      "grúpa": 2759,
      "sr": 2760,
      "fheabh": 2761,
      "saoire": 2762,
      "scrio": 2763,
      "aims": 2764,
      "tagairtí": 2765,
      "cineálacha": 2766,
      "pro": 2767,
      "eachtar": 2768,
      "phost": 2769,
      "domhan": 2770,
      "áipéar": 2771,
      "éisteacht": 2772,
      "35": 2773,
      "Plean": 2774,
      "liú": 2775,
      "chaitheamh": 2776,
      "scannán": 2777,
      "gclár": 2778,
      "athruithe": 2779,
      "folaíonn": 2780,
      "cuntas": 2781,
      "Alt": 2782,
      "marsáide": 2783,
      "sócmhainní": 2784,
      "As": 2785,
      "CD": 2786,
      "Có": 2787,
      "Clárú": 2788,
      "mais": 2789,
      "éigh": 2790,
      "éigean": 2791,
      "istigh": 2792,
      "comhpháirt": 2793,
      "nuach": 2794,
      "2006": 2795,
      "bhforáiltear": 2796,
      "scriosadh": 2797,
      "IV": 2798,
      "Léir": 2799,
      "SCE": 2800,
      "das": 2801,
      "mhéad": 2802,
      "res": 2803,
      "dhéanta": 2804,
      "comhréir": 2805,
      "aimid": 2806,
      "aithint": 2807,
      "com": 2808,
      "sple": 2809,
      "focail": 2810,
      "gcuideachta": 2811,
      "cumhachtaí": 2812,
      "Táirgí": 2813,
      "chinntiú": 2814,
      "Fr": 2815,
      "Rá": 2816,
      "chéim": 2817,
      "ríomhaire": 2818,
      "airgeadra": 2819,
      "Cuirfidh": 2820,
      "Lawn": 2821,
      "oncler": 2822,
      "Dú": 2823,
      "bord": 2824,
      "cláir": 2825,
      "mac": 2826,
      "aibh": 2827,
      "óireachta": 2828,
      "luaidh": 2829,
      "tionón": 2830,
      "iarracht": 2831,
      "ainmn": 2832,
      "teagmháil": 2833,
      "tíortha": 2834,
      "AMH": 2835,
      "DH": 2836,
      "Lea": 2837,
      "iliú": 2838,
      "rac": 2839,
      "churtha": 2840,
      "iciúil": 2841,
      "eathnú": 2842,
      "tabharfaidh": 2843,
      "Ghníomhaireacht": 2844,
      "Il": 2845,
      "fostaithe": 2846,
      "gaí": 2847,
      "pion": 2848,
      "thóirí": 2849,
      "shá": 2850,
      "dong": 2851,
      "ráite": 2852,
      "cúnamh": 2853,
      "éifeachtaí": 2854,
      "Oibr": 2855,
      "eacnama": 2856,
      "fhoireann": 2857,
      "45": 2858,
      "Domh": 2859,
      "SOL": 2860,
      "UM": 2861,
      "tanas": 2862,
      "taifead": 2863,
      "dhiúl": 2864,
      "lámh": 2865,
      "oireachta": 2866,
      "áiríre": 2867,
      "athrach": 2868,
      "aithfidh": 2869,
      "árachais": 2870,
      "ceannadh": 2871,
      "oibleagáidí": 2872,
      "IDEAL": 2873,
      "33": 2874,
      "Un": 2875,
      "col": 2876,
      "gu": 2877,
      "náil": 2878,
      "chaí": 2879,
      "aras": 2880,
      "araon": 2881,
      "samp": 2882,
      "éadfaí": 2883,
      "socrú": 2884,
      "coil": 2885,
      "tharraingt": 2886,
      "áitiúla": 2887,
      "cruithe": 2888,
      "strucht": 2889,
      "aicme": 2890,
      "réacht": 2891,
      "thréimhse": 2892,
      "Grúpa": 2893,
      "teicneola": 2894,
      "mháil": 2895,
      "marc": 2896,
      "Bhaile": 2897,
      "ent": 2898,
      "Seirbhísí": 2899,
      "Choiste": 2900,
      "ab": 2901,
      "daon": 2902,
      "Éist": 2903,
      "íl": 2904,
      "óin": 2905,
      "óide": 2906,
      "aisíoc": 2907,
      "itim": 2908,
      "eirme": 2909,
      "réidh": 2910,
      "oideachas": 2911,
      "bhreise": 2912,
      "Sonraí": 2913,
      "Lon": 2914,
      "geall": 2915,
      "iail": 2916,
      "máin": 2917,
      "bhó": 2918,
      "orainn": 2919,
      "rath": 2920,
      "ité": 2921,
      "meán": 2922,
      "staithe": 2923,
      "cosc": 2924,
      "tuig": 2925,
      "obail": 2926,
      "rianta": 2927,
      "Tweet": 2928,
      "Stiúrthóireacht": 2929,
      "Cúirte": 2930,
      "Gan": 2931,
      "Réi": 2932,
      "Tion": 2933,
      "cain": 2934,
      "bhearta": 2935,
      "teanga": 2936,
      "bhfaigh": 2937,
      "ranníoc": 2938,
      "teorann": 2939,
      "uathoibríoch": 2940,
      "ES": 2941,
      "mhan": 2942,
      "aireachtaí": 2943,
      "nacha": 2944,
      "oibrithe": 2945,
      "oibríochtaí": 2946,
      "tslí": 2947,
      "aerá": 2948,
      "ghnóthú": 2949,
      "teastáil": 2950,
      "ríobháideach": 2951,
      "SCEIDEAL": 2952,
      "36": 2953,
      "Samh": 2954,
      "baile": 2955,
      "pinsean": 2956,
      "síol": 2957,
      "sraith": 2958,
      "ireacht": 2959,
      "tam": 2960,
      "oibh": 2961,
      "áirteanna": 2962,
      "ealú": 2963,
      "aimí": 2964,
      "éara": 2965,
      "suí": 2966,
      "rudaí": 2967,
      "riamh": 2968,
      "ísle": 2969,
      "Saor": 2970,
      "léinn": 2971,
      "éisteachta": 2972,
      "Bliain": 2973,
      "Ear": 2974,
      "Síochána": 2975,
      "cear": 2976,
      "lin": 2977,
      "méideanna": 2978,
      "punt": 2979,
      "ton": 2980,
      "seomra": 2981,
      "stát": 2982,
      "eirice": 2983,
      "leictreonach": 2984,
      "Tabhar": 2985,
      "Áitiúil": 2986,
      "dheonú": 2987,
      "inmheánach": 2988,
      "Foir": 2989,
      "milliún": 2990,
      "theach": 2991,
      "let": 2992,
      "raíocht": 2993,
      "scair": 2994,
      "scor": 2995,
      "gcur": 2996,
      "nacht": 2997,
      "ndáiríre": 2998,
      "álfar": 2999,
      "oifigiúil": 3000,
      "dearg": 3001,
      "contae": 3002,
      "imthosca": 3003,
      "Bun": 3004,
      "CR": 3005,
      "Cur": 3006,
      "Ceist": 3007,
      "Iris": 3008,
      "caipit": 3009,
      "méadú": 3010,
      "od": 3011,
      "post": 3012,
      "chail": 3013,
      "Choimisiúin": 3014,
      "stair": 3015,
      "atag": 3016,
      "blianta": 3017,
      "oscailte": 3018,
      "ainmhithe": 3019,
      "Poir": 3020,
      "dán": 3021,
      "umas": 3022,
      "onnmhaire": 3023,
      "oirmeasc": 3024,
      "tóireachta": 3025,
      "Cuardaigh": 3026,
      "iniúchóir": 3027,
      "ealadach": 3028,
      "balla": 3029,
      "ate": 3030,
      "cor": 3031,
      "dtabharfar": 3032,
      "eang": 3033,
      "hearraí": 3034,
      "faois": 3035,
      "meais": 3036,
      "cúl": 3037,
      "loine": 3038,
      "léireofar": 3039,
      "dearbhú": 3040,
      "cialluíonn": 3041,
      "Meitheamh": 3042,
      "faigh": 3043,
      "fianaise": 3044,
      "príosú": 3045,
      "óil": 3046,
      "tacú": 3047,
      "fheiceáil": 3048,
      "comhaontú": 3049,
      "oill": 3050,
      "AIS": 3051,
      "plandáil": 3052,
      "cheadúnas": 3053,
      "thionscnamh": 3054,
      "ceallán": 3055,
      "institiúidí": 3056,
      "Tiarna": 3057,
      "tÚdarás": 3058,
      "thíos": 3059,
      "shábháil": 3060,
      "chomhairle": 3061,
      "angdong": 3062,
      "chosc": 3063,
      "ibhialta": 3064,
      "rthóirí": 3065,
      "Guangdong": 3066,
      "fanacht": 3067,
      "Poirceallán": 3068,
      "Ac": 3069,
      "IT": 3070,
      "ITHE": 3071,
      "PH": 3072,
      "mach": 3073,
      "plá": 3074,
      "ÍO": 3075,
      "inmh": 3076,
      "eip": 3077,
      "laoch": 3078,
      "fhr": 3079,
      "inniúla": 3080,
      "comhaon": 3081,
      "áile": 3082,
      "gcomhair": 3083,
      "oscailt": 3084,
      "páirtithe": 3085,
      "foirne": 3086,
      "creidmheasa": 3087,
      "deich": 3088,
      "dochtúir": 3089,
      "Faisnéis": 3090,
      "Ina": 3091,
      "Ind": 3092,
      "Teach": 3093,
      "mic": 3094,
      "tw": 3095,
      "oigh": 3096,
      "gceang": 3097,
      "chuntasaíochta": 3098,
      "álainn": 3099,
      "gComh": 3100,
      "tráchtála": 3101,
      "ANNA": 3102,
      "AIN": 3103,
      "loin": 3104,
      "maoine": 3105,
      "aice": 3106,
      "bhailiú": 3107,
      "fhos": 3108,
      "íonna": 3109,
      "tarm": 3110,
      "chothabháil": 3111,
      "atch": 3112,
      "bunús": 3113,
      "bainistíochta": 3114,
      "úsáideoirí": 3115,
      "vers": 3116,
      "thosach": 3117,
      "igiteach": 3118,
      "39": 3119,
      "Fo": 3120,
      "Spe": 3121,
      "cóg": 3122,
      "coig": 3123,
      "caite": 3124,
      "dleathach": 3125,
      "iche": 3126,
      "neacht": 3127,
      "ste": 3128,
      "tsuim": 3129,
      "Átha": 3130,
      "table": 3131,
      "seol": 3132,
      "phríomh": 3133,
      "oga": 3134,
      "arascálacha": 3135,
      "bogearraí": 3136,
      "gheobhaidh": 3137,
      "32": 3138,
      "ER": 3139,
      "Eag": 3140,
      "LA": 3141,
      "ew": 3142,
      "ho": 3143,
      "ium": 3144,
      "álach": 3145,
      "thin": 3146,
      "dhír": 3147,
      "ghrúpa": 3148,
      "laítear": 3149,
      "earnáil": 3150,
      "bhféadfadh": 3151,
      "coiste": 3152,
      "tacha": 3153,
      "cionn": 3154,
      "ghníomhú": 3155,
      "chontae": 3156,
      "liostaithe": 3157,
      "Chonradh": 3158,
      "Soláthraithe": 3159,
      "fheabhsú": 3160,
      "Ao": 3161,
      "GH": 3162,
      "ST": 3163,
      "ation": 3164,
      "ceithre": 3165,
      "múinte": 3166,
      "asbhaint": 3167,
      "fhé": 3168,
      "reen": 3169,
      "eadóirí": 3170,
      "nuithe": 3171,
      "aitneamh": 3172,
      "ndéanamh": 3173,
      "prionsa": 3174,
      "tory": 3175,
      "riosca": 3176,
      "corpraithe": 3177,
      "Moncler": 3178,
      "déag": 3179,
      "ich": 3180,
      "ive": 3181,
      "bhéar": 3182,
      "airc": 3183,
      "trach": 3184,
      "luaite": 3185,
      "iúnaithe": 3186,
      "taítear": 3187,
      "éarmaí": 3188,
      "tharla": 3189,
      "umann": 3190,
      "áiteanna": 3191,
      "ibhe": 3192,
      "2007": 3193,
      "difear": 3194,
      "reat": 3195,
      "Iarra": 3196,
      "cumhachta": 3197,
      "pleanála": 3198,
      "Uachtarán": 3199,
      "fhág": 3200,
      "Ollscoil": 3201,
      "Físeán": 3202,
      "Foinse": 3203,
      "dru": 3204,
      "faire": 3205,
      "mná": 3206,
      "uachtar": 3207,
      "les": 3208,
      "gheimhr": 3209,
      "nófar": 3210,
      "mbíonn": 3211,
      "2010": 3212,
      "riail": 3213,
      "Údaráis": 3214,
      "tosaigh": 3215,
      "Feabhra": 3216,
      "cuspóirí": 3217,
      "Bealtaine": 3218,
      "spleách": 3219,
      "Bille": 3220,
      "Mura": 3221,
      "Nu": 3222,
      "gal": 3223,
      "chas": 3224,
      "chánach": 3225,
      "thrú": 3226,
      "láiste": 3227,
      "Chuir": 3228,
      "istíocht": 3229,
      "íocadh": 3230,
      "gcásanna": 3231,
      "raif": 3232,
      "lúth": 3233,
      "táillí": 3234,
      "landaí": 3235,
      "thaispeáint": 3236,
      "Oideachais": 3237,
      "réasúnta": 3238,
      "37": 3239,
      "Dia": 3240,
      "cíos": 3241,
      "ifíse": 3242,
      "pu": 3243,
      "fheidhmeanna": 3244,
      "gcóras": 3245,
      "acmhainní": 3246,
      "tugtha": 3247,
      "Déantar": 3248,
      "stiúrthóir": 3249,
      "achtachán": 3250,
      "éimeanna": 3251,
      "aifid": 3252,
      "laethanta": 3253,
      "dteannta": 3254,
      "Londain": 3255,
      "Trí": 3256,
      "Teagh": 3257,
      "ein": 3258,
      "par": 3259,
      "anail": 3260,
      "lex": 3261,
      "íorú": 3262,
      "eit": 3263,
      "ghrá": 3264,
      "ghlaim": 3265,
      "iontu": 3266,
      "dúirt": 3267,
      "bréag": 3268,
      "bhíthin": 3269,
      "speic": 3270,
      "allmhair": 3271,
      "niúla": 3272,
      "bpointe": 3273,
      "brath": 3274,
      "alairte": 3275,
      "ghearradh": 3276,
      "sláintíochta": 3277,
      "SOLAS": 3278,
      "bonn": 3279,
      "matá": 3280,
      "ilte": 3281,
      "rap": 3282,
      "fhad": 3283,
      "gcu": 3284,
      "crit": 3285,
      "eicniúla": 3286,
      "díola": 3287,
      "tage": 3288,
      "soilse": 3289,
      "tíre": 3290,
      "vóta": 3291,
      "leighis": 3292,
      "mbainfidh": 3293,
      "chloch": 3294,
      "Jo": 3295,
      "lit": 3296,
      "irce": 3297,
      "duille": 3298,
      "ligthe": 3299,
      "rúpaí": 3300,
      "phlean": 3301,
      "leata": 3302,
      "áite": 3303,
      "cén": 3304,
      "crícheanna": 3305,
      "dualgais": 3306,
      "Úsáid": 3307,
      "Grian": 3308,
      "aíochtaí": 3309,
      "brú": 3310,
      "iath": 3311,
      "long": 3312,
      "bhail": 3313,
      "tréimh": 3314,
      "inneal": 3315,
      "Airgid": 3316,
      "socruithe": 3317,
      "rachaidh": 3318,
      "leathanach": 3319,
      "lóidh": 3320,
      "easamh": 3321,
      "romchla": 3322,
      "Car": 3323,
      "Eor": 3324,
      "coitianta": 3325,
      "feas": 3326,
      "neart": 3327,
      "reacha": 3328,
      "sigh": 3329,
      "thío": 3330,
      "bhall": 3331,
      "aithean": 3332,
      "lua": 3333,
      "comhlíonadh": 3334,
      "Ordú": 3335,
      "deontas": 3336,
      "phróiseáil": 3337,
      "onnmhaireoirí": 3338,
      "Tuir": 3339,
      "ff": 3340,
      "lar": 3341,
      "iss": 3342,
      "oiread": 3343,
      "gen": 3344,
      "cruinniú": 3345,
      "leibhéil": 3346,
      "cumas": 3347,
      "bhreis": 3348,
      "fhéidir": 3349,
      "Dlí": 3350,
      "ata": 3351,
      "thal": 3352,
      "aghsanna": 3353,
      "leabhair": 3354,
      "spra": 3355,
      "ionadaí": 3356,
      "Forálacha": 3357,
      "fiche": 3358,
      "eagraíochtaí": 3359,
      "eathrú": 3360,
      "próiseas": 3361,
      "parlaiminteach": 3362,
      "46": 3363,
      "Bo": 3364,
      "CA": 3365,
      "Lim": 3366,
      "ban": 3367,
      "dra": 3368,
      "ráin": 3369,
      "sín": 3370,
      "chaipit": 3371,
      "chónaithe": 3372,
      "dhiú": 3373,
      "ish": 3374,
      "inneall": 3375,
      "saíonn": 3376,
      "ithíochta": 3377,
      "lacháin": 3378,
      "mbun": 3379,
      "bronn": 3380,
      "breathnú": 3381,
      "cúiteamh": 3382,
      "eirbhe": 3383,
      "thuas": 3384,
      "chuirfidh": 3385,
      "dlíth": 3386,
      "liteanas": 3387,
      "áipéir": 3388,
      "ionstraimí": 3389,
      "tástála": 3390,
      "aidreamh": 3391,
      "Naisc": 3392,
      "he": 3393,
      "mhach": 3394,
      "traid": 3395,
      "gcúr": 3396,
      "imscrúdú": 3397,
      "isean": 3398,
      "maoir": 3399,
      "2001": 3400,
      "leasanna": 3401,
      "gnéithe": 3402,
      "Ma": 3403,
      "Príomh": 3404,
      "dé": 3405,
      "ec": 3406,
      "fas": 3407,
      "faid": 3408,
      "laithe": 3409,
      "tir": 3410,
      "taitneamh": 3411,
      "chiste": 3412,
      "ireachta": 3413,
      "agam": 3414,
      "nóidh": 3415,
      "aidhm": 3416,
      "iontr": 3417,
      "sheirbhe": 3418,
      "oiliúint": 3419,
      "freagra": 3420,
      "dhóth": 3421,
      "sheachadadh": 3422,
      "fuarthas": 3423,
      "sárú": 3424,
      "pictiúir": 3425,
      "Eoraip": 3426,
      "38": 3427,
      "48": 3428,
      "500": 3429,
      "CF": 3430,
      "Ex": 3431,
      "Glac": 3432,
      "deac": 3433,
      "malairte": 3434,
      "throm": 3435,
      "dheimhniú": 3436,
      "achom": 3437,
      "chug": 3438,
      "gceann": 3439,
      "nachta": 3440,
      "ger": 3441,
      "chomhaltaí": 3442,
      "cúir": 3443,
      "bhreithnithe": 3444,
      "cáilithe": 3445,
      "línse": 3446,
      "fhaigheann": 3447,
      "Éisteachta": 3448,
      "70": 3449,
      "Dara": 3450,
      "Lúna": 3451,
      "blas": 3452,
      "áfach": 3453,
      "chórais": 3454,
      "ealaí": 3455,
      "eithe": 3456,
      "ghinearálta": 3457,
      "tracha": 3458,
      "fhu": 3459,
      "saoil": 3460,
      "scileanna": 3461,
      "aillí": 3462,
      "áirimh": 3463,
      "fort": 3464,
      "trína": 3465,
      "sonrach": 3466,
      "cruth": 3467,
      "tuairisce": 3468,
      "tionscadal": 3469,
      "réimsí": 3470,
      "tháirgeadh": 3471,
      "Europe": 3472,
      "fhoilsiú": 3473,
      "Bhallstáit": 3474,
      "brabúis": 3475,
      "Lúnasa": 3476,
      "Aois": 3477,
      "CB": 3478,
      "VI": 3479,
      "aíodh": 3480,
      "beo": 3481,
      "ot": 3482,
      "raigh": 3483,
      "turas": 3484,
      "chláir": 3485,
      "raíodh": 3486,
      "dlífear": 3487,
      "cionta": 3488,
      "Idirnáisiúnta": 3489,
      "sealbhóir": 3490,
      "Tags": 3491,
      "ordóidh": 3492,
      "caillteanas": 3493,
      "Ciste": 3494,
      "Poiblí": 3495,
      "oladh": 3496,
      "sóisialta": 3497,
      "toil": 3498,
      "tACHT": 3499,
      "éinní": 3500,
      "ind": 3501,
      "amu": 3502,
      "caíocht": 3503,
      "spás": 3504,
      "eirt": 3505,
      "iarrthóir": 3506,
      "éagsúlacht": 3507,
      "oimisinéir": 3508,
      "mhuirearaithe": 3509,
      "ghluaiste": 3510,
      "fuinnimh": 3511,
      "Gnóthaí": 3512,
      "DE": 3513,
      "TU": 3514,
      "ki": 3515,
      "ofa": 3516,
      "sla": 3517,
      "sre": 3518,
      "thoil": 3519,
      "aitheann": 3520,
      "obal": 3521,
      "port": 3522,
      "Inn": 3523,
      "eanta": 3524,
      "pháirtí": 3525,
      "eagraíocht": 3526,
      "Talmhan": 3527,
      "Roghchlár": 3528,
      "achomair": 3529,
      "Baineann": 3530,
      "Fógra": 3531,
      "IO": 3532,
      "Iasc": 3533,
      "Sín": 3534,
      "Tair": 3535,
      "bás": 3536,
      "faireach": 3537,
      "plais": 3538,
      "ráid": 3539,
      "smaoin": 3540,
      "iúnaí": 3541,
      "idéal": 3542,
      "theannta": 3543,
      "earra": 3544,
      "itte": 3545,
      "eachtais": 3546,
      "uaireanta": 3547,
      "leithligh": 3548,
      "raige": 3549,
      "aighdeánach": 3550,
      "eanach": 3551,
      "nglac": 3552,
      "talmhaíochta": 3553,
      "Gharda": 3554,
      "AIM": 3555,
      "teoranta": 3556,
      "cheannas": 3557,
      "cásanna": 3558,
      "tuairimí": 3559,
      "fostaí": 3560,
      "fiosrú": 3561,
      "Ghaeilge": 3562,
      "treoracha": 3563,
      "75": 3564,
      "Bra": 3565,
      "daigh": 3566,
      "gas": 3567,
      "inmhuirearaithe": 3568,
      "scaip": 3569,
      "aoise": 3570,
      "load": 3571,
      "ríche": 3572,
      "roghanna": 3573,
      "leathnú": 3574,
      "foirgn": 3575,
      "iascaigh": 3576,
      "iascaireachta": 3577,
      "modhanna": 3578,
      "dháileadh": 3579,
      "65": 3580,
      "Rú": 3581,
      "Sean": 3582,
      "Tóg": 3583,
      "lon": 3584,
      "suntas": 3585,
      "taigh": 3586,
      "teal": 3587,
      "úine": 3588,
      "tes": 3589,
      "scar": 3590,
      "earsa": 3591,
      "eastá": 3592,
      "sochar": 3593,
      "chomhlacht": 3594,
      "tharlaíonn": 3595,
      "cúpla": 3596,
      "gCoimisinéirí": 3597,
      "ture": 3598,
      "aitist": 3599,
      "stiúrthóirí": 3600,
      "ngairm": 3601,
      "chóireáil": 3602,
      "mheasúnachta": 3603,
      "eannach": 3604,
      "tionscadail": 3605,
      "ceapadh": 3606,
      "reachtúil": 3607,
      "limistéir": 3608,
      "urrúis": 3609,
      "díospóireacht": 3610,
      "tromchúis": 3611,
      "míreanna": 3612,
      "Tra": 3613,
      "cn": 3614,
      "ofar": 3615,
      "solas": 3616,
      "sealadach": 3617,
      "ád": 3618,
      "íte": 3619,
      "mhíniú": 3620,
      "aiste": 3621,
      "táistí": 3622,
      "fheist": 3623,
      "bhfoir": 3624,
      "lig": 3625,
      "móra": 3626,
      "gcomhar": 3627,
      "áirtí": 3628,
      "neamhspleách": 3629,
      "mórdhíola": 3630,
      "ndéanann": 3631,
      "conradh": 3632,
      "buan": 3633,
      "Cuireadh": 3634,
      "ceadúnais": 3635,
      "shuíomh": 3636,
      "gcuirfear": 3637,
      "Oideachas": 3638,
      "clips": 3639,
      "bhliantúil": 3640,
      "dT": 3641,
      "anuas": 3642,
      "alos": 3643,
      "chuim": 3644,
      "ions": 3645,
      "órsaí": 3646,
      "déanmh": 3647,
      "lánú": 3648,
      "míle": 3649,
      "mhargadh": 3650,
      "INT": 3651,
      "1999": 3652,
      "únaer": 3653,
      "bPríomh": 3654,
      "infheistíochta": 3655,
      "Daonáirimh": 3656,
      "faoiseamh": 3657,
      "Leag": 3658,
      "Ríocht": 3659,
      "ctha": 3660,
      "pian": 3661,
      "pinsin": 3662,
      "té": 3663,
      "tseirbhís": 3664,
      "choig": 3665,
      "inm": 3666,
      "thiocfaidh": 3667,
      "dhú": 3668,
      "bhord": 3669,
      "gceart": 3670,
      "imeacht": 3671,
      "tarrain": 3672,
      "déantar": 3673,
      "sonracha": 3674,
      "chuirfear": 3675,
      "leordhóth": 3676,
      "oiliúna": 3677,
      "gcuirtear": 3678,
      "réigiún": 3679,
      "reachtaíocht": 3680,
      "Hot": 3681,
      "tarmligthe": 3682,
      "Gn": 3683,
      "Pu": 3684,
      "em": 3685,
      "othair": 3686,
      "ÁS": 3687,
      "Óg": 3688,
      "chearta": 3689,
      "ghair": 3690,
      "sheol": 3691,
      "iallaíonn": 3692,
      "dáile": 3693,
      "1924": 3694,
      "Táimid": 3695,
      "leithéid": 3696,
      "dócha": 3697,
      "shocra": 3698,
      "fuaime": 3699,
      "Iarnróid": 3700,
      "Alla": 3701,
      "Dáta": 3702,
      "sábháilte": 3703,
      "chomhairc": 3704,
      "Gaeltachta": 3705,
      "Speis": 3706,
      "90": 3707,
      "Gear": 3708,
      "coin": 3709,
      "oíche": 3710,
      "sil": 3711,
      "thuilleadh": 3712,
      "iúnas": 3713,
      "ghlan": 3714,
      "fheithic": 3715,
      "oirse": 3716,
      "cuairt": 3717,
      "osla": 3718,
      "altóirí": 3719,
      "comhar": 3720,
      "iúnais": 3721,
      "taisí": 3722,
      "ardach": 3723,
      "2005": 3724,
      "ionadaithe": 3725,
      "cuirtear": 3726,
      "leasuithe": 3727,
      "iúnacha": 3728,
      "monarcha": 3729,
      "soláthr": 3730,
      "Cruach": 3731,
      "thalamh": 3732,
      "ittee": 3733,
      "Bre": 3734,
      "Eala": 3735,
      "Hel": 3736,
      "bosca": 3737,
      "caighdeáin": 3738,
      "raidh": 3739,
      "raghaidh": 3740,
      "tóidh": 3741,
      "threor": 3742,
      "iúr": 3743,
      "idéil": 3744,
      "airteag": 3745,
      "chomhaontú": 3746,
      "ráma": 3747,
      "cheisteanna": 3748,
      "forordaithe": 3749,
      "Threoir": 3750,
      "Institiúid": 3751,
      "iteáil": 3752,
      "suimeanna": 3753,
      "chúiseamh": 3754,
      "grianghraif": 3755,
      "chinnfidh": 3756,
      "teorainneacha": 3757,
      "Committee": 3758,
      "cláruithe": 3759,
      "Brea": 3760,
      "Eo": 3761,
      "Scoil": 3762,
      "caiteachais": 3763,
      "eiste": 3764,
      "fóg": 3765,
      "feirme": 3766,
      "rang": 3767,
      "seachta": 3768,
      "tv": 3769,
      "tanais": 3770,
      "ya": 3771,
      "thuairisc": 3772,
      "agóid": 3773,
      "eice": 3774,
      "ork": 3775,
      "innithe": 3776,
      "aille": 3777,
      "phointe": 3778,
      "phoist": 3779,
      "cúiseanna": 3780,
      "ack": 3781,
      "neoidh": 3782,
      "ful": 3783,
      "plit": 3784,
      "saincheaptha": 3785,
      "toradh": 3786,
      "monaróir": 3787,
      "Porno": 3788,
      "diúité": 3789,
      "Load": 3790,
      "slándála": 3791,
      "óisialaigh": 3792,
      "spreagadh": 3793,
      "luaidhtear": 3794,
      "Caibidil": 3795,
      "SA": 3796,
      "ction": 3797,
      "dréacht": 3798,
      "gloine": 3799,
      "mil": 3800,
      "mair": 3801,
      "dhi": 3802,
      "dheireadh": 3803,
      "alú": 3804,
      "aonad": 3805,
      "rátha": 3806,
      "bhrach": 3807,
      "Airteagail": 3808,
      "cinntí": 3809,
      "iteáin": 3810,
      "tairbhe": 3811,
      "dírithe": 3812,
      "shonraí": 3813,
      "gaol": 3814,
      "próise": 3815,
      "tástáil": 3816,
      "leasaítear": 3817,
      "cheantar": 3818,
      "BliainDaonáirimh": 3819,
      "tréimhsí": 3820,
      "dhiúscairt": 3821,
      "Ainm": 3822,
      "IC": 3823,
      "RA": 3824,
      "feiceáil": 3825,
      "leamh": 3826,
      "uisc": 3827,
      "éinne": 3828,
      "dhliteanas": 3829,
      "taíocht": 3830,
      "ore": 3831,
      "inneach": 3832,
      "gcéanna": 3833,
      "ionaid": 3834,
      "shao": 3835,
      "olún": 3836,
      "Ansin": 3837,
      "bhír": 3838,
      "tuiscint": 3839,
      "eisiú": 3840,
      "cuideachtaí": 3841,
      "Screen": 3842,
      "táilte": 3843,
      "mheán": 3844,
      "soláthraí": 3845,
      "thosaigh": 3846,
      "ghnéi": 3847,
      "EUR": 3848,
      "déileáil": 3849,
      "critéir": 3850,
      "litir": 3851,
      "sheirbheáil": 3852,
      "42": 3853,
      "6ú": 3854,
      "Réamh": 3855,
      "SMS": 3856,
      "neach": 3857,
      "tan": 3858,
      "chor": 3859,
      "ther": 3860,
      "gcon": 3861,
      "celet": 3862,
      "dálaí": 3863,
      "iarbhír": 3864,
      "2004": 3865,
      "ARL": 3866,
      "chláraithe": 3867,
      "ainmneacha": 3868,
      "Réig": 3869,
      "deacair": 3870,
      "Help": 3871,
      "Leis": 3872,
      "MA": 3873,
      "ME": 3874,
      "Sraith": 3875,
      "Teicneola": 3876,
      "Uisce": 3877,
      "dor": 3878,
      "dia": 3879,
      "dromchla": 3880,
      "ry": 3881,
      "roim": 3882,
      "théann": 3883,
      "eat": 3884,
      "alla": 3885,
      "amhras": 3886,
      "ánta": 3887,
      "eagar": 3888,
      "comhad": 3889,
      "comhionann": 3890,
      "taispeáint": 3891,
      "uirbh": 3892,
      "Com": 3893,
      "Coda": 3894,
      "frio": 3895,
      "isceana": 3896,
      "ence": 3897,
      "bpost": 3898,
      "beagnach": 3899,
      "tógáil": 3900,
      "leigheas": 3901,
      "urrús": 3902,
      "stóráil": 3903,
      "Pornload": 3904,
      "smaoineamh": 3905,
      "cadh": 3906,
      "est": 3907,
      "eoidh": 3908,
      "nG": 3909,
      "téacs": 3910,
      "tithíochta": 3911,
      "chlú": 3912,
      "anacha": 3913,
      "ardú": 3914,
      "fhóg": 3915,
      "fhéadfaidh": 3916,
      "cuma": 3917,
      "2020": 3918,
      "phion": 3919,
      "ndaoine": 3920,
      "íocfaidh": 3921,
      "acnama": 3922,
      "Eorpacha": 3923,
      "únaithe": 3924,
      "bhuan": 3925,
      "Cuireann": 3926,
      "bhainfidh": 3927,
      "bhainistiú": 3928,
      "chónaí": 3929,
      "ráitis": 3930,
      "seachtaine": 3931,
      "...": 3932,
      "aisinéirí": 3933,
      "PornoLoad": 3934,
      "Split": 3935,
      "gairdín": 3936,
      "ms": 3937,
      "ou": 3938,
      "pointe": 3939,
      "racht": 3940,
      "tAontas": 3941,
      "Ábhar": 3942,
      "áth": 3943,
      "mhion": 3944,
      "isis": 3945,
      "use": 3946,
      "eitil": 3947,
      "labh": 3948,
      "sheas": 3949,
      "shláinte": 3950,
      "tarraingt": 3951,
      "stíl": 3952,
      "athar": 3953,
      "crai": 3954,
      "ról": 3955,
      "acmhainn": 3956,
      "mpa": 3957,
      "táirgeadh": 3958,
      "líomatá": 3959,
      "únacht": 3960,
      "úsáideoir": 3961,
      "dhualg": 3962,
      "shuim": 3963,
      "ochtúir": 3964,
      "ORPA": 3965,
      "alartú": 3966,
      "dualgas": 3967,
      "hEORPA": 3968,
      "Iompair": 3969,
      "RIAL": 3970,
      "meaisín": 3971,
      "Ban": 3972,
      "Banc": 3973,
      "Foil": 3974,
      "Ire": 3975,
      "Lár": 3976,
      "eán": 3977,
      "taifid": 3978,
      "thomh": 3979,
      "idí": 3980,
      "theor": 3981,
      "fhomhír": 3982,
      "sheachtain": 3983,
      "ress": 3984,
      "1923": 3985,
      "chomhlíon": 3986,
      "taistil": 3987,
      "gCúirt": 3988,
      "bunaíodh": 3989,
      "ideo": 3990,
      "tacaíochta": 3991,
      "cuntasaíochta": 3992,
      "1976": 3993,
      "teilifíse": 3994,
      "Allah": 3995,
      "Speisialta": 3996,
      "Eacnama": 3997,
      "Uath": 3998,
      "croí": 3999,
      "lanna": 4000,
      "tro": 4001,
      "scartha": 4002,
      "oireacht": 4003,
      "cuimh": 4004,
      "ceisteanna": 4005,
      "comhaid": 4006,
      "athnuach": 4007,
      "intinn": 4008,
      "stáit": 4009,
      "fhorléiriú": 4010,
      "Theas": 4011,
      "mórdhíol": 4012,
      "bunaidh": 4013,
      "Chuideachta": 4014,
      "Duine": 4015,
      "struchtúr": 4016,
      "ARLAIM": 4017,
      "49": 4018,
      "Cor": 4019,
      "Fac": 4020,
      "Fearr": 4021,
      "Mol": 4022,
      "baill": 4023,
      "beartais": 4024,
      "héasca": 4025,
      "lithe": 4026,
      "réal": 4027,
      "seasamh": 4028,
      "ghairdín": 4029,
      "nóir": 4030,
      "treach": 4031,
      "scne": 4032,
      "cean": 4033,
      "celo": 4034,
      "eagmháil": 4035,
      "eallacht": 4036,
      "catag": 4037,
      "ráide": 4038,
      "coinne": 4039,
      "crann": 4040,
      "Déanann": 4041,
      "thairiscint": 4042,
      "Cuirfear": 4043,
      "Tugann": 4044,
      "chumann": 4045,
      "olasaí": 4046,
      "staidéar": 4047,
      "teaghlaigh": 4048,
      "ÍOCH": 4049,
      "cúirte": 4050,
      "celona": 4051,
      "CP": 4052,
      "Céad": 4053,
      "Dí": 4054,
      "Nex": 4055,
      "Stair": 4056,
      "pío": 4057,
      "tn": 4058,
      "thiom": 4059,
      "dheasc": 4060,
      "tru": 4061,
      "fhianaise": 4062,
      "bhféadfar": 4063,
      "Chos": 4064,
      "dár": 4065,
      "álaithe": 4066,
      "todh": 4067,
      "Mheirice": 4068,
      "iasachtaí": 4069,
      "feistí": 4070,
      "feabhas": 4071,
      "pionós": 4072,
      "Grianchloch": 4073,
      "Óglaigh": 4074,
      "ARLAIMINT": 4075,
      "55": 4076,
      "80": 4077,
      "SO": 4078,
      "ceall": 4079,
      "ele": 4080,
      "himeachtaí": 4081,
      "lainne": 4082,
      "sás": 4083,
      "tacal": 4084,
      "teocht": 4085,
      "fhion": 4086,
      "scála": 4087,
      "chuntas": 4088,
      "shlá": 4089,
      "liath": 4090,
      "ithir": 4091,
      "roma": 4092,
      "iars": 4093,
      "crua": 4094,
      "lash": 4095,
      "ghníomhaíochtaí": 4096,
      "chruinniú": 4097,
      "cailín": 4098,
      "dhearc": 4099,
      "shealbhú": 4100,
      "gluaiseacht": 4101,
      "Ireland": 4102,
      "Conn": 4103,
      "Catag": 4104,
      "Ginearálta": 4105,
      "Nó": 4106,
      "Togra": 4107,
      "bailte": 4108,
      "mas": 4109,
      "pearsan": 4110,
      "rol": 4111,
      "ys": 4112,
      "thogh": 4113,
      "seáil": 4114,
      "omhnú": 4115,
      "fhostaithe": 4116,
      "scag": 4117,
      "urna": 4118,
      "soláthair": 4119,
      "chomhlachta": 4120,
      "achtair": 4121,
      "ndó": 4122,
      "trácht": 4123,
      "seacháin": 4124,
      "Scéim": 4125,
      "ited": 4126,
      "líonra": 4127,
      "fadhbanna": 4128,
      "scaoilte": 4129,
      "Ionad": 4130,
      "Bainistíochta": 4131,
      "feithiclí": 4132,
      "méadar": 4133,
      "Straitéis": 4134,
      "amuigh": 4135,
      "Man": 4136,
      "Oib": 4137,
      "Watch": 4138,
      "cárta": 4139,
      "cónaithe": 4140,
      "dian": 4141,
      "fair": 4142,
      "fón": 4143,
      "hachomair": 4144,
      "príobháideach": 4145,
      "tithe": 4146,
      "tho": 4147,
      "thaigh": 4148,
      "láidir": 4149,
      "ántas": 4150,
      "athbhreithnithe": 4151,
      "áltas": 4152,
      "tobac": 4153,
      "iblí": 4154,
      "trád": 4155,
      "ardas": 4156,
      "íosta": 4157,
      "bunú": 4158,
      "contr": 4159,
      "Mheán": 4160,
      "beagán": 4161,
      "áitribh": 4162,
      "olaíocht": 4163,
      "shuiteáil": 4164,
      "saothar": 4165,
      "leictreach": 4166,
      "Chontae": 4167,
      "snáithe": 4168,
      "loing": 4169,
      "sreang": 4170,
      "plaisteach": 4171,
      "bag": 4172,
      "cla": 4173,
      "ds": 4174,
      "din": 4175,
      "ik": 4176,
      "xx": 4177,
      "teoirí": 4178,
      "gcóir": 4179,
      "eidil": 4180,
      "fola": 4181,
      "mparáid": 4182,
      "ACHA": 4183,
      "meáchan": 4184,
      "breis": 4185,
      "tháirgí": 4186,
      "dhíl": 4187,
      "sheachaint": 4188,
      "fostú": 4189,
      "scéimeanna": 4190,
      "orgáiste": 4191,
      "ments": 4192,
      "thabharfaidh": 4193,
      "chúlghairm": 4194,
      "comhaontuithe": 4195,
      "traidisiúnta": 4196,
      "chugainn": 4197,
      "Next": 4198,
      "Be": 4199,
      "Gluais": 4200,
      "Tabhair": 4201,
      "cior": 4202,
      "léid": 4203,
      "mio": 4204,
      "tsamh": 4205,
      "chaighdeáin": 4206,
      "are": 4207,
      "mhian": 4208,
      "sceideal": 4209,
      "ánna": 4210,
      "éadaí": 4211,
      "2000": 4212,
      "190": 4213,
      "leanfaidh": 4214,
      "nuash": 4215,
      "éilimh": 4216,
      "chúram": 4217,
      "eabhadh": 4218,
      "Inter": 4219,
      "chaoi": 4220,
      "illte": 4221,
      "scrúduithe": 4222,
      "beaga": 4223,
      "1963": 4224,
      "dhearbhú": 4225,
      "Barcelona": 4226,
      "éineacht": 4227,
      "Tionscail": 4228,
      "roichead": 4229,
      "dhíreach": 4230,
      "bréagach": 4231,
      "ngairmtear": 4232,
      "líomatáiste": 4233,
      "nuashon": 4234,
      "Ad": 4235,
      "Córas": 4236,
      "Neamh": 4237,
      "New": 4238,
      "PR": 4239,
      "ceachtar": 4240,
      "eisc": 4241,
      "féad": 4242,
      "fostóir": 4243,
      "géar": 4244,
      "léar": 4245,
      "nigh": 4246,
      "rimh": 4247,
      "ÁN": 4248,
      "ghla": 4249,
      "fhás": 4250,
      "cultú": 4251,
      "reáin": 4252,
      "reách": 4253,
      "ailli": 4254,
      "uille": 4255,
      "dtiocfaidh": 4256,
      "onnmhair": 4257,
      "oibríonn": 4258,
      "buiséad": 4259,
      "Cuirtear": 4260,
      "olaíochta": 4261,
      "1933": 4262,
      "staidéir": 4263,
      "Leanaí": 4264,
      "polait": 4265,
      "mbunaítear": 4266,
      "gcríoch": 4267,
      "Dúiche": 4268,
      "PHARLAIMINT": 4269,
      "spraoi": 4270,
      "ceallraí": 4271,
      "Bláth": 4272,
      "Crío": 4273,
      "Mí": 4274,
      "Níor": 4275,
      "bealach": 4276,
      "cí": 4277,
      "cis": 4278,
      "caitheamh": 4279,
      "dlínse": 4280,
      "gla": 4281,
      "ochta": 4282,
      "pá": 4283,
      "reith": 4284,
      "ting": 4285,
      "ÁIL": 4286,
      "ghairtear": 4287,
      "gcuntas": 4288,
      "aitheoirí": 4289,
      "aitheanta": 4290,
      "lip": 4291,
      "socr": 4292,
      "look": 4293,
      "Thu": 4294,
      "éilleadh": 4295,
      "Ghnó": 4296,
      "bainisteoir": 4297,
      "ASÚ": 4298,
      "fiach": 4299,
      "aibí": 4300,
      "léigh": 4301,
      "Nollag": 4302,
      "sábháilteachta": 4303,
      "oibleagáid": 4304,
      "ualach": 4305,
      "thabharfar": 4306,
      "uairimí": 4307,
      "uirlisí": 4308,
      "aimsire": 4309,
      "eacnamaíoch": 4310,
      "tirim": 4311,
      "iarsmaí": 4312,
      "ndóigh": 4313,
      "CC": 4314,
      "Faigh": 4315,
      "Foirm": 4316,
      "Pé": 4317,
      "cao": 4318,
      "nAchtanna": 4319,
      "titim": 4320,
      "va": 4321,
      "wash": 4322,
      "anb": 4323,
      "thur": 4324,
      "dhéag": 4325,
      "eagrú": 4326,
      "aighn": 4327,
      "lachais": 4328,
      "uirí": 4329,
      "thabhála": 4330,
      "toc": 4331,
      "Bhain": 4332,
      "iseán": 4333,
      "eantar": 4334,
      "eolaithe": 4335,
      "bate": 4336,
      "ngnó": 4337,
      "shonrófar": 4338,
      "ollmhór": 4339,
      "tionscail": 4340,
      "riachtanas": 4341,
      "thógaint": 4342,
      "uspóir": 4343,
      "phraghas": 4344,
      "sheirbhís": 4345,
      "ission": 4346,
      "aitisticí": 4347,
      "leordhóthanach": 4348,
      "Bosca": 4349,
      "Eolas": 4350,
      "OI": 4351,
      "Plandaí": 4352,
      "cair": 4353,
      "pas": 4354,
      "sw": 4355,
      "ÁIN": 4356,
      "théacs": 4357,
      "dhíon": 4358,
      "illeadh": 4359,
      "íona": 4360,
      "oith": 4361,
      "gcinn": 4362,
      "litr": 4363,
      "náisiún": 4364,
      "féil": 4365,
      "phinsin": 4366,
      "áladh": 4367,
      "eabhair": 4368,
      "chóiriú": 4369,
      "deireanach": 4370,
      "gcoinn": 4371,
      "Oifigiúil": 4372,
      "marsáid": 4373,
      "dílse": 4374,
      "dílsithe": 4375,
      "compord": 4376,
      "Faisnéise": 4377,
      "ectable": 4378,
      "suntasach": 4379,
      "Níos": 4380,
      "Scr": 4381,
      "TF": 4382,
      "gru": 4383,
      "sn": 4384,
      "ánaí": 4385,
      "áiseanna": 4386,
      "óna": 4387,
      "iseadh": 4388,
      "iúir": 4389,
      "aisceart": 4390,
      "fhéadfaí": 4391,
      "íochas": 4392,
      "sing": 4393,
      "ionanna": 4394,
      "níor": 4395,
      "níodh": 4396,
      "eadóir": 4397,
      "chomhar": 4398,
      "log": 4399,
      "low": 4400,
      "oblacht": 4401,
      "cónaí": 4402,
      "oscaí": 4403,
      "luacháil": 4404,
      "shonrú": 4405,
      "aoiseamh": 4406,
      "foirfe": 4407,
      "leachtais": 4408,
      "Chomhphobail": 4409,
      "ACHTA": 4410,
      "1967": 4411,
      "iascach": 4412,
      "gníomhaíocht": 4413,
      "chonradh": 4414,
      "dliteanas": 4415,
      "Tráchtála": 4416,
      "anailís": 4417,
      "duilleoga": 4418,
      "European": 4419,
      "Aer": 4420,
      "App": 4421,
      "Iom": 4422,
      "Out": 4423,
      "Po": 4424,
      "Pró": 4425,
      "Sóisialta": 4426,
      "cath": 4427,
      "dtús": 4428,
      "fíon": 4429,
      "gorm": 4430,
      "tin": 4431,
      "ÉAN": 4432,
      "óige": 4433,
      "threoir": 4434,
      "dheir": 4435,
      "raíochta": 4436,
      "ada": 4437,
      "triail": 4438,
      "scáile": 4439,
      "éirigh": 4440,
      "shó": 4441,
      "shaor": 4442,
      "Chr": 4443,
      "istir": 4444,
      "mbealach": 4445,
      "stop": 4446,
      "inti": 4447,
      "ick": 4448,
      "éascú": 4449,
      "tuaras": 4450,
      "saoráidí": 4451,
      "léiríonn": 4452,
      "CHUN": 4453,
      "Ghear": 4454,
      "bhuithe": 4455,
      "Cumh": 4456,
      "ceadaithe": 4457,
      "Talmhaíochta": 4458,
      "iontaobhais": 4459,
      "scoirfidh": 4460,
      "Leigh": 4461,
      "Mórdhíola": 4462,
      "CDD": 4463,
      "Tabharfaidh": 4464,
      "Factory": 4465,
      "Connectable": 4466,
      "Achomhairc": 4467,
      "Li": 4468,
      "Líon": 4469,
      "Treor": 4470,
      "gearr": 4471,
      "theacha": 4472,
      "thaifead": 4473,
      "mhá": 4474,
      "mhínithe": 4475,
      "bhanna": 4476,
      "ainéal": 4477,
      "gcos": 4478,
      "bhféadfaidh": 4479,
      "ious": 4480,
      "ástáil": 4481,
      "eachtadh": 4482,
      "phearsanta": 4483,
      "stoic": 4484,
      "uirb": 4485,
      "gacha": 4486,
      "stádas": 4487,
      "thuiscint": 4488,
      "fhocal": 4489,
      "iarrthóirí": 4490,
      "luiche": 4491,
      "praghsanna": 4492,
      "daíonn": 4493,
      "Forbartha": 4494,
      "Deon": 4495,
      "úsáideann": 4496,
      "iorra": 4497,
      "achomhairc": 4498,
      "bhrab": 4499,
      "iomláine": 4500,
      "Bhallstát": 4501,
      "scrios": 4502,
      "Ilghnéi": 4503,
      "labhairt": 4504,
      "41": 4505,
      "Cáil": 4506,
      "PS": 4507,
      "caith": 4508,
      "galar": 4509,
      "hArd": 4510,
      "rs": 4511,
      "tine": 4512,
      "incháilithe": 4513,
      "thábh": 4514,
      "dhlú": 4515,
      "mholadh": 4516,
      "bhrú": 4517,
      "ghrian": 4518,
      "ainí": 4519,
      "osp": 4520,
      "éise": 4521,
      "cóimh": 4522,
      "bpró": 4523,
      "mheasúnú": 4524,
      "aicí": 4525,
      "ghníomhaíocht": 4526,
      "tosú": 4527,
      "quar": 4528,
      "fhiosrú": 4529,
      "Seirbhíse": 4530,
      "cuspóir": 4531,
      "Monarcha": 4532,
      "Ealaíon": 4533,
      "98": 4534,
      "Iost": 4535,
      "TCDD": 4536,
      "aca": 4537,
      "cigire": 4538,
      "mún": 4539,
      "Ío": 4540,
      "úlacht": 4541,
      "bheag": 4542,
      "eigh": 4543,
      "ses": 4544,
      "annáin": 4545,
      "ren": 4546,
      "Chúirte": 4547,
      "mbliain": 4548,
      "luadh": 4549,
      "cathaoirleach": 4550,
      "Anois": 4551,
      "eog": 4552,
      "críochnaithe": 4553,
      "muin": 4554,
      "Rolex": 4555,
      "dlíthe": 4556,
      "Shóisialaigh": 4557,
      "bainc": 4558,
      "Fheidhm": 4559,
      "mhaolú": 4560,
      "díolúine": 4561,
      "soláthraithe": 4562,
      "eastaíonn": 4563,
      "sheirbhísí": 4564,
      "Áirithe": 4565,
      "Áirítear": 4566,
      "iontaofa": 4567,
      "Feidhmiúcháin": 4568,
      "eets": 4569,
      "bhfaighidh": 4570,
      "Samhain": 4571,
      "tuairisceán": 4572,
      "ghlanadh": 4573,
      "anbúl": 4574,
      "Outlook": 4575,
      "Iostanbúl": 4576,
      "66": 4577,
      "En": 4578,
      "Fin": 4579,
      "Gairm": 4580,
      "Gailli": 4581,
      "cea": 4582,
      "cistí": 4583,
      "dáin": 4584,
      "enach": 4585,
      "eála": 4586,
      "fis": 4587,
      "ha": 4588,
      "hábhair": 4589,
      "ka": 4590,
      "páipéar": 4591,
      "ranna": 4592,
      "Íoc": 4593,
      "thacht": 4594,
      "dhaing": 4595,
      "ush": 4596,
      "nóg": 4597,
      "scáth": 4598,
      "ceist": 4599,
      "tuismitheoirí": 4600,
      "áras": 4601,
      "tions": 4602,
      "fréamh": 4603,
      "dearbh": 4604,
      "mhargaidh": 4605,
      "shonraithe": 4606,
      "ollar": 4607,
      "foirgneamh": 4608,
      "tionscal": 4609,
      "tionscnaimh": 4610,
      "1998": 4611,
      "maoiniú": 4612,
      "ealaíon": 4613,
      "teaghlach": 4614,
      "ipeanna": 4615,
      "substaintí": 4616,
      "diúltú": 4617,
      "shárú": 4618,
      "síolta": 4619,
      "linbh": 4620,
      "múinteoirí": 4621,
      "thíolacadh": 4622,
      "todhchaí": 4623,
      "washer": 4624,
      "quarium": 4625,
      "47": 4626,
      "58": 4627,
      "Cathrach": 4628,
      "Fion": 4629,
      "Mac": 4630,
      "OMH": 4631,
      "PC": 4632,
      "Par": 4633,
      "TS": 4634,
      "can": 4635,
      "dr": 4636,
      "dtar": 4637,
      "ding": 4638,
      "way": 4639,
      "Ã3": 4640,
      "óithre": 4641,
      "chli": 4642,
      "aiseo": 4643,
      "thrí": 4644,
      "dheo": 4645,
      "bhean": 4646,
      "lámha": 4647,
      "satail": 4648,
      "red": 4649,
      "Chlár": 4650,
      "nítear": 4651,
      "cobh": 4652,
      "éarma": 4653,
      "peáin": 4654,
      "2002": 4655,
      "cruthú": 4656,
      "tionscnamh": 4657,
      "thagairt": 4658,
      "Áitiúla": 4659,
      "feistithe": 4660,
      "difríocht": 4661,
      "moltaí": 4662,
      "cábla": 4663,
      "comhréireachta": 4664,
      "tionónta": 4665,
      "sampla": 4666,
      "teicneolaíocht": 4667,
      "aitheantas": 4668,
      "faireachán": 4669,
      "déanmhas": 4670,
      "uiscí": 4671,
      "Cineál": 4672,
      "Féad": 4673,
      "Léigh": 4674,
      "Rúis": 4675,
      "céimeanna": 4676,
      "míniú": 4677,
      "teicniúil": 4678,
      "less": 4679,
      "scaí": 4680,
      "éadach": 4681,
      "comharthaí": 4682,
      "branda": 4683,
      "forála": 4684,
      "ród": 4685,
      "gCo": 4686,
      "ardchaighdeán": 4687,
      "oibrí": 4688,
      "gníomhach": 4689,
      "Inscne": 4690,
      "buntáistí": 4691,
      "ANN": 4692,
      "Cuim": 4693,
      "foireann": 4694,
      "iniúchta": 4695,
      "tógála": 4696,
      "Gníomhaireacht": 4697,
      "liocht": 4698,
      "oitinne": 4699,
      "bóithre": 4700,
      "eimic": 4701,
      "cruinnithe": 4702,
      "Ceannais": 4703,
      "gairmiúil": 4704,
      "Leabhar": 4705,
      "Teaghlaigh": 4706,
      "Chosaint": 4707,
      "satailíte": 4708,
      "Atha": 4709,
      "MP": 4710,
      "Min": 4711,
      "Mas": 4712,
      "Nat": 4713,
      "Tí": 4714,
      "bíonn": 4715,
      "beatha": 4716,
      "cil": 4717,
      "dtreo": 4718,
      "hA": 4719,
      "hoibreacha": 4720,
      "nta": 4721,
      "srianta": 4722,
      "éine": 4723,
      "chigire": 4724,
      "mhainne": 4725,
      "altas": 4726,
      "gha": 4727,
      "fhadh": 4728,
      "impl": 4729,
      "ree": 4730,
      "liachta": 4731,
      "taisteal": 4732,
      "leanúna": 4733,
      "eochair": 4734,
      "codanna": 4735,
      "uidéal": 4736,
      "raic": 4737,
      "eapáin": 4738,
      "cuidiú": 4739,
      "2003": 4740,
      "ndéanfaí": 4741,
      "measúnachta": 4742,
      "bpáirt": 4743,
      "éagsúil": 4744,
      "dáileadh": 4745,
      "gcomparáid": 4746,
      "chostas": 4747,
      "1997": 4748,
      "IRE": 4749,
      "tháirg": 4750,
      "cumann": 4751,
      "teagmhas": 4752,
      "réigiúin": 4753,
      "deontais": 4754,
      "phróiseas": 4755,
      "Creid": 4756,
      "Local": 4757,
      "trédhearc": 4758,
      "timpeall": 4759,
      "DHÉAN": 4760,
      "bhóthar": 4761,
      "Iarratas": 4762,
      "Fa": 4763,
      "Reacht": 4764,
      "Ur": 4765,
      "Uair": 4766,
      "cy": 4767,
      "dio": 4768,
      "daítear": 4769,
      "euro": 4770,
      "lasc": 4771,
      "muirir": 4772,
      "sol": 4773,
      "sibhialta": 4774,
      "teasa": 4775,
      "chais": 4776,
      "thain": 4777,
      "dhochtúir": 4778,
      "gcoitinne": 4779,
      "túirt": 4780,
      "idirdh": 4781,
      "gcomhlacht": 4782,
      "choinníollacha": 4783,
      "meáchain": 4784,
      "Tweets": 4785,
      "fhoirceannadh": 4786,
      "comhairimh": 4787,
      "cúraimí": 4788,
      "sábháilteacht": 4789,
      "ballóide": 4790,
      "feithicle": 4791,
      "voltage": 4792,
      "Oibre": 4793,
      "91": 4794,
      "Cas": 4795,
      "Dúirt": 4796,
      "Nach": 4797,
      "clas": 4798,
      "iamh": 4799,
      "ld": 4800,
      "tiocfaidh": 4801,
      "choir": 4802,
      "tel": 4803,
      "raíochtaí": 4804,
      "fhabh": 4805,
      "gcoimeád": 4806,
      "thaíonn": 4807,
      "lachas": 4808,
      "ínítear": 4809,
      "comhartha": 4810,
      "intit": 4811,
      "caíochta": 4812,
      "bhraitheann": 4813,
      "Bhu": 4814,
      "éilíonn": 4815,
      "ness": 4816,
      "ceannaigh": 4817,
      "táirgthe": 4818,
      "ens": 4819,
      "bainistiú": 4820,
      "Cumhacht": 4821,
      "oiciméid": 4822,
      "Rialú": 4823,
      "dhul": 4824,
      "gcionta": 4825,
      "nasctha": 4826,
      "dliteanais": 4827,
      "cúrsaí": 4828,
      "chreidiúint": 4829,
      "treoirlínte": 4830,
      "gcruth": 4831,
      "gheimhridh": 4832,
      "dlíthiúil": 4833,
      "AC": 4834,
      "Cead": 4835,
      "Daoine": 4836,
      "Gairdín": 4837,
      "Liún": 4838,
      "Rinne": 4839,
      "TR": 4840,
      "bainne": 4841,
      "cig": 4842,
      "dligh": 4843,
      "hais": 4844,
      "héifeacht": 4845,
      "mea": 4846,
      "mir": 4847,
      "mainn": 4848,
      "ov": 4849,
      "páistí": 4850,
      "teicniúla": 4851,
      "chlá": 4852,
      "chathair": 4853,
      "dhroim": 4854,
      "mhu": 4855,
      "ond": 4856,
      "ten": 4857,
      "láid": 4858,
      "scannáin": 4859,
      "bhféadfaí": 4860,
      "itimh": 4861,
      "áireofar": 4862,
      "féar": 4863,
      "dúil": 4864,
      "urscaoileadh": 4865,
      "breac": 4866,
      "chomharc": 4867,
      "taispeán": 4868,
      "líonta": 4869,
      "ngleic": 4870,
      "bpr": 4871,
      "tairbh": 4872,
      "buí": 4873,
      "riocht": 4874,
      "eirbhís": 4875,
      "cóireáil": 4876,
      "teagmhála": 4877,
      "ainmhíniú": 4878,
      "manam": 4879,
      "ipeáil": 4880,
      "Monaróirí": 4881,
      "éigeandála": 4882,
      "iniúchóireachta": 4883,
      "faighte": 4884,
      "dheasca": 4885,
      "DHÉANAMH": 4886,
      "57": 4887,
      "Cinn": 4888,
      "custaim": 4889,
      "caithfidh": 4890,
      "deas": 4891,
      "geal": 4892,
      "galair": 4893,
      "hAcht": 4894,
      "hamháin": 4895,
      "liúcháin": 4896,
      "ml": 4897,
      "máid": 4898,
      "uch": 4899,
      "vice": 4900,
      "ww": 4901,
      "deann": 4902,
      "fhéadfar": 4903,
      "íocháin": 4904,
      "stail": 4905,
      "spóirt": 4906,
      "gCiste": 4907,
      "tuarascálacha": 4908,
      "stáisiún": 4909,
      "tachán": 4910,
      "éilithe": 4911,
      "net": 4912,
      "cuireann": 4913,
      "míleata": 4914,
      "realamh": 4915,
      "íomhánna": 4916,
      "Forbairt": 4917,
      "eolaíochta": 4918,
      "thagairtí": 4919,
      "toghchán": 4920,
      "láimhe": 4921,
      "TION": 4922,
      "Daonla": 4923,
      "roinnte": 4924,
      "glactha": 4925,
      "aerárth": 4926,
      "prionsabail": 4927,
      "Tuirc": 4928,
      "maoirseachta": 4929,
      "Iascaigh": 4930,
      "fheithicil": 4931,
      "friotaíocht": 4932,
      "féilire": 4933,
      "1ú": 4934,
      "68": 4935,
      "Ró": 4936,
      "Sin": 4937,
      "Sóisial": 4938,
      "Tor": 4939,
      "bean": 4940,
      "caighdeánach": 4941,
      "hAchta": 4942,
      "máil": 4943,
      "othar": 4944,
      "srian": 4945,
      "tuil": 4946,
      "ws": 4947,
      "indéanta": 4948,
      "than": 4949,
      "tap": 4950,
      "ilv": 4951,
      "sciath": 4952,
      "gcumas": 4953,
      "shiúl": 4954,
      "Chó": 4955,
      "ithreach": 4956,
      "ealth": 4957,
      "ruth": 4958,
      "aimsiú": 4959,
      "brí": 4960,
      "tuism": 4961,
      "liantúil": 4962,
      "foláir": 4963,
      "seirbhe": 4964,
      "fhoghlaim": 4965,
      "shocr": 4966,
      "eadúnas": 4967,
      "rachas": 4968,
      "cheapfaidh": 4969,
      "Tuarascáil": 4970,
      "chumainn": 4971,
      "Breith": 4972,
      "rochtana": 4973,
      "meascán": 4974,
      "diúscairt": 4975,
      "infheistíocht": 4976,
      "Tran": 4977,
      "mhaoiniú": 4978,
      "rathúil": 4979,
      "fhostaí": 4980,
      "craiceann": 4981,
      "mórdhíoltóirí": 4982,
      "contrár": 4983,
      "Gluaiseacht": 4984,
      "by": 4985,
      "ciste": 4986,
      "gniú": 4987,
      "sun": 4988,
      "sia": 4989,
      "tional": 4990,
      "áthú": 4991,
      "chaiteachais": 4992,
      "chluiche": 4993,
      "ink": 4994,
      "theas": 4995,
      "thiar": 4996,
      "bhuir": 4997,
      "leanna": 4998,
      "asamhail": 4999,
      "tásc": 5000,
      "oiriún": 5001,
      "lia": 5002,
      "unter": 5003,
      "dúradh": 5004,
      "tacháin": 5005,
      "áititheoir": 5006,
      "Infheist": 5007,
      "cód": 5008,
      "oirmisc": 5009,
      "foirt": 5010,
      "réasáin": 5011,
      "cailíní": 5012,
      "ghairmiúil": 5013,
      "cháilíocht": 5014,
      "1952": 5015,
      "poist": 5016,
      "lish": 5017,
      "bóthair": 5018,
      "Daonra": 5019,
      "ainmniúcháin": 5020,
      "Tionscadal": 5021,
      "fóill": 5022,
      "Praghas": 5023,
      "fionraí": 5024,
      "pictiúr": 5025,
      "gcruinniú": 5026,
      "Nuacht": 5027,
      "Bracelet": 5028,
      "Catagóirí": 5029,
      "02": 5030,
      "44": 5031,
      "59": 5032,
      "Cain": 5033,
      "Coinbhinsiún": 5034,
      "Qu": 5035,
      "Ráit": 5036,
      "ap": 5037,
      "coimh": 5038,
      "dlúth": 5039,
      "lonn": 5040,
      "neartú": 5041,
      "ty": 5042,
      "tim": 5043,
      "toirmeasc": 5044,
      "chéime": 5045,
      "ilig": 5046,
      "eifear": 5047,
      "alcó": 5048,
      "oide": 5049,
      "sear": 5050,
      "áillí": 5051,
      "earná": 5052,
      "bhfu": 5053,
      "shann": 5054,
      "séas": 5055,
      "aointe": 5056,
      "staitisticí": 5057,
      "Mhárta": 5058,
      "scríbh": 5059,
      "book": 5060,
      "bailí": 5061,
      "bailiú": 5062,
      "toghcháin": 5063,
      "réigiúnach": 5064,
      "ghlactha": 5065,
      "Tras": 5066,
      "feithicil": 5067,
      "gCuideachtaí": 5068,
      "difriúil": 5069,
      "inmhuirir": 5070,
      "reáchtáil": 5071,
      "compordach": 5072,
      "thábhachtach": 5073,
      "dhaingniú": 5074,
      "Daonlathaithe": 5075,
      "01": 5076,
      "Cáin": 5077,
      "Dollar": 5078,
      "Leith": 5079,
      "Mic": 5080,
      "SC": 5081,
      "Taighde": 5082,
      "bol": 5083,
      "beanna": 5084,
      "beartas": 5085,
      "fostaíocht": 5086,
      "híoc": 5087,
      "taise": 5088,
      "chaiteachas": 5089,
      "ino": 5090,
      "ghin": 5091,
      "chuaigh": 5092,
      "táimid": 5093,
      "fhostaíochta": 5094,
      "seofar": 5095,
      "áire": 5096,
      "farraige": 5097,
      "meáin": 5098,
      "túin": 5099,
      "pháirteanna": 5100,
      "urg": 5101,
      "idirbheart": 5102,
      "iompr": 5103,
      "dteagmháil": 5104,
      "breithe": 5105,
      "forais": 5106,
      "neamhdh": 5107,
      "oibríocht": 5108,
      "mona": 5109,
      "chúnamh": 5110,
      "chathaoirleach": 5111,
      "plé": 5112,
      "tairisceana": 5113,
      "CEE": 5114,
      "Éireannach": 5115,
      "fiac": 5116,
      "cheanglaítear": 5117,
      "1956": 5118,
      "pleananna": 5119,
      "tírdh": 5120,
      "úinéireacht": 5121,
      "AIRLE": 5122,
      "oiteann": 5123,
      "toirt": 5124,
      "aimsir": 5125,
      "Uni": 5126,
      "bhéarfaidh": 5127,
      "iontráil": 5128,
      "foirgníochta": 5129,
      "Iomlán": 5130,
      "National": 5131,
      "fhadhb": 5132,
      "Cá": 5133,
      "Deir": 5134,
      "Déard": 5135,
      "GN": 5136,
      "IP": 5137,
      "Pac": 5138,
      "Ru": 5139,
      "Slá": 5140,
      "az": 5141,
      "blaí": 5142,
      "caí": 5143,
      "cleachtais": 5144,
      "dtáirgí": 5145,
      "fír": 5146,
      "gl": 5147,
      "giorra": 5148,
      "ifí": 5149,
      "nea": 5150,
      "ti": 5151,
      "teacha": 5152,
      "theicniúil": 5153,
      "mhol": 5154,
      "asta": 5155,
      "adóir": 5156,
      "earrach": 5157,
      "éireacht": 5158,
      "ceol": 5159,
      "Choinbhinsiún": 5160,
      "rothar": 5161,
      "phlé": 5162,
      "coinníoll": 5163,
      "uirm": 5164,
      "forléireofar": 5165,
      "áltais": 5166,
      "top": 5167,
      "áitiú": 5168,
      "oifigí": 5169,
      "seachtrach": 5170,
      "Scoile": 5171,
      "bhunaithe": 5172,
      "cóipeanna": 5173,
      "conarthaí": 5174,
      "Fhrain": 5175,
      "suimiúil": 5176,
      "LEASÚ": 5177,
      "iasachta": 5178,
      "reachtúla": 5179,
      "mionsonraithe": 5180,
      "pers": 5181,
      "tógtha": 5182,
      "gléasra": 5183,
      "Chuarda": 5184,
      "fhreagra": 5185,
      "cógais": 5186,
      "fhágáil": 5187,
      "rapóirt": 5188,
      "dhiailiú": 5189,
      "tnaid": 5190,
      "liathróid": 5191,
      "fréamhacha": 5192,
      "Uaireadóirí": 5193,
      "67": 5194,
      "seice": 5195,
      "tuir": 5196,
      "ure": 5197,
      "uítear": 5198,
      "taíonn": 5199,
      "ustam": 5200,
      "deartha": 5201,
      "ghléas": 5202,
      "ser": 5203,
      "fhost": 5204,
      "imní": 5205,
      "tarlú": 5206,
      "mbeart": 5207,
      "phríosú": 5208,
      "pháipéir": 5209,
      "1926": 5210,
      "ics": 5211,
      "dtos": 5212,
      "tharchur": 5213,
      "spidéil": 5214,
      "oibreoir": 5215,
      "fáilte": 5216,
      "Phone": 5217,
      "gáis": 5218,
      "seachadadh": 5219,
      "Roinne": 5220,
      "cheannaigh": 5221,
      "tiús": 5222,
      "INN": 5223,
      "achtacháin": 5224,
      "1936": 5225,
      "gníomhaíochta": 5226,
      "vótáil": 5227,
      "cúrsa": 5228,
      "Cosanta": 5229,
      "mhuirearú": 5230,
      "Barr": 5231,
      "spriocanna": 5232,
      "Taispeáin": 5233,
      "chúrsa": 5234,
      "olúb": 5235,
      "Joint": 5236,
      "scaipeadh": 5237,
      "eastát": 5238,
      "Uathoibríoch": 5239,
      "athnuachan": 5240,
      "Céadaoin": 5241,
      "gruaige": 5242,
      "Fheidhmiú": 5243,
      "shanntar": 5244,
      "Déardaoin": 5245,
      "rapóirtéir": 5246,
      "Riail": 5247,
      "Tiocfaidh": 5248,
      "céile": 5249,
      "digiteach": 5250,
      "graí": 5251,
      "mid": 5252,
      "nród": 5253,
      "pó": 5254,
      "prá": 5255,
      "uain": 5256,
      "óstá": 5257,
      "bhadh": 5258,
      "eibh": 5259,
      "táiste": 5260,
      "táscaire": 5261,
      "trún": 5262,
      "fhol": 5263,
      "eartaítear": 5264,
      "oirt": 5265,
      "éireachta": 5266,
      "cuardaigh": 5267,
      "sha": 5268,
      "osaigh": 5269,
      "eagla": 5270,
      "comhshocra": 5271,
      "1927": 5272,
      "Tábla": 5273,
      "oimre": 5274,
      "álann": 5275,
      "raitic": 5276,
      "mothú": 5277,
      "aturna": 5278,
      "feidhmiúcháin": 5279,
      "líomh": 5280,
      "tagartha": 5281,
      "bhuiséad": 5282,
      "laghdaithe": 5283,
      "Saoire": 5284,
      "ghníomhaire": 5285,
      "raing": 5286,
      "Tugtar": 5287,
      "eolaíoch": 5288,
      "Super": 5289,
      "éideartha": 5290,
      "infheistíochtaí": 5291,
      "snáith": 5292,
      "dhlíth": 5293,
      "ordófar": 5294,
      "Taispeán": 5295,
      "iliúradh": 5296,
      "Aoine": 5297,
      "prionsabal": 5298,
      "speicis": 5299,
      "chaipiteal": 5300,
      "próiseála": 5301,
      "chlúdach": 5302,
      "ionannas": 5303,
      "Ghearmáin": 5304,
      "aturnae": 5305,
      "56": 5306,
      "Am": 5307,
      "Bill": 5308,
      "Col": 5309,
      "Las": 5310,
      "Mag": 5311,
      "Rinneadh": 5312,
      "ber": 5313,
      "blic": 5314,
      "custaiméirí": 5315,
      "héifeachtach": 5316,
      "ió": 5317,
      "iPhone": 5318,
      "paisinéirí": 5319,
      "síonn": 5320,
      "aibhr": 5321,
      "inchurtha": 5322,
      "debate": 5323,
      "ration": 5324,
      "scail": 5325,
      "gcead": 5326,
      "gcaitheamh": 5327,
      "ionchúiseamh": 5328,
      "Chaibidil": 5329,
      "ealaigh": 5330,
      "phland": 5331,
      "coda": 5332,
      "cothabháil": 5333,
      "leathair": 5334,
      "úsáidfear": 5335,
      "Bhun": 5336,
      "iarrfaidh": 5337,
      "ogle": 5338,
      "dtagann": 5339,
      "aicmí": 5340,
      "íomhá": 5341,
      "gné": 5342,
      "fágtha": 5343,
      "tábhacht": 5344,
      "dhearadh": 5345,
      "Gníomhaireachta": 5346,
      "mBan": 5347,
      "Dearadh": 5348,
      "voltas": 5349,
      "laethúil": 5350,
      "siopaí": 5351,
      "caipitiúil": 5352,
      "Bank": 5353,
      "Diam": 5354,
      "FÁS": 5355,
      "HO": 5356,
      "Mon": 5357,
      "PE": 5358,
      "Pol": 5359,
      "Rann": 5360,
      "UR": 5361,
      "bru": 5362,
      "buidéal": 5363,
      "cine": 5364,
      "cló": 5365,
      "gre": 5366,
      "himthosca": 5367,
      "seas": 5368,
      "tOireachtas": 5369,
      "Ár": 5370,
      "Ós": 5371,
      "chaill": 5372,
      "thaisc": 5373,
      "leann": 5374,
      "onna": 5375,
      "fheic": 5376,
      "aonaid": 5377,
      "cuibhe": 5378,
      "shlán": 5379,
      "rent": 5380,
      "Cheann": 5381,
      "und": 5382,
      "luacha": 5383,
      "caomh": 5384,
      "eoil": 5385,
      "forlíon": 5386,
      "lárnach": 5387,
      "fhorchur": 5388,
      "fhorghníomhú": 5389,
      "Comp": 5390,
      "chúiteamh": 5391,
      "rialaitheoir": 5392,
      "Cumarsáide": 5393,
      "teachín": 5394,
      "Oifigeach": 5395,
      "1939": 5396,
      "domhanda": 5397,
      "cheadúnais": 5398,
      "vótaí": 5399,
      "scoláir": 5400,
      "1946": 5401,
      "cothroma": 5402,
      "Cliceáil": 5403,
      "shealbhóir": 5404,
      "Dubh": 5405,
      "glasraí": 5406,
      "eimice": 5407,
      "coiriúla": 5408,
      "cliceáil": 5409,
      "tuigthe": 5410,
      "versity": 5411,
      "Limist": 5412,
      "43": 5413,
      "69": 5414,
      "7ú": 5415,
      "95": 5416,
      "Bí": 5417,
      "Coimisinéir": 5418,
      "FE": 5419,
      "Fir": 5420,
      "GO": 5421,
      "Oidh": 5422,
      "Sna": 5423,
      "lch": 5424,
      "ping": 5425,
      "tófar": 5426,
      "chn": 5427,
      "chabh": 5428,
      "chustaiméirí": 5429,
      "chríche": 5430,
      "antóir": 5431,
      "inarb": 5432,
      "bhach": 5433,
      "ileach": 5434,
      "chuair": 5435,
      "rat": 5436,
      "tál": 5437,
      "fhíorú": 5438,
      "saoirse": 5439,
      "aontaithe": 5440,
      "cumarsáide": 5441,
      "iall": 5442,
      "Chú": 5443,
      "ithneacht": 5444,
      "margaidh": 5445,
      "sona": 5446,
      "ártaí": 5447,
      "lotnaid": 5448,
      "Coláiste": 5449,
      "tseachtain": 5450,
      "saoránach": 5451,
      "Déantóirí": 5452,
      "meastóireacht": 5453,
      "mheastar": 5454,
      "Roghn": 5455,
      "sainráite": 5456,
      "saincheisteanna": 5457,
      "díoltóir": 5458,
      "ócáid": 5459,
      "ceanglas": 5460,
      "gcuirfí": 5461,
      "dhíobh": 5462,
      "pointí": 5463,
      "dhóigh": 5464,
      "Seirbhís": 5465,
      "Spá": 5466,
      "Tagann": 5467,
      "deigh": 5468,
      "stórála": 5469,
      "brabús": 5470,
      "gcomhlíonann": 5471,
      "Léiríonn": 5472,
      "Rátaí": 5473,
      "dhiúltú": 5474,
      "daonna": 5475,
      "tuigfear": 5476,
      "gheimhreadh": 5477,
      "allmhairiú": 5478,
      "fógraí": 5479,
      "dhualgas": 5480,
      "Cainteoir": 5481,
      "Fhrainc": 5482,
      "AT": 5483,
      "Cás": 5484,
      "Caipit": 5485,
      "DF": 5486,
      "Eas": 5487,
      "Eile": 5488,
      "Sk": 5489,
      "bor": 5490,
      "bealaí": 5491,
      "clu": 5492,
      "gram": 5493,
      "mú": 5494,
      "mus": 5495,
      "réad": 5496,
      "reas": 5497,
      "sy": 5498,
      "sor": 5499,
      "ubh": 5500,
      "ÓN": 5501,
      "arach": 5502,
      "theagh": 5503,
      "mhais": 5504,
      "bháis": 5505,
      "teir": 5506,
      "ghl": 5507,
      "aingt": 5508,
      "scill": 5509,
      "éip": 5510,
      "oiriúil": 5511,
      "amharc": 5512,
      "eachtan": 5513,
      "olog": 5514,
      "mblian": 5515,
      "iompor": 5516,
      "dtír": 5517,
      "caíochtaí": 5518,
      "oinsí": 5519,
      "gCOMH": 5520,
      "tachtaí": 5521,
      "nuála": 5522,
      "tráchta": 5523,
      "pen": 5524,
      "leagar": 5525,
      "rialtas": 5526,
      "mheasann": 5527,
      "mheasfaidh": 5528,
      "teachtaireacht": 5529,
      "foirceannadh": 5530,
      "chumais": 5531,
      "thorthaí": 5532,
      "1990": 5533,
      "uasta": 5534,
      "príomha": 5535,
      "mhúinte": 5536,
      "árachas": 5537,
      "aillteanas": 5538,
      "ghné": 5539,
      "sealbhóirí": 5540,
      "chorpraithe": 5541,
      "Stat": 5542,
      "fhostú": 5543,
      "soláthróirí": 5544,
      "airteagal": 5545,
      "thurus": 5546,
      "tírdhreach": 5547,
      "Roghnaigh": 5548,
      "53": 5549,
      "89": 5550,
      "Ama": 5551,
      "BE": 5552,
      "Bíonn": 5553,
      "Bog": 5554,
      "CN": 5555,
      "Céim": 5556,
      "FC": 5557,
      "Fe": 5558,
      "Gnáth": 5559,
      "Health": 5560,
      "Oil": 5561,
      "Post": 5562,
      "Riar": 5563,
      "Teacht": 5564,
      "Tuairimí": 5565,
      "app": 5566,
      "fú": 5567,
      "fomhír": 5568,
      "grúpaí": 5569,
      "mur": 5570,
      "páirteanna": 5571,
      "ster": 5572,
      "vi": 5573,
      "chine": 5574,
      "thóra": 5575,
      "thuairim": 5576,
      "irc": 5577,
      "lenár": 5578,
      "ghalar": 5579,
      "ghaol": 5580,
      "treal": 5581,
      "éich": 5582,
      "éiríonn": 5583,
      "shín": 5584,
      "imirce": 5585,
      "stu": 5586,
      "dtogh": 5587,
      "álfaidh": 5588,
      "tube": 5589,
      "tograí": 5590,
      "sonrófar": 5591,
      "chomaoin": 5592,
      "ordachán": 5593,
      "ríomhphoist": 5594,
      "neamhch": 5595,
      "eisíodh": 5596,
      "ileog": 5597,
      "mheasfar": 5598,
      "rioscaí": 5599,
      "ghníomhach": 5600,
      "láithreáin": 5601,
      "scrúdaithe": 5602,
      "bhforas": 5603,
      "oibreoidh": 5604,
      "próiseáil": 5605,
      "Google": 5606,
      "dathanna": 5607,
      "cabhair": 5608,
      "éifeachtacht": 5609,
      "House": 5610,
      "ADH": 5611,
      "folctha": 5612,
      "rannpháirteach": 5613,
      "siopa": 5614,
      "Iompar": 5615,
      "ceard": 5616,
      "catagóirí": 5617,
      "Mheiriceá": 5618,
      "loingseo": 5619,
      "Diamond": 5620,
      "51": 5621,
      "AM": 5622,
      "ATH": 5623,
      "Cóir": 5624,
      "Cinneadh": 5625,
      "Ciallaíonn": 5626,
      "Frith": 5627,
      "Frain": 5628,
      "GE": 5629,
      "Gr": 5630,
      "Lig": 5631,
      "Nós": 5632,
      "Ri": 5633,
      "Ser": 5634,
      "Sábháil": 5635,
      "Sainmhíniú": 5636,
      "coibh": 5637,
      "dis": 5638,
      "deal": 5639,
      "faise": 5640,
      "hoibleagáidí": 5641,
      "ience": 5642,
      "just": 5643,
      "pósta": 5644,
      "sk": 5645,
      "tle": 5646,
      "video": 5647,
      "ÁIR": 5648,
      "áistiú": 5649,
      "dheimh": 5650,
      "naíochta": 5651,
      "isín": 5652,
      "airíonna": 5653,
      "deiseanna": 5654,
      "deoch": 5655,
      "fhó": 5656,
      "fhear": 5657,
      "fhostaíocht": 5658,
      "bhfostaíocht": 5659,
      "ionsaí": 5660,
      "she": 5661,
      "reilig": 5662,
      "liam": 5663,
      "istithe": 5664,
      "olc": 5665,
      "rúnaí": 5666,
      "dúbailte": 5667,
      "1925": 5668,
      "gcomhpháirt": 5669,
      "Arm": 5670,
      "ardaithe": 5671,
      "fholaíonn": 5672,
      "moladh": 5673,
      "dearmad": 5674,
      "táirg": 5675,
      "Éire": 5676,
      "ailliú": 5677,
      "gnimh": 5678,
      "cáilíocht": 5679,
      "riachtanacha": 5680,
      "eolaíocht": 5681,
      "chruinnithe": 5682,
      "1994": 5683,
      "ceangal": 5684,
      "saothrú": 5685,
      "leictreachais": 5686,
      "Corparáide": 5687,
      "kara": 5688,
      "Gníomhaíochta": 5689,
      "ailiúchán": 5690,
      "tiomána": 5691,
      "gearán": 5692,
      "táiniam": 5693,
      "smacht": 5694,
      "aidrimh": 5695,
      "samplaí": 5696,
      "Irish": 5697,
      "gComhphobal": 5698,
      "bronntanas": 5699,
      "tarraingthe": 5700,
      "alúmanam": 5701,
      "Eacnamaíoch": 5702,
      "ÍOCHTA": 5703,
      "rolla": 5704,
      "Apple": 5705,
      "muinín": 5706,
      "CÚ": 5707,
      "FOR": 5708,
      "ITH": 5709,
      "Lio": 5710,
      "No": 5711,
      "Pe": 5712,
      "Pos": 5713,
      "Sain": 5714,
      "TAIS": 5715,
      "aeir": 5716,
      "bíodh": 5717,
      "ci": 5718,
      "dl": 5719,
      "daltaí": 5720,
      "flash": 5721,
      "ros": 5722,
      "soic": 5723,
      "tóra": 5724,
      "vis": 5725,
      "inbhuan": 5726,
      "bheir": 5727,
      "ghearr": 5728,
      "chuibh": 5729,
      "tábla": 5730,
      "scór": 5731,
      "gcúirt": 5732,
      "shóisialta": 5733,
      "ces": 5734,
      "easpa": 5735,
      "séala": 5736,
      "ioma": 5737,
      "ical": 5738,
      "choda": 5739,
      "fhorordaithe": 5740,
      "Thuaidh": 5741,
      "iarrachtaí": 5742,
      "seachad": 5743,
      "ngnáth": 5744,
      "díolacháin": 5745,
      "Sho": 5746,
      "Shan": 5747,
      "1960": 5748,
      "carr": 5749,
      "ceangailte": 5750,
      "gcuirfidh": 5751,
      "riaradh": 5752,
      "Críoch": 5753,
      "rannpháirtíocht": 5754,
      "sholáthraíonn": 5755,
      "Commission": 5756,
      "fhágann": 5757,
      "roich": 5758,
      "Ghael": 5759,
      "choigeartú": 5760,
      "caoga": 5761,
      "99": 5762,
      "Bur": 5763,
      "Bia": 5764,
      "Bardas": 5765,
      "Fostaíochta": 5766,
      "Oile": 5767,
      "Oiliú": 5768,
      "Ríomh": 5769,
      "SI": 5770,
      "TO": 5771,
      "XX": 5772,
      "caid": 5773,
      "fáis": 5774,
      "féideartha": 5775,
      "lte": 5776,
      "maireach": 5777,
      "nscail": 5778,
      "vitim": 5779,
      "Íos": 5780,
      "inge": 5781,
      "mhoill": 5782,
      "lear": 5783,
      "deanna": 5784,
      "fhan": 5785,
      "ineann": 5786,
      "ceoil": 5787,
      "cess": 5788,
      "Cha": 5789,
      "aighdiú": 5790,
      "phac": 5791,
      "comhshaoil": 5792,
      "comhdhéanta": 5793,
      "athchomharc": 5794,
      "aitheacha": 5795,
      "cré": 5796,
      "creat": 5797,
      "rialáil": 5798,
      "baol": 5799,
      "AID": 5800,
      "mheasúnaithe": 5801,
      "saineolaithe": 5802,
      "gnóthas": 5803,
      "tSeirbhís": 5804,
      "Tuarascálacha": 5805,
      "1972": 5806,
      "fág": 5807,
      "thréimh": 5808,
      "cóireála": 5809,
      "nádúr": 5810,
      "Cluiche": 5811,
      "gearrth": 5812,
      "smaointe": 5813,
      "gluaiste": 5814,
      "droch": 5815,
      "gairmiúla": 5816,
      "IÚN": 5817,
      "sreabhadh": 5818,
      "Tabharfar": 5819,
      "bunúsach": 5820,
      "speiceas": 5821,
      "innealra": 5822,
      "CFAE": 5823,
      "dhílse": 5824,
      "miotail": 5825,
      "Ilghnéitheacha": 5826,
      "University": 5827,
      "63": 5828,
      "77": 5829,
      "Bán": 5830,
      "Cro": 5831,
      "Mion": 5832,
      "We": 5833,
      "beirt": 5834,
      "cairde": 5835,
      "cathrach": 5836,
      "fórsaí": 5837,
      "gúna": 5838,
      "ks": 5839,
      "léad": 5840,
      "prátaí": 5841,
      "pobail": 5842,
      "páipéir": 5843,
      "sruth": 5844,
      "chadh": 5845,
      "theastaíonn": 5846,
      "dha": 5847,
      "mhó": 5848,
      "achmair": 5849,
      "iúna": 5850,
      "ghéilleadh": 5851,
      "nóta": 5852,
      "nótaí": 5853,
      "rab": 5854,
      "aisghabháil": 5855,
      "tran": 5856,
      "éige": 5857,
      "chuntais": 5858,
      "Chor": 5859,
      "igiú": 5860,
      "iarmhar": 5861,
      "uaireadóirí": 5862,
      "cothabhála": 5863,
      "cráin": 5864,
      "crainn": 5865,
      "forleathan": 5866,
      "gurbh": 5867,
      "úsáideadh": 5868,
      "ally": 5869,
      "gcomhthéacs": 5870,
      "mp3": 5871,
      "mícheart": 5872,
      "Comhair": 5873,
      "aiceach": 5874,
      "mhíchumas": 5875,
      "Shaor": 5876,
      "mhaoir": 5877,
      "bhforálacha": 5878,
      "ealaíne": 5879,
      "breithiúnas": 5880,
      "ullmh": 5881,
      "1988": 5882,
      "nascadh": 5883,
      "Lucht": 5884,
      "Trádála": 5885,
      "casta": 5886,
      "fuinneamh": 5887,
      "iomlána": 5888,
      "fhaightear": 5889,
      "deonaíodh": 5890,
      "pacáiste": 5891,
      "resist": 5892,
      "pionóis": 5893,
      "Iarratais": 5894,
      "ghrádú": 5895,
      "shaothrú": 5896,
      "trádmharc": 5897,
      "tsamhraidh": 5898,
      "eisceacht": 5899,
      "bpróiseas": 5900,
      "52": 5901,
      "64": 5902,
      "93": 5903,
      "Cabh": 5904,
      "Cúl": 5905,
      "Díol": 5906,
      "Dúin": 5907,
      "Feidhmeanna": 5908,
      "Her": 5909,
      "Meirice": 5910,
      "Ré": 5911,
      "SP": 5912,
      "Sao": 5913,
      "lt": 5914,
      "raid": 5915,
      "staí": 5916,
      "vo": 5917,
      "ze": 5918,
      "Úcráin": 5919,
      "aipe": 5920,
      "arthas": 5921,
      "théarmaí": 5922,
      "mhuir": 5923,
      "national": 5924,
      "bhaill": 5925,
      "íosp": 5926,
      "airlea": 5927,
      "des": 5928,
      "ghá": 5929,
      "innill": 5930,
      "éidear": 5931,
      "bhfógra": 5932,
      "ionfhabh": 5933,
      "cuain": 5934,
      "shíniú": 5935,
      "its": 5936,
      "ásach": 5937,
      "roth": 5938,
      "dtionsc": 5939,
      "cap": 5940,
      "ónta": 5941,
      "leithead": 5942,
      "dóich": 5943,
      "tugtar": 5944,
      "Bhreith": 5945,
      "gcomhlíonadh": 5946,
      "eimhl": 5947,
      "choisc": 5948,
      "ings": 5949,
      "mórtas": 5950,
      "gréine": 5951,
      "bpobal": 5952,
      "Comhshaoil": 5953,
      "Mhaigh": 5954,
      "gnóchain": 5955,
      "díbhinn": 5956,
      "aoiseach": 5957,
      "Cultú": 5958,
      "oiciméad": 5959,
      "1961": 5960,
      "1937": 5961,
      "speisial": 5962,
      "fhoirgneamh": 5963,
      "breitheamh": 5964,
      "uathúil": 5965,
      "Orduithe": 5966,
      "Clibeanna": 5967,
      "costaisí": 5968,
      "Soláthraíonn": 5969,
      "chríochnú": 5970,
      "fóin": 5971,
      "sholáthróidh": 5972,
      "cuimilte": 5973,
      "feabhsú": 5974,
      "Aistr": 5975,
      "timpeallacht": 5976,
      "Measfar": 5977,
      "orainneacha": 5978,
      "gcúrsa": 5979,
      "bhfoireann": 5980,
      "Breataine": 5981,
      "RIALACH": 5982,
      "gcoinnibh": 5983,
      "Áiritheoidh": 5984,
      "ilvéise": 5985,
      "Ráiteas": 5986,
      "Cean": 5987,
      "Cumann": 5988,
      "FI": 5989,
      "HE": 5990,
      "SS": 5991,
      "Teag": 5992,
      "Turas": 5993,
      "caigh": 5994,
      "cleith": 5995,
      "foinse": 5996,
      "faimid": 5997,
      "fíorú": 5998,
      "hathruithe": 5999,
      "line": 6000,
      "mála": 6001,
      "measa": 6002,
      "naitheach": 6003,
      "príobháid": 6004,
      "sitheach": 6005,
      "zon": 6006,
      "Éig": 6007,
      "ary": 6008,
      "inár": 6009,
      "dho": 6010,
      "tasc": 6011,
      "íortha": 6012,
      "iúlacht": 6013,
      "chultú": 6014,
      "sen": 6015,
      "fhéach": 6016,
      "fhiach": 6017,
      "fhostóir": 6018,
      "sine": 6019,
      "scáil": 6020,
      "éadan": 6021,
      "reis": 6022,
      "áirc": 6023,
      "mbail": 6024,
      "rúnd": 6025,
      "comhiomlán": 6026,
      "iarmh": 6027,
      "soghluaiste": 6028,
      "bró": 6029,
      "foras": 6030,
      "móide": 6031,
      "bhriseadh": 6032,
      "úsáideach": 6033,
      "iber": 6034,
      "chothú": 6035,
      "oibríochta": 6036,
      "saoránaigh": 6037,
      "gníomhaire": 6038,
      "seirbhíseach": 6039,
      "nasta": 6040,
      "current": 6041,
      "ngabh": 6042,
      "éifeachtúlacht": 6043,
      "gnóchan": 6044,
      "1978": 6045,
      "Ceang": 6046,
      "trasteorann": 6047,
      "Sula": 6048,
      "thaispeán": 6049,
      "dhíth": 6050,
      "teaghais": 6051,
      "insint": 6052,
      "bóin": 6053,
      "snámha": 6054,
      "hEilvéise": 6055,
      "clúdach": 6056,
      "fhuinn": 6057,
      "theorann": 6058,
      "Gairmiúla": 6059,
      "dheonadh": 6060,
      "seiceálacha": 6061,
      "Oiliúna": 6062,
      "07": 6063,
      "Dún": 6064,
      "Digiteach": 6065,
      "Gin": 6066,
      "fl": 6067,
      "fian": 6068,
      "hiarratas": 6069,
      "ital": 6070,
      "lóg": 6071,
      "naisc": 6072,
      "siúil": 6073,
      "sage": 6074,
      "tiarna": 6075,
      "ue": 6076,
      "Ão": 6077,
      "Éil": 6078,
      "óspidéil": 6079,
      "chustaim": 6080,
      "mhic": 6081,
      "bhfa": 6082,
      "eideann": 6083,
      "triom": 6084,
      "fhi": 6085,
      "fhrith": 6086,
      "iotal": 6087,
      "iomarc": 6088,
      "cebook": 6089,
      "easpor": 6090,
      "ailse": 6091,
      "dent": 6092,
      "maraon": 6093,
      "náis": 6094,
      "mber": 6095,
      "med": 6096,
      "luí": 6097,
      "pho": 6098,
      "phá": 6099,
      "phríobháideach": 6100,
      "éisc": 6101,
      "dtuairim": 6102,
      "bróga": 6103,
      "taisc": 6104,
      "Andro": 6105,
      "Ankara": 6106,
      "leanann": 6107,
      "tharm": 6108,
      "cúirt": 6109,
      "teagaisc": 6110,
      "dóiteáin": 6111,
      "tuaithe": 6112,
      "tionchair": 6113,
      "ibheacha": 6114,
      "folamh": 6115,
      "oifigiúla": 6116,
      "Phoiblí": 6117,
      "CHE": 6118,
      "Rialacha": 6119,
      "leasaithe": 6120,
      "Inc": 6121,
      "feidhmíochta": 6122,
      "roghnaigh": 6123,
      "shonróidh": 6124,
      "bainte": 6125,
      "chostais": 6126,
      "Conradh": 6127,
      "gcuireann": 6128,
      "mianraí": 6129,
      "raitheach": 6130,
      "Náisiún": 6131,
      "Breitheamh": 6132,
      "TIÚ": 6133,
      "Cosaint": 6134,
      "cking": 6135,
      "corparáide": 6136,
      "Leictr": 6137,
      "foirmeacha": 6138,
      "bándearg": 6139,
      "dhlíthe": 6140,
      "cruinneas": 6141,
      "eilim": 6142,
      "Domhanda": 6143,
      "gceangal": 6144,
      "druga": 6145,
      "Limited": 6146,
      "Teicneolaíocht": 6147,
      "uirbhé": 6148,
      "nuashonrú": 6149,
      "chlib": 6150,
      "tháirgtear": 6151,
      "gCOMHAIRLE": 6152,
      "120": 6153,
      "78": 6154,
      "Aim": 6155,
      "CL": 6156,
      "CM": 6157,
      "Clo": 6158,
      "EM": 6159,
      "Pad": 6160,
      "Páirtí": 6161,
      "bas": 6162,
      "cist": 6163,
      "ero": 6164,
      "gain": 6165,
      "hum": 6166,
      "huathoibríoch": 6167,
      "meicniúil": 6168,
      "morgáiste": 6169,
      "onadh": 6170,
      "só": 6171,
      "uig": 6172,
      "ven": 6173,
      "wh": 6174,
      "óthar": 6175,
      "iniciúil": 6176,
      "mhún": 6177,
      "bhás": 6178,
      "eitr": 6179,
      "ded": 6180,
      "láin": 6181,
      "inné": 6182,
      "gceap": 6183,
      "ionn": 6184,
      "China": 6185,
      "mbaol": 6186,
      "bhfuiltear": 6187,
      "ealladh": 6188,
      "bhartha": 6189,
      "oimirce": 6190,
      "gClár": 6191,
      "bhrán": 6192,
      "nuacht": 6193,
      "neamhní": 6194,
      "oibriúcháin": 6195,
      "raig": 6196,
      "raiceann": 6197,
      "Thrá": 6198,
      "siúcra": 6199,
      "chaomhnú": 6200,
      "inter": 6201,
      "bhunús": 6202,
      "cheanntar": 6203,
      "cheanntair": 6204,
      "teachtaireachtaí": 6205,
      "gnóthais": 6206,
      "fier": 6207,
      "féachana": 6208,
      "1934": 6209,
      "Fómh": 6210,
      "dtugann": 6211,
      "Cuideachta": 6212,
      "daingean": 6213,
      "aráideach": 6214,
      "ghluaiseacht": 6215,
      "iontaobhaithe": 6216,
      "tomhalt": 6217,
      "deacr": 6218,
      "scéalta": 6219,
      "cheantair": 6220,
      "teicneolaíochta": 6221,
      "cainéil": 6222,
      "Inneal": 6223,
      "tromchúiseach": 6224,
      "Eochair": 6225,
      "thaifeadadh": 6226,
      "cruthúnas": 6227,
      "gCoiste": 6228,
      "lonnaithe": 6229,
      "liament": 6230,
      "Android": 6231,
      "08": 6232,
      "Af": 6233,
      "Dó": 6234,
      "IAR": 6235,
      "Modh": 6236,
      "Osc": 6237,
      "Pobail": 6238,
      "PDF": 6239,
      "Síne": 6240,
      "Solas": 6241,
      "TM": 6242,
      "Zhong": 6243,
      "eintit": 6244,
      "fid": 6245,
      "gint": 6246,
      "lta": 6247,
      "lios": 6248,
      "malar": 6249,
      "oth": 6250,
      "out": 6251,
      "pea": 6252,
      "pait": 6253,
      "saithe": 6254,
      "intear": 6255,
      "thuil": 6256,
      "thacha": 6257,
      "dheisiú": 6258,
      "bhF": 6259,
      "bhosca": 6260,
      "len": 6261,
      "isí": 6262,
      "achar": 6263,
      "ortha": 6264,
      "astu": 6265,
      "ladach": 6266,
      "nóna": 6267,
      "rad": 6268,
      "ionsú": 6269,
      "éireoidh": 6270,
      "lie": 6271,
      "intíochta": 6272,
      "dtéarmaí": 6273,
      "geog": 6274,
      "taisce": 6275,
      "údaruithe": 6276,
      "gCon": 6277,
      "tosaíochta": 6278,
      "gcomhaltaí": 6279,
      "úirteanna": 6280,
      "ionadaíocht": 6281,
      "bliantúla": 6282,
      "Scileanna": 6283,
      "nglacadh": 6284,
      "charm": 6285,
      "contúirt": 6286,
      "bhfocal": 6287,
      "pháirteach": 6288,
      "mhairc": 6289,
      "gcoinníollacha": 6290,
      "Ioncuim": 6291,
      "úinéirí": 6292,
      "Tuaithe": 6293,
      "oibreoirí": 6294,
      "aigéad": 6295,
      "inniúlacht": 6296,
      "iorad": 6297,
      "luchtaigh": 6298,
      "1980": 6299,
      "tógadh": 6300,
      "feiste": 6301,
      "tábhachtaí": 6302,
      "Oireachtais": 6303,
      "teaghrán": 6304,
      "Cosúil": 6305,
      "tuairiscí": 6306,
      "Imeachta": 6307,
      "díospóid": 6308,
      "clárúcháin": 6309,
      "Fhorbairt": 6310,
      "tweet": 6311,
      "scaradh": 6312,
      "gaolmhara": 6313,
      "Réigiún": 6314,
      "sheasmhach": 6315,
      "International": 6316,
      "socraithe": 6317,
      "litreacha": 6318,
      "clasaiceach": 6319,
      "haischlib": 6320,
      "phlandáil": 6321,
      "Spáinn": 6322,
      "ZhongShan": 6323,
      "61": 6324,
      "72": 6325,
      "Cal": 6326,
      "Cún": 6327,
      "Caighdeán": 6328,
      "Each": 6329,
      "Iniú": 6330,
      "NE": 6331,
      "Obair": 6332,
      "RÉ": 6333,
      "Trealamh": 6334,
      "Uir": 6335,
      "Win": 6336,
      "bus": 6337,
      "billiún": 6338,
      "flu": 6339,
      "faisin": 6340,
      "gnách": 6341,
      "hOifig": 6342,
      "mraí": 6343,
      "sliocht": 6344,
      "snasta": 6345,
      "tinn": 6346,
      "toirmisc": 6347,
      "ÉAD": 6348,
      "chra": 6349,
      "thriail": 6350,
      "mhuirir": 6351,
      "iseach": 6352,
      "eiceann": 6353,
      "dean": 6354,
      "aisling": 6355,
      "aisghairtear": 6356,
      "adóireachta": 6357,
      "gcaoi": 6358,
      "eard": 6359,
      "dochair": 6360,
      "aontuithe": 6361,
      "ition": 6362,
      "amanna": 6363,
      "unda": 6364,
      "órsa": 6365,
      "dúnta": 6366,
      "stí": 6367,
      "déanann": 6368,
      "socra": 6369,
      "uairisce": 6370,
      "athchóiriú": 6371,
      "eadrá": 6372,
      "aithne": 6373,
      "cation": 6374,
      "ndíol": 6375,
      "gCaibidil": 6376,
      "dófar": 6377,
      "sítear": 6378,
      "abhta": 6379,
      "liant": 6380,
      "foghlaim": 6381,
      "ascailt": 6382,
      "léirithe": 6383,
      "leasmhara": 6384,
      "onarthach": 6385,
      "rialtais": 6386,
      "meastar": 6387,
      "mharcáil": 6388,
      "bpríomh": 6389,
      "stru": 6390,
      "conartha": 6391,
      "rthóra": 6392,
      "bainistíocht": 6393,
      "suime": 6394,
      "Fuinn": 6395,
      "breá": 6396,
      "ndeon": 6397,
      "1977": 6398,
      "dhíonach": 6399,
      "creidmheas": 6400,
      "creidiúnaithe": 6401,
      "oibríochtúil": 6402,
      "31ú": 6403,
      "Luach": 6404,
      "tuairisciú": 6405,
      "iontaobhas": 6406,
      "suiteáil": 6407,
      "caillteanais": 6408,
      "Úsáide": 6409,
      "chúrsaí": 6410,
      "gealltanas": 6411,
      "ranníocaí": 6412,
      "atagóir": 6413,
      "príosúnacht": 6414,
      "Tairiscint": 6415,
      "dáileog": 6416,
      "soláthróir": 6417,
      "eisteoirí": 6418,
      "ráthaíocht": 6419,
      "Teicneolaíochta": 6420,
      "SOCR": 6421,
      "tocsain": 6422,
      "sneachta": 6423,
      "bhrabúis": 6424,
      "árasán": 6425,
      "Facebook": 6426,
      "scoláirí": 6427,
      "loingseoireachta": 6428,
      "eimhlitheoir": 6429,
      "54": 6430,
      "73": 6431,
      "Bro": 6432,
      "BRE": 6433,
      "Bailiúchán": 6434,
      "Coimeád": 6435,
      "Diú": 6436,
      "Faoin": 6437,
      "MAR": 6438,
      "RT": 6439,
      "Togh": 6440,
      "You": 6441,
      "aquarium": 6442,
      "boscaí": 6443,
      "caidreamh": 6444,
      "deach": 6445,
      "feasta": 6446,
      "ja": 6447,
      "líochta": 6448,
      "more": 6449,
      "neas": 6450,
      "siam": 6451,
      "solúb": 6452,
      "zel": 6453,
      "áb": 6454,
      "chaith": 6455,
      "chíos": 6456,
      "insí": 6457,
      "inghlactha": 6458,
      "mhac": 6459,
      "bhog": 6460,
      "íod": 6461,
      "achoimre": 6462,
      "allamh": 6463,
      "ghu": 6464,
      "bhfuair": 6465,
      "éire": 6466,
      "Charm": 6467,
      "eadhon": 6468,
      "roid": 6469,
      "phlandaí": 6470,
      "phearsa": 6471,
      "idirghabh": 6472,
      "déanach": 6473,
      "cod": 6474,
      "bhronn": 6475,
      "chothrom": 6476,
      "trádálaí": 6477,
      "ríomhaireachta": 6478,
      "roimhráite": 6479,
      "Phró": 6480,
      "Phobail": 6481,
      "eisia": 6482,
      "seachtracha": 6483,
      "crutha": 6484,
      "dearfach": 6485,
      "lasta": 6486,
      "measartha": 6487,
      "pléas": 6488,
      "roghnaíonn": 6489,
      "tagtha": 6490,
      "tráthanna": 6491,
      "mhíre": 6492,
      "chron": 6493,
      "Soláthar": 6494,
      "ASC": 6495,
      "úineadh": 6496,
      "fheidhmithe": 6497,
      "barántas": 6498,
      "THA": 6499,
      "Dhaoine": 6500,
      "Meais": 6501,
      "250": 6502,
      "1932": 6503,
      "1974": 6504,
      "carachtair": 6505,
      "bour": 6506,
      "traenach": 6507,
      "cheadóidh": 6508,
      "comhairliúcháin": 6509,
      "uspóirí": 6510,
      "uimhreacha": 6511,
      "tabhaíodh": 6512,
      "Europol": 6513,
      "cúramach": 6514,
      "Talún": 6515,
      "fíorais": 6516,
      "ders": 6517,
      "iméadar": 6518,
      "thrádáil": 6519,
      "leathanaigh": 6520,
      "thiontú": 6521,
      "ograph": 6522,
      "foilsiú": 6523,
      "scairchaipiteal": 6524,
      "bunúsacha": 6525,
      "gcumh": 6526,
      "foirgnimh": 6527,
      "airteagail": 6528,
      "fulaingt": 6529,
      "idirdhealú": 6530,
      "dlighfear": 6531,
      "Infheistíochta": 6532,
      "ifíl": 6533,
      "resistant": 6534,
      "62": 6535,
      "79": 6536,
      "Adh": 6537,
      "Amer": 6538,
      "Caithfidh": 6539,
      "Dáil": 6540,
      "FA": 6541,
      "GA": 6542,
      "Ge": 6543,
      "Lagh": 6544,
      "bil": 6545,
      "baigh": 6546,
      "baineann": 6547,
      "cith": 6548,
      "hin": 6549,
      "hor": 6550,
      "ix": 6551,
      "ket": 6552,
      "lón": 6553,
      "mon": 6554,
      "malartú": 6555,
      "nia": 6556,
      "ngníomhaíochtaí": 6557,
      "nGníomhaireacht": 6558,
      "nDaonlathaithe": 6559,
      "over": 6560,
      "pt": 6561,
      "pos": 6562,
      "síodh": 6563,
      "tsaoil": 6564,
      "xy": 6565,
      "ÁL": 6566,
      "óta": 6567,
      "chuspóir": 6568,
      "angacha": 6569,
      "arraige": 6570,
      "théarma": 6571,
      "naoi": 6572,
      "leán": 6573,
      "onnadh": 6574,
      "del": 6575,
      "ains": 6576,
      "nóirí": 6577,
      "aistrí": 6578,
      "tric": 6579,
      "fhír": 6580,
      "gcúis": 6581,
      "gcolún": 6582,
      "éite": 6583,
      "iontáil": 6584,
      "shraith": 6585,
      "Cháin": 6586,
      "órtáil": 6587,
      "idirbhearta": 6588,
      "sochaí": 6589,
      "ici": 6590,
      "chomhlánú": 6591,
      "sular": 6592,
      "leithdháileadh": 6593,
      "ump": 6594,
      "dóidh": 6595,
      "tops": 6596,
      "Aonair": 6597,
      "eisiach": 6598,
      "cóc": 6599,
      "roghnaithe": 6600,
      "llar": 6601,
      "díriú": 6602,
      "lóid": 6603,
      "rthaí": 6604,
      "cheapfar": 6605,
      "aoisliúntais": 6606,
      "bhainte": 6607,
      "bhainisteoir": 6608,
      "infheidhm": 6609,
      "gaíochta": 6610,
      "Tuaisceart": 6611,
      "Dheireadh": 6612,
      "cháilith": 6613,
      "1959": 6614,
      "breithniú": 6615,
      "ullmhaithe": 6616,
      "uathu": 6617,
      "láimhseáil": 6618,
      "Teor": 6619,
      "chumasú": 6620,
      "bóthar": 6621,
      "oinbhin": 6622,
      "Táirge": 6623,
      "voltais": 6624,
      "glacfaidh": 6625,
      "deonadh": 6626,
      "cearnach": 6627,
      "caipitil": 6628,
      "cógas": 6629,
      "Aonad": 6630,
      "atadán": 6631,
      "Glacfaidh": 6632,
      "eastáit": 6633,
      "Public": 6634,
      "dineadh": 6635,
      "raiticiúil": 6636,
      "ology": 6637,
      "faisean": 6638,
      "inbhuanaithe": 6639,
      "03": 6640,
      "300": 6641,
      "83": 6642,
      "CON": 6643,
      "Dír": 6644,
      "Eng": 6645,
      "Fuair": 6646,
      "ILE": 6647,
      "Sam": 6648,
      "Tuairisc": 6649,
      "au": 6650,
      "bí": 6651,
      "céan": 6652,
      "cón": 6653,
      "ciona": 6654,
      "dy": 6655,
      "fer": 6656,
      "feitheamh": 6657,
      "glú": 6658,
      "hy": 6659,
      "héifeachtaí": 6660,
      "hionstraimí": 6661,
      "ier": 6662,
      "léithe": 6663,
      "romh": 6664,
      "reamh": 6665,
      "sl": 6666,
      "sic": 6667,
      "vir": 6668,
      "work": 6669,
      "cheithre": 6670,
      "cheathrú": 6671,
      "inchánach": 6672,
      "mhéide": 6673,
      "bhoird": 6674,
      "bheartais": 6675,
      "bheatha": 6676,
      "airbheart": 6677,
      "ideachais": 6678,
      "lation": 6679,
      "adóireacht": 6680,
      "trialach": 6681,
      "íochán": 6682,
      "scam": 6683,
      "bhfuirm": 6684,
      "cuardach": 6685,
      "sheiceáil": 6686,
      "olais": 6687,
      "mes": 6688,
      "ight": 6689,
      "aithn": 6690,
      "ches": 6691,
      "crio": 6692,
      "crios": 6693,
      "leaba": 6694,
      "nocht": 6695,
      "chuideachtaí": 6696,
      "sper": 6697,
      "stáisiúin": 6698,
      "chodanna": 6699,
      "ardán": 6700,
      "foghla": 6701,
      "ríomhphost": 6702,
      "éagumas": 6703,
      "Tháinig": 6704,
      "leagfar": 6705,
      "iarrann": 6706,
      "iarrtar": 6707,
      "chúiseanna": 6708,
      "Scrú": 6709,
      "plan": 6710,
      "mheasúnacht": 6711,
      "bua": 6712,
      "bhfolach": 6713,
      "mhachtain": 6714,
      "cáilitheach": 6715,
      "tSean": 6716,
      "Rialaithe": 6717,
      "barra": 6718,
      "thagartha": 6719,
      "freagairt": 6720,
      "mionsonraí": 6721,
      "vótála": 6722,
      "ilbhliantúil": 6723,
      "áipéis": 6724,
      "Suíomh": 6725,
      "Teil": 6726,
      "tástálacha": 6727,
      "slándáil": 6728,
      "tiomanta": 6729,
      "stamp": 6730,
      "COMH": 6731,
      "casadh": 6732,
      "rannpháirtithe": 6733,
      "straitéisí": 6734,
      "srl": 6735,
      "Pleanála": 6736,
      "Oibreacha": 6737,
      "síológa": 6738,
      "Eaglais": 6739,
      "drugaí": 6740,
      "fheidhmeannach": 6741,
      "Tríú": 6742,
      "vótaíochta": 6743,
      "fiosrúchán": 6744,
      "tanaí": 6745,
      "thomhas": 6746,
      "chomhlíonann": 6747,
      "dheiridh": 6748,
      "Gaillimhe": 6749,
      "eimiceach": 6750,
      "aerárthach": 6751,
      "ghiniúint": 6752,
      "monatóireacht": 6753,
      "thaisceadh": 6754,
      "Oidhreachta": 6755,
      "StatBank": 6756,
      "Service": 6757,
      "undation": 6758,
      "09": 6759,
      "400": 6760,
      "BL": 6761,
      "Beag": 6762,
      "Lt": 6763,
      "Of": 6764,
      "PO": 6765,
      "Ran": 6766,
      "Slán": 6767,
      "Tiom": 6768,
      "ater": 6769,
      "bear": 6770,
      "cle": 6771,
      "cro": 6772,
      "claoch": 6773,
      "fóir": 6774,
      "facht": 6775,
      "fillte": 6776,
      "gor": 6777,
      "han": 6778,
      "him": 6779,
      "huisce": 6780,
      "híocaíochtaí": 6781,
      "king": 6782,
      "norm": 6783,
      "olaí": 6784,
      "pobal": 6785,
      "ran": 6786,
      "tailte": 6787,
      "uíonn": 6788,
      "vel": 6789,
      "chló": 6790,
      "chroí": 6791,
      "chealú": 6792,
      "chiallaíonn": 6793,
      "nal": 6794,
      "nap": 6795,
      "naíocht": 6796,
      "bhliana": 6797,
      "bheartas": 6798,
      "led": 6799,
      "ild": 6800,
      "achtú": 6801,
      "chucu": 6802,
      "chuardach": 6803,
      "trúin": 6804,
      "gcú": 6805,
      "gcinneadh": 6806,
      "thadh": 6807,
      "bhfr": 6808,
      "iomar": 6809,
      "itheora": 6810,
      "ánaithe": 6811,
      "rel": 6812,
      "Chrío": 6813,
      "Chorp": 6814,
      "eagraithe": 6815,
      "phinsean": 6816,
      "comhlán": 6817,
      "comhpháirteanna": 6818,
      "ighe": 6819,
      "nímh": 6820,
      "ainníocht": 6821,
      "spidéal": 6822,
      "tub": 6823,
      "chomp": 6824,
      "neamhgh": 6825,
      "Coinníollacha": 6826,
      "siúin": 6827,
      "ndéanfadh": 6828,
      "meastachán": 6829,
      "tairbhí": 6830,
      "Rocht": 6831,
      "Comhphobail": 6832,
      "rthála": 6833,
      "fadhb": 6834,
      "Shábháil": 6835,
      "ranníocaíochtaí": 6836,
      "ceadúnaithe": 6837,
      "fice": 6838,
      "LEIS": 6839,
      "chóip": 6840,
      "breosla": 6841,
      "1964": 6842,
      "1931": 6843,
      "1935": 6844,
      "aife": 6845,
      "aistriúchán": 6846,
      "bainteach": 6847,
      "thras": 6848,
      "díobháil": 6849,
      "bPar": 6850,
      "cúraim": 6851,
      "minicíocht": 6852,
      "seachtainiúil": 6853,
      "mhodhnú": 6854,
      "Físeáin": 6855,
      "Strucht": 6856,
      "madra": 6857,
      "gcomhlíonfaidh": 6858,
      "liúchán": 6859,
      "aibhir": 6860,
      "Saorstát": 6861,
      "Foireann": 6862,
      "plátáilte": 6863,
      "aitheantais": 6864,
      "dlíthiúla": 6865,
      "ghinearáltacht": 6866,
      "dorcha": 6867,
      "ceantar": 6868,
      "Críostaí": 6869,
      "Thug": 6870,
      "dílseánach": 6871,
      "Finance": 6872,
      "gcruthófar": 6873,
      "láidre": 6874,
      "tapúla": 6875,
      "untertops": 6876,
      "dhlíthiúil": 6877,
      "Limistéar": 6878,
      "soicind": 6879,
      "cuimilteora": 6880,
      "eitril": 6881,
      "Americ": 6882,
      "oinbhinsiúin": 6883,
      "1A": 6884,
      "Bliana": 6885,
      "Mais": 6886,
      "Seach": 6887,
      "Sche": 6888,
      "Story": 6889,
      "Seapáin": 6890,
      "báis": 6891,
      "cártaí": 6892,
      "doimh": 6893,
      "fío": 6894,
      "fuil": 6895,
      "fráma": 6896,
      "gea": 6897,
      "hiarratais": 6898,
      "ko": 6899,
      "lus": 6900,
      "oinn": 6901,
      "pre": 6902,
      "púdar": 6903,
      "rei": 6904,
      "síniú": 6905,
      "sínithe": 6906,
      "tó": 6907,
      "up": 6908,
      "wer": 6909,
      "ye": 6910,
      "zz": 6911,
      "arbh": 6912,
      "mhalartú": 6913,
      "bhs": 6914,
      "bhealaí": 6915,
      "iséid": 6916,
      "ones": 6917,
      "tent": 6918,
      "chuma": 6919,
      "ainmhí": 6920,
      "lata": 6921,
      "lampa": 6922,
      "troid": 6923,
      "dows": 6924,
      "aonar": 6925,
      "bhfír": 6926,
      "iol": 6927,
      "oiriúint": 6928,
      "tarchur": 6929,
      "lub": 6930,
      "comhachta": 6931,
      "comhlachais": 6932,
      "sty": 6933,
      "strap": 6934,
      "athraithe": 6935,
      "aiméad": 6936,
      "ians": 6937,
      "tom": 6938,
      "sonrú": 6939,
      "ardluais": 6940,
      "gníomhaireachtaí": 6941,
      "eisigh": 6942,
      "iarrthóra": 6943,
      "raitheann": 6944,
      "rialála": 6945,
      "rachais": 6946,
      "lófar": 6947,
      "éifeachtúil": 6948,
      "luachanna": 6949,
      "dícháilithe": 6950,
      "Foras": 6951,
      "infheisteoirí": 6952,
      "eicníocht": 6953,
      "fiáin": 6954,
      "fheidhmíocht": 6955,
      "impeallacht": 6956,
      "ceapfar": 6957,
      "ócmhainn": 6958,
      "Leasuithe": 6959,
      "miondíola": 6960,
      "vótá": 6961,
      "1958": 6962,
      "seirbhísigh": 6963,
      "Port": 6964,
      "1941": 6965,
      "rafach": 6966,
      "reachtach": 6967,
      "diúscartha": 6968,
      "Athrú": 6969,
      "phrionsa": 6970,
      "bogadh": 6971,
      "folún": 6972,
      "iontaobhaí": 6973,
      "tomhas": 6974,
      "tomhais": 6975,
      "Fhorásach": 6976,
      "gairme": 6977,
      "fhreagairt": 6978,
      "iltin": 6979,
      "Leabaigh": 6980,
      "cúltaca": 6981,
      "Acmhainní": 6982,
      "puiblí": 6983,
      "Úsáidtear": 6984,
      "déine": 6985,
      "slabhra": 6986,
      "ligeann": 6987,
      "Gnéas": 6988,
      "Gearmáin": 6989,
      "threorach": 6990,
      "eitilt": 6991,
      "onnmhairiú": 6992,
      "náisiúnaigh": 6993,
      "Sóisialaithe": 6994,
      "tuismitheoir": 6995,
      "séasúr": 6996,
      "neamhdhleathach": 6997,
      "lotnaidí": 6998,
      "tharmligean": 6999,
      "Ltd": 7000,
      "bParliament": 7001,
      "06": 7002,
      "3D": 7003,
      "Amach": 7004,
      "Ceap": 7005,
      "CAI": 7006,
      "Dleacht": 7007,
      "Leath": 7008,
      "Mó": 7009,
      "Méid": 7010,
      "NCA": 7011,
      "Pinsean": 7012,
      "Sil": 7013,
      "Spr": 7014,
      "bio": 7015,
      "béil": 7016,
      "gall": 7017,
      "hu": 7018,
      "hailt": 7019,
      "hachtacháin": 7020,
      "kom": 7021,
      "maille": 7022,
      "neo": 7023,
      "poll": 7024,
      "polasaí": 7025,
      "seasta": 7026,
      "tanna": 7027,
      "val": 7028,
      "vie": 7029,
      "ádh": 7030,
      "ítim": 7031,
      "chón": 7032,
      "cheartú": 7033,
      "info": 7034,
      "theideal": 7035,
      "thoirmeasc": 7036,
      "eatra": 7037,
      "bhag": 7038,
      "bhia": 7039,
      "asach": 7040,
      "aschur": 7041,
      "ainte": 7042,
      "tálacha": 7043,
      "fhaillí": 7044,
      "gceadúnas": 7045,
      "bhfoil": 7046,
      "bhfaisnéis": 7047,
      "bhfomhír": 7048,
      "shéal": 7049,
      "ceir": 7050,
      "imreoir": 7051,
      "nachar": 7052,
      "ailí": 7053,
      "Chur": 7054,
      "Cheap": 7055,
      "Cheartas": 7056,
      "lifier": 7057,
      "mart": 7058,
      "comhordú": 7059,
      "comhoibriú": 7060,
      "iarainn": 7061,
      "intíre": 7062,
      "iciúla": 7063,
      "caíonn": 7064,
      "chomhshó": 7065,
      "formhór": 7066,
      "cúnaimh": 7067,
      "cúitimh": 7068,
      "gcomhaontú": 7069,
      "eirm": 7070,
      "tionó": 7071,
      "fochuideachta": 7072,
      "fhoráiltear": 7073,
      "Thar": 7074,
      "áiritheoidh": 7075,
      "eisiamh": 7076,
      "chúig": 7077,
      "grinn": 7078,
      "mharú": 7079,
      "chóirithe": 7080,
      "Mhí": 7081,
      "tráthnóna": 7082,
      "bainise": 7083,
      "Soláthair": 7084,
      "bhaineas": 7085,
      "oileán": 7086,
      "Ionstr": 7087,
      "Tugadh": 7088,
      "1995": 7089,
      "Chomhaontú": 7090,
      "seans": 7091,
      "1968": 7092,
      "vest": 7093,
      "1971": 7094,
      "iascaireacht": 7095,
      "díolmhaithe": 7096,
      "freagraí": 7097,
      "traein": 7098,
      "Bronn": 7099,
      "samhail": 7100,
      "maidin": 7101,
      "stad": 7102,
      "stampa": 7103,
      "SEAS": 7104,
      "Dearbhuithe": 7105,
      "méadaithe": 7106,
      "dleachtanna": 7107,
      "Leideanna": 7108,
      "Cóipeáil": 7109,
      "éigeantach": 7110,
      "macasamhail": 7111,
      "colún": 7112,
      "daonra": 7113,
      "chailíní": 7114,
      "múinteoir": 7115,
      "bhéarfar": 7116,
      "nglacfaí": 7117,
      "Rúise": 7118,
      "Rúnaí": 7119,
      "cnaipe": 7120,
      "Breath": 7121,
      "theoranta": 7122,
      "ceantair": 7123,
      "Bhainc": 7124,
      "scáileán": 7125,
      "bhannaí": 7126,
      "dhlúite": 7127,
      "Chóiste": 7128,
      "scilling": 7129,
      "trealaimh": 7130,
      "lógó": 7131,
      "infheidhmithe": 7132,
      "NCAA": 7133,
      "130": 7134,
      "5ú": 7135,
      "76": 7136,
      "AB": 7137,
      "CI": 7138,
      "Caibid": 7139,
      "DA": 7140,
      "Dan": 7141,
      "Fad": 7142,
      "Fórsaí": 7143,
      "GB": 7144,
      "IW": 7145,
      "MI": 7146,
      "Mp": 7147,
      "Máirt": 7148,
      "Pre": 7149,
      "Poist": 7150,
      "Tomh": 7151,
      "TAR": 7152,
      "UITHE": 7153,
      "dacha": 7154,
      "dleachta": 7155,
      "droichead": 7156,
      "fli": 7157,
      "glaoch": 7158,
      "hard": 7159,
      "híocaíochta": 7160,
      "hAoine": 7161,
      "list": 7162,
      "málaí": 7163,
      "ous": 7164,
      "pearsa": 7165,
      "rás": 7166,
      "teic": 7167,
      "tOrdú": 7168,
      "uait": 7169,
      "Áise": 7170,
      "thraithe": 7171,
      "theip": 7172,
      "dhaon": 7173,
      "ago": 7174,
      "bheirt": 7175,
      "leide": 7176,
      "lenar": 7177,
      "achas": 7178,
      "aiseach": 7179,
      "aisghairm": 7180,
      "fhéad": 7181,
      "fheiste": 7182,
      "gcaiteachas": 7183,
      "gceantar": 7184,
      "fac": 7185,
      "Chumann": 7186,
      "eagair": 7187,
      "margaí": 7188,
      "mban": 7189,
      "mbar": 7190,
      "mbord": 7191,
      "túisce": 7192,
      "comhch": 7193,
      "iarmhéid": 7194,
      "athanna": 7195,
      "geil": 7196,
      "Bhuir": 7197,
      "Bhóithre": 7198,
      "sonraíocht": 7199,
      "trátha": 7200,
      "fhormheas": 7201,
      "máistir": 7202,
      "thuarascáil": 7203,
      "eisithe": 7204,
      "bhfeidhmiú": 7205,
      "Mhar": 7206,
      "uiscedhíonach": 7207,
      "oft": 7208,
      "1970": 7209,
      "próisis": 7210,
      "oiriúnacht": 7211,
      "USB": 7212,
      "Bainfidh": 7213,
      "toghacháin": 7214,
      "samhlacha": 7215,
      "ullamh": 7216,
      "Tacaíocht": 7217,
      "thrádála": 7218,
      "thionól": 7219,
      "molta": 7220,
      "clog": 7221,
      "comhpháirtithe": 7222,
      "Freagra": 7223,
      "bhóthair": 7224,
      "Bunús": 7225,
      "ballapháipéir": 7226,
      "gceanglaítear": 7227,
      "síneadh": 7228,
      "gcúrsaí": 7229,
      "Maoir": 7230,
      "CBL": 7231,
      "sheolann": 7232,
      "atharú": 7233,
      "mháthair": 7234,
      "uirbeach": 7235,
      "Deontais": 7236,
      "táscairí": 7237,
      "bailiúchán": 7238,
      "Fraince": 7239,
      "cruthaíodh": 7240,
      "criostail": 7241,
      "SEASAMH": 7242,
      "85": 7243,
      "AP": 7244,
      "Cl": 7245,
      "Dr": 7246,
      "EP": 7247,
      "Eit": 7248,
      "Fiú": 7249,
      "Faoiseamh": 7250,
      "He": 7251,
      "IX": 7252,
      "LO": 7253,
      "Liosta": 7254,
      "Príobháid": 7255,
      "Stra": 7256,
      "Téigh": 7257,
      "VII": 7258,
      "báin": 7259,
      "béim": 7260,
      "blo": 7261,
      "cia": 7262,
      "ceimice": 7263,
      "dtabharfaidh": 7264,
      "fin": 7265,
      "gg": 7266,
      "gás": 7267,
      "gro": 7268,
      "hath": 7269,
      "hoibríochtaí": 7270,
      "ianna": 7271,
      "kg": 7272,
      "km": 7273,
      "lainn": 7274,
      "my": 7275,
      "mear": 7276,
      "ny": 7277,
      "téigh": 7278,
      "ves": 7279,
      "víosa": 7280,
      "we": 7281,
      "ÁI": 7282,
      "cháis": 7283,
      "cheachtar": 7284,
      "arán": 7285,
      "mheasc": 7286,
      "íola": 7287,
      "ghrúpaí": 7288,
      "thear": 7289,
      "sceimhlitheoir": 7290,
      "gcroí": 7291,
      "annadh": 7292,
      "shrian": 7293,
      "shibhialta": 7294,
      "ithr": 7295,
      "itheacha": 7296,
      "marbh": 7297,
      "old": 7298,
      "Aireacht": 7299,
      "aíl": 7300,
      "dto": 7301,
      "chomhréir": 7302,
      "eolaí": 7303,
      "coinn": 7304,
      "eartaithe": 7305,
      "acad": 7306,
      "sonraíochtaí": 7307,
      "gcomhalta": 7308,
      "úird": 7309,
      "ped": 7310,
      "Coinn": 7311,
      "thuismitheoirí": 7312,
      "éilítear": 7313,
      "cruithneacht": 7314,
      "eolaire": 7315,
      "ters": 7316,
      "AIGH": 7317,
      "saineolas": 7318,
      "oidhreacht": 7319,
      "pháirtithe": 7320,
      "IDH": 7321,
      "ranníoca": 7322,
      "chónaíonn": 7323,
      "áitreibh": 7324,
      "1962": 7325,
      "iocfadh": 7326,
      "carbóin": 7327,
      "graf": 7328,
      "uasghrádú": 7329,
      "chonaic": 7330,
      "1981": 7331,
      "1989": 7332,
      "Techn": 7333,
      "réigiúnacha": 7334,
      "breiseán": 7335,
      "TIO": 7336,
      "ghnéas": 7337,
      "Athbhreithniú": 7338,
      "Idirlíon": 7339,
      "fómhar": 7340,
      "Catal": 7341,
      "comhtháite": 7342,
      "shainaithint": 7343,
      "grád": 7344,
      "sráid": 7345,
      "Pleanáil": 7346,
      "taifeadadh": 7347,
      "Foirne": 7348,
      "India": 7349,
      "bhallóide": 7350,
      "Tuirce": 7351,
      "ghairme": 7352,
      "cultúrtha": 7353,
      "polaitiúla": 7354,
      "gcinnfidh": 7355,
      "Micros": 7356,
      "tuirling": 7357,
      "sheilbh": 7358,
      "bheirtear": 7359,
      "Bursa": 7360,
      "Eachtracha": 7361,
      "Windows": 7362,
      "foghlama": 7363,
      "claochla": 7364,
      "leideanna": 7365,
      "05": 7366,
      "110": 7367,
      "Aith": 7368,
      "Aic": 7369,
      "Big": 7370,
      "Deimhniú": 7371,
      "Doiciméid": 7372,
      "ETI": 7373,
      "Just": 7374,
      "Múinte": 7375,
      "Pa": 7376,
      "Sy": 7377,
      "Sion": 7378,
      "Stage": 7379,
      "Tástáil": 7380,
      "cairt": 7381,
      "fán": 7382,
      "gam": 7383,
      "hio": 7384,
      "heagraíochtaí": 7385,
      "leacha": 7386,
      "loigh": 7387,
      "morgá": 7388,
      "press": 7389,
      "sráide": 7390,
      "saibhir": 7391,
      "ud": 7392,
      "Ábhair": 7393,
      "chatagóir": 7394,
      "ini": 7395,
      "ince": 7396,
      "thachta": 7397,
      "thástáil": 7398,
      "mheabhair": 7399,
      "bhac": 7400,
      "bheartaítear": 7401,
      "leá": 7402,
      "ustr": 7403,
      "íogair": 7404,
      "ories": 7405,
      "táib": 7406,
      "fhíor": 7407,
      "fhaoiseamh": 7408,
      "saíochtaí": 7409,
      "sciar": 7410,
      "annaí": 7411,
      "cumarsáid": 7412,
      "shlánú": 7413,
      "shannadh": 7414,
      "cer": 7415,
      "mbonn": 7416,
      "luchta": 7417,
      "ruailliú": 7418,
      "get": 7419,
      "caol": 7420,
      "lítear": 7421,
      "coisc": 7422,
      "ndéile": 7423,
      "íocann": 7424,
      "obháid": 7425,
      "Pháirtí": 7426,
      "Phoblacht": 7427,
      "rialaítear": 7428,
      "cóid": 7429,
      "freann": 7430,
      "Comhaontú": 7431,
      "Mhúinte": 7432,
      "bhuail": 7433,
      "pháirtíochta": 7434,
      "réine": 7435,
      "ollscoil": 7436,
      "baineadh": 7437,
      "téarmach": 7438,
      "daíocht": 7439,
      "Naomh": 7440,
      "riarthóir": 7441,
      "1983": 7442,
      "úintí": 7443,
      "1940": 7444,
      "ceannach": 7445,
      "phróisis": 7446,
      "Buan": 7447,
      "Imeachtaí": 7448,
      "Leanúint": 7449,
      "coiriúil": 7450,
      "ualainn": 7451,
      "Cathaoirleach": 7452,
      "iomlánach": 7453,
      "State": 7454,
      "tomhaltóirí": 7455,
      "sláintiúil": 7456,
      "clúdaithe": 7457,
      "clocha": 7458,
      "chumhdach": 7459,
      "aeráide": 7460,
      "pláta": 7461,
      "comhaontaithe": 7462,
      "chuimsiú": 7463,
      "dhúnadh": 7464,
      "Gnéithe": 7465,
      "dhualgais": 7466,
      "thomhaltóirí": 7467,
      "thiomáint": 7468,
      "léarscáil": 7469,
      "Mastur": 7470,
      "trédhearcach": 7471,
      "earnálacha": 7472,
      "iompróir": 7473,
      "Sláintíochta": 7474,
      "astaíochtaí": 7475,
      "deighle": 7476,
      "dealraitheach": 7477,
      "tSeanaid": 7478,
      "ETIAS": 7479,
      "71": 7480,
      "74": 7481,
      "88": 7482,
      "Amp": 7483,
      "BA": 7484,
      "Bas": 7485,
      "Clas": 7486,
      "Coiriúil": 7487,
      "Deal": 7488,
      "Glan": 7489,
      "MO": 7490,
      "Mad": 7491,
      "MAID": 7492,
      "Pla": 7493,
      "Per": 7494,
      "Sco": 7495,
      "Stí": 7496,
      "SIS": 7497,
      "TC": 7498,
      "Uaire": 7499,
      "Word": 7500,
      "WHO": 7501,
      "bl": 7502,
      "beann": 7503,
      "boil": 7504,
      "buille": 7505,
      "caip": 7506,
      "fost": 7507,
      "filleadh": 7508,
      "hairgead": 7509,
      "húsáidtear": 7510,
      "ker": 7511,
      "ni": 7512,
      "páir": 7513,
      "time": 7514,
      "with": 7515,
      "Óga": 7516,
      "áthas": 7517,
      "úile": 7518,
      "chárta": 7519,
      "any": 7520,
      "anal": 7521,
      "thús": 7522,
      "nab": 7523,
      "taíodh": 7524,
      "illí": 7525,
      "íobh": 7526,
      "íosaí": 7527,
      "orld": 7528,
      "gheofar": 7529,
      "chuici": 7530,
      "laíocht": 7531,
      "ramh": 7532,
      "tríocha": 7533,
      "triúr": 7534,
      "bhfeidhmeanna": 7535,
      "ship": 7536,
      "shainmh": 7537,
      "Chearta": 7538,
      "Chathair": 7539,
      "tarchurtha": 7540,
      "phian": 7541,
      "iarnród": 7542,
      "idirlíon": 7543,
      "1929": 7544,
      "stóras": 7545,
      "iomaíocht": 7546,
      "intuig": 7547,
      "dtóg": 7548,
      "darás": 7549,
      "brain": 7550,
      "chomhad": 7551,
      "róm": 7552,
      "ibhléid": 7553,
      "tsraith": 7554,
      "raitheoir": 7555,
      "onarthacha": 7556,
      "ener": 7557,
      "iarratasóra": 7558,
      "measúnacht": 7559,
      "íseachta": 7560,
      "aicm": 7561,
      "arlaiminte": 7562,
      "ette": 7563,
      "eascraíonn": 7564,
      "airdiúil": 7565,
      "láithreacha": 7566,
      "chleachtas": 7567,
      "INE": 7568,
      "Dhá": 7569,
      "ócmhainní": 7570,
      "chonartha": 7571,
      "1950": 7572,
      "1953": 7573,
      "inslithe": 7574,
      "que": 7575,
      "1949": 7576,
      "gabhál": 7577,
      "oibríochtúla": 7578,
      "shealbhóirí": 7579,
      "tiomáint": 7580,
      "fhoirmiú": 7581,
      "bhrath": 7582,
      "chorparáide": 7583,
      "Mona": 7584,
      "thráth": 7585,
      "orgánach": 7586,
      "teilea": 7587,
      "imeád": 7588,
      "Toisc": 7589,
      "Oibríonn": 7590,
      "struchtú": 7591,
      "óilín": 7592,
      "galánta": 7593,
      "einsí": 7594,
      "faireacháin": 7595,
      "leamhn": 7596,
      "eisiúna": 7597,
      "choróin": 7598,
      "catagóir": 7599,
      "ospidéil": 7600,
      "múnla": 7601,
      "luadhfar": 7602,
      "Leithead": 7603,
      "fheicthe": 7604,
      "iarmhairtí": 7605,
      "gaineamh": 7606,
      "tomhaltóir": 7607,
      "Eochairfhocal": 7608,
      "ábalta": 7609,
      "sperm": 7610,
      "intuigthe": 7611,
      "600": 7612,
      "94": 7613,
      "At": 7614,
      "AON": 7615,
      "Amharc": 7616,
      "Blac": 7617,
      "Dis": 7618,
      "DFómh": 7619,
      "Fáilte": 7620,
      "Ias": 7621,
      "Mná": 7622,
      "RC": 7623,
      "SIN": 7624,
      "Tithe": 7625,
      "bach": 7626,
      "cin": 7627,
      "caill": 7628,
      "cíosa": 7629,
      "dair": 7630,
      "gaile": 7631,
      "hid": 7632,
      "hábhar": 7633,
      "hinstitiúidí": 7634,
      "míoch": 7635,
      "nic": 7636,
      "olacháin": 7637,
      "ple": 7638,
      "part": 7639,
      "saghas": 7640,
      "soith": 7641,
      "toimh": 7642,
      "úra": 7643,
      "chúirte": 7644,
      "chineálacha": 7645,
      "antas": 7646,
      "ansan": 7647,
      "inst": 7648,
      "dhru": 7649,
      "onta": 7650,
      "alaithe": 7651,
      "aisteach": 7652,
      "admháil": 7653,
      "scua": 7654,
      "iog": 7655,
      "cup": 7656,
      "cuair": 7657,
      "óireachtaí": 7658,
      "ailléir": 7659,
      "ducation": 7660,
      "amaí": 7661,
      "mbers": 7662,
      "dátaí": 7663,
      "dúl": 7664,
      "comhla": 7665,
      "1930": 7666,
      "iomad": 7667,
      "aithfear": 7668,
      "caora": 7669,
      "chomhartha": 7670,
      "rálta": 7671,
      "suib": 7672,
      "form": 7673,
      "iang": 7674,
      "lánaimseartha": 7675,
      "tob": 7676,
      "chois": 7677,
      "ganta": 7678,
      "neamhniú": 7679,
      "locht": 7680,
      "fhorála": 7681,
      "éagtha": 7682,
      "máthair": 7683,
      "rie": 7684,
      "cruthaithe": 7685,
      "leasacháin": 7686,
      "feidhmíocht": 7687,
      "AIL": 7688,
      "ghabhas": 7689,
      "125": 7690,
      "Socr": 7691,
      "chleachtadh": 7692,
      "cáilíochtaí": 7693,
      "Seoladh": 7694,
      "1975": 7695,
      "cheanglais": 7696,
      "cumhráin": 7697,
      "fhoirgnimh": 7698,
      "ealaíona": 7699,
      "vótanna": 7700,
      "rialúcháin": 7701,
      "áchan": 7702,
      "ghlacann": 7703,
      "ives": 7704,
      "Dearg": 7705,
      "Láthair": 7706,
      "tairiscintí": 7707,
      "Cód": 7708,
      "comhpháirteach": 7709,
      "eacnamaíocha": 7710,
      "bheartaíonn": 7711,
      "aerárthaí": 7712,
      "inmheánacha": 7713,
      "chailleann": 7714,
      "príosún": 7715,
      "loinge": 7716,
      "Teaghrán": 7717,
      "fhada": 7718,
      "bhailíocht": 7719,
      "shláin": 7720,
      "ciseal": 7721,
      "Cumhachtaí": 7722,
      "Íocaíochtaí": 7723,
      "aiseoir": 7724,
      "Féadfidh": 7725,
      "tellite": 7726,
      "Liúntas": 7727,
      "contrártha": 7728,
      "bhuirg": 7729,
      "scríbhne": 7730,
      "Scoileanna": 7731,
      "greann": 7732,
      "nuálaíocht": 7733,
      "Bhreithiúnais": 7734,
      "iomarcach": 7735,
      "SOCRÚ": 7736,
      "solúbtha": 7737,
      "Shábháilteacht": 7738,
      "Microsoft": 7739,
      "MAIDIR": 7740,
      "shainmhínítear": 7741,
      "BM": 7742,
      "Brú": 7743,
      "Beo": 7744,
      "Clú": 7745,
      "Cen": 7746,
      "Córais": 7747,
      "Di": 7748,
      "Ele": 7749,
      "Eolaíochta": 7750,
      "IMH": 7751,
      "Kar": 7752,
      "Mail": 7753,
      "OIR": 7754,
      "Pion": 7755,
      "abhar": 7756,
      "bs": 7757,
      "bint": 7758,
      "boird": 7759,
      "cearr": 7760,
      "dTuaisceart": 7761,
      "fun": 7762,
      "mor": 7763,
      "méar": 7764,
      "moill": 7765,
      "nraí": 7766,
      "our": 7767,
      "sea": 7768,
      "seam": 7769,
      "tt": 7770,
      "van": 7771,
      "ósú": 7772,
      "chabhair": 7773,
      "chaillteanas": 7774,
      "inim": 7775,
      "theicniúla": 7776,
      "mhalar": 7777,
      "bhalla": 7778,
      "isi": 7779,
      "lam": 7780,
      "áilleacht": 7781,
      "scrat": 7782,
      "aidhe": 7783,
      "earach": 7784,
      "seomraí": 7785,
      "bhfear": 7786,
      "oireann": 7787,
      "reoirí": 7788,
      "ithche": 7789,
      "ols": 7790,
      "sanacht": 7791,
      "idirlín": 7792,
      "dtíortha": 7793,
      "ged": 7794,
      "aitheacht": 7795,
      "cheiliúradh": 7796,
      "oimirc": 7797,
      "áltar": 7798,
      "mótar": 7799,
      "cún": 7800,
      "mat": 7801,
      "fhorlíonadh": 7802,
      "ríthábhachtach": 7803,
      "Thionsc": 7804,
      "gníomhairí": 7805,
      "lúb": 7806,
      "fuasc": 7807,
      "bhunaidh": 7808,
      "líonfaidh": 7809,
      "áisiúil": 7810,
      "cóide": 7811,
      "stiúradh": 7812,
      "bplean": 7813,
      "Roinnt": 7814,
      "ghabhála": 7815,
      "gcoinníoll": 7816,
      "ARA": 7817,
      "chleachtais": 7818,
      "bhainistí": 7819,
      "rithte": 7820,
      "chruth": 7821,
      "ghnóthais": 7822,
      "LEE": 7823,
      "irect": 7824,
      "Chomhphobal": 7825,
      "Oifigigh": 7826,
      "maoinithe": 7827,
      "1979": 7828,
      "chionta": 7829,
      "shuí": 7830,
      "fhoirgniú": 7831,
      "ráiteach": 7832,
      "beáint": 7833,
      "uasmhéid": 7834,
      "cóiríocht": 7835,
      "ionstraime": 7836,
      "toghadh": 7837,
      "gcionn": 7838,
      "Reg": 7839,
      "Teanga": 7840,
      "mBun": 7841,
      "mBanc": 7842,
      "chinnidh": 7843,
      "tíolac": 7844,
      "Cuideachtan": 7845,
      "gnáthchónaí": 7846,
      "tromlach": 7847,
      "imthrial": 7848,
      "comhtháthú": 7849,
      "Cúnamh": 7850,
      "Cóip": 7851,
      "Domhan": 7852,
      "core": 7853,
      "gComhaontú": 7854,
      "luafar": 7855,
      "Aoisghrúpa": 7856,
      "milis": 7857,
      "nGall": 7858,
      "phionós": 7859,
      "1908": 7860,
      "Treoracha": 7861,
      "ealaíontóirí": 7862,
      "www": 7863,
      "oiriúnú": 7864,
      "cothromaíocht": 7865,
      "fianáin": 7866,
      "bhfabhar": 7867,
      "hOifige": 7868,
      "Samsun": 7869,
      "Caibidle": 7870,
      "tobann": 7871,
      "97": 7872,
      "Dea": 7873,
      "Free": 7874,
      "Gléas": 7875,
      "Kom": 7876,
      "Lais": 7877,
      "Mu": 7878,
      "Meith": 7879,
      "Op": 7880,
      "Páirt": 7881,
      "PST": 7882,
      "Sí": 7883,
      "Tim": 7884,
      "Ull": 7885,
      "buir": 7886,
      "dmharc": 7887,
      "fimid": 7888,
      "gáin": 7889,
      "haois": 7890,
      "híocadh": 7891,
      "kin": 7892,
      "pio": 7893,
      "sraithe": 7894,
      "Éad": 7895,
      "inrá": 7896,
      "thaithí": 7897,
      "mhná": 7898,
      "bhealaigh": 7899,
      "tac": 7900,
      "ids": 7901,
      "ghéar": 7902,
      "oiteanna": 7903,
      "laíoch": 7904,
      "áille": 7905,
      "earch": 7906,
      "aonfhoirm": 7907,
      "ionchuir": 7908,
      "ines": 7909,
      "iness": 7910,
      "oss": 7911,
      "Chláir": 7912,
      "row": 7913,
      "Airí": 7914,
      "mega": 7915,
      "luibh": 7916,
      "túr": 7917,
      "phunt": 7918,
      "urs": 7919,
      "urscaoilte": 7920,
      "athraíonn": 7921,
      "gene": 7922,
      "aithris": 7923,
      "ister": 7924,
      "isteoirí": 7925,
      "forex": 7926,
      "spéis": 7927,
      "spórt": 7928,
      "thabhaigh": 7929,
      "árthach": 7930,
      "iseoidh": 7931,
      "éimhe": 7932,
      "loy": 7933,
      "raice": 7934,
      "Thosaigh": 7935,
      "eidhmeoidh": 7936,
      "mórtais": 7937,
      "aitlic": 7938,
      "aitseáil": 7939,
      "CHU": 7940,
      "cosantóir": 7941,
      "rite": 7942,
      "porno": 7943,
      "deartháir": 7944,
      "dearbhuithe": 7945,
      "iteann": 7946,
      "meastóireachta": 7947,
      "diag": 7948,
      "Sheirbhí": 7949,
      "airdíní": 7950,
      "scríbe": 7951,
      "dífhostaíochta": 7952,
      "láithr": 7953,
      "Fheabh": 7954,
      "chleacht": 7955,
      "gníochta": 7956,
      "Tuismitheoirí": 7957,
      "Dhia": 7958,
      "ISO": 7959,
      "1938": 7960,
      "ocsaí": 7961,
      "bezel": 7962,
      "1942": 7963,
      "iubh": 7964,
      "cliste": 7965,
      "aerfort": 7966,
      "mBaile": 7967,
      "Talamh": 7968,
      "tíolacadh": 7969,
      "tíotáiniam": 7970,
      "tuairiscithe": 7971,
      "forbairtí": 7972,
      "fhoill": 7973,
      "bheartaithe": 7974,
      "rannpháirtí": 7975,
      "coirp": 7976,
      "difriúla": 7977,
      "údarúcháin": 7978,
      "fhreagracht": 7979,
      "comhthéacs": 7980,
      "nuachtán": 7981,
      "Dúithche": 7982,
      "United": 7983,
      "shábháilteacht": 7984,
      "ewel": 7985,
      "fhuascailt": 7986,
      "TUAIR": 7987,
      "Sínis": 7988,
      "tromchúiseacha": 7989,
      "phionósú": 7990,
      "mhionn": 7991,
      "Nóta": 7992,
      "xxx": 7993,
      "tsamhail": 7994,
      "sceidealta": 7995,
      "bhrabús": 7996,
      "dhlúthú": 7997,
      "ospidéal": 7998,
      "dlítheanach": 7999,
      "Gaillimh": 8000,
      "mainneachtain": 8001,
      "ghléasra": 8002,
      "dtosach": 8003,
      "Bogearraí": 8004,
      "eilimintí": 8005,
      "geografach": 8006,
      "Fuinnimh": 8007,
      "codlata": 8008,
      "mhíreanna": 8009,
      "Meaisín": 8010,
      "fhírinne": 8011,
      "romhainn": 8012,
      "Struchtúr": 8013,
      "bhfíric": 8014,
      "sceimhlitheoireachta": 8015,
      "Uaireanta": 8016,
      "Laistigh": 8017,
      "86": 8018,
      "AF": 8019,
      "Abr": 8020,
      "Cárta": 8021,
      "Cior": 8022,
      "Cathair": 8023,
      "Dio": 8024,
      "EES": 8025,
      "Education": 8026,
      "FT": 8027,
      "Fi": 8028,
      "Fol": 8029,
      "Fóg": 8030,
      "Fásta": 8031,
      "Glas": 8032,
      "LI": 8033,
      "Lé": 8034,
      "MT": 8035,
      "Méad": 8036,
      "Mam": 8037,
      "Mens": 8038,
      "Net": 8039,
      "Poblacht": 8040,
      "Ra": 8041,
      "Río": 8042,
      "SL": 8043,
      "Sé": 8044,
      "Sol": 8045,
      "Sráid": 8046,
      "Tos": 8047,
      "TSín": 8048,
      "Taoiseach": 8049,
      "camp": 8050,
      "cirt": 8051,
      "dtabhar": 8052,
      "eHouse": 8053,
      "fic": 8054,
      "gy": 8055,
      "gaire": 8056,
      "hoibriú": 8057,
      "hoifigigh": 8058,
      "lor": 8059,
      "lomh": 8060,
      "mill": 8061,
      "nimh": 8062,
      "ner": 8063,
      "oter": 8064,
      "peitril": 8065,
      "sur": 8066,
      "seiceáil": 8067,
      "tsoláthair": 8068,
      "umarsáide": 8069,
      "watch": 8070,
      "Éif": 8071,
      "chiona": 8072,
      "chirt": 8073,
      "chluas": 8074,
      "chósta": 8075,
      "thár": 8076,
      "thaire": 8077,
      "dheis": 8078,
      "mho": 8079,
      "usa": 8080,
      "altr": 8081,
      "aladh": 8082,
      "iúirí": 8083,
      "ghrea": 8084,
      "gheil": 8085,
      "seaic": 8086,
      "fheiceann": 8087,
      "gciseán": 8088,
      "dollar": 8089,
      "shás": 8090,
      "shoil": 8091,
      "easnamh": 8092,
      "Char": 8093,
      "une": 8094,
      "aobh": 8095,
      "rúin": 8096,
      "phu": 8097,
      "phone": 8098,
      "pháipéar": 8099,
      "aitheachta": 8100,
      "braite": 8101,
      "chomhlachtaí": 8102,
      "rásaíocht": 8103,
      "taiscí": 8104,
      "foriomlán": 8105,
      "ndeach": 8106,
      "chuidiú": 8107,
      "oilte": 8108,
      "móradh": 8109,
      "íoctar": 8110,
      "tugann": 8111,
      "Bhr": 8112,
      "gcomhshaol": 8113,
      "tachais": 8114,
      "Aonaid": 8115,
      "súile": 8116,
      "neamhdhíreach": 8117,
      "fhorais": 8118,
      "Coun": 8119,
      "Phr": 8120,
      "Phort": 8121,
      "éill": 8122,
      "críochnaitheach": 8123,
      "gream": 8124,
      "patrún": 8125,
      "pló": 8126,
      "ngeall": 8127,
      "Comhlacht": 8128,
      "const": 8129,
      "díotáil": 8130,
      "Mara": 8131,
      "tráthúil": 8132,
      "bhuaigh": 8133,
      "pháirtíocht": 8134,
      "mhíle": 8135,
      "luachála": 8136,
      "ARASC": 8137,
      "Fheidhmeanna": 8138,
      "soilsithe": 8139,
      "gineadóir": 8140,
      "scríbhinní": 8141,
      "Ionchur": 8142,
      "Tuaras": 8143,
      "chosanta": 8144,
      "1992": 8145,
      "planda": 8146,
      "bracelet": 8147,
      "Dhún": 8148,
      "ndeár": 8149,
      "ISTE": 8150,
      "1973": 8151,
      "bout": 8152,
      "cháilíochta": 8153,
      "chionroinnt": 8154,
      "shubstaint": 8155,
      "AGH": 8156,
      "leictreacha": 8157,
      "táirgeoirí": 8158,
      "cheadaíonn": 8159,
      "1985": 8160,
      "áipéirí": 8161,
      "cumainn": 8162,
      "1945": 8163,
      "dhearbh": 8164,
      "ghlacfaidh": 8165,
      "mhainneachtain": 8166,
      "Spóirt": 8167,
      "gearradh": 8168,
      "Barbour": 8169,
      "foirmiú": 8170,
      "Leanann": 8171,
      "soiléire": 8172,
      "fuinneog": 8173,
      "dílseacháin": 8174,
      "PATIO": 8175,
      "glacfar": 8176,
      "chlog": 8177,
      "sannadh": 8178,
      "Seinn": 8179,
      "chúrs": 8180,
      "toirch": 8181,
      "parlaimintí": 8182,
      "gcomhlíontar": 8183,
      "foilsithe": 8184,
      "foilsíodh": 8185,
      "luaidhe": 8186,
      "Domhnach": 8187,
      "suímh": 8188,
      "faoisimh": 8189,
      "dualgaisí": 8190,
      "innealtóireachta": 8191,
      "TUARASC": 8192,
      "gcontae": 8193,
      "Foilseacháin": 8194,
      "cuimhneamh": 8195,
      "réaltaí": 8196,
      "Mheiriceánach": 8197,
      "cultúr": 8198,
      "Bláthanna": 8199,
      "lipéad": 8200,
      "Leighis": 8201,
      "gcostas": 8202,
      "Cáilíochta": 8203,
      "eighil": 8204,
      "diosca": 8205,
      "Ceadaíonn": 8206,
      "chláruithe": 8207,
      "coimhd": 8208,
      "azine": 8209,
      "cógaisíochta": 8210,
      "theaghlach": 8211,
      "coibhéis": 8212,
      "vision": 8213,
      "chuibhithe": 8214,
      "raidió": 8215,
      "RIALACHÁN": 8216,
      "náisiúnach": 8217,
      "deacrachtaí": 8218,
      "Dóiteáin": 8219,
      "stíleanna": 8220,
      "English": 8221,
      "Teilifíse": 8222,
      "Stíl": 8223,
      "einsímí": 8224,
      "scuab": 8225,
      "TUARASCÁIL": 8226,
      "81": 8227,
      "96": 8228,
      "Aquarium": 8229,
      "BB": 8230,
      "Cum": 8231,
      "Cúr": 8232,
      "Céard": 8233,
      "DC": 8234,
      "Droichead": 8235,
      "Fair": 8236,
      "Freag": 8237,
      "Gearr": 8238,
      "High": 8239,
      "Ios": 8240,
      "Imp": 8241,
      "Lae": 8242,
      "PV": 8243,
      "PAR": 8244,
      "Sine": 8245,
      "Seol": 8246,
      "Samp": 8247,
      "Tío": 8248,
      "Vo": 8249,
      "Wh": 8250,
      "av": 8251,
      "baic": 8252,
      "banc": 8253,
      "canna": 8254,
      "dais": 8255,
      "dráma": 8256,
      "fead": 8257,
      "fís": 8258,
      "gle": 8259,
      "gun": 8260,
      "grú": 8261,
      "hon": 8262,
      "háit": 8263,
      "hoifige": 8264,
      "maithe": 8265,
      "mist": 8266,
      "muir": 8267,
      "mall": 8268,
      "mBéarla": 8269,
      "míosa": 8270,
      "ning": 8271,
      "nment": 8272,
      "ngen": 8273,
      "oo": 8274,
      "pm": 8275,
      "pon": 8276,
      "pri": 8277,
      "píosa": 8278,
      "pres": 8279,
      "ranga": 8280,
      "sara": 8281,
      "saighdiú": 8282,
      "siltin": 8283,
      "tei": 8284,
      "tram": 8285,
      "taibh": 8286,
      "ÓIR": 8287,
      "chal": 8288,
      "cheal": 8289,
      "chóg": 8290,
      "chóirí": 8291,
      "chiseán": 8292,
      "aigin": 8293,
      "inis": 8294,
      "dhéile": 8295,
      "bhan": 8296,
      "achaillí": 8297,
      "oráiste": 8298,
      "asal": 8299,
      "oitheach": 8300,
      "laíochta": 8301,
      "rael": 8302,
      "tréi": 8303,
      "fheirme": 8304,
      "scian": 8305,
      "gcáil": 8306,
      "gcúl": 8307,
      "gcósta": 8308,
      "seog": 8309,
      "seoir": 8310,
      "shé": 8311,
      "ceint": 8312,
      "imscrúdaithe": 8313,
      "reoite": 8314,
      "marcáil": 8315,
      "mbreith": 8316,
      "ínse": 8317,
      "rugadh": 8318,
      "rubair": 8319,
      "comhdhéanamh": 8320,
      "comhábhair": 8321,
      "1920": 8322,
      "dtéann": 8323,
      "dtiocfadh": 8324,
      "isteora": 8325,
      "Táthar": 8326,
      "leathadh": 8327,
      "super": 8328,
      "tharraing": 8329,
      "fearas": 8330,
      "teagasc": 8331,
      "chogaidh": 8332,
      "ordaítear": 8333,
      "íosluchtaigh": 8334,
      "Thair": 8335,
      "léirítear": 8336,
      "thuig": 8337,
      "éilitheoir": 8338,
      "cosmaid": 8339,
      "ceannais": 8340,
      "ating": 8341,
      "atmais": 8342,
      "dearcadh": 8343,
      "bhuntáiste": 8344,
      "míchumas": 8345,
      "iarratasóirí": 8346,
      "measú": 8347,
      "AITHE": 8348,
      "thúla": 8349,
      "dtagar": 8350,
      "Comhar": 8351,
      "lóiste": 8352,
      "print": 8353,
      "reasaí": 8354,
      "Mhór": 8355,
      "bhuaidh": 8356,
      "bainistí": 8357,
      "dáilte": 8358,
      "Cuimh": 8359,
      "daor": 8360,
      "ASA": 8361,
      "chruinn": 8362,
      "úsáideora": 8363,
      "Seomra": 8364,
      "barán": 8365,
      "péinte": 8366,
      "chólíonadh": 8367,
      "bhformáid": 8368,
      "mheánach": 8369,
      "belie": 8370,
      "únaíocht": 8371,
      "gréasán": 8372,
      "deimhniúcháin": 8373,
      "Bainistíocht": 8374,
      "Stiúrthóra": 8375,
      "ORD": 8376,
      "thaisbeáint": 8377,
      "dheineann": 8378,
      "samhradh": 8379,
      "gearrtha": 8380,
      "COM": 8381,
      "ionsabal": 8382,
      "cuimsitheach": 8383,
      "Ceannaigh": 8384,
      "bhlianta": 8385,
      "drochuair": 8386,
      "fireann": 8387,
      "gaireas": 8388,
      "chumhachtaí": 8389,
      "taifeadta": 8390,
      "dhiúltóidh": 8391,
      "Earraí": 8392,
      "scortha": 8393,
      "Griangh": 8394,
      "iontrála": 8395,
      "gers": 8396,
      "fiosrúcháin": 8397,
      "pianbhreith": 8398,
      "tarraing": 8399,
      "réalta": 8400,
      "Manu": 8401,
      "thosaíonn": 8402,
      "thríú": 8403,
      "cobhsaí": 8404,
      "meabhrán": 8405,
      "alcóil": 8406,
      "bhfuarthas": 8407,
      "tálfar": 8408,
      "iomportáil": 8409,
      "mhúinteoirí": 8410,
      "ÁIRITHE": 8411,
      "dlús": 8412,
      "Aistriú": 8413,
      "Afraic": 8414,
      "chronograph": 8415,
      "Slándála": 8416,
      "bhfreagra": 8417,
      "Schengen": 8418,
      "geilleagar": 8419,
      "ithreachais": 8420,
      "Technology": 8421,
      "fhoillsiú": 8422,
      "316": 8423,
      "82": 8424,
      "By": 8425,
      "Bonn": 8426,
      "BTE": 8427,
      "Fogh": 8428,
      "Fostaíocht": 8429,
      "Giú": 8430,
      "Gréasáin": 8431,
      "Hard": 8432,
      "Hide": 8433,
      "IF": 8434,
      "Jac": 8435,
      "Láir": 8436,
      "Log": 8437,
      "Mus": 8438,
      "NÃ": 8439,
      "On": 8440,
      "Ospidéal": 8441,
      "POR": 8442,
      "Parlaiminte": 8443,
      "RO": 8444,
      "Rí": 8445,
      "SH": 8446,
      "Siú": 8447,
      "Tits": 8448,
      "VIII": 8449,
      "bú": 8450,
      "bithe": 8451,
      "cná": 8452,
      "ceartú": 8453,
      "ctric": 8454,
      "drá": 8455,
      "ey": 8456,
      "enacha": 8457,
      "fil": 8458,
      "fia": 8459,
      "gnamh": 8460,
      "géilleadh": 8461,
      "hi": 8462,
      "hion": 8463,
      "himeachta": 8464,
      "hurrúis": 8465,
      "iOS": 8466,
      "meach": 8467,
      "tol": 8468,
      "tArd": 8469,
      "zo": 8470,
      "zrel": 8471,
      "chún": 8472,
      "chreat": 8473,
      "chaidreamh": 8474,
      "thit": 8475,
      "thír": 8476,
      "thréi": 8477,
      "theicneola": 8478,
      "tháthú": 8479,
      "iris": 8480,
      "mhea": 8481,
      "mhorgáiste": 8482,
      "agallamh": 8483,
      "lect": 8484,
      "íosúil": 8485,
      "als": 8486,
      "ghréasáin": 8487,
      "sed": 8488,
      "trig": 8489,
      "trian": 8490,
      "fhíneáil": 8491,
      "fholún": 8492,
      "scuir": 8493,
      "bhfar": 8494,
      "bhfostóir": 8495,
      "iontas": 8496,
      "cumbers": 8497,
      "shamh": 8498,
      "áirmh": 8499,
      "igation": 8500,
      "igration": 8501,
      "tarrthála": 8502,
      "lux": 8503,
      "lugha": 8504,
      "dúb": 8505,
      "phol": 8506,
      "phait": 8507,
      "comhlachta": 8508,
      "comhfhreag": 8509,
      "comhlachas": 8510,
      "comhlíonta": 8511,
      "idhe": 8512,
      "bric": 8513,
      "forghníomhú": 8514,
      "ndlí": 8515,
      "sport": 8516,
      "gCoinbhinsiún": 8517,
      "Art": 8518,
      "ardchaighdeáin": 8519,
      "éalú": 8520,
      "pend": 8521,
      "Thal": 8522,
      "Scannán": 8523,
      "Science": 8524,
      "Invest": 8525,
      "éileoidh": 8526,
      "fuaim": 8527,
      "Déanta": 8528,
      "míthreorach": 8529,
      "tighe": 8530,
      "ghníomhartha": 8531,
      "cala": 8532,
      "aipc": 8533,
      "150": 8534,
      "Sozrel": 8535,
      "chliniciúil": 8536,
      "bhaintear": 8537,
      "Státchiste": 8538,
      "1993": 8539,
      "bhforbairt": 8540,
      "1965": 8541,
      "boinn": 8542,
      "cumhachtach": 8543,
      "cháilitheach": 8544,
      "aiscí": 8545,
      "aigne": 8546,
      "olasaithe": 8547,
      "breithiúnach": 8548,
      "cheadaithe": 8549,
      "1986": 8550,
      "creideamh": 8551,
      "tháirge": 8552,
      "staidrimh": 8553,
      "1947": 8554,
      "díobhála": 8555,
      "díobhálacha": 8556,
      "pleanáil": 8557,
      "Eurojust": 8558,
      "Costas": 8559,
      "gearáin": 8560,
      "eimine": 8561,
      "Staid": 8562,
      "céadluaite": 8563,
      "réasúnacha": 8564,
      "iomláin": 8565,
      "díospóireachtaí": 8566,
      "ized": 8567,
      "play": 8568,
      "Meastar": 8569,
      "kets": 8570,
      "cáblaí": 8571,
      "marcanna": 8572,
      "bhóithre": 8573,
      "Tionól": 8574,
      "ghrád": 8575,
      "feasach": 8576,
      "Traenach": 8577,
      "déanmhais": 8578,
      "ÁSPC": 8579,
      "dáileoir": 8580,
      "coincheap": 8581,
      "fheithiclí": 8582,
      "thuairisciú": 8583,
      "acket": 8584,
      "fhógairt": 8585,
      "Ghnóthaí": 8586,
      "Prótacal": 8587,
      "stopadh": 8588,
      "tuarastal": 8589,
      "tuarastail": 8590,
      "Deontas": 8591,
      "fhiosrúchán": 8592,
      "dtarlóidh": 8593,
      "cobhsaíocht": 8594,
      "Rúisis": 8595,
      "Reachtaire": 8596,
      "Liúntais": 8597,
      "tairbhiúil": 8598,
      "contrárdha": 8599,
      "fiacla": 8600,
      "snáithín": 8601,
      "sorcóir": 8602,
      "éipéal": 8603,
      "Oiliúint": 8604,
      "Grand": 8605,
      "Oileán": 8606,
      "caidéil": 8607,
      "vitimín": 8608,
      "Éigip": 8609,
      "ngabhann": 8610,
      "eintiteas": 8611,
      "Adhmaid": 8612,
      "Beaga": 8613,
      "Rochtain": 8614,
      "American": 8615,
      "neod": 8616,
      "tuirlingthe": 8617,
      "obháideacha": 8618,
      "Black": 8619,
      "TUAIRIM": 8620,
      "Iosrael": 8621,
      "1adh": 8622,
      "Aig": 8623,
      "Astr": 8624,
      "Ailt": 8625,
      "Cail": 8626,
      "Cun": 8627,
      "Déag": 8628,
      "Eis": 8629,
      "Fá": 8630,
      "Fáil": 8631,
      "Fear": 8632,
      "Feist": 8633,
      "Gal": 8634,
      "Land": 8635,
      "My": 8636,
      "Méadú": 8637,
      "PU": 8638,
      "Pay": 8639,
      "Rail": 8640,
      "SF": 8641,
      "Teo": 8642,
      "Toirmeasc": 8643,
      "World": 8644,
      "cmhainn": 8645,
      "disc": 8646,
      "eu": 8647,
      "ft": 8648,
      "frá": 8649,
      "húdarás": 8650,
      "hacmhainní": 8651,
      "iPad": 8652,
      "ked": 8653,
      "mínithe": 8654,
      "plu": 8655,
      "reabhadh": 8656,
      "sár": 8657,
      "slo": 8658,
      "saill": 8659,
      "timthrial": 8660,
      "uachtair": 8661,
      "wan": 8662,
      "ÓG": 8663,
      "Óige": 8664,
      "ófaí": 8665,
      "únaí": 8666,
      "aiche": 8667,
      "eata": 8668,
      "mhaoine": 8669,
      "ley": 8670,
      "isé": 8671,
      "deintear": 8672,
      "theanga": 8673,
      "rabhadh": 8674,
      "raíod": 8675,
      "aist": 8676,
      "aisleán": 8677,
      "adóirí": 8678,
      "omhadh": 8679,
      "fhaibhr": 8680,
      "innéithe": 8681,
      "innéacs": 8682,
      "sint": 8683,
      "saem": 8684,
      "scí": 8685,
      "scur": 8686,
      "gclá": 8687,
      "gcaighdeán": 8688,
      "gcuimh": 8689,
      "cul": 8690,
      "ities": 8691,
      "cent": 8692,
      "imithe": 8693,
      "Chóir": 8694,
      "Chás": 8695,
      "Chill": 8696,
      "eaglais": 8697,
      "ithíocht": 8698,
      "lachán": 8699,
      "rothaí": 8700,
      "ínigh": 8701,
      "lue": 8702,
      "comhábhar": 8703,
      "idire": 8704,
      "iúnú": 8705,
      "dtair": 8706,
      "aithnítear": 8707,
      "cathaoir": 8708,
      "chomhshaoil": 8709,
      "cosa": 8710,
      "subst": 8711,
      "now": 8712,
      "ndí": 8713,
      "leithroinnt": 8714,
      "íoló": 8715,
      "bhraithe": 8716,
      "Bhinse": 8717,
      "sonraítear": 8718,
      "abhcóide": 8719,
      "andaí": 8720,
      "obhach": 8721,
      "oblag": 8722,
      "fhorordú": 8723,
      "fhorchuirtear": 8724,
      "éagmais": 8725,
      "tsráid": 8726,
      "Thithe": 8727,
      "léireach": 8728,
      "thuaidh": 8729,
      "fhocail": 8730,
      "cinnt": 8731,
      "ceannaitheoir": 8732,
      "ánacht": 8733,
      "eantair": 8734,
      "shoot": 8735,
      "measta": 8736,
      "muich": 8737,
      "ills": 8738,
      "Mhuir": 8739,
      "bul": 8740,
      "fadtéarmach": 8741,
      "shonrach": 8742,
      "bainfidh": 8743,
      "chracha": 8744,
      "rannán": 8745,
      "cáiliúla": 8746,
      "mhaíocht": 8747,
      "eolaíocha": 8748,
      "barrachas": 8749,
      "bradán": 8750,
      "1966": 8751,
      "very": 8752,
      "soláthairtí": 8753,
      "freagracht": 8754,
      "ealadacha": 8755,
      "leictreachas": 8756,
      "uation": 8757,
      "1987": 8758,
      "quis": 8759,
      "óidí": 8760,
      "Report": 8761,
      "dhíscaoileadh": 8762,
      "cleachtas": 8763,
      "cleachtadh": 8764,
      "teaghaise": 8765,
      "Luain": 8766,
      "thionscadail": 8767,
      "cks": 8768,
      "tiománaí": 8769,
      "chomhaireamh": 8770,
      "Dub": 8771,
      "sócmhainn": 8772,
      "fionnu": 8773,
      "inmheánaigh": 8774,
      "Aisghabháil": 8775,
      "toirte": 8776,
      "déileálfar": 8777,
      "Union": 8778,
      "gealltanais": 8779,
      "Foirgníochta": 8780,
      "chailleadh": 8781,
      "Access": 8782,
      "seoltaí": 8783,
      "phleanála": 8784,
      "dramh": 8785,
      "bronntanais": 8786,
      "fheistiú": 8787,
      "téama": 8788,
      "diaper": 8789,
      "phionóis": 8790,
      "Lárionad": 8791,
      "píopaí": 8792,
      "fhionraí": 8793,
      "fhionnadh": 8794,
      "Thuaisceart": 8795,
      "fiachais": 8796,
      "bheaga": 8797,
      "lascaine": 8798,
      "Casino": 8799,
      "taispeántas": 8800,
      "search": 8801,
      "póca": 8802,
      "comhshocraíochtaí": 8803,
      "Magazine": 8804,
      "Riacht": 8805,
      "éidearthacht": 8806,
      "príobháideacha": 8807,
      "mhúnlú": 8808,
      "Iniúchóirí": 8809,
      "Uirlis": 8810,
      "Tairiscintí": 8811,
      "Phrótacal": 8812,
      "Teoranta": 8813,
      "Office": 8814,
      "Maisiúil": 8815,
      "eatramh": 8816,
      "teicní": 8817,
      "Amplifier": 8818,
      "Ae": 8819,
      "Amh": 8820,
      "Aisce": 8821,
      "BU": 8822,
      "Brá": 8823,
      "Can": 8824,
      "Cra": 8825,
      "Ceadú": 8826,
      "Coig": 8827,
      "Dath": 8828,
      "Es": 8829,
      "Eolais": 8830,
      "File": 8831,
      "Gorm": 8832,
      "Maoine": 8833,
      "Mosc": 8834,
      "NU": 8835,
      "Nios": 8836,
      "OBH": 8837,
      "Ombu": 8838,
      "Pá": 8839,
      "Pen": 8840,
      "Star": 8841,
      "Sun": 8842,
      "Stoc": 8843,
      "TÜ": 8844,
      "Téarmaí": 8845,
      "Wo": 8846,
      "bád": 8847,
      "cnó": 8848,
      "coimisiún": 8849,
      "coiteann": 8850,
      "custam": 8851,
      "dtríú": 8852,
      "dTA": 8853,
      "dtrácht": 8854,
      "hoibre": 8855,
      "híocfar": 8856,
      "háite": 8857,
      "ifor": 8858,
      "je": 8859,
      "mam": 8860,
      "mission": 8861,
      "náirítear": 8862,
      "sag": 8863,
      "sos": 8864,
      "seic": 8865,
      "sleachta": 8866,
      "séipéal": 8867,
      "tip": 8868,
      "tiubh": 8869,
      "wall": 8870,
      "ying": 8871,
      "zmir": 8872,
      "ÉIS": 8873,
      "chíosa": 8874,
      "chraiceann": 8875,
      "ange": 8876,
      "inbh": 8877,
      "inphinsin": 8878,
      "theag": 8879,
      "ireachtaí": 8880,
      "dhoiciméid": 8881,
      "mhin": 8882,
      "mhála": 8883,
      "bheo": 8884,
      "taíochta": 8885,
      "ons": 8886,
      "uss": 8887,
      "ilip": 8888,
      "íobla": 8889,
      "eachtrach": 8890,
      "iúradh": 8891,
      "teangacha": 8892,
      "ghlas": 8893,
      "asbhainte": 8894,
      "oip": 8895,
      "laíodh": 8896,
      "aiseacha": 8897,
      "láine": 8898,
      "éic": 8899,
      "shimplí": 8900,
      "reg": 8901,
      "easóid": 8902,
      "Chustaiméirí": 8903,
      "ithn": 8904,
      "eithimh": 8905,
      "mbr": 8906,
      "mbeifear": 8907,
      "túir": 8908,
      "dúireacht": 8909,
      "comhacht": 8910,
      "comhleanúnach": 8911,
      "brea": 8912,
      "chomhshaol": 8913,
      "chomhrac": 8914,
      "eoga": 8915,
      "cois": 8916,
      "countertops": 8917,
      "conab": 8918,
      "uma": 8919,
      "árdas": 8920,
      "tod": 8921,
      "Arna": 8922,
      "nuaite": 8923,
      "ibíní": 8924,
      "choinn": 8925,
      "oibrigh": 8926,
      "eics": 8927,
      "neoir": 8928,
      "eiseam": 8929,
      "lúide": 8930,
      "mogal": 8931,
      "Scoir": 8932,
      "iteán": 8933,
      "measúnaithe": 8934,
      "AND": 8935,
      "radharc": 8936,
      "talmhan": 8937,
      "thairis": 8938,
      "ísliú": 8939,
      "oidhreachta": 8940,
      "Shóisialta": 8941,
      "gnólachtaí": 8942,
      "ghníomhaireacht": 8943,
      "gcoiste": 8944,
      "day": 8945,
      "chlé": 8946,
      "bhainc": 8947,
      "Rialáil": 8948,
      "eagraíochta": 8949,
      "olaíoch": 8950,
      "cara": 8951,
      "chionn": 8952,
      "ocs": 8953,
      "modhnuithe": 8954,
      "earráidí": 8955,
      "riarachán": 8956,
      "1954": 8957,
      "Iodáil": 8958,
      "Corparáideach": 8959,
      "toghachán": 8960,
      "measctha": 8961,
      "árachaithe": 8962,
      "Tele": 8963,
      "tástálaí": 8964,
      "chinnfear": 8965,
      "31adh": 8966,
      "sealbhú": 8967,
      "ríosún": 8968,
      "Corporation": 8969,
      "Imréitigh": 8970,
      "fónamh": 8971,
      "Stór": 8972,
      "salach": 8973,
      "muirearú": 8974,
      "glanadh": 8975,
      "gcreid": 8976,
      "garraíod": 8977,
      "bannaí": 8978,
      "Leibhéal": 8979,
      "chumhachta": 8980,
      "chumhdaítear": 8981,
      "Réitigh": 8982,
      "óilíní": 8983,
      "ÍOMH": 8984,
      "coigríche": 8985,
      "reatain": 8986,
      "anailí": 8987,
      "maoirseacht": 8988,
      "tuairisceáin": 8989,
      "CBS": 8990,
      "Inniu": 8991,
      "Tairisceana": 8992,
      "Breis": 8993,
      "thuairiscítear": 8994,
      "Réigiúnach": 8995,
      "Comments": 8996,
      "fhógair": 8997,
      "Moltar": 8998,
      "píosaí": 8999,
      "election": 9000,
      "pearsanra": 9001,
      "thoghadh": 9002,
      "trádmhairc": 9003,
      "dsman": 9004,
      "féadfidh": 9005,
      "aighneachtaí": 9006,
      "ceamara": 9007,
      "IREACHT": 9008,
      "Torthaí": 9009,
      "iompróirí": 9010,
      "fhostóra": 9011,
      "óstáil": 9012,
      "Caipitiúil": 9013,
      "muscle": 9014,
      "iomaíoch": 9015,
      "Meiriceá": 9016,
      "díbhinní": 9017,
      "fhuinneog": 9018,
      "theorannú": 9019,
      "tocsaineach": 9020,
      "ÁLACHA": 9021,
      "céannachta": 9022,
      "áipéisí": 9023,
      "Seapáine": 9024,
      "doimhneacht": 9025,
      "shéala": 9026,
      "sraitheanna": 9027,
      "Abrán": 9028,
      "shoiléir": 9029,
      "atmaisféar": 9030,
      "Ombudsman": 9031,
      "mogalra": 9032,
      "04": 9033,
      "Acad": 9034,
      "BI": 9035,
      "Blon": 9036,
      "Cla": 9037,
      "Cam": 9038,
      "Ceart": 9039,
      "Coimirce": 9040,
      "Deimh": 9041,
      "Dréacht": 9042,
      "FH": 9043,
      "Garda": 9044,
      "Hol": 9045,
      "Hum": 9046,
      "Imm": 9047,
      "LC": 9048,
      "LY": 9049,
      "LÍ": 9050,
      "Léar": 9051,
      "Ne": 9052,
      "Nao": 9053,
      "Pas": 9054,
      "Pri": 9055,
      "Pinsin": 9056,
      "SD": 9057,
      "Stor": 9058,
      "Srian": 9059,
      "Search": 9060,
      "Teideal": 9061,
      "Taobh": 9062,
      "Vol": 9063,
      "beid": 9064,
      "burg": 9065,
      "conn": 9066,
      "cted": 9067,
      "fonn": 9068,
      "foinsí": 9069,
      "féich": 9070,
      "gé": 9071,
      "har": 9072,
      "hen": 9073,
      "lil": 9074,
      "lóir": 9075,
      "lóireachta": 9076,
      "mias": 9077,
      "nD": 9078,
      "naipc": 9079,
      "pph": 9080,
      "sío": 9081,
      "seacha": 9082,
      "sleamhn": 9083,
      "ugh": 9084,
      "Árachais": 9085,
      "Ón": 9086,
      "úlacha": 9087,
      "chistí": 9088,
      "anam": 9089,
      "inoibr": 9090,
      "inchinn": 9091,
      "inmheasúnaithe": 9092,
      "dhlithe": 9093,
      "mhéideanna": 9094,
      "mhúineadh": 9095,
      "tadh": 9096,
      "ily": 9097,
      "íonachta": 9098,
      "sexy": 9099,
      "aisíocaíocht": 9100,
      "treacha": 9101,
      "fhis": 9102,
      "fhál": 9103,
      "gcun": 9104,
      "gciste": 9105,
      "dona": 9106,
      "doideachais": 9107,
      "thaítear": 9108,
      "thacaíocht": 9109,
      "aontóidh": 9110,
      "bhfaidh": 9111,
      "ionchas": 9112,
      "itheann": 9113,
      "shamhail": 9114,
      "sheasamh": 9115,
      "itis": 9116,
      "imeall": 9117,
      "istin": 9118,
      "margaíochta": 9119,
      "nála": 9120,
      "lachaithe": 9121,
      "dhéanfadh": 9122,
      "eallach": 9123,
      "atáir": 9124,
      "pháistí": 9125,
      "comhsheasmhach": 9126,
      "urious": 9127,
      "aghais": 9128,
      "soladach": 9129,
      "And": 9130,
      "eobhaidh": 9131,
      "éarlais": 9132,
      "sub": 9133,
      "sul": 9134,
      "formheas": 9135,
      "leithne": 9136,
      "leithreas": 9137,
      "eartuithe": 9138,
      "údaraítear": 9139,
      "spiorad": 9140,
      "ársa": 9141,
      "tofa": 9142,
      "Eorpaí": 9143,
      "ríomhairí": 9144,
      "tsaghas": 9145,
      "mórán": 9146,
      "CHÁIN": 9147,
      "CHÉAD": 9148,
      "leagadh": 9149,
      "lúr": 9150,
      "eangacha": 9151,
      "bpac": 9152,
      "Gheobhaidh": 9153,
      "strus": 9154,
      "mheastóireacht": 9155,
      "Comhdháil": 9156,
      "oidhreach": 9157,
      "bhuíochas": 9158,
      "1891": 9159,
      "Lena": 9160,
      "shonracha": 9161,
      "calaois": 9162,
      "namhaid": 9163,
      "Forex": 9164,
      "mhaíola": 9165,
      "tSeapáin": 9166,
      "Iontaobh": 9167,
      "óisialach": 9168,
      "léasaí": 9169,
      "fiacha": 9170,
      "fheidhmiúcháin": 9171,
      "eld": 9172,
      "ghnóthas": 9173,
      "chairde": 9174,
      "1991": 9175,
      "chólucht": 9176,
      "Dhéan": 9177,
      "1969": 9178,
      "fáinne": 9179,
      "carn": 9180,
      "iceo": 9181,
      "mionn": 9182,
      "bailíocht": 9183,
      "cheadaigh": 9184,
      "1984": 9185,
      "quo": 9186,
      "mhonarú": 9187,
      "bPinsean": 9188,
      "Sonra": 9189,
      "Aibreáin": 9190,
      "ceannas": 9191,
      "infheistiú": 9192,
      "Tréimhse": 9193,
      "Cuideachtaí": 9194,
      "Soláthraí": 9195,
      "Leictreach": 9196,
      "freagrachtaí": 9197,
      "armtha": 9198,
      "ghluaisteacht": 9199,
      "céadta": 9200,
      "fiontair": 9201,
      "spriocdháta": 9202,
      "salann": 9203,
      "salachta": 9204,
      "izer": 9205,
      "bhlianacht": 9206,
      "clúidí": 9207,
      "dteanta": 9208,
      "scriú": 9209,
      "Aisghairtear": 9210,
      "artlann": 9211,
      "icíde": 9212,
      "Fhorais": 9213,
      "gairid": 9214,
      "IMIS": 9215,
      "Tour": 9216,
      "teachtadh": 9217,
      "Chuige": 9218,
      "shásamh": 9219,
      "Tionnscail": 9220,
      "bhfaigheann": 9221,
      "inmhithe": 9222,
      "eipeasóid": 9223,
      "paraiméad": 9224,
      "Leagan": 9225,
      "inneachar": 9226,
[...]
