{
  "version": "1.0",
  "truncation": null,
  "padding": null,
  "added_tokens": [
    {
      "id": 0,
      "content": "[UNK]",
      "single_word": false,
      "lstrip": false,
      "rstrip": false,
      "normalized": false,
      "special": true
    },
    {
      "id": 1,
      "content": "[CLS]",
      "single_word": false,
      "lstrip": false,
      "rstrip": false,
      "normalized": false,
      "special": true
    },
    {
      "id": 2,
      "content": "[SEP]",
      "single_word": false,
      "lstrip": false,
      "rstrip": false,
      "normalized": false,
      "special": true
    },
    {
      "id": 3,
      "content": "[PAD]",
      "single_word": false,
      "lstrip": false,
      "rstrip": false,
      "normalized": false,
      "special": true
    },
    {
      "id": 4,
      "content": "[MASK]",
      "single_word": false,
      "lstrip": false,
      "rstrip": false,
      "normalized": false,
      "special": true
    }
  ],
  "normalizer": {
    "type": "NFKC"
  },
  "pre_tokenizer": {
    "type": "Whitespace"
  },
  "post_processor": null,
  "decoder": null,
  "model": {
    "type": "BPE",
    "dropout": null,
    "unk_token": null,
    "continuing_subword_prefix": null,
    "end_of_word_suffix": null,
    "fuse_unk": false,
    "byte_fallback": false,
    "ignore_merges": false,
    "vocab": {
      "[UNK]": 0,
      "[CLS]": 1,
      "[SEP]": 2,
      "[PAD]": 3,
      "[MASK]": 4,
      "!": 5,
      "\"": 6,
      "#": 7,
      "$": 8,
      "%": 9,
      "&": 10,
      "'": 11,
      "(": 12,
      ")": 13,
      "*": 14,
      "+": 15,
      ",": 16,
      "-": 17,
      ".": 18,
      "/": 19,
      "0": 20,
      "1": 21,
      "2": 22,
      "3": 23,
      "4": 24,
      "5": 25,
      "6": 26,
      "7": 27,
      "8": 28,
      "9": 29,
      ":": 30,
      ";": 31,
      "=": 32,
      "?": 33,
      "@": 34,
      "A": 35,
      "B": 36,
      "C": 37,
      "D": 38,
      "E": 39,
      "F": 40,
      "G": 41,
      "H": 42,
      "I": 43,
      "J": 44,
      "K": 45,
      "L": 46,
      "M": 47,
      "N": 48,
      "O": 49,
      "P": 50,
      "Q": 51,
      "R": 52,
      "S": 53,
      "T": 54,
      "U": 55,
      "V": 56,
      "W": 57,
      "X": 58,
      "Y": 59,
      "Z": 60,
      "[": 61,
      "\\": 62,
      "]": 63,
      "^": 64,
      "_": 65,
      "`": 66,
      "a": 67,
      "b": 68,
      "c": 69,
      "d": 70,
      "e": 71,
      "f": 72,
      "g": 73,
      "h": 74,
      "i": 75,
      "j": 76,
      "k": 77,
      "l": 78,
      "m": 79,
      "n": 80,
      "o": 81,
      "p": 82,
      "q": 83,
      "r": 84,
      "s": 85,
      "t": 86,
      "u": 87,
      "v": 88,
      "w": 89,
      "x": 90,
      "y": 91,
      "z": 92,
      "{": 93,
      "|": 94,
      "}": 95,
      "~": 96,
      "¢": 97,
      "£": 98,
      "¥": 99,
      "§": 100,
      "©": 101,
      "«": 102,
      "¬": 103,
      "®": 104,
      "°": 105,
      "±": 106,
      "¶": 107,
      "·": 108,
      "»": 109,
      "¿": 110,
      "À": 111,
      "Á": 112,
      "Â": 113,
      "Ã": 114,
      "Ä": 115,
      "Å": 116,
      "Æ": 117,
      "Ç": 118,
      "È": 119,
      "É": 120,
      "Ê": 121,
      "Í": 122,
      "Î": 123,
      "Ï": 124,
      "Ñ": 125,
      "Ó": 126,
      "Ô": 127,
      "Õ": 128,
      "Ö": 129,
      "×": 130,
      "Ø": 131,
      "Ú": 132,
      "Ü": 133,
      "ß": 134,
      "à": 135,
      "á": 136,
      "â": 137,
      "ã": 138,
      "ä": 139,
      "å": 140,
      "æ": 141,
      "ç": 142,
      "è": 143,
      "é": 144,
      "ê": 145,
      "ë": 146,
      "ì": 147,
      "í": 148,
      "î": 149,
      "ï": 150,
      "ð": 151,
      "ñ": 152,
      "ò": 153,
      "ó": 154,
      "ô": 155,
      "õ": 156,
      "ö": 157,
      "÷": 158,
      "ø": 159,
      "ù": 160,
      "ú": 161,
      "ü": 162,
      "ý": 163,
      "Ā": 164,
      "ā": 165,
      "Ă": 166,
      "ă": 167,
      "Ą": 168,
      "Ć": 169,
      "ć": 170,
      "Č": 171,
      "č": 172,
      "đ": 173,
      "Ē": 174,
      "ē": 175,
      "Ė": 176,
      "ė": 177,
      "Ę": 178,
      "ę": 179,
      "ě": 180,
      "ğ": 181,
      "ħ": 182,
      "ī": 183,
      "ı": 184,
      "Ķ": 185,
      "ĺ": 186,
      "ļ": 187,
      "Ł": 188,
      "ł": 189,
      "Ń": 190,
      "ń": 191,
      "Ņ": 192,
      "ņ": 193,
      "ň": 194,
      "Ŏ": 195,
      "ŏ": 196,
      "ő": 197,
      "Ř": 198,
      "ř": 199,
      "Ś": 200,
      "ś": 201,
      "Ş": 202,
      "ş": 203,
      "Š": 204,
      "š": 205,
      "ţ": 206,
      "ū": 207,
      "ŭ": 208,
      "ů": 209,
      "ų": 210,
      "Ż": 211,
      "ż": 212,
      "Ž": 213,
      "ž": 214,
      "ǂ": 215,
      "ǔ": 216,
      "ǝ": 217,
      "Ț": 218,
      "ț": 219,
      "ə": 220,
      "ɛ": 221,
      "ɝ": 222,
      "ɣ": 223,
      "ɦ": 224,
      "ɪ": 225,
      "ɴ": 226,
      "ɼ": 227,
      "ʀ": 228,
      "ʟ": 229,
      "ʻ": 230,
      "ʼ": 231,
      "ˈ": 232,
      "ː": 233,
      "́": 234,
      "̊": 235,
      "̣": 236,
      "̪": 237,
      "̲": 238,
      "Ω": 239,
      "δ": 240,
      "μ": 241,
      "ύ": 242,
      "Ф": 243,
      "ً": 244,
      "٣": 245,
      "ଥ": 246,
      "ღ": 247,
      "ᴀ": 248,
      "ᴄ": 249,
      "ᴋ": 250,
      "ᴏ": 251,
      "ᴛ": 252,
      "ṇ": 253,
      "ṣ": 254,
      "ế": 255,
      "ệ": 256,
      "‐": 257,
      "–": 258,
      "—": 259,
      "―": 260,
      "‘": 261,
      "’": 262,
      "‚": 263,
      "“": 264,
      "”": 265,
      "‟": 266,
      "†": 267,
      "‡": 268,
      "•": 269,
      "′": 270,
      "›": 271,
      "※": 272,
      "⁄": 273,
      "⁊": 274,
      "₩": 275,
      "₫": 276,
      "€": 277,
      "₱": 278,
      "₴": 279,
      "₸": 280,
      "⃣": 281,
      "←": 282,
      "↑": 283,
      "→": 284,
      "↓": 285,
      "↘": 286,
      "↪": 287,
      "↹": 288,
      "∆": 289,
      "−": 290,
      "∙": 291,
      "√": 292,
      "∧": 293,
      "∨": 294,
      "≤": 295,
      "≥": 296,
      "⊙": 297,
      "⋆": 298,
      "⌧": 299,
      "⌬": 300,
      "⏺": 301,
      "┝": 302,
      "╔": 303,
      "▌": 304,
      "▐": 305,
      "■": 306,
      "□": 307,
      "▪": 308,
      "▲": 309,
      "△": 310,
      "►": 311,
      "▻": 312,
      "▼": 313,
      "▽": 314,
      "▾": 315,
      "◄": 316,
      "◆": 317,
      "◇": 318,
      "○": 319,
      "●": 320,
      "◐": 321,
      "◦": 322,
      "◻": 323,
      "◾": 324,
      "☀": 325,
      "☃": 326,
      "★": 327,
      "☆": 328,
      "☉": 329,
      "☎": 330,
      "☏": 331,
      "☑": 332,
      "☛": 333,
      "☝": 334,
      "☢": 335,
      "☭": 336,
      "☾": 337,
      "♂": 338,
      "♋": 339,
      "♍": 340,
      "♏": 341,
      "♔": 342,
      "♛": 343,
      "♡": 344,
      "♥": 345,
      "♦": 346,
      "♪": 347,
      "♻": 348,
      "⚓": 349,
      "⚖": 350,
      "⚡": 351,
      "⚪": 352,
      "⚽": 353,
      "⛅": 354,
      "⛈": 355,
      "⛳": 356,
      "✅": 357,
      "✌": 358,
      "✔": 359,
      "✝": 360,
      "✞": 361,
      "✨": 362,
      "✮": 363,
      "❀": 364,
      "❄": 365,
      "❌": 366,
      "❗": 367,
      "❝": 368,
      "❞": 369,
      "❤": 370,
      "➍": 371,
      "➎": 372,
      "➡": 373,
      "➥": 374,
      "➫": 375,
      "➶": 376,
      "「": 377,
      "」": 378,
      "〖": 379,
      "〗": 380,
      "佳": 381,
      "貴": 382,
      "사": 383,
      "이": 384,
      "트": 385,
      "🅕": 386,
      "🅥": 387,
      "🆘": 388,
      "🇦": 389,
      "🇧": 390,
      "🇨": 391,
      "🇩": 392,
      "🇪": 393,
      "🇫": 394,
      "🇬": 395,
      "🇱": 396,
      "🇴": 397,
      "🇷": 398,
      "🇸": 399,
      "🇺": 400,
      "🇻": 401,
      "🇾": 402,
      "🇿": 403,
      "🌈": 404,
      "🌎": 405,
      "🌓": 406,
      "🌙": 407,
      "🌟": 408,
      "🌠": 409,
      "🌹": 410,
      "🌻": 411,
      "🌼": 412,
      "🍁": 413,
      "🍑": 414,
      "🍭": 415,
      "🍰": 416,
      "🎄": 417,
      "🎗": 418,
      "🎤": 419,
      "🎧": 420,
      "🎭": 421,
      "🎮": 422,
      "🎵": 423,
      "🎶": 424,
      "🎸": 425,
      "🎹": 426,
      "🏒": 427,
      "🏠": 428,
      "🏳": 429,
      "🏴": 430,
      "🏻": 431,
      "🏼": 432,
      "🐙": 433,
      "🐯": 434,
      "🐼": 435,
      "🐾": 436,
      "👀": 437,
      "👁": 438,
      "👌": 439,
      "👍": 440,
      "👏": 441,
      "👑": 442,
      "👠": 443,
      "👶": 444,
      "👹": 445,
      "👺": 446,
      "👼": 447,
      "💅": 448,
      "💎": 449,
      "💓": 450,
      "💚": 451,
      "💥": 452,
      "💧": 453,
      "💭": 454,
      "📅": 455,
      "📣": 456,
      "📻": 457,
      "🔂": 458,
      "🔎": 459,
      "🔙": 460,
      "🔥": 461,
      "🔴": 462,
      "🕊": 463,
      "🖤": 464,
      "😏": 465,
      "😔": 466,
      "😲": 467,
      "🙂": 468,
      "🙋": 469,
      "🙌": 470,
      "🚴": 471,
      "🛰": 472,
      "🤨": 473,
      "🥀": 474,
      "🦁": 475,
      "🦃": 476,
      "🦄": 477,
      "🦅": 478,
      "🦇": 479,
      "🦋": 480,
      "🧩": 481,
      "ch": 482,
      "an": 483,
      "ai": 484,
      "ar": 485,
      "th": 486,
      "in": 487,
      "ea": 488,
      "na": 489,
      "ir": 490,
      "mh": 491,
      "ag": 492,
      "il": 493,
      "bh": 494,
      "dh": 495,
      "is": 496,
      "ta": 497,
      "le": 498,
      "ío": 499,
      "us": 500,
      "ach": 501,
      "agus": 502,
      "on": 503,
      "air": 504,
      "de": 505,
      "te": 506,
      "or": 507,
      "sc": 508,
      "al": 509,
      "ith": 510,
      "gh": 511,
      "id": 512,
      "each": 513,
      "se": 514,
      "iú": 515,
      "ra": 516,
      "la": 517,
      "ain": 518,
      "co": 519,
      "áil": 520,
      "chu": 521,
      "aith": 522,
      "ean": 523,
      "inn": 524,
      "as": 525,
      "oi": 526,
      "áin": 527,
      "ad": 528,
      "tá": 529,
      "tú": 530,
      "seo": 531,
      "ais": 532,
      "lea": 533,
      "sa": 534,
      "go": 535,
      "fh": 536,
      "ear": 537,
      "nó": 538,
      "íoch": 539,
      "uil": 540,
      "tr": 541,
      "bhf": 542,
      "do": 543,
      "án": 544,
      "ei": 545,
      "anna": 546,
      "Ch": 547,
      "br": 548,
      "ithe": 549,
      "aigh": 550,
      "im": 551,
      "ur": 552,
      "tha": 553,
      "io": 554,
      "lá": 555,
      "et": 556,
      "sh": 557,
      "ine": 558,
      "éan": 559,
      "it": 560,
      "aidh": 561,
      "we": 562,
      "omh": 563,
      "oir": 564,
      "bhfuil": 565,
      "ann": 566,
      "leis": 567,
      "tas": 568,
      "ion": 569,
      "sin": 570,
      "uir": 571,
      "amh": 572,
      "An": 573,
      "fé": 574,
      "ao": 575,
      "eidh": 576,
      "un": 577,
      "ial": 578,
      "íon": 579,
      "aithe": 580,
      "weet": 581,
      "chun": 582,
      "óir": 583,
      "nach": 584,
      "re": 585,
      "ic": 586,
      "gc": 587,
      "eann": 588,
      "ail": 589,
      "ín": 590,
      "eal": 591,
      "am": 592,
      "imh": 593,
      "aon": 594,
      "ro": 595,
      "eag": 596,
      "20": 597,
      "eil": 598,
      "ig": 599,
      "ré": 600,
      "comh": 601,
      "eith": 602,
      "adh": 603,
      "idir": 604,
      "mar": 605,
      "áir": 606,
      "st": 607,
      "ist": 608,
      "nú": 609,
      "eacht": 610,
      "leat": 611,
      "lach": 612,
      "eamh": 613,
      "éad": 614,
      "du": 615,
      "ás": 616,
      "sé": 617,
      "íochta": 618,
      "gur": 619,
      "aim": 620,
      "Tweet": 621,
      "lu": 622,
      "eo": 623,
      "eath": 624,
      "íomh": 625,
      "uair": 626,
      "fa": 627,
      "ná": 628,
      "eachta": 629,
      "ru": 630,
      "li": 631,
      "cinn": 632,
      "eadh": 633,
      "pe": 634,
      "airt": 635,
      "lean": 636,
      "ph": 637,
      "den": 638,
      "atá": 639,
      "ge": 640,
      "íos": 641,
      "eathnú": 642,
      "eas": 643,
      "cosc": 644,
      "íonn": 645,
      "iar": 646,
      "rá": 647,
      "aid": 648,
      "Me": 649,
      "ói": 650,
      "tar": 651,
      "Tweetanna": 652,
      "Is": 653,
      "isc": 654,
      "rú": 655,
      "agh": 656,
      "cu": 657,
      "tear": 658,
      "mb": 659,
      "ath": 660,
      "dhéan": 661,
      "íocht": 662,
      "at": 663,
      "Tá": 664,
      "sá": 665,
      "ol": 666,
      "ór": 667,
      "mhaith": 668,
      "féidir": 669,
      "cht": 670,
      "os": 671,
      "faoi": 672,
      "cinnte": 673,
      "me": 674,
      "breathnú": 675,
      "éir": 676,
      "Chuir": 677,
      "ead": 678,
      "dá": 679,
      "aí": 680,
      "Meáin": 681,
      "201": 682,
      "raí": 683,
      "iom": 684,
      "iún": 685,
      "chur": 686,
      "ina": 687,
      "oil": 688,
      "su": 689,
      "er": 690,
      "chomh": 691,
      "eile": 692,
      "iad": 693,
      "aisc": 694,
      "bhí": 695,
      "far": 696,
      "igh": 697,
      "dhéanamh": 698,
      "oc": 699,
      "leadh": 700,
      "trí": 701,
      "int": 702,
      "ac": 703,
      "orn": 704,
      "fear": 705,
      "alt": 706,
      "éis": 707,
      "san": 708,
      "bheith": 709,
      "dú": 710,
      "nithe": 711,
      "pr": 712,
      "ál": 713,
      "ón": 714,
      "bhain": 715,
      "cho": 716,
      "fr": 717,
      "nd": 718,
      "uilleadh": 719,
      "ainn": 720,
      "iste": 721,
      "úsá": 722,
      "acht": 723,
      "dt": 724,
      "deimh": 725,
      "eart": 726,
      "don": 727,
      "éar": 728,
      "untas": 729,
      "gach": 730,
      "Co": 731,
      "aghaidh": 732,
      "maid": 733,
      "..": 734,
      "niú": 735,
      "faidh": 736,
      "úna": 737,
      "duine": 738,
      "Ar": 739,
      "saor": 740,
      "lí": 741,
      "ír": 742,
      "taí": 743,
      "eanna": 744,
      "Tuilleadh": 745,
      "19": 746,
      "ce": 747,
      "ratas": 748,
      "ca": 749,
      "Air": 750,
      "ár": 751,
      "ob": 752,
      "maidir": 753,
      "ian": 754,
      "bhairt": 755,
      "Comh": 756,
      "nasc": 757,
      "deimhnithe": 758,
      "Ní": 759,
      "Cuntas": 760,
      "sú": 761,
      "eidhm": 762,
      "óirí": 763,
      "láth": 764,
      "aoin": 765,
      "orp": 766,
      "aisce": 767,
      "tais": 768,
      "porn": 769,
      "bhar": 770,
      "Ga": 771,
      "ich": 772,
      "chl": 773,
      "fu": 774,
      "níos": 775,
      "um": 776,
      "chean": 777,
      "úsáid": 778,
      "nu": 779,
      "iúil": 780,
      "óg": 781,
      "isiún": 782,
      "ní": 783,
      "aoine": 784,
      "óipe": 785,
      "acha": 786,
      "íne": 787,
      "eir": 788,
      "óipeáil": 789,
      "aighde": 790,
      "so": 791,
      "ing": 792,
      "eilge": 793,
      "éil": 794,
      "éid": 795,
      "lán": 796,
      "gn": 797,
      "lacha": 798,
      "réir": 799,
      "Cóipeáil": 800,
      "chuid": 801,
      "idh": 802,
      "dar": 803,
      "tach": 804,
      "chial": 805,
      "tweet": 806,
      "mó": 807,
      "déan": 808,
      "Ag": 809,
      "00": 810,
      "Bh": 811,
      "íse": 812,
      "for": 813,
      "ide": 814,
      "eagra": 815,
      "fáil": 816,
      "sí": 817,
      "aint": 818,
      "Eorp": 819,
      "maith": 820,
      "Th": 821,
      "lena": 822,
      "oibr": 823,
      "eitheamh": 824,
      "Acht": 825,
      "en": 826,
      "gan": 827,
      "ard": 828,
      "rai": 829,
      "oig": 830,
      "Gaeilge": 831,
      "if": 832,
      "haghaidh": 833,
      "luich": 834,
      "ug": 835,
      "Aon": 836,
      "eacha": 837,
      "áirt": 838,
      "all": 839,
      "eis": 840,
      "ras": 841,
      "ter": 842,
      "inne": 843,
      "bhr": 844,
      "chloig": 845,
      "airle": 846,
      "ia": 847,
      "las": 848,
      "lo": 849,
      "ma": 850,
      "leanúna": 851,
      "shin": 852,
      "líne": 853,
      "thar": 854,
      "lár": 855,
      "son": 856,
      "fhr": 857,
      "Éir": 858,
      "ála": 859,
      "rial": 860,
      "sain": 861,
      "es": 862,
      "leith": 863,
      "iarratas": 864,
      "cr": 865,
      "amháin": 866,
      "el": 867,
      "mór": 868,
      "ineál": 869,
      "and": 870,
      "oirí": 871,
      "lé": 872,
      "the": 873,
      "cú": 874,
      "lac": 875,
      "nua": 876,
      "Dí": 877,
      "óis": 878,
      "abh": 879,
      "Cuir": 880,
      "to": 881,
      "uid": 882,
      "bheidh": 883,
      "lú": 884,
      "éal": 885,
      "amach": 886,
      "artha": 887,
      "mo": 888,
      "éag": 889,
      "lian": 890,
      "siad": 891,
      "íochtaí": 892,
      "éim": 893,
      "oim": 894,
      "gead": 895,
      "Ro": 896,
      "laigh": 897,
      "ait": 898,
      "Ph": 899,
      "aighdeán": 900,
      "thabhairt": 901,
      "áit": 902,
      "tu": 903,
      "ts": 904,
      "aimniú": 905,
      "Iar": 906,
      "tion": 907,
      "sp": 908,
      "féin": 909,
      "ítear": 910,
      "eabh": 911,
      "físe": 912,
      "ib": 913,
      "laim": 914,
      "choisc": 915,
      "ord": 916,
      "isin": 917,
      "éach": 918,
      "mp": 919,
      "rud": 920,
      "fidh": 921,
      "ios": 922,
      "asc": 923,
      "Díchoisc": 924,
      "raibh": 925,
      "oimh": 926,
      "íoc": 927,
      "foc": 928,
      "úil": 929,
      "isiúnta": 930,
      "seir": 931,
      "In": 932,
      "íniú": 933,
      "fo": 934,
      "stá": 935,
      "ri": 936,
      "faoin": 937,
      "íol": 938,
      "onn": 939,
      "gá": 940,
      "iona": 941,
      "fháil": 942,
      "cheannach": 943,
      "cineál": 944,
      "leath": 945,
      "Féach": 946,
      "seirbhí": 947,
      "gcomh": 948,
      "gcás": 949,
      "scoil": 950,
      "ún": 951,
      "ga": 952,
      "dáil": 953,
      "isteach": 954,
      "ite": 955,
      "má": 956,
      "teag": 957,
      "lais": 958,
      "scr": 959,
      "pa": 960,
      "údar": 961,
      "neamh": 962,
      "irt": 963,
      "bun": 964,
      "réas": 965,
      "daoine": 966,
      "ainm": 967,
      "léir": 968,
      "obh": 969,
      "cháin": 970,
      "dear": 971,
      "innt": 972,
      "liain": 973,
      "fearr": 974,
      "ois": 975,
      "ne": 976,
      "10": 977,
      "Gh": 978,
      "cluich": 979,
      "trá": 980,
      "beidh": 981,
      "aile": 982,
      "rogh": 983,
      "iomlán": 984,
      "Mar": 985,
      "iarr": 986,
      "aill": 987,
      "íonna": 988,
      "focal": 989,
      "Aire": 990,
      "acu": 991,
      "ceann": 992,
      "no": 993,
      "fhor": 994,
      "íodh": 995,
      "ló": 996,
      "suíomh": 997,
      "mhíniú": 998,
      "ibh": 999,
      "gC": 1000,
      "airgead": 1001,
      "eachtaí": 1002,
      "tré": 1003,
      "eall": 1004,
      "cru": 1005,
      "Rial": 1006,
      "táir": 1007,
      "HD": 1008,
      "nGaeilge": 1009,
      "ealaigh": 1010,
      "chú": 1011,
      "freagra": 1012,
      "200": 1013,
      "roimh": 1014,
      "Déan": 1015,
      "Chomh": 1016,
      "éile": 1017,
      "oth": 1018,
      "inte": 1019,
      "eola": 1020,
      "láin": 1021,
      "siú": 1022,
      "Mh": 1023,
      "eap": 1024,
      "mbeidh": 1025,
      "ánach": 1026,
      "Cealaigh": 1027,
      "bo": 1028,
      "ialta": 1029,
      "ip": 1030,
      "linn": 1031,
      "fhrith": 1032,
      "chuig": 1033,
      "ul": 1034,
      "ideach": 1035,
      "gníomh": 1036,
      "ríomh": 1037,
      "Sh": 1038,
      "áirithe": 1039,
      "féach": 1040,
      "ís": 1041,
      "fre": 1042,
      "sainmhíniú": 1043,
      "eist": 1044,
      "íor": 1045,
      "bríonna": 1046,
      "iúla": 1047,
      "ng": 1048,
      "fuaimniú": 1049,
      "lacht": 1050,
      "thu": 1051,
      "chiallaigh": 1052,
      "cur": 1053,
      "fig": 1054,
      "comhchiallaigh": 1055,
      "chiallach": 1056,
      "fhrithchiallach": 1057,
      "radh": 1058,
      "néis": 1059,
      "fho": 1060,
      "ábhar": 1061,
      "ba": 1062,
      "...": 1063,
      "oláth": 1064,
      "),": 1065,
      "raithe": 1066,
      "Éireann": 1067,
      "str": 1068,
      "ill": 1069,
      "aire": 1070,
      "arlaim": 1071,
      "anseo": 1072,
      "freisin": 1073,
      "méid": 1074,
      "imhse": 1075,
      "aois": 1076,
      "íobh": 1077,
      "cha": 1078,
      "aisnéis": 1079,
      "oifig": 1080,
      "12": 1081,
      "cuid": 1082,
      "thú": 1083,
      "tean": 1084,
      "dul": 1085,
      "álacha": 1086,
      "sna": 1087,
      "fadh": 1088,
      "bairt": 1089,
      "líon": 1090,
      "ceal": 1091,
      "com": 1092,
      "oll": 1093,
      "dtí": 1094,
      "anois": 1095,
      "tabhairt": 1096,
      "18": 1097,
      "chéad": 1098,
      "áis": 1099,
      "éagsú": 1100,
      "teacht": 1101,
      "amp": 1102,
      "ásta": 1103,
      "duit": 1104,
      "leanas": 1105,
      "Sa": 1106,
      "có": 1107,
      "aic": 1108,
      "ceart": 1109,
      "rea": 1110,
      "oib": 1111,
      "láith": 1112,
      "réasáin": 1113,
      "pháirt": 1114,
      "cé": 1115,
      "oirm": 1116,
      "ice": 1117,
      "feitheamh": 1118,
      "Iarratas": 1119,
      "nadh": 1120,
      "ró": 1121,
      "laíonn": 1122,
      "isce": 1123,
      "liana": 1124,
      "gí": 1125,
      "naí": 1126,
      "níomh": 1127,
      "Comhairle": 1128,
      "anach": 1129,
      "gco": 1130,
      "ós": 1131,
      "Lean": 1132,
      "seach": 1133,
      "15": 1134,
      "bu": 1135,
      "uaire": 1136,
      "po": 1137,
      "saí": 1138,
      "Feitheamh": 1139,
      "char": 1140,
      "Le": 1141,
      "cuir": 1142,
      "sonraí": 1143,
      "feidhm": 1144,
      "bhreathnú": 1145,
      "éif": 1146,
      "bhaineann": 1147,
      "mhar": 1148,
      "cáil": 1149,
      "bhaint": 1150,
      "chuir": 1151,
      "rach": 1152,
      "roinnt": 1153,
      "nas": 1154,
      "ábh": 1155,
      "fhéad": 1156,
      "taobh": 1157,
      "nuair": 1158,
      "obair": 1159,
      "bhainfear": 1160,
      "náisiúnta": 1161,
      "bhun": 1162,
      "aige": 1163,
      "mB": 1164,
      "AE": 1165,
      "tal": 1166,
      "rom": 1167,
      "ndéan": 1168,
      "tor": 1169,
      "éirí": 1170,
      "Eorpach": 1171,
      "ích": 1172,
      "agat": 1173,
      "eala": 1174,
      "onar": 1175,
      "Lea": 1176,
      "earta": 1177,
      "ordú": 1178,
      "chóir": 1179,
      "soláth": 1180,
      "roí": 1181,
      "dír": 1182,
      "thaí": 1183,
      "dáta": 1184,
      "di": 1185,
      "Stá": 1186,
      "Beidh": 1187,
      "tS": 1188,
      "ionad": 1189,
      "tréimhse": 1190,
      "Fh": 1191,
      "atag": 1192,
      "dhá": 1193,
      "arna": 1194,
      "bhre": 1195,
      "bhfeidhm": 1196,
      "ómh": 1197,
      "Go": 1198,
      "wit": 1199,
      "Roinn": 1200,
      "gréasáin": 1201,
      "mé": 1202,
      "fad": 1203,
      "mí": 1204,
      "ort": 1205,
      "cheart": 1206,
      "istí": 1207,
      "eic": 1208,
      "árta": 1209,
      "lacadh": 1210,
      "mu": 1211,
      "órt": 1212,
      "oimisiún": 1213,
      "witter": 1214,
      "Sc": 1215,
      "íocha": 1216,
      "chaighdeán": 1217,
      "ie": 1218,
      "Twitter": 1219,
      "oibre": 1220,
      "leor": 1221,
      "Airteag": 1222,
      "aing": 1223,
      "cluiche": 1224,
      "oiblí": 1225,
      "dó": 1226,
      "hÉireann": 1227,
      "airm": 1228,
      "éagsúla": 1229,
      "16": 1230,
      "Bain": 1231,
      "éas": 1232,
      "Fómh": 1233,
      "tair": 1234,
      "deir": 1235,
      "chán": 1236,
      "chéile": 1237,
      "allstá": 1238,
      "EN": 1239,
      "Má": 1240,
      "físeáin": 1241,
      "áilte": 1242,
      "leo": 1243,
      "álta": 1244,
      "dhaoine": 1245,
      "lagh": 1246,
      ").": 1247,
      "íoca": 1248,
      "osc": 1249,
      "rian": 1250,
      "dói": 1251,
      "cheann": 1252,
      "eán": 1253,
      "idí": 1254,
      "Aontais": 1255,
      "ideal": 1256,
      "síos": 1257,
      "scoth": 1258,
      "imp": 1259,
      "Airteagal": 1260,
      "aghas": 1261,
      "laist": 1262,
      "hEorp": 1263,
      "iúnach": 1264,
      "eirbhí": 1265,
      "hEorpa": 1266,
      "taca": 1267,
      "30": 1268,
      "eireadh": 1269,
      "24": 1270,
      "caighdeán": 1271,
      "easc": 1272,
      "ve": 1273,
      "men": 1274,
      "físeán": 1275,
      "bith": 1276,
      "freag": 1277,
      "tionsc": 1278,
      "arlaimint": 1279,
      "For": 1280,
      "14": 1281,
      "tóir": 1282,
      "of": 1283,
      "gadh": 1284,
      "mheas": 1285,
      "inneadh": 1286,
      "bhu": 1287,
      "Ach": 1288,
      "dála": 1289,
      "íl": 1290,
      "óidh": 1291,
      "achán": 1292,
      "ola": 1293,
      "rann": 1294,
      "láinte": 1295,
      "da": 1296,
      "Con": 1297,
      "lárú": 1298,
      "lódáil": 1299,
      "súil": 1300,
      "aip": 1301,
      "bain": 1302,
      "ógra": 1303,
      "Ba": 1304,
      "santa": 1305,
      "bhliain": 1306,
      "íní": 1307,
      "St": 1308,
      "phr": 1309,
      "ailt": 1310,
      "ver": 1311,
      "13": 1312,
      "Fu": 1313,
      "eolas": 1314,
      "car": 1315,
      "domh": 1316,
      "eol": 1317,
      "Dh": 1318,
      "féad": 1319,
      "lío": 1320,
      "ust": 1321,
      "min": 1322,
      "2018": 1323,
      "éarla": 1324,
      "foir": 1325,
      "con": 1326,
      "riacht": 1327,
      "mhí": 1328,
      "scann": 1329,
      "fásta": 1330,
      "láthair": 1331,
      "mbain": 1332,
      "páirt": 1333,
      "11": 1334,
      "gcuid": 1335,
      "ed": 1336,
      "isteanna": 1337,
      "earraí": 1338,
      "áirítear": 1339,
      "iscthe": 1340,
      "ll": 1341,
      "mhainn": 1342,
      "beag": 1343,
      "suas": 1344,
      "ibé": 1345,
      "Ath": 1346,
      "De": 1347,
      "om": 1348,
      "Ná": 1349,
      "achta": 1350,
      "dheis": 1351,
      "aine": 1352,
      "táirgí": 1353,
      "ram": 1354,
      "wee": 1355,
      "eang": 1356,
      "Iúil": 1357,
      "cheana": 1358,
      "Féad": 1359,
      "iúl": 1360,
      "úsáide": 1361,
      "chru": 1362,
      "cead": 1363,
      "feadh": 1364,
      "och": 1365,
      "taithe": 1366,
      "mas": 1367,
      "iontach": 1368,
      "féachaint": 1369,
      "leibh": 1370,
      "tálacha": 1371,
      "osta": 1372,
      "dlí": 1373,
      "17": 1374,
      "sm": 1375,
      "Coiscthe": 1376,
      "cibé": 1377,
      "ran": 1378,
      "acháin": 1379,
      "bliana": 1380,
      "tae": 1381,
      "láithre": 1382,
      "más": 1383,
      "réim": 1384,
      "iúr": 1385,
      "díreach": 1386,
      "inníol": 1387,
      "og": 1388,
      "tan": 1389,
      "2017": 1390,
      "oic": 1391,
      "spe": 1392,
      "fheidhm": 1393,
      "Porn": 1394,
      "tAire": 1395,
      "atwee": 1396,
      "atweetálacha": 1397,
      "Ard": 1398,
      "cial": 1399,
      "lan": 1400,
      "sean": 1401,
      "únach": 1402,
      "aol": 1403,
      "iomp": 1404,
      "eidhme": 1405,
      "gcó": 1406,
      "údarás": 1407,
      "éig": 1408,
      "Deireadh": 1409,
      "Nu": 1410,
      "láir": 1411,
      "líonadh": 1412,
      "Sp": 1413,
      "cl": 1414,
      "Físe": 1415,
      "Oif": 1416,
      "sholáth": 1417,
      "Dé": 1418,
      "alta": 1419,
      "ibr": 1420,
      "Oifig": 1421,
      "Márta": 1422,
      "earr": 1423,
      "Chomhairle": 1424,
      "leag": 1425,
      "ioc": 1426,
      "uisce": 1427,
      "áid": 1428,
      "fhéadfadh": 1429,
      "The": 1430,
      "ghabh": 1431,
      "aistr": 1432,
      "raith": 1433,
      "onc": 1434,
      "luach": 1435,
      "leic": 1436,
      "Tu": 1437,
      "Chun": 1438,
      "achtach": 1439,
      "ealach": 1440,
      "oidh": 1441,
      "sórt": 1442,
      "thair": 1443,
      "cheap": 1444,
      "25": 1445,
      "seirbhísí": 1446,
      "Oir": 1447,
      "land": 1448,
      "ghníomh": 1449,
      "mháil": 1450,
      "náth": 1451,
      "coth": 1452,
      "raítear": 1453,
      "gnó": 1454,
      "Tug": 1455,
      "íoslódáil": 1456,
      "úin": 1457,
      "laistigh": 1458,
      "ideachais": 1459,
      "Cu": 1460,
      "CE": 1461,
      "leas": 1462,
      "ionsc": 1463,
      "íbh": 1464,
      "aoil": 1465,
      "faí": 1466,
      "Béarla": 1467,
      "ss": 1468,
      "tre": 1469,
      "Cluich": 1470,
      "meas": 1471,
      "iaidh": 1472,
      "seirbhís": 1473,
      "Comhrá": 1474,
      "Na": 1475,
      "bhreith": 1476,
      "déanta": 1477,
      "Aontas": 1478,
      "ii": 1479,
      "tea": 1480,
      "aireacht": 1481,
      "bra": 1482,
      "huaire": 1483,
      "mha": 1484,
      "Pr": 1485,
      "ndáil": 1486,
      "2019": 1487,
      "tí": 1488,
      "atagóir": 1489,
      "reid": 1490,
      "eachtais": 1491,
      "leathanach": 1492,
      "chuí": 1493,
      "lamh": 1494,
      "chos": 1495,
      "dhear": 1496,
      "altaí": 1497,
      "anta": 1498,
      "meá": 1499,
      "ailte": 1500,
      "reoir": 1501,
      "láithreán": 1502,
      "23": 1503,
      "áireamh": 1504,
      "eisteanna": 1505,
      "luais": 1506,
      "mhéid": 1507,
      "eice": 1508,
      "faisnéis": 1509,
      "Leab": 1510,
      "spr": 1511,
      "ise": 1512,
      "iscint": 1513,
      "mbaineann": 1514,
      "imid": 1515,
      "aird": 1516,
      "túil": 1517,
      "ladh": 1518,
      "obal": 1519,
      "tráth": 1520,
      "fós": 1521,
      "reach": 1522,
      "laí": 1523,
      "Uimh": 1524,
      "iúint": 1525,
      "pho": 1526,
      "ck": 1527,
      "ire": 1528,
      "bhíonn": 1529,
      "obail": 1530,
      "ins": 1531,
      "tag": 1532,
      "earsanta": 1533,
      "clár": 1534,
      "mbeadh": 1535,
      "iarraidh": 1536,
      "Baile": 1537,
      "ág": 1538,
      "ash": 1539,
      "tras": 1540,
      "iméad": 1541,
      "shon": 1542,
      "ity": 1543,
      "ler": 1544,
      "ora": 1545,
      "téar": 1546,
      "ation": 1547,
      "22": 1548,
      "éasc": 1549,
      "mhór": 1550,
      "túr": 1551,
      "ub": 1552,
      "Ean": 1553,
      "arr": 1554,
      "gheall": 1555,
      "eabhsú": 1556,
      "aispe": 1557,
      "scéim": 1558,
      "infh": 1559,
      "aite": 1560,
      "nós": 1561,
      "gComhairle": 1562,
      "próis": 1563,
      "cluichí": 1564,
      "arasc": 1565,
      "céanna": 1566,
      "isialta": 1567,
      "scríobh": 1568,
      "tur": 1569,
      "ish": 1570,
      "Agus": 1571,
      "tús": 1572,
      "tuair": 1573,
      "eac": 1574,
      "ala": 1575,
      "leibhéal": 1576,
      "mhacht": 1577,
      "fud": 1578,
      "Re": 1579,
      "Atweet": 1580,
      "rúpa": 1581,
      "Br": 1582,
      "op": 1583,
      "samh": 1584,
      "Io": 1585,
      "Leabaigh": 1586,
      "21": 1587,
      "bhfo": 1588,
      "ús": 1589,
      "lín": 1590,
      "000": 1591,
      "tóirí": 1592,
      "athrú": 1593,
      "fhreagra": 1594,
      "rogha": 1595,
      "ráta": 1596,
      "stit": 1597,
      "gnéas": 1598,
      "íche": 1599,
      "thug": 1600,
      "againn": 1601,
      "breis": 1602,
      "féadfaidh": 1603,
      "uas": 1604,
      "iúcháin": 1605,
      "dóibh": 1606,
      "ot": 1607,
      "pá": 1608,
      "óisialta": 1609,
      "táil": 1610,
      "praghas": 1611,
      "airde": 1612,
      "teic": 1613,
      "Noll": 1614,
      "Soláth": 1615,
      "orthu": 1616,
      "achtaí": 1617,
      "man": 1618,
      "CH": 1619,
      "Al": 1620,
      "Fómhair": 1621,
      "bliain": 1622,
      "aise": 1623,
      "shu": 1624,
      "Cé": 1625,
      "liom": 1626,
      "II": 1627,
      "raíonn": 1628,
      "príomh": 1629,
      "iosta": 1630,
      "mhír": 1631,
      "uile": 1632,
      "scannán": 1633,
      "AN": 1634,
      "AI": 1635,
      "aig": 1636,
      "Beal": 1637,
      "rith": 1638,
      "fe": 1639,
      "ábhair": 1640,
      "tug": 1641,
      "chead": 1642,
      "achtar": 1643,
      "Gnó": 1644,
      "anda": 1645,
      "Fuaimniú": 1646,
      "199": 1647,
      "tSín": 1648,
      "ruithe": 1649,
      "Lu": 1650,
      "suim": 1651,
      "thóir": 1652,
      "cothrom": 1653,
      "mír": 1654,
      "Éirinn": 1655,
      "scríbh": 1656,
      "per": 1657,
      "eiceáil": 1658,
      "leictr": 1659,
      "amhail": 1660,
      "gcónaí": 1661,
      "críocha": 1662,
      "feidhme": 1663,
      "lann": 1664,
      "mian": 1665,
      "gal": 1666,
      "chlár": 1667,
      "fheabhsú": 1668,
      "eimh": 1669,
      "Aontaithe": 1670,
      "ustaim": 1671,
      "Ballstá": 1672,
      "ciallaíonn": 1673,
      "deis": 1674,
      "be": 1675,
      "ou": 1676,
      "chan": 1677,
      "2016": 1678,
      "iomchuí": 1679,
      "gra": 1680,
      "Féadfaidh": 1681,
      "chr": 1682,
      "léas": 1683,
      "riachtan": 1684,
      "cad": 1685,
      "ke": 1686,
      "ghlacadh": 1687,
      "inníollacha": 1688,
      "mm": 1689,
      "cos": 1690,
      "fhios": 1691,
      "stáil": 1692,
      "oiriúnach": 1693,
      "liath": 1694,
      "scoile": 1695,
      "iam": 1696,
      "úirt": 1697,
      "Eorpaigh": 1698,
      "ráid": 1699,
      "úinte": 1700,
      "scrú": 1701,
      "áiste": 1702,
      "iúin": 1703,
      "amhl": 1704,
      "Coimisiún": 1705,
      "ior": 1706,
      "50": 1707,
      "amhlaidh": 1708,
      "Su": 1709,
      "aontú": 1710,
      "Seirbhí": 1711,
      "tríd": 1712,
      "rí": 1713,
      "eoladh": 1714,
      "measc": 1715,
      "Físeán": 1716,
      "fógra": 1717,
      "Sco": 1718,
      "croí": 1719,
      "ps": 1720,
      "tábh": 1721,
      "100": 1722,
      "Rialachán": 1723,
      "té": 1724,
      "éadú": 1725,
      "eáil": 1726,
      "der": 1727,
      "iu": 1728,
      "fhorbairt": 1729,
      "ka": 1730,
      "teor": 1731,
      "seacht": 1732,
      "úint": 1733,
      "muid": 1734,
      "chúis": 1735,
      "bhrú": 1736,
      "ile": 1737,
      "uath": 1738,
      "sholáthar": 1739,
      "Nach": 1740,
      "reachta": 1741,
      "óc": 1742,
      "iteach": 1743,
      "baint": 1744,
      "ism": 1745,
      "neola": 1746,
      "monar": 1747,
      "aimh": 1748,
      "cáilíochta": 1749,
      "Cru": 1750,
      "haon": 1751,
      "teideal": 1752,
      "inear": 1753,
      "deireadh": 1754,
      "dtag": 1755,
      "ama": 1756,
      "iúir": 1757,
      "Cú": 1758,
      "Gha": 1759,
      "Stát": 1760,
      "ana": 1761,
      "aíocht": 1762,
      "Bu": 1763,
      "teanna": 1764,
      "tos": 1765,
      "Stáit": 1766,
      "thóg": 1767,
      "qu": 1768,
      "ghnó": 1769,
      "ailiú": 1770,
      "Nuair": 1771,
      "aif": 1772,
      "chó": 1773,
      "chlárú": 1774,
      "Náisiúnta": 1775,
      "inearálta": 1776,
      "bp": 1777,
      "lae": 1778,
      "háirithe": 1779,
      "airí": 1780,
      "aíochtaí": 1781,
      "éasca": 1782,
      "namh": 1783,
      "áth": 1784,
      "tála": 1785,
      "Ne": 1786,
      "speisialta": 1787,
      "Airgead": 1788,
      "Oireachtais": 1789,
      "cion": 1790,
      "tra": 1791,
      "tic": 1792,
      "ratais": 1793,
      "gcuir": 1794,
      "fíor": 1795,
      "26": 1796,
      "dhéanann": 1797,
      "Gael": 1798,
      "stitiú": 1799,
      "bia": 1800,
      "chomhrá": 1801,
      "AR": 1802,
      "Fo": 1803,
      "bhrí": 1804,
      "Samh": 1805,
      "freagairt": 1806,
      "27": 1807,
      "Údar": 1808,
      "oimisin": 1809,
      "leathan": 1810,
      "réimse": 1811,
      "lucht": 1812,
      "Bhí": 1813,
      "ansin": 1814,
      "32": 1815,
      "org": 1816,
      "choi": 1817,
      "imeachtaí": 1818,
      "Ceisteanna": 1819,
      "Tithe": 1820,
      "Dáil": 1821,
      "teanga": 1822,
      "Son": 1823,
      "ghlaim": 1824,
      "Pharlaimint": 1825,
      "mal": 1826,
      "poiblí": 1827,
      "íola": 1828,
      "ly": 1829,
      "áitiúil": 1830,
      "bháil": 1831,
      "aitheamh": 1832,
      "Feabh": 1833,
      "rocht": 1834,
      "imeachta": 1835,
      "nár": 1836,
      "ileanna": 1837,
      "airgeadra": 1838,
      "rialacha": 1839,
      "eithic": 1840,
      "ton": 1841,
      "Fr": 1842,
      "Atweetáil": 1843,
      "Mí": 1844,
      "modh": 1845,
      "Se": 1846,
      "ti": 1847,
      "Id": 1848,
      "áint": 1849,
      "arascáil": 1850,
      "cosúil": 1851,
      "dúr": 1852,
      "tachta": 1853,
      "lig": 1854,
      "réig": 1855,
      "acs": 1856,
      "2015": 1857,
      "beart": 1858,
      "east": 1859,
      "éard": 1860,
      "cuideachta": 1861,
      "soc": 1862,
      "uine": 1863,
      "imirt": 1864,
      "pearsanta": 1865,
      "usp": 1866,
      "íortha": 1867,
      "éifeacht": 1868,
      "mhainní": 1869,
      "scríbhinn": 1870,
      "scoileanna": 1871,
      "36": 1872,
      "Rinne": 1873,
      "ceang": 1874,
      "bhféad": 1875,
      "racha": 1876,
      "cuí": 1877,
      "ab": 1878,
      "íoctha": 1879,
      "inniú": 1880,
      "Te": 1881,
      "óga": 1882,
      "tháir": 1883,
      "raing": 1884,
      "2014": 1885,
      "Idir": 1886,
      "lin": 1887,
      "aoi": 1888,
      "aitéis": 1889,
      "28": 1890,
      "AS": 1891,
      "Or": 1892,
      "déanaí": 1893,
      "ionann": 1894,
      "bartha": 1895,
      "dach": 1896,
      "lim": 1897,
      "uch": 1898,
      "lachtaí": 1899,
      "roghnú": 1900,
      "staid": 1901,
      "bó": 1902,
      "arlaiminte": 1903,
      "airgeadais": 1904,
      "ws": 1905,
      "ealbh": 1906,
      "athair": 1907,
      "bunaithe": 1908,
      "oibriú": 1909,
      "ime": 1910,
      "Seo": 1911,
      "ID": 1912,
      "Níl": 1913,
      "Gnóthaí": 1914,
      "Do": 1915,
      "cumh": 1916,
      "31": 1917,
      "chumas": 1918,
      "ideachas": 1919,
      "scéal": 1920,
      "IN": 1921,
      "Átha": 1922,
      "sná": 1923,
      "túir": 1924,
      "Parlaiminte": 1925,
      "bhfor": 1926,
      "ull": 1927,
      "maoin": 1928,
      "mura": 1929,
      "laghdú": 1930,
      "Catagóir": 1931,
      "Leas": 1932,
      "fiú": 1933,
      "nad": 1934,
      "saol": 1935,
      "sheoladh": 1936,
      "To": 1937,
      "shamp": 1938,
      "Conas": 1939,
      "paí": 1940,
      "táirge": 1941,
      "nama": 1942,
      "eanta": 1943,
      "fhoir": 1944,
      "eannach": 1945,
      "aonair": 1946,
      "Ballstáit": 1947,
      "istiú": 1948,
      "inar": 1949,
      "rac": 1950,
      "29": 1951,
      "itheoirí": 1952,
      "mer": 1953,
      "Im": 1954,
      "ond": 1955,
      "coinníollacha": 1956,
      "scair": 1957,
      "maí": 1958,
      "réamh": 1959,
      "hiomlán": 1960,
      "uimh": 1961,
      "óip": 1962,
      "oiliú": 1963,
      "ráit": 1964,
      "úsáidtear": 1965,
      "dtagraítear": 1966,
      "chosaint": 1967,
      "cháil": 1968,
      "aib": 1969,
      "bhair": 1970,
      "gcomhréir": 1971,
      "leach": 1972,
      "thor": 1973,
      "chás": 1974,
      "ick": 1975,
      "seachas": 1976,
      "dtug": 1977,
      "sca": 1978,
      "Cluichí": 1979,
      "roimhe": 1980,
      "domhain": 1981,
      "raigh": 1982,
      "tagairt": 1983,
      "ay": 1984,
      "tacaíocht": 1985,
      "chinnt": 1986,
      "aithí": 1987,
      "Cur": 1988,
      "Treoir": 1989,
      "one": 1990,
      "ghn": 1991,
      "Cas": 1992,
      "taine": 1993,
      "éin": 1994,
      "itheoir": 1995,
      "gcéad": 1996,
      "Cliath": 1997,
      "iarratais": 1998,
      "cail": 1999,
      "dí": 2000,
      "ionc": 2001,
      "nádúr": 2002,
      "mhe": 2003,
      "aisín": 2004,
      "leagan": 2005,
      "abhair": 2006,
      "ack": 2007,
      "thaobh": 2008,
      "Cho": 2009,
      "eim": 2010,
      "tír": 2011,
      "óra": 2012,
      "gcr": 2013,
      "únas": 2014,
      "Tugadh": 2015,
      "easta": 2016,
      "ghairm": 2017,
      "gceist": 2018,
      "2013": 2019,
      "gr": 2020,
      "shampla": 2021,
      "ies": 2022,
      "cúr": 2023,
      "ille": 2024,
      "Saor": 2025,
      "aistriú": 2026,
      "Po": 2027,
      "choinne": 2028,
      "íocaíocht": 2029,
      "idirnáisiúnta": 2030,
      "aillimh": 2031,
      "úr": 2032,
      "ics": 2033,
      "ball": 2034,
      "dtaobh": 2035,
      "ae": 2036,
      "aíochta": 2037,
      "cruach": 2038,
      "Airgeadais": 2039,
      "sta": 2040,
      "Chon": 2041,
      "bhealach": 2042,
      "bhreithniú": 2043,
      "ino": 2044,
      "cor": 2045,
      "úis": 2046,
      "teach": 2047,
      "údaráis": 2048,
      "vó": 2049,
      "thag": 2050,
      "eolais": 2051,
      "Cad": 2052,
      "eofar": 2053,
      "Dá": 2054,
      "art": 2055,
      "arc": 2056,
      "cás": 2057,
      "ff": 2058,
      "iniú": 2059,
      "leabhar": 2060,
      "Gaillimh": 2061,
      "doic": 2062,
      "chta": 2063,
      "ict": 2064,
      "Más": 2065,
      "iz": 2066,
      "dúinn": 2067,
      "fhág": 2068,
      "aíonn": 2069,
      "dath": 2070,
      "ias": 2071,
      "íre": 2072,
      "Achta": 2073,
      "CO": 2074,
      "od": 2075,
      "stais": 2076,
      "leanaí": 2077,
      "conas": 2078,
      "oncler": 2079,
      "lis": 2080,
      "ostaíochta": 2081,
      "atagóirí": 2082,
      "Clár": 2083,
      "Nua": 2084,
      ".”": 2085,
      "Mór": 2086,
      "gcoinne": 2087,
      "plean": 2088,
      "taighde": 2089,
      "ual": 2090,
      "ige": 2091,
      "iceáil": 2092,
      "forálacha": 2093,
      "ainne": 2094,
      "staithe": 2095,
      "geadh": 2096,
      "mra": 2097,
      "chuideachta": 2098,
      "siúl": 2099,
      "éithe": 2100,
      "éifeachta": 2101,
      "rochtain": 2102,
      "ghnáth": 2103,
      "riangh": 2104,
      "teanas": 2105,
      "leacht": 2106,
      "láithreach": 2107,
      "mion": 2108,
      "oifigeach": 2109,
      "phróis": 2110,
      "Trá": 2111,
      "chroí": 2112,
      "gas": 2113,
      "lon": 2114,
      "scaoil": 2115,
      "chuige": 2116,
      "Ghaeilge": 2117,
      "tabhar": 2118,
      "sr": 2119,
      "breise": 2120,
      "fach": 2121,
      "chéim": 2122,
      "Uachtar": 2123,
      "blian": 2124,
      "áinig": 2125,
      "mpar": 2126,
      "197": 2127,
      "pol": 2128,
      "ok": 2129,
      "lec": 2130,
      "teagmháil": 2131,
      "Un": 2132,
      "ex": 2133,
      "chineál": 2134,
      "mhair": 2135,
      "aiteach": 2136,
      "cli": 2137,
      "fhonn": 2138,
      "itr": 2139,
      "shoc": 2140,
      "áite": 2141,
      "ustaiméirí": 2142,
      "oimisinéirí": 2143,
      "inniu": 2144,
      "laghad": 2145,
      "gid": 2146,
      "marsá": 2147,
      "ceap": 2148,
      "fhoirm": 2149,
      "chruthú": 2150,
      "eartas": 2151,
      "....": 2152,
      "ers": 2153,
      "ndiaidh": 2154,
      "chinntiú": 2155,
      "Dear": 2156,
      "Com": 2157,
      "infheist": 2158,
      "soil": 2159,
      "gu": 2160,
      "tóg": 2161,
      "éist": 2162,
      "Meán": 2163,
      "tuilleadh": 2164,
      "cinneadh": 2165,
      "oibríoch": 2166,
      "mad": 2167,
      "eastal": 2168,
      "Achtanna": 2169,
      "cuireadh": 2170,
      "fan": 2171,
      "Bord": 2172,
      "bearta": 2173,
      "gairm": 2174,
      "dhíol": 2175,
      "éileamh": 2176,
      "dara": 2177,
      "Mo": 2178,
      "ullmh": 2179,
      "Táir": 2180,
      "sláinte": 2181,
      "earn": 2182,
      "déanamh": 2183,
      "Cr": 2184,
      "Lá": 2185,
      "US": 2186,
      "aer": 2187,
      "airte": 2188,
      "rinneadh": 2189,
      "Sláinte": 2190,
      "Aibr": 2191,
      "cánach": 2192,
      "Gach": 2193,
      "rannpháirt": 2194,
      "Eala": 2195,
      "raon": 2196,
      "IT": 2197,
      "ndear": 2198,
      "smaoin": 2199,
      "tail": 2200,
      "pla": 2201,
      "osm": 2202,
      "forbairt": 2203,
      "rialú": 2204,
      "riachtanais": 2205,
      "dhuine": 2206,
      "córas": 2207,
      "ment": 2208,
      "ideo": 2209,
      "dtugtar": 2210,
      "196": 2211,
      "spreag": 2212,
      "leanbh": 2213,
      "liún": 2214,
      "fuinn": 2215,
      "Gníomh": 2216,
      "ghlac": 2217,
      "oils": 2218,
      "ara": 2219,
      "cabhrú": 2220,
      "sásta": 2221,
      "uro": 2222,
      "óireacht": 2223,
      "máin": 2224,
      "tiom": 2225,
      "bhonn": 2226,
      "talamh": 2227,
      "margadh": 2228,
      "duithe": 2229,
      "chon": 2230,
      "les": 2231,
      "Bainfidh": 2232,
      "limist": 2233,
      "Ac": 2234,
      "So": 2235,
      "naithe": 2236,
      "Oll": 2237,
      "foirm": 2238,
      "uirear": 2239,
      "tionscad": 2240,
      "déanfar": 2241,
      "scrúdú": 2242,
      "Ca": 2243,
      "osmálta": 2244,
      "mac": 2245,
      "tríú": 2246,
      "Coiste": 2247,
      "meád": 2248,
      "MS": 2249,
      "leanúint": 2250,
      "arth": 2251,
      "easa": 2252,
      "céim": 2253,
      "tAcht": 2254,
      "bunaidh": 2255,
      "Aib": 2256,
      "phobal": 2257,
      "bail": 2258,
      "riar": 2259,
      "tábhachtach": 2260,
      "Údarás": 2261,
      "bla": 2262,
      "Taispe": 2263,
      "dío": 2264,
      "dhiaidh": 2265,
      "bal": 2266,
      "mara": 2267,
      "Oibr": 2268,
      "irte": 2269,
      "aimid": 2270,
      "198": 2271,
      "ger": 2272,
      "gt": 2273,
      "ána": 2274,
      "díol": 2275,
      "40": 2276,
      "reacht": 2277,
      "léinn": 2278,
      "teicneola": 2279,
      "mais": 2280,
      "aidr": 2281,
      "ianta": 2282,
      "straim": 2283,
      "minic": 2284,
      "IS": 2285,
      "curtha": 2286,
      "chair": 2287,
      "thos": 2288,
      "saíochta": 2289,
      "bP": 2290,
      "ims": 2291,
      "oire": 2292,
      "ments": 2293,
      "mol": 2294,
      "chúr": 2295,
      "domhan": 2296,
      "rinne": 2297,
      "bhra": 2298,
      "sheach": 2299,
      "eachtain": 2300,
      "aighdeáin": 2301,
      "fhaisnéis": 2302,
      "ionsa": 2303,
      "age": 2304,
      "thíos": 2305,
      "mbliana": 2306,
      "porno": 2307,
      "griangh": 2308,
      "dhosmálta": 2309,
      "aifead": 2310,
      "glacadh": 2311,
      "Oideachais": 2312,
      "naíodh": 2313,
      "léi": 2314,
      "cóir": 2315,
      "iv": 2316,
      "éann": 2317,
      "iompar": 2318,
      "Aibreán": 2319,
      "itheach": 2320,
      "fhé": 2321,
      "Pro": 2322,
      "ocht": 2323,
      "institiú": 2324,
      "seartha": 2325,
      "Moncler": 2326,
      "ianaise": 2327,
      "difr": 2328,
      "aipit": 2329,
      "chomhlíonadh": 2330,
      "gníomhaíochtaí": 2331,
      "ant": 2332,
      "Tar": 2333,
      "ble": 2334,
      "íseal": 2335,
      "nádúrtha": 2336,
      "bar": 2337,
      "creid": 2338,
      "Chr": 2339,
      "catagóirí": 2340,
      "LE": 2341,
      "cuair": 2342,
      "Áit": 2343,
      "ábháil": 2344,
      "léiriú": 2345,
      "Ionc": 2346,
      "cas": 2347,
      "othair": 2348,
      "treoir": 2349,
      "naíonn": 2350,
      "implí": 2351,
      "chuireann": 2352,
      "úinteoirí": 2353,
      "críoch": 2354,
      "tapa": 2355,
      "comhair": 2356,
      "choinneáil": 2357,
      "dam": 2358,
      "bog": 2359,
      "2012": 2360,
      "Sonraí": 2361,
      "ábhartha": 2362,
      "Str": 2363,
      "ling": 2364,
      "únú": 2365,
      "seirbhíse": 2366,
      "liosta": 2367,
      "eartú": 2368,
      "32nd": 2369,
      "amlíne": 2370,
      "slán": 2371,
      "Soláthraithe": 2372,
      "ófar": 2373,
      "istigh": 2374,
      "intí": 2375,
      "ndéanfar": 2376,
      "Faigh": 2377,
      "daithe": 2378,
      "aimseartha": 2379,
      "arís": 2380,
      "Sce": 2381,
      "Ais": 2382,
      "ách": 2383,
      "éanna": 2384,
      "fheidhmiú": 2385,
      "eit": 2386,
      "freastal": 2387,
      "únamh": 2388,
      "AM": 2389,
      "Úsá": 2390,
      "gurb": 2391,
      "rio": 2392,
      "comhrá": 2393,
      "Máirt": 2394,
      "dea": 2395,
      "isiúin": 2396,
      "Cos": 2397,
      "arb": 2398,
      "ghlaigh": 2399,
      "phost": 2400,
      "osca": 2401,
      "Gaeltachta": 2402,
      "dháil": 2403,
      "fada": 2404,
      "fai": 2405,
      "innte": 2406,
      "samp": 2407,
      "cruth": 2408,
      "torthaí": 2409,
      "sio": 2410,
      "aítear": 2411,
      "Bun": 2412,
      "illiún": 2413,
      "chail": 2414,
      "túla": 2415,
      "rialacháin": 2416,
      "feabh": 2417,
      "comhlacht": 2418,
      "íocaíochtaí": 2419,
      "timp": 2420,
      "saíocht": 2421,
      "riachtanach": 2422,
      "sonraithe": 2423,
      "Tionsc": 2424,
      "Scéim": 2425,
      "Eanáir": 2426,
      "RE": 2427,
      "thaoir": 2428,
      "óif": 2429,
      "taispe": 2430,
      "éigin": 2431,
      "Faoi": 2432,
      "Chúirt": 2433,
      "ionas": 2434,
      "próiseas": 2435,
      "Ioncaim": 2436,
      "Domh": 2437,
      "hA": 2438,
      "eachtas": 2439,
      "sraith": 2440,
      "deon": 2441,
      "2020": 2442,
      "aibh": 2443,
      "órais": 2444,
      "allstát": 2445,
      "thoradh": 2446,
      "Eor": 2447,
      "chaí": 2448,
      "leasú": 2449,
      "ud": 2450,
      "ostaíocht": 2451,
      "ACH": 2452,
      "bhfad": 2453,
      "áirith": 2454,
      "cláraithe": 2455,
      "clips": 2456,
      "Bre": 2457,
      "iarracht": 2458,
      "naisc": 2459,
      "inbh": 2460,
      "eagmháil": 2461,
      "suite": 2462,
      "díobh": 2463,
      "oideachais": 2464,
      "anc": 2465,
      "breith": 2466,
      "gacha": 2467,
      "nóiméad": 2468,
      "Ion": 2469,
      "pp": 2470,
      "sprioc": 2471,
      "ginearálta": 2472,
      "ghabháil": 2473,
      "óisial": 2474,
      "ks": 2475,
      "dháta": 2476,
      "iníoctha": 2477,
      "déanfaidh": 2478,
      "pac": 2479,
      "aithfidh": 2480,
      "lámh": 2481,
      "cra": 2482,
      "airgid": 2483,
      "téarma": 2484,
      "choimeád": 2485,
      "aibid": 2486,
      "mparáid": 2487,
      "Eoraip": 2488,
      "níl": 2489,
      "ional": 2490,
      "aici": 2491,
      "Sceideal": 2492,
      "Mas": 2493,
      "fi": 2494,
      "ho": 2495,
      "chug": 2496,
      "reatha": 2497,
      "Chuid": 2498,
      "aidhm": 2499,
      "arm": 2500,
      "tracha": 2501,
      "Casino": 2502,
      "chaitheamh": 2503,
      "thóirí": 2504,
      "vers": 2505,
      "cheaptha": 2506,
      "ád": 2507,
      "ys": 2508,
      "óirt": 2509,
      "comhalta": 2510,
      "éifeachtach": 2511,
      "gabh": 2512,
      "leigh": 2513,
      "phobail": 2514,
      "eacnama": 2515,
      "Cl": 2516,
      "che": 2517,
      "réiteach": 2518,
      "cal": 2519,
      "freagrach": 2520,
      "caill": 2521,
      "Cluiche": 2522,
      "Ind": 2523,
      "soláthar": 2524,
      "CC": 2525,
      "ionstraim": 2526,
      "frith": 2527,
      "chinneadh": 2528,
      "treo": 2529,
      "deimhniú": 2530,
      "Meitheamh": 2531,
      "lorg": 2532,
      "nG": 2533,
      "dhíola": 2534,
      "dearadh": 2535,
      "teorainn": 2536,
      "tes": 2537,
      "óin": 2538,
      "anail": 2539,
      "cúram": 2540,
      "soláthraí": 2541,
      "Contae": 2542,
      "Lond": 2543,
      "Rá": 2544,
      "tháinig": 2545,
      "aitheoirí": 2546,
      "Gn": 2547,
      "neacha": 2548,
      "faisnéise": 2549,
      "tuairim": 2550,
      "Leasú": 2551,
      "NA": 2552,
      "achomh": 2553,
      "Maid": 2554,
      "pin": 2555,
      "shuíomh": 2556,
      "Monar": 2557,
      "lio": 2558,
      "thionsc": 2559,
      "shaol": 2560,
      "cúis": 2561,
      "ionta": 2562,
      "SE": 2563,
      "naimh": 2564,
      "ted": 2565,
      "ada": 2566,
      "áiríre": 2567,
      "2009": 2568,
      "ismitheoirí": 2569,
      "Plean": 2570,
      "láiste": 2571,
      "óireachta": 2572,
      "straitéis": 2573,
      "clo": 2574,
      "cusp": 2575,
      "bhú": 2576,
      "dteideal": 2577,
      "Comments": 2578,
      "CB": 2579,
      "áitr": 2580,
      "ghaidh": 2581,
      "meaisín": 2582,
      "EU": 2583,
      "clú": 2584,
      "let": 2585,
      "rap": 2586,
      "arthaí": 2587,
      "Rialtais": 2588,
      "post": 2589,
      "dom": 2590,
      "Bealtaine": 2591,
      "chadh": 2592,
      "unt": 2593,
      "195": 2594,
      "leasa": 2595,
      "mhaoin": 2596,
      "Cath": 2597,
      "bhaile": 2598,
      "tionchar": 2599,
      "Londain": 2600,
      "As": 2601,
      "cearta": 2602,
      "niúil": 2603,
      "struch": 2604,
      "gcrích": 2605,
      "Feidhm": 2606,
      "iciúil": 2607,
      "Stiúr": 2608,
      "iocfaidh": 2609,
      "Nollaig": 2610,
      "Ceann": 2611,
      "ghluais": 2612,
      "fheiceáil": 2613,
      "AL": 2614,
      "Eo": 2615,
      "taithí": 2616,
      "ura": 2617,
      "ráide": 2618,
      "dhéantar": 2619,
      "Cuid": 2620,
      "táin": 2621,
      "Coimisinéirí": 2622,
      "ánaigh": 2623,
      "2011": 2624,
      "lectr": 2625,
      "cóip": 2626,
      "tíortha": 2627,
      "tán": 2628,
      "Aghaidh": 2629,
      "Léir": 2630,
      "inse": 2631,
      "Maidir": 2632,
      "fios": 2633,
      "athbhreithniú": 2634,
      "load": 2635,
      "pro": 2636,
      "lachta": 2637,
      "Ta": 2638,
      "bharr": 2639,
      "rudaí": 2640,
      "trádála": 2641,
      "dli": 2642,
      "simplí": 2643,
      "teachta": 2644,
      "lún": 2645,
      "ngach": 2646,
      "shaoil": 2647,
      "arda": 2648,
      "toisc": 2649,
      "siúd": 2650,
      "deara": 2651,
      "Cén": 2652,
      "chríoch": 2653,
      "soiléir": 2654,
      "Fac": 2655,
      "wor": 2656,
      "bheadh": 2657,
      "und": 2658,
      "gCoimisiún": 2659,
      "cruinn": 2660,
      "ik": 2661,
      "thaispe": 2662,
      "seoladh": 2663,
      "láimh": 2664,
      "Naisc": 2665,
      "raoi": 2666,
      "pé": 2667,
      "uithe": 2668,
      "mhal": 2669,
      "rúchán": 2670,
      "óifíl": 2671,
      "Eag": 2672,
      "ilt": 2673,
      "thart": 2674,
      "shain": 2675,
      "sábháil": 2676,
      "sula": 2677,
      "La": 2678,
      "leanúnach": 2679,
      "luiche": 2680,
      "leictreach": 2681,
      "Pol": 2682,
      "banna": 2683,
      "chinn": 2684,
      "ang": 2685,
      "nacha": 2686,
      "mbun": 2687,
      "ioncam": 2688,
      "Du": 2689,
      "eoir": 2690,
      "árach": 2691,
      "fhéidir": 2692,
      "raíocht": 2693,
      "acmhainní": 2694,
      "daon": 2695,
      "fao": 2696,
      "ress": 2697,
      "fanacht": 2698,
      "eála": 2699,
      "cul": 2700,
      "eagraíochtaí": 2701,
      "Cuireann": 2702,
      "Déanfar": 2703,
      "Tag": 2704,
      "thach": 2705,
      "oilsiú": 2706,
      "scannáin": 2707,
      "páistí": 2708,
      "pict": 2709,
      "wn": 2710,
      "fhaigh": 2711,
      "leagtha": 2712,
      "ullmhú": 2713,
      "áirithiú": 2714,
      "naigh": 2715,
      "eatha": 2716,
      "bre": 2717,
      "ghabhann": 2718,
      "Ho": 2719,
      "aitheoir": 2720,
      "odh": 2721,
      "mor": 2722,
      "dhéanfaidh": 2723,
      "ríomhaire": 2724,
      "Có": 2725,
      "Ir": 2726,
      "mach": 2727,
      "chla": 2728,
      "stair": 2729,
      "cath": 2730,
      "gaidh": 2731,
      "saothair": 2732,
      "gcomparáid": 2733,
      "muigh": 2734,
      "Dú": 2735,
      "Ma": 2736,
      "Car": 2737,
      "gearr": 2738,
      "dhí": 2739,
      "earradh": 2740,
      "oird": 2741,
      "ibhialta": 2742,
      "luas": 2743,
      "bhunú": 2744,
      "atch": 2745,
      "Meith": 2746,
      "PA": 2747,
      "mhéadú": 2748,
      "iasc": 2749,
      "feithic": 2750,
      "ól": 2751,
      "thion": 2752,
      "Athraigh": 2753,
      "malairte": 2754,
      "):": 2755,
      "Grúpa": 2756,
      "iméid": 2757,
      "iche": 2758,
      "OR": 2759,
      "he": 2760,
      "sóisialta": 2761,
      "ua": 2762,
      "costais": 2763,
      "earnáil": 2764,
      "monaróirí": 2765,
      "Ealaíon": 2766,
      "laeth": 2767,
      "gnáth": 2768,
      "mná": 2769,
      "tacú": 2770,
      "cúig": 2771,
      "Liosta": 2772,
      "TE": 2773,
      "ceanna": 2774,
      "tomh": 2775,
      "scaoileadh": 2776,
      "éacs": 2777,
      "dhe": 2778,
      "íosa": 2779,
      "aireachta": 2780,
      "fáilte": 2781,
      "sco": 2782,
      "adadh": 2783,
      "tuarascáil": 2784,
      "bheart": 2785,
      "ndáiríre": 2786,
      "Bhaile": 2787,
      "limistéar": 2788,
      "ineálacha": 2789,
      "luath": 2790,
      "uirlis": 2791,
      "réidh": 2792,
      "línte": 2793,
      "Sta": 2794,
      "tarraing": 2795,
      "ithre": 2796,
      "leagtar": 2797,
      "tAontas": 2798,
      "Cum": 2799,
      "treala": 2800,
      "Rogh": 2801,
      "dhearna": 2802,
      "trealamh": 2803,
      "gru": 2804,
      "mhonar": 2805,
      "35": 2806,
      "60": 2807,
      "thagann": 2808,
      "lit": 2809,
      "Tal": 2810,
      "thoil": 2811,
      "cheangal": 2812,
      "Electr": 2813,
      "San": 2814,
      "rath": 2815,
      "léamh": 2816,
      "Scoil": 2817,
      "istíochta": 2818,
      "Tweetáil": 2819,
      "liú": 2820,
      "ren": 2821,
      "airc": 2822,
      "etc": 2823,
      "its": 2824,
      "chuirtear": 2825,
      "mhaíochta": 2826,
      "tuairisc": 2827,
      "Tac": 2828,
      "ligh": 2829,
      "orpar": 2830,
      "ainc": 2831,
      "fén": 2832,
      "sple": 2833,
      "faoina": 2834,
      "Bo": 2835,
      "fir": 2836,
      "forbartha": 2837,
      "áitiúla": 2838,
      "ráiteas": 2839,
      "feist": 2840,
      "sea": 2841,
      "ról": 2842,
      "tory": 2843,
      "rang": 2844,
      "tíre": 2845,
      "Pornload": 2846,
      "dro": 2847,
      "scileanna": 2848,
      "eoin": 2849,
      "íobhá": 2850,
      "va": 2851,
      "álainn": 2852,
      "ind": 2853,
      "AD": 2854,
      "chion": 2855,
      "dtaca": 2856,
      "ms": 2857,
      "seomra": 2858,
      "fás": 2859,
      "Seirbhísí": 2860,
      "365": 2861,
      "Mac": 2862,
      "iotail": 2863,
      "Dílean": 2864,
      "comp": 2865,
      "oireachta": 2866,
      "aor": 2867,
      "chugainn": 2868,
      "Leis": 2869,
      "marsáide": 2870,
      "RO": 2871,
      "comhairle": 2872,
      "uimhir": 2873,
      "mheánach": 2874,
      "bán": 2875,
      "húsáid": 2876,
      "méad": 2877,
      "2010": 2878,
      "em": 2879,
      "mhaithe": 2880,
      "ess": 2881,
      "reat": 2882,
      "Feabhra": 2883,
      "thugann": 2884,
      "ber": 2885,
      "dr": 2886,
      "áirteanna": 2887,
      "Thu": 2888,
      "tugadh": 2889,
      "cosaint": 2890,
      "Ire": 2891,
      "tacht": 2892,
      "togh": 2893,
      "eithre": 2894,
      "stíl": 2895,
      "dár": 2896,
      "ealaíon": 2897,
      "par": 2898,
      "cosanta": 2899,
      "éadaí": 2900,
      "ashtan": 2901,
      "irí": 2902,
      "bair": 2903,
      "ilbh": 2904,
      "oill": 2905,
      "éara": 2906,
      "uathoibríoch": 2907,
      "ashtanka": 2908,
      "lish": 2909,
      "ut": 2910,
      "Oil": 2911,
      "fáth": 2912,
      "chain": 2913,
      "iompair": 2914,
      "Físeáin": 2915,
      "pointe": 2916,
      "thaoirleach": 2917,
      "agam": 2918,
      "orainn": 2919,
      "eallraí": 2920,
      "Tr": 2921,
      "iach": 2922,
      "Déanfaidh": 2923,
      "ree": 2924,
      "údaraithe": 2925,
      "cheapadh": 2926,
      "PS": 2927,
      "tacha": 2928,
      "doiciméad": 2929,
      "45": 2930,
      "TA": 2931,
      "mob": 2932,
      "neart": 2933,
      "Ireland": 2934,
      "FC": 2935,
      "Ré": 2936,
      "gaí": 2937,
      "ileach": 2938,
      "bhaidh": 2939,
      "aitheach": 2940,
      "Chu": 2941,
      "oireann": 2942,
      "Éire": 2943,
      "roghanna": 2944,
      "aidreamh": 2945,
      "fuair": 2946,
      "lic": 2947,
      "aireach": 2948,
      "clárú": 2949,
      "orm": 2950,
      "fá": 2951,
      "gluais": 2952,
      "aims": 2953,
      "gar": 2954,
      "dochar": 2955,
      "icial": 2956,
      "earmáin": 2957,
      "dra": 2958,
      "tástá": 2959,
      "sho": 2960,
      "eadóirí": 2961,
      "spraoi": 2962,
      "mhara": 2963,
      "phoiblí": 2964,
      "lúth": 2965,
      "snáithe": 2966,
      "thábh": 2967,
      "ndéantar": 2968,
      "áistí": 2969,
      "mhithe": 2970,
      "eirme": 2971,
      "oideachas": 2972,
      "chtála": 2973,
      "gnéithe": 2974,
      "ósta": 2975,
      "inníoll": 2976,
      "fol": 2977,
      "mic": 2978,
      "Dún": 2979,
      "Sean": 2980,
      "net": 2981,
      "phríomh": 2982,
      "Leabhar": 2983,
      "ántas": 2984,
      "Sain": 2985,
      "láidir": 2986,
      "sheirbhí": 2987,
      "comhpháirt": 2988,
      "Rialacháin": 2989,
      "Úsáid": 2990,
      "anailís": 2991,
      "80": 2992,
      "ES": 2993,
      "ainneoin": 2994,
      "gair": 2995,
      "ghla": 2996,
      "úinéir": 2997,
      "IR": 2998,
      "Ina": 2999,
      "lóid": 3000,
      "est": 3001,
      "itigh": 3002,
      ".—": 3003,
      "Líne": 3004,
      "méadú": 3005,
      "eanga": 3006,
      "brú": 3007,
      "Jack": 3008,
      "lex": 3009,
      "rátaí": 3010,
      "chomhalta": 3011,
      "gcomhair": 3012,
      "thré": 3013,
      "rúpaí": 3014,
      "ruth": 3015,
      "thógáil": 3016,
      "cuairt": 3017,
      "Lún": 3018,
      "Choimisiún": 3019,
      "tho": 3020,
      "aist": 3021,
      "iota": 3022,
      "Roimh": 3023,
      "ham": 3024,
      "chas": 3025,
      "scáil": 3026,
      "áiltear": 3027,
      "uirth": 3028,
      "dteagmháil": 3029,
      "sil": 3030,
      "raif": 3031,
      "cá": 3032,
      "video": 3033,
      "raf": 3034,
      "Ain": 3035,
      "Leag": 3036,
      "fion": 3037,
      "othar": 3038,
      "cheang": 3039,
      "Taispeáin": 3040,
      "Bra": 3041,
      "Trí": 3042,
      "fó": 3043,
      "scaireanna": 3044,
      "Man": 3045,
      "ste": 3046,
      "eog": 3047,
      "leagá": 3048,
      "riamh": 3049,
      "cén": 3050,
      "fhágáil": 3051,
      "PE": 3052,
      "iail": 3053,
      "chreid": 3054,
      "ideanna": 3055,
      "rialta": 3056,
      "críche": 3057,
      "liantúil": 3058,
      "Phríomh": 3059,
      "sal": 3060,
      "trom": 3061,
      "dáileoir": 3062,
      "dóigh": 3063,
      "Lei": 3064,
      "ban": 3065,
      "eobhaidh": 3066,
      "ordaithe": 3067,
      "Lé": 3068,
      "eoil": 3069,
      "Fhor": 3070,
      "túrtha": 3071,
      "bogearraí": 3072,
      "dhlí": 3073,
      "res": 3074,
      "mbíonn": 3075,
      "meán": 3076,
      "wer": 3077,
      "ipéar": 3078,
      "Electron": 3079,
      "mobi": 3080,
      "Parlaimint": 3081,
      "Vic": 3082,
      "ct": 3083,
      "cionn": 3084,
      "grá": 3085,
      "irce": 3086,
      "deiridh": 3087,
      "éigean": 3088,
      "fuinnimh": 3089,
      "2008": 3090,
      "íocaíochta": 3091,
      "beo": 3092,
      "thabháil": 3093,
      "log": 3094,
      "porno365": 3095,
      "MFómh": 3096,
      "fla": 3097,
      "fhreag": 3098,
      "fhoireann": 3099,
      "aiteachas": 3100,
      "onntan": 3101,
      "bunús": 3102,
      "láint": 3103,
      "ser": 3104,
      "sábh": 3105,
      "fhoghlaim": 3106,
      "Jo": 3107,
      "Soc": 3108,
      "ld": 3109,
      "pi": 3110,
      "óid": 3111,
      "iúsc": 3112,
      "meáchan": 3113,
      "thá": 3114,
      "Spe": 3115,
      "fhógra": 3116,
      "Fáilte": 3117,
      "mheán": 3118,
      "íosp": 3119,
      "oibrithe": 3120,
      "brath": 3121,
      "CU": 3122,
      "eamara": 3123,
      "Déantar": 3124,
      "téacs": 3125,
      "Mastur": 3126,
      "Poiblí": 3127,
      "Tugann": 3128,
      "institiúidí": 3129,
      "Electronics": 3130,
      "Seol": 3131,
      "chéanna": 3132,
      "cumhachta": 3133,
      "Daon": 3134,
      "faigh": 3135,
      "sCuntas": 3136,
      "ent": 3137,
      "togra": 3138,
      "tuithe": 3139,
      "íochas": 3140,
      "ónaithe": 3141,
      "teagmh": 3142,
      "úla": 3143,
      "mhuirear": 3144,
      "use": 3145,
      "chumhacht": 3146,
      "Ionad": 3147,
      "beartaithe": 3148,
      "Par": 3149,
      "bhráid": 3150,
      "ence": 3151,
      "réimsí": 3152,
      "uirthi": 3153,
      "Each": 3154,
      "chluiche": 3155,
      "thrá": 3156,
      "aitneamh": 3157,
      "achomharc": 3158,
      "neach": 3159,
      "sol": 3160,
      "iséad": 3161,
      "páirteach": 3162,
      "bpr": 3163,
      "taist": 3164,
      "ailiúchán": 3165,
      "áfach": 3166,
      "lasmuigh": 3167,
      "neamhsple": 3168,
      "foirne": 3169,
      "hAchtanna": 3170,
      "ry": 3171,
      "sadh": 3172,
      "cumas": 3173,
      "Rialtas": 3174,
      "Bó": 3175,
      "glac": 3176,
      "ary": 3177,
      "ong": 3178,
      "phlean": 3179,
      "ealaí": 3180,
      "Áitiúil": 3181,
      "Dlí": 3182,
      "En": 3183,
      "coit": 3184,
      "úile": 3185,
      "leictreo": 3186,
      "News": 3187,
      "lag": 3188,
      "chum": 3189,
      "aithean": 3190,
      "asamhail": 3191,
      "dual": 3192,
      "AT": 3193,
      "IL": 3194,
      "raige": 3195,
      "bhuan": 3196,
      "nósanna": 3197,
      "by": 3198,
      "itim": 3199,
      "oibleagá": 3200,
      "Leanaí": 3201,
      "tóireacht": 3202,
      "liúntas": 3203,
      "dia": 3204,
      "gen": 3205,
      "romchla": 3206,
      "Cul": 3207,
      "Faisnéis": 3208,
      "Sóisialta": 3209,
      "37": 3210,
      "Eng": 3211,
      "thuair": 3212,
      "teoir": 3213,
      "aithint": 3214,
      "saoire": 3215,
      "luaithe": 3216,
      "coitianta": 3217,
      "faire": 3218,
      "hE": 3219,
      "Forbartha": 3220,
      "iniúchadh": 3221,
      "Lúna": 3222,
      "cun": 3223,
      "shá": 3224,
      "sub": 3225,
      "feabhas": 3226,
      "Lúnasa": 3227,
      "Príomh": 3228,
      "are": 3229,
      "ainmhithe": 3230,
      "DFómh": 3231,
      "teil": 3232,
      "shealbh": 3233,
      "gclár": 3234,
      "airtí": 3235,
      "ainmniú": 3236,
      "Gaillimhe": 3237,
      "Trádála": 3238,
      "smaoineamh": 3239,
      "glan": 3240,
      "ha": 3241,
      "aice": 3242,
      "íofa": 3243,
      "deo": 3244,
      "alla": 3245,
      "féadfar": 3246,
      "measfar": 3247,
      "34": 3248,
      "cúnamh": 3249,
      "mhéad": 3250,
      "mhodh": 3251,
      "Éireannach": 3252,
      "Táirgí": 3253,
      "dhío": 3254,
      "téarmaí": 3255,
      "Aistr": 3256,
      "Tion": 3257,
      "toiliú": 3258,
      "nal": 3259,
      "iúradh": 3260,
      "comhaltaí": 3261,
      "seachtaine": 3262,
      "ceallraí": 3263,
      "fostaíochta": 3264,
      "teann": 3265,
      "móra": 3266,
      "AC": 3267,
      "sla": 3268,
      "álaí": 3269,
      "céad": 3270,
      "ee": 3271,
      "íona": 3272,
      "tharraing": 3273,
      "gcomhairle": 3274,
      "ceadúnas": 3275,
      "Ex": 3276,
      "sealbh": 3277,
      "oigh": 3278,
      "insiún": 3279,
      "Samhain": 3280,
      "blianta": 3281,
      "Céad": 3282,
      "UN": 3283,
      "bhfoirm": 3284,
      "gCuid": 3285,
      "mBallstát": 3286,
      "leibhéil": 3287,
      "Fion": 3288,
      "ive": 3289,
      "thas": 3290,
      "teoirí": 3291,
      "rún": 3292,
      "cód": 3293,
      "bhfaigh": 3294,
      "inbhinsiún": 3295,
      "Stiúrthóir": 3296,
      "oid": 3297,
      "Comm": 3298,
      "Jacket": 3299,
      "dtabhar": 3300,
      "taitneamh": 3301,
      "traid": 3302,
      "thábhachtach": 3303,
      "Cor": 3304,
      "Réig": 3305,
      "barr": 3306,
      "ty": 3307,
      "oibreoir": 3308,
      "úsáideoirí": 3309,
      "sábháilte": 3310,
      "Bhord": 3311,
      "táirg": 3312,
      "costas": 3313,
      "Áir": 3314,
      "dhó": 3315,
      "rúcháin": 3316,
      "cuma": 3317,
      "acmhainn": 3318,
      "teangacha": 3319,
      "tháirgeadh": 3320,
      "suntas": 3321,
      "taifead": 3322,
      "shlán": 3323,
      "feidhmeanna": 3324,
      "Bíonn": 3325,
      "Wh": 3326,
      "soláthraithe": 3327,
      "aibidil": 3328,
      "áitreabh": 3329,
      "dheon": 3330,
      "SMS": 3331,
      "theann": 3332,
      "talún": 3333,
      "Déanann": 3334,
      "thaispeáint": 3335,
      "Ad": 3336,
      "sín": 3337,
      "coir": 3338,
      "Uachtarán": 3339,
      "500": 3340,
      "gléas": 3341,
      "stoc": 3342,
      "eicneola": 3343,
      "eastaíonn": 3344,
      "ndearnadh": 3345,
      "bíonn": 3346,
      "oiliúint": 3347,
      "Féadfar": 3348,
      "gruaige": 3349,
      "Bar": 3350,
      "tiú": 3351,
      "reor": 3352,
      "aisceart": 3353,
      "fuaim": 3354,
      "thuas": 3355,
      "tosaigh": 3356,
      "Idirnáisiúnta": 3357,
      "Uni": 3358,
      "39": 3359,
      "Ríocht": 3360,
      "fí": 3361,
      "je": 3362,
      "imeád": 3363,
      "scéalta": 3364,
      "áiteanna": 3365,
      "ngníomh": 3366,
      "vol": 3367,
      "len": 3368,
      "oifigiúil": 3369,
      "landaí": 3370,
      "ainmneacha": 3371,
      "tionscadal": 3372,
      "saincheaptha": 3373,
      "oscailt": 3374,
      "PC": 3375,
      "fos": 3376,
      "xx": 3377,
      "athruithe": 3378,
      "choiste": 3379,
      "réasún": 3380,
      "Baineann": 3381,
      "plé": 3382,
      "diúl": 3383,
      "aitheann": 3384,
      "stiúr": 3385,
      "oscailte": 3386,
      "spreagadh": 3387,
      "glas": 3388,
      "kashtanka": 3389,
      "anuas": 3390,
      "foirgn": 3391,
      "seachtain": 3392,
      "shocrú": 3393,
      "faide": 3394,
      "Roimhe": 3395,
      "Ainm": 3396,
      "Mura": 3397,
      "óil": 3398,
      "”,": 3399,
      "eanach": 3400,
      "cuirfear": 3401,
      "teastáil": 3402,
      "Nollag": 3403,
      "áidí": 3404,
      "cheist": 3405,
      "rialaithe": 3406,
      "2007": 3407,
      "iceá": 3408,
      "mBan": 3409,
      "aistrithe": 3410,
      "sanna": 3411,
      "seilbh": 3412,
      "194": 3413,
      "eimhniú": 3414,
      "Oidh": 3415,
      "ocal": 3416,
      "dearg": 3417,
      "aoiseamh": 3418,
      "nigh": 3419,
      "aitear": 3420,
      "eicniúil": 3421,
      "ligean": 3422,
      "grianghraif": 3423,
      "damáiste": 3424,
      "theannta": 3425,
      "Gu": 3426,
      "bealach": 3427,
      "fág": 3428,
      "bheas": 3429,
      "crua": 3430,
      "PD": 3431,
      "gComh": 3432,
      "róidh": 3433,
      "éagóirí": 3434,
      "mhargadh": 3435,
      "tairbh": 3436,
      "oiliúna": 3437,
      "90": 3438,
      "IO": 3439,
      "oine": 3440,
      "Óga": 3441,
      "imth": 3442,
      "Uimhir": 3443,
      "Níor": 3444,
      "cuntas": 3445,
      "ánta": 3446,
      "óigh": 3447,
      "éifeachtaí": 3448,
      "Eachtracha": 3449,
      "cain": 3450,
      "marc": 3451,
      "eimhr": 3452,
      "Gnéas": 3453,
      "bhF": 3454,
      "óide": 3455,
      "Dr": 3456,
      "Eur": 3457,
      "Scr": 3458,
      "Tea": 3459,
      "ata": 3460,
      "ate": 3461,
      "laithe": 3462,
      "réitigh": 3463,
      "cuirfidh": 3464,
      "feidhmiú": 3465,
      "cineálacha": 3466,
      "siar": 3467,
      "aille": 3468,
      "rialachán": 3469,
      "gníomhú": 3470,
      "Ollscoil": 3471,
      "Pla": 3472,
      "dubh": 3473,
      "deiseanna": 3474,
      "éardaoin": 3475,
      "Straitéis": 3476,
      "Lo": 3477,
      "Nat": 3478,
      "milliún": 3479,
      "únais": 3480,
      "Déardaoin": 3481,
      "cear": 3482,
      "cáin": 3483,
      "cadh": 3484,
      "déile": 3485,
      "dtús": 3486,
      "gear": 3487,
      "oiread": 3488,
      "ats": 3489,
      "tacaíochta": 3490,
      "38": 3491,
      "Uair": 3492,
      "ko": 3493,
      "foghlaim": 3494,
      "Leasa": 3495,
      "Il": 3496,
      "tseirbhís": 3497,
      "ue": 3498,
      "chláir": 3499,
      "dhéanfar": 3500,
      "ceanglais": 3501,
      "ans": 3502,
      "eallacht": 3503,
      "ardaigh": 3504,
      "Institiú": 3505,
      "nglac": 3506,
      "ky": 3507,
      "Óg": 3508,
      "gcion": 3509,
      "amu": 3510,
      "oblacht": 3511,
      "ipéid": 3512,
      "Freagra": 3513,
      "Am": 3514,
      "Cha": 3515,
      "igiteach": 3516,
      "éifeach": 3517,
      "ndéanfaidh": 3518,
      "Cead": 3519,
      "line": 3520,
      "loine": 3521,
      "scoláir": 3522,
      "oíche": 3523,
      "wo": 3524,
      "thaithe": 3525,
      "lacháin": 3526,
      "iasacht": 3527,
      "AG": 3528,
      "TS": 3529,
      "inmheánach": 3530,
      "leabhair": 3531,
      "chosc": 3532,
      "deimhin": 3533,
      "rófar": 3534,
      "dírithe": 3535,
      "oladh": 3536,
      "Tuarascáil": 3537,
      "chóras": 3538,
      "Tú": 3539,
      "jo": 3540,
      "lóir": 3541,
      "bhailiú": 3542,
      "fostaithe": 3543,
      "cúrsaí": 3544,
      "pío": 3545,
      "Táimid": 3546,
      "turas": 3547,
      "naítear": 3548,
      "fhu": 3549,
      "Fran": 3550,
      "OL": 3551,
      "dor": 3552,
      "araon": 3553,
      "insin": 3554,
      "abhlóid": 3555,
      "láine": 3556,
      "Seinn": 3557,
      ".,": 3558,
      "srian": 3559,
      "suí": 3560,
      "páirtithe": 3561,
      "tam": 3562,
      "ghearr": 3563,
      "seoir": 3564,
      "stór": 3565,
      "mbu": 3566,
      "neamhspleách": 3567,
      "ashon": 3568,
      "ceaptha": 3569,
      "taigh": 3570,
      "insí": 3571,
      "laoch": 3572,
      "ceisteanna": 3573,
      "spás": 3574,
      "Seirbhís": 3575,
      "Vicipéid": 3576,
      "Brea": 3577,
      "Íos": 3578,
      "ten": 3579,
      "buntá": 3580,
      "Íoc": 3581,
      "mhach": 3582,
      "saíonn": 3583,
      "nuach": 3584,
      "scríofa": 3585,
      "meric": 3586,
      "éisteacht": 3587,
      "Euro": 3588,
      "aireachtaí": 3589,
      "leighis": 3590,
      "orpará": 3591,
      "u8": 3592,
      "oimisiúin": 3593,
      "leathach": 3594,
      "réasúnach": 3595,
      "chaoi": 3596,
      "gcuideachta": 3597,
      "Choiste": 3598,
      "lenár": 3599,
      "gheobhaidh": 3600,
      "cod": 3601,
      "comhaontú": 3602,
      "stóir": 3603,
      "eagraíocht": 3604,
      "Cánach": 3605,
      "nóg": 3606,
      "imeacht": 3607,
      "ardach": 3608,
      "únachta": 3609,
      "Dubh": 3610,
      "port": 3611,
      "teocht": 3612,
      "chúl": 3613,
      "tionscadail": 3614,
      "70": 3615,
      "cláir": 3616,
      "dhchaí": 3617,
      "trach": 3618,
      "ordach": 3619,
      "Inn": 3620,
      "iotaíocht": 3621,
      "abairt": 3622,
      "reacha": 3623,
      "dhír": 3624,
      "comhlachtaí": 3625,
      "gabháil": 3626,
      "Cliceáil": 3627,
      "teáin": 3628,
      "doiciméid": 3629,
      "polait": 3630,
      "díl": 3631,
      "king": 3632,
      "ofa": 3633,
      "ghlach": 3634,
      "measúnú": 3635,
      "aiteachais": 3636,
      "sy": 3637,
      "leata": 3638,
      "iontu": 3639,
      "sing": 3640,
      "réacht": 3641,
      "maoiniú": 3642,
      "Chonradh": 3643,
      "bonn": 3644,
      "fón": 3645,
      "lainne": 3646,
      "mon": 3647,
      "eisiúint": 3648,
      "Col": 3649,
      "gais": 3650,
      "ance": 3651,
      "asal": 3652,
      "fheithic": 3653,
      "gcur": 3654,
      "róid": 3655,
      "struchtúr": 3656,
      "bpraghas": 3657,
      "ceithre": 3658,
      "mheasa": 3659,
      "ious": 3660,
      "shlí": 3661,
      "eilleag": 3662,
      "trádáil": 3663,
      "gníomhartha": 3664,
      "dlíth": 3665,
      "tugtha": 3666,
      "fhiosrúchán": 3667,
      "33": 3668,
      "IM": 3669,
      "staint": 3670,
      "úsáideann": 3671,
      "treor": 3672,
      "caillteanas": 3673,
      "feiceáil": 3674,
      "pobail": 3675,
      "ven": 3676,
      "chaighdeáin": 3677,
      "cum": 3678,
      "tuiscint": 3679,
      "gcásanna": 3680,
      "Tuair": 3681,
      "parlaimint": 3682,
      "cheisteanna": 3683,
      "ithíochta": 3684,
      "niúla": 3685,
      "nochta": 3686,
      "stráil": 3687,
      "off": 3688,
      "foils": 3689,
      "plá": 3690,
      "tío": 3691,
      "aighn": 3692,
      "ráma": 3693,
      "cuimh": 3694,
      "teaghlaigh": 3695,
      "Cruach": 3696,
      "bhféadfadh": 3697,
      "seasamh": 3698,
      "Dara": 3699,
      "iontaobh": 3700,
      "stiúir": 3701,
      "cuireann": 3702,
      "ium": 3703,
      "toir": 3704,
      "roinn": 3705,
      "oifige": 3706,
      "CD": 3707,
      "mis": 3708,
      "leamh": 3709,
      "omhír": 3710,
      "Scileanna": 3711,
      "beaga": 3712,
      "thairiscint": 3713,
      "reachtaíocht": 3714,
      "beartais": 3715,
      "CS": 3716,
      "ceol": 3717,
      "álach": 3718,
      "airtear": 3719,
      "ghearradh": 3720,
      "aitheanta": 3721,
      "inneal": 3722,
      "altóirí": 3723,
      "Thos": 3724,
      "mórdhíola": 3725,
      "cúpla": 3726,
      "oifigigh": 3727,
      "teicneolaíocht": 3728,
      "than": 3729,
      "ions": 3730,
      "Ser": 3731,
      "das": 3732,
      "ker": 3733,
      "léar": 3734,
      "Spá": 3735,
      "Déagóirí": 3736,
      "Gan": 3737,
      "up": 3738,
      "ame": 3739,
      "phlé": 3740,
      "staidéar": 3741,
      "Factory": 3742,
      "lor": 3743,
      "stáin": 3744,
      "solas": 3745,
      "tástála": 3746,
      "CN": 3747,
      "deac": 3748,
      "rad": 3749,
      "Chiste": 3750,
      "Theas": 3751,
      "fhéadfaí": 3752,
      "litir": 3753,
      "bol": 3754,
      "hub": 3755,
      "seol": 3756,
      "dúil": 3757,
      "ráitis": 3758,
      "liúntais": 3759,
      "IP": 3760,
      "chorp": 3761,
      "shábháil": 3762,
      "ight": 3763,
      "2006": 3764,
      "páirtí": 3765,
      "Afr": 3766,
      "slí": 3767,
      "ardchaighdeán": 3768,
      "Cúirte": 3769,
      "Pac": 3770,
      "caite": 3771,
      "bhearta": 3772,
      "prionsa": 3773,
      "gcomhar": 3774,
      "amuigh": 3775,
      "múinteoirí": 3776,
      "orduithe": 3777,
      "ealú": 3778,
      "tharlaíonn": 3779,
      "Bille": 3780,
      "Meas": 3781,
      "caipit": 3782,
      "leachta": 3783,
      "sochair": 3784,
      "tharraingt": 3785,
      "thiom": 3786,
      "raíochta": 3787,
      "unet": 3788,
      "óige": 3789,
      "cheantar": 3790,
      "íneáil": 3791,
      "ki": 3792,
      "Ábhar": 3793,
      "théacs": 3794,
      "duc": 3795,
      "ell": 3796,
      "ainmnithe": 3797,
      "Leanúint": 3798,
      "ioncaim": 3799,
      "eacnamaíoch": 3800,
      "55": 3801,
      "Glac": 3802,
      "euro": 3803,
      "lanna": 3804,
      "van": 3805,
      "sof": 3806,
      "ngleic": 3807,
      "iii": 3808,
      "Americ": 3809,
      "eoidh": 3810,
      "chatagóir": 3811,
      "íochána": 3812,
      "adhmaid": 3813,
      "tréithe": 3814,
      "theacht": 3815,
      "ndaoine": 3816,
      "éarmaí": 3817,
      "fhaigheann": 3818,
      "Cail": 3819,
      "Lim": 3820,
      "íorú": 3821,
      "rol": 3822,
      "lack": 3823,
      "éisteachta": 3824,
      "flash": 3825,
      "Siar": 3826,
      "mus": 3827,
      "td": 3828,
      "Eorpacha": 3829,
      "Inter": 3830,
      "léiríonn": 3831,
      "dearmad": 3832,
      "bhreis": 3833,
      "infheidhme": 3834,
      "pictiúir": 3835,
      "ghlama": 3836,
      "Céadaoin": 3837,
      "rm": 3838,
      "ast": 3839,
      "pornhub": 3840,
      "bhreise": 3841,
      "uathúil": 3842,
      "eastar": 3843,
      "Oidhreachta": 3844,
      "eat": 3845,
      "Choimisiúin": 3846,
      "imsiú": 3847,
      "bharfaidh": 3848,
      "III": 3849,
      "Univers": 3850,
      "scaí": 3851,
      "malar": 3852,
      "core": 3853,
      "Oideachas": 3854,
      "Súile": 3855,
      "caí": 3856,
      "dtáirgí": 3857,
      "cruinniú": 3858,
      "arthas": 3859,
      "Céim": 3860,
      "nách": 3861,
      "low": 3862,
      "tairiscint": 3863,
      "ghné": 3864,
      "phróiseáil": 3865,
      "uirir": 3866,
      "eagar": 3867,
      "beagnach": 3868,
      "cairde": 3869,
      "dromchla": 3870,
      "rán": 3871,
      "róirí": 3872,
      "ollmhór": 3873,
      "RT": 3874,
      "inní": 3875,
      "omhnú": 3876,
      "icí": 3877,
      "mba": 3878,
      "Roinne": 3879,
      "brab": 3880,
      ".\"": 3881,
      "scrio": 3882,
      "cuidiú": 3883,
      "riaracháin": 3884,
      "Hard": 3885,
      "mat": 3886,
      "racht": 3887,
      "leann": 3888,
      "bréag": 3889,
      "urg": 3890,
      "cuspóirí": 3891,
      "thréimhse": 3892,
      "iath": 3893,
      "ww": 3894,
      "gceann": 3895,
      "Coláiste": 3896,
      "gcóras": 3897,
      "tive": 3898,
      "48": 3899,
      "my": 3900,
      "bhó": 3901,
      "New": 3902,
      "Ciste": 3903,
      "baile": 3904,
      "dT": 3905,
      "déag": 3906,
      "istíocht": 3907,
      "oibríonn": 3908,
      "Christ": 3909,
      "Cá": 3910,
      "ió": 3911,
      "lonn": 3912,
      "“(": 3913,
      "branda": 3914,
      "táille": 3915,
      "work": 3916,
      "AP": 3917,
      "Au": 3918,
      "mid": 3919,
      "vis": 3920,
      "fhorálacha": 3921,
      "ream": 3922,
      "Nuacht": 3923,
      "ardú": 3924,
      "treach": 3925,
      "gceart": 3926,
      "gáis": 3927,
      "thaíonn": 3928,
      "sheol": 3929,
      "todhchaí": 3930,
      "eapáin": 3931,
      "ísle": 3932,
      "Cathrach": 3933,
      "héasca": 3934,
      "slo": 3935,
      "bhail": 3936,
      "omhas": 3937,
      "ionaid": 3938,
      "comhoiriúnach": 3939,
      "mothú": 3940,
      "por": 3941,
      "”.": 3942,
      "théann": 3943,
      "sul": 3944,
      "tráchtála": 3945,
      "ogle": 3946,
      "thugtar": 3947,
      "Seirbhíse": 3948,
      "az": 3949,
      "daltaí": 3950,
      "grúpa": 3951,
      "aras": 3952,
      "sen": 3953,
      "labhairt": 3954,
      "bronntan": 3955,
      "ure": 3956,
      "scoir": 3957,
      "cumhacht": 3958,
      "acnama": 3959,
      "déantar": 3960,
      "úinteoir": 3961,
      "Éabhlóid": 3962,
      "innithe": 3963,
      "aghsanna": 3964,
      "trína": 3965,
      "ogra": 3966,
      "Chontae": 3967,
      "Sóisial": 3968,
      "cair": 3969,
      "dy": 3970,
      "díosp": 3971,
      "húdaráis": 3972,
      "ráin": 3973,
      "aiste": 3974,
      "aisíoc": 3975,
      "sheas": 3976,
      "oibreacha": 3977,
      "olaíochta": 3978,
      "Mon": 3979,
      "Níos": 3980,
      "u4": 3981,
      "fheist": 3982,
      "thabh": 3983,
      "lub": 3984,
      "éagsúlacht": 3985,
      "foirfe": 3986,
      "aifid": 3987,
      "Cláraigh": 3988,
      "nGall": 3989,
      "lonnaithe": 3990,
      "Pa": 3991,
      "Rú": 3992,
      "baill": 3993,
      "lear": 3994,
      "chóiriú": 3995,
      "Dhún": 3996,
      "Alt": 3997,
      "vóta": 3998,
      "Europ": 3999,
      "fis": 4000,
      "chóipeáil": 4001,
      "aisin": 4002,
      "sonrach": 4003,
      "iteáil": 4004,
      "phraghas": 4005,
      "laethanta": 4006,
      "uirlisí": 4007,
      "ER": 4008,
      "Mol": 4009,
      "caighdeáin": 4010,
      "inbhuan": 4011,
      "imre": 4012,
      "oirse": 4013,
      "uirbh": 4014,
      "red": 4015,
      "tóireachta": 4016,
      "Atweetáilte": 4017,
      "modhanna": 4018,
      "Ama": 4019,
      "BC": 4020,
      "Eacnama": 4021,
      "miotail": 4022,
      "sóc": 4023,
      "Ár": 4024,
      "ghrúpa": 4025,
      "triail": 4026,
      "sperm": 4027,
      "Roghchlár": 4028,
      "01": 4029,
      "EM": 4030,
      "Tits": 4031,
      "ceamara": 4032,
      "gy": 4033,
      "hordú": 4034,
      "eantair": 4035,
      "éirigh": 4036,
      "stát": 4037,
      "eolaíochta": 4038,
      "poist": 4039,
      "phoist": 4040,
      "sampla": 4041,
      "íobháideach": 4042,
      ");": 4043,
      "Min": 4044,
      "__": 4045,
      "ipe": 4046,
      "chor": 4047,
      "chtáil": 4048,
      "2003": 4049,
      "fadhbanna": 4050,
      "gairmiúla": 4051,
      "iontaofa": 4052,
      "Ráit": 4053,
      "iúna": 4054,
      "ful": 4055,
      "some": 4056,
      "bosca": 4057,
      "nochtadh": 4058,
      "insean": 4059,
      "Rann": 4060,
      "bás": 4061,
      "bheag": 4062,
      "iúnaithe": 4063,
      "Ballstát": 4064,
      "Ró": 4065,
      "deartha": 4066,
      "comhaid": 4067,
      "sheachaint": 4068,
      "Tabhair": 4069,
      "ster": 4070,
      "tástáil": 4071,
      "churtha": 4072,
      "spéis": 4073,
      "teanais": 4074,
      "líonann": 4075,
      "eirbhís": 4076,
      "TH": 4077,
      "thaigh": 4078,
      "urrú": 4079,
      "únaithe": 4080,
      "arascálacha": 4081,
      "Leath": 4082,
      "ON": 4083,
      "raidh": 4084,
      "romh": 4085,
      "Chos": 4086,
      "dúirt": 4087,
      "chúirt": 4088,
      "socruithe": 4089,
      "grianghraf": 4090,
      "traidisiúnta": 4091,
      "At": 4092,
      "hearraí": 4093,
      "úb": 4094,
      "ghrá": 4095,
      "iteamh": 4096,
      "aimsiú": 4097,
      "Bhoird": 4098,
      "mórtas": 4099,
      "míreanna": 4100,
      "cásanna": 4101,
      "Eolas": 4102,
      "suntasach": 4103,
      "u12": 4104,
      "chustaiméirí": 4105,
      "lasc": 4106,
      "luaitear": 4107,
      "farraige": 4108,
      "toradh": 4109,
      "Fheidhm": 4110,
      "tionscal": 4111,
      "cliceáil": 4112,
      "tháirgí": 4113,
      "feirme": 4114,
      "uait": 4115,
      "mhu": 4116,
      "ealth": 4117,
      "spóirt": 4118,
      "snáith": 4119,
      "ACHT": 4120,
      "National": 4121,
      "Ri": 4122,
      "cy": 4123,
      "geall": 4124,
      "ÁS": 4125,
      "chaill": 4126,
      "eantar": 4127,
      "saoil": 4128,
      "saothar": 4129,
      "gcru": 4130,
      "aidió": 4131,
      "aighdeánach": 4132,
      "ollar": 4133,
      "shonraítear": 4134,
      "timpeall": 4135,
      "mhalairt": 4136,
      "Masturb": 4137,
      "fil": 4138,
      "mil": 4139,
      "Iarscríbhinn": 4140,
      "mBord": 4141,
      "Daoine": 4142,
      "choig": 4143,
      "iceach": 4144,
      "fuar": 4145,
      "cuirtear": 4146,
      "cailíní": 4147,
      "iúscairt": 4148,
      "CUID": 4149,
      "clas": 4150,
      "níor": 4151,
      "tasaíochta": 4152,
      "urs": 4153,
      "aillí": 4154,
      "forleathan": 4155,
      "aingean": 4156,
      "teasa": 4157,
      "gairmiúil": 4158,
      "sábháilteachta": 4159,
      "Spáinn": 4160,
      "Foirm": 4161,
      "deich": 4162,
      "gcum": 4163,
      "sty": 4164,
      "iarratasóir": 4165,
      "cúl": 4166,
      "únacht": 4167,
      "Iodáil": 4168,
      "otball": 4169,
      "tagairtí": 4170,
      "phróiseas": 4171,
      "46": 4172,
      "plaist": 4173,
      "úir": 4174,
      "mhian": 4175,
      "chul": 4176,
      "chumh": 4177,
      "roma": 4178,
      "mona": 4179,
      "londe": 4180,
      "Fir": 4181,
      "idéal": 4182,
      "iontr": 4183,
      "eathrú": 4184,
      "dhéanta": 4185,
      "celet": 4186,
      "buan": 4187,
      "táiniam": 4188,
      "Foir": 4189,
      "himeachtaí": 4190,
      "pen": 4191,
      "Rúis": 4192,
      "hAirteagal": 4193,
      "sear": 4194,
      "oite": 4195,
      "chomhaontú": 4196,
      "fuck": 4197,
      "nuála": 4198,
      "pháirtí": 4199,
      "riachtanas": 4200,
      "pleanála": 4201,
      "taispeáint": 4202,
      "75": 4203,
      "Teicneola": 4204,
      "bord": 4205,
      "bhean": 4206,
      "earná": 4207,
      "Cuirtear": 4208,
      "lúine": 4209,
      "leathnú": 4210,
      "Aibí": 4211,
      "tir": 4212,
      "dhi": 4213,
      "isteoir": 4214,
      "ings": 4215,
      "Oibre": 4216,
      "slándála": 4217,
      "Ed": 4218,
      "Gréasáin": 4219,
      "gaol": 4220,
      "lainn": 4221,
      "imes": 4222,
      "gcúr": 4223,
      "comhar": 4224,
      "ndóigh": 4225,
      "Google": 4226,
      "cheadú": 4227,
      "cailín": 4228,
      "MH": 4229,
      "deas": 4230,
      "airgeadraí": 4231,
      "sreang": 4232,
      "Dúin": 4233,
      "ja": 4234,
      "vo": 4235,
      "chusp": 4236,
      "bhall": 4237,
      "uaireadóirí": 4238,
      "65": 4239,
      "Síochána": 4240,
      "tuismitheoirí": 4241,
      "moltaí": 4242,
      "Speisialta": 4243,
      "Leic": 4244,
      "OS": 4245,
      "Rinneadh": 4246,
      "Té": 4247,
      "dé": 4248,
      "fianaise": 4249,
      "seala": 4250,
      "úl": 4251,
      "bhainistiú": 4252,
      "choinníoll": 4253,
      "infheistíochta": 4254,
      "infheistíocht": 4255,
      "imreoirí": 4256,
      "feas": 4257,
      "faimid": 4258,
      "chearta": 4259,
      "asta": 4260,
      "fort": 4261,
      "foireann": 4262,
      "réigiúnach": 4263,
      "Neamh": 4264,
      "OÉ": 4265,
      "úsa": 4266,
      "tsórt": 4267,
      "chúram": 4268,
      "eolaithe": 4269,
      "Iomp": 4270,
      "samplaí": 4271,
      "chánach": 4272,
      "throm": 4273,
      "inín": 4274,
      "mbealach": 4275,
      "táirgeadh": 4276,
      "fhostaithe": 4277,
      "cáilithe": 4278,
      "áras": 4279,
      "óna": 4280,
      "chathair": 4281,
      "scaip": 4282,
      "shláinte": 4283,
      "phearsanta": 4284,
      "cuim": 4285,
      "Déantóirí": 4286,
      "Praghas": 4287,
      "dathanna": 4288,
      "44": 4289,
      "Tair": 4290,
      "ier": 4291,
      "u3": 4292,
      "uaill": 4293,
      "bhéal": 4294,
      "scag": 4295,
      "ghlan": 4296,
      "coig": 4297,
      "fhoilsiú": 4298,
      "Monarcha": 4299,
      "réasúnta": 4300,
      "Cáil": 4301,
      "kin": 4302,
      "tréimh": 4303,
      "scriosadh": 4304,
      "Off": 4305,
      "córais": 4306,
      "ya": 4307,
      "2000": 4308,
      "luaite": 4309,
      "friotaíocht": 4310,
      "ians": 4311,
      "marsáid": 4312,
      "óisialaigh": 4313,
      "Tags": 4314,
      "aitheantas": 4315,
      "Cás": 4316,
      "íle": 4317,
      "ther": 4318,
      "intinn": 4319,
      "foráil": 4320,
      "tuairimí": 4321,
      "Ltd": 4322,
      "Pobail": 4323,
      "u5": 4324,
      "fhad": 4325,
      "allstáit": 4326,
      "bhua": 4327,
      "bhreithnithe": 4328,
      "cuspóir": 4329,
      "compordach": 4330,
      "substaint": 4331,
      "dhíonach": 4332,
      "Hardcore": 4333,
      "cn": 4334,
      "cil": 4335,
      "iel": 4336,
      "inár": 4337,
      "ical": 4338,
      "oilseach": 4339,
      "cónaí": 4340,
      "monarcha": 4341,
      "Play": 4342,
      "Institiúid": 4343,
      "Bia": 4344,
      "Clárú": 4345,
      "Taighde": 4346,
      "cior": 4347,
      "caithfidh": 4348,
      "eáin": 4349,
      "ero": 4350,
      "sláint": 4351,
      "wa": 4352,
      "eam": 4353,
      "iúnaí": 4354,
      "phá": 4355,
      "leithéid": 4356,
      "focail": 4357,
      "bóin": 4358,
      "Léiríonn": 4359,
      "77": 4360,
      "Wor": 4361,
      "uk": 4362,
      "shóisialta": 4363,
      "fhoráil": 4364,
      "Preas": 4365,
      "University": 4366,
      "caitheamh": 4367,
      "dlúth": 4368,
      "hábhair": 4369,
      "eiliúradh": 4370,
      "ingseoir": 4371,
      "Oifigiúil": 4372,
      "difriúil": 4373,
      "teorainneacha": 4374,
      "Fearr": 4375,
      "Fostaíochta": 4376,
      "No": 4377,
      "tin": 4378,
      "vel": 4379,
      "lip": 4380,
      "údarú": 4381,
      "aicí": 4382,
      "mharc": 4383,
      "ndéanann": 4384,
      "ranníoc": 4385,
      "dhearc": 4386,
      "réigiún": 4387,
      "buntáistí": 4388,
      "!!": 4389,
      "ME": 4390,
      "loc": 4391,
      "uachtar": 4392,
      "ited": 4393,
      "Mheán": 4394,
      "sheachadadh": 4395,
      "leictreonach": 4396,
      "fuaime": 4397,
      "99": 4398,
      "Lio": 4399,
      "za": 4400,
      "ilte": 4401,
      "raíodh": 4402,
      "chloch": 4403,
      "domhanda": 4404,
      "shonraí": 4405,
      "bliantúil": 4406,
      "thosaigh": 4407,
      "ceannadh": 4408,
      "Páirt": 4409,
      "hiarratas": 4410,
      "éide": 4411,
      "raiceann": 4412,
      "Mheir": 4413,
      "cathracha": 4414,
      "--": 4415,
      "mhá": 4416,
      "adhb": 4417,
      "ianáin": 4418,
      "bunaíodh": 4419,
      "ionadaithe": 4420,
      "gcuirfear": 4421,
      "parlaiminteach": 4422,
      "deacair": 4423,
      "Cabhair": 4424,
      "Tra": 4425,
      "cla": 4426,
      "muirear": 4427,
      "plandaí": 4428,
      "tÚdarás": 4429,
      "ley": 4430,
      "iúnú": 4431,
      "raíochtaí": 4432,
      "gcu": 4433,
      "tharla": 4434,
      "Ghníomh": 4435,
      "gcuirtear": 4436,
      "chúrsa": 4437,
      "Faisnéise": 4438,
      "Dollar": 4439,
      "Sraith": 4440,
      "dán": 4441,
      "cuims": 4442,
      "chomhair": 4443,
      "Cuirfidh": 4444,
      "Phen": 4445,
      "cart": 4446,
      "próiseála": 4447,
      "socrú": 4448,
      "déileáil": 4449,
      "Cal": 4450,
      "Líon": 4451,
      "Mic": 4452,
      "tianta": 4453,
      "u6": 4454,
      "orgá": 4455,
      "coimeád": 4456,
      "tro": 4457,
      "reá": 4458,
      "praithe": 4459,
      "chothabháil": 4460,
      "máid": 4461,
      "book": 4462,
      "bainte": 4463,
      "táillí": 4464,
      "Aisce": 4465,
      "FA": 4466,
      "chais": 4467,
      "scar": 4468,
      "comhaon": 4469,
      "uaireanta": 4470,
      "stáit": 4471,
      "ánacht": 4472,
      "cháilithe": 4473,
      "hAoine": 4474,
      "dhíth": 4475,
      "Thosaitheoirí": 4476,
      "táimid": 4477,
      "imní": 4478,
      "aicme": 4479,
      "siopa": 4480,
      "Uisce": 4481,
      "bi": 4482,
      "mhic": 4483,
      "luíonn": 4484,
      "iarrthóir": 4485,
      "Suíomh": 4486,
      "smaointe": 4487,
      "Liún": 4488,
      "dhiúl": 4489,
      "eirt": 4490,
      "foghlama": 4491,
      "mheasanna": 4492,
      "páipéar": 4493,
      "árachais": 4494,
      "bpróifíl": 4495,
      "Ear": 4496,
      "Mag": 4497,
      "fóg": 4498,
      "mún": 4499,
      "aonad": 4500,
      "Meir": 4501,
      "chool": 4502,
      "únaí": 4503,
      "eannas": 4504,
      "Oireachtas": 4505,
      "tosú": 4506,
      "Ban": 4507,
      "fíneáil": 4508,
      "teas": 4509,
      "u9": 4510,
      "itheacha": 4511,
      "earsan": 4512,
      "aoth": 4513,
      "Sho": 4514,
      "cáilíocht": 4515,
      "Serv": 4516,
      "Astráil": 4517,
      "Nó": 4518,
      "ST": 4519,
      "Tarr": 4520,
      "thal": 4521,
      "thuilleadh": 4522,
      "oireacht": 4523,
      "AIR": 4524,
      "aeráide": 4525,
      "English": 4526,
      "Jackets": 4527,
      "Chosaint": 4528,
      "PR": 4529,
      "Uath": 4530,
      "gin": 4531,
      "áistiú": 4532,
      "aign": 4533,
      "olog": 4534,
      "oibríochtaí": 4535,
      "Ghnó": 4536,
      "iarrthóirí": 4537,
      "daíonn": 4538,
      "Cen": 4539,
      "bailte": 4540,
      "litr": 4541,
      "dtu": 4542,
      "2004": 4543,
      "soláthróirí": 4544,
      "Forbairt": 4545,
      "inbhuanaithe": 4546,
      "bac": 4547,
      "nóir": 4548,
      "luaidh": 4549,
      "ionadaí": 4550,
      "teorann": 4551,
      "sábháilteacht": 4552,
      "BH": 4553,
      "bíodh": 4554,
      "ilv": 4555,
      "fhóg": 4556,
      "nuacht": 4557,
      "crit": 4558,
      "dearbhú": 4559,
      "íobháid": 4560,
      "áiseanna": 4561,
      "leathanaigh": 4562,
      "mhalar": 4563,
      "tairbhe": 4564,
      "PH": 4565,
      "dian": 4566,
      "vid": 4567,
      "thais": 4568,
      "Chéad": 4569,
      "ioma": 4570,
      "thuiscint": 4571,
      "chuirfidh": 4572,
      "ture": 4573,
      "Ghael": 4574,
      "Video": 4575,
      "can": 4576,
      "hamháin": 4577,
      "neartú": 4578,
      "nuashon": 4579,
      "thuras": 4580,
      "realamh": 4581,
      "shuiteáil": 4582,
      "teoranta": 4583,
      "mhonarcha": 4584,
      "Teach": 4585,
      "fór": 4586,
      "dheireadh": 4587,
      "coinne": 4588,
      "aisí": 4589,
      "bhrach": 4590,
      "Tugtar": 4591,
      "Táirge": 4592,
      "teicneolaíochta": 4593,
      "imthosca": 4594,
      "IV": 4595,
      "Síne": 4596,
      "caiteachas": 4597,
      "dru": 4598,
      "gloine": 4599,
      "ny": 4600,
      "réag": 4601,
      "rátha": 4602,
      "gné": 4603,
      "Three": 4604,
      "ndéanamh": 4605,
      "riosca": 4606,
      "Leigh": 4607,
      "Dan": 4608,
      "LA": 4609,
      "díola": 4610,
      "ness": 4611,
      "pion": 4612,
      "u14": 4613,
      "way": 4614,
      "Éist": 4615,
      "lua": 4616,
      "iúnais": 4617,
      "chomhlacht": 4618,
      "2001": 4619,
      "sman": 4620,
      "leasanna": 4621,
      "pacáiste": 4622,
      "Iris": 4623,
      "88": 4624,
      "blas": 4625,
      "óca": 4626,
      "laítear": 4627,
      "imí": 4628,
      "shláin": 4629,
      "bharfar": 4630,
      "oimirce": 4631,
      "cuideachtaí": 4632,
      "Black": 4633,
      "Tóg": 4634,
      "athanna": 4635,
      "ghluaiste": 4636,
      "Thuaidh": 4637,
      "Ran": 4638,
      "dleacht": 4639,
      "mag": 4640,
      "watch": 4641,
      "scor": 4642,
      "lámha": 4643,
      "ionanna": 4644,
      "taítear": 4645,
      "éilimh": 4646,
      "ócáid": 4647,
      "ghnóthú": 4648,
      "Talmhaíochta": 4649,
      "Réamh": 4650,
      "fóill": 4651,
      "cuntais": 4652,
      "reáchtáil": 4653,
      "IC": 4654,
      "SA": 4655,
      "cárta": 4656,
      "iúchán": 4657,
      "laíocht": 4658,
      "bhfr": 4659,
      "álaithe": 4660,
      "Teanga": 4661,
      "thanach": 4662,
      "ainéal": 4663,
      "cobh": 4664,
      "Anois": 4665,
      "igire": 4666,
      "istir": 4667,
      "sochaí": 4668,
      "lárnach": 4669,
      "tionscail": 4670,
      "contae": 4671,
      "teannta": 4672,
      "tíotáiniam": 4673,
      "Ráiteas": 4674,
      "Aith": 4675,
      "Can": 4676,
      "Seoladh": 4677,
      "lam": 4678,
      "nófar": 4679,
      "shaor": 4680,
      "Coinbhinsiún": 4681,
      "Bhu": 4682,
      "cumhachtaí": 4683,
      "dháileadh": 4684,
      "stóráil": 4685,
      "Gearmáin": 4686,
      "SS": 4687,
      "bpróiseas": 4688,
      "pl": 4689,
      "pas": 4690,
      "press": 4691,
      "bhsá": 4692,
      "less": 4693,
      "coiste": 4694,
      "adal": 4695,
      "rialtas": 4696,
      "ealaíne": 4697,
      "pinsean": 4698,
      "Bí": 4699,
      "hn": 4700,
      "tine": 4701,
      "ye": 4702,
      "achais": 4703,
      "gov": 4704,
      "sha": 4705,
      "gceang": 4706,
      "eagrú": 4707,
      "Comhair": 4708,
      "úsáideoir": 4709,
      "scéimeanna": 4710,
      "faisean": 4711,
      "Threesome": 4712,
      "toil": 4713,
      "u10": 4714,
      "onna": 4715,
      "fhos": 4716,
      "doch": 4717,
      "sheiceáil": 4718,
      "reen": 4719,
      "chontae": 4720,
      "dlite": 4721,
      "oibleagáidí": 4722,
      "ilvéis": 4723,
      "66": 4724,
      "Net": 4725,
      "chaipit": 4726,
      "ánna": 4727,
      "dócha": 4728,
      "Act": 4729,
      "Sín": 4730,
      "job": 4731,
      "Bhre": 4732,
      "rachaidh": 4733,
      "Údaráis": 4734,
      "720": 4735,
      "ráite": 4736,
      "dto": 4737,
      "bhforáiltear": 4738,
      "Star": 4739,
      "bpointe": 4740,
      "grúpaí": 4741,
      "ked": 4742,
      "pt": 4743,
      "oirs": 4744,
      "pháirteanna": 4745,
      "suithe": 4746,
      "news": 4747,
      "2005": 4748,
      "gníomhach": 4749,
      "éagsúil": 4750,
      "Irish": 4751,
      "méadar": 4752,
      "CR": 4753,
      "DE": 4754,
      "Dia": 4755,
      "Gluais": 4756,
      "uisc": 4757,
      "mhín": 4758,
      "aisíní": 4759,
      "Chlár": 4760,
      "amhras": 4761,
      "top": 4762,
      "talmhaíochta": 4763,
      "achtachán": 4764,
      "bpobal": 4765,
      "itheoireachta": 4766,
      "ghairmiúil": 4767,
      "pinsin": 4768,
      "breá": 4769,
      "09": 4770,
      "diú": 4771,
      "u2": 4772,
      "gcroí": 4773,
      "fac": 4774,
      "ating": 4775,
      "chomhairle": 4776,
      "stádas": 4777,
      "mBaile": 4778,
      "difear": 4779,
      "aingniú": 4780,
      "Cailíní": 4781,
      "maoine": 4782,
      "pre": 4783,
      "thacht": 4784,
      "comhréir": 4785,
      "áirc": 4786,
      "Phoiblí": 4787,
      "líonra": 4788,
      "leigheas": 4789,
      "wood": 4790,
      "PhenQ": 4791,
      "Ao": 4792,
      "Barr": 4793,
      "scáth": 4794,
      "réine": 4795,
      "stop": 4796,
      "meáin": 4797,
      "chothú": 4798,
      "déanann": 4799,
      "aiceach": 4800,
      "Forálacha": 4801,
      "greann": 4802,
      "Óglaigh": 4803,
      "MB": 4804,
      "TR": 4805,
      "UK": 4806,
      "beartas": 4807,
      "mhais": 4808,
      "adail": 4809,
      "Chor": 4810,
      "beagán": 4811,
      "Mórdhíola": 4812,
      "Dearadh": 4813,
      "Cóir": 4814,
      "MP": 4815,
      "Sin": 4816,
      "bealaí": 4817,
      "dteannta": 4818,
      "pu": 4819,
      "ush": 4820,
      "stó": 4821,
      "ndéanfaí": 4822,
      "éascú": 4823,
      "tógáil": 4824,
      "CF": 4825,
      "daigh": 4826,
      "pobal": 4827,
      "inneall": 4828,
      "cinntí": 4829,
      "mbud": 4830,
      "léireofar": 4831,
      "meáchain": 4832,
      "mhachtain": 4833,
      "láimhe": 4834,
      "tromchúis": 4835,
      "taisteal": 4836,
      "Réigiún": 4837,
      "08": 4838,
      "Pá": 4839,
      "Stair": 4840,
      "aíodh": 4841,
      "ceim": 4842,
      "tsuim": 4843,
      "—(": 4844,
      "eolaíocht": 4845,
      "cóimh": 4846,
      "07": 4847,
      "HO": 4848,
      "slio": 4849,
      "achas": 4850,
      "adóir": 4851,
      "Cuireadh": 4852,
      "tionscnamh": 4853,
      "ghníomhaíochtaí": 4854,
      "teilif": 4855,
      "Mheiriceá": 4856,
      "Tarraing": 4857,
      "ciontach": 4858,
      "faireach": 4859,
      "sibhialta": 4860,
      "taisce": 4861,
      "iúlacht": 4862,
      "Ansin": 4863,
      "luch": 4864,
      "gCon": 4865,
      "pictiúr": 4866,
      "Seach": 4867,
      "Spr": 4868,
      "tithe": 4869,
      "thiar": 4870,
      "chlú": 4871,
      "sonracha": 4872,
      "oirmeasc": 4873,
      "ket": 4874,
      "tob": 4875,
      "ane": 4876,
      "fuarthas": 4877,
      "pháirtíocht": 4878,
      "linbh": 4879,
      "timpeallacht": 4880,
      "laethúil": 4881,
      "rathúil": 4882,
      "Health": 4883,
      "bean": 4884,
      "ore": 4885,
      "íocháin": 4886,
      "peri": 4887,
      "conradh": 4888,
      "oms": 4889,
      "ceadaithe": 4890,
      "sheirbhísí": 4891,
      "orparáide": 4892,
      "Sábháil": 4893,
      "dtreo": 4894,
      "gla": 4895,
      "ting": 4896,
      "zz": 4897,
      "choir": 4898,
      "dheimhniú": 4899,
      "imscrúdú": 4900,
      "Meaisín": 4901,
      "cabhair": 4902,
      "phointe": 4903,
      "éineacht": 4904,
      "cúrsa": 4905,
      "rannpháirtíocht": 4906,
      "gluaiseacht": 4907,
      "tirim": 4908,
      "mbudsman": 4909,
      "Pe": 4910,
      "gcaoi": 4911,
      "ochta": 4912,
      "láithreáin": 4913,
      "príomha": 4914,
      "links": 4915,
      "Post": 4916,
      "ionstraimí": 4917,
      "CA": 4918,
      "Hot": 4919,
      "Tran": 4920,
      "beatha": 4921,
      "taifid": 4922,
      "des": 4923,
      "fhion": 4924,
      "rialtais": 4925,
      "macasamhail": 4926,
      "Deir": 4927,
      "bil": 4928,
      "dréacht": 4929,
      "sás": 4930,
      "orts": 4931,
      "aisle": 4932,
      "ica": 4933,
      "cúirte": 4934,
      "aoise": 4935,
      "tabharfaidh": 4936,
      "ealaíontóirí": 4937,
      "Bónas": 4938,
      "scoláirí": 4939,
      "\".": 4940,
      "47": 4941,
      "isial": 4942,
      "ustr": 4943,
      "comhth": 4944,
      "álfar": 4945,
      "smacht": 4946,
      "chónaí": 4947,
      "gearán": 4948,
      "06": 4949,
      "Lár": 4950,
      "mhol": 4951,
      "lána": 4952,
      "eilim": 4953,
      "idirlín": 4954,
      "bhír": 4955,
      "bainc": 4956,
      "ublic": 4957,
      "Ordú": 4958,
      "PDF": 4959,
      "Be": 4960,
      "liúcháin": 4961,
      "ns": 4962,
      "chiste": 4963,
      "ceist": 4964,
      "riail": 4965,
      "méideanna": 4966,
      "chostas": 4967,
      "scéime": 4968,
      "mhairiú": 4969,
      "limistéir": 4970,
      "casta": 4971,
      "ranganna": 4972,
      "béim": 4973,
      "iciúla": 4974,
      "rianchloch": 4975,
      "scríbhne": 4976,
      "meascán": 4977,
      "Idirlíon": 4978,
      "thosach": 4979,
      "cam": 4980,
      "táilte": 4981,
      "gheimhr": 4982,
      "Fhr": 4983,
      "bainistíochta": 4984,
      "céimeanna": 4985,
      "Íoslódáil": 4986,
      "eilleagar": 4987,
      "plaisteach": 4988,
      ".)": 4989,
      "Bailiúchán": 4990,
      "Osc": 4991,
      "Ombudsman": 4992,
      "Tor": 4993,
      "faoiseamh": 4994,
      "fhadhb": 4995,
      "comhlíonadh": 4996,
      "fola": 4997,
      "Gharda": 4998,
      "chóirithe": 4999,
      "Conradh": 5000,
      "tosach": 5001,
      "feithiclí": 5002,
      "Aer": 5003,
      "Bliain": 5004,
      "lithe": 5005,
      "wh": 5006,
      "teir": 5007,
      "scála": 5008,
      "iarbhír": 5009,
      "inti": 5010,
      "intir": 5011,
      "achtair": 5012,
      "Cuirfear": 5013,
      "Roghn": 5014,
      "folaíonn": 5015,
      "INT": 5016,
      "ualach": 5017,
      "Monaróirí": 5018,
      "thuairisc": 5019,
      "Ailt": 5020,
      "Qu": 5021,
      "cis": 5022,
      "uth": 5023,
      "chórais": 5024,
      "thír": 5025,
      "bhaigh": 5026,
      "iotal": 5027,
      "chuntas": 5028,
      "igit": 5029,
      "chiallaíonn": 5030,
      "pháirtithe": 5031,
      "deireanach": 5032,
      "ghníomhaíocht": 5033,
      "próiseáil": 5034,
      ".”.": 5035,
      "deontas": 5036,
      "Córas": 5037,
      "aimsire": 5038,
      "dheonú": 5039,
      "TU": 5040,
      "Treor": 5041,
      "gúna": 5042,
      "mbr": 5043,
      "inge": 5044,
      "ghin": 5045,
      "eangacha": 5046,
      "roinnte": 5047,
      "loingseoir": 5048,
      "leithligh": 5049,
      "tseachtain": 5050,
      "tSeirbhís": 5051,
      "carr": 5052,
      "reachtúil": 5053,
      "Creid": 5054,
      "Iasc": 5055,
      "aladh": 5056,
      "Crua": 5057,
      "ndearna": 5058,
      "díolacháin": 5059,
      "Léigh": 5060,
      "teagmhála": 5061,
      "Leasaítear": 5062,
      "IF": 5063,
      "Teag": 5064,
      "pm": 5065,
      "sruth": 5066,
      "ink": 5067,
      "ireacht": 5068,
      "idirdh": 5069,
      "ington": 5070,
      "Deon": 5071,
      "Tuaithe": 5072,
      "cúraim": 5073,
      "deontais": 5074,
      "mhaoiniú": 5075,
      "úsaem": 5076,
      "Iompair": 5077,
      "Ghníomhaireacht": 5078,
      "Coimirce": 5079,
      "custaiméirí": 5080,
      "ris": 5081,
      "nóidh": 5082,
      "thaca": 5083,
      "itinne": 5084,
      "amaí": 5085,
      "sochar": 5086,
      "tions": 5087,
      "íocadh": 5088,
      "tuairisce": 5089,
      "samhail": 5090,
      "dualgais": 5091,
      "Cultúir": 5092,
      "03": 5093,
      "Fostaíocht": 5094,
      "Oile": 5095,
      "ÍO": 5096,
      "inneach": 5097,
      "gcead": 5098,
      "lia": 5099,
      "athbhreithnithe": 5100,
      "Coun": 5101,
      "ártaí": 5102,
      "stitu": 5103,
      "srl": 5104,
      "Solas": 5105,
      "Cumann": 5106,
      "sócmhainní": 5107,
      "City": 5108,
      "Moms": 5109,
      "ein": 5110,
      "sithe": 5111,
      "ves": 5112,
      "theastaíonn": 5113,
      "ghinearálta": 5114,
      "ses": 5115,
      "aithfear": 5116,
      "Chú": 5117,
      "stíle": 5118,
      "Comp": 5119,
      "feidhmíocht": 5120,
      "uiscedhíonach": 5121,
      "cking": 5122,
      "out": 5123,
      "chéime": 5124,
      "Breith": 5125,
      "thiontú": 5126,
      "Whats": 5127,
      "ionannas": 5128,
      "Roghnaigh": 5129,
      "42": 5130,
      "irc": 5131,
      "coileach": 5132,
      "iarrachtaí": 5133,
      "Shaor": 5134,
      "rochtana": 5135,
      "Dearg": 5136,
      "tiomanta": 5137,
      "Breataine": 5138,
      "Coi": 5139,
      "RA": 5140,
      "ni": 5141,
      "tle": 5142,
      "u16": 5143,
      "vie": 5144,
      "ince": 5145,
      "iseadh": 5146,
      "chuaigh": 5147,
      "asbhaint": 5148,
      "star": 5149,
      "Ghearmáin": 5150,
      "bónas": 5151,
      "bronntanas": 5152,
      "\",": 5153,
      "Réal": 5154,
      "roi": 5155,
      "sce": 5156,
      "stail": 5157,
      "athchóiriú": 5158,
      "gcoitinne": 5159,
      "Blonde": 5160,
      "Tras": 5161,
      "caigh": 5162,
      "sine": 5163,
      "zel": 5164,
      "chairde": 5165,
      "ántais": 5166,
      "imreoir": 5167,
      "eachtar": 5168,
      "íostaí": 5169,
      "éireachta": 5170,
      "chomhaltaí": 5171,
      "dtír": 5172,
      "ters": 5173,
      "Phil": 5174,
      "Fuinn": 5175,
      "Tionscail": 5176,
      "codanna": 5177,
      "Fhrainc": 5178,
      "Oileáin": 5179,
      "49": 5180,
      "tv": 5181,
      "ánaí": 5182,
      "bhliantúil": 5183,
      "láid": 5184,
      "cumarsáide": 5185,
      "mban": 5186,
      "bate": 5187,
      "cúiseanna": 5188,
      "feistithe": 5189,
      "solúb": 5190,
      "fheithicil": 5191,
      "Big": 5192,
      "CM": 5193,
      "léid": 5194,
      "uaidh": 5195,
      "tee": 5196,
      "rat": 5197,
      "asach": 5198,
      "Chó": 5199,
      "ros": 5200,
      "eadán": 5201,
      "neamhdh": 5202,
      "chuirfear": 5203,
      "Brunet": 5204,
      "línse": 5205,
      "Lucht": 5206,
      "tábhachtaí": 5207,
      "Tech": 5208,
      "difríocht": 5209,
      "creidmheasa": 5210,
      "AMH": 5211,
      "Duine": 5212,
      "géar": 5213,
      "thaifead": 5214,
      "teán": 5215,
      "ghal": 5216,
      "chomhlán": 5217,
      "príos": 5218,
      "Bhun": 5219,
      "tionón": 5220,
      "trédhearc": 5221,
      "Mhuir": 5222,
      "díriú": 5223,
      "scaireachta": 5224,
      "sreabh": 5225,
      "American": 5226,
      "aeir": 5227,
      "lóidh": 5228,
      "saithe": 5229,
      "mholadh": 5230,
      "altas": 5231,
      "Char": 5232,
      "wel": 5233,
      "aolú": 5234,
      "patr": 5235,
      "leordhó": 5236,
      "Bainistíochta": 5237,
      "tábhacht": 5238,
      "Football": 5239,
      "Domhanda": 5240,
      "thionscnamh": 5241,
      "shárú": 5242,
      "Mion": 5243,
      "dleathach": 5244,
      "gle": 5245,
      "saille": 5246,
      "coin": 5247,
      "athnuach": 5248,
      "nuithe": 5249,
      "tslí": 5250,
      "líonta": 5251,
      "bhunaithe": 5252,
      "1999": 5253,
      "staidéir": 5254,
      "faighte": 5255,
      "dualgas": 5256,
      "Áirítear": 5257,
      "Beo": 5258,
      "Foils": 5259,
      "SM": 5260,
      "caighdeánach": 5261,
      "lte": 5262,
      "mair": 5263,
      "ories": 5264,
      "tran": 5265,
      "bhfianaise": 5266,
      "comhionann": 5267,
      "liteanas": 5268,
      "eabhair": 5269,
      "tugann": 5270,
      "chúrsaí": 5271,
      "dteangacha": 5272,
      "sion": 5273,
      "titim": 5274,
      "u7": 5275,
      "praghsanna": 5276,
      "Comhshaoil": 5277,
      "ngairtear": 5278,
      "phrionsa": 5279,
      "Úsáidtear": 5280,
      "oirseachta": 5281,
      "59": 5282,
      "We": 5283,
      "sex": 5284,
      "eachtadh": 5285,
      "phac": 5286,
      "cuardach": 5287,
      "nítear": 5288,
      "aigéad": 5289,
      "fhoirgn": 5290,
      "ghnéas": 5291,
      "aidrimh": 5292,
      "perience": 5293,
      "GA": 5294,
      "aipe": 5295,
      "abhta": 5296,
      "ríthábhachtach": 5297,
      "ceapadh": 5298,
      "Dúiche": 5299,
      "feithicle": 5300,
      "clasaiceach": 5301,
      "58": 5302,
      "Banc": 5303,
      "You": 5304,
      "taisc": 5305,
      "nat": 5306,
      "mhion": 5307,
      "tap": 5308,
      "nachar": 5309,
      "athar": 5310,
      "ene": 5311,
      "féachana": 5312,
      "Pleanála": 5313,
      "romhainn": 5314,
      "ghlanadh": 5315,
      "critéir": 5316,
      "fin": 5317,
      "háit": 5318,
      "sor": 5319,
      "threoir": 5320,
      "eng": 5321,
      "ipéir": 5322,
      "Náisiún": 5323,
      "suimiúil": 5324,
      "bhsálaí": 5325,
      "300": 5326,
      "Céard": 5327,
      "cónaithe": 5328,
      "sáil": 5329,
      "alú": 5330,
      "íomhá": 5331,
      "dtíortha": 5332,
      "Tháinig": 5333,
      "bhraitheann": 5334,
      "mpa": 5335,
      "Mhaigh": 5336,
      "pointí": 5337,
      "foirt": 5338,
      "Tuaisceart": 5339,
      "teicniúla": 5340,
      "réigiúin": 5341,
      "Dáta": 5342,
      "taistil": 5343,
      "Cial": 5344,
      "Ríomh": 5345,
      "sic": 5346,
      "val": 5347,
      "thrí": 5348,
      "túin": 5349,
      "túlacht": 5350,
      "ealladh": 5351,
      "Infheist": 5352,
      "pháirtíochta": 5353,
      "olaíocht": 5354,
      "bhféadfaí": 5355,
      "Cosanta": 5356,
      "dtabharfar": 5357,
      "Afraic": 5358,
      ")(": 5359,
      "Achomh": 5360,
      "eisc": 5361,
      "níonn": 5362,
      "eigh": 5363,
      "shiúl": 5364,
      "tsraith": 5365,
      "mBun": 5366,
      "teaghlach": 5367,
      "dhearadh": 5368,
      "cks": 5369,
      "Super": 5370,
      "que": 5371,
      "treoracha": 5372,
      "Gl": 5373,
      "MO": 5374,
      "thr": 5375,
      "inim": 5376,
      "teurs": 5377,
      "gcon": 5378,
      "eoga": 5379,
      "roghnaigh": 5380,
      "gCoimisinéirí": 5381,
      "mhargaidh": 5382,
      "tionscla": 5383,
      "airdeas": 5384,
      "chúiseamh": 5385,
      "oimisinéir": 5386,
      "cultúrtha": 5387,
      "droch": 5388,
      "tithíochta": 5389,
      "——": 5390,
      "earra": 5391,
      "strap": 5392,
      "form": 5393,
      "ealaíona": 5394,
      "olasaí": 5395,
      "Cumh": 5396,
      "treoirlínte": 5397,
      "undation": 5398,
      "Gr": 5399,
      "dis": 5400,
      "fú": 5401,
      "Óige": 5402,
      "mbainfidh": 5403,
      "chruinniú": 5404,
      "mhuirearaithe": 5405,
      "Amateurs": 5406,
      "chuspóir": 5407,
      "cartlann": 5408,
      "05": 5409,
      "SCE": 5410,
      "Watch": 5411,
      "huathoibríoch": 5412,
      "incháilithe": 5413,
      "ataisí": 5414,
      "dún": 5415,
      "spins": 5416,
      "tionscnaimh": 5417,
      "siopaí": 5418,
      "monatóireacht": 5419,
      "World": 5420,
      "dochtúir": 5421,
      "04": 5422,
      "6ú": 5423,
      "Slán": 5424,
      "dtar": 5425,
      "Ós": 5426,
      "thea": 5427,
      "iontáil": 5428,
      "iomláine": 5429,
      "Bhallstáit": 5430,
      "ardchaighdeáin": 5431,
      "mBéarla": 5432,
      "Turas": 5433,
      "experience": 5434,
      "Rátáil": 5435,
      "bunúsach": 5436,
      "Daonla": 5437,
      "béil": 5438,
      "eamar": 5439,
      "féar": 5440,
      "réad": 5441,
      "séas": 5442,
      "eirbh": 5443,
      "gCúirt": 5444,
      "Rialú": 5445,
      "ghníomhach": 5446,
      "tugtar": 5447,
      "fuinneamh": 5448,
      "Macasamhail": 5449,
      "soft": 5450,
      "Edit": 5451,
      "Sea": 5452,
      "eiste": 5453,
      "vitim": 5454,
      "yCuntas": 5455,
      "fhianaise": 5456,
      "sárú": 5457,
      "med": 5458,
      "nasctha": 5459,
      "scrúduithe": 5460,
      "críochnaithe": 5461,
      "Ceannais": 5462,
      "tháthú": 5463,
      "CL": 5464,
      "CP": 5465,
      "CT": 5466,
      "Poblacht": 5467,
      "Ur": 5468,
      "fimid": 5469,
      "lóg": 5470,
      "múinteoir": 5471,
      "péir": 5472,
      "inmhuirearaithe": 5473,
      "muinín": 5474,
      "Imirt": 5475,
      "rannpháirtithe": 5476,
      "fiosrúcháin": 5477,
      "bhfaighidh": 5478,
      "sealadach": 5479,
      "He": 5480,
      "bur": 5481,
      "caidreamh": 5482,
      "zo": 5483,
      "aitheacha": 5484,
      "ionsaí": 5485,
      "Iarratais": 5486,
      "íocfar": 5487,
      "1998": 5488,
      "institiúid": 5489,
      "spriocanna": 5490,
      "chinnfidh": 5491,
      "Atlan": 5492,
      "tréimhsí": 5493,
      "Uathoibríoch": 5494,
      "BE": 5495,
      "éadrom": 5496,
      "álann": 5497,
      "réasán": 5498,
      "speisial": 5499,
      "Teaghlaigh": 5500,
      "Limist": 5501,
      "Aois": 5502,
      "Cineál": 5503,
      "Caithfidh": 5504,
      "DO": 5505,
      "Ja": 5506,
      "Ste": 5507,
      "ceoil": 5508,
      "u13": 5509,
      "ít": 5510,
      "scne": 5511,
      "lux": 5512,
      "rár": 5513,
      "ríomhphost": 5514,
      "Spóirt": 5515,
      "dhearbhú": 5516,
      "gcuirfí": 5517,
      "bhféadfaidh": 5518,
      "Úsáide": 5519,
      "aibhir": 5520,
      "liúchán": 5521,
      "azine": 5522,
      "Riacht": 5523,
      "loingseoireachta": 5524,
      "41": 5525,
      "bians": 5526,
      "cíos": 5527,
      "part": 5528,
      "u18": 5529,
      "leasuithe": 5530,
      "bhfoireann": 5531,
      "ité": 5532,
      "roth": 5533,
      "leanfaidh": 5534,
      "osp": 5535,
      "eirm": 5536,
      "Bhallstát": 5537,
      "feidhmíochta": 5538,
      "chiontú": 5539,
      "earnálacha": 5540,
      "Micro": 5541,
      "Bil": 5542,
      "School": 5543,
      "bag": 5544,
      "dlú": 5545,
      "héifeachtach": 5546,
      "pad": 5547,
      "u15": 5548,
      "theanga": 5549,
      "tábla": 5550,
      "fheic": 5551,
      "Phort": 5552,
      "2002": 5553,
      "eastóireacht": 5554,
      "bhféadfar": 5555,
      "tógála": 5556,
      "rannpháirteach": 5557,
      "deacr": 5558,
      "leictreachais": 5559,
      "feistí": 5560,
      "serv": 5561,
      "Aistriúchán": 5562,
      "fostaí": 5563,
      "ceard": 5564,
      "Inneal": 5565,
      "thabhála": 5566,
      "95": 5567,
      "Dúirt": 5568,
      "Eas": 5569,
      "Hum": 5570,
      "hArd": 5571,
      "Bhain": 5572,
      "iúirí": 5573,
      "43": 5574,
      "ctha": 5575,
      "neacht": 5576,
      "saill": 5577,
      "idil": 5578,
      "eanada": 5579,
      "trial": 5580,
      "gcéanna": 5581,
      "dúshláin": 5582,
      "trácht": 5583,
      "thuismitheoirí": 5584,
      "oidhreacht": 5585,
      "táirgthe": 5586,
      "gcumas": 5587,
      "thalamh": 5588,
      "Bhreith": 5589,
      "78": 5590,
      "Win": 5591,
      "fiche": 5592,
      "áb": 5593,
      "láimhse": 5594,
      "stán": 5595,
      "Luain": 5596,
      "scrúdaithe": 5597,
      "leasaítear": 5598,
      "Tagann": 5599,
      "thástáil": 5600,
      "official": 5601,
      "Bréag": 5602,
      "Cíocha": 5603,
      "Ome": 5604,
      "fíorú": 5605,
      "tuil": 5606,
      "ild": 5607,
      "fhomhír": 5608,
      "easpa": 5609,
      "old": 5610,
      "fhorléiriú": 5611,
      "ngnó": 5612,
      "róta": 5613,
      "bhuach": 5614,
      "Dhá": 5615,
      "Frainc": 5616,
      "long": 5617,
      "fhaightear": 5618,
      "Ciallaíonn": 5619,
      "caid": 5620,
      "cistí": 5621,
      "vi": 5622,
      "airíonna": 5623,
      "teagaisc": 5624,
      "soláthair": 5625,
      "galánta": 5626,
      "Scoileanna": 5627,
      "alúman": 5628,
      "VI": 5629,
      "WHO": 5630,
      "soic": 5631,
      "yo": 5632,
      "antas": 5633,
      "tasc": 5634,
      "iúnas": 5635,
      "lah": 5636,
      "col": 5637,
      "aitheacht": 5638,
      "comhad": 5639,
      "ónais": 5640,
      "saincheisteanna": 5641,
      "ghníomhú": 5642,
      "AIM": 5643,
      "Togh": 5644,
      "Gníomhaireacht": 5645,
      "piacha": 5646,
      "chumann": 5647,
      "Dis": 5648,
      "vir": 5649,
      "war": 5650,
      "earsa": 5651,
      "omhaltóirí": 5652,
      "comhartha": 5653,
      "chaomhnú": 5654,
      "bainistiú": 5655,
      "Cumarsáide": 5656,
      "Cuimsiú": 5657,
      "greannmhar": 5658,
      "DR": 5659,
      "Ginearálta": 5660,
      "Her": 5661,
      "Mad": 5662,
      "bpost": 5663,
      "catagóir": 5664,
      "fhol": 5665,
      "fhoils": 5666,
      "chuntasaíochta": 5667,
      "éadach": 5668,
      "theor": 5669,
      "aitist": 5670,
      "bour": 5671,
      "Cúr": 5672,
      "shealbhú": 5673,
      "stiúrthóir": 5674,
      "Liúntas": 5675,
      "400": 5676,
      "Dath": 5677,
      "Fógra": 5678,
      "MA": 5679,
      "On": 5680,
      "líocht": 5681,
      "dhual": 5682,
      "seáil": 5683,
      "inniúil": 5684,
      "ices": 5685,
      "lachais": 5686,
      "iarna": 5687,
      "ister": 5688,
      "chóireáil": 5689,
      "56": 5690,
      "bas": 5691,
      "seal": 5692,
      "zh": 5693,
      "del": 5694,
      "alcó": 5695,
      "seaic": 5696,
      "thaíodh": 5697,
      "ens": 5698,
      "moladh": 5699,
      "liant": 5700,
      "fhéadfá": 5701,
      "cháilíocht": 5702,
      "nglacfaí": 5703,
      "stórá": 5704,
      "All": 5705,
      "Beag": 5706,
      "ung": 5707,
      "chomhar": 5708,
      "raig": 5709,
      "tuig": 5710,
      "ríomhaireachta": 5711,
      "míleata": 5712,
      "chruth": 5713,
      "ube": 5714,
      "cruthaithe": 5715,
      "India": 5716,
      "xxx": 5717,
      "dlíthiúil": 5718,
      "brabúis": 5719,
      "experienced": 5720,
      "02": 5721,
      "76": 5722,
      "Gar": 5723,
      "Gra": 5724,
      "bor": 5725,
      "thóra": 5726,
      "túirt": 5727,
      "stu": 5728,
      "aca": 5729,
      "dtionsc": 5730,
      "creim": 5731,
      "Inexperienced": 5732,
      "bualadh": 5733,
      "tagtha": 5734,
      "Samhna": 5735,
      "IDE": 5736,
      "Áitiúla": 5737,
      "tarraingt": 5738,
      "resist": 5739,
      "Eacnamaíoch": 5740,
      "Dír": 5741,
      "HE": 5742,
      "Mná": 5743,
      "threor": 5744,
      "dhaon": 5745,
      "sheachtain": 5746,
      "íosta": 5747,
      "meaisíní": 5748,
      "éireacht": 5749,
      "saoránaigh": 5750,
      "ife": 5751,
      "mheasúnachta": 5752,
      "oiciméid": 5753,
      "eimhl": 5754,
      "corpraithe": 5755,
      "Cosaint": 5756,
      "cúramach": 5757,
      "Dúradh": 5758,
      "astaíochtaí": 5759,
      "Ass": 5760,
      "Bro": 5761,
      "Dar": 5762,
      "ak": 5763,
      "clá": 5764,
      "inter": 5765,
      "bhaill": 5766,
      "bhosca": 5767,
      "chuma": 5768,
      "fhocal": 5769,
      "eip": 5770,
      "Charm": 5771,
      "iarn": 5772,
      "acad": 5773,
      "lot": 5774,
      "Rocht": 5775,
      "pleananna": 5776,
      "foirmeacha": 5777,
      "chailleadh": 5778,
      "lascaine": 5779,
      "teilifíse": 5780,
      "Aic": 5781,
      "DA": 5782,
      "DC": 5783,
      "mhún": 5784,
      "nóim": 5785,
      "annaí": 5786,
      "Chill": 5787,
      "lie": 5788,
      "nascadh": 5789,
      "cheadúnas": 5790,
      "1997": 5791,
      "cruinnithe": 5792,
      "Éireannacha": 5793,
      "sealbhóir": 5794,
      "stylish": 5795,
      "dhiailiú": 5796,
      "nuashonrú": 5797,
      "Aonad": 5798,
      "Grianchloch": 5799,
      "Just": 5800,
      "Sráid": 5801,
      "Trealamh": 5802,
      "fír": 5803,
      "gréine": 5804,
      "meicniúil": 5805,
      "table": 5806,
      "deann": 5807,
      "gcustaiméirí": 5808,
      "mbliain": 5809,
      "ocsaí": 5810,
      "bhróidh": 5811,
      "iascaireachta": 5812,
      "Rolex": 5813,
      "dearfach": 5814,
      "gníomhaíochta": 5815,
      "snasta": 5816,
      "Athbhreithniú": 5817,
      "ceadúnais": 5818,
      "aimsir": 5819,
      "sloinne": 5820,
      "erotic": 5821,
      "Corp": 5822,
      "digiteach": 5823,
      "fas": 5824,
      "ugh": 5825,
      "mhná": 5826,
      "bháis": 5827,
      "isean": 5828,
      "taíonn": 5829,
      "iness": 5830,
      "ardaithe": 5831,
      "oimre": 5832,
      "gníomhaíocht": 5833,
      "fheidhmeanna": 5834,
      "gcríoch": 5835,
      "aerár": 5836,
      "Oileán": 5837,
      "Fhorbairt": 5838,
      "bunúsacha": 5839,
      "Uaireadóirí": 5840,
      "prionsabal": 5841,
      "scaipeadh": 5842,
      "Chorcaí": 5843,
      "Bán": 5844,
      "Wo": 5845,
      "cm": 5846,
      "gram": 5847,
      "ix": 5848,
      "just": 5849,
      "chra": 5850,
      "ory": 5851,
      "coimh": 5852,
      "áilleacht": 5853,
      "shín": 5854,
      "réimh": 5855,
      "ford": 5856,
      "iber": 5857,
      "ipéis": 5858,
      "ríomhphoist": 5859,
      "150": 5860,
      "bhuntá": 5861,
      "mhaíola": 5862,
      "Soláthraíonn": 5863,
      "Tabharfaidh": 5864,
      "Uaireanta": 5865,
      "Rómáin": 5866,
      "Clo": 5867,
      "dio": 5868,
      "sk": 5869,
      "tac": 5870,
      "ded": 5871,
      "Tástáil": 5872,
      "cathaoirleach": 5873,
      "speic": 5874,
      "stáisiún": 5875,
      "Nuála": 5876,
      "Leabharlann": 5877,
      "éigeandála": 5878,
      "choigeartú": 5879,
      "mhalartú": 5880,
      "aisleán": 5881,
      "sceideal": 5882,
      "98": 5883,
      "Fe": 5884,
      "Tír": 5885,
      "Taois": 5886,
      "han": 5887,
      "dheo": 5888,
      "luí": 5889,
      "liam": 5890,
      "óisear": 5891,
      "ranga": 5892,
      "shuim": 5893,
      "Cód": 5894,
      "oibleagáid": 5895,
      "Nor": 5896,
      "craiceann": 5897,
      "lios": 5898,
      "Éig": 5899,
      "isín": 5900,
      "gcomhthéacs": 5901,
      "gcos": 5902,
      "seachadadh": 5903,
      "mhíchumas": 5904,
      "achomhairc": 5905,
      "chríochnú": 5906,
      "voltas": 5907,
      "ÁSPC": 5908,
      "Gluaiseacht": 5909,
      "Liom": 5910,
      "Obair": 5911,
      "beirt": 5912,
      "cle": 5913,
      "gam": 5914,
      "pan": 5915,
      "pian": 5916,
      "sn": 5917,
      "anal": 5918,
      "thiocfaidh": 5919,
      "dhaingniú": 5920,
      "idéil": 5921,
      "eard": 5922,
      "idirghabh": 5923,
      "áire": 5924,
      "prait": 5925,
      "teagasc": 5926,
      "Scann": 5927,
      "liathróid": 5928,
      "uirbhé": 5929,
      "Bréagáin": 5930,
      "',": 5931,
      "120": 5932,
      "Tuir": 5933,
      "ze": 5934,
      "thin": 5935,
      "reg": 5936,
      "comhpháirteanna": 5937,
      "pháistí": 5938,
      "dúl": 5939,
      "saoráidí": 5940,
      "cap": 5941,
      "rie": 5942,
      "Rialacha": 5943,
      "Oifigeach": 5944,
      "luachanna": 5945,
      "Bunaíodh": 5946,
      "fhágann": 5947,
      "chailleann": 5948,
      "clúdach": 5949,
      "éifeachtúlacht": 5950,
      "prionsabail": 5951,
      "oilseacháin": 5952,
      "Bus": 5953,
      "Bog": 5954,
      "Cam": 5955,
      "IA": 5956,
      "Taithí": 5957,
      "fianáin": 5958,
      "hy": 5959,
      "mraí": 5960,
      "xt": 5961,
      "illeadh": 5962,
      "lege": 5963,
      "áine": 5964,
      "tásc": 5965,
      "rothar": 5966,
      "istithe": 5967,
      "liachta": 5968,
      "ardán": 5969,
      "bunú": 5970,
      "ibhe": 5971,
      "buiséad": 5972,
      "cialluíonn": 5973,
      "seans": 5974,
      "ashington": 5975,
      "tomhaltóirí": 5976,
      "European": 5977,
      "snáithín": 5978,
      "Blu": 5979,
      "Bosca": 5980,
      "Raidió": 5981,
      "Stu": 5982,
      "pea": 5983,
      "info": 5984,
      "dhiúscairt": 5985,
      "saíochtaí": 5986,
      "fhás": 5987,
      "braite": 5988,
      "comhshaoil": 5989,
      "ugg": 5990,
      "chruinnithe": 5991,
      "Spy": 5992,
      "daonna": 5993,
      "more": 5994,
      "foirgneamh": 5995,
      "fhuinn": 5996,
      "Éisteachta": 5997,
      "Gearmáinis": 5998,
      "chomhlánú": 5999,
      "57": 6000,
      "Cáin": 6001,
      "Mu": 6002,
      "SF": 6003,
      "Sna": 6004,
      "bus": 6005,
      "cer": 6006,
      "halt": 6007,
      "ple": 6008,
      "punt": 6009,
      "dhú": 6010,
      "dheir": 6011,
      "allamh": 6012,
      "oide": 6013,
      "nóirí": 6014,
      "eifr": 6015,
      "aiméad": 6016,
      "lianta": 6017,
      "aireachtáil": 6018,
      "icket": 6019,
      "CBL": 6020,
      "foilsíodh": 6021,
      "Achomhairc": 6022,
      "52": 6023,
      "Ber": 6024,
      "cearn": 6025,
      "fair": 6026,
      "hainmneacha": 6027,
      "ike": 6028,
      "chónaithe": 6029,
      "thuil": 6030,
      "bheartas": 6031,
      "iol": 6032,
      "amharc": 6033,
      "iompr": 6034,
      "ces": 6035,
      "Airgid": 6036,
      "Thug": 6037,
      "now": 6038,
      "bhfolach": 6039,
      "suimeanna": 6040,
      "bezel": 6041,
      "áthas": 6042,
      "Seomra": 6043,
      "chailíní": 6044,
      "Domhnach": 6045,
      "eacnamaíocha": 6046,
      "toghcháin": 6047,
      "comhoiriúnacht": 6048,
      "96": 6049,
      "Croí": 6050,
      "Sil": 6051,
      "ding": 6052,
      "gCoiste": 6053,
      "ico": 6054,
      "bhord": 6055,
      "ons": 6056,
      "chuims": 6057,
      "row": 6058,
      "margaidh": 6059,
      "áirce": 6060,
      "Threoir": 6061,
      "creat": 6062,
      "pola": 6063,
      "mheasúnú": 6064,
      "baineann": 6065,
      "cliste": 6066,
      "ARL": 6067,
      "........": 6068,
      "gers": 6069,
      "OP": 6070,
      "Tiocfaidh": 6071,
      "hion": 6072,
      "saigh": 6073,
      "u19": 6074,
      "mhas": 6075,
      "ghair": 6076,
      "sheirbh": 6077,
      "eastá": 6078,
      "ace": 6079,
      "ester": 6080,
      "tuism": 6081,
      "foláir": 6082,
      "Scrú": 6083,
      "carbóin": 6084,
      "Athrú": 6085,
      "monaróir": 6086,
      "ORPA": 6087,
      "sheirbhís": 6088,
      "mháthair": 6089,
      "Meiriceá": 6090,
      "stíleanna": 6091,
      "IE": 6092,
      "Lig": 6093,
      "mainn": 6094,
      "u11": 6095,
      "fhostaíocht": 6096,
      "uille": 6097,
      "fabr": 6098,
      "abhraíonn": 6099,
      "Phobail": 6100,
      "ceangailte": 6101,
      "Amh": 6102,
      "BA": 6103,
      "iostail": 6104,
      "féide": 6105,
      "rel": 6106,
      "saineolaithe": 6107,
      "Iarthair": 6108,
      "ordóidh": 6109,
      "oifigí": 6110,
      "cruinneas": 6111,
      "scáileán": 6112,
      "hEORPA": 6113,
      "Fheidhmiú": 6114,
      "Brunette": 6115,
      "leordhóthanach": 6116,
      "Bail": 6117,
      "Dub": 6118,
      "Diam": 6119,
      "G4": 6120,
      "faid": 6121,
      "tt": 6122,
      "u20": 6123,
      "uainn": 6124,
      "u22": 6125,
      "onnadh": 6126,
      "ghréasáin": 6127,
      "inniúla": 6128,
      "thabharfaidh": 6129,
      "oiriúnú": 6130,
      "redt": 6131,
      "icel": 6132,
      "marca": 6133,
      "dtiocfaidh": 6134,
      "cen": 6135,
      "ceannairí": 6136,
      "ustaiméir": 6137,
      "riachtanacha": 6138,
      "úinteoireachta": 6139,
      "uimhreacha": 6140,
      "cultúr": 6141,
      "iascaigh": 6142,
      "rolla": 6143,
      "bhóthar": 6144,
      "Christian": 6145,
      "cuimsitheach": 6146,
      "resistant": 6147,
      "Eile": 6148,
      "Fin": 6149,
      "ap": 6150,
      "gás": 6151,
      "i_": 6152,
      "muirir": 6153,
      "nraí": 6154,
      "seas": 6155,
      "stoic": 6156,
      "príobháideach": 6157,
      "tog": 6158,
      "tub": 6159,
      "tsráid": 6160,
      "eolaíoch": 6161,
      "Mhárta": 6162,
      "ceadú": 6163,
      "arraigh": 6164,
      "vótáil": 6165,
      "mionsonraithe": 6166,
      "Ollscoile": 6167,
      "Manu": 6168,
      "glactha": 6169,
      "tiús": 6170,
      "diúltú": 6171,
      "AGUS": 6172,
      "doras": 6173,
      "Tuairisc": 6174,
      "Cinneadh": 6175,
      "IG": 6176,
      "billiún": 6177,
      "cré": 6178,
      "dáin": 6179,
      "daingean": 6180,
      "gé": 6181,
      "mill": 6182,
      "tel": 6183,
      "ithreach": 6184,
      "Chat": 6185,
      "tarlú": 6186,
      "saoránach": 6187,
      "úsáideach": 6188,
      "éilíonn": 6189,
      "tharchur": 6190,
      "choitianta": 6191,
      "Gníomhaíochta": 6192,
      "thiomáint": 6193,
      "díospóireacht": 6194,
      "nuálaíocht": 6195,
      "Fraincis": 6196,
      "ARLAIM": 6197,
      "Gairm": 6198,
      "Ior": 6199,
      "Sé": 6200,
      "cord": 6201,
      "daítear": 6202,
      "dráma": 6203,
      "haois": 6204,
      "pósta": 6205,
      "tuir": 6206,
      "óidí": 6207,
      "dhliteanas": 6208,
      "deoch": 6209,
      "fhostaíochta": 6210,
      "Chum": 6211,
      "nacht": 6212,
      "mbaol": 6213,
      "Bhean": 6214,
      "bout": 6215,
      "Tour": 6216,
      "ghlacann": 6217,
      "idirdhealú": 6218,
      "ARLAIMINT": 6219,
      "Caibidil": 6220,
      "PL": 6221,
      "Pal": 6222,
      "Taisce": 6223,
      "Times": 6224,
      "ceannach": 6225,
      "any": 6226,
      "led": 6227,
      "bhfu": 6228,
      "Ange": 6229,
      "chomhlachta": 6230,
      "oibrí": 6231,
      "léim": 6232,
      "sport": 6233,
      "teicniúil": 6234,
      "léasair": 6235,
      "ceangal": 6236,
      "bhforbairt": 6237,
      "suímh": 6238,
      "Teicneolaíochta": 6239,
      "Preasráitis": 6240,
      "Anal": 6241,
      "BB": 6242,
      "Cra": 6243,
      "Faoin": 6244,
      "Tithíochta": 6245,
      "bí": 6246,
      "u17": 6247,
      "Áise": 6248,
      "saoirse": 6249,
      "fhabh": 6250,
      "shó": 6251,
      "Mens": 6252,
      "dtuair": 6253,
      "fostóir": 6254,
      "Mhic": 6255,
      "sholáthraíonn": 6256,
      "túsóirí": 6257,
      "scaoilte": 6258,
      "Oiliúna": 6259,
      "thogh": 6260,
      "Council": 6261,
      "lógó": 6262,
      "redtube": 6263,
      "Mus": 6264,
      "NE": 6265,
      "PV": 6266,
      "mích": 6267,
      "thomhas": 6268,
      "bhaithe": 6269,
      "urious": 6270,
      "stóirí": 6271,
      "íomhánna": 6272,
      "chathaoirleach": 6273,
      "seachtrach": 6274,
      "Strap": 6275,
      "úineadh": 6276,
      "téarmach": 6277,
      "ology": 6278,
      "national": 6279,
      "Deimhniú": 6280,
      "Gla": 6281,
      "Mal": 6282,
      "ner": 6283,
      "nAchtanna": 6284,
      "thío": 6285,
      "mhac": 6286,
      "dhíl": 6287,
      "sceimhl": 6288,
      "gceannas": 6289,
      "phinsin": 6290,
      "déantú": 6291,
      "oibriúcháin": 6292,
      "pháirteach": 6293,
      "eicniúla": 6294,
      "órtáil": 6295,
      "fheidhmithe": 6296,
      "Luc": 6297,
      "bóithre": 6298,
      "tabharfar": 6299,
      "bhrabhsálaí": 6300,
      "dhíreach": 6301,
      "arastail": 6302,
      "PHARLAIMINT": 6303,
      "soicind": 6304,
      "Gal": 6305,
      "NY": 6306,
      "Port": 6307,
      "Teagmháil": 6308,
      "Yor": 6309,
      "ah": 6310,
      "bláth": 6311,
      "thíortha": 6312,
      "mhú": 6313,
      "mhúinteoirí": 6314,
      "sciath": 6315,
      "aithne": 6316,
      "ock": 6317,
      "choinníollacha": 6318,
      "Mara": 6319,
      "gClár": 6320,
      "fhéadfaidh": 6321,
      "CEE": 6322,
      "airdín": 6323,
      "Allah": 6324,
      "ders": 6325,
      "riocht": 6326,
      "ghearrthóg": 6327,
      "mbunaítear": 6328,
      "www": 6329,
      "Maith": 6330,
      "Per": 6331,
      "Sol": 6332,
      "Sou": 6333,
      "Tos": 6334,
      "cro": 6335,
      "iet": 6336,
      "pearsan": 6337,
      "tinn": 6338,
      "aisean": 6339,
      "ration": 6340,
      "roid": 6341,
      "dent": 6342,
      "iomlána": 6343,
      "Bhliantúil": 6344,
      "Aonair": 6345,
      "saintréithe": 6346,
      "gcomhlacht": 6347,
      "roghnaithe": 6348,
      "chúiseanna": 6349,
      "ualainn": 6350,
      "bPríomh": 6351,
      "Bracelet": 6352,
      "54": 6353,
      "KO": 6354,
      "Life": 6355,
      "Pan": 6356,
      "bainne": 6357,
      "taire": 6358,
      "comharthaí": 6359,
      "pháiste": 6360,
      "rúnd": 6361,
      "iomad": 6362,
      "éarma": 6363,
      "Comhaontú": 6364,
      "níc": 6365,
      "dáileadh": 6366,
      "buataisí": 6367,
      "impeallacht": 6368,
      "shonrú": 6369,
      "Poist": 6370,
      "Tacaíocht": 6371,
      "wers": 6372,
      "fhreagairt": 6373,
      "RTÉ": 6374,
      "eilimintí": 6375,
      "Les": 6376,
      "Tiom": 6377,
      "dan": 6378,
      "ju": 6379,
      "póca": 6380,
      "thre": 6381,
      "nae": 6382,
      "dhul": 6383,
      "ussy": 6384,
      "chumais": 6385,
      "urscaoileadh": 6386,
      "comhdhéanta": 6387,
      "rubair": 6388,
      "chomp": 6389,
      "celo": 6390,
      "gcomhlíonann": 6391,
      "siúcra": 6392,
      "oifigiúla": 6393,
      "áisiúil": 6394,
      "tanas": 6395,
      "bheartais": 6396,
      "úinéireacht": 6397,
      "stiúrthóirí": 6398,
      "polaitiúil": 6399,
      "íobháideacha": 6400,
      "67": 6401,
      "BS": 6402,
      "Bíodh": 6403,
      "Foc": 6404,
      "Iom": 6405,
      "Méid": 6406,
      "fóin": 6407,
      "thain": 6408,
      "Chearta": 6409,
      "shibhialta": 6410,
      "comhdh": 6411,
      "náisiún": 6412,
      "ruis": 6413,
      "leanann": 6414,
      "rásaí": 6415,
      "board": 6416,
      "Tuarascálacha": 6417,
      "ized": 6418,
      "bailí": 6419,
      "dliteanas": 6420,
      "House": 6421,
      "fágtha": 6422,
      "factur": 6423,
      "athnuachan": 6424,
      "Diamond": 6425,
      "tograí": 6426,
      "Ceang": 6427,
      "Foilsiú": 6428,
      "Gearr": 6429,
      "cártaí": 6430,
      "gl": 6431,
      "geann": 6432,
      "páirteanna": 6433,
      "chaidreamh": 6434,
      "scór": 6435,
      "oibh": 6436,
      "tru": 6437,
      "comhábhair": 6438,
      "cúiteamh": 6439,
      "Phr": 6440,
      "spior": 6441,
      "ipí": 6442,
      "raitheach": 6443,
      "eimhnithe": 6444,
      "Uachtaránacht": 6445,
      "Sochar": 6446,
      "morgá": 6447,
      "dhlíth": 6448,
      "srianta": 6449,
      "innealra": 6450,
      "aisinéirí": 6451,
      "Masturbation": 6452,
      "Masturbating": 6453,
      "scaradh": 6454,
      "Coir": 6455,
      "Ger": 6456,
      "Pand": 6457,
      "Rí": 6458,
      "Wa": 6459,
      "clu": 6460,
      "ep": 6461,
      "hio": 6462,
      "rimh": 6463,
      "thear": 6464,
      "cess": 6465,
      "raic": 6466,
      "tom": 6467,
      "iúnacha": 6468,
      "uathu": 6469,
      "play": 6470,
      "Rátaí": 6471,
      "Cathracha": 6472,
      "léargas": 6473,
      "Leictreach": 6474,
      "stórála": 6475,
      "Eis": 6476,
      "caiteachais": 6477,
      "eoirí": 6478,
      "poll": 6479,
      "sur": 6480,
      "u23": 6481,
      "Ón": 6482,
      "chón": 6483,
      "ank": 6484,
      "mhéide": 6485,
      "áille": 6486,
      "idirbheart": 6487,
      "dúbailte": 6488,
      "ceir": 6489,
      "cruthaíodh": 6490,
      "aingt": 6491,
      "Stíl": 6492,
      "oiciméad": 6493,
      "Sports": 6494,
      "aistriúcháin": 6495,
      "Cuardaigh": 6496,
      "próisis": 6497,
      "téigh": 6498,
      "Foundation": 6499,
      "artlann": 6500,
      "Críostaí": 6501,
      "díolúine": 6502,
      "Face": 6503,
      "orparáid": 6504,
      "stitute": 6505,
      "rótacal": 6506,
      "sheirbheáil": 6507,
      "App": 6508,
      "Beartas": 6509,
      "Da": 6510,
      "El": 6511,
      "danna": 6512,
      "aiseo": 6513,
      "coim": 6514,
      "troid": 6515,
      "shóisialaigh": 6516,
      "chostais": 6517,
      "sítear": 6518,
      "leathair": 6519,
      "ionadaíocht": 6520,
      "míle": 6521,
      "fheidhmíocht": 6522,
      "Próifíl": 6523,
      "Scoile": 6524,
      "Foghlaim": 6525,
      "Cuideachta": 6526,
      "cóipeanna": 6527,
      "cathrach": 6528,
      "shots": 6529,
      "Téigh": 6530,
      "Daonlathaithe": 6531,
      "Manufactur": 6532,
      "Ben": 6533,
      "Eol": 6534,
      "Nós": 6535,
      "Press": 6536,
      "dlínse": 6537,
      "líochta": 6538,
      "indéanta": 6539,
      "achar": 6540,
      "cothabháil": 6541,
      "une": 6542,
      "comhoibriú": 6543,
      "cumarsáid": 6544,
      "too": 6545,
      "roghnaíonn": 6546,
      "shonrófar": 6547,
      "Alban": 6548,
      "galar": 6549,
      "thagairt": 6550,
      "chonradh": 6551,
      "bhrath": 6552,
      "óirtéir": 6553,
      "tuairiscí": 6554,
      "cábla": 6555,
      "mBunreacht": 6556,
      "celona": 6557,
      "BR": 6558,
      "Uir": 6559,
      "caith": 6560,
      "aife": 6561,
      "mhaí": 6562,
      "íost": 6563,
      "achom": 6564,
      "ghairtear": 6565,
      "astu": 6566,
      "bró": 6567,
      "Anseo": 6568,
      "bhainfidh": 6569,
      "thús": 6570,
      "Luach": 6571,
      "bóthair": 6572,
      "raclam": 6573,
      "cóireáil": 6574,
      "Saincheaptha": 6575,
      "Léinn": 6576,
      "ÍOCH": 6577,
      "ábalta": 6578,
      "icelist": 6579,
      "Pandora": 6580,
      "Aims": 6581,
      "Ball": 6582,
      "Fa": 6583,
      "Rúnaí": 6584,
      "Teas": 6585,
      "Uí": 6586,
      "ml": 6587,
      "sibh": 6588,
      "shee": 6589,
      "uirí": 6590,
      "aontaithe": 6591,
      "nála": 6592,
      "mber": 6593,
      "Phlean": 6594,
      "teang": 6595,
      "buí": 6596,
      "lanc": 6597,
      "Breath": 6598,
      "maoinithe": 6599,
      "Choinbhinsiún": 6600,
      "lowjob": 6601,
      "polasaí": 6602,
      "Adh": 6603,
      "Den": 6604,
      "Díol": 6605,
      "Sw": 6606,
      "Teo": 6607,
      "fl": 6608,
      "healaíona": 6609,
      "éinne": 6610,
      "irteanna": 6611,
      "mhó": 6612,
      "bheo": 6613,
      "bhfuair": 6614,
      "marga": 6615,
      "tarm": 6616,
      "tachtaí": 6617,
      "Pho": 6618,
      "gcomhlíon": 6619,
      "chláraithe": 6620,
      "iasachtaí": 6621,
      "ghluaiseacht": 6622,
      "solúbtha": 6623,
      "OT": 6624,
      "bl": 6625,
      "céile": 6626,
      "get": 6627,
      "gearradh": 6628,
      "níní": 6629,
      "oo": 6630,
      "taise": 6631,
      "teochta": 6632,
      "fhear": 6633,
      "gcinn": 6634,
      "iomaíocht": 6635,
      "Arm": 6636,
      "scrios": 6637,
      "ochair": 6638,
      "cleachtais": 6639,
      "earrbh": 6640,
      "leictreacha": 6641,
      "graf": 6642,
      "cionta": 6643,
      "Choláiste": 6644,
      "Police": 6645,
      "State": 6646,
      "foilsithe": 6647,
      "léarscáil": 6648,
      "Rúipí": 6649,
      "69": 6650,
      "AF": 6651,
      "Seapáin": 6652,
      "fostaíocht": 6653,
      "hid": 6654,
      "mhaire": 6655,
      "illa": 6656,
      "ghear": 6657,
      "Ans": 6658,
      "reil": 6659,
      "aily": 6660,
      "margaí": 6661,
      "oileán": 6662,
      "bhíthin": 6663,
      "móradh": 6664,
      "criostail": 6665,
      "tuaithe": 6666,
      "suíomhanna": 6667,
      "ngairm": 6668,
      "dóiteáin": 6669,
      "Cumhacht": 6670,
      "AIS": 6671,
      "pers": 6672,
      "key": 6673,
      "bhrúite": 6674,
      "difriúla": 6675,
      "Domhnaigh": 6676,
      "gearrthóg": 6677,
      "light": 6678,
      "Masturbate": 6679,
      "vision": 6680,
      "Rannóg": 6681,
      "Cinn": 6682,
      "Cún": 6683,
      "Hel": 6684,
      "gior": 6685,
      "har": 6686,
      "heagraíochtaí": 6687,
      "sage": 6688,
      "ward": 6689,
      "rab": 6690,
      "cothabhála": 6691,
      "shaoth": 6692,
      "rugadh": 6693,
      "máthair": 6694,
      "eicn": 6695,
      "bracelet": 6696,
      "rapóirtéir": 6697,
      "gcúrsa": 6698,
      "aigne": 6699,
      "ilvéise": 6700,
      "gheimhridh": 6701,
      "Techn": 6702,
      "luxurious": 6703,
      "Facebook": 6704,
      "Fág": 6705,
      "TV": 6706,
      "mall": 6707,
      "Úcr": 6708,
      "chabhair": 6709,
      "íoga": 6710,
      "nóna": 6711,
      "Cheann": 6712,
      "iceacha": 6713,
      "gcuntas": 6714,
      "ailse": 6715,
      "eilt": 6716,
      "mbail": 6717,
      "mes": 6718,
      "éarlais": 6719,
      "fhostóir": 6720,
      "buíochas": 6721,
      "Fhion": 6722,
      "gcuirfidh": 6723,
      "gCuideachtaí": 6724,
      "voltais": 6725,
      "brabús": 6726,
      "láimhseáil": 6727,
      "Mil": 6728,
      "Oíche": 6729,
      "cs": 6730,
      "cus": 6731,
      "ey": 6732,
      "eráide": 6733,
      "geal": 6734,
      "hOifig": 6735,
      "ithíocht": 6736,
      "aithn": 6737,
      "fhéach": 6738,
      "brí": 6739,
      "shíniú": 6740,
      "ames": 6741,
      "roll": 6742,
      "phol": 6743,
      "forordaithe": 6744,
      "bogadh": 6745,
      "buach": 6746,
      "tSeapáin": 6747,
      "250": 6748,
      "eannacht": 6749,
      "éifeachtacht": 6750,
      "1976": 6751,
      "clúidí": 6752,
      "Services": 6753,
      "iomaíoch": 6754,
      "tobac": 6755,
      "51": 6756,
      "Data": 6757,
      "IÚ": 6758,
      "TC": 6759,
      "back": 6760,
      "cat": 6761,
      "cón": 6762,
      "léad": 6763,
      "lóirí": 6764,
      "píosa": 6765,
      "u24": 6766,
      "u21": 6767,
      "thaisc": 6768,
      "bhal": 6769,
      "bhia": 6770,
      "ghléas": 6771,
      "ston": 6772,
      "chomhshaoil": 6773,
      "ocs": 6774,
      "pró": 6775,
      "soghluaiste": 6776,
      "Airteagail": 6777,
      "úsáideora": 6778,
      "bainteach": 6779,
      "dtagann": 6780,
      "rioscaí": 6781,
      "straitéisí": 6782,
      "1952": 6783,
      "machnamh": 6784,
      "Stiúrthóireacht": 6785,
      "orparáideach": 6786,
      "fheithiclí": 6787,
      "achomair": 6788,
      "reilig": 6789,
      "Cro": 6790,
      "Ceap": 6791,
      "Free": 6792,
      "Li": 6793,
      "Maoin": 6794,
      "Riar": 6795,
      "SC": 6796,
      "maireachtáil": 6797,
      "uig": 6798,
      "“...": 6799,
      "dheasc": 6800,
      "íonó": 6801,
      "ette": 6802,
      "itimh": 6803,
      "web": 6804,
      "eagla": 6805,
      "super": 6806,
      "Iarr": 6807,
      "íocfaidh": 6808,
      "iteann": 6809,
      "léirithe": 6810,
      "Shábháil": 6811,
      "ills": 6812,
      "clin": 6813,
      "Cuimh": 6814,
      "Cruinniú": 6815,
      "ionannais": 6816,
      "1967": 6817,
      "caipitil": 6818,
      "comhaontuithe": 6819,
      "Ghaeltacht": 6820,
      "dlús": 6821,
      "Dial": 6822,
      "Sláint": 6823,
      "UM": 6824,
      "baol": 6825,
      "dích": 6826,
      "lch": 6827,
      "míniú": 6828,
      "siam": 6829,
      "tsaoil": 6830,
      "you": 6831,
      "Óir": 6832,
      "theach": 6833,
      "irl": 6834,
      "usa": 6835,
      "Chathair": 6836,
      "ition": 6837,
      "ionsú": 6838,
      "caomh": 6839,
      "eisirí": 6840,
      "mórán": 6841,
      "thúla": 6842,
      "míre": 6843,
      "oscaireacht": 6844,
      "Cruth": 6845,
      "Sainmhíniú": 6846,
      "urrúis": 6847,
      "tromchúiseach": 6848,
      "láidre": 6849,
      "thaifeadadh": 6850,
      "74": 6851,
      "89": 6852,
      "Washington": 6853,
      "app": 6854,
      "gro": 6855,
      "yal": 6856,
      "dhéag": 6857,
      "oichead": 6858,
      "try": 6859,
      "treal": 6860,
      "shamh": 6861,
      "idirlíon": 6862,
      "éadan": 6863,
      "intit": 6864,
      "aitseáil": 6865,
      "Pháirt": 6866,
      "ible": 6867,
      "Ghathanna": 6868,
      "gCiste": 6869,
      "Mheith": 6870,
      "freagracht": 6871,
      "Soláthar": 6872,
      "EUR": 6873,
      "folctha": 6874,
      "hEilvéise": 6875,
      "éifeachtúil": 6876,
      "insint": 6877,
      "pionós": 6878,
      "WhatsChat": 6879,
      "thíolacadh": 6880,
      "1ú": 6881,
      "1000": 6882,
      "72": 6883,
      "Green": 6884,
      "Ios": 6885,
      "gream": 6886,
      "moncler": 6887,
      "saibhir": 6888,
      "ireachta": 6889,
      "chuibh": 6890,
      "eana": 6891,
      "fhoc": 6892,
      "Anail": 6893,
      "gceap": 6894,
      "spar": 6895,
      "neoidh": 6896,
      "ullaigh": 6897,
      "gníomhaireachtaí": 6898,
      "Próis": 6899,
      "Soláthraí": 6900,
      "iorc": 6901,
      "Gnéithe": 6902,
      "SEAS": 6903,
      "chúlghairm": 6904,
      "Sóisialaí": 6905,
      "iontráil": 6906,
      "réigiúnacha": 6907,
      "Microsoft": 6908,
      "110": 6909,
      "3D": 6910,
      "85": 6911,
      "Cearta": 6912,
      "Long": 6913,
      "Seice": 6914,
      "df": 6915,
      "hard": 6916,
      "kg": 6917,
      "quir": 6918,
      "’,": 6919,
      "chóip": 6920,
      "mhuirir": 6921,
      "bhealaí": 6922,
      "astáin": 6923,
      "oich": 6924,
      "ities": 6925,
      "aonaid": 6926,
      "eilg": 6927,
      "marbh": 6928,
      "airteag": 6929,
      "cóc": 6930,
      "Cumas": 6931,
      "Tríonó": 6932,
      "clárúcháin": 6933,
      "pital": 6934,
      "aitheantais": 6935,
      "urrús": 6936,
      "Sio": 6937,
      "Tru": 6938,
      "sráide": 6939,
      "chis": 6940,
      "aicr": 6941,
      "agóid": 6942,
      "ily": 6943,
      "bhás": 6944,
      "dhaltaí": 6945,
      "tál": 6946,
      "gcuimh": 6947,
      "idirbhearta": 6948,
      "eochair": 6949,
      "ocsain": 6950,
      "Airí": 6951,
      "foinse": 6952,
      "trád": 6953,
      "gníomhaire": 6954,
      "seachad": 6955,
      "Naomh": 6956,
      "tagartha": 6957,
      "uasta": 6958,
      "tábhachtacha": 6959,
      "áitribh": 6960,
      "Thuaisceart": 6961,
      "Foirgn": 6962,
      "Réalta": 6963,
      "fíorúil": 6964,
      "Bal": 6965,
      "Feir": 6966,
      "GE": 6967,
      "Ken": 6968,
      "Rad": 6969,
      "Vo": 6970,
      "ele": 6971,
      "him": 6972,
      "pon": 6973,
      "raidió": 6974,
      "úcháin": 6975,
      "leideanna": 6976,
      "deanna": 6977,
      "ghá": 6978,
      "ghrúpaí": 6979,
      "ainsé": 6980,
      "aince": 6981,
      "eideann": 6982,
      "thabharfar": 6983,
      "under": 6984,
      "formhór": 6985,
      "bhunús": 6986,
      "gnólachtaí": 6987,
      "aiteoirí": 6988,
      "tics": 6989,
      "gcuireann": 6990,
      "Indiach": 6991,
      "clúdaithe": 6992,
      "dliteanais": 6993,
      "gcruinniú": 6994,
      "Rúisis": 6995,
      "vidio": 6996,
      "Rochtain": 6997,
      "Fuair": 6998,
      "Múinteoirí": 6999,
      "Reacht": 7000,
      "TF": 7001,
      "deach": 7002,
      "gio": 7003,
      "iamh": 7004,
      "siúil": 7005,
      "Éil": 7006,
      "úd": 7007,
      "úchán": 7008,
      "thé": 7009,
      "inst": 7010,
      "aonar": 7011,
      "eadáin": 7012,
      "1916": 7013,
      "rasmus": 7014,
      "tuarascálacha": 7015,
      "ney": 7016,
      "Shóisialaigh": 7017,
      "mílte": 7018,
      "conarthaí": 7019,
      "Láithre": 7020,
      "thionchar": 7021,
      "fostú": 7022,
      "fórsaí": 7023,
      "Answers": 7024,
      "SEASAMH": 7025,
      "Educ": 7026,
      "Fú": 7027,
      "Frith": 7028,
      "GB": 7029,
      "Lao": 7030,
      "fer": 7031,
      "feabhsú": 7032,
      "ifr": 7033,
      "prá": 7034,
      "time": 7035,
      "éisc": 7036,
      "theicniúil": 7037,
      "naked": 7038,
      "innigh": 7039,
      "aschur": 7040,
      "aobh": 7041,
      "igi": 7042,
      "íric": 7043,
      "18K": 7044,
      "charm": 7045,
      "oibreoidh": 7046,
      "mhaíocht": 7047,
      "pskin": 7048,
      "ligeann": 7049,
      "bhformáid": 7050,
      "teicneolaíochtaí": 7051,
      "Eagraíocht": 7052,
      "daonla": 7053,
      "tomhalt": 7054,
      "Fiontar": 7055,
      "imthrial": 7056,
      "ghrádú": 7057,
      "gaolmhara": 7058,
      "aitisticí": 7059,
      "sheepskin": 7060,
      "Tríonóide": 7061,
      "Feirste": 7062,
      "53": 7063,
      "7ú": 7064,
      "AA": 7065,
      "Erasmus": 7066,
      "hor": 7067,
      "kers": 7068,
      "Áill": 7069,
      "naíochta": 7070,
      "bheatha": 7071,
      "bhalla": 7072,
      "inné": 7073,
      "íochán": 7074,
      "omhair": 7075,
      "iarmh": 7076,
      "aidin": 7077,
      "pricelist": 7078,
      "maidin": 7079,
      "lánaimseartha": 7080,
      "maoirseachta": 7081,
      "boinn": 7082,
      "bhuiséad": 7083,
      "dlíthe": 7084,
      "ANNA": 7085,
      "inarb": 7086,
      "ghnéithe": 7087,
      "Acmhainní": 7088,
      "molta": 7089,
      "Feidhmiúcháin": 7090,
      "daonra": 7091,
      "chumainn": 7092,
      "Ceadaíonn": 7093,
      "toirt": 7094,
      "ghnéitheacha": 7095,
      "Páirtí": 7096,
      "Áilleacht": 7097,
      "79": 7098,
      "Blowjob": 7099,
      "Imp": 7100,
      "Pinsean": 7101,
      "Slo": 7102,
      "Teacht": 7103,
      "Taist": 7104,
      "blaí": 7105,
      "facht": 7106,
      "aibhr": 7107,
      "sel": 7108,
      "saoth": 7109,
      "Cheap": 7110,
      "comhlán": 7111,
      "phion": 7112,
      "Phoblacht": 7113,
      "fhorchur": 7114,
      "teachtaireacht": 7115,
      "oibreoirí": 7116,
      "Depart": 7117,
      "ligthe": 7118,
      "ceanglas": 7119,
      "taispeántas": 7120,
      "glasraí": 7121,
      "Oscailte": 7122,
      "York": 7123,
      "Aoine": 7124,
      "Clas": 7125,
      "Glas": 7126,
      "Lae": 7127,
      "Mam": 7128,
      "hiarratais": 7129,
      "hAlban": 7130,
      "lus": 7131,
      "ov": 7132,
      "uain": 7133,
      "chine": 7134,
      "ghuth": 7135,
      "ainte": 7136,
      "amhsa": 7137,
      "stomhas": 7138,
      "atmais": 7139,
      "dtéann": 7140,
      "locht": 7141,
      "lúin": 7142,
      "seachtracha": 7143,
      "aingéil": 7144,
      "laghdaithe": 7145,
      "reachtúla": 7146,
      "trasteorann": 7147,
      "Oral": 7148,
      "athairn": 7149,
      "Power": 7150,
      "Chuideachta": 7151,
      "thaispeán": 7152,
      "dramhaíola": 7153,
      "mhuirearú": 7154,
      "England": 7155,
      "International": 7156,
      "cnaipe": 7157,
      "sláintiúil": 7158,
      "fógraí": 7159,
      "iarnróid": 7160,
      "BO": 7161,
      "Iniú": 7162,
      "Lagh": 7163,
      "báin": 7164,
      "ceiliúradh": 7165,
      "gun": 7166,
      "liste": 7167,
      "vír": 7168,
      "ardo": 7169,
      "ony": 7170,
      "itheora": 7171,
      "eather": 7172,
      "sola": 7173,
      "Thair": 7174,
      "éalainn": 7175,
      "Déanta": 7176,
      "Chomhphobail": 7177,
      "carachtair": 7178,
      "cheadúnais": 7179,
      "vótaí": 7180,
      "iúscartha": 7181,
      "Official": 7182,
      "bhfreagra": 7183,
      "sreabhadh": 7184,
      ":—": 7185,
      "Amb": 7186,
      "FB": 7187,
      "Gro": 7188,
      "Ros": 7189,
      "Sam": 7190,
      "Toscaireacht": 7191,
      "drá": 7192,
      "ofar": 7193,
      "Ábhair": 7194,
      "inc": 7195,
      "inos": 7196,
      "aisteach": 7197,
      "she": 7198,
      "gcruth": 7199,
      "gceantar": 7200,
      "ator": 7201,
      "dúradh": 7202,
      "chlog": 7203,
      "rialála": 7204,
      "uidéal": 7205,
      "neamhgh": 7206,
      "Margadh": 7207,
      "ngnáth": 7208,
      "illte": 7209,
      "cóid": 7210,
      "ochtúir": 7211,
      "airdiúil": 7212,
      "dtugann": 7213,
      "United": 7214,
      "tógadh": 7215,
      "foirmiúil": 7216,
      "bhrab": 7217,
      "fiac": 7218,
      "Tionól": 7219,
      "drugaí": 7220,
      "welry": 7221,
      "Infheistíochta": 7222,
      "Riachtan": 7223,
      "dhualgas": 7224,
      "Iorua": 7225,
      "68": 7226,
      "Cirt": 7227,
      "Fomhair": 7228,
      "Sch": 7229,
      "Story": 7230,
      "dacha": 7231,
      "ien": 7232,
      "úcair": 7233,
      "seiceáil": 7234,
      "rabh": 7235,
      "uilleo": 7236,
      "breo": 7237,
      "brunet": 7238,
      "Thar": 7239,
      "rialaitheoir": 7240,
      "cáilíochtaí": 7241,
      "Staid": 7242,
      "teicníc": 7243,
      "Next": 7244,
      "Tele": 7245,
      "1963": 7246,
      "ceannas": 7247,
      "College": 7248,
      "Glacann": 7249,
      "sheasmhach": 7250,
      "múnla": 7251,
      "Foilsithe": 7252,
      "creimeadh": 7253,
      "IDEAL": 7254,
      "Dublin": 7255,
      "Fúinn": 7256,
      "64": 7257,
      "Cinnte": 7258,
      "Láir": 7259,
      "Mach": 7260,
      "OEM": 7261,
      "Pu": 7262,
      "Rang": 7263,
      "SP": 7264,
      "bel": 7265,
      "bpríomh": 7266,
      "dTuaisceart": 7267,
      "híoc": 7268,
      "hacmhainní": 7269,
      "mur": 7270,
      "tsochaí": 7271,
      "theag": 7272,
      "lee": 7273,
      "ones": 7274,
      "ghru": 7275,
      "shraith": 7276,
      "gcóir": 7277,
      "áltais": 7278,
      "chleachtas": 7279,
      "chuideachtaí": 7280,
      "ipt": 7281,
      "day": 7282,
      "Stoc": 7283,
      "contúirt": 7284,
      "mianraí": 7285,
      "socraithe": 7286,
      "gabhál": 7287,
      "foirgnimh": 7288,
      "Spáinnis": 7289,
      "chultúrtha": 7290,
      "substaintí": 7291,
      "deacrachtaí": 7292,
      "úcairist": 7293,
      "ceachtar": 7294,
      "gnách": 7295,
      "neo": 7296,
      "neas": 7297,
      "oph": 7298,
      "roim": 7299,
      "uibh": 7300,
      "Íseal": 7301,
      "chaiteachas": 7302,
      "agon": 7303,
      "achoimre": 7304,
      "idge": 7305,
      "ainmhí": 7306,
      "chuardach": 7307,
      "samb": 7308,
      "nachta": 7309,
      "réaltaí": 7310,
      "ists": 7311,
      "Tábla": 7312,
      "Comhdháil": 7313,
      "ump": 7314,
      "boscaí": 7315,
      "rianta": 7316,
      "daor": 7317,
      "iasachta": 7318,
      "calories": 7319,
      "Tacaíonn": 7320,
      "dúnta": 7321,
      "ruiséil": 7322,
      "EL": 7323,
      "Fire": 7324,
      "Mich": 7325,
      "TO": 7326,
      "cc": 7327,
      "sw": 7328,
      "zrel": 7329,
      "chtaí": 7330,
      "théarmaí": 7331,
      "mhaolú": 7332,
      "tabh": 7333,
      "íogair": 7334,
      "bhfoir": 7335,
      "eto": 7336,
      "ines": 7337,
      "áirimh": 7338,
      "olc": 7339,
      "únadh": 7340,
      "Bhó": 7341,
      "aitéar": 7342,
      "Ghlac": 7343,
      "úinéirí": 7344,
      "Imeachtaí": 7345,
      "vótála": 7346,
      "taispeántais": 7347,
      "Pleanáil": 7348,
      "Leagtar": 7349,
      "thuairim": 7350,
      "misean": 7351,
      "Author": 7352,
      "ograph": 7353,
      "romaíocht": 7354,
      "luaidhe": 7355,
      "uiscí": 7356,
      "diúité": 7357,
      "comhtháite": 7358,
      "séasúr": 7359,
      "Scannán": 7360,
      "Croíthe": 7361,
      "600": 7362,
      "Fla": 7363,
      "cló": 7364,
      "Ísil": 7365,
      "sed": 7366,
      "uirb": 7367,
      "sts": 7368,
      "stra": 7369,
      "Med": 7370,
      "órsa": 7371,
      "andy": 7372,
      "ippe": 7373,
      "olly": 7374,
      "ranníocaíochtaí": 7375,
      "bainise": 7376,
      "shonraithe": 7377,
      "lámhas": 7378,
      "breithe": 7379,
      "feithicil": 7380,
      "comhpháirtithe": 7381,
      "ainmniúcháin": 7382,
      "gComhphobal": 7383,
      "Assoc": 7384,
      "Deis": 7385,
      "Eolaíochta": 7386,
      "Linn": 7387,
      "SD": 7388,
      "Sk": 7389,
      "Sche": 7390,
      "Sathairn": 7391,
      "TM": 7392,
      "abhar": 7393,
      "gorm": 7394,
      "tain": 7395,
      "arraige": 7396,
      "áillí": 7397,
      "Chláir": 7398,
      "gcaitheamh": 7399,
      "gcluiche": 7400,
      "lum": 7401,
      "éiríonn": 7402,
      "daíocht": 7403,
      "cara": 7404,
      "Athchóirithe": 7405,
      "ations": 7406,
      "chumasú": 7407,
      "tógtha": 7408,
      "tiomáint": 7409,
      "eitilt": 7410,
      "Tabharfar": 7411,
      "plátáilte": 7412,
      "cuimhne": 7413,
      "Danmhair": 7414,
      "gContae": 7415,
      "DM": 7416,
      "Je": 7417,
      "Seachtain": 7418,
      "ction": 7419,
      "fíon": 7420,
      "ken": 7421,
      "mála": 7422,
      "nGael": 7423,
      "ous": 7424,
      "saghas": 7425,
      "ÁIL": 7426,
      "áide": 7427,
      "áchan": 7428,
      "fhada": 7429,
      "well": 7430,
      "ionfhabh": 7431,
      "gcaithfidh": 7432,
      "olo": 7433,
      "dúshlán": 7434,
      "chlo": 7435,
      "oibrigh": 7436,
      "bhraigh": 7437,
      "lasta": 7438,
      "spórt": 7439,
      "Institute": 7440,
      "neamhchoitianta": 7441,
      "contr": 7442,
      "Report": 7443,
      "samhraidh": 7444,
      "bParlaimint": 7445,
      "Struch": 7446,
      "cloí": 7447,
      "rent": 7448,
      "Ainmneacha": 7449,
      "pláta": 7450,
      "leamhn": 7451,
      "scoirfidh": 7452,
      "fhógairt": 7453,
      "Limistéar": 7454,
      "Lucsamb": 7455,
      "mhaíl": 7456,
      "93": 7457,
      "Amach": 7458,
      "Clú": 7459,
      "Club": 7460,
      "Don": 7461,
      "FO": 7462,
      "Lou": 7463,
      "cig": 7464,
      "corp": 7465,
      "caol": 7466,
      "dteanga": 7467,
      "faisin": 7468,
      "geo": 7469,
      "róir": 7470,
      "só": 7471,
      "thachta": 7472,
      "oiriúint": 7473,
      "dteastaíonn": 7474,
      "aighdean": 7475,
      "Bhruiséil": 7476,
      "léirmheasanna": 7477,
      "fhéadfar": 7478,
      "Cúl": 7479,
      "Treoirlínte": 7480,
      "fhoirmiúil": 7481,
      "ghlactha": 7482,
      "fisiciúil": 7483,
      "mhuintir": 7484,
      "Teicneolaíocht": 7485,
      "Ghnóthaí": 7486,
      "Chúirte": 7487,
      "vitimíní": 7488,
      "seaicéid": 7489,
      "Bogearraí": 7490,
      "Lucsamburg": 7491,
      "316": 7492,
      "AO": 7493,
      "Cus": 7494,
      "Day": 7495,
      "Mc": 7496,
      "Pay": 7497,
      "RI": 7498,
      "Ríoga": 7499,
      "bailiúchán": 7500,
      "díbh": 7501,
      "ranna": 7502,
      "bhliana": 7503,
      "ghéar": 7504,
      "aisghabháil": 7505,
      "fheabh": 7506,
      "eiceann": 7507,
      "Chul": 7508,
      "rest": 7509,
      "chois": 7510,
      "Art": 7511,
      "eisíodh": 7512,
      "mórtais": 7513,
      "stru": 7514,
      "ndéanfadh": 7515,
      "leasmhara": 7516,
      "ustaiméara": 7517,
      "Buíochas": 7518,
      "ullmhaithe": 7519,
      "Tríú": 7520,
      "solais": 7521,
      "sealbhóirí": 7522,
      "France": 7523,
      "Service": 7524,
      "Deontais": 7525,
      "view": 7526,
      "bhuntáiste": 7527,
      "mícheart": 7528,
      "Lesbians": 7529,
      "gcuimhne": 7530,
      "imthriall": 7531,
      "97": 7532,
      "Acad": 7533,
      "GH": 7534,
      "Ge": 7535,
      "hinstitiúidí": 7536,
      "ita": 7537,
      "mam": 7538,
      "málaí": 7539,
      "meastar": 7540,
      "als": 7541,
      "set": 7542,
      "laíochta": 7543,
      "aingn": 7544,
      "coun": 7545,
      "ado": 7546,
      "ánaithe": 7547,
      "eamhan": 7548,
      "éireoidh": 7549,
      "Cogadh": 7550,
      "chleachtais": 7551,
      "enn": 7552,
      "páipéir": 7553,
      "graph": 7554,
      "iniúchóir": 7555,
      "Tráchtála": 7556,
      "comhairliúcháin": 7557,
      "Ráta": 7558,
      "Home": 7559,
      "droid": 7560,
      "dhlíthe": 7561,
      "John": 7562,
      "polaitiúla": 7563,
      "bolone": 7564,
      "faireachán": 7565,
      "SCEIDEAL": 7566,
      "Bhreithiúnais": 7567,
      "92": 7568,
      "GN": 7569,
      "May": 7570,
      "eáilte": 7571,
      "gú": 7572,
      "game": 7573,
      "onadh": 7574,
      "public": 7575,
      "cheol": 7576,
      "cheiliúradh": 7577,
      "inchurtha": 7578,
      "mhan": 7579,
      "bhéar": 7580,
      "tabhair": 7581,
      "gha": 7582,
      "leac": 7583,
      "doll": 7584,
      "bróga": 7585,
      "atur": 7586,
      "olainn": 7587,
      "próifíl": 7588,
      "chothrom": 7589,
      "enáil": 7590,
      "neoirí": 7591,
      "bua": 7592,
      "mharú": 7593,
      "Scéal": 7594,
      "Dheireadh": 7595,
      "Iompar": 7596,
      "ANKO": 7597,
      "Luim": 7598,
      "aistriúchán": 7599,
      "ballóide": 7600,
      "iniúchta": 7601,
      "ictiúr": 7602,
      "Mórdhíol": 7603,
      "1988": 7604,
      "chúraim": 7605,
      "comhairimh": 7606,
      "píosaí": 7607,
      "Patr": 7608,
      "Cáilíochta": 7609,
      "Iascaigh": 7610,
      "aiseolas": 7611,
      "Uirlis": 7612,
      "DH": 7613,
      "Dul": 7614,
      "GS": 7615,
      "Gear": 7616,
      "beacht": 7617,
      "híocaíochtaí": 7618,
      "sun": 7619,
      "bhear": 7620,
      "íosaí": 7621,
      "ghaol": 7622,
      "fhíorú": 7623,
      "bhfíric": 7624,
      "eifear": 7625,
      "ittee": 7626,
      "áireofar": 7627,
      "Comhionannais": 7628,
      "forais": 7629,
      "forlíon": 7630,
      "Eorpaí": 7631,
      "els": 7632,
      "foclóir": 7633,
      "illing": 7634,
      "bhuaigh": 7635,
      "phríobháideach": 7636,
      "Nuashon": 7637,
      "inslithe": 7638,
      "Sula": 7639,
      "Toisc": 7640,
      "spreagúil": 7641,
      "faigheann": 7642,
      "aighneachtaí": 7643,
      "filleadh": 7644,
      "dtogh": 7645,
      "igiteacha": 7646,
      "ocsaig": 7647,
      "aitéarach": 7648,
      "Atha": 7649,
      "Ceol": 7650,
      "Caiteachais": 7651,
      "Dra": 7652,
      "Fan": 7653,
      "Riail": 7654,
      "cigire": 7655,
      "eintit": 7656,
      "hachomair": 7657,
      "seamhan": 7658,
      "taibh": 7659,
      "zal": 7660,
      "Áis": 7661,
      "Árach": 7662,
      "ano": 7663,
      "thacha": 7664,
      "sci": 7665,
      "scior": 7666,
      "coinníoll": 7667,
      "aontuithe": 7668,
      "tery": 7669,
      "Ins": 7670,
      "léirítear": 7671,
      "Mhí": 7672,
      "cheannaigh": 7673,
      "Teor": 7674,
      "thorthaí": 7675,
      "ization": 7676,
      "infheistíochtaí": 7677,
      "soilse": 7678,
      "tiomána": 7679,
      "Chron": 7680,
      "chreidiúint": 7681,
      "thrádáil": 7682,
      "TSín": 7683,
      "Tairiscint": 7684,
      "tuairisceán": 7685,
      "Slándála": 7686,
      "Úsáideann": 7687,
      "Education": 7688,
      "Bel": 7689,
      "Crea": 7690,
      "Digiteach": 7691,
      "Leith": 7692,
      "Páirteanna": 7693,
      "Sibhialta": 7694,
      "diúscairt": 7695,
      "ric": 7696,
      "seasta": 7697,
      "chósta": 7698,
      "bhuir": 7699,
      "íobla": 7700,
      "ainse": 7701,
      "tral": 7702,
      "réalta": 7703,
      "luacha": 7704,
      "chomhlachtaí": 7705,
      "Bhainc": 7706,
      "onnmhairiú": 7707,
      "líonraí": 7708,
      "Cuims": 7709,
      "phointí": 7710,
      "Luan": 7711,
      "galair": 7712,
      "pleanáil": 7713,
      "phróisis": 7714,
      "Modh": 7715,
      "Taispeántas": 7716,
      "Ionstraim": 7717,
      "thionscadail": 7718,
      "teilea": 7719,
      "Add": 7720,
      "sular": 7721,
      "gcúrsaí": 7722,
      "chaipiteal": 7723,
      "Turasóireachta": 7724,
      "Human": 7725,
      "Business": 7726,
      "féideartha": 7727,
      "Ana": 7728,
      "Caighdeán": 7729,
      "FE": 7730,
      "Foireann": 7731,
      "Nios": 7732,
      "Pas": 7733,
      "Plaist": 7734,
      "Rob": 7735,
      "TL": 7736,
      "cith": 7737,
      "cóg": 7738,
      "hin": 7739,
      "ika": 7740,
      "mea": 7741,
      "síol": 7742,
      "óram": 7743,
      "ange": 7744,
      "thur": 7745,
      "onta": 7746,
      "seofar": 7747,
      "Chur": 7748,
      "Android": 7749,
      "ights": 7750,
      "tacháin": 7751,
      "eisia": 7752,
      "bhriseadh": 7753,
      "iarratasóirí": 7754,
      "crann": 7755,
      "cóireála": 7756,
      "Bunús": 7757,
      "clog": 7758,
      "Tacaíochta": 7759,
      "deonacha": 7760,
      "Committee": 7761,
      "dtabharfaidh": 7762,
      "iontaobhais": 7763,
      "sloinnte": 7764,
      "arastal": 7765,
      "bheaga": 7766,
      "úirteanna": 7767,
      "ráthaíocht": 7768,
      "fhostaí": 7769,
      "sceimhlitheoireachta": 7770,
      "dhlíthiúil": 7771,
      "Bliana": 7772,
      "Pri": 7773,
      "bpáirt": 7774,
      "hath": 7775,
      "iac": 7776,
      "pdf": 7777,
      "rig": 7778,
      "ód": 7779,
      "araí": 7780,
      "aisling": 7781,
      "nótaí": 7782,
      "shoil": 7783,
      "iall": 7784,
      "gurbh": 7785,
      "éire": 7786,
      "chomhshaol": 7787,
      "eisithe": 7788,
      "íocann": 7789,
      "dearcadh": 7790,
      "ánacha": 7791,
      "cáiliúil": 7792,
      "cáiliúla": 7793,
      "bhunscoileanna": 7794,
      "dlífear": 7795,
      "cleachtas": 7796,
      "Leabú": 7797,
      "tháirg": 7798,
      "aibí": 7799,
      "arthacht": 7800,
      "cuairteoirí": 7801,
      "suiteáil": 7802,
      "unty": 7803,
      "tarraingthe": 7804,
      "Fiontra": 7805,
      "Scríbh": 7806,
      "America": 7807,
      "dhiúltú": 7808,
      "Sprioc": 7809,
      "fhoirgneamh": 7810,
      "Chumann": 7811,
      "Foclóir": 7812,
      "Eolais": 7813,
      "ghruaig": 7814,
      "Béal": 7815,
      "Glan": 7816,
      "Ru": 7817,
      "Rómh": 7818,
      "din": 7819,
      "meach": 7820,
      "éit": 7821,
      "ainéil": 7822,
      "Chaibidil": 7823,
      "ionchúiseamh": 7824,
      "aoithe": 7825,
      "Media": 7826,
      "cup": 7827,
      "eartaithe": 7828,
      "iff": 7829,
      "Iarthar": 7830,
      "fox": 7831,
      "Fhaisnéis": 7832,
      "phríos": 7833,
      "Nádúr": 7834,
      "cheapfaidh": 7835,
      "1990": 7836,
      "fhoirceannadh": 7837,
      "árachas": 7838,
      "phleanáil": 7839,
      "bhfaigheann": 7840,
      "ject": 7841,
      "iontrála": 7842,
      "fhostú": 7843,
      "spiorad": 7844,
      "atmaisféar": 7845,
      "73": 7846,
      "KB": 7847,
      "Ra": 7848,
      "Ve": 7849,
      "gress": 7850,
      "mear": 7851,
      "meastóireacht": 7852,
      "ping": 7853,
      "vin": 7854,
      "chaith": 7855,
      "arbh": 7856,
      "seomraí": 7857,
      "bru": 7858,
      "Coda": 7859,
      "eispéir": 7860,
      "aicmí": 7861,
      "mhainne": 7862,
      "aiseanna": 7863,
      "Imeachta": 7864,
      "..../": 7865,
      "ROS": 7866,
      "League": 7867,
      "éigeantach": 7868,
      "sínithe": 7869,
      "píopa": 7870,
      "caipitiúil": 7871,
      "sláintíochta": 7872,
      "shaoránaigh": 7873,
      "tionsclaíoch": 7874,
      "Cinnt": 7875,
      "Lon": 7876,
      "Suas": 7877,
      "caint": 7878,
      "fóir": 7879,
      "hair": 7880,
      "hal": 7881,
      "hathruithe": 7882,
      "met": 7883,
      "nD": 7884,
      "nor": 7885,
      "pussy": 7886,
      "ubh": 7887,
      "dean": 7888,
      "chuairte": 7889,
      "trosc": 7890,
      "bhfuiltear": 7891,
      "eagraithe": 7892,
      "dtos": 7893,
      "eisiach": 7894,
      "bhrán": 7895,
      "andaí": 7896,
      "ceannais": 7897,
      "cruinne": 7898,
      "súile": 7899,
      "iompartha": 7900,
      "teagh": 7901,
      "díoltóir": 7902,
      "breithiúnas": 7903,
      "eacnamaíochta": 7904,
      "Polit": 7905,
      "shásamh": 7906,
      "seachtainiúil": 7907,
      "litreacha": 7908,
      "Bhuel": 7909,
      "ratch": 7910,
      "BBC": 7911,
      "Coimisinéir": 7912,
      "DS": 7913,
      "Ju": 7914,
      "Kashtanka": 7915,
      "Léar": 7916,
      "Togra": 7917,
      "bs": 7918,
      "km": 7919,
      "Éad": 7920,
      "éideanna": 7921,
      "ósadh": 7922,
      "naíocht": 7923,
      "isiú": 7924,
      "oro": 7925,
      "coibh": 7926,
      "cuardaigh": 7927,
      "1923": 7928,
      "Bhéal": 7929,
      "theorainn": 7930,
      "Chomhaontú": 7931,
      "thuaidh": 7932,
      "1994": 7933,
      "Supp": 7934,
      "Fraince": 7935,
      ".”,": 7936,
      "creidiúnaithe": 7937,
      "feabhsaithe": 7938,
      "gairid": 7939,
      "Commun": 7940,
      "táirgeachta": 7941,
      "White": 7942,
      "cadhnraí": 7943,
      "europa": 7944,
      "Limited": 7945,
      "tapúla": 7946,
      "German": 7947,
      "Pháirtí": 7948,
      "61": 7949,
      "Aeir": 7950,
      "BL": 7951,
      "Bat": 7952,
      "HR": 7953,
      "Halla": 7954,
      "Nasc": 7955,
      "Taobh": 7956,
      "VE": 7957,
      "a_": 7958,
      "lai": 7959,
      "síniú": 7960,
      "’.": 7961,
      "mhoill": 7962,
      "taos": 7963,
      "inníonn": 7964,
      "aiseach": 7965,
      "lib": 7966,
      "athnu": 7967,
      "sucking": 7968,
      "ónta": 7969,
      "ideoidh": 7970,
      "oibríocht": 7971,
      "allmhair": 7972,
      "crios": 7973,
      "áititheoir": 7974,
      "iarrtar": 7975,
      "fhorlíonadh": 7976,
      "chúig": 7977,
      "Mhór": 7978,
      "luachmhar": 7979,
      "ghníomhaire": 7980,
      "téip": 7981,
      "reachtach": 7982,
      "mhonarú": 7983,
      "Socruithe": 7984,
      "síneadh": 7985,
      "foirgníochta": 7986,
      "Íocaíocht": 7987,
      "cumann": 7988,
      "Leathar": 7989,
      "cobhsaí": 7990,
      "My": 7991,
      "Public": 7992,
      "Res": 7993,
      "Samp": 7994,
      "Uas": 7995,
      "hábhar": 7996,
      "real": 7997,
      "sráid": 7998,
      "tiocfaidh": 7999
    },
    "merges": [
      [
        "c",
        "h"
      ],
      [
        "a",
        "n"
      ],
      [
        "a",
        "i"
      ],
      [
        "a",
        "r"
      ],
      [
        "t",
        "h"
      ],
      [
        "i",
        "n"
      ],
      [
        "e",
        "a"
      ],
      [
        "n",
        "a"
      ],
      [
        "i",
        "r"
      ],
      [
        "m",
        "h"
      ],
      [
        "a",
        "g"
      ],
      [
        "i",
        "l"
      ],
      [
        "b",
        "h"
      ],
      [
        "d",
        "h"
      ],
      [
        "i",
        "s"
      ],
      [
        "t",
        "a"
      ],
      [
        "l",
        "e"
      ],
      [
        "í",
        "o"
      ],
      [
        "u",
        "s"
      ],
      [
        "a",
        "ch"
      ],
      [
        "ag",
        "us"
      ],
      [
        "o",
        "n"
      ],
      [
        "ai",
        "r"
      ],
      [
        "d",
        "e"
      ],
      [
        "t",
        "e"
      ],
      [
        "o",
        "r"
      ],
      [
        "s",
        "c"
      ],
      [
        "a",
        "l"
      ],
      [
        "i",
        "th"
      ],
      [
        "g",
        "h"
      ],
      [
        "i",
        "d"
      ],
      [
        "ea",
        "ch"
      ],
      [
        "s",
        "e"
      ],
      [
        "i",
        "ú"
      ],
      [
        "r",
        "a"
      ],
      [
        "l",
        "a"
      ],
      [
        "ai",
        "n"
      ],
      [
        "c",
        "o"
      ],
      [
        "á",
        "il"
      ],
      [
        "ch",
        "u"
      ],
      [
        "ai",
        "th"
      ],
      [
        "e",
        "an"
      ],
      [
        "in",
        "n"
      ],
      [
        "a",
        "s"
      ],
      [
        "o",
        "i"
      ],
      [
        "á",
        "in"
      ],
      [
        "a",
        "d"
      ],
      [
        "t",
        "á"
      ],
      [
        "t",
        "ú"
      ],
      [
        "se",
        "o"
      ],
      [
        "ai",
        "s"
      ],
      [
        "l",
        "ea"
      ],
      [
        "s",
        "a"
      ],
      [
        "g",
        "o"
      ],
      [
        "f",
        "h"
      ],
      [
        "e",
        "ar"
      ],
      [
        "n",
        "ó"
      ],
      [
        "ío",
        "ch"
      ],
      [
        "u",
        "il"
      ],
      [
        "t",
        "r"
      ],
      [
        "bh",
        "f"
      ],
      [
        "d",
        "o"
      ],
      [
        "á",
        "n"
      ],
      [
        "e",
        "i"
      ],
      [
        "an",
        "na"
      ],
      [
        "C",
        "h"
      ],
      [
        "b",
        "r"
      ],
      [
        "ith",
        "e"
      ],
      [
        "ai",
        "gh"
      ],
      [
        "i",
        "m"
      ],
      [
        "u",
        "r"
      ],
      [
        "th",
        "a"
      ],
      [
        "i",
        "o"
      ],
      [
        "l",
        "á"
      ],
      [
        "e",
        "t"
      ],
      [
        "s",
        "h"
      ],
      [
        "in",
        "e"
      ],
      [
        "é",
        "an"
      ],
      [
        "i",
        "t"
      ],
      [
        "ai",
        "dh"
      ],
      [
        "w",
        "e"
      ],
      [
        "o",
        "mh"
      ],
      [
        "o",
        "ir"
      ],
      [
        "bhf",
        "uil"
      ],
      [
        "an",
        "n"
      ],
      [
        "le",
        "is"
      ],
      [
        "ta",
        "s"
      ],
      [
        "i",
        "on"
      ],
      [
        "s",
        "in"
      ],
      [
        "u",
        "ir"
      ],
      [
        "a",
        "mh"
      ],
      [
        "A",
        "n"
      ],
      [
        "f",
        "é"
      ],
      [
        "a",
        "o"
      ],
      [
        "ei",
        "dh"
      ],
      [
        "u",
        "n"
      ],
      [
        "i",
        "al"
      ],
      [
        "ío",
        "n"
      ],
      [
        "aith",
        "e"
      ],
      [
        "we",
        "et"
      ],
      [
        "chu",
        "n"
      ],
      [
        "ó",
        "ir"
      ],
      [
        "na",
        "ch"
      ],
      [
        "r",
        "e"
      ],
      [
        "i",
        "c"
      ],
      [
        "g",
        "c"
      ],
      [
        "ean",
        "n"
      ],
      [
        "ai",
        "l"
      ],
      [
        "í",
        "n"
      ],
      [
        "ea",
        "l"
      ],
      [
        "a",
        "m"
      ],
      [
        "i",
        "mh"
      ],
      [
        "a",
        "on"
      ],
      [
        "r",
        "o"
      ],
      [
        "ea",
        "g"
      ],
      [
        "2",
        "0"
      ],
      [
        "e",
        "il"
      ],
      [
        "i",
        "g"
      ],
      [
        "r",
        "é"
      ],
      [
        "co",
        "mh"
      ],
      [
        "e",
        "ith"
      ],
      [
        "a",
        "dh"
      ],
      [
        "id",
        "ir"
      ],
      [
        "m",
        "ar"
      ],
      [
        "á",
        "ir"
      ],
      [
        "s",
        "t"
      ],
      [
        "is",
        "t"
      ],
      [
        "n",
        "ú"
      ],
      [
        "each",
        "t"
      ],
      [
        "lea",
        "t"
      ],
      [
        "l",
        "ach"
      ],
      [
        "ea",
        "mh"
      ],
      [
        "é",
        "ad"
      ],
      [
        "d",
        "u"
      ],
      [
        "á",
        "s"
      ],
      [
        "s",
        "é"
      ],
      [
        "íoch",
        "ta"
      ],
      [
        "g",
        "ur"
      ],
      [
        "ai",
        "m"
      ],
      [
        "T",
        "weet"
      ],
      [
        "l",
        "u"
      ],
      [
        "e",
        "o"
      ],
      [
        "ea",
        "th"
      ],
      [
        "ío",
        "mh"
      ],
      [
        "u",
        "air"
      ],
      [
        "f",
        "a"
      ],
      [
        "n",
        "á"
      ],
      [
        "each",
        "ta"
      ],
      [
        "r",
        "u"
      ],
      [
        "l",
        "i"
      ],
      [
        "c",
        "inn"
      ],
      [
        "ea",
        "dh"
      ],
      [
        "p",
        "e"
      ],
      [
        "air",
        "t"
      ],
      [
        "le",
        "an"
      ],
      [
        "p",
        "h"
      ],
      [
        "de",
        "n"
      ],
      [
        "a",
        "tá"
      ],
      [
        "g",
        "e"
      ],
      [
        "ío",
        "s"
      ],
      [
        "eath",
        "nú"
      ],
      [
        "ea",
        "s"
      ],
      [
        "co",
        "sc"
      ],
      [
        "íon",
        "n"
      ],
      [
        "i",
        "ar"
      ],
      [
        "r",
        "á"
      ],
      [
        "ai",
        "d"
      ],
      [
        "M",
        "e"
      ],
      [
        "ó",
        "i"
      ],
      [
        "t",
        "ar"
      ],
      [
        "Tweet",
        "anna"
      ],
      [
        "I",
        "s"
      ],
      [
        "is",
        "c"
      ],
      [
        "r",
        "ú"
      ],
      [
        "ag",
        "h"
      ],
      [
        "c",
        "u"
      ],
      [
        "te",
        "ar"
      ],
      [
        "m",
        "b"
      ],
      [
        "a",
        "th"
      ],
      [
        "dh",
        "éan"
      ],
      [
        "íoch",
        "t"
      ],
      [
        "a",
        "t"
      ],
      [
        "T",
        "á"
      ],
      [
        "s",
        "á"
      ],
      [
        "o",
        "l"
      ],
      [
        "ó",
        "r"
      ],
      [
        "mh",
        "aith"
      ],
      [
        "fé",
        "idir"
      ],
      [
        "ch",
        "t"
      ],
      [
        "o",
        "s"
      ],
      [
        "fa",
        "oi"
      ],
      [
        "cinn",
        "te"
      ],
      [
        "m",
        "e"
      ],
      [
        "br",
        "eathnú"
      ],
      [
        "é",
        "ir"
      ],
      [
        "Ch",
        "uir"
      ],
      [
        "ea",
        "d"
      ],
      [
        "d",
        "á"
      ],
      [
        "a",
        "í"
      ],
      [
        "Me",
        "áin"
      ],
      [
        "20",
        "1"
      ],
      [
        "ra",
        "í"
      ],
      [
        "io",
        "m"
      ],
      [
        "iú",
        "n"
      ],
      [
        "chu",
        "r"
      ],
      [
        "in",
        "a"
      ],
      [
        "o",
        "il"
      ],
      [
        "s",
        "u"
      ],
      [
        "e",
        "r"
      ],
      [
        "ch",
        "omh"
      ],
      [
        "eil",
        "e"
      ],
      [
        "i",
        "ad"
      ],
      [
        "ai",
        "sc"
      ],
      [
        "bh",
        "í"
      ],
      [
        "f",
        "ar"
      ],
      [
        "i",
        "gh"
      ],
      [
        "dhéan",
        "amh"
      ],
      [
        "o",
        "c"
      ],
      [
        "lea",
        "dh"
      ],
      [
        "tr",
        "í"
      ],
      [
        "in",
        "t"
      ],
      [
        "a",
        "c"
      ],
      [
        "or",
        "n"
      ],
      [
        "f",
        "ear"
      ],
      [
        "al",
        "t"
      ],
      [
        "é",
        "is"
      ],
      [
        "s",
        "an"
      ],
      [
        "bh",
        "eith"
      ],
      [
        "d",
        "ú"
      ],
      [
        "n",
        "ithe"
      ],
      [
        "p",
        "r"
      ],
      [
        "á",
        "l"
      ],
      [
        "ó",
        "n"
      ],
      [
        "bh",
        "ain"
      ],
      [
        "ch",
        "o"
      ],
      [
        "f",
        "r"
      ],
      [
        "n",
        "d"
      ],
      [
        "uil",
        "leadh"
      ],
      [
        "ain",
        "n"
      ],
      [
        "is",
        "te"
      ],
      [
        "ú",
        "sá"
      ],
      [
        "ach",
        "t"
      ],
      [
        "d",
        "t"
      ],
      [
        "de",
        "imh"
      ],
      [
        "ear",
        "t"
      ],
      [
        "d",
        "on"
      ],
      [
        "é",
        "ar"
      ],
      [
        "un",
        "tas"
      ],
      [
        "g",
        "ach"
      ],
      [
        "C",
        "o"
      ],
      [
        "agh",
        "aidh"
      ],
      [
        "m",
        "aid"
      ],
      [
        ".",
        "."
      ],
      [
        "n",
        "iú"
      ],
      [
        "f",
        "aidh"
      ],
      [
        "ú",
        "na"
      ],
      [
        "du",
        "ine"
      ],
      [
        "A",
        "r"
      ],
      [
        "sa",
        "or"
      ],
      [
        "l",
        "í"
      ],
      [
        "í",
        "r"
      ],
      [
        "ta",
        "í"
      ],
      [
        "ean",
        "na"
      ],
      [
        "T",
        "uilleadh"
      ],
      [
        "1",
        "9"
      ],
      [
        "c",
        "e"
      ],
      [
        "ra",
        "tas"
      ],
      [
        "c",
        "a"
      ],
      [
        "A",
        "ir"
      ],
      [
        "á",
        "r"
      ],
      [
        "o",
        "b"
      ],
      [
        "maid",
        "ir"
      ],
      [
        "i",
        "an"
      ],
      [
        "bh",
        "airt"
      ],
      [
        "C",
        "omh"
      ],
      [
        "na",
        "sc"
      ],
      [
        "deimh",
        "nithe"
      ],
      [
        "N",
        "í"
      ],
      [
        "C",
        "untas"
      ],
      [
        "s",
        "ú"
      ],
      [
        "eidh",
        "m"
      ],
      [
        "óir",
        "í"
      ],
      [
        "lá",
        "th"
      ],
      [
        "ao",
        "in"
      ],
      [
        "or",
        "p"
      ],
      [
        "aisc",
        "e"
      ],
      [
        "t",
        "ais"
      ],
      [
        "p",
        "orn"
      ],
      [
        "bh",
        "ar"
      ],
      [
        "G",
        "a"
      ],
      [
        "i",
        "ch"
      ],
      [
        "ch",
        "l"
      ],
      [
        "f",
        "u"
      ],
      [
        "n",
        "íos"
      ],
      [
        "u",
        "m"
      ],
      [
        "ch",
        "ean"
      ],
      [
        "úsá",
        "id"
      ],
      [
        "n",
        "u"
      ],
      [
        "iú",
        "il"
      ],
      [
        "ó",
        "g"
      ],
      [
        "is",
        "iún"
      ],
      [
        "n",
        "í"
      ],
      [
        "ao",
        "ine"
      ],
      [
        "ói",
        "pe"
      ],
      [
        "ach",
        "a"
      ],
      [
        "ín",
        "e"
      ],
      [
        "e",
        "ir"
      ],
      [
        "óipe",
        "áil"
      ],
      [
        "aigh",
        "de"
      ],
      [
        "s",
        "o"
      ],
      [
        "in",
        "g"
      ],
      [
        "eil",
        "ge"
      ],
      [
        "é",
        "il"
      ],
      [
        "é",
        "id"
      ],
      [
        "l",
        "án"
      ],
      [
        "g",
        "n"
      ],
      [
        "lach",
        "a"
      ],
      [
        "ré",
        "ir"
      ],
      [
        "C",
        "óipeáil"
      ],
      [
        "chu",
        "id"
      ],
      [
        "i",
        "dh"
      ],
      [
        "d",
        "ar"
      ],
      [
        "ta",
        "ch"
      ],
      [
        "ch",
        "ial"
      ],
      [
        "t",
        "weet"
      ],
      [
        "m",
        "ó"
      ],
      [
        "d",
        "éan"
      ],
      [
        "A",
        "g"
      ],
      [
        "0",
        "0"
      ],
      [
        "B",
        "h"
      ],
      [
        "í",
        "se"
      ],
      [
        "f",
        "or"
      ],
      [
        "i",
        "de"
      ],
      [
        "eag",
        "ra"
      ],
      [
        "f",
        "áil"
      ],
      [
        "s",
        "í"
      ],
      [
        "ain",
        "t"
      ],
      [
        "E",
        "orp"
      ],
      [
        "m",
        "aith"
      ],
      [
        "T",
        "h"
      ],
      [
        "le",
        "na"
      ],
      [
        "oi",
        "br"
      ],
      [
        "eith",
        "eamh"
      ],
      [
        "A",
        "cht"
      ],
      [
        "e",
        "n"
      ],
      [
        "g",
        "an"
      ],
      [
        "ar",
        "d"
      ],
      [
        "r",
        "ai"
      ],
      [
        "oi",
        "g"
      ],
      [
        "Ga",
        "eilge"
      ],
      [
        "i",
        "f"
      ],
      [
        "h",
        "aghaidh"
      ],
      [
        "lu",
        "ich"
      ],
      [
        "u",
        "g"
      ],
      [
        "A",
        "on"
      ],
      [
        "each",
        "a"
      ],
      [
        "áir",
        "t"
      ],
      [
        "al",
        "l"
      ],
      [
        "e",
        "is"
      ],
      [
        "ra",
        "s"
      ],
      [
        "te",
        "r"
      ],
      [
        "inn",
        "e"
      ],
      [
        "bh",
        "r"
      ],
      [
        "chl",
        "oig"
      ],
      [
        "air",
        "le"
      ],
      [
        "i",
        "a"
      ],
      [
        "la",
        "s"
      ],
      [
        "l",
        "o"
      ],
      [
        "m",
        "a"
      ],
      [
        "lean",
        "úna"
      ],
      [
        "sh",
        "in"
      ],
      [
        "l",
        "íne"
      ],
      [
        "th",
        "ar"
      ],
      [
        "lá",
        "r"
      ],
      [
        "s",
        "on"
      ],
      [
        "fh",
        "r"
      ],
      [
        "É",
        "ir"
      ],
      [
        "á",
        "la"
      ],
      [
        "r",
        "ial"
      ],
      [
        "s",
        "ain"
      ],
      [
        "e",
        "s"
      ],
      [
        "le",
        "ith"
      ],
      [
        "iar",
        "ratas"
      ],
      [
        "c",
        "r"
      ],
      [
        "amh",
        "áin"
      ],
      [
        "e",
        "l"
      ],
      [
        "m",
        "ór"
      ],
      [
        "ine",
        "ál"
      ],
      [
        "an",
        "d"
      ],
      [
        "oir",
        "í"
      ],
      [
        "l",
        "é"
      ],
      [
        "th",
        "e"
      ],
      [
        "c",
        "ú"
      ],
      [
        "la",
        "c"
      ],
      [
        "nu",
        "a"
      ],
      [
        "D",
        "í"
      ],
      [
        "ó",
        "is"
      ],
      [
        "a",
        "bh"
      ],
      [
        "C",
        "uir"
      ],
      [
        "t",
        "o"
      ],
      [
        "u",
        "id"
      ],
      [
        "bh",
        "eidh"
      ],
      [
        "l",
        "ú"
      ],
      [
        "é",
        "al"
      ],
      [
        "am",
        "ach"
      ],
      [
        "ar",
        "tha"
      ],
      [
        "m",
        "o"
      ],
      [
        "é",
        "ag"
      ],
      [
        "li",
        "an"
      ],
      [
        "s",
        "iad"
      ],
      [
        "íochta",
        "í"
      ],
      [
        "é",
        "im"
      ],
      [
        "oi",
        "m"
      ],
      [
        "g",
        "ead"
      ],
      [
        "R",
        "o"
      ],
      [
        "l",
        "aigh"
      ],
      [
        "ai",
        "t"
      ],
      [
        "P",
        "h"
      ],
      [
        "aighde",
        "án"
      ],
      [
        "tha",
        "bhairt"
      ],
      [
        "á",
        "it"
      ],
      [
        "t",
        "u"
      ],
      [
        "t",
        "s"
      ],
      [
        "aim",
        "niú"
      ],
      [
        "I",
        "ar"
      ],
      [
        "t",
        "ion"
      ],
      [
        "s",
        "p"
      ],
      [
        "fé",
        "in"
      ],
      [
        "í",
        "tear"
      ],
      [
        "ea",
        "bh"
      ],
      [
        "f",
        "íse"
      ],
      [
        "i",
        "b"
      ],
      [
        "l",
        "aim"
      ],
      [
        "cho",
        "isc"
      ],
      [
        "or",
        "d"
      ],
      [
        "is",
        "in"
      ],
      [
        "é",
        "ach"
      ],
      [
        "m",
        "p"
      ],
      [
        "ru",
        "d"
      ],
      [
        "f",
        "idh"
      ],
      [
        "io",
        "s"
      ],
      [
        "a",
        "sc"
      ],
      [
        "Dí",
        "choisc"
      ],
      [
        "rai",
        "bh"
      ],
      [
        "oi",
        "mh"
      ],
      [
        "ío",
        "c"
      ],
      [
        "f",
        "oc"
      ],
      [
        "ú",
        "il"
      ],
      [
        "isiún",
        "ta"
      ],
      [
        "se",
        "ir"
      ],
      [
        "I",
        "n"
      ],
      [
        "ín",
        "iú"
      ],
      [
        "f",
        "o"
      ],
      [
        "s",
        "tá"
      ],
      [
        "r",
        "i"
      ],
      [
        "f",
        "aoin"
      ],
      [
        "ío",
        "l"
      ],
      [
        "on",
        "n"
      ],
      [
        "g",
        "á"
      ],
      [
        "io",
        "na"
      ],
      [
        "fh",
        "áil"
      ],
      [
        "chean",
        "nach"
      ],
      [
        "c",
        "ineál"
      ],
      [
        "lea",
        "th"
      ],
      [
        "F",
        "éach"
      ],
      [
        "seir",
        "bhí"
      ],
      [
        "g",
        "comh"
      ],
      [
        "gc",
        "ás"
      ],
      [
        "sc",
        "oil"
      ],
      [
        "ú",
        "n"
      ],
      [
        "g",
        "a"
      ],
      [
        "d",
        "áil"
      ],
      [
        "ist",
        "each"
      ],
      [
        "i",
        "te"
      ],
      [
        "m",
        "á"
      ],
      [
        "t",
        "eag"
      ],
      [
        "l",
        "ais"
      ],
      [
        "sc",
        "r"
      ],
      [
        "p",
        "a"
      ],
      [
        "ú",
        "dar"
      ],
      [
        "n",
        "eamh"
      ],
      [
        "ir",
        "t"
      ],
      [
        "b",
        "un"
      ],
      [
        "ré",
        "as"
      ],
      [
        "d",
        "aoine"
      ],
      [
        "ain",
        "m"
      ],
      [
        "l",
        "éir"
      ],
      [
        "o",
        "bh"
      ],
      [
        "ch",
        "áin"
      ],
      [
        "de",
        "ar"
      ],
      [
        "inn",
        "t"
      ],
      [
        "li",
        "ain"
      ],
      [
        "fear",
        "r"
      ],
      [
        "o",
        "is"
      ],
      [
        "n",
        "e"
      ],
      [
        "1",
        "0"
      ],
      [
        "G",
        "h"
      ],
      [
        "c",
        "luich"
      ],
      [
        "tr",
        "á"
      ],
      [
        "b",
        "eidh"
      ],
      [
        "ai",
        "le"
      ],
      [
        "ro",
        "gh"
      ],
      [
        "iom",
        "lán"
      ],
      [
        "M",
        "ar"
      ],
      [
        "iar",
        "r"
      ],
      [
        "ail",
        "l"
      ],
      [
        "íon",
        "na"
      ],
      [
        "foc",
        "al"
      ],
      [
        "Air",
        "e"
      ],
      [
        "a",
        "cu"
      ],
      [
        "c",
        "eann"
      ],
      [
        "n",
        "o"
      ],
      [
        "fh",
        "or"
      ],
      [
        "ío",
        "dh"
      ],
      [
        "l",
        "ó"
      ],
      [
        "su",
        "íomh"
      ],
      [
        "mh",
        "íniú"
      ],
      [
        "i",
        "bh"
      ],
      [
        "g",
        "C"
      ],
      [
        "air",
        "gead"
      ],
      [
        "eachta",
        "í"
      ],
      [
        "tr",
        "é"
      ],
      [
        "eal",
        "l"
      ],
      [
        "c",
        "ru"
      ],
      [
        "R",
        "ial"
      ],
      [
        "tá",
        "ir"
      ],
      [
        "H",
        "D"
      ],
      [
        "n",
        "Gaeilge"
      ],
      [
        "eal",
        "aigh"
      ],
      [
        "ch",
        "ú"
      ],
      [
        "fr",
        "eagra"
      ],
      [
        "20",
        "0"
      ],
      [
        "r",
        "oimh"
      ],
      [
        "D",
        "éan"
      ],
      [
        "Ch",
        "omh"
      ],
      [
        "éil",
        "e"
      ],
      [
        "o",
        "th"
      ],
      [
        "in",
        "te"
      ],
      [
        "eo",
        "la"
      ],
      [
        "l",
        "áin"
      ],
      [
        "s",
        "iú"
      ],
      [
        "M",
        "h"
      ],
      [
        "ea",
        "p"
      ],
      [
        "mb",
        "eidh"
      ],
      [
        "á",
        "nach"
      ],
      [
        "C",
        "ealaigh"
      ],
      [
        "b",
        "o"
      ],
      [
        "ial",
        "ta"
      ],
      [
        "i",
        "p"
      ],
      [
        "l",
        "inn"
      ],
      [
        "fhr",
        "ith"
      ],
      [
        "chu",
        "ig"
      ],
      [
        "u",
        "l"
      ],
      [
        "id",
        "each"
      ],
      [
        "gn",
        "íomh"
      ],
      [
        "r",
        "íomh"
      ],
      [
        "S",
        "h"
      ],
      [
        "áir",
        "ithe"
      ],
      [
        "fé",
        "ach"
      ],
      [
        "í",
        "s"
      ],
      [
        "f",
        "re"
      ],
      [
        "sain",
        "mhíniú"
      ],
      [
        "e",
        "ist"
      ],
      [
        "ío",
        "r"
      ],
      [
        "br",
        "íonna"
      ],
      [
        "iú",
        "la"
      ],
      [
        "n",
        "g"
      ],
      [
        "fu",
        "aimniú"
      ],
      [
        "lach",
        "t"
      ],
      [
        "th",
        "u"
      ],
      [
        "chial",
        "laigh"
      ],
      [
        "c",
        "ur"
      ],
      [
        "f",
        "ig"
      ],
      [
        "comh",
        "chiallaigh"
      ],
      [
        "chial",
        "lach"
      ],
      [
        "fhrith",
        "chiallach"
      ],
      [
        "ra",
        "dh"
      ],
      [
        "n",
        "éis"
      ],
      [
        "fh",
        "o"
      ],
      [
        "á",
        "bhar"
      ],
      [
        "b",
        "a"
      ],
      [
        "..",
        "."
      ],
      [
        "o",
        "láth"
      ],
      [
        ")",
        ","
      ],
      [
        "r",
        "aithe"
      ],
      [
        "Éir",
        "eann"
      ],
      [
        "s",
        "tr"
      ],
      [
        "il",
        "l"
      ],
      [
        "air",
        "e"
      ],
      [
        "ar",
        "laim"
      ],
      [
        "an",
        "seo"
      ],
      [
        "fre",
        "isin"
      ],
      [
        "m",
        "éid"
      ],
      [
        "imh",
        "se"
      ],
      [
        "ao",
        "is"
      ],
      [
        "ío",
        "bh"
      ],
      [
        "ch",
        "a"
      ],
      [
        "ais",
        "néis"
      ],
      [
        "oi",
        "fig"
      ],
      [
        "1",
        "2"
      ],
      [
        "cu",
        "id"
      ],
      [
        "th",
        "ú"
      ],
      [
        "te",
        "an"
      ],
      [
        "du",
        "l"
      ],
      [
        "á",
        "lacha"
      ],
      [
        "s",
        "na"
      ],
      [
        "f",
        "adh"
      ],
      [
        "b",
        "airt"
      ],
      [
        "l",
        "íon"
      ],
      [
        "c",
        "eal"
      ],
      [
        "co",
        "m"
      ],
      [
        "ol",
        "l"
      ],
      [
        "dt",
        "í"
      ],
      [
        "an",
        "ois"
      ],
      [
        "ta",
        "bhairt"
      ],
      [
        "1",
        "8"
      ],
      [
        "ch",
        "éad"
      ],
      [
        "á",
        "is"
      ],
      [
        "éag",
        "sú"
      ],
      [
        "t",
        "eacht"
      ],
      [
        "am",
        "p"
      ],
      [
        "ás",
        "ta"
      ],
      [
        "du",
        "it"
      ],
      [
        "lean",
        "as"
      ],
      [
        "S",
        "a"
      ],
      [
        "c",
        "ó"
      ],
      [
        "ai",
        "c"
      ],
      [
        "c",
        "eart"
      ],
      [
        "r",
        "ea"
      ],
      [
        "oi",
        "b"
      ],
      [
        "lá",
        "ith"
      ],
      [
        "réas",
        "áin"
      ],
      [
        "ph",
        "áirt"
      ],
      [
        "c",
        "é"
      ],
      [
        "oir",
        "m"
      ],
      [
        "ic",
        "e"
      ],
      [
        "f",
        "eitheamh"
      ],
      [
        "Iar",
        "ratas"
      ],
      [
        "na",
        "dh"
      ],
      [
        "r",
        "ó"
      ],
      [
        "la",
        "íonn"
      ],
      [
        "isc",
        "e"
      ],
      [
        "lian",
        "a"
      ],
      [
        "g",
        "í"
      ],
      [
        "na",
        "í"
      ],
      [
        "n",
        "íomh"
      ],
      [
        "Comh",
        "airle"
      ],
      [
        "an",
        "ach"
      ],
      [
        "g",
        "co"
      ],
      [
        "ó",
        "s"
      ],
      [
        "L",
        "ean"
      ],
      [
        "s",
        "each"
      ],
      [
        "1",
        "5"
      ],
      [
        "b",
        "u"
      ],
      [
        "uair",
        "e"
      ],
      [
        "p",
        "o"
      ],
      [
        "sa",
        "í"
      ],
      [
        "F",
        "eitheamh"
      ],
      [
        "ch",
        "ar"
      ],
      [
        "L",
        "e"
      ],
      [
        "c",
        "uir"
      ],
      [
        "son",
        "raí"
      ],
      [
        "f",
        "eidhm"
      ],
      [
        "bhr",
        "eathnú"
      ],
      [
        "é",
        "if"
      ],
      [
        "bhain",
        "eann"
      ],
      [
        "mh",
        "ar"
      ],
      [
        "c",
        "áil"
      ],
      [
        "bhain",
        "t"
      ],
      [
        "chu",
        "ir"
      ],
      [
        "r",
        "ach"
      ],
      [
        "ro",
        "innt"
      ],
      [
        "na",
        "s"
      ],
      [
        "á",
        "bh"
      ],
      [
        "fh",
        "éad"
      ],
      [
        "ta",
        "obh"
      ],
      [
        "n",
        "uair"
      ],
      [
        "ob",
        "air"
      ],
      [
        "bhain",
        "fear"
      ],
      [
        "ná",
        "isiúnta"
      ],
      [
        "bh",
        "un"
      ],
      [
        "ai",
        "ge"
      ],
      [
        "m",
        "B"
      ],
      [
        "A",
        "E"
      ],
      [
        "ta",
        "l"
      ],
      [
        "ro",
        "m"
      ],
      [
        "nd",
        "éan"
      ],
      [
        "t",
        "or"
[...]
