<unk>	0
<s>	0
</s>	0
▁a	-0
ch	-1
ea	-2
ai	-3
th	-4
in	-5
na	-6
▁d	-7
▁s	-8
ir	-9
▁l	-10
mh	-11
ta	-12
▁an	-13
is	-14
il	-15
▁c	-16
bh	-17
▁f	-18
▁g	-19
▁ag	-20
▁t	-21
▁ar	-22
dh	-23
ar	-24
▁ch	-25
ío	-26
us	-27
▁C	-28
▁agus	-29
▁m	-30
▁n	-31
▁le	-32
▁na	-33
▁i	-34
la	-35
ra	-36
on	-37
▁bh	-38
éa	-39
eo	-40
air	-41
▁A	-42
id	-43
ith	-44
▁T	-45
each	-46
▁b	-47
gh	-48
or	-49
iú	-50
ean	-51
an	-52
eá	-53
▁r	-54
ain	-55
▁de	-56
ear	-57
al	-58
te	-59
ach	-60
inn	-61
aith	-62
▁chu	-63
sc	-64
oi	-65
omh	-66
▁S	-67
▁M	-68
▁p	-69
áil	-70
▁in	-71
▁(	-72
▁go	-73
ais	-74
▁@	-75
íoch	-76
▁seo	-77
uil	-78
▁I	-79
▁bhf	-80
▁h	-81
▁B	-82
ei	-83
▁D	-84
▁F	-85
tha	-86
▁do	-87
▁tú	-88
▁lea	-89
▁nó	-90
rea	-91
▁dh	-92
aigh	-93
ur	-94
▁Ch	-95
it	-96
▁mh	-97
▁gc	-98
ithe	-99
tá	-100
ee	-101
▁ó	-102
▁fh	-103
▁2	-104
▁is	-105
▁1	-106
▁sa	-107
▁é	-108
as	-109
▁co	-110
aidh	-111
lá	-112
▁bhfuil	-113
tas	-114
nn	-115
▁leis	-116
▁L	-117
▁th	-118
eadh	-119
uir	-120
om	-121
wee	-122
im	-123
lach	-124
ad	-125
ail	-126
eidh	-127
un	-128
ao	-129
▁An	-130
eann	-131
os	-132
óir	-133
▁chun	-134
nna	-135
▁G	-136
▁N	-137
▁sin	-138
áin	-139
▁P	-140
▁sh	-141
▁u	-142
ic	-143
ine	-144
aithe	-145
ig	-146
áir	-147
eith	-148
isc	-149
ín	-150
nach	-151
éid	-152
▁R	-153
eil	-154
▁tr	-155
imh	-156
er	-157
éad	-158
eal	-159
eacht	-160
ás	-161
ial	-162
nú	-163
ist	-164
ion	-165
éir	-166
ia	-167
eáin	-168
▁leat	-169
áid	-170
▁sc	-171
▁á	-172
íochta	-173
le	-174
eamh	-175
re	-176
eachta	-177
airt	-178
eas	-179
ís	-180
▁gur	-181
▁sé	-182
▁Twee	-183
▁E	-184
íomh	-185
▁ta	-186
adh	-187
▁mar	-188
▁20	-189
aim	-190
íos	-191
▁cinn	-192
▁du	-193
▁comh	-194
án	-195
tanna	-196
reath	-197
▁atá	-198
aid	-199
reathnú	-200
▁cosc	-201
íonn	-202
eán	-203
éana	-204
▁den	-205
cht	-206
rú	-207
ol	-208
▁aon	-209
▁Tweetanna	-210
▁gh	-211
ói	-212
▁Is	-213
íocht	-214
aoi	-215
eáil	-216
▁-	-217
eoir	-218
gra	-219
aí	-220
éidir	-221
eanna	-222
tear	-223
oir	-224
ge	-225
ús	-226
▁Tá	-227
ór	-228
▁féidir	-229
oc	-230
▁mb	-231
fh	-232
▁mhaith	-233
eir	-234
éan	-235
▁faoi	-236
ru	-237
▁cinnte	-238
▁tá	-239
▁breathnú	-240
▁Chuir	-241
ead	-242
▁Meáin	-243
oil	-244
ona	-245
int	-246
éanamh	-247
arra	-248
▁O	-249
▁lá	-250
iún	-251
igh	-252
at	-253
eile	-254
lu	-255
am	-256
eag	-257
▁eile	-258
▁201	-259
tar	-260
▁cu	-261
leadh	-262
▁dhéanamh	-263
uair	-264
orn	-265
▁chomh	-266
raí	-267
en	-268
aint	-269
far	-270
isce	-271
▁chur	-272
eart	-273
lt	-274
oinn	-275
▁trí	-276
▁bheith	-277
ian	-278
▁ina	-279
eidhm	-280
▁dt	-281
▁as	-282
uilleadh	-283
ainn	-284
ann	-285
imhn	-286
úsáid	-287
▁ná	-288
▁su	-289
oib	-290
▁dá	-291
untas	-292
ua	-293
▁ph	-294
ír	-295
ob	-296
úna	-297
..	-298
éar	-299
faidh	-300
aidir	-301
▁don	-302
▁nd	-303
▁deimhn	-304
es	-305
agh	-306
▁saor	-307
▁duine	-308
idh	-309
▁am	-310
úil	-311
lí	-312
rá	-313
anna	-314
lacha	-315
▁lean	-316
taí	-317
aoin	-318
▁Tuilleadh	-319
▁H	-320
arratas	-321
óip	-322
orp	-323
▁air	-324
iúil	-325
▁maidir	-326
óirí	-327
bhairt	-328
éach	-329
▁deimhnithe	-330
ac	-331
▁amh	-332
éas	-333
▁nasc	-334
ing	-335
▁Ní	-336
ích	-337
▁Ar	-338
ich	-339
▁ach	-340
ord	-341
if	-342
ogh	-343
▁níos	-344
▁porn	-345
▁tha	-346
tr	-347
niú	-348
tais	-349
se	-350
isiún	-351
▁úsáid	-352
▁gach	-353
00	-354
▁aisce	-355
li	-356
aighd	-357
▁gn	-358
abh	-359
aoine	-360
ois	-361
óipeáil	-362
▁3	-363
▁19	-364
▁fu	-365
ála	-366
oisc	-367
aeil	-368
ras	-369
▁ón	-370
Cuntas	-371
aeilge	-372
olá	-373
weet	-374
▁chl	-375
▁Cóipeáil	-376
▁san	-377
teach	-378
▁br	-379
tach	-380
▁nach	-381
íne	-382
éim	-383
nas	-384
ro	-385
▁Ag	-386
eis	-387
reagra	-388
▁fáil	-389
rach	-390
eirbh	-391
▁mó	-392
▁bhain	-393
oig	-394
chial	-395
▁chuid	-396
ath	-397
irt	-398
eitheamh	-399
íoc	-400
el	-401
▁Bh	-402
ph	-403
▁st	-404
▁si	-405
omhair	-406
▁ní	-407
aon	-408
bhar	-409
▁maith	-410
ib	-411
▁iom	-412
arr	-413
eirbhís	-414
oim	-415
éil	-416
aghaidh	-417
ug	-418
las	-419
▁sp	-420
▁haghaidh	-421
▁ann	-422
ire	-423
▁lena	-424
luich	-425
dir	-426
ineá	-427
ter	-428
eic	-429
aíochta	-430
▁gC	-431
▁U	-432
nd	-433
▁fé	-434
▁chloig	-435
▁Th	-436
earr	-437
ná	-438
oláth	-439
eist	-440
▁iad	-441
ud	-442
▁leanúna	-443
uid	-444
éis	-445
▁réir	-446
▁shin	-447
eacha	-448
ítear	-449
▁ion	-450
reis	-451
all	-452
áirt	-453
ún	-454
oth	-455
▁for	-456
eang	-457
dar	-458
▁uair	-459
óis	-460
iom	-461
▁Aon	-462
▁tweet	-463
sú	-464
radh	-465
lac	-466
eoirí	-467
ineál	-468
úr	-469
sa	-470
▁im	-471
▁leith	-472
▁alt	-473
▁o	-474
eannach	-475
éag	-476
acht	-477
▁amháin	-478
aibh	-479
▁nua	-480
ma	-481
fear	-482
Éir	-483
▁bheidh	-484
▁idir	-485
▁sain	-486
▁Cuir	-487
omhairle	-488
íon	-489
ios	-490
éal	-491
lár	-492
▁ac	-493
▁amach	-494
io	-495
▁mór	-496
▁lu	-497
oibr	-498
lán	-499
▁siad	-500
gead	-501
▁um	-502
▁–	-503
óg	-504
laigh	-505
▁faoin	-506
▁thabhairt	-507
▁“	-508
et	-509
aighdeán	-510
▁gan	-511
▁líne	-512
alt	-513
ara	-514
aimniú	-515
▁pr	-516
▁fís	-517
▁ath	-518
iste	-519
▁áit	-520
▁tar	-521
▁féin	-522
▁nG	-523
um	-524
ige	-525
▁déan	-526
▁Ph	-527
oimh	-528
laim	-529
▁Sc	-530
the	-531
lia	-532
▁Comh	-533
▁son	-534
▁freagra	-535
rith	-536
▁Á	-537
fidh	-538
▁áir	-539
▁ra	-540
▁Dích	-541
▁ans	-542
▁Díchoisc	-543
▁rud	-544
sh	-545
▁Eorp	-546
▁4	-547
st	-548
naí	-549
▁raibh	-550
isiúnta	-551
ait	-552
▁gr	-553
íniú	-554
▁foc	-555
obh	-556
▁5	-557
onn	-558
íol	-559
▁éis	-560
▁cheannach	-561
▁cineál	-562
▁gcás	-563
ip	-564
ed	-565
achta	-566
▁Má	-567
inte	-568
eabh	-569
aíocht	-570
▁Féach	-571
pa	-572
▁cr	-573
▁rá	-574
▁feidhm	-575
nó	-576
údar	-577
eola	-578
▁isteach	-579
och	-580
▁bun	-581
▁daoine	-582
▁fháil	-583
ialta	-584
artha	-585
▁fearr	-586
liain	-587
▁ng	-588
rí	-589
amh	-590
ard	-591
▁cluich	-592
▁beidh	-593
áirg	-594
ionsc	-595
og	-596
▁bhí	-597
íonna	-598
▁fó	-599
iarratas	-600
íodh	-601
▁focal	-602
▁rogh	-603
▁suíomh	-604
eachtaí	-605
▁acu	-606
ost	-607
▁Gh	-608
acha	-609
▁ár	-610
áth	-611
cháin	-612
▁seirbhís	-613
eall	-614
mhíniú	-615
▁nGaeilge	-616
ló	-617
aile	-618
▁cru	-619
ealaigh	-620
íl	-621
▁Acht	-622
éimh	-623
▁tA	-624
▁HD	-625
▁or	-626
▁roimh	-627
raithe	-628
▁mbeidh	-629
▁Cealaigh	-630
onad	-631
▁cos	-632
eap	-633
ts	-634
▁fhrith	-635
níomh	-636
20	-637
ithr	-638
▁ard	-639
▁neamh	-640
aill	-641
▁léir	-642
▁thar	-643
ce	-644
▁linn	-645
iúla	-646
▁méid	-647
▁sainmhíniú	-648
▁bp	-649
ill	-650
▁éag	-651
lacht	-652
▁bríonna	-653
▁6	-654
íor	-655
▁má	-656
▁cú	-657
▁Mh	-658
▁fuaimniú	-659
▁féach	-660
chiallaigh	-661
chiallach	-662
▁comhchiallaigh	-663
▁fhrithchiallach	-664
2)	-665
▁dta	-666
▁ceann	-667
néis	-668
anta	-669
▁Mar	-670
▁In	-671
▁gcomh	-672
nadh	-673
...	-674
Éireann	-675
▁W	-676
▁ts	-677
▁0	-678
ata	-679
reisin	-680
aist	-681
ll	-682
arlaim	-683
ag	-684
ál	-685
▁íoc	-686
ialach	-687
▁anseo	-688
▁freisin	-689
oif	-690
▁mo	-691
▁gá	-692
inne	-693
íobh	-694
▁v	-695
táil	-696
▁V	-697
aisnéis	-698
ibh	-699
tú	-700
▁cur	-701
ins	-702
rom	-703
éadf	-704
▁cuid	-705
▁airgead	-706
bairt	-707
ábh	-708
▁ceal	-709
éadfaidh	-710
▁fhor	-711
),	-712
sca	-713
aisc	-714
▁dtí	-715
▁anois	-716
de	-717
oirm	-718
▁dul	-719
dáil	-720
thair	-721
▁chéad	-722
amp	-723
▁ceart	-724
lú	-725
▁Déan	-726
ite	-727
▁tabhairt	-728
ásta	-729
laíonn	-730
▁leanas	-731
▁duit	-732
com	-733
▁có	-734
▁Sh	-735
éasáin	-736
éile	-737
▁Lea	-738
▁"	-739
▁200	-740
oll	-741
éimhse	-742
▁feitheamh	-743
▁gníomh	-744
▁roinn	-745
thaí	-746
inm	-747
liana	-748
▁Iarratas	-749
▁7	-750
▁Roinn	-751
▁láithr	-752
eana	-753
▁(3	-754
▁hE	-755
▁ea	-756
ot	-757
▁tu	-758
táit	-759
aire	-760
ga	-761
▁Feitheamh	-762
dú	-763
▁ri	-764
▁.	-765
eol	-766
ánach	-767
uaire	-768
▁sna	-769
▁cuir	-770
oifig	-771
▁bhaineann	-772
▁(2)	-773
obair	-774
▁/	-775
ideach	-776
▁bhreathnú	-777
▁nuair	-778
▁bhainfear	-779
íochtaí	-780
▁agh	-781
ne	-782
▁mB	-783
▁aghaidh	-784
▁no	-785
onar	-786
▁éagsú	-787
▁sonraí	-788
ómh	-789
lo	-790
▁agat	-791
ers	-792
▁Sa	-793
▁Eorpach	-794
úint	-795
▁Le	-796
earta	-797
tát	-798
da	-799
▁8	-800
▁ré	-801
gairt	-802
ordú	-803
▁chuig	-804
▁Ó	-805
roí	-806
▁í	-807
mp	-808
tiú	-809
▁roinnt	-810
aing	-811
▁bhaint	-812
op	-813
▁Gaeilge	-814
▁iomlán	-815
▁dáta	-816
▁tS	-817
▁bhfeidhm	-818
▁údar	-819
▁dír	-820
▁obair	-821
▁cáil	-822
atag	-823
▁(1	-824
▁soláth	-825
airm	-826
wit	-827
uithe	-828
▁Beidh	-829
▁gréasáin	-830
racha	-831
istí	-832
oimisiún	-833
rta	-834
lacadh	-835
ragh	-836
úis	-837
ie	-838
óidh	-839
▁Ach	-840
iv	-841
áis	-842
witter	-843
éirí	-844
▁tréimhse	-845
▁ba	-846
íocha	-847
▁ainm	-848
▁cheart	-849
▁fad	-850
áirgí	-851
▁arna	-852
▁[	-853
▁sí	-854
▁dea	-855
irteag	-856
▁ábhar	-857
oiblí	-858
álacha	-859
▁hÉireann	-860
▁cluiche	-861
aic	-862
alls	-863
▁Lean	-864
▁leor	-865
▁éagsúla	-866
▁chuir	-867
▁dó	-868
▁Twitter	-869
▁9	-870
lamh	-871
▁scoil	-872
fhéadf	-873
▁dhá	-874
▁rial	-875
▁físeáin	-876
▁18	-877
laí	-878
chán	-879
▁Go	-880
eireadh	-881
▁dhaoine	-882
lean	-883
▁leag	-884
ub	-885
ust	-886
raith	-887
▁tac	-888
▁so	-889
ideal	-890
▁Aontais	-891
órt	-892
▁síos	-893
▁hA	-894
irteagal	-895
▁bu	-896
ladh	-897
▁Sp	-898
álta	-899
▁hEorp	-900
▁scoth	-901
▁Fh	-902
iúnach	-903
▁iarr	-904
▁teacht	-905
pháirt	-906
▁10	-907
aip	-908
▁hEorpa	-909
éanna	-910
▁Bain	-911
▁mea	-912
▁bith	-913
aíochtaí	-914
aisp	-915
▁chéile	-916
eagmh	-917
eolas	-918
▁lagh	-919
).	-920
EN	-921
▁aige	-922
arlaimint	-923
ura	-924
▁físeán	-925
▁caighdeán	-926
▁mé	-927
▁deir	-928
▁cl	-929
▁chinn	-930
▁áirithe	-931
ri	-932
imp	-933
▁É	-934
▁J	-935
éanann	-936
▁tionsc	-937
úirt	-938
onc	-939
▁bhun	-940
par	-941
▁ndéan	-942
▁íos	-943
tal	-944
ruth	-945
▁éif	-946
láinte	-947
lárú	-948
▁oibr	-949
▁phr	-950
▁cheann	-951
ran	-952
íní	-953
osta	-954
▁ais	-955
▁dear	-956
onta	-957
▁frea	-958
▁Co	-959
lódáil	-960
▁Fu	-961
raghas	-962
eicn	-963
▁ionad	-964
saí	-965
▁oifig	-966
▁to	-967
ims	-968
▁meas	-969
men	-970
▁inn	-971
cha	-972
éarla	-973
▁domh	-974
ró	-975
thanach	-976
earraí	-977
taithe	-978
▁gcuid	-979
reith	-980
▁fásta	-981
▁trá	-982
oils	-983
▁mbain	-984
tálacha	-985
▁láthair	-986
land	-987
▁Dh	-988
eisteanna	-989
▁dói	-990
▁bhliain	-991
ibé	-992
arc	-993
asc	-994
▁scann	-995
▁Ná	-996
▁leo	-997
aine	-998
▁beag	-999
gadh	-1000
▁&	-1001
ram	-1002
▁cheana	-1003
▁St	-1004
▁fo	-1005
▁fho	-1006
lann	-1007
em	-1008
úl	-1009
▁dheis	-1010
▁bain	-1011
▁Ba	-1012
▁Aire	-1013
istr	-1014
oiscthe	-1015
éamh	-1016
▁féachaint	-1017
▁dhéan	-1018
▁cead	-1019
▁2018	-1020
aif	-1021
▁Iúil	-1022
ca	-1023
ears	-1024
▁12	-1025
scoil	-1026
▁oir	-1027
oic	-1028
▁Air	-1029
▁15	-1030
▁Coiscthe	-1031
od	-1032
▁€	-1033
ilt	-1034
uas	-1035
▁dlí	-1036
ábháil	-1037
▁bliana	-1038
áirítear	-1039
▁gcó	-1040
▁Tweet	-1041
chu	-1042
▁Fís	-1043
▁riachta	-1044
mhainn	-1045
▁chóir	-1046
▁AE	-1047
atwee	-1048
▁suas	-1049
▁tAire	-1050
atweetálacha	-1051
▁Porn	-1052
íonadh	-1053
▁oib	-1054
aol	-1055
▁For	-1056
▁ríomh	-1057
ul	-1058
tóir	-1059
aoil	-1060
▁lé	-1061
▁Tr	-1062
▁cibé	-1063
ón	-1064
▁díreach	-1065
▁Márta	-1066
▁Deireadh	-1067
▁Ath	-1068
▁Cu	-1069
onas	-1070
únach	-1071
aistigh	-1072
thu	-1073
▁Rialach	-1074
▁Dé	-1075
aois	-1076
reid	-1077
▁réim	-1078
iallaíonn	-1079
▁2017	-1080
iar	-1081
ealach	-1082
▁chaighdeán	-1083
lian	-1084
▁leas	-1085
▁(3)	-1086
▁Chomhairle	-1087
▁foir	-1088
fhéadfadh	-1089
ríobh	-1090
▁sórt	-1091
▁siú	-1092
▁rann	-1093
▁Éir	-1094
▁Chun	-1095
▁líon	-1096
▁leath	-1097
▁Ú	-1098
▁seirbhísí	-1099
▁iarratas	-1100
▁iarra	-1101
▁K	-1102
▁coth	-1103
▁At	-1104
▁Tug	-1105
▁bra	-1106
▁Chomh	-1107
▁gnó	-1108
▁Rial	-1109
Ch	-1110
oiste	-1111
mar	-1112
alta	-1113
eath	-1114
ifig	-1115
▁ria	-1116
▁la	-1117
ontae	-1118
of	-1119
úir	-1120
iaidh	-1121
▁más	-1122
▁laistigh	-1123
▁íoslódáil	-1124
ct	-1125
iona	-1126
ainm	-1127
▁chos	-1128
▁sholáth	-1129
ort	-1130
▁tras	-1131
▁Cluich	-1132
▁leibh	-1133
eanga	-1134
oimis	-1135
imid	-1136
ocht	-1137
▁Comhrá	-1138
▁huaire	-1139
aireacht	-1140
10	-1141
▁ndáil	-1142
ii	-1143
ideachais	-1144
▁Oir	-1145
atagóir	-1146
eachtais	-1147
▁mí	-1148
sáid	-1149
▁táirgí	-1150
▁leathanach	-1151
ss	-1152
▁e	-1153
ael	-1154
▁feadh	-1155
▁láithreán	-1156
▁Leab	-1157
ailte	-1158
▁Airteagal	-1159
tan	-1160
iscint	-1161
▁mbaineann	-1162
▁iontach	-1163
áiste	-1164
obal	-1165
eagmháil	-1166
▁fós	-1167
▁faisnéis	-1168
▁w	-1169
▁De	-1170
▁uisce	-1171
ár	-1172
onraí	-1173
dála	-1174
tála	-1175
▁Ard	-1176
iméad	-1177
iúint	-1178
▁dú	-1179
obail	-1180
sp	-1181
earsanta	-1182
eideal	-1183
ág	-1184
▁bhíonn	-1185
▁mbeadh	-1186
▁tráth	-1187
aig	-1188
ity	-1189
char	-1190
▁oibre	-1191
úin	-1192
achtach	-1193
▁cothrom	-1194
eabhsú	-1195
▁luach	-1196
inneadh	-1197
▁clár	-1198
ice	-1199
▁min	-1200
000	-1201
▁mheas	-1202
▁choinn	-1203
▁2019	-1204
▁gheall	-1205
ow	-1206
ut	-1207
lais	-1208
▁Br	-1209
arasc	-1210
ala	-1211
▁páirt	-1212
▁gComhairle	-1213
weetáil	-1214
iúcháin	-1215
▁céanna	-1216
▁cluichí	-1217
eiceáil	-1218
and	-1219
▁tos	-1220
eisialta	-1221
altaí	-1222
ish	-1223
▁mhí	-1224
▁coinn	-1225
▁déanta	-1226
▁eolas	-1227
ríbh	-1228
▁teo	-1229
ck	-1230
▁Baile	-1231
rúpa	-1232
▁fud	-1233
ast	-1234
ibr	-1235
▁Leabaigh	-1236
▁(1)	-1237
eách	-1238
▁iarraidh	-1239
mhacht	-1240
▁Na	-1241
▁Agus	-1242
ond	-1243
líonadh	-1244
▁fhreagra	-1245
▁Atweetáil	-1246
▁ordú	-1247
ómhair	-1248
▁Ean	-1249
▁scéim	-1250
oit	-1251
▁Com	-1252
▁thug	-1253
náisiúnta	-1254
▁dóibh	-1255
óisialta	-1256
▁féadfaidh	-1257
▁iar	-1258
▁gnéas	-1259
▁seach	-1260
eoidh	-1261
▁seacht	-1262
eimh	-1263
iam	-1264
▁of	-1265
▁rogha	-1266
íche	-1267
▁againn	-1268
▁fógra	-1269
▁orthu	-1270
▁11	-1271
▁24	-1272
▁Fómhair	-1273
CE	-1274
▁nós	-1275
cs	-1276
▁breis	-1277
▁cion	-1278
▁Soláth	-1279
ide	-1280
ráid	-1281
iúin	-1282
▁liom	-1283
▁Comhairle	-1284
lan	-1285
bhair	-1286
▁bliain	-1287
raíonn	-1288
▁Oifig	-1289
▁leic	-1290
stit	-1291
▁infh	-1292
réir	-1293
ew	-1294
▁tuair	-1295
▁mír	-1296
íre	-1297
ruithe	-1298
▁14	-1299
▁16	-1300
▁Beal	-1301
▁uil	-1302
ation	-1303
chuí	-1304
▁tSín	-1305
▁tug	-1306
▁mhír	-1307
▁ráta	-1308
▁Fuaimniú	-1309
ov	-1310
▁cé	-1311
▁áireamh	-1312
▁Tu	-1313
táin	-1314
▁gcónaí	-1315
thóir	-1316
▁críocha	-1317
4)	-1318
íollacha	-1319
▁deis	-1320
úrtha	-1321
▁Gnó	-1322
ustaim	-1323
▁Aontaithe	-1324
▁The	-1325
llmh	-1326
▁13	-1327
▁feidhme	-1328
▁Balls	-1329
str	-1330
▁sm	-1331
▁iomchuí	-1332
▁bhfo	-1333
▁cabh	-1334
▁dl	-1335
osc	-1336
▁baint	-1337
▁leibhéal	-1338
▁Cé	-1339
▁ghlacadh	-1340
▁náisiúnta	-1341
iomlán	-1342
iosta	-1343
ríomh	-1344
▁Eorpaigh	-1345
▁fheabhsú	-1346
▁scannán	-1347
laidh	-1348
▁Féadfaidh	-1349
eád	-1350
aighde	-1351
eora	-1352
eoladh	-1353
aispeáin	-1354
Béarla	-1355
▁Coimisiún	-1356
▁17	-1357
éadú	-1358
▁aistr	-1359
▁mhéid	-1360
luais	-1361
▁comhair	-1362
▁ciallaíonn	-1363
▁amhlaidh	-1364
éithe	-1365
▁aith	-1366
ps	-1367
mas	-1368
ka	-1369
thar	-1370
▁tríd	-1371
▁Físeán	-1372
ism	-1373
▁measc	-1374
ng	-1375
▁taobh	-1376
ós	-1377
19	-1378
▁croí	-1379
áirge	-1380
▁háir	-1381
idí	-1382
▁príomh	-1383
▁Uimh	-1384
▁leictr	-1385
org	-1386
▁tion	-1387
bhreith	-1388
▁mian	-1389
▁athrú	-1390
iu	-1391
▁ró	-1392
▁muid	-1393
oimeád	-1394
▁Rialachán	-1395
tóirí	-1396
▁30	-1397
ok	-1398
me	-1399
iteach	-1400
▁Seirbhís	-1401
eagh	-1402
▁cail	-1403
▁Nach	-1404
▁2016	-1405
▁haon	-1406
aimh	-1407
lainn	-1408
ab	-1409
▁cáilíochta	-1410
▁éifeacht	-1411
inear	-1412
ler	-1413
mheas	-1414
12	-1415
man	-1416
▁lú	-1417
▁rialach	-1418
éadfar	-1419
▁199	-1420
eatha	-1421
▁Í	-1422
▁Samh	-1423
CH	-1424
nacha	-1425
▁rith	-1426
aontú	-1427
AI	-1428
uine	-1429
ailiú	-1430
eofar	-1431
Acht	-1432
oimisin	-1433
inearálta	-1434
airí	-1435
▁Stáit	-1436
▁háirithe	-1437
▁Náisiúnta	-1438
irí	-1439
▁Éirinn	-1440
ailt	-1441
éasca	-1442
áit	-1443
náth	-1444
achtar	-1445
aíonn	-1446
▁Airgead	-1447
▁Oireachtais	-1448
▁eis	-1449
áistí	-1450
▁gcuir	-1451
art	-1452
eanta	-1453
▁bia	-1454
▁Stát	-1455
scríobh	-1456
stitiú	-1457
▁speisialta	-1458
aite	-1459
▁chomhrá	-1460
ics	-1461
▁freagairt	-1462
raigh	-1463
EA	-1464
▁Lu	-1465
chur	-1466
▁shu	-1467
▁chlárú	-1468
▁Nuair	-1469
▁dhéanann	-1470
láir	-1471
namh	-1472
▁Su	-1473
▁fíor	-1474
▁lae	-1475
gn	-1476
ay	-1477
maí	-1478
▁uile	-1479
onradh	-1480
▁deireadh	-1481
▁ansin	-1482
qu	-1483
ou	-1484
▁sholáthar	-1485
oghlaim	-1486
▁Pharlaimint	-1487
ash	-1488
íola	-1489
▁k	-1490
▁éil	-1491
▁Ceisteanna	-1492
éanaí	-1493
▁poiblí	-1494
▁Leas	-1495
▁Iar	-1496
▁gcoinn	-1497
▁réimse	-1498
▁lán	-1499
ent	-1500
reat	-1501
aitheamh	-1502
▁tábh	-1503
bo	-1504
▁Dáil	-1505
▁bhrí	-1506
eithic	-1507
▁próis	-1508
▁fhorbairt	-1509
per	-1510
▁ghníomh	-1511
ies	-1512
▁cuideachta	-1513
▁tair	-1514
▁Feabh	-1515
▁téar	-1516
▁monar	-1517
lé	-1518
rian	-1519
▁thu	-1520
tachta	-1521
eicneola	-1522
5.	-1523
▁beart	-1524
usp	-1525
arascáil	-1526
▁po	-1527
▁Bhí	-1528
ior	-1529
▁modh	-1530
eartha	-1531
▁éig	-1532
earn	-1533
▁chruth	-1534
▁(4)	-1535
▁uir	-1536
▁ghnó	-1537
íortha	-1538
▁áitiúil	-1539
abháil	-1540
eaptha	-1541
ríbhinn	-1542
▁údarás	-1543
▁pearsanta	-1544
▁ís	-1545
mhainní	-1546
▁cosúil	-1547
óra	-1548
faí	-1549
▁os	-1550
▁eol	-1551
éacs	-1552
▁cuí	-1553
▁aic	-1554
▁ur	-1555
▁Rinne	-1556
líon	-1557
▁suim	-1558
▁ceang	-1559
▁aer	-1560
eim	-1561
▁Tithe	-1562
▁rialacha	-1563
▁imeachta	-1564
sí	-1565
aitéis	-1566
▁bhu	-1567
▁imirt	-1568
lachtaí	-1569
ex	-1570
▁'	-1571
▁dif	-1572
bartha	-1573
ly	-1574
▁déanaí	-1575
▁roghnú	-1576
ealbh	-1577
graítear	-1578
▁Bu	-1579
▁str	-1580
isín	-1581
▁nu	-1582
osca	-1583
ochtain	-1584
arlaiminte	-1585
,000	-1586
▁Seo	-1587
▁cumh	-1588
▁domhan	-1589
▁staid	-1590
▁praghas	-1591
▁airgeadra	-1592
▁airgeadais	-1593
úla	-1594
▁Átha	-1595
ioc	-1596
▁Gael	-1597
▁Gnóthaí	-1598
▁fheidhm	-1599
▁sábháil	-1600
▁bunaithe	-1601
aise	-1602
▁Aontas	-1603
▁Parlaiminte	-1604
ick	-1605
16	-1606
▁chead	-1607
imist	-1608
▁teas	-1609
uigh	-1610
▁sná	-1611
▁ort	-1612
abhair	-1613
▁Catagóir	-1614
▁25	-1615
ampla	-1616
▁chr	-1617
ontas	-1618
áirteach	-1619
óin	-1620
▁Idir	-1621
naithe	-1622
▁aonair	-1623
▁fiú	-1624
liath	-1625
▁mura	-1626
▁soc	-1627
aige	-1628
▁mal	-1629
eoireachta	-1630
▁Ballstáit	-1631
▁teanga	-1632
▁sheoladh	-1633
éig	-1634
dach	-1635
▁saol	-1636
reas	-1637
ong	-1638
istiú	-1639
▁21	-1640
est	-1641
tiúr	-1642
uath	-1643
▁hiomlán	-1644
▁coinníollacha	-1645
ideachas	-1646
▁dtagraítear	-1647
▁Conas	-1648
▁dhear	-1649
▁gcomhréir	-1650
▁23	-1651
nithe	-1652
▁Noll	-1653
orthaí	-1654
fa	-1655
▁dtug	-1656
tair	-1657
▁thr	-1658
▁gairm	-1659
ke	-1660
▁chás	-1661
▁roimhe	-1662
▁tagairt	-1663
oiliú	-1664
áilte	-1665
leach	-1666
▁uath	-1667
líne	-1668
aithí	-1669
▁22	-1670
▁Níl	-1671
▁domhain	-1672
▁chosaint	-1673
▁Cluichí	-1674
eála	-1675
nacht	-1676
▁Cliath	-1677
▁lucht	-1678
ate	-1679
eala	-1680
▁Cru	-1681
▁saoth	-1682
ack	-1683
▁gcr	-1684
ions	-1685
▁gcéad	-1686
lín	-1687
ff	-1688
▁aois	-1689
▁Tugadh	-1690
iosrú	-1691
▁bhfor	-1692
▁scr	-1693
▁laghdú	-1694
únas	-1695
▁cruinn	-1696
5)	-1697
áidí	-1698
▁gceist	-1699
tu	-1700
ino	-1701
nais	-1702
▁Mí	-1703
Fómh	-1704
▁thos	-1705
▁tacaíocht	-1706
▁nád	-1707
áip	-1708
aillimh	-1709
▁shampla	-1710
chta	-1711
▁cúr	-1712
ver	-1713
▁100	-1714
▁dtaobh	-1715
itheoirí	-1716
inbh	-1717
▁Airgeadais	-1718
▁2014	-1719
achtaí	-1720
ID	-1721
▁Cur	-1722
athair	-1723
ileanna	-1724
▁cad	-1725
lic	-1726
▁iúl	-1727
▁Cuntas	-1728
one	-1729
▁cruach	-1730
lis	-1731
▁ord	-1732
iz	-1733
AR	-1734
eanas	-1735
rainn	-1736
oireann	-1737
▁dúinn	-1738
ófar	-1739
osm	-1740
▁stiú	-1741
ore	-1742
▁cás	-1743
oncler	-1744
▁Cad	-1745
ábhar	-1746
rann	-1747
▁conas	-1748
ostaíochta	-1749
atagóirí	-1750
15	-1751
mhar	-1752
ons	-1753
aiteach	-1754
aib	-1755
▁Dá	-1756
▁eolais	-1757
leag	-1758
▁Saor	-1759
▁súil	-1760
ree	-1761
ris	-1762
▁Nua	-1763
olas	-1764
▁forálacha	-1765
oimisinéirí	-1766
.”	-1767
▁Treoir	-1768
ana	-1769
túil	-1770
ógra	-1771
▁dath	-1772
▁leanaí	-1773
▁Más	-1774
gann	-1775
▁bog	-1776
▁inmh	-1777
▁Im	-1778
ment	-1779
13	-1780
▁chuige	-1781
ve	-1782
▁inar	-1783
ideo	-1784
▁shon	-1785
▁idirnáisiúnta	-1786
▁chó	-1787
▁siúl	-1788
tor	-1789
▁Mór	-1790
▁Scoil	-1791
ógáil	-1792
▁Clár	-1793
▁ghnáth	-1794
▁láithreach	-1795
▁vó	-1796
fach	-1797
▁chroí	-1798
umas	-1799
ang	-1800
▁teagmháil	-1801
eachtach	-1802
▁oiriúnach	-1803
▁—	-1804
eam	-1805
▁tír	-1806
▁Éireann	-1807
ustaiméirí	-1808
▁laghad	-1809
aítear	-1810
▁thaobh	-1811
▁táirge	-1812
▁inniu	-1813
fhonn	-1814
áinig	-1815
▁gcoinne	-1816
und	-1817
IN	-1818
rúdú	-1819
mra	-1820
....	-1821
▁2015	-1822
eartas	-1823
gid	-1824
▁Am	-1825
▁doic	-1826
▁bP	-1827
▁ndiaidh	-1828
▁chinntiú	-1829
ille	-1830
rac	-1831
▁Lá	-1832
eit	-1833
aird	-1834
▁tho	-1835
aims	-1836
▁éad	-1837
▁Trá	-1838
▁osc	-1839
▁cheang	-1840
▁cinneadh	-1841
▁tuilleadh	-1842
▁Y	-1843
▁cuireadh	-1844
▁Gaillimh	-1845
▁Cas	-1846
▁2013	-1847
▁bhealach	-1848
ble	-1849
▁bearta	-1850
▁phróis	-1851
▁cli	-1852
▁tús	-1853
▁ailt	-1854
▁grian	-1855
▁chruthú	-1856
▁breise	-1857
áide	-1858
▁réamh	-1859
▁car	-1860
gas	-1861
▁Bord	-1862
▁foirm	-1863
▁leagan	-1864
▁dara	-1865
▁déanamh	-1866
▁sláinte	-1867
▁rinneadh	-1868
▁chineál	-1869
realamh	-1870
▁Sláinte	-1871
AE	-1872
ap	-1873
darás	-1874
eapadh	-1875
ess	-1876
▁eag	-1877
▁Meán	-1878
▁cánach	-1879
▁Re	-1880
ailís	-1881
▁dáil	-1882
íoctha	-1883
▁fuinn	-1884
▁úsáidtear	-1885
eánach	-1886
▁Pr	-1887
18	-1888
▁Do	-1889
▁dhuine	-1890
▁dtugtar	-1891
1)	-1892
▁Ionc	-1893
▁córas	-1894
▁forbairt	-1895
14	-1896
▁tás	-1897
ind	-1898
naigh	-1899
▁cabhrú	-1900
▁Áit	-1901
ianta	-1902
tail	-1903
rioc	-1904
▁bhonn	-1905
▁maoin	-1906
▁margadh	-1907
▁Bainfidh	-1908
tigh	-1909
tán	-1910
▁tal	-1911
▁rialú	-1912
bhreithniú	-1913
▁réas	-1914
36	-1915
▁Achta	-1916
▁rochtain	-1917
▁Rogh	-1918
osmálta	-1919
50	-1920
▁taighde	-1921
ks	-1922
▁sprea	-1923
▁déanfar	-1924
aireachta	-1925
▁blian	-1926
▁tAcht	-1927
▁tionscad	-1928
▁leathan	-1929
ive	-1930
▁iomp	-1931
▁tiom	-1932
▁bunaidh	-1933
▁riachtanais	-1934
▁Cr	-1935
nama	-1936
stal	-1937
íona	-1938
▁leanbh	-1939
▁slá	-1940
▁lámh	-1941
rucht	-1942
fheidhm	-1943
óc	-1944
▁dhiaidh	-1945
paí	-1946
▁éasca	-1947
30	-1948
▁Gach	-1949
▁céim	-1950
AN	-1951
▁Aib	-1952
▁197	-1953
▁bpr	-1954
its	-1955
aimid	-1956
▁cruth	-1957
▁sásta	-1958
▁dT	-1959
▁léinn	-1960
▁limist	-1961
ostaithe	-1962
gt	-1963
ionsa	-1964
straim	-1965
▁27	-1966
▁dí	-1967
24	-1968
eachtain	-1969
ling	-1970
▁mhar	-1971
tion	-1972
aingt	-1973
naíonn	-1974
adhb	-1975
▁réig	-1976
éann	-1977
▁curtha	-1978
aighdeáin	-1979
▁infheist	-1980
chóir	-1981
ompar	-1982
▁rinne	-1983
éin	-1984
▁26	-1985
uirear	-1986
naíodh	-1987
oibríoch	-1988
▁chuideachta	-1989
odh	-1990
aifead	-1991
▁mbliana	-1992
▁dhosmálta	-1993
léas	-1994
▁riar	-1995
ibreán	-1996
▁thíos	-1997
▁glacadh	-1998
aispeáint	-1999
▁mhór	-2000
▁diú	-2001
▁difr	-2002
▁smaoin	-2003
aipit	-2004
▁sainch	-2005
▁griangh	-2006
ola	-2007
ments	-2008
ianaise	-2009
▁Ghaeilge	-2010
▁creid	-2011
▁ghabh	-2012
eirm	-2013
▁tríú	-2014
reabh	-2015
▁1.	-2016
fr	-2017
▁eagra	-2018
▁talamh	-2019
easta	-2020
▁catagóirí	-2021
ton	-2022
▁seachas	-2023
SA	-2024
our	-2025
▁196	-2026
▁minic	-2027
itheach	-2028
▁Sonraí	-2029
▁leanúint	-2030
rad	-2031
implí	-2032
▁ionc	-2033
▁28	-2034
úinteoirí	-2035
▁Or	-2036
▁Cos	-2037
▁díol	-2038
údarás	-2039
▁aims	-2040
▁aird	-2041
▁iarratais	-2042
bla	-2043
atha	-2044
máin	-2045
ruinn	-2046
▁amhail	-2047
ik	-2048
anc	-2049
▁lig	-2050
▁fhág	-2051
ress	-2052
▁ullmh	-2053
▁Oideachais	-2054
▁neart	-2055
▁choinneáil	-2056
únú	-2057
▁29	-2058
▁(32	-2059
▁soch	-2060
▁airde	-2061
▁láimh	-2062
▁ábhair	-2063
oiléir	-2064
áirgeadh	-2065
oitianta	-2066
▁nádúrtha	-2067
11	-2068
▁críoch	-2069
▁(5)	-2070
ise	-2071
olla	-2072
▁ama	-2073
▁ndear	-2074
ual	-2075
▁meách	-2076
▁ndéanfar	-2077
▁fhios	-2078
▁arís	-2079
amlíne	-2080
▁Soláthraithe	-2081
asta	-2082
orm	-2083
▁comhrá	-2084
▁int	-2085
ghaidh	-2086
únamh	-2087
▁chuireann	-2088
▁chomhlíonadh	-2089
irg	-2090
▁freastal	-2091
An	-2092
▁31	-2093
▁con	-2094
aimseartha	-2095
lec	-2096
let	-2097
éalta	-2098
▁Fo	-2099
▁dte	-2100
▁fhaisnéis	-2101
▁il	-2102
▁mol	-2103
▁gurb	-2104
ána	-2105
▁mac	-2106
▁éist	-2107
II	-2108
▁Faigh	-2109
▁Máirt	-2110
▁ábhartha	-2111
▁Gaeltachta	-2112
ile	-2113
raf	-2114
▁fada	-2115
iciúil	-2116
illiún	-2117
aor	-2118
▁ionta	-2119
▁istigh	-2120
éard	-2121
▁tapa	-2122
▁cuairt	-2123
▁di	-2124
ochta	-2125
▁torthaí	-2126
▁Lond	-2127
▁nithe	-2128
▁plean	-2129
▁scoile	-2130
airte	-2131
▁eas	-2132
▁feabh	-2133
▁rialacháin	-2134
éif	-2135
óif	-2136
eaghlaigh	-2137
▁timp	-2138
▁scair	-2139
allstát	-2140
▁earraí	-2141
▁Tar	-2142
▁Ioncaim	-2143
▁lár	-2144
▁ionas	-2145
lea	-2146
rio	-2147
▁bó	-2148
órais	-2149
mad	-2150
thabh	-2151
seach	-2152
thóirí	-2153
ostaíocht	-2154
ec	-2155
eannta	-2156
▁áirith	-2157
▁thoradh	-2158
▁comhlacht	-2159
▁tábhachtach	-2160
▁samp	-2161
▁bhfad	-2162
áideach	-2163
aitheoir	-2164
▁clips	-2165
▁bhreis	-2166
aoir	-2167
taine	-2168
iteas	-2169
▁íseal	-2170
▁Domh	-2171
▁leasú	-2172
MS	-2173
▁him	-2174
▁stíl	-2175
▁díobh	-2176
▁nóiméad	-2177
▁lit	-2178
▁treoir	-2179
ys	-2180
pp	-2181
aitheoirí	-2182
▁ginearálta	-2183
▁Scéim	-2184
▁Úsáid	-2185
▁Gníomh	-2186
▁iníoctha	-2187
▁éigin	-2188
othú	-2189
▁Bun	-2190
oraip	-2191
itheoir	-2192
aibid	-2193
▁Faoi	-2194
▁sraith	-2195
▁seirbhíse	-2196
pla	-2197
▁aistriú	-2198
aomh	-2199
rain	-2200
▁198	-2201
chtanna	-2202
óireacht	-2203
▁imeachtaí	-2204
▁chug	-2205
▁láid	-2206
lachta	-2207
teacht	-2208
aithfidh	-2209
uan	-2210
▁fear	-2211
▁ghlac	-2212
aispeán	-2213
▁Tionsc	-2214
únta	-2215
▁déanfaidh	-2216
chúis	-2217
iúntas	-2218
▁húsáid	-2219
▁Sceideal	-2220
▁teicneola	-2221
unt	-2222
róidh	-2223
▁naisc	-2224
▁sheach	-2225
▁níl	-2226
ional	-2227
▁Chuid	-2228
óirt	-2229
ings	-2230
▁chlár	-2231
▁cúram	-2232
▁mu	-2233
eantar	-2234
▁soláthraí	-2235
▁sprioc	-2236
▁úsáide	-2237
airde	-2238
▁tuairim	-2239
▁gníomhaíochtaí	-2240
árta	-2241
ber	-2242
▁Eala	-2243
▁airgid	-2244
eangacha	-2245
thú	-2246
oilsiú	-2247
oist	-2248
chlár	-2249
uairisc	-2250
▁comhalta	-2251
17	-2252
néas	-2253
▁tuairisc	-2254
IT	-2255
▁oll	-2256
▁Cluiche	-2257
▁iarracht	-2258
▁Nu	-2259
eog	-2260
uro	-2261
acháin	-2262
▁scríbhinn	-2263
erv	-2264
▁dearadh	-2265
▁tháinig	-2266
▁dar	-2267
▁pic	-2268
▁liosta	-2269
▁soláthar	-2270
▁fa	-2271
neacha	-2272
▁Meitheamh	-2273
iach	-2274
▁mbun	-2275
▁chaitheamh	-2276
Th	-2277
▁lorg	-2278
dhíola	-2279
▁faisnéise	-2280
omp	-2281
mhór	-2282
▁frith	-2283
áiríre	-2284
ismitheoirí	-2285
▁Eoraip	-2286
▁cúis	-2287
▁dhíol	-2288
▁Eanáir	-2289
▁reatha	-2290
▁cóir	-2291
▁iniú	-2292
▁léi	-2293
▁Comments	-2294
athaoir	-2295
▁dteideal	-2296
▁cláraithe	-2297
les	-2298
▁Casino	-2299
▁2012	-2300
▁cusp	-2301
▁meaisín	-2302
AS	-2303
▁Feidhm	-2304
chaighdeán	-2305
arm	-2306
álaí	-2307
▁eala	-2308
▁Rialtais	-2309
▁straitéis	-2310
▁Londain	-2311
▁bhféadf	-2312
óireachta	-2313
ome	-2314
▁pac	-2315
▁cóip	-2316
▁thair	-2317
▁riachtanach	-2318
200	-2319
tóireacht	-2320
▁Bealtaine	-2321
fo	-2322
▁dío	-2323
▁gcrích	-2324
▁scoileanna	-2325
bhú	-2326
load	-2327
iocfaidh	-2328
▁porno	-2329
▁tionchar	-2330
bhun	-2331
▁cearta	-2332
▁fheiceáil	-2333
▁freagrach	-2334
ghníomh	-2335
▁Nollaig	-2336
▁dhéantar	-2337
▁Cum	-2338
▁Cuid	-2339
ork	-2340
olait	-2341
▁2.	-2342
lectr	-2343
▁Monar	-2344
▁laeth	-2345
▁leigh	-2346
▁saoir	-2347
ak	-2348
intí	-2349
▁aici	-2350
ábhair	-2351
eachtas	-2352
▁leabhar	-2353
▁shuíomh	-2354
OR	-2355
▁sr	-2356
▁Contae	-2357
▁téarma	-2358
▁Coimisinéirí	-2359
alar	-2360
▁bharr	-2361
▁breith	-2362
6)	-2363
chadh	-2364
▁iona	-2365
▁Aghaidh	-2366
ens	-2367
airgead	-2368
▁ghairm	-2369
▁Ceann	-2370
▁taithí	-2371
▁chinneadh	-2372
(1)	-2373
▁ngach	-2374
orc	-2375
▁las	-2376
▁stá	-2377
▁deara	-2378
raoi	-2379
thas	-2380
▁iasc	-2381
cr	-2382
▁éileamh	-2383
▁gCoimisiún	-2384
maid	-2385
óifíl	-2386
▁bheadh	-2387
eb	-2388
nda	-2389
▁Un	-2390
▁Coiste	-2391
▁Maidir	-2392
▁reachta	-2393
▁trádála	-2394
▁siúd	-2395
reacht	-2396
▁tíortha	-2397
▁chú	-2398
reamh	-2399
luiche	-2400
▁Naisc	-2401
▁rudaí	-2402
easc	-2403
▁eac	-2404
daithe	-2405
IS	-2406
▁te	-2407
iath	-2408
▁sean	-2409
eoch	-2410
omparáid	-2411
oill	-2412
▁soiléir	-2413
ight	-2414
▁uimh	-2415
▁Gr	-2416
iont	-2417
▁Léir	-2418
▁dr	-2419
▁Ind	-2420
▁fanacht	-2421
▁seoladh	-2422
▁íocaíocht	-2423
▁sl	-2424
llscoil	-2425
aoileadh	-2426
23	-2427
ted	-2428
▁195	-2429
▁Oil	-2430
ream	-2431
ionsab	-2432
ell	-2433
íth	-2434
▁earn	-2435
shaoil	-2436
▁thart	-2437
▁rannpháirt	-2438
▁2020	-2439
▁daon	-2440
aigheann	-2441
ní	-2442
ina	-2443
▁oil	-2444
▁anailís	-2445
atch	-2446
▁Fac	-2447
eanach	-2448
eon	-2449
nam	-2450
▁deimhniú	-2451
luaiseacht	-2452
▁dhéanfaidh	-2453
▁togra	-2454
▁toisc	-2455
▁choimeád	-2456
▁gcomparáid	-2457
▁Cén	-2458
ld	-2459
▁Rá	-2460
▁chumas	-2461
▁Déanfar	-2462
earradh	-2463
▁simplí	-2464
ure	-2465
anda	-2466
leath	-2467
urb	-2468
▁pé	-2469
▁oifigeach	-2470
iarr	-2471
▁sula	-2472
▁Chúirt	-2473
▁Cuireann	-2474
▁áirithiú	-2475
▁ríomhaire	-2476
tí	-2477
iméid	-2478
▁ghabhann	-2479
▁réiteach	-2480
nal	-2481
ora	-2482
oird	-2483
▁malairte	-2484
▁sóisialta	-2485
▁leictreach	-2486
earc	-2487
▁Meith	-2488
oláiste	-2489
▁thionsc	-2490
22	-2491
▁X	-2492
▁costais	-2493
iche	-2494
▁mná	-2495
insean	-2496
▁gearr	-2497
▁monaróirí	-2498
▁Cath	-2499
earadh	-2500
raíocht	-2501
▁shonraí	-2502
ews	-2503
óga	-2504
▁bhF	-2505
adadh	-2506
ánaigh	-2507
▁Liosta	-2508
eicniúil	-2509
▁scannáin	-2510
fhor	-2511
▁ndáiríre	-2512
▁Al	-2513
▁Se	-2514
ineálacha	-2515
▁tóg	-2516
▁inch	-2517
▁fáilte	-2518
▁tarr	-2519
▁tomh	-2520
▁Bhaile	-2521
▁leagtha	-2522
▁comhpháirt	-2523
ól	-2524
▁shoc	-2525
▁dhearna	-2526
▁leagtar	-2527
▁tAontas	-2528
mm	-2529
mhair	-2530
▁Aibreán	-2531
nu	-2532
▁cúig	-2533
▁feithic	-2534
▁thagann	-2535
▁Athraigh	-2536
etc	-2537
▁comp	-2538
▁chúis	-2539
▁tuarascáil	-2540
muigh	-2541
▁tacú	-2542
▁shain	-2543
íosa	-2544
▁gnáth	-2545
nar	-2546
▁Có	-2547
eoin	-2548
▁rio	-2549
erm	-2550
istíochta	-2551
▁Tweetáil	-2552
▁cath	-2553
▁oideachais	-2554
end	-2555
▁gru	-2556
orpar	-2557
thach	-2558
▁léamh	-2559
▁raon	-2560
▁faoina	-2561
aitheach	-2562
mhaíochta	-2563
tes	-2564
▁50	-2565
úrsa	-2566
▁Díl	-2567
▁feist	-2568
▁forbartha	-2569
▁limistéar	-2570
▁j	-2571
▁strucht	-2572
ointe	-2573
▁Grúpa	-2574
▁Electr	-2575
▁áitiúla	-2576
▁fén	-2577
▁Pornload	-2578
rap	-2579
▁Chu	-2580
▁luath	-2581
▁saothair	-2582
▁Ac	-2583
amhail	-2584
▁ins	-2585
sáide	-2586
▁stór	-2587
▁Tag	-2588
eiric	-2589
up	-2590
íoll	-2591
▁léas	-2592
▁As	-2593
▁óga	-2594
▁seas	-2595
raíochta	-2596
stitiúidí	-2597
1,	-2598
ry	-2599
éigh	-2600
▁Dílean	-2601
fe	-2602
▁Str	-2603
▁2009	-2604
▁chugainn	-2605
▁etc	-2606
▁ias	-2607
aireach	-2608
arda	-2609
eobh	-2610
FC	-2611
spl	-2612
láin	-2613
▁Sta	-2614
mhéid	-2615
▁mhaoin	-2616
▁oibriú	-2617
▁nár	-2618
dháil	-2619
reoir	-2620
▁earnáil	-2621
▁dtaca	-2622
1.	-2623
óid	-2624
úirte	-2625
▁mhéadú	-2626
▁teorainn	-2627
chl	-2628
éara	-2629
▁Bra	-2630
▁Tal	-2631
eagra	-2632
▁táil	-2633
namaíoch	-2634
chtála	-2635
▁bhunú	-2636
▁thugann	-2637
▁trealamh	-2638
▁cho	-2639
iteáil	-2640
▁tugadh	-2641
liú	-2642
ous	-2643
reo	-2644
▁mion	-2645
▁ranníoc	-2646
▁Chr	-2647
eithre	-2648
▁Ans	-2649
▁adh	-2650
▁chion	-2651
▁fhoirm	-2652
▁leanúnach	-2653
alla	-2654
▁dár	-2655
▁bhra	-2656
▁cosaint	-2657
▁Pro	-2658
IR	-2659
tanka	-2660
éacht	-2661
▁thoil	-2662
ashtanka	-2663
▁cosanta	-2664
▁and	-2665
▁Leis	-2666
▁Feabhra	-2667
▁at	-2668
▁fol	-2669
▁fáth	-2670
▁Plean	-2671
▁chail	-2672
25	-2673
▁al	-2674
fadh	-2675
ionann	-2676
omharc	-2677
▁réidh	-2678
▁cuntas	-2679
▁teideal	-2680
asturb	-2681
reland	-2682
eallraí	-2683
inmh	-2684
uill	-2685
▁Tac	-2686
▁ról	-2687
tacha	-2688
▁Físeáin	-2689
oy	-2690
▁the	-2691
neamh	-2692
▁dháta	-2693
uc	-2694
uim	-2695
▁togh	-2696
▁ionann	-2697
ES	-2698
lit	-2699
eigh	-2700
▁chríoch	-2701
pháirteach	-2702
ramh	-2703
eilbh	-2704
aidreamh	-2705
cair	-2706
ainne	-2707
PA	-2708
▁Du	-2709
léir	-2710
▁phobal	-2711
bharfaidh	-2712
lish	-2713
▁Thu	-2714
nt	-2715
icial	-2716
▁fuair	-2717
▁Dear	-2718
eonach	-2719
▁léiriú	-2720
av	-2721
obi	-2722
eadóirí	-2723
earmáin	-2724
inbhins	-2725
▁ráiteas	-2726
chla	-2727
▁Mac	-2728
▁dochar	-2729
▁Dú	-2730
▁pl	-2731
▁sá	-2732
▁agam	-2733
▁clárú	-2734
aistr	-2735
▁bhaile	-2736
▁ndéantar	-2737
ood	-2738
▁méad	-2739
▁fir	-2740
▁iompar	-2741
MH	-2742
▁gcu	-2743
▁álainn	-2744
▁phoiblí	-2745
▁Seirbhísí	-2746
▁ngníomh	-2747
iotail	-2748
TA	-2749
▁3.	-2750
inse	-2751
iarra	-2752
▁rang	-2753
lteanas	-2754
reachta	-2755
▁spraoi	-2756
▁ullmhú	-2757
▁snáithe	-2758
br	-2759
gan	-2760
▁194	-2761
itigh	-2762
rd	-2763
oich	-2764
▁gcomhair	-2765
▁Déanfaidh	-2766
▁bail	-2767
úinéir	-2768
bharfar	-2769
iosrúchán	-2770
▁phríomh	-2771
▁scileanna	-2772
▁seomra	-2773
▁roghanna	-2774
rúpaí	-2775
eoil	-2776
gaí	-2777
lóid	-2778
▁dom	-2779
táirg	-2780
▁foils	-2781
▁Ealaíon	-2782
eibh	-2783
éasc	-2784
▁Lún	-2785
insin	-2786
▁Eacht	-2787
▁Rialacháin	-2788
/20	-2789
ier	-2790
▁treo	-2791
▁cháil	-2792
▁údaráis	-2793
úsh	-2794
▁Choimisiún	-2795
▁Ina	-2796
▁Roimh	-2797
▁dteagmháil	-2798
oibriú	-2799
liantúil	-2800
▁thógáil	-2801
thi	-2802
▁sonraithe	-2803
leacht	-2804
▁méadú	-2805
eric	-2806
IL	-2807
itis	-2808
gaidh	-2809
eolaíochta	-2810
▁críche	-2811
▁dam	-2812
▁Líne	-2813
▁hion	-2814
▁dóigh	-2815
▁Leabhar	-2816
▁Uachtar	-2817
íofa	-2818
▁cult	-2819
eobhaidh	-2820
aide	-2821
fhéidir	-2822
▁páistí	-2823
stitiúid	-2824
▁dáileoir	-2825
▁Taispeáin	-2826
oh	-2827
▁táirg	-2828
▁mbíonn	-2829
▁fhágáil	-2830
▁cén	-2831
▁riamh	-2832
pe	-2833
▁teil	-2834
▁láidir	-2835
▁gnéithe	-2836
mobi	-2837
▁bogearraí	-2838
idhm	-2839
▁Phríomh	-2840
365.	-2841
onics	-2842
▁trom	-2843
▁cionn	-2844
▁fuinnimh	-2845
▁San	-2846
▁bunús	-2847
athaoirleach	-2848
nár	-2849
uth	-2850
▁hO	-2851
irce	-2852
▁(6)	-2853
▁193	-2854
▁grá	-2855
roinn	-2856
▁tíre	-2857
thabháil	-2858
LA	-2859
▁hI	-2860
▁rath	-2861
áipéar	-2862
▁MFómh	-2863
▁Stiúr	-2864
aiteachas	-2865
▁Parlaimint	-2866
▁scaireanna	-2867
abhar	-2868
▁doiciméad	-2869
Sh	-2870
eata	-2871
▁Trí	-2872
▁dhiú	-2873
▁tairbh	-2874
▁deiridh	-2875
▁stair	-2876
▁ionstraim	-2877
▁áis	-2878
▁údaraithe	-2879
ats	-2880
úile	-2881
▁eacht	-2882
▁iompair	-2883
ns	-2884
éanta	-2885
fheist	-2886
▁meáchan	-2887
▁cheangal	-2888
CC	-2889
▁Jack	-2890
eamara	-2891
lúth	-2892
▁bán	-2893
▁Poiblí	-2894
▁Masturb	-2895
▁beo	-2896
ndála	-2897
▁Údarás	-2898
▁cumhachta	-2899
▁Electronics	-2900
SP	-2901
ont	-2902
áirtí	-2903
▁chéanna	-2904
▁athbhreithniú	-2905
ocal	-2906
ósta	-2907
▁Vic	-2908
íochas	-2909
▁chomhalta	-2910
eard	-2911
iséad	-2912
phost	-2913
iúntais	-2914
▁beartaithe	-2915
ev	-2916
iorc	-2917
oirt	-2918
▁Éire	-2919
oirgn	-2920
▁meán	-2921
▁aidhm	-2922
2.	-2923
itim	-2924
▁árach	-2925
▁Fáilte	-2926
aitneamh	-2927
tús	-2928
▁Cl	-2929
▁teagmh	-2930
▁Déantar	-2931
▁neamhspl	-2932
▁comhairle	-2933
▁páirteach	-2934
ep	-2935
ball	-2936
lash	-2937
▁Sain	-2938
▁bhráid	-2939
▁scrúdú	-2940
laisteach	-2941
ER	-2942
mb	-2943
▁Te	-2944
▁taist	-2945
ailiúchán	-2946
7)	-2947
▁Meas	-2948
ileach	-2949
▁foirne	-2950
▁lasmuigh	-2951
ON	-2952
net	-2953
arán	-2954
raif	-2955
▁Tugann	-2956
▁hAchtanna	-2957
oladh	-2958
▁áfach	-2959
▁chluiche	-2960
ealaí	-2961
úrsaí	-2962
▁Freagra	-2963
▁cumas	-2964
áirc	-2965
lanna	-2966
romchla	-2967
asamhail	-2968
▁Áitiúil	-2969
▁AN	-2970
▁Ollscoil	-2971
▁sheirbhís	-2972
óil	-2973
▁2010	-2974
▁glac	-2975
eannas	-2976
Tá	-2977
▁Ad	-2978
▁bhr	-2979
arraige	-2980
▁uirlis	-2981
naimh	-2982
▁gcion	-2983
▁tharr	-2984
▁Sóisialta	-2985
▁on	-2986
iail	-2987
▁clú	-2988
▁thion	-2989
▁costas	-2990
▁luaithe	-2991
áiltear	-2992
▁fhógra	-2993
▁coitianta	-2994
únasa	-2995
▁téacs	-2996
▁Forbartha	-2997
US	-2998
né	-2999
▁brú	-3000
▁DFómh	-3001
▁feabhas	-3002
arb	-3003
taíocht	-3004
▁chumhacht	-3005
tic	-3006
▁arb	-3007
▁taisc	-3008
▁Rialtas	-3009
▁Gaillimhe	-3010
rán	-3011
▁faire	-3012
▁suntas	-3013
▁Trádála	-3014
▁féadfar	-3015
▁measfar	-3016
éine	-3017
ipéid	-3018
▁Leag	-3019
rúd	-3020
▁fás	-3021
▁gclár	-3022
▁Leanaí	-3023
▁Lúnasa	-3024
urop	-3025
▁Dlí	-3026
mhara	-3027
tanas	-3028
eimhniú	-3029
▁scrios	-3030
teachta	-3031
▁comhaltaí	-3032
▁fostaíochta	-3033
6,	-3034
ranta	-3035
rófar	-3036
uairim	-3037
eiriceá	-3038
▁cúnamh	-3039
▁réimsí	-3040
▁toiliú	-3041
▁ceallraí	-3042
▁chuirtear	-3043
▁seachtaine	-3044
▁gCuid	-3045
▁smaoineamh	-3046
▁Bó	-3047
▁blianta	-3048
ral	-3049
▁bhfoirm	-3050
▁próiseas	-3051
▁mBallstát	-3052
iúr	-3053
▁reacht	-3054
▁neamhch	-3055
▁Faisnéis	-3056
▁tré	-3057
▁Samhain	-3058
▁dtáirg	-3059
▁uirthi	-3060
inbhinsiún	-3061
chaí	-3062
oiriúnach	-3063
ábhachtach	-3064
▁gcomhairle	-3065
7.	-3066
oigh	-3067
▁Céad	-3068
▁chreid	-3069
▁saoire	-3070
▁cód	-3071
co	-3072
ien	-3073
▁fadhb	-3074
▁téarmaí	-3075
oid	-3076
áinn	-3077
▁mic	-3078
▁Príomh	-3079
▁nósanna	-3080
):	-3081
achán	-3082
▁cuma	-3083
▁mona	-3084
scoile	-3085
▁teach	-3086
aibidil	-3087
eantair	-3088
▁chomhair	-3089
▁Cú	-3090
idir	-3091
chuir	-3092
ithre	-3093
▁Jacket	-3094
▁phobail	-3095
▁sábháilte	-3096
-20	-3097
gen	-3098
oine	-3099
▁talún	-3100
urg	-3101
▁SMS	-3102
chéim	-3103
▁Seol	-3104
▁coir	-3105
▁híoc	-3106
▁ndearnadh	-3107
▁thaispeáint	-3108
lex	-3109
iall	-3110
▁Áir	-3111
▁Réig	-3112
▁gruaige	-3113
▁taifead	-3114
▁tháirgeadh	-3115
▁soláthraithe	-3116
▁gléas	-3117
▁mhodh	-3118
aisceart	-3119
▁infheidhm	-3120
imhin	-3121
aitear	-3122
óisial	-3123
▁bíonn	-3124
7,	-3125
xx	-3126
▁Wh	-3127
insí	-3128
landaí	-3129
▁foirgn	-3130
ant	-3131
▁EU	-3132
▁rún	-3133
tacht	-3134
▁fuaim	-3135
▁Déanann	-3136
8.	-3137
▁nD	-3138
údaráis	-3139
▁tosaigh	-3140
▁ceadúnas	-3141
▁Idirnáisiúnta	-3142
eg	-3143
▁Rann	-3144
▁héif	-3145
▁mích	-3146
▁thuas	-3147
▁comhth	-3148
scríbhinn	-3149
scoileanna	-3150
▁saincheaptha	-3151
3.	-3152
ofa	-3153
óide	-3154
▁Cult	-3155
▁ball	-3156
▁Éireannach	-3157
▁Leasú	-3158
▁uimhir	-3159
▁taitneamh	-3160
▁feidhmeanna	-3161
línte	-3162
▁anuas	-3163
▁rátaí	-3164
▁traid	-3165
oigeart	-3166
▁Ríocht	-3167
▁kashtanka	-3168
ium	-3169
▁CO	-3170
ollag	-3171
rainc	-3172
tiúir	-3173
▁chéim	-3174
▁faide	-3175
▁teastáil	-3176
▁tionscadal	-3177
”,	-3178
▁óg	-3179
▁díl	-3180
ionad	-3181
▁mBan	-3182
▁Roimhe	-3183
aoirs	-3184
▁Bíonn	-3185
▁Nollag	-3186
8,	-3187
ah	-3188
▁leasa	-3189
▁Táirgí	-3190
aoiseamh	-3191
▁Ireland	-3192
eolaíocht	-3193
▁cuirfear	-3194
▁theannta	-3195
oiliúna	-3196
▁seachtain	-3197
ue	-3198
▁seilbh	-3199
▁spreagadh	-3200
▁grianghraif	-3201
▁II	-3202
▁crua	-3203
▁bheas	-3204
éagóirí	-3205
▁rialta	-3206
▁bealach	-3207
▁Óga	-3208
▁Baineann	-3209
▁fheidhmiú	-3210
lub	-3211
▁cá	-3212
iomp	-3213
nann	-3214
tory	-3215
óigh	-3216
▁sta	-3217
▁uas	-3218
eimic	-3219
▁ainmh	-3220
▁Eachtracha	-3221
▁fág	-3222
▁teag	-3223
ivers	-3224
▁Gnéas	-3225
▁Ionad	-3226
▁polait	-3227
▁sín	-3228
▁Ainm	-3229
▁cheap	-3230
3,	-3231
▁Mura	-3232
▁feidhmiú	-3233
BC	-3234
aont	-3235
▁barr	-3236
▁Bhord	-3237
naítear	-3238
▁comhdh	-3239
éardaoin	-3240
▁cheapadh	-3241
▁ad	-3242
▁com	-3243
únais	-3244
▁siar	-3245
▁brath	-3246
▁mhaithe	-3247
▁cineálacha	-3248
21	-3249
sta	-3250
ostaí	-3251
ástáil	-3252
▁gníomhú	-3253
▁milliún	-3254
▁cuirfidh	-3255
íosp	-3256
▁dtús	-3257
▁rialachán	-3258
be	-3259
▁Níor	-3260
▁déil	-3261
▁fion	-3262
reacha	-3263
liceáil	-3264
▁dubh	-3265
laithe	-3266
▁gComh	-3267
▁damáiste	-3268
▁Straitéis	-3269
▁ceanglais	-3270
▁deiseanna	-3271
▁éifeachtach	-3272
▁nglac	-3273
eallacht	-3274
▁Moncler	-3275
aireachtaí	-3276
▁Déardaoin	-3277
ms	-3278
cho	-3279
lena	-3280
▁ola	-3281
oblacht	-3282
▁príobh	-3283
▁Féadfar	-3284
eoireacht	-3285
▁dhéanfar	-3286
▁samh	-3287
igiteach	-3288
▁acmhainní	-3289
▁ndéanfaidh	-3290
▁Soc	-3291
▁2011	-3292
▁oiread	-3293
4,	-3294
ré	-3295
iss	-3296
▁Rúis	-3297
▁foghlaim	-3298
▁tacaíochta	-3299
bhs	-3300
hon	-3301
lacháin	-3302
▁aisíoc	-3303
oimisiúin	-3304
leic	-3305
lóir	-3306
lam	-3307
▁háit	-3308
▁stiúr	-3309
▁deimhin	-3310
▁oscailte	-3311
to	-3312
▁sol	-3313
▁bronn	-3314
ruinniú	-3315
▁chuntas	-3316
are	-3317
▁Oidh	-3318
▁dhlí	-3319
▁mhéad	-3320
▁éadaí	-3321
▁Vicipéid	-3322
AT	-3323
Is	-3324
fí	-3325
▁Dún	-3326
▁marc	-3327
▁sibh	-3328
lainne	-3329
▁scolá	-3330
▁bhailiú	-3331
AM	-3332
róirí	-3333
táistí	-3334
▁Seinn	-3335
▁cúrsaí	-3336
eastaíonn	-3337
ime	-3338
ary	-3339
▁Inn	-3340
▁gal	-3341
▁dírithe	-3342
▁Ed	-3343
▁óc	-3344
▁cum	-3345
loine	-3346
▁fost	-3347
▁Foils	-3348
▁araon	-3349
▁Béarla	-3350
ghabháil	-3351
▁shábháil	-3352
▁fhoghlaim	-3353
.,	-3354
uk	-3355
▁Tú	-3356
▁lo	-3357
▁Con	-3358
▁dual	-3359
▁ceaptha	-3360
▁neamhspleách	-3361
row	-3362
oibreoir	-3363
lay	-3364
ock	-3365
chan	-3366
chas	-3367
▁fais	-3368
▁gear	-3369
▁cumar	-3370
▁suite	-3371
▁fostaithe	-3372
▁ceisteanna	-3373
▁gcuideachta	-3374
Ar	-3375
▁eit	-3376
▁Oibr	-3377
chtaí	-3378
raíodh	-3379
▁video	-3380
▁ioncam	-3381
▁Uair	-3382
▁Aistr	-3383
▁lenár	-3384
▁turas	-3385
▁gheobhaidh	-3386
▁Dr	-3387
▁ex	-3388
▁Ion	-3389
▁éard	-3390
ardach	-3391
uashon	-3392
íneáil	-3393
▁chaoi	-3394
▁sub	-3395
▁Cail	-3396
▁céad	-3397
5,	-3398
úb	-3399
ious	-3400
ánta	-3401
▁Cinn	-3402
ordach	-3403
▁Cead	-3404
▁post	-3405
áthair	-3406
▁Táimid	-3407
▁shocrú	-3408
▁tionscadail	-3409
róid	-3410
▁chosc	-3411
▁úinéir	-3412
ans	-3413
▁100%	-3414
▁Dubh	-3415
▁Uimhir	-3416
aiteachais	-3417
riotaíocht	-3418
▁oideachas	-3419
2,	-3420
▁tóir	-3421
fhoirm	-3422
▁nochta	-3423
▁sealbh	-3424
▁measúnú	-3425
iúna	-3426
luaist	-3427
▁iontu	-3428
▁oíche	-3429
▁Cánach	-3430
▁Choiste	-3431
▁Chonradh	-3432
▁comhaontú	-3433
▁doiciméid	-3434
lon	-3435
ory	-3436
▁Cliceáil	-3437
ger	-3438
▁glas	-3439
▁cláir	-3440
▁bpraghas	-3441
OS	-3442
▁gcur	-3443
▁imsc	-3444
eicniú	-3445
staint	-3446
▁dlíth	-3447
▁abairt	-3448
▁tugtha	-3449
▁tseirbhís	-3450
▁parlaimint	-3451
▁gníomhartha	-3452
ligh	-3453
▁hin	-3454
▁Sean	-3455
▁móra	-3456
▁chaill	-3457
▁gcásanna	-3458
íomhá	-3459
▁dúsh	-3460
▁líonadh	-3461
ithíochta	-3462
▁feiceáil	-3463
▁comhlachtaí	-3464
lta	-3465
res	-3466
▁Íos	-3467
bhuan	-3468
stráil	-3469
▁leighis	-3470
▁maoiniú	-3471
sanna	-3472
▁bonn	-3473
▁deon	-3474
▁spás	-3475
artlann	-3476
eaghlach	-3477
eicniúla	-3478
▁rialaithe	-3479
▁bhféadfadh	-3480
aw	-3481
dhío	-3482
rimh	-3483
▁Thos	-3484
airtear	-3485
▁pobail	-3486
▁ceithre	-3487
▁oscailt	-3488
CHT	-3489
ein	-3490
old	-3491
▁tag	-3492
oifige	-3493
▁mheán	-3494
▁stiúir	-3495
▁cuireann	-3496
rat	-3497
uinn	-3498
omhír	-3499
▁Dara	-3500
▁rach	-3501
▁beaga	-3502
▁seasamh	-3503
▁caillteanas	-3504
▁40	-3505
éala	-3506
thacht	-3507
altóirí	-3508
▁beartais	-3509
▁Scileanna	-3510
▁teaghlaigh	-3511
lama	-3512
▁ind	-3513
▁Tuarascáil	-3514
az	-3515
▁aig	-3516
▁chúl	-3517
▁shlí	-3518
éarmaí	-3519
omhairc	-3520
▁tuiscint	-3521
▁cúpla	-3522
▁mórdhíola	-3523
▁reachtaíocht	-3524
hub	-3525
▁Fhor	-3526
▁roth	-3527
▁bpróis	-3528
▁shealbh	-3529
▁Déagóirí	-3530
▁réasúnach	-3531
onna	-3532
▁Pol	-3533
dhchaí	-3534
untais	-3535
ardaigh	-3536
▁gabháil	-3537
ae	-3538
▁cod	-3539
▁mhonar	-3540
ainneoin	-3541
▁oiliúna	-3542
▁tástála	-3543
tóireachta	-3544
iceáil	-3545
▁thairiscint	-3546
▁Alt	-3547
▁tío	-3548
láine	-3549
▁solas	-3550
▁srian	-3551
▁Cúirte	-3552
▁Factory	-3553
▁tharraingt	-3554
AL	-3555
go	-3556
shaol	-3557
Moncler	-3558
únachta	-3559
▁aithean	-3560
▁oifigiúil	-3561
td	-3562
▁Theas	-3563
▁caite	-3564
▁amuigh	-3565
▁achomharc	-3566
▁iniúchadh	-3567
PS	-3568
ots	-3569
íorú	-3570
mheasa	-3571
▁comhch	-3572
▁liúntas	-3573
fhiosrúchán	-3574
▁tharlaíonn	-3575
unet	-3576
▁slí	-3577
ghabh	-3578
laoch	-3579
▁prionsab	-3580
▁múinteoirí	-3581
40	-3582
lin	-3583
roch	-3584
▁caipit	-3585
▁mhargadh	-3586
▁”	-3587
cra	-3588
ren	-3589
▁Cruach	-3590
▁bhreith	-3591
The	-3592
cam	-3593
olog	-3594
▁hath	-3595
scairt	-3596
▁ngleic	-3597
26	-3598
▁NA	-3599
▁Ro	-3600
lack	-3601
chomh	-3602
▁Comm	-3603
▁thóg	-3604
íochána	-3605
▁Leanúint	-3606
▁ghearradh	-3607
lig	-3608
▁Ex	-3609
áite	-3610
álach	-3611
íleata	-3612
▁gcomhar	-3613
▁ndaoine	-3614
▁fhaigheann	-3615
▁se	-3616
▁Eng	-3617
aille	-3618
▁flash	-3619
leathan	-3620
oghlama	-3621
▁ghearr	-3622
▁dearmad	-3623
▁Céadaoin	-3624
ráin	-3625
▁Íoc	-3626
ríbhn	-3627
▁pornhub	-3628
▁léiríonn	-3629
iii	-3630
▁1,	-3631
core	-3632
ealú	-3633
▁Pac	-3634
▁ham	-3635
▁tra	-3636
imsiú	-3637
raítear	-3638
▁comhartha	-3639
▁Choimisiúin	-3640
9,	-3641
▁óir	-3642
arthas	-3643
iúradh	-3644
▁gceann	-3645
▁teocht	-3646
raitheann	-3647
▁infheidhme	-3648
▁phróiseáil	-3649
ws	-3650
das	-3651
ias	-3652
▁dtáirgí	-3653
▁trádáil	-3654
▁staidéar	-3655
▁4.	-3656
ogra	-3657
oidh	-3658
ational	-3659
ialacha	-3660
ibhialta	-3661
▁dromchla	-3662
off	-3663
uirir	-3664
táiste	-3665
eacháin	-3666
únaithe	-3667
▁iasacht	-3668
▁uathúil	-3669
▁chatagóir	-3670
▁Siar	-3671
▁scéal	-3672
▁tairiscint	-3673
ió	-3674
eac	-3675
▁Gan	-3676
▁Súile	-3677
▁cheist	-3678
▁phlean	-3679
fhéadfaí	-3680
▁acmhainn	-3681
▁cruinniú	-3682
▁grianghraf	-3683
feadh	-3684
▁hamh	-3685
íreach	-3686
▁chorp	-3687
▁ollmhór	-3688
dá	-3689
gais	-3690
ghairm	-3691
osaint	-3692
▁cuidiú	-3693
▁ainmniú	-3694
▁beagnach	-3695
icí	-3696
▁un	-3697
aomhnú	-3698
▁Roinne	-3699
▁gcóras	-3700
▁cuspóirí	-3701
arn	-3702
▁dheon	-3703
áilithe	-3704
istíocht	-3705
▁pictiúir	-3706
▁páirtithe	-3707
."	-3708
9.	-3709
lánú	-3710
umann	-3711
▁glan	-3712
▁dearg	-3713
íchumas	-3714
▁cairde	-3715
▁gceart	-3716
scaoileadh	-3717
▁riaracháin	-3718
▁teicneolaíocht	-3719
by	-3720
ty	-3721
”.	-3722
▁mm	-3723
líona	-3724
ainéal	-3725
iúlacht	-3726
onnaithe	-3727
▁adhmaid	-3728
In	-3729
ez	-3730
▁(7)	-3731
▁Glac	-3732
▁cáin	-3733
▁cumhacht	-3734
Sp	-3735
ba	-3736
▁tí	-3737
ogle	-3738
▁arm	-3739
aíodh	-3740
▁déag	-3741
▁mhal	-3742
60	-3743
CU	-3744
lite	-3745
omhas	-3746
▁brab	-3747
eapáin	-3748
▁bréag	-3749
thaíonn	-3750
▁oiliúint	-3751
▁Oidhreachta	-3752
red	-3753
▁Eac	-3754
▁Man	-3755
▁Hard	-3756
lanadh	-3757
▁cuimhn	-3758
▁héasca	-3759
▁éigean	-3760
▁leibhéil	-3761
▁todhchaí	-3762
▁ainmnithe	-3763
▁comhoiriúnach	-3764
IM	-3765
téar	-3766
▁gáis	-3767
▁faigh	-3768
▁mothú	-3769
▁Ábhar	-3770
▁théann	-3771
▁thugtar	-3772
▁Seirbhíse	-3773
oms	-3774
achan	-3775
▁mais	-3776
▁Cathrach	-3777
▁éisteachta	-3778
/0	-3779
pi	-3780
oibh	-3781
chuid	-3782
▁Éabh	-3783
▁déantar	-3784
▁Eorpacha	-3785
▁áitreabh	-3786
ube	-3787
▁deo	-3788
▁páirtí	-3789
▁Chontae	-3790
▁labhairt	-3791
▁Éabhlóid	-3792
CO	-3793
▁díosp	-3794
▁chóras	-3795
▁orainn	-3796
▁ioncaim	-3797
▁húdaráis	-3798
▁Act	-3799
aifid	-3800
▁léar	-3801
▁nGall	-3802
▁branda	-3803
▁daltaí	-3804
▁bhreise	-3805
▁tráchtála	-3806
níomhaireacht	-3807
ame	-3808
ank	-3809
únaí	-3810
▁Céim	-3811
▁ísle	-3812
▁socrú	-3813
▁sperm	-3814
▁foirfe	-3815
Airteagal	-3816
▁struchtúr	-3817
iel	-3818
▁Dhún	-3819
▁stoc	-3820
▁malar	-3821
▁trína	-3822
▁Tabhar	-3823
▁monarcha	-3824
▁éisteacht	-3825
uirbh	-3826
▁Ciste	-3827
▁luas	-3828
▁Bille	-3829
▁grúpa	-3830
▁miotail	-3831
▁Cláraigh	-3832
▁modhanna	-3833
▁Atweetáilte	-3834
NA	-3835
ros	-3836
▁Son	-3837
▁bua	-3838
▁mba	-3839
mharc	-3840
▁asal	-3841
Údarás	-3842
▁thiom	-3843
▁caighdeáin	-3844
4.	-3845
80	-3846
EM	-3847
__	-3848
▁Il	-3849
ainte	-3850
chtáil	-3851
reoirí	-3852
▁Roghchlár	-3853
▁eagraíochtaí	-3854
▁shá	-3855
▁bosca	-3856
eananna	-3857
▁sochair	-3858
▁gairmiúla	-3859
agra	-3860
ifís	-3861
taigh	-3862
▁Tits	-3863
▁fhad	-3864
▁thrá	-3865
▁baile	-3866
▁fadhbanna	-3867
line	-3868
▁Par	-3869
▁plá	-3870
eanais	-3871
▁bhfaigh	-3872
ians	-3873
▁Slá	-3874
▁bás	-3875
ollar	-3876
eaisín	-3877
chóiriú	-3878
▁Nuacht	-3879
iúnaithe	-3880
▁ceamara	-3881
▁chóipeáil	-3882
▁eacnamaíoch	-3883
Fh	-3884
RO	-3885
sy	-3886
▁%	-3887
ink	-3888
éise	-3889
▁lín	-3890
▁mbu	-3891
▁Daon	-3892
eathrú	-3893
▁hordú	-3894
▁scríobh	-3895
chaighdeáin	-3896
▁sheachaint	-3897
6.	-3898
▁Oib	-3899
▁Ráit	-3900
▁Inter	-3901
arascálacha	-3902
100	-3903
▁Ós	-3904
▁sláint	-3905
iversity	-3906
▁sonrach	-3907
▁Ballstát	-3908
amb	-3909
mid	-3910
eictr	-3911
odáil	-3912
ordaithe	-3913
▁comhaid	-3914
▁scéalta	-3915
raic	-3916
aidió	-3917
iteamh	-3918
▁baill	-3919
▁sampla	-3920
▁hearraí	-3921
▁míreanna	-3922
▁laethanta	-3923
▁uathoibríoch	-3924
TH	-3925
low	-3926
thr	-3927
ealth	-3928
ester	-3929
▁bhua	-3930
▁romh	-3931
▁slán	-3932
tachán	-3933
laítear	-3934
▁toradh	-3935
▁socruithe	-3936
▁eagraíocht	-3937
▁traidisiúnta	-3938
8)	-3939
do	-3940
▁Mo	-3941
▁lin	-3942
▁uait	-3943
▁ligean	-3944
▁cásanna	-3945
▁farraige	-3946
▁fhoireann	-3947
▁chustaiméirí	-3948
UN	-3949
urs	-3950
▁cas	-3951
▁plé	-3952
▁sás	-3953
aillí	-3954
▁geall	-3955
eorainn	-3956
líonann	-3957
▁aithint	-3958
▁deartha	-3959
▁leabhair	-3960
▁mhalairt	-3961
▁shonraítear	-3962
ED	-3963
▁“(	-3964
áint	-3965
▁Bia	-3966
órtas	-3967
bheart	-3968
▁mBord	-3969
▁scoir	-3970
▁oifige	-3971
▁luaitear	-3972
▁nochtadh	-3973
▁tionscal	-3974
▁íocaíochtaí	-3975
súil	-3976
▁sóc	-3977
airtí	-3978
otball	-3979
▁spóirt	-3980
▁tástáil	-3981
raghsanna	-3982
▁taispeán	-3983
▁timpeall	-3984
▁Oideachas	-3985
▁aistrithe	-3986
▁Cá	-3987
dhearc	-3988
iachta	-3989
nachta	-3990
aingean	-3991
thaithe	-3992
fheidhmiú	-3993
▁gairmiúil	-3994
▁y	-3995
▁Ró	-3996
orld	-3997
▁cháin	-3998
▁dúirt	-3999
▁aimsiú	-4000
▁snáith	-4001
▁cailíní	-4002
▁tagairtí	-4003
bhuanaithe	-4004
▁forleathan	-4005
▁sábháilteachta	-4006
DF	-4007
scr	-4008
▁gu	-4009
▁cra	-4010
▁Iomp	-4011
▁sloinn	-4012
▁Tabhair	-4013
▁ab	-4014
eirt	-4015
celet	-4016
▁bord	-4017
▁níor	-4018
▁Údar	-4019
táiniam	-4020
▁spreag	-4021
▁lonnaithe	-4022
▁té	-4023
imes	-4024
▁Col	-4025
▁fis	-4026
neach	-4027
▁teasa	-4028
▁Bhoird	-4029
▁pleanála	-4030
▁himeachtaí	-4031
▁éifeachtaí	-4032
ect	-4033
omb	-4034
túla	-4035
▁Ama	-4036
▁siop	-4037
▁Europ	-4038
▁cuirtear	-4039
▁ainmhithe	-4040
▁hAirteagal	-4041
▁plaisteach	-4042
▁taispeáint	-4043
▁Aer	-4044
▁dia	-4045
ndáil	-4046
illeadh	-4047
▁Níos	-4048
▁corp	-4049
iosrúcháin	-4050
eoga	-4051
ical	-4052
▁Fion	-4053
néithe	-4054
▁ndóigh	-4055
▁Cuirtear	-4056
▁Gréasáin	-4057
▁eisiúint	-4058
▁suntasach	-4059
lad	-4060
lat	-4061
▁.—	-4062
samh	-4063
▁Car	-4064
▁2008	-4065
▁Eolas	-4066
churtha	-4067
▁comhsh	-4068
eolaithe	-4069
▁iontaofa	-4070
ky	-4071
▁5.	-4072
▁Dúin	-4073
▁fuar	-4074
iúchán	-4075
▁Bhain	-4076
▁poist	-4077
eannadh	-4078
eilleag	-4079
▁cailín	-4080
▁réitigh	-4081
▁slándála	-4082
▁chomhaontú	-4083
Uimh	-4084
▁ear	-4085
▁cuims	-4086
▁Síochána	-4087
▁Teicneola	-4088
▁phróiseas	-4089
▁Speisialta	-4090
▁íocaíochta	-4091
ltú	-4092
mer	-4093
▁liath	-4094
eabhair	-4095
▁moltaí	-4096
AD	-4097
ET	-4098
▁éin	-4099
▁caint	-4100
▁seala	-4101
úinteoir	-4102
oifigeach	-4103
▁cliceáil	-4104
oideachais	-4105
▁Stiúrthóir	-4106
▁uaireadóirí	-4107
che	-4108
iciúla	-4109
▁nuála	-4110
▁tsórt	-4111
▁sreang	-4112
▁leathnú	-4113
▁thréimhse	-4114
ód	-4115
AIR	-4116
iac	-4117
lag	-4118
úsa	-4119
▁Fran	-4120
▁clas	-4121
▁gaol	-4122
iúnacha	-4123
allstáit	-4124
▁cáilithe	-4125
▁ghabháil	-4126
▁mbealach	-4127
óisialaigh	-4128
inín	-4129
irim	-4130
thóg	-4131
▁New	-4132
▁Aibí	-4133
▁neamhdh	-4134
▁samplaí	-4135
▁fianaise	-4136
▁foireann	-4137
▁Déantóirí	-4138
▁bhainistiú	-4139
own	-4140
orts	-4141
▁fón	-4142
eorann	-4143
▁íomhá	-4144
▁Monarcha	-4145
▁Rinneadh	-4146
tac	-4147
▁oc	-4148
aoth	-4149
roid	-4150
▁buan	-4151
▁ceol	-4152
▁Foirm	-4153
▁links	-4154
▁scaip	-4155
▁tarraing	-4156
ráma	-4157
▁éirí	-4158
▁deich	-4159
▁inneal	-4160
oibrithe	-4161
ern	-4162
trá	-4163
▁rás	-4164
▁lasc	-4165
▁foráil	-4166
▁ealaíon	-4167
27	-4168
▁OÉ	-4169
▁ghr	-4170
mhach	-4171
▁Tags	-4172
▁dlit	-4173
úlacht	-4174
▁shaol	-4175
leabhar	-4176
▁coimeád	-4177
▁Hardcore	-4178
▁leithéid	-4179
AC	-4180
EC	-4181
▁ós	-4182
▁fuck	-4183
▁inár	-4184
▁éasc	-4185
▁córais	-4186
eithicil	-4187
▁Comhair	-4188
▁tuairimí	-4189
▁choinníoll	-4190
ilv	-4191
nat	-4192
ose	-4193
ímh	-4194
▁Eo	-4195
▁hu	-4196
iúnaí	-4197
▁fios	-4198
uspóir	-4199
▁saothar	-4200
▁áiteanna	-4201
▁hiarratas	-4202
▁compordach	-4203
▁riachtanas	-4204
▁friotaíocht	-4205
ste	-4206
edia	-4207
▁Tion	-4208
▁focail	-4209
▁cuspóir	-4210
Leas	-4211
eaga	-4212
ited	-4213
▁Cás	-4214
ochar	-4215
sCuntas	-4216
▁bheart	-4217
▁hábhair	-4218
eiliúradh	-4219
car	-4220
opa	-4221
▁En	-4222
▁chom	-4223
▁gabh	-4224
▁bhean	-4225
arsáide	-4226
mhachta	-4227
▁chúirt	-4228
▁dathanna	-4229
▁ndéanann	-4230
▁Oifigiúil	-4231
▁Fostaíochta	-4232
!!	-4233
eip	-4234
▁60	-4235
aidin	-4236
ington	-4237
▁cónaí	-4238
▁déantús	-4239
▁buntáistí	-4240
▁leictreonach	-4241
labh	-4242
press	-4243
tanais	-4244
▁Fearr	-4245
▁dhíth	-4246
▁docht	-4247
eachais	-4248
▁réasúnta	-4249
▁caitheamh	-4250
▁cáilíocht	-4251
▁scriosadh	-4252
áist	-4253
▁fuaime	-4254
▁Praghas	-4255
▁domhanda	-4256
▁thosaigh	-4257
▁caithfidh	-4258
▁sheachadadh	-4259
▁tuismitheoirí	-4260
fort	-4261
▁bhó	-4262
ianáin	-4263
aiceann	-4264
oimirce	-4265
▁Pobail	-4266
▁déileáil	-4267
ainmneacha	-4268
▁gcuirfear	-4269
▁parlaiminteach	-4270
▁Ár	-4271
iúnú	-4272
▁Fir	-4273
▁Min	-4274
▁vóta	-4275
únacht	-4276
▁tháirgí	-4277
▁tÚdarás	-4278
▁Faisnéise	-4279
▁cathracha	-4280
▁gcuirtear	-4281
eagraíochtaí	-4282
tur	-4283
▁Ltd	-4284
chais	-4285
othrom	-4286
▁comhar	-4287
▁tharla	-4288
▁chearta	-4289
▁aitheanta	-4290
eng	-4291
▁ardú	-4292
▁dlúth	-4293
▁mions	-4294
▁bunaíodh	-4295
▁athruithe	-4296
▁bliantúil	-4297
bhreithnithe	-4298
ey	-4299
ult	-4300
▁Tair	-4301
▁Aisce	-4302
saíocht	-4303
▁hAoine	-4304
▁pháirt	-4305
▁Fheidhm	-4306
▁réigiún	-4307
▁Thosaitheoirí	-4308
▁ardchaighdeán	-4309
IO	-4310
▁úr	-4311
agus	-4312
bair	-4313
less	-4314
▁deas	-4315
áistiú	-4316
▁bainte	-4317
leagáidí	-4318
onnmhair	-4319
reataine	-4320
▁Léiríonn	-4321
▁úsáideann	-4322
oo	-4323
aisí	-4324
▁sea	-4325
chool	-4326
▁Ghael	-4327
álaithe	-4328
▁triail	-4329
▁plandaí	-4330
son	-4331
unc	-4332
▁fr	-4333
port	-4334
▁lear	-4335
▁scag	-4336
faimid	-4337
thosca	-4338
ánacht	-4339
▁Mheán	-4340
ceannadh	-4341
▁Taighde	-4342
mheasanna	-4343
▁bpróifíl	-4344
Bh	-4345
work	-4346
▁Phen	-4347
▁tosú	-4348
▁táimid	-4349
▁gar	-4350
▁Tarr	-4351
▁Spáinn	-4352
itheacha	-4353
▁Cuirfidh	-4354
▁foghlama	-4355
▁inmheánach	-4356
lfar	-4357
▁lios	-4358
▁siopa	-4359
▁Google	-4360
▁táille	-4361
eachtadh	-4362
▁Astráil	-4363
▁Cabhair	-4364
▁cheantar	-4365
▁thuilleadh	-4366
▁chothabháil	-4367
ica	-4368
min	-4369
▁nA	-4370
▁Dia	-4371
lucht	-4372
▁chru	-4373
▁mhic	-4374
phobal	-4375
athanna	-4376
▁phraghas	-4377
▁phearsanta	-4378
SB	-4379
erg	-4380
irc	-4381
ogadh	-4382
▁Ghnó	-4383
▁Líon	-4384
▁aice	-4385
▁Video	-4386
▁Suíomh	-4387
eáchtáil	-4388
PE	-4389
▁dtu	-4390
▁mún	-4391
daíonn	-4392
▁droch	-4393
▁Dollar	-4394
▁theacht	-4395
▁Chosaint	-4396
▁fhoilsiú	-4397
▁shóisialta	-4398
▁infheistíochta	-4399
HO	-4400
iob	-4401
vis	-4402
▁fór	-4403
▁fíneáil	-4404
▁institiúidí	-4405
▁soláthróirí	-4406
TE	-4407
cy	-4408
(2)	-4409
ung	-4410
easa	-4411
máid	-4412
▁Clárú	-4413
▁Preas	-4414
▁Institiúid	-4415
ness	-4416
some	-4417
▁vol	-4418
leibh	-4419
▁Cabh	-4420
▁phost	-4421
▁Jackets	-4422
▁hamháin	-4423
▁shuiteáil	-4424
Ph	-4425
Mar	-4426
adal	-4427
mhas	-4428
▁Daoine	-4429
▁Leictr	-4430
▁cn	-4431
▁pío	-4432
▁éir	-4433
▁Cons	-4434
▁blas	-4435
chloch	-4436
▁Chéad	-4437
▁ndéanamh	-4438
▁orduithe	-4439
airgeadraí	-4440
▁dheireadh	-4441
gg	-4442
ass	-4443
isíní	-4444
▁char	-4445
▁crit	-4446
iúnais	-4447
▁Oibre	-4448
▁táillí	-4449
▁dearbhú	-4450
fhostaithe	-4451
ita	-4452
sla	-4453
▁tO	-4454
book	-4455
▁News	-4456
iompar	-4457
isiúin	-4458
▁Three	-4459
▁árachais	-4460
SE	-4461
ley	-4462
▁Nó	-4463
▁lua	-4464
táilte	-4465
▁Neamh	-4466
▁bíodh	-4467
▁difriúil	-4468
Sc	-4469
than	-4470
▁rátha	-4471
▁Sraith	-4472
▁gloine	-4473
▁Thuaidh	-4474
oideachas	-4475
▁iontaobh	-4476
▁cuideachtaí	-4477
▁inbhuanaithe	-4478
▁Bo	-4479
mach	-4480
ters	-4481
▁lámha	-4482
Uachtar	-4483
▁tairbhe	-4484
▁leathanaigh	-4485
ít	-4486
▁Gu	-4487
▁óna	-4488
igire	-4489
▁Síne	-4490
▁Éist	-4491
glaigh	-4492
▁conar	-4493
▁nuashon	-4494
▁Talmhaíochta	-4495
mus	-4496
óca	-4497
▁pion	-4498
bhaint	-4499
▁Uisce	-4500
▁fóill	-4501
▁contae	-4502
▁cuntais	-4503
▁Forbairt	-4504
▁tionscail	-4505
▁cumhachtaí	-4506
BL	-4507
▁Iris	-4508
▁Uath	-4509
théacs	-4510
▁Tugtar	-4511
▁Sábháil	-4512
▁ghnóthú	-4513
▁bpróiseas	-4514
▁caiteachas	-4515
rab	-4516
uds	-4517
ence	-4518
ithn	-4519
rish	-4520
óras	-4521
▁par	-4522
londe	-4523
▁stát	-4524
earach	-4525
▁Coinn	-4526
ireacht	-4527
▁Táirge	-4528
dhíonach	-4529
▁reáchtáil	-4530
▁tíotáiniam	-4531
NC	-4532
OL	-4533
olc	-4534
▁Iom	-4535
▁Grian	-4536
▁dlite	-4537
isteoir	-4538
▁gceang	-4539
▁neartú	-4540
aontuithe	-4541
90	-4542
ale	-4543
▁ua	-4544
▁Eag	-4545
▁dru	-4546
▁Sóis	-4547
▁oidh	-4548
erican	-4549
▁Anois	-4550
luaiste	-4551
▁luaidh	-4552
▁Ráiteas	-4553
▁Seoladh	-4554
▁pacáiste	-4555
▁Threesome	-4556
▁sheiceáil	-4557
▁thuairisc	-4558
▁sábháilteacht	-4559
een	-4560
ush	-4561
irte	-4562
▁sli	-4563
▁ceap	-4564
▁imeacht	-4565
eachtanna	-4566
▁rachaidh	-4567
▁thagairt	-4568
luach	-4569
▁imní	-4570
éimhsí	-4571
▁Creid	-4572
▁Críos	-4573
▁dócha	-4574
▁Teanga	-4575
▁fhadhb	-4576
▁pointe	-4577
▁riosca	-4578
áideacha	-4579
▁chontae	-4580
▁teoranta	-4581
▁bhforáiltear	-4582
ife	-4583
ula	-4584
vel	-4585
raidh	-4586
▁athsh	-4587
▁bhail	-4588
oigeartú	-4589
▁English	-4590
▁smaointe	-4591
CD	-4592
▁sn	-4593
news	-4594
annaí	-4595
▁crios	-4596
▁cárta	-4597
▁dtreo	-4598
▁scáil	-4599
▁trast	-4600
▁bpobal	-4601
▁chláir	-4602
▁méadar	-4603
▁bpointe	-4604
▁lárnach	-4605
▁substaint	-4606
▁chomhlacht	-4607
nad	-4608
rag	-4609
van	-4610
inge	-4611
▁Cáil	-4612
▁breá	-4613
aingniú	-4614
▁mBaile	-4615
▁fhoráil	-4616
aighdeánach	-4617
▁éagsúlacht	-4618
itheoireachta	-4619
▁talmhaíochta	-4620
▁III	-4621
▁mis	-4622
adail	-4623
▁2007	-4624
▁Iarra	-4625
▁gcroí	-4626
▁difear	-4627
▁Phoiblí	-4628
▁stóráil	-4629
▁comhréir	-4630
oinbhinsiún	-4631
▁University	-4632
antas	-4633
eiste	-4634
íosaí	-4635
▁Serv	-4636
▁Treo	-4637
▁meáin	-4638
▁grúpaí	-4639
▁pinsin	-4640
▁dréacht	-4641
▁National	-4642
28	-4643
way	-4644
luas	-4645
▁cor	-4646
▁stáit	-4647
aiceach	-4648
▁thuras	-4649
▁déanann	-4650
▁muirear	-4651
▁ghairmiúil	-4652
lor	-4653
real	-4654
reach	-4655
▁beagán	-4656
▁líonra	-4657
rúduithe	-4658
▁dteannta	-4659
▁ndéanfaí	-4660
▁mhonarcha	-4661
▁Ís	-4662
oise	-4663
ating	-4664
▁Play	-4665
▁Iodáil	-4666
▁íoctha	-4667
▁beartas	-4668
mhachtain	-4669
▁Mheiriceá	-4670
▁Mórdhíola	-4671
yd	-4672
bas	-4673
▁720	-4674
▁Mic	-4675
▁áil	-4676
▁—(1)	-4677
▁Páirt	-4678
▁chabh	-4679
▁tsuim	-4680
▁cinntí	-4681
▁greann	-4682
▁leigheas	-4683
▁liúntais	-4684
35	-4685
sm	-4686
job	-4687
oss	-4688
▁Teach	-4689
▁ceard	-4690
ealaíon	-4691
▁cheadú	-4692
▁gCúirt	-4693
▁Cailíní	-4694
▁choiste	-4695
▁pinsean	-4696
raíochtaí	-4697
pháirtíocht	-4698
);	-4699
ád	-4700
ere	-4701
mais	-4702
reag	-4703
scáil	-4704
▁allmh	-4705
▁cóimh	-4706
▁sráid	-4707
▁éascú	-4708
▁faireach	-4709
▁taisteal	-4710
fac	-4711
▁fá	-4712
▁re	-4713
▁abh	-4714
▁bac	-4715
chair	-4716
fháil	-4717
▁athch	-4718
▁casta	-4719
▁coiste	-4720
oirmeasc	-4721
▁Réigiún	-4722
▁sibhialta	-4723
▁fhorálacha	-4724
▁infheistíocht	-4725
IC	-4726
SC	-4727
mha	-4728
▁Bí	-4729
▁Cóir	-4730
ínithe	-4731
▁pobal	-4732
ónaithe	-4733
▁chothú	-4734
▁Dearadh	-4735
▁Gearmáin	-4736
▁fuarthas	-4737
▁meáchain	-4738
▁teilifís	-4739
AP	-4740
fho	-4741
iúl	-4742
/200	-4743
▁orm	-4744
earsan	-4745
▁sruth	-4746
íocháin	-4747
▁bealaí	-4748
▁ghrúpa	-4749
orparáide	-4750
▁ciontach	-4751
▁ceadaithe	-4752
▁chuirfidh	-4753
▁gníomhach	-4754
▁Ais	-4755
▁Barr	-4756
udsman	-4757
▁chult	-4758
▁scáth	-4759
▁láimhe	-4760
▁maoine	-4761
▁scaoileadh	-4762
▁timpeallacht	-4763
inní	-4764
rist	-4765
▁log	-4766
othar	-4767
▁Tras	-4768
▁ithe	-4769
iteáin	-4770
▁dramh	-4771
▁feirm	-4772
▁gcaoi	-4773
▁linbh	-4774
▁aeráide	-4775
▁ealaíne	-4776
▁pictiúr	-4777
▁príomha	-4778
▁laethúil	-4779
▁éineacht	-4780
▁tromchúis	-4781
500	-4782
any	-4783
nasc	-4784
▁Chlár	-4785
▁Réamh	-4786
▁ceist	-4787
▁thiar	-4788
eathach	-4789
▁conradh	-4790
olaíochta	-4791
▁Cuireadh	-4792
▁sonracha	-4793
-0	-4794
IF	-4795
for	-4796
kin	-4797
top	-4798
ower	-4799
▁sty	-4800
▁caith	-4801
▁cúrsa	-4802
eachtar	-4803
▁beatha	-4804
▁cúirte	-4805
▁cabhair	-4806
▁deacair	-4807
▁tionscnamh	-4808
▁macasamhail	-4809
▁tabharfaidh	-4810
▁rannpháirtíocht	-4811
65	-4812
eat	-4813
ouse	-4814
▁gné	-4815
▁Ansin	-4816
▁iarbh	-4817
taítear	-4818
▁loings	-4819
▁smacht	-4820
▁stádas	-4821
▁rathúil	-4822
▁láithreáin	-4823
▁scéimeanna	-4824
45	-4825
ced	-4826
ains	-4827
aisl	-4828
raon	-4829
ridh	-4830
▁tur	-4831
eilim	-4832
ublic	-4833
▁Euro	-4834
▁dtar	-4835
▁Bónas	-4836
▁Mhuir	-4837
phobail	-4838
▁gearán	-4839
▁maoirs	-4840
▁taifid	-4841
liúcháin	-4842
▁Meaisín	-4843
▁idirlín	-4844
▁uaireanta	-4845
INT	-4846
▁@1	-4847
▁Hot	-4848
▁dhí	-4849
▁mil	-4850
olasaí	-4851
▁tirim	-4852
▁ócáid	-4853
▁gluaiseacht	-4854
íc	-4855
▁2,	-4856
thais	-4857
▁2000	-4858
saithe	-4859
▁taisce	-4860
▁thosach	-4861
▁Uachtarán	-4862
SS	-4863
▁en	-4864
orth	-4865
▁Afr	-4866
▁Sín	-4867
▁urrú	-4868
bhaigh	-4869
éileamh	-4870
▁fhaigh	-4871
▁hiarra	-4872
▁páipéar	-4873
eilleagar	-4874
▁méideanna	-4875
▁bainistíochta	-4876
pt	-4877
▁AG	-4878
▁Sl	-4879
▁Osc	-4880
▁Tos	-4881
▁fola	-4882
▁sogh	-4883
▁stop	-4884
▁Black	-4885
▁bhall	-4886
▁gcoit	-4887
ionanna	-4888
▁gheimh	-4889
mbudsman	-4890
▁Coláiste	-4891
▁scoláirí	-4892
▁céimeanna	-4893
".	-4894
RE	-4895
zz	-4896
ipt	-4897
rand	-4898
Leasú	-4899
intir	-4900
▁béim	-4901
▁ioma	-4902
eisial	-4903
▁Stair	-4904
▁bainc	-4905
▁stáin	-4906
▁údarú	-4907
achtair	-4908
seachas	-4909
▁meascán	-4910
▁comhlíonadh	-4911
ST	-4912
ax	-4913
ls	-4914
▁gair	-4915
▁choir	-4916
▁litir	-4917
▁Gharda	-4918
▁tosach	-4919
ruinnithe	-4920
▁Tarraing	-4921
▁folaíonn	-4922
▁Monaróirí	-4923
▁tSeirbhís	-4924
▁chiallaíonn	-4925
▁teorainneacha	-4926
▁rannpháirteach	-4927
ten	-4928
▁bl	-4929
form	-4930
phoist	-4931
reithe	-4932
▁eagrú	-4933
▁scéime	-4934
▁leithligh	-4935
▁tseachtain	-4936
▁Sm	-4937
CUID	-4938
▁dhó	-4939
istan	-4940
▁Crua	-4941
▁gúna	-4942
aistriú	-4943
▁ndearna	-4944
chóirithe	-4945
▁onnmhair	-4946
▁feithiclí	-4947
▁trédhearc	-4948
CP	-4949
pro	-4950
aicí	-4951
king	-4952
reac	-4953
wood	-4954
ltóir	-4955
uaill	-4956
úsaem	-4957
eáilte	-4958
léiriú	-4959
réithe	-4960
▁gcead	-4961
▁shaor	-4962
▁Cuirfear	-4963
▁chathair	-4964
▁rialtais	-4965
cad	-4966
ách	-4967
igit	-4968
▁Bar	-4969
▁Teo	-4970
ories	-4971
▁dtos	-4972
▁inti	-4973
▁cúraim	-4974
eithiclí	-4975
▁Cultúir	-4976
▁Iompair	-4977
aitheacha	-4978
▁Tuairisc	-4979
▁tionscla	-4980
▁teagmhála	-4981
▁deireanach	-4982
▁príobháideach	-4983
▁And	-4984
▁Sch	-4985
aighn	-4986
▁bean	-4987
▁ciorc	-4988
▁ceimic	-4989
▁dheonú	-4990
official	-4991
▁Tuaithe	-4992
▁Coimirce	-4993
▁custaiméirí	-4994
3)	-4995
.”.	-4996
uch	-4997
Oifig	-4998
iotal	-4999
▁óige	-5000
▁barán	-5001
▁charm	-5002
▁thiontú	-5003
▁theastaíonn	-5004
▁Ghníomhaireacht	-5005
EU	-5006
dhó	-5007
out	-5008
léid	-5009
▁rub	-5010
▁Deir	-5011
▁Dearg	-5012
▁Whats	-5013
▁iarbhír	-5014
▁oibríonn	-5015
▁Breataine	-5016
▁Íoslódáil	-5017
▁feidhmíocht	-5018
▁ghinearálta	-5019
▁uiscedhíonach	-5020
99	-5021
RA	-5022
oft	-5023
láth	-5024
ártaí	-5025
▁Moms	-5026
▁bónas	-5027
▁sheol	-5028
▁chuaigh	-5029
▁leasanna	-5030
▁sheirbhísí	-5031
ban	-5032
úlra	-5033
cking	-5034
▁rian	-5035
▁scor	-5036
▁Leigh	-5037
▁Chiste	-5038
▁éagsúil	-5039
▁coileach	-5040
▁Roghnaigh	-5041
▁gcoitinne	-5042
▁Fostaíocht	-5043
ki	-5044
ÍO	-5045
mlig	-5046
▁srl	-5047
earsa	-5048
▁Ailt	-5049
▁Fhrainc	-5050
éireachta	-5051
▁Ghearmáin	-5052
▁limistéir	-5053
▁táirgeadh	-5054
▁Iarscríbhinn	-5055
.)	-5056
▁Mol	-5057
▁tob	-5058
eadán	-5059
icéid	-5060
alartú	-5061
▁Cruth	-5062
▁Solas	-5063
▁Bliain	-5064
▁scríofa	-5065
▁Idirlíon	-5066
▁cúiseanna	-5067
▁feistithe	-5068
▁aitheantas	-5069
du	-5070
eor	-5071
pid	-5072
▁dtír	-5073
▁feas	-5074
éirigh	-5075
▁Irish	-5076
▁Cruinn	-5077
▁Health	-5078
▁codanna	-5079
▁mhuirear	-5080
▁Tionscail	-5081
▁cumarsáide	-5082
▁tábhachtaí	-5083
uathoibríoch	-5084
ute	-5085
▁er	-5086
rais	-5087
daigh	-5088
▁carb	-5089
▁géar	-5090
iailiú	-5091
▁Córas	-5092
aiteoir	-5093
▁Brunet	-5094
liteanas	-5095
▁Conradh	-5096
▁ranganna	-5097
▁tiomanta	-5098
▁faoiseamh	-5099
IA	-5100
ama	-5101
▁Gl	-5102
ighn	-5103
perien	-5104
▁Duine	-5105
▁díriú	-5106
▁hoibr	-5107
▁chostas	-5108
▁oifigigh	-5109
aintréithe	-5110
▁thuiscint	-5111
▁creidmheasa	-5112
▁Bainistíochta	-5113
aer	-5114
inc	-5115
aolú	-5116
roim	-5117
scaí	-5118
▁Bhu	-5119
▁cal	-5120
altas	-5121
▁ríth	-5122
aispeá	-5123
▁Fógra	-5124
▁Shaor	-5125
▁Cumann	-5126
9)	-5127
Un	-5128
ark	-5129
era	-5130
▁aeir	-5131
▁tslí	-5132
bailte	-5133
iamond	-5134
▁saibh	-5135
▁spéis	-5136
aidrimh	-5137
▁nuacht	-5138
▁tugann	-5139
▁chairde	-5140
▁faighte	-5141
▁Údaráis	-5142
oimisinéir	-5143
▁difríocht	-5144
▁sócmhainní	-5145
▁z	-5146
ifr	-5147
atrú	-5148
inch	-5149
▁(8)	-5150
reast	-5151
▁cobh	-5152
▁shárú	-5153
▁éadrom	-5154
▁Domhanda	-5155
▁achtachán	-5156
▁ngairtear	-5157
▁bhfianaise	-5158
▁comhionann	-5159
▁dteangacha	-5160
CB	-5161
tra	-5162
▁IP	-5163
▁pá	-5164
iúir	-5165
oláir	-5166
▁Banc	-5167
▁Iasc	-5168
▁euro	-5169
▁Fuinn	-5170
bhearta	-5171
▁amhras	-5172
▁saille	-5173
▁sochar	-5174
▁sreabh	-5175
▁tionón	-5176
▁uirlisí	-5177
▁Áirítear	-5178
namaíochta	-5179
▁Úsáidtear	-5180
▁Comhshaoil	-5181
▁bronntanas	-5182
▁praghsanna	-5183
TS	-5184
íog	-5185
airc	-5186
outh	-5187
▁pro	-5188
abhta	-5189
▁toil	-5190
▁príos	-5191
▁uaidh	-5192
▁ceapadh	-5193
▁cuardach	-5194
dhóthanach	-5195
▁clasaiceach	-5196
▁0.	-5197
▁pol	-5198
ileog	-5199
▁mban	-5200
nachar	-5201
ostóir	-5202
eálacha	-5203
áireamh	-5204
▁chúram	-5205
onraithe	-5206
oirgneamh	-5207
▁féachana	-5208
▁romhainn	-5209
▁thaifead	-5210
▁Bailiúchán	-5211
▁ríthábhachtach	-5212
LE	-5213
ix	-5214
ada	-5215
ike	-5216
▁80	-5217
lithe	-5218
▁2006	-5219
eagasc	-5220
▁titim	-5221
bhsálaí	-5222
▁Dúiche	-5223
▁chúrsa	-5224
unreacht	-5225
▁Náisiún	-5226
▁feithicle	-5227
▁próiseála	-5228
",	-5229
70	-5230
Com	-5231
ógó	-5232
▁Lit	-5233
▁ail	-5234
▁Mhaigh	-5235
eolaíoch	-5236
▁critéir	-5237
▁taistil	-5238
aitheacht	-5239
▁Pleanála	-5240
▁dtíortha	-5241
dhá	-5242
▁CE	-5243
iscí	-5244
aidhm	-5245
inger	-5246
▁chon	-5247
▁díls	-5248
áipéir	-5249
▁2019;	-5250
▁Chorc	-5251
ealladh	-5252
eánacha	-5253
▁Afraic	-5254
▁Cosanta	-5255
▁bhféadfaí	-5256
▁teicniúla	-5257
▁dtabharfar	-5258
pháirtíochta	-5259
▁bhraitheann	-5260
ked	-5261
pol	-5262
róir	-5263
ánaí	-5264
▁Sin	-5265
▁Tóg	-5266
▁cúl	-5267
▁thú	-5268
foirt	-5269
nasta	-5270
▁mach	-5271
▁phlé	-5272
ánacha	-5273
▁solúb	-5274
saítear	-5275
▁rialtas	-5276
▁tsraith	-5277
▁deontais	-5278
▁thionscnamh	-5279
▁ghníomhaíochtaí	-5280
oph	-5281
ors	-5282
ghné	-5283
áthú	-5284
▁thrí	-5285
▁Gairm	-5286
yCuntas	-5287
▁Tháinig	-5288
▁chórais	-5289
▁cultúrtha	-5290
▁gCoimisinéirí	-5291
ti	-5292
ater	-5293
aisce	-5294
eamar	-5295
taobh	-5296
teurs	-5297
▁chum	-5298
▁Lucht	-5299
▁athnu	-5300
▁gcinn	-5301
airdeas	-5302
undation	-5303
▁cónaithe	-5304
▁teaghlach	-5305
cks	-5306
eur	-5307
▁RT	-5308
bhrú	-5309
▁Beo	-5310
▁org	-5311
▁aist	-5312
▁breo	-5313
ltóirí	-5314
▁ghlanadh	-5315
▁réigiúin	-5316
▁staidéir	-5317
▁dleathach	-5318
▁mbainfidh	-5319
▁tithíochta	-5320
▁athbhreithnithe	-5321
bol	-5322
gar	-5323
ole	-5324
▁pais	-5325
abraic	-5326
ataisí	-5327
roinnt	-5328
▁fheic	-5329
nálacha	-5330
thabhála	-5331
▁cartlann	-5332
▁huathoibríoch	-5333
▁teicneolaíochta	-5334
AO	-5335
oe	-5336
ya	-5337
▁70	-5338
túin	-5339
imhne	-5340
oscaí	-5341
▁Post	-5342
▁bhrú	-5343
labhra	-5344
▁Sráid	-5345
▁spins	-5346
iontáil	-5347
▁Christ	-5348
▁láimhs	-5349
▁mBéarla	-5350
▁allmhair	-5351
▁Bhallstáit	-5352
▁úsáideoirí	-5353
▁monatóireacht	-5354
▁leordhóthanach	-5355
con	-5356
phr	-5357
▁Lé	-5358
▁fú	-5359
ilip	-5360
▁suí	-5361
▁Dáta	-5362
▁thír	-5363
▁nádúr	-5364
▁bunúsach	-5365
▁dheimhniú	-5366
▁teangacha	-5367
uirearaithe	-5368
▁tionscnaimh	-5369
aipe	-5370
úram	-5371
ainmh	-5372
ction	-5373
▁Lios	-5374
▁béil	-5375
▁gcos	-5376
▁Céard	-5377
▁Rátáil	-5378
▁chaith	-5379
▁siopaí	-5380
▁deontas	-5381
acmhainní	-5382
▁Amateurs	-5383
▁Ceannais	-5384
▁tábhacht	-5385
▁roghnaigh	-5386
▁ardchaighdeáin	-5387
lar	-5388
eisc	-5389
▁téa	-5390
fimid	-5391
eachas	-5392
▁muinín	-5393
▁tugtar	-5394
fhreagra	-5395
▁fuinneamh	-5396
▁reachtúil	-5397
▁sealadach	-5398
▁bhfaighidh	-5399
▁inmhuirearaithe	-5400
77	-5401
ww	-5402
ota	-5403
News	-5404
aoch	-5405
ráite	-5406
▁toir	-5407
▁Ríomh	-5408
▁Super	-5409
laíocht	-5410
▁gcruth	-5411
oiciméad	-5412
▁Infheist	-5413
▁dochtúir	-5414
▁caidreamh	-5415
▁chinnfidh	-5416
▁incháilithe	-5417
——	-5418
iff	-5419
más	-5420
reen	-5421
lóidh	-5422
▁hoib	-5423
▁sárú	-5424
ráitis	-5425
▁Imirt	-5426
▁Turas	-5427
▁fíorú	-5428
▁iomlá	-5429
▁fiosrúcháin	-5430
CA	-5431
Fo	-5432
pl	-5433
lah	-5434
mat	-5435
ital	-5436
scne	-5437
tube	-5438
▁Tír	-5439
▁red	-5440
thóra	-5441
éasán	-5442
▁Edit	-5443
éaltaí	-5444
▁Rialú	-5445
▁ceoil	-5446
ideanna	-5447
liúchán	-5448
▁gcuirfí	-5449
▁Achtanna	-5450
▁bhféadfaidh	-5451
29	-5452
ron	-5453
lass	-5454
nigh	-5455
▁chuí	-5456
▁Léigh	-5457
▁chumh	-5458
▁gream	-5459
▁vitim	-5460
ionannas	-5461
▁dhearadh	-5462
▁dualgais	-5463
▁iarrthóir	-5464
▁leanfaidh	-5465
▁treoracha	-5466
▁bhfoireann	-5467
▁feidhmíochta	-5468
▁rannpháirtithe	-5469
pm	-5470
ezel	-5471
olún	-5472
▁clá	-5473
ugadh	-5474
▁cala	-5475
▁eisc	-5476
▁scála	-5477
▁fostaí	-5478
▁intinn	-5479
▁Riachta	-5480
▁chiontú	-5481
▁mholadh	-5482
Uachtarán	-5483
▁mhaoiniú	-5484
▁Bhallstát	-5485
▁bhféadfar	-5486
▁Cuideachta	-5487
▁Oireachtas	-5488
▁críochnaithe	-5489
▁héifeachtach	-5490
55	-5491
SO	-5492
▁ú	-5493
úine	-5494
▁Dan	-5495
▁Net	-5496
bians	-5497
▁2003	-5498
▁hArd	-5499
▁Phort	-5500
▁strap	-5501
uairimí	-5502
▁feistí	-5503
▁iomarc	-5504
namaíocha	-5505
▁Poblacht	-5506
▁Leasaítear	-5507
PR	-5508
tv	-5509
ful	-5510
ric	-5511
tam	-5512
idil	-5513
▁alc	-5514
▁res	-5515
iness	-5516
▁shás	-5517
eanada	-5518
ochair	-5519
▁gcéanna	-5520
▁thalamh	-5521
▁chomhaltaí	-5522
▁ríomhphost	-5523
▁Aistriúchán	-5524
▁leictreachais	-5525
DA	-5526
▁pas	-5527
▁ran	-5528
▁Luain	-5529
▁gcumas	-5530
▁dleacht	-5531
▁speisial	-5532
▁Iarratais	-5533
▁leasaítear	-5534
▁thuismitheoirí	-5535
íd	-5536
▁6.	-5537
▁90	-5538
▁gl	-5539
▁500	-5540
▁EUR	-5541
▁Stá	-5542
iarna	-5543
iúnas	-5544
óiste	-5545
▁earr	-5546
▁ngnó	-5547
▁phac	-5548
Aibreán	-5549
aisleán	-5550
▁Cíocha	-5551
▁Limist	-5552
bhunaithe	-5553
▁asbhaint	-5554
▁dúshláin	-5555
▁fhaightear	-5556
48	-5557
▁ma	-5558
ices	-5559
ochaí	-5560
ology	-5561
▁cíos	-5562
▁thac	-5563
ioncam	-5564
éigean	-5565
lachais	-5566
▁Tagann	-5567
▁threoir	-5568
▁leasuithe	-5569
▁bhliantúil	-5570
▁Macasamhail	-5571
▁Uathoibríoch	-5572
Gh	-5573
▁dé	-5574
ebook	-5575
ianna	-5576
rótac	-5577
ónais	-5578
aitist	-5579
chéime	-5580
mhaith	-5581
piacha	-5582
▁cistí	-5583
▁fiche	-5584
▁Cineál	-5585
▁Spóirt	-5586
▁ghnéas	-5587
▁pointí	-5588
▁éilimh	-5589
onarthaí	-5590
▁galánta	-5591
▁imscrúdú	-5592
▁fhianaise	-5593
▁múinteoir	-5594
mo	-5595
HAR	-5596
xxx	-5597
lisí	-5598
ruis	-5599
▁Mam	-5600
▁tap	-5601
▁carr	-5602
▁hach	-5603
ualgas	-5604
▁Bréag	-5605
▁Dúirt	-5606
▁fhoir	-5607
▁haois	-5608
▁tógála	-5609
omhaltóirí	-5610
▁bainistiú	-5611
▁tarraingt	-5612
▁Cumarsáide	-5613
▁Teaghlaigh	-5614
▁saincheisteanna	-5615
zh	-5616
aíl	-5617
iod	-5618
ames	-5619
iúirí	-5620
onclú	-5621
▁bpost	-5622
▁comhad	-5623
experien	-5624
▁Cuimsiú	-5625
▁teagaisc	-5626
▁Caithfidh	-5627
▁treoirlínte	-5628
▁chuntasaíochta	-5629
age	-5630
eer	-5631
ailí	-5632
uman	-5633
▁Dhá	-5634
▁Ome	-5635
eimhl	-5636
iallu	-5637
▁aire	-5638
▁dian	-5639
▁cearn	-5640
oiciméid	-5641
reagairt	-5642
▁uachtar	-5643
▁catagóir	-5644
▁chaomhnú	-5645
▁Ciallaíonn	-5646
88	-5647
▁Lo	-5648
▁pu	-5649
únadh	-5650
▁Féad	-5651
▁Star	-5652
▁réad	-5653
▁soic	-5654
eachán	-5655
líocht	-5656
▁saill	-5657
▁tsamh	-5658
fhéadfá	-5659
thaíodh	-5660
▁pháirtí	-5661
ialluíonn	-5662
▁nglacfaí	-5663
▁táirgthe	-5664
experienced	-5665
reithiúnais	-5666
▁Ginearálta	-5667
▁spriocanna	-5668
cc	-5669
chn	-5670
▁Ré	-5671
▁rú	-5672
ford	-5673
lata	-5674
sage	-5675
▁alú	-5676
▁tae	-5677
oilse	-5678
▁tine	-5679
▁caill	-5680
▁eagar	-5681
leagáid	-5682
▁moladh	-5683
▁chúrsaí	-5684
▁shláinte	-5685
▁dlíthiúil	-5686
iew	-5687
ugh	-5688
▁CH	-5689
▁Rú	-5690
▁ló	-5691
▁sú	-5692
cadh	-5693
óidí	-5694
▁shiúl	-5695
▁Samhna	-5696
▁ionaid	-5697
▁tagtha	-5698
▁Liúntas	-5699
▁dtionsc	-5700
▁míleata	-5701
▁scríbhn	-5702
▁Áitiúla	-5703
▁dhearbhú	-5704
▁greannmhar	-5705
▁Inexperienced	-5706
▁Teas	-5707
▁mara	-5708
▁Charm	-5709
éireacht	-5710
▁bualadh	-5711
chúiseamh	-5712
▁cúramach	-5713
▁chuirfear	-5714
▁corpraithe	-5715
▁sheachtain	-5716
-2	-5717
LAI	-5718
▁Mag	-5719
▁Iarr	-5720
▁chor	-5721
▁mhol	-5722
▁tuig	-5723
úcháin	-5724
▁Chill	-5725
▁creat	-5726
▁Dúradh	-5727
leachtas	-5728
▁shainch	-5729
▁suimiúil	-5730
▁thástáil	-5731
▁chóireáil	-5732
▁cruthaithe	-5733
▁Eacnamaíoch	-5734
.0	-5735
33	-5736
ampa	-5737
ance	-5738
ding	-5739
over	-5740
ting	-5741
ínse	-5742
▁gov	-5743
▁mhu	-5744
oimhd	-5745
órtáil	-5746
▁tógáil	-5747
▁brabúis	-5748
▁lascaine	-5749
▁mhargaidh	-5750
▁pleananna	-5751
▁Scoileanna	-5752
▁díolacháin	-5753
▁foirmeacha	-5754
▁mheasúnachta	-5755
▁ríomhaireachta	-5756
ket	-5757
ven	-5758
▁35	-5759
oimre	-5760
scéal	-5761
umais	-5762
uncil	-5763
▁nóim	-5764
▁seic	-5765
▁Eagra	-5766
▁chuma	-5767
▁polas	-5768
scartha	-5769
▁gréine	-5770
▁hoifig	-5771
eirbhísí	-5772
▁mbliain	-5773
▁stylish	-5774
▁meaisíní	-5775
▁ceadúnais	-5776
▁chruinniú	-5777
▁meicniúil	-5778
▁gcustaiméirí	-5779
▁ghníomhaíocht	-5780
▁gníomhaíochta	-5781
Am	-5782
SM	-5783
ef	-5784
bhu	-5785
vol	-5786
▁IV	-5787
aice	-5788
dóir	-5789
áine	-5790
▁mad	-5791
▁Feir	-5792
▁erot	-5793
aitheora	-5794
ealaíona	-5795
ireachta	-5796
▁Chorcaí	-5797
▁aimsire	-5798
▁chomhth	-5799
▁gcríoch	-5800
▁bunúsacha	-5801
▁nuashonrú	-5802
▁chailleadh	-5803
▁Grianchloch	-5804
75	-5805
SPC	-5806
ORPA	-5807
▁Mná	-5808
aradh	-5809
aíola	-5810
▁tasc	-5811
▁mhona	-5812
▁Rómáin	-5813
▁Sainch	-5814
orgáiste	-5815
▁phríobh	-5816
▁dhiailiú	-5817
▁digiteach	-5818
▁cruinnithe	-5819
▁Éireannacha	-5820
▁caighdeánach	-5821
CS	-5822
tad	-5823
▁45	-5824
▁Pl	-5825
▁Ta	-5826
ghrá	-5827
▁Big	-5828
▁fír	-5829
eilig	-5830
icket	-5831
istir	-5832
nróid	-5833
úraim	-5834
▁mhná	-5835
thaigh	-5836
▁Rolex	-5837
▁World	-5838
▁ainmn	-5839
▁tábla	-5840
rileach	-5841
▁Taispeán	-5842
pháirtithe	-5843
▁scaipeadh	-5844
▁úsáideoir	-5845
▁prionsabal	-5846
▁ríomhphoist	-5847
▁ae	-5848
▁Bog	-5849
▁(1),	-5850
▁long	-5851
▁séas	-5852
áipéis	-5853
▁ranga	-5854
fficial	-5855
oiteann	-5856
leathach	-5857
▁inniúil	-5858
▁sloinne	-5859
▁Uaireanta	-5860
▁éifeachta	-5861
▁fhorléiriú	-5862
▁Soláthraíonn	-5863
ele	-5864
ribh	-5865
aoire	-5866
eagar	-5867
readh	-5868
▁Óige	-5869
▁Nuála	-5870
▁aicme	-5871
▁easpa	-5872
▁dualgas	-5873
▁suiteáil	-5874
▁craiceann	-5875
▁oibreacha	-5876
▁sealbhóir	-5877
▁gcomhthéacs	-5878
éire	-5879
▁dTu	-5880
cháil	-5881
▁Coir	-5882
▁Comp	-5883
▁Liom	-5884
▁marg	-5885
uirbhé	-5886
▁Taois	-5887
▁prait	-5888
▁watch	-5889
▁Trealamh	-5890
▁mhíchumas	-5891
▁dhiúscairt	-5892
▁saoránaigh	-5893
▁seachadadh	-5894
▁thiocfaidh	-5895
:00	-5896
saíd	-5897
áire	-5898
▁Bán	-5899
▁Cor	-5900
▁cuim	-5901
▁sine	-5902
istant	-5903
▁beirt	-5904
▁teicn	-5905
▁buiséad	-5906
eirbheáil	-5907
▁saoráidí	-5908
▁chailleann	-5909
▁Tabharfaidh	-5910
▁prionsabail	-5911
▁gníomhaíocht	-5912
UK	-5913
loí	-5914
ocs	-5915
dúil	-5916
leac	-5917
▁Dath	-5918
▁Tuir	-5919
▁dhír	-5920
▁labh	-5921
taíonn	-5922
▁seans	-5923
▁íocadh	-5924
▁fhágann	-5925
▁pháistí	-5926
léireofar	-5927
▁Meiriceá	-5928
▁oibrithe	-5929
▁chríochnú	-5930
▁dhaingniú	-5931
▁tomhaltóirí	-5932
▁cathaoirleach	-5933
▁comhpháirteanna	-5934
46	-5935
fas	-5936
▁Cal	-5937
▁fig	-5938
▁tiú	-5939
▁lógó	-5940
dhealú	-5941
▁creim	-5942
▁Taithí	-5943
▁bpáirt	-5944
eannaigh	-5945
▁Tástáil	-5946
ashington	-5947
▁Bréagáin	-5948
▁Bunaíodh	-5949
▁dearfach	-5950
▁leictreo	-5951
▁shealbhú	-5952
▁chomhlánú	-5953
▁choigeartú	-5954
▁cialluíonn	-5955
▁fheithicil	-5956
▁ionadaithe	-5957
FA	-5958
-19	-5959
For	-5960
fer	-5961
▁(2	-5962
aras	-5963
eifr	-5964
mraí	-5965
▁ghin	-5966
aiméad	-5967
allamh	-5968
aoilte	-5969
gartha	-5970
lianta	-5971
▁aonad	-5972
▁bháis	-5973
thachta	-5974
▁Cosaint	-5975
▁foilsíodh	-5976
▁teilifíse	-5977
▁Leabharlann	-5978
▁iascaireachta	-5979
▁Uí	-5980
ibhe	-5981
illa	-5982
túir	-5983
▁Cód	-5984
▁Tran	-5985
▁féid	-5986
ógairt	-5987
▁bezel	-5988
▁hidir	-5989
▁Blonde	-5990
▁Láithr	-5991
▁Raidió	-5992
▁daonna	-5993
▁clúdach	-5994
▁Rialacha	-5995
▁bhfolach	-5996
▁chailíní	-5997
▁ordaithe	-5998
▁snáithín	-5999
▁Gluaiseacht	-6000
▁hainmneacha	-6001
▁comhoiriúnacht	-6002
EL	-6003
eh	-6004
my	-6005
ghná	-6006
▁Corp	-6007
▁Croí	-6008
▁punt	-6009
▁trád	-6010
inéirí	-6011
▁Bosca	-6012
▁Airgid	-6013
▁cliste	-6014
........	-6015
▁ceangal	-6016
▁gCoiste	-6017
▁margaidh	-6018
▁suimeanna	-6019
▁athchóiriú	-6020
▁comhshaoil	-6021
▁foirgneamh	-6022
▁stiúrthóir	-6023
CT	-6024
MA	-6025
Mh	-6026
cu	-6027
WHO	-6028
por	-6029
▁34	-6030
éist	-6031
▁Eas	-6032
▁sil	-6033
arcel	-6034
omair	-6035
▁acad	-6036
▁seol	-6037
▁Leasa	-6038
▁bhéal	-6039
▁cloch	-6040
▁troid	-6041
▁foláir	-6042
▁Threoir	-6043
▁teagasc	-6044
▁Domhnach	-6045
▁mhalartú	-6046
▁stáisiún	-6047
▁cheadúnas	-6048
▁oibríocht	-6049
aireachtáil	-6050
▁Achomhairc	-6051
▁iarratasóir	-6052
pr	-6053
eaf	-6054
▁Dí	-6055
adhn	-6056
▁Mad	-6057
▁halt	-6058
▁Watch	-6059
raincis	-6060
▁snasta	-6061
▁Phobail	-6062
▁faisean	-6063
▁phointe	-6064
▁stíleanna	-6065
▁Éisteachta	-6066
ipe	-6067
▁3,	-6068
▁Ur	-6069
ufac	-6070
▁Eis	-6071
úchán	-6072
▁Seas	-6073
▁Scann	-6074
▁bhosca	-6075
▁hEORPA	-6076
▁trácht	-6077
eimhnithe	-6078
fhoireann	-6079
▁Iarthair	-6080
▁tréimhsí	-6081
▁liathróid	-6082
▁áilleacht	-6083
▁ceangailte	-6084
▁saineolaithe	-6085
no	-6086
iet	-6087
ple	-6088
▁37	-6089
▁op	-6090
shoc	-6091
▁Aic	-6092
▁Mus	-6093
▁Tra	-6094
Chúirt	-6095
▁India	-6096
▁Obair	-6097
▁dheir	-6098
▁dháil	-6099
▁nuach	-6100
▁Seomra	-6101
▁bhaill	-6102
onclúidí	-6103
ustaiméir	-6104
▁Brunette	-6105
▁áiseanna	-6106
úsáideoirí	-6107
▁Fheidhmiú	-6108
▁Ombudsman	-6109
▁éigeandála	-6110
▁thabharfaidh	-6111
▁thábhachtach	-6112
úinteoireachta	-6113
dy	-6114
LAIM	-6115
fhág	-6116
ince	-6117
níonn	-6118
▁AGUS	-6119
▁Méid	-6120
▁Stíl	-6121
oichead	-6122
scríofa	-6123
usiness	-6124
▁Mhárta	-6125
▁cultúr	-6126
▁tsráid	-6127
▁fhomhír	-6128
▁glactha	-6129
▁inniúla	-6130
▁ceannairí	-6131
▁cumarsáid	-6132
▁dtiocfaidh	-6133
▁mionsonraithe	-6134
ité	-6135
iniú	-6136
▁lip	-6137
earaí	-6138
fhabh	-6139
▁2004	-6140
▁Anal	-6141
▁Thug	-6142
▁bunú	-6143
▁chlú	-6144
▁ocht	-6145
aoirse	-6146
riachta	-6147
▁diúltú	-6148
▁voltas	-6149
▁vótáil	-6150
▁stórála	-6151
▁tharchur	-6152
▁Tiocfaidh	-6153
▁cuimsitheach	-6154
▁Gníomhaíochta	-6155
wh	-6156
ker	-6157
ized	-6158
▁Mara	-6159
▁pian	-6160
urious	-6161
▁barra	-6162
▁mbaol	-6163
▁pósta	-6164
▁sheas	-6165
LAIMINT	-6166
arraigh	-6167
ghníomhú	-6168
▁fianáin	-6169
▁ghlacann	-6170
▁Fhorbairt	-6171
▁ghréasáin	-6172
▁thiomáint	-6173
▁dhliteanas	-6174
▁Uaireadóirí	-6175
▁Coinbhinsiún	-6176
▁díospóireacht	-6177
:5	-6178
iop	-6179
féar	-6180
oint	-6181
▁gás	-6182
▁prá	-6183
▁ste	-6184
nóidh	-6185
▁2001	-6186
▁Cáin	-6187
▁coig	-6188
▁dích	-6189
▁seis	-6190
astail	-6191
ograph	-6192
onnadh	-6193
Éirinn	-6194
▁cinnt	-6195
▁dhaon	-6196
▁Taisce	-6197
▁billiún	-6198
▁imreoirí	-6199
▁monaróir	-6200
▁cruinneas	-6201
▁próiseáil	-6202
▁toghcháin	-6203
▁bhforbairt	-6204
▁Preasráitis	-6205
▁Teicneolaíochta	-6206
ene	-6207
ext	-6208
try	-6209
part	-6210
réig	-6211
icéad	-6212
▁Díol	-6213
▁Mhic	-6214
▁Seic	-6215
▁thío	-6216
iceach	-6217
othair	-6218
▁2020;	-6219
▁aiste	-6220
▁thogh	-6221
▁muirir	-6222
oirgnimh	-6223
▁léasair	-6224
▁redtube	-6225
▁soicind	-6226
thóireacht	-6227
▁saoránach	-6228
▁chomhairle	-6229
▁sholáthraíonn	-6230
ja	-6231
just	-6232
thin	-6233
balta	-6234
▁Bail	-6235
▁Eile	-6236
lactha	-6237
únaimh	-6238
▁doras	-6239
▁saoil	-6240
▁tarlú	-6241
▁tithe	-6242
úineadh	-6243
▁aigéad	-6244
▁tháirg	-6245
téarmach	-6246
▁ionadaí	-6247
▁thomhas	-6248
▁ceannach	-6249
▁Masturbate	-6250
▁Tithíochta	-6251
▁chomhlachta	-6252
▁oibríochtaí	-6253
▁Af	-6254
▁IN	-6255
▁me	-6256
▁ús	-6257
earm	-6258
icel	-6259
idge	-6260
óige	-6261
▁Ord	-6262
▁col	-6263
ointí	-6264
▁PHAR	-6265
▁miond	-6266
bhaithe	-6267
inneoin	-6268
ualainn	-6269
▁gcúrsa	-6270
▁ráitis	-6271
arastail	-6272
▁theanga	-6273
▁gceannas	-6274
▁nAchtanna	-6275
▁teicniúil	-6276
▁institiúid	-6277
▁seachtrach	-6278
▁PHARLAIMINT	-6279
▁Athbhreithniú	-6280
-1	-6281
cl	-6282
▁bol	-6283
▁Rang	-6284
▁Togh	-6285
▁loch	-6286
airdín	-6287
▁2016.	-6288
▁gClár	-6289
achaillí	-6290
uilleamh	-6291
▁bóithre	-6292
aontaithe	-6293
▁tabharfar	-6294
impeallacht	-6295
▁mbunaítear	-6296
▁nuálaíocht	-6297
',	-6298
BH	-6299
Co	-6300
chr	-6301
enn	-6302
▁Amh	-6303
▁SEA	-6304
aiste	-6305
olais	-6306
▁diúl	-6307
éilire	-6308
▁Faoin	-6309
▁bhord	-6310
▁cúirt	-6311
▁luaite	-6312
▁sciath	-6313
leibhéal	-6314
uinneamh	-6315
▁bPríomh	-6316
▁Bracelet	-6317
▁Cinneadh	-6318
▁daingean	-6319
▁gcomhlacht	-6320
▁ghearrthóg	-6321
▁saintréithe	-6322
oot	-6323
rel	-6324
rew	-6325
airs	-6326
ewel	-6327
ionn	-6328
uimh	-6329
▁Pic	-6330
▁Sna	-6331
▁rad	-6332
chain	-6333
▁Foir	-6334
▁tuir	-6335
▁2018;	-6336
▁Páirc	-6337
▁uainn	-6338
ionsabal	-6339
▁Oiliúna	-6340
▁pháiste	-6341
eilimintí	-6342
raitheach	-6343
▁scáileán	-6344
▁bhfreagra	-6345
▁Bhliantúil	-6346
▁cháilíocht	-6347
eorainneacha	-6348
▁bhrabhsálaí	-6349
▁oibriúcháin	-6350
At	-6351
bu	-6352
log	-6353
ctha	-6354
nóir	-6355
ussy	-6356
board	-6357
enter	-6358
▁hard	-6359
▁póca	-6360
▁Bhean	-6361
▁Creat	-6362
▁Maith	-6363
▁speic	-6364
▁íosta	-6365
▁Aonair	-6366
▁shonrú	-6367
▁fostóir	-6368
▁buataisí	-6369
▁Gearmáinis	-6370
▁comharthaí	-6371
▁fhéadfaidh	-6372
▁polaitiúil	-6373
▁gcomhlíonann	-6374
iris	-6375
▁Cra	-6376
▁Ins	-6377
éarma	-6378
▁lamh	-6379
igeann	-6380
▁2017.	-6381
▁Poist	-6382
▁Strap	-6383
▁bláth	-6384
▁ospid	-6385
inneach	-6386
ufactur	-6387
▁siúcra	-6388
▁ualach	-6389
▁Chearta	-6390
imeachtaí	-6391
▁comhdhéanta	-6392
KO	-6393
St	-6394
ipí	-6395
iant	-6396
▁Blu	-6397
dháta	-6398
▁City	-6399
▁Mens	-6400
▁dhea	-6401
rótacal	-6402
▁ngairm	-6403
▁baineann	-6404
▁oifigiúla	-6405
▁shibhialta	-6406
▁stiúrthóirí	-6407
▁Masturbation	-6408
-6	-6409
df	-6410
▁x	-6411
ily	-6412
tle	-6413
▁..	-6414
▁7.	-6415
▁Res	-6416
bhach	-6417
ialaí	-6418
tráil	-6419
▁thús	-6420
▁Allah	-6421
▁uathu	-6422
adhnraí	-6423
straimí	-6424
▁aimsir	-6425
▁fágtha	-6426
▁rubair	-6427
▁Foilsiú	-6428
▁chaipit	-6429
▁inneall	-6430
▁srianta	-6431
▁American	-6432
▁dáileadh	-6433
▁Teagmháil	-6434
▁fhreagairt	-6435
▁páirteanna	-6436
▁Masturbating	-6437
39	-6438
eli	-6439
▁id	-6440
iasc	-6441
lanc	-6442
lege	-6443
ostú	-6444
▁RTÉ	-6445
▁luí	-6446
eoite	-6447
nófar	-6448
ocail	-6449
▁dhul	-6450
▁eoch	-6451
▁Breis	-6452
▁bhris	-6453
▁mhais	-6454
▁toirt	-6455
xurious	-6456
▁Sochar	-6457
▁chuims	-6458
▁cártaí	-6459
▁sceimhl	-6460
▁Óglaigh	-6461
lathaithe	-6462
▁Críostaí	-6463
▁dúbailte	-6464
▁sceideal	-6465
▁dliteanas	-6466
▁cruthaíodh	-6467
▁sheirbheáil	-6468
mí	-6469
eep	-6470
mon	-6471
rial	-6472
▁Les	-6473
▁míl	-6474
▁rap	-6475
sport	-6476
▁ÁSPC	-6477
aoiniú	-6478
▁Bíodh	-6479
▁Caith	-6480
▁ghear	-6481
ochtana	-6482
▁bainne	-6483
arcelona	-6484
▁chuairt	-6485
íocaíocht	-6486
▁cúiteamh	-6487
▁thíortha	-6488
▁Comhaontú	-6489
▁cóipeanna	-6490
▁Manufactur	-6491
▁comhábhair	-6492
▁caiteachais	-6493
▁shóisialaigh	-6494
za	-6495
▁(4	-6496
▁So	-6497
▁Ass	-6498
▁CNC	-6499
▁Dub	-6500
▁gla	-6501
▁shr	-6502
erman	-6503
uisce	-6504
▁2005	-6505
▁scór	-6506
▁áras	-6507
andora	-6508
▁Athrú	-6509
daítear	-6510
líochta	-6511
oláthar	-6512
rachtaí	-6513
óirtéir	-6514
▁amharc	-6515
▁riocht	-6516
▁tograí	-6517
lteanais	-6518
éalaithe	-6519
▁leanann	-6520
▁díolúine	-6521
▁leathair	-6522
▁shonrófar	-6523
▁comhoibriú	-6524
▁cothabháil	-6525
▁mBunreacht	-6526
▁roghnaíonn	-6527
▁chruinnithe	-6528
▁Tuarascálacha	-6529
34	-6530
GA	-6531
den	-6532
Chat	-6533
IDEA	-6534
ills	-6535
▁cao	-6536
▁dor	-6537
▁hAl	-6538
iorad	-6539
ister	-6540
lóirí	-6541
raois	-6542
▁Ordú	-6543
▁anal	-6544
▁muir	-6545
oclóir	-6546
▁Anseo	-6547
▁Ceang	-6548
▁Cuims	-6549
▁Gearr	-6550
▁cábla	-6551
▁línte	-6552
▁téigh	-6553
icelist	-6554
tacháin	-6555
▁dlínse	-6556
national	-6557
▁bóthair	-6558
▁cathrach	-6559
▁iascaigh	-6560
adóireacht	-6561
▁mhúinteoirí	-6562
96	-6563
GH	-6564
Pol	-6565
ces	-6566
▁--	-6567
▁36	-6568
spid	-6569
urna	-6570
▁ugg	-6571
▁Éig	-6572
thain	-6573
▁Just	-6574
▁litr	-6575
lowjob	-6576
▁Cúram	-6577
▁bailí	-6578
▁bheag	-6579
aighnéad	-6580
▁Deimhniú	-6581
▁imthosca	-6582
▁indéanta	-6583
▁bhainfidh	-6584
ha	-6585
Pro	-6586
len	-6587
tee	-6588
▁Op	-6589
eilg	-6590
léad	-6591
adóir	-6592
chead	-6593
▁Aims	-6594
▁Port	-6595
▁asta	-6596
mhéide	-6597
scrúdú	-6598
teacha	-6599
tachtaí	-6600
▁Inneal	-6601
▁School	-6602
▁Beartas	-6603
▁bhfuair	-6604
▁cóireáil	-6605
▁mheasúnú	-6606
iarrthóirí	-6607
▁gcomhlíon	-6608
▁healaíona	-6609
▁maoinithe	-6610
▁achomhairc	-6611
▁Saincheaptha	-6612
/19	-6613
ane	-6614
ars	-6615
que	-6616
▁Ón	-6617
aily	-6618
bour	-6619
ject	-6620
rown	-6621
urac	-6622
▁(10	-6623
▁buí	-6624
▁glú	-6625
Stiúr	-6626
▁feic	-6627
▁shín	-6628
▁Rúipí	-6629
▁ardán	-6630
▁Pandora	-6631
▁Próifíl	-6632
▁imreoir	-6633
▁oiriúnú	-6634
earrbhach	-6635
▁ainneoin	-6636
▁Cuardaigh	-6637
▁cleachtais	-6638
▁cothabhála	-6639
▁fheidhmeanna	-6640
▁éifeachtúlacht	-6641
IP	-6642
ME	-6643
SD	-6644
ini	-6645
úrs	-6646
▁La	-6647
▁MB	-6648
▁Sw	-6649
▁ro	-6650
Comh	-6651
aife	-6652
▁Lár	-6653
▁míle	-6654
▁radh	-6655
eálfar	-6656
reasta	-6657
itseáil	-6658
▁Breath	-6659
▁Oileán	-6660
▁thaisc	-6661
rúdaithe	-6662
▁bhíthin	-6663
▁gcuntas	-6664
▁Shábháil	-6665
▁gearradh	-6666
▁Domhnaigh	-6667
▁leithdháil	-6668
▁roghnaithe	-6669
▁réigiúnach	-6670
CEE	-6671
CHA	-6672
ild	-6673
ette	-6674
oker	-6675
▁You	-6676
▁cóc	-6677
óradh	-6678
▁rabh	-6679
rochta	-6680
▁Téigh	-6681
▁céile	-6682
ilvéise	-6683
▁brabús	-6684
▁náisiún	-6685
▁tarmlig	-6686
▁tuaithe	-6687
ainmhithe	-6688
ghairtear	-6689
▁dóiteáin	-6690
▁mháthair	-6691
▁suíomhanna	-6692
▁heagraíochtaí	-6693
38	-6694
CR	-6695
gu	-6696
eeps	-6697
inos	-6698
uaim	-6699
íoga	-6700
▁Adh	-6701
▁Uir	-6702
athrú	-6703
eogra	-6704
unter	-6705
▁poll	-6706
fhoils	-6707
nítear	-6708
ontais	-6709
éarach	-6710
▁2018.	-6711
▁2019.	-6712
▁galar	-6713
▁leacht	-6714
▁buíochas	-6715
▁foilsithe	-6716
▁gcuirfidh	-6717
▁gheimhridh	-6718
▁láimhseáil	-6719
▁gCuideachtaí	-6720
74	-6721
TR	-6722
cas	-6723
▁MP	-6724
nóna	-6725
▁cla	-6726
▁hid	-6727
▁tim	-6728
▁tor	-6729
manam	-6730
cheart	-6731
rosoft	-6732
▁aighn	-6733
▁deoch	-6734
▁fiach	-6735
▁laoch	-6736
▁Rannóg	-6737
▁Scoile	-6738
▁bogadh	-6739
▁cionta	-6740
▁dhlíth	-6741
▁rugadh	-6742
eannacht	-6743
ithíocht	-6744
▁Seapáin	-6745
▁bhearta	-6746
▁chomhch	-6747
▁bracelet	-6748
▁difriúla	-6749
▁tSeapáin	-6750
▁luxurious	-6751
▁ainmneacha	-6752
▁athnuachan	-6753
▁choinníollacha	-6754
VC	-6755
wa	-6756
med	-6757
▁Me	-6758
▁TS	-6759
pers	-6760
▁192	-6761
nóirí	-6762
sheas	-6763
▁astu	-6764
Gaeilge	-6765
▁dtagann	-6766
irteagail	-6767
▁Cumhacht	-6768
▁Facebook	-6769
orparáideach	-6770
▁eacnamaíocha	-6771
IÚ	-6772
ko	-6773
eed	-6774
osh	-6775
▁To	-6776
▁qu	-6777
áras	-6778
ónaí	-6779
▁Fág	-6780
▁Nós	-6781
▁vid	-6782
eataí	-6783
itimh	-6784
▁Acad	-6785
▁Ange	-6786
▁gior	-6787
▁“...	-6788
ainéil	-6789
eisirí	-6790
rionad	-6791
▁Rátaí	-6792
▁Tuirc	-6793
▁teirm	-6794
▁tobac	-6795
▁máthair	-6796
▁próisis	-6797
ionannais	-6798
▁caipitil	-6799
▁machnamh	-6800
▁bainteach	-6801
▁Ghaeltacht	-6802
▁fostaíocht	-6803
ealaíontóirí	-6804
fhostaíochta	-6805
▁leictreacha	-6806
▁soghluaiste	-6807
▁comhaontuithe	-6808
BS	-6809
MP	-6810
bs	-6811
gy	-6812
exy	-6813
iad	-6814
lib	-6815
▁LE	-6816
▁App	-6817
▁SCE	-6818
ition	-6819
uille	-6820
▁Aith	-6821
▁baol	-6822
▁tásc	-6823
chláir	-6824
▁ceadú	-6825
▁mhair	-6826
▁míniú	-6827
aithint	-6828
▁iontrá	-6829
▁tsaoil	-6830
▁rioscaí	-6831
▁Foghlaim	-6832
▁Choláiste	-6833
▁luachanna	-6834
oscaireacht	-6835
▁oidhreacht	-6836
▁straitéisí	-6837
▁Choinbhinsiún	-6838
:0	-6839
BA	-6840
TC	-6841
oto	-6842
▁8.	-6843
blaí	-6844
ents	-6845
▁Sil	-6846
illte	-6847
itear	-6848
arlais	-6849
assage	-6850
▁mórán	-6851
▁riail	-6852
▁throm	-6853
▁Chríos	-6854
▁Mheith	-6855
▁eitilt	-6856
▁gCiste	-6857
▁shíniú	-6858
▁folctha	-6859
▁moncler	-6860
▁Chathair	-6861
▁Cruinniú	-6862
▁Ghathanna	-6863
▁WhatsChat	-6864
▁chónaithe	-6865
▁hEilvéise	-6866
▁Sainmhíniú	-6867
▁thíolacadh	-6868
▁chomhshaoil	-6869
▁maireachtáil	-6870
:3	-6871
cer	-6872
eck	-6873
icn	-6874
led	-6875
▁DO	-6876
▁Lim	-6877
▁Inmh	-6878
▁Loch	-6879
▁easc	-6880
▁físe	-6881
▁mhún	-6882
▁míre	-6883
▁Times	-6884
▁Tiont	-6885
ullaigh	-6886
▁Phlean	-6887
▁fhoils	-6888
▁ionsaí	-6889
▁margaí	-6890
▁reilig	-6891
▁gluaist	-6892
▁Services	-6893
▁chostais	-6894
▁príomhch	-6895
▁Sóisialaí	-6896
▁criostail	-6897
▁thaifeadadh	-6898
’,	-6899
ney	-6900
sal	-6901
tel	-6902
val	-6903
▁AR	-6904
▁CU	-6905
▁Mu	-6906
earg	-6907
ible	-6908
ones	-6909
quir	-6910
ófaí	-6911
▁www	-6912
erica	-6913
ities	-6914
▁Answ	-6915
▁ghrá	-6916
▁Oíche	-6917
▁dhéag	-6918
stitute	-6919
▁Réalta	-6920
▁Sláint	-6921
▁láidre	-6922
▁bhóthar	-6923
▁forlíon	-6924
▁solúbtha	-6925
▁Forálacha	-6926
▁Soláthraí	-6927
▁Tacaíocht	-6928
▁léarscáil	-6929
▁soláthair	-6930
▁clárúcháin	-6931
▁freagracht	-6932
cle	-6933
íob	-6934
▁32	-6935
▁33	-6936
ield	-6937
suas	-6938
▁bag	-6939
▁pró	-6940
▁Bhun	-6941
▁Dial	-6942
▁Riar	-6943
▁siam	-6944
▁Léinn	-6945
▁Naomh	-6946
▁Tríon	-6947
▁marbh	-6948
▁píosa	-6949
▁uasta	-6950
itheora	-6951
▁pionós	-6952
▁raidió	-6953
illeacht	-6954
▁Council	-6955
▁Gnéithe	-6956
▁choinne	-6957
▁fíorúil	-6958
▁tagartha	-6959
▁úsáideach	-6960
▁úsáideora	-6961
▁chúlghairm	-6962
▁forordaithe	-6963
▁úinéireacht	-6964
98	-6965
pre	-6966
▁Fú	-6967
SAMH	-6968
aobh	-6969
iamh	-6970
mart	-6971
ther	-6972
últa	-6973
▁lag	-6974
▁Óir	-6975
▁Char	-6976
▁Tiom	-6977
▁deac	-6978
▁ghné	-6979
▁sagh	-6980
amburg	-6981
ocsain	-6982
▁Cumas	-6983
▁aigne	-6984
choiste	-6985
▁bhronn	-6986
▁deacra	-6987
▁gluais	-6988
saíochta	-6989
▁Indiach	-6990
▁carbóin	-6991
▁formhór	-6992
earthacht	-6993
▁gcruinniú	-6994
▁gcuireann	-6995
▁thabharfar	-6996
▁phríobháideach	-6997
san	-6998
eodh	-6999
ying	-7000
▁190	-7001
árach	-7002
▁Long	-7003
▁dlús	-7004
eadáin	-7005
rasmus	-7006
▁mílte	-7007
▁fórsaí	-7008
▁Answers	-7009
▁Diamond	-7010
▁roinnte	-7011
▁éarlais	-7012
▁chonradh	-7013
▁iomláine	-7014
▁héifeacht	-7015
▁iomaíocht	-7016
▁leideanna	-7017
▁gníomhaire	-7018
▁gnólachtaí	-7019
▁réigiúnacha	-7020
▁tábhachtacha	-7021
.—	-7022
va	-7023
yn	-7024
oad	-7025
▁CF	-7026
íric	-7027
▁íog	-7028
ility	-7029
riail	-7030
▁York	-7031
chuibh	-7032
eifear	-7033
raince	-7034
▁Power	-7035
▁fostú	-7036
▁naked	-7037
▁threo	-7038
eepskin	-7039
ochtúir	-7040
ucation	-7041
▁foinse	-7042
mhaíocht	-7043
▁Anailís	-7044
▁Feirste	-7045
▁SEASAMH	-7046
aitisticí	-7047
▁Tríonóide	-7048
▁bhformáid	-7049
▁conarthaí	-7050
▁gaolmhara	-7051
▁sheepskin	-7052
▁oibleagáid	-7053
▁Shóisialaigh	-7054
▁Uachtaránacht	-7055
66	-7056
:4	-7057
Al	-7058
siú	-7059
▁fi	-7060
▁Ior	-7061
▁úis	-7062
eálaí	-7063
éadaí	-7064
ógais	-7065
▁Aois	-7066
▁clin	-7067
▁mhac	-7068
nuithe	-7069
íochán	-7070
▁Techn	-7071
▁inarb	-7072
leachta	-7073
mhainne	-7074
éachtaí	-7075
▁bhunús	-7076
▁daonra	-7077
earsanra	-7078
▁ligeann	-7079
▁léargas	-7080
▁iomaíoch	-7081
▁pricelist	-7082
▁Múinteoirí	-7083
▁idirdhealú	-7084
▁theicniúil	-7085
ghnéitheacha	-7086
▁ionadaíocht	-7087
▁maoirseachta	-7088
▁tromchúiseach	-7089
▁tuarascálacha	-7090
DR	-7091
HE	-7092
ony	-7093
une	-7094
▁Dó	-7095
▁Rí	-7096
▁nE	-7097
▁Ste	-7098
▁lch	-7099
uthor	-7100
▁1916	-7101
▁Glas	-7102
Christ	-7103
▁Fuair	-7104
▁eagla	-7105
▁Depart	-7106
▁daonla	-7107
▁gcúirt	-7108
▁glasraí	-7109
▁iomlána	-7110
▁nascadh	-7111
▁saibhir	-7112
▁seachad	-7113
▁Oscailte	-7114
▁chothrom	-7115
▁Thuaisceart	-7116
▁Feidhmiúcháin	-7117
▁lánaimseartha	-7118
bur	-7119
▁38	-7120
ines	-7121
lond	-7122
amhsa	-7123
óthar	-7124
▁Ball	-7125
▁geal	-7126
▁tinn	-7127
arthaí	-7128
▁Frith	-7129
▁boinn	-7130
▁molta	-7131
▁patrú	-7132
▁tuism	-7133
▁vidio	-7134
aingéil	-7135
athairn	-7136
▁Rúisis	-7137
▁dlíthe	-7138
▁dtéann	-7139
▁hAlban	-7140
▁maidin	-7141
▁bheatha	-7142
▁feabhsú	-7143
▁truaill	-7144
fhorbairt	-7145
▁Football	-7146
▁ceanglas	-7147
▁eisceacht	-7148
adóireachta	-7149
aireachtála	-7150
▁hiarratais	-7151
▁sláintiúil	-7152
▁seachtracha	-7153
▁taispeántas	-7154
▁aistriúcháin	-7155
▁teachtaireacht	-7156
-3	-7157
:—	-7158
Ní	-7159
ze	-7160
ert	-7161
rid	-7162
▁ór	-7163
▁All	-7164
▁CBL	-7165
▁Ios	-7166
▁cló	-7167
earbh	-7168
litir	-7169
ásach	-7170
▁Data	-7171
▁Life	-7172
▁Oral	-7173
▁hair	-7174
ghrádú	-7175
luaite	-7176
▁Cúirt	-7177
▁Taist	-7178
▁aerár	-7179
mhaithe	-7180
éalainn	-7181
▁bhrath	-7182
▁fógraí	-7183
▁ghléas	-7184
ghabhála	-7185
▁ceannas	-7186
▁cuimilt	-7187
▁rialála	-7188
▁idirlíon	-7189
▁Ceadaíonn	-7190
▁Áilleacht	-7191
iarratasóir	-7192
▁ceiliúradh	-7193
▁dliteanais	-7194
▁dramhaíola	-7195
5%	-7196
NY	-7197
arú	-7198
mpa	-7199
▁44	-7200
▁CC	-7201
otán	-7202
péir	-7203
▁Ban	-7204
dhíol	-7205
shuim	-7206
chiste	-7207
eather	-7208
ewelry	-7209
ianach	-7210
▁Thair	-7211
▁mainn	-7212
▁meabh	-7213
aothair	-7214
arántas	-7215
▁Teacht	-7216
▁drugaí	-7217
▁insint	-7218
airdiúil	-7219
▁Blowjob	-7220
▁Pinsean	-7221
▁dtugann	-7222
▁áisiúil	-7223
▁gceantar	-7224
▁foirmiúil	-7225
▁chaidreamh	-7226
▁Chuideachta	-7227
▁astaíochtaí	-7228
▁Chomhphobail	-7229
▁Toscaireacht	-7230
▁urscaoileadh	-7231
tre	-7232
CHTA	-7233
ists	-7234
olly	-7235
omen	-7236
▁(9)	-7237
▁Dír	-7238
IDEAL	-7239
earas	-7240
iosca	-7241
éatad	-7242
úcair	-7243
▁Cirt	-7244
▁dhíl	-7245
▁dhío	-7246
ission	-7247
▁2014.	-7248
▁Aoine	-7249
▁Atlan	-7250
▁Fúinn	-7251
▁chlog	-7252
▁othar	-7253
▁taise	-7254
▁theas	-7255
oirmisc	-7256
▁Comhth	-7257
▁brunet	-7258
▁sochaí	-7259
albhaigh	-7260
▁Corpora	-7261
▁Fiontar	-7262
▁Fomhair	-7263
▁Margadh	-7264
▁Sóisial	-7265
▁dhaltaí	-7266
▁saoirse	-7267
▁Rochtain	-7268
▁iarnróid	-7269
▁Foilsithe	-7270
▁trasteorann	-7271
0.	-7272
37	-7273
DM	-7274
dom	-7275
mhu	-7276
▁4,	-7277
▁EN	-7278
▁UN	-7279
chum	-7280
▁...	-7281
▁cap	-7282
▁din	-7283
▁Éil	-7284
eirme	-7285
racht	-7286
▁Stoc	-7287
▁luch	-7288
▁díola	-7289
▁fhion	-7290
▁gcóir	-7291
▁super	-7292
▁vótaí	-7293
▁dúradh	-7294
▁gabhál	-7295
▁ngnáth	-7296
▁tógadh	-7297
naíochta	-7298
éifeacht	-7299
úcairist	-7300
▁Erasmus	-7301
▁Glacann	-7302
▁fabraic	-7303
▁tsochaí	-7304
▁innealra	-7305
▁hOllscoil	-7306
▁sreabhadh	-7307
▁Eagraíocht	-7308
▁hacmhainní	-7309
▁dTuaisceart	-7310
▁Infheistíochta	-7311
67	-7312
We	-7313
ny	-7314
ÁS	-7315
err	-7316
usa	-7317
zal	-7318
▁48	-7319
thrá	-7320
▁Lae	-7321
eolaí	-7322
eomra	-7323
onadh	-7324
radam	-7325
tíonn	-7326
▁ingh	-7327
tuithe	-7328
▁agóid	-7329
▁chóip	-7330
▁ghuth	-7331
▁gnách	-7332
▁ionsú	-7333
▁stoic	-7334
lándáil	-7335
reastal	-7336
ruiséil	-7337
uspóirí	-7338
▁Páirtí	-7339
▁Tionól	-7340
▁boscaí	-7341
▁mhainn	-7342
maisféar	-7343
▁bpríomh	-7344
▁mianraí	-7345
▁nasctha	-7346
▁calories	-7347
▁léirithe	-7348
▁thuairim	-7349
earnálacha	-7350
▁Cathracha	-7351
▁dháileadh	-7352
▁foirgnimh	-7353
▁Washington	-7354
▁deacrachtaí	-7355
▁oibleagáidí	-7356
Ag	-7357
TI	-7358
-10	-7359
bal	-7360
eme	-7361
▁wh	-7362
porn	-7363
zrel	-7364
▁300	-7365
▁lon	-7366
ltais	-7367
uropa	-7368
▁Next	-7369
▁bhia	-7370
▁dtrá	-7371
▁múnla	-7372
úinéirí	-7373
▁diúité	-7374
▁misean	-7375
▁Croíthe	-7376
▁réaltaí	-7377
▁Soláthar	-7378
▁ceachtar	-7379
▁carachtair	-7380
▁comhtháite	-7381
▁substaintí	-7382
▁cáilíochtaí	-7383
▁rialaitheoir	-7384
▁taispeántais	-7385
▁International	-7386
0,	-7387
HR	-7388
yl	-7389
eet	-7390
ves	-7391
ÁIL	-7392
▁IT	-7393
▁Ma	-7394
▁Sé	-7395
uirg	-7396
órsa	-7397
▁Gar	-7398
▁cis	-7399
inter	-7400
ustra	-7401
áillí	-7402
▁Lagh	-7403
▁Linn	-7404
▁fiac	-7405
▁mill	-7406
lámhas	-7407
uidéal	-7408
óithre	-7409
▁dúnta	-7410
▁earra	-7411
▁nGael	-7412
▁shots	-7413
orcaigh	-7414
▁luaidhe	-7415
▁ordóidh	-7416
aispeánann	-7417
▁gComhphobal	-7418
ml	-7419
su	-7420
Col	-7421
umb	-7422
▁Las	-7423
▁Off	-7424
▁ban	-7425
▁mam	-7426
éagsú	-7427
▁earc	-7428
▁mhea	-7429
▁2015.	-7430
▁Próis	-7431
▁pláta	-7432
▁spórt	-7433
▁vótála	-7434
▁ábalta	-7435
ibheacha	-7436
▁bainise	-7437
▁gContae	-7438
▁Sathairn	-7439
▁Tacaíonn	-7440
▁chuspóir	-7441
▁dhualgas	-7442
▁gcluiche	-7443
▁seiceáil	-7444
▁tiomáint	-7445
▁Acmhainní	-7446
▁gcaitheamh	-7447
▁ionstraimí	-7448
▁scrúduithe	-7449
▁Athchóirithe	-7450
▁riachtanacha	-7451
▁comhpháirtithe	-7452
-5	-7453
2:	-7454
illt	-7455
ocia	-7456
earch	-7457
▁Chon	-7458
▁airm	-7459
▁foch	-7460
▁Íseal	-7461
eangach	-7462
▁Chláir	-7463
▁aithne	-7464
▁cnaipe	-7465
▁mhaolú	-7466
▁breithe	-7467
▁cuimhne	-7468
▁eochair	-7469
▁neamhbh	-7470
▁teicníc	-7471
▁tréithe	-7472
▁chabhair	-7473
▁chuardach	-7474
▁Eolaíochta	-7475
▁gcaithfidh	-7476
▁bParlaimint	-7477
▁neamhchoitianta	-7478
eod	-7479
ohn	-7480
ott	-7481
inal	-7482
uasc	-7483
▁Med	-7484
▁OEM	-7485
▁PDF	-7486
eamhn	-7487
ights	-7488
thear	-7489
ustam	-7490
▁Mona	-7491
▁Muir	-7492
▁cloí	-7493
▁féad	-7494
▁gorm	-7495
▁léim	-7496
▁uirb	-7497
eáchan	-7498
eálann	-7499
olainn	-7500
▁Amach	-7501
▁Seice	-7502
▁ailse	-7503
▁dtogh	-7504
▁traen	-7505
ization	-7506
▁Dublin	-7507
▁Déanta	-7508
▁Uachta	-7509
▁bhfeic	-7510
▁faisin	-7511
▁mhíniú	-7512
▁séasúr	-7513
csamburg	-7514
▁Leagtar	-7515
▁Strucht	-7516
▁dteanga	-7517
▁Danmhair	-7518
▁Ghnóthaí	-7519
▁fhéadfar	-7520
▁vitimíní	-7521
▁Bhruiséil	-7522
▁Bogearraí	-7523
▁fisiciúil	-7524
▁scoirfidh	-7525
▁Ainmneacha	-7526
▁dteastaíonn	-7527
▁fheidhmíocht	-7528
▁léirmheasanna	-7529
▁ranníocaíochtaí	-7530
NN	-7531
Na	-7532
kh	-7533
gaz	-7534
lly	-7535
rog	-7536
ump	-7537
▁MO	-7538
ives	-7539
▁per	-7540
eofaí	-7541
video	-7542
éimhs	-7543
▁Mhar	-7544
▁Thar	-7545
▁caid	-7546
▁caol	-7547
▁díbh	-7548
▁mála	-7549
thacha	-7550
órtais	-7551
▁Ciorc	-7552
▁Ghlac	-7553
▁Ríoga	-7554
▁moill	-7555
bhaíodh	-7556
thriall	-7557
ánaithe	-7558
▁saghas	-7559
▁solais	-7560
dhéanamh	-7561
laochlad	-7562
ainníocht	-7563
▁Buíochas	-7564
▁Lesbians	-7565
▁gcuimhne	-7566
ustaiméara	-7567
▁leasmhara	-7568
▁ndéanfadh	-7569
▁shonraithe	-7570
▁chaiteachas	-7571
TU	-7572
ows	-7573
tro	-7574
▁AD	-7575
▁ga	-7576
elle	-7577
▁Gla	-7578
▁Imp	-7579
▁Sol	-7580
▁aib	-7581
▁ant	-7582
▁1999	-7583
▁Deis	-7584
▁Luim	-7585
▁Mach	-7586
▁Mont	-7587
▁Tríú	-7588
▁cara	-7589
bolone	-7590
eamhan	-7591
obhach	-7592
▁Story	-7593
▁caomh	-7594
▁facht	-7595
dhéanta	-7596
ínítear	-7597
▁polasaí	-7598
▁bhuiséad	-7599
▁mícheart	-7600
▁Tráchtála	-7601
▁mhuirearú	-7602
▁bailiúchán	-7603
▁eolaíochta	-7604
▁faireachán	-7605
▁iarrthóirí	-7606
▁polaitiúla	-7607
▁Bhreithiúnais	-7608
▁comhairliúcháin	-7609
95	-7610
BB	-7611
All	-7612
Iar	-7613
ham	-7614
ret	-7615
rig	-7616
uile	-7617
íoma	-7618
▁Clú	-7619
▁gin	-7620
▁mhó	-7621
macha	-7622
urnae	-7623
▁ANKO	-7624
▁Cent	-7625
▁Fire	-7626
▁Iniú	-7627
▁ghru	-7628
▁more	-7629
aothar	-7630
ladach	-7631
éalach	-7632
▁Bunús	-7633
▁Fhion	-7634
▁Príobh	-7635
▁ghrian	-7636
▁hábhar	-7637
▁Oileáin	-7638
▁meastar	-7639
▁áitribh	-7640
▁éilíonn	-7641
▁European	-7642
▁fhógairt	-7643
▁Christian	-7644
▁Dheireadh	-7645
▁Microsoft	-7646
▁Seachtain	-7647
▁Tabharfar	-7648
▁socraithe	-7649
íocaíochtaí	-7650
▁comhairimh	-7651
▁aitheantais	-7652
▁hinstitiúidí	-7653
VD	-7654
trú	-7655
ása	-7656
▁@_	-7657
▁Pa	-7658
aidí	-7659
vent	-7660
▁dis	-7661
▁olc	-7662
ittee	-7663
úintí	-7664
▁Ráta	-7665
Chiste	-7666
annadh	-7667
odanna	-7668
▁Ollmh	-7669
▁State	-7670
▁málaí	-7671
▁scriú	-7672
▁Eorpaí	-7673
▁rothar	-7674
othaithe	-7675
▁bhfíric	-7676
▁bhuaigh	-7677
▁próifíl	-7678
▁páipéir	-7679
▁tomhalt	-7680
aitéarach	-7681
igiteacha	-7682
▁Iascaigh	-7683
▁achoimre	-7684
▁ballóide	-7685
▁comhlíon	-7686
▁filleadh	-7687
▁mhuintir	-7688
▁Comhdháil	-7689
▁bheartais	-7690
▁creimeadh	-7691
▁faigheann	-7692
▁Cáilíochta	-7693
▁bhreithniú	-7694
▁laghdaithe	-7695
▁idirghníomh	-7696
▁híocaíochtaí	-7697
▁Comhionannais	-7698
▁Teicneolaíocht	-7699
ova	-7700
ilte	-7701
mhan	-7702
play	-7703
roup	-7704
óite	-7705
▁Gal	-7706
▁bal	-7707
▁cig	-7708
ifige	-7709
laith	-7710
tálaí	-7711
▁Free	-7712
▁Sula	-7713
▁fíon	-7714
illing	-7715
vision	-7716
▁Franc	-7717
▁páirc	-7718
▁píosaí	-7719
▁Déantús	-7720
▁chomhar	-7721
▁foclóir	-7722
▁seamhan	-7723
▁Slándála	-7724
▁Limistéar	-7725
▁coinníoll	-7726
▁diúscairt	-7727
▁hachomair	-7728
▁Úsáideann	-7729
▁Lucsamburg	-7730
▁Caiteachais	-7731
▁chathaoirleach	-7732
44	-7733
78	-7734
MT	-7735
VID	-7736
cur	-7737
ges	-7738
ense	-7739
fran	-7740
illí	-7741
ores	-7742
óram	-7743
▁150	-7744
▁dtr	-7745
gasms	-7746
íobla	-7747
▁Atha	-7748
▁Gold	-7749
ations	-7750
áirimh	-7751
▁Cheap	-7752
▁Leibh	-7753
▁Leith	-7754
▁bhéar	-7755
▁rásaí	-7756
▁áthas	-7757
pháirtí	-7758
▁Bhainc	-7759
▁United	-7760
▁beacht	-7761
▁forais	-7762
▁galair	-7763
▁gcreid	-7764
▁mbeart	-7765
▁seasta	-7766
▁toirch	-7767
▁Ábhair	-7768
aiteoirí	-7769
▁Scannán	-7770
▁gcúrsaí	-7771
▁líonraí	-7772
▁Deontais	-7773
▁inslithe	-7774
▁oiriúint	-7775
▁théarmaí	-7776
▁Sibhialta	-7777
▁Páirteanna	-7778
▁féideartha	-7779
▁cheiliúradh	-7780
▁tuairisceán	-7781
▁Turasóireachta	-7782
32	-7783
OP	-7784
yp	-7785
ace	-7786
▁39	-7787
▁CL	-7788
cess	-7789
iber	-7790
iver	-7791
núin	-7792
tábh	-7793
unty	-7794
facha	-7795
imate	-7796
pport	-7797
raing	-7798
▁Nios	-7799
▁cith	-7800
▁fhás	-7801
▁2016,	-7802
▁Chult	-7803
▁Fiont	-7804
▁Staid	-7805
▁Togra	-7806
▁Toisc	-7807
▁sular	-7808
arastal	-7809
rochtana	-7810
chuirtear	-7811
▁Fraincis	-7812
▁cóireála	-7813
▁phróisis	-7814
▁pleanáil	-7815
▁Committee	-7816
▁léirítear	-7817
▁Tacaíochta	-7818
athbhreithniú	-7819
▁dtabharfaidh	-7820
aS	-7821
uss	-7822
uts	-7823
gram	-7824
oide	-7825
phlé	-7826
▁Ros	-7827
▁Win	-7828
▁sár	-7829
▁clog	-7830
▁sorc	-7831
▁síol	-7832
▁Leabú	-7833
▁Seach	-7834
▁bróga	-7835
▁duais	-7836
▁gurbh	-7837
▁treal	-7838
chumann	-7839
▁Author	-7840
▁Cearta	-7841
▁Eolais	-7842
▁bheaga	-7843
▁réalta	-7844
▁teileaf	-7845
▁tiomána	-7846
▁airíonna	-7847
▁cáiliúla	-7848
▁deonacha	-7849
▁Digiteach	-7850
▁cleachtas	-7851
▁inchurtha	-7852
▁chomhshaol	-7853
▁chreidiúint	-7854
▁cuairteoirí	-7855
els	-7856
gle	-7857
▁bo	-7858
▁hé	-7859
eitr	-7860
▁Add	-7861
▁Arm	-7862
iodrá	-7863
▁Luan	-7864
▁cear	-7865
▁daor	-7866
▁éisc	-7867
aoithe	-7868
uimhir	-7869
íocach	-7870
▁Bronn	-7871
▁ngabh	-7872
▁péint	-7873
▁scior	-7874
incheap	-7875
▁Bliana	-7876
▁Breith	-7877
▁Cuimhn	-7878
▁mhoill	-7879
liúntais	-7880
▁Foclóir	-7881
▁dhiúltú	-7882
▁dlífear	-7883
▁dúshlán	-7884
▁cáiliúil	-7885
▁sloinnte	-7886
▁Chaibidil	-7887
▁Fhaisnéis	-7888
▁clúdaithe	-7889
▁neamhghná	-7890
▁Tairiscint	-7891
▁cheadúnais	-7892
▁cheapfaidh	-7893
▁rapóirtéir	-7894
▁ráthaíocht	-7895
▁Taispeántas	-7896
▁bhfaigheann	-7897
DC	-7898
gú	-7899
bra	-7900
irl	-7901
▁	-7902
a	-7903
i	-7904
n	-7905
h	-7906
e	-7907
r	-7908
t	-7909
s	-7910
c	-7911
o	-7912
l	-7913
d	-7914
g	-7915
m	-7916
u	-7917
á	-7918
í	-7919
b	-7920
f	-7921
ú	-7922
é	-7923
,	-7924
ó	-7925
.	-7926
C	-7927
p	-7928
A	-7929
T	-7930
S	-7931
1	-7932
-	-7933
M	-7934
0	-7935
I	-7936
2	-7937
B	-7938
D	-7939
F	-7940
)	-7941
(	-7942
@	-7943
w	-7944
E	-7945
N	-7946
L	-7947
G	-7948
P	-7949
R	-7950
3	-7951
y	-7952
'	-7953
9	-7954
O	-7955
:	-7956
5	-7957
k	-7958
4	-7959
?	-7960
v	-7961
6	-7962
8	-7963
7	-7964
H	-7965
;	-7966
U	-7967
’	-7968
É	-7969
/	-7970
_	-7971
V	-7972
W	-7973
Á	-7974
x	-7975
"	-7976
z	-7977
–	-7978
”	-7979
“	-7980
!	-7981
K	-7982
j	-7983
—	-7984
J	-7985
Ó	-7986
Ú	-7987
[	-7988
]	-7989
&	-7990
%	-7991
Í	-7992
Y	-7993
€	-7994
X	-7995
q	-7996
