<unk>	0
<s>	0
</s>	0
▁a	-0
ch	-1
ea	-2
ai	-3
th	-4
in	-5
na	-6
▁d	-7
▁s	-8
ir	-9
▁l	-10
mh	-11
ta	-12
▁an	-13
is	-14
il	-15
▁c	-16
bh	-17
▁f	-18
▁g	-19
▁ag	-20
▁t	-21
▁ar	-22
dh	-23
ar	-24
▁ch	-25
ío	-26
us	-27
▁C	-28
▁agus	-29
▁m	-30
▁n	-31
▁le	-32
▁na	-33
▁i	-34
la	-35
ra	-36
on	-37
▁bh	-38
éa	-39
eo	-40
air	-41
▁A	-42
id	-43
ith	-44
▁T	-45
each	-46
▁b	-47
gh	-48
or	-49
iú	-50
ean	-51
an	-52
eá	-53
▁r	-54
ain	-55
▁de	-56
ear	-57
al	-58
te	-59
ach	-60
inn	-61
aith	-62
▁chu	-63
sc	-64
oi	-65
omh	-66
▁S	-67
▁M	-68
▁p	-69
áil	-70
▁in	-71
▁(	-72
▁go	-73
ais	-74
▁@	-75
íoch	-76
▁seo	-77
uil	-78
▁I	-79
▁bhf	-80
▁h	-81
▁B	-82
ei	-83
▁D	-84
▁F	-85
tha	-86
▁do	-87
▁tú	-88
▁lea	-89
▁nó	-90
rea	-91
▁dh	-92
aigh	-93
ur	-94
▁Ch	-95
it	-96
▁mh	-97
▁gc	-98
ithe	-99
tá	-100
ee	-101
▁ó	-102
▁fh	-103
▁2	-104
▁is	-105
▁1	-106
▁sa	-107
▁é	-108
as	-109
▁co	-110
aidh	-111
lá	-112
▁bhfuil	-113
tas	-114
nn	-115
▁leis	-116
▁L	-117
▁th	-118
eadh	-119
uir	-120
om	-121
wee	-122
im	-123
lach	-124
ad	-125
ail	-126
eidh	-127
un	-128
ao	-129
▁An	-130
eann	-131
os	-132
óir	-133
▁chun	-134
nna	-135
▁G	-136
▁N	-137
▁sin	-138
áin	-139
▁P	-140
▁sh	-141
▁u	-142
ic	-143
ine	-144
aithe	-145
ig	-146
áir	-147
eith	-148
isc	-149
ín	-150
nach	-151
éid	-152
▁R	-153
eil	-154
▁tr	-155
imh	-156
er	-157
éad	-158
eal	-159
eacht	-160
ás	-161
ial	-162
nú	-163
ist	-164
ion	-165
éir	-166
ia	-167
eáin	-168
▁leat	-169
áid	-170
▁sc	-171
▁á	-172
íochta	-173
le	-174
eamh	-175
re	-176
eachta	-177
airt	-178
eas	-179
ís	-180
▁gur	-181
▁sé	-182
▁Twee	-183
▁E	-184
íomh	-185
▁ta	-186
adh	-187
▁mar	-188
▁20	-189
aim	-190
íos	-191
▁cinn	-192
▁du	-193
▁comh	-194
án	-195
tanna	-196
reath	-197
▁atá	-198
aid	-199
reathnú	-200
▁cosc	-201
íonn	-202
eán	-203
éana	-204
▁den	-205
cht	-206
rú	-207
ol	-208
▁aon	-209
▁Tweetanna	-210
▁gh	-211
ói	-212
▁Is	-213
íocht	-214
aoi	-215
eáil	-216
▁-	-217
eoir	-218
gra	-219
aí	-220
éidir	-221
eanna	-222
tear	-223
oir	-224
ge	-225
ús	-226
▁Tá	-227
ór	-228
▁féidir	-229
oc	-230
▁mb	-231
fh	-232
▁mhaith	-233
eir	-234
éan	-235
▁faoi	-236
ru	-237
▁cinnte	-238
▁tá	-239
▁breathnú	-240
▁Chuir	-241
ead	-242
▁Meáin	-243
oil	-244
ona	-245
int	-246
éanamh	-247
arra	-248
▁O	-249
▁lá	-250
iún	-251
igh	-252
at	-253
eile	-254
lu	-255
am	-256
eag	-257
▁eile	-258
▁201	-259
tar	-260
▁cu	-261
leadh	-262
▁dhéanamh	-263
uair	-264
orn	-265
▁chomh	-266
raí	-267
en	-268
aint	-269
far	-270
isce	-271
▁chur	-272
eart	-273
lt	-274
oinn	-275
▁trí	-276
▁bheith	-277
ian	-278
▁ina	-279
eidhm	-280
▁dt	-281
▁as	-282
uilleadh	-283
ainn	-284
ann	-285
imhn	-286
úsáid	-287
▁ná	-288
▁su	-289
oib	-290
▁dá	-291
untas	-292
ua	-293
▁ph	-294
ír	-295
ob	-296
úna	-297
..	-298
éar	-299
faidh	-300
aidir	-301
▁don	-302
▁nd	-303
▁deimhn	-304
es	-305
agh	-306
▁saor	-307
▁duine	-308
idh	-309
▁am	-310
úil	-311
lí	-312
rá	-313
anna	-314
lacha	-315
▁lean	-316
taí	-317
aoin	-318
▁Tuilleadh	-319
▁H	-320
arratas	-321
óip	-322
orp	-323
▁air	-324
iúil	-325
▁maidir	-326
óirí	-327
bhairt	-328
éach	-329
▁deimhnithe	-330
ac	-331
▁amh	-332
éas	-333
▁nasc	-334
ing	-335
▁Ní	-336
ích	-337
▁Ar	-338
ich	-339
▁ach	-340
ord	-341
if	-342
ogh	-343
▁níos	-344
▁porn	-345
▁tha	-346
tr	-347
niú	-348
tais	-349
se	-350
isiún	-351
▁úsáid	-352
▁gach	-353
00	-354
▁aisce	-355
li	-356
aighd	-357
▁gn	-358
abh	-359
aoine	-360
ois	-361
óipeáil	-362
▁3	-363
▁19	-364
▁fu	-365
ála	-366
oisc	-367
aeil	-368
ras	-369
▁ón	-370
Cuntas	-371
aeilge	-372
olá	-373
weet	-374
▁chl	-375
▁Cóipeáil	-376
▁san	-377
teach	-378
▁br	-379
tach	-380
▁nach	-381
íne	-382
éim	-383
nas	-384
ro	-385
▁Ag	-386
eis	-387
reagra	-388
▁fáil	-389
rach	-390
eirbh	-391
▁mó	-392
▁bhain	-393
oig	-394
chial	-395
▁chuid	-396
ath	-397
irt	-398
eitheamh	-399
íoc	-400
el	-401
▁Bh	-402
ph	-403
▁st	-404
▁si	-405
omhair	-406
▁ní	-407
aon	-408
bhar	-409
▁maith	-410
ib	-411
▁iom	-412
arr	-413
eirbhís	-414
oim	-415
éil	-416
aghaidh	-417
ug	-418
las	-419
▁sp	-420
▁haghaidh	-421
▁ann	-422
ire	-423
▁lena	-424
luich	-425
dir	-426
ineá	-427
ter	-428
eic	-429
aíochta	-430
▁gC	-431
▁U	-432
nd	-433
▁fé	-434
▁chloig	-435
▁Th	-436
earr	-437
ná	-438
oláth	-439
eist	-440
▁iad	-441
ud	-442
▁leanúna	-443
uid	-444
éis	-445
▁réir	-446
▁shin	-447
eacha	-448
ítear	-449
▁ion	-450
reis	-451
all	-452
áirt	-453
ún	-454
oth	-455
▁for	-456
eang	-457
dar	-458
▁uair	-459
óis	-460
iom	-461
▁Aon	-462
▁tweet	-463
sú	-464
radh	-465
lac	-466
eoirí	-467
ineál	-468
úr	-469
sa	-470
▁im	-471
▁leith	-472
▁alt	-473
▁o	-474
eannach	-475
éag	-476
acht	-477
▁amháin	-478
aibh	-479
▁nua	-480
ma	-481
fear	-482
Éir	-483
▁bheidh	-484
▁idir	-485
▁sain	-486
▁Cuir	-487
omhairle	-488
íon	-489
ios	-490
éal	-491
lár	-492
▁ac	-493
▁amach	-494
io	-495
▁mór	-496
▁lu	-497
oibr	-498
lán	-499
▁siad	-500
gead	-501
▁um	-502
▁–	-503
óg	-504
laigh	-505
▁faoin	-506
▁thabhairt	-507
▁“	-508
et	-509
aighdeán	-510
▁gan	-511
▁líne	-512
alt	-513
ara	-514
aimniú	-515
▁pr	-516
▁fís	-517
▁ath	-518
iste	-519
▁áit	-520
▁tar	-521
▁féin	-522
▁nG	-523
um	-524
ige	-525
▁déan	-526
▁Ph	-527
oimh	-528
laim	-529
▁Sc	-530
the	-531
lia	-532
▁Comh	-533
▁son	-534
▁freagra	-535
rith	-536
▁Á	-537
fidh	-538
▁áir	-539
▁ra	-540
▁Dích	-541
▁ans	-542
▁Díchoisc	-543
▁rud	-544
sh	-545
▁Eorp	-546
▁4	-547
st	-548
naí	-549
▁raibh	-550
isiúnta	-551
ait	-552
▁gr	-553
íniú	-554
▁foc	-555
obh	-556
▁5	-557
onn	-558
íol	-559
▁éis	-560
▁cheannach	-561
▁cineál	-562
▁gcás	-563
ip	-564
ed	-565
achta	-566
▁Má	-567
inte	-568
eabh	-569
aíocht	-570
▁Féach	-571
pa	-572
▁cr	-573
▁rá	-574
▁feidhm	-575
nó	-576
údar	-577
eola	-578
▁isteach	-579
och	-580
▁bun	-581
▁daoine	-582
▁fháil	-583
ialta	-584
artha	-585
▁fearr	-586
liain	-587
▁ng	-588
rí	-589
amh	-590
ard	-591
▁cluich	-592
▁beidh	-593
áirg	-594
ionsc	-595
og	-596
▁bhí	-597
íonna	-598
▁fó	-599
iarratas	-600
íodh	-601
▁focal	-602
▁rogh	-603
▁suíomh	-604
eachtaí	-605
▁acu	-606
ost	-607
▁Gh	-608
acha	-609
▁ár	-610
áth	-611
cháin	-612
▁seirbhís	-613
eall	-614
mhíniú	-615
▁nGaeilge	-616
ló	-617
aile	-618
▁cru	-619
ealaigh	-620
íl	-621
▁Acht	-622
éimh	-623
▁tA	-624
▁HD	-625
▁or	-626
▁roimh	-627
raithe	-628
▁mbeidh	-629
▁Cealaigh	-630
onad	-631
▁cos	-632
eap	-633
ts	-634
▁fhrith	-635
níomh	-636
20	-637
ithr	-638
▁ard	-639
▁neamh	-640
aill	-641
▁léir	-642
▁thar	-643
ce	-644
▁linn	-645
iúla	-646
▁méid	-647
▁sainmhíniú	-648
▁bp	-649
ill	-650
▁éag	-651
lacht	-652
▁bríonna	-653
▁6	-654
íor	-655
▁má	-656
▁cú	-657
▁Mh	-658
▁fuaimniú	-659
▁féach	-660
chiallaigh	-661
chiallach	-662
▁comhchiallaigh	-663
▁fhrithchiallach	-664
2)	-665
▁dta	-666
▁ceann	-667
néis	-668
anta	-669
▁Mar	-670
▁In	-671
▁gcomh	-672
nadh	-673
...	-674
Éireann	-675
▁W	-676
▁ts	-677
▁0	-678
ata	-679
reisin	-680
aist	-681
ll	-682
arlaim	-683
ag	-684
ál	-685
▁íoc	-686
ialach	-687
▁anseo	-688
▁freisin	-689
oif	-690
▁mo	-691
▁gá	-692
inne	-693
íobh	-694
▁v	-695
táil	-696
▁V	-697
aisnéis	-698
ibh	-699
tú	-700
▁cur	-701
ins	-702
rom	-703
éadf	-704
▁cuid	-705
▁airgead	-706
bairt	-707
ábh	-708
▁ceal	-709
éadfaidh	-710
▁fhor	-711
),	-712
sca	-713
aisc	-714
▁dtí	-715
▁anois	-716
de	-717
oirm	-718
▁dul	-719
dáil	-720
thair	-721
▁chéad	-722
amp	-723
▁ceart	-724
lú	-725
▁Déan	-726
ite	-727
▁tabhairt	-728
ásta	-729
laíonn	-730
▁leanas	-731
▁duit	-732
com	-733
▁có	-734
▁Sh	-735
éasáin	-736
éile	-737
▁Lea	-738
▁"	-739
▁200	-740
oll	-741
éimhse	-742
▁feitheamh	-743
▁gníomh	-744
▁roinn	-745
thaí	-746
inm	-747
liana	-748
▁Iarratas	-749
▁7	-750
▁Roinn	-751
▁láithr	-752
eana	-753
▁(3	-754
▁hE	-755
▁ea	-756
ot	-757
▁tu	-758
táit	-759
aire	-760
ga	-761
▁Feitheamh	-762
dú	-763
▁ri	-764
▁.	-765
eol	-766
ánach	-767
uaire	-768
▁sna	-769
▁cuir	-770
oifig	-771
▁bhaineann	-772
▁(2)	-773
obair	-774
▁/	-775
ideach	-776
▁bhreathnú	-777
▁nuair	-778
▁bhainfear	-779
íochtaí	-780
▁agh	-781
ne	-782
▁mB	-783
▁aghaidh	-784
▁no	-785
onar	-786
▁éagsú	-787
▁sonraí	-788
ómh	-789
lo	-790
▁agat	-791
ers	-792
▁Sa	-793
▁Eorpach	-794
úint	-795
▁Le	-796
earta	-797
tát	-798
da	-799
▁8	-800
▁ré	-801
gairt	-802
ordú	-803
▁chuig	-804
▁Ó	-805
roí	-806
▁í	-807
mp	-808
tiú	-809
▁roinnt	-810
aing	-811
▁bhaint	-812
op	-813
▁Gaeilge	-814
▁iomlán	-815
▁dáta	-816
▁tS	-817
▁bhfeidhm	-818
▁údar	-819
▁dír	-820
▁obair	-821
▁cáil	-822
atag	-823
▁(1	-824
▁soláth	-825
airm	-826
wit	-827
uithe	-828
▁Beidh	-829
▁gréasáin	-830
racha	-831
istí	-832
oimisiún	-833
rta	-834
lacadh	-835
ragh	-836
úis	-837
ie	-838
óidh	-839
▁Ach	-840
iv	-841
áis	-842
witter	-843
éirí	-844
▁tréimhse	-845
▁ba	-846
íocha	-847
▁ainm	-848
▁cheart	-849
▁fad	-850
áirgí	-851
▁arna	-852
▁[	-853
▁sí	-854
▁dea	-855
irteag	-856
▁ábhar	-857
oiblí	-858
álacha	-859
▁hÉireann	-860
▁cluiche	-861
aic	-862
alls	-863
▁Lean	-864
▁leor	-865
▁éagsúla	-866
▁chuir	-867
▁dó	-868
▁Twitter	-869
▁9	-870
lamh	-871
▁scoil	-872
fhéadf	-873
▁dhá	-874
▁rial	-875
▁físeáin	-876
▁18	-877
laí	-878
chán	-879
▁Go	-880
eireadh	-881
▁dhaoine	-882
lean	-883
▁leag	-884
ub	-885
ust	-886
raith	-887
▁tac	-888
▁so	-889
ideal	-890
▁Aontais	-891
órt	-892
▁síos	-893
▁hA	-894
irteagal	-895
▁bu	-896
ladh	-897
▁Sp	-898
álta	-899
▁hEorp	-900
▁scoth	-901
▁Fh	-902
iúnach	-903
▁iarr	-904
▁teacht	-905
pháirt	-906
▁10	-907
aip	-908
▁hEorpa	-909
éanna	-910
▁Bain	-911
▁mea	-912
▁bith	-913
aíochtaí	-914
aisp	-915
▁chéile	-916
eagmh	-917
eolas	-918
▁lagh	-919
).	-920
EN	-921
▁aige	-922
arlaimint	-923
ura	-924
▁físeán	-925
▁caighdeán	-926
▁mé	-927
▁deir	-928
▁cl	-929
▁chinn	-930
▁áirithe	-931
ri	-932
imp	-933
▁É	-934
▁J	-935
éanann	-936
▁tionsc	-937
úirt	-938
onc	-939
▁bhun	-940
par	-941
▁ndéan	-942
▁íos	-943
tal	-944
ruth	-945
▁éif	-946
láinte	-947
lárú	-948
▁oibr	-949
▁phr	-950
▁cheann	-951
ran	-952
íní	-953
osta	-954
▁ais	-955
▁dear	-956
onta	-957
▁frea	-958
▁Co	-959
lódáil	-960
▁Fu	-961
raghas	-962
eicn	-963
▁ionad	-964
saí	-965
▁oifig	-966
▁to	-967
ims	-968
▁meas	-969
men	-970
▁inn	-971
cha	-972
éarla	-973
▁domh	-974
ró	-975
thanach	-976
earraí	-977
taithe	-978
▁gcuid	-979
reith	-980
▁fásta	-981
▁trá	-982
oils	-983
▁mbain	-984
tálacha	-985
▁láthair	-986
land	-987
▁Dh	-988
eisteanna	-989
▁dói	-990
▁bhliain	-991
ibé	-992
arc	-993
asc	-994
▁scann	-995
▁Ná	-996
▁leo	-997
aine	-998
▁beag	-999
gadh	-1000
▁&	-1001
ram	-1002
▁cheana	-1003
▁St	-1004
▁fo	-1005
▁fho	-1006
lann	-1007
em	-1008
úl	-1009
▁dheis	-1010
▁bain	-1011
▁Ba	-1012
▁Aire	-1013
istr	-1014
oiscthe	-1015
éamh	-1016
▁féachaint	-1017
▁dhéan	-1018
▁cead	-1019
▁2018	-1020
aif	-1021
▁Iúil	-1022
ca	-1023
ears	-1024
▁12	-1025
scoil	-1026
▁oir	-1027
oic	-1028
▁Air	-1029
▁15	-1030
▁Coiscthe	-1031
od	-1032
▁€	-1033
ilt	-1034
uas	-1035
▁dlí	-1036
ábháil	-1037
▁bliana	-1038
áirítear	-1039
▁gcó	-1040
▁Tweet	-1041
chu	-1042
▁Fís	-1043
▁riachta	-1044
mhainn	-1045
▁chóir	-1046
▁AE	-1047
atwee	-1048
▁suas	-1049
▁tAire	-1050
atweetálacha	-1051
▁Porn	-1052
íonadh	-1053
▁oib	-1054
aol	-1055
▁For	-1056
▁ríomh	-1057
ul	-1058
tóir	-1059
aoil	-1060
▁lé	-1061
▁Tr	-1062
▁cibé	-1063
ón	-1064
▁díreach	-1065
▁Márta	-1066
▁Deireadh	-1067
▁Ath	-1068
▁Cu	-1069
onas	-1070
únach	-1071
aistigh	-1072
thu	-1073
▁Rialach	-1074
▁Dé	-1075
aois	-1076
reid	-1077
▁réim	-1078
iallaíonn	-1079
▁2017	-1080
iar	-1081
ealach	-1082
▁chaighdeán	-1083
lian	-1084
▁leas	-1085
▁(3)	-1086
▁Chomhairle	-1087
▁foir	-1088
fhéadfadh	-1089
ríobh	-1090
▁sórt	-1091
▁siú	-1092
▁rann	-1093
▁Éir	-1094
▁Chun	-1095
▁líon	-1096
▁leath	-1097
▁Ú	-1098
▁seirbhísí	-1099
▁iarratas	-1100
▁iarra	-1101
▁K	-1102
▁coth	-1103
▁At	-1104
▁Tug	-1105
▁bra	-1106
▁Chomh	-1107
▁gnó	-1108
▁Rial	-1109
Ch	-1110
oiste	-1111
mar	-1112
alta	-1113
eath	-1114
ifig	-1115
▁ria	-1116
▁la	-1117
ontae	-1118
of	-1119
úir	-1120
iaidh	-1121
▁más	-1122
▁laistigh	-1123
▁íoslódáil	-1124
ct	-1125
iona	-1126
ainm	-1127
▁chos	-1128
▁sholáth	-1129
ort	-1130
▁tras	-1131
▁Cluich	-1132
▁leibh	-1133
eanga	-1134
oimis	-1135
imid	-1136
ocht	-1137
▁Comhrá	-1138
▁huaire	-1139
aireacht	-1140
10	-1141
▁ndáil	-1142
ii	-1143
ideachais	-1144
▁Oir	-1145
atagóir	-1146
eachtais	-1147
▁mí	-1148
sáid	-1149
▁táirgí	-1150
▁leathanach	-1151
ss	-1152
▁e	-1153
ael	-1154
▁feadh	-1155
▁láithreán	-1156
▁Leab	-1157
ailte	-1158
▁Airteagal	-1159
tan	-1160
iscint	-1161
▁mbaineann	-1162
▁iontach	-1163
áiste	-1164
obal	-1165
eagmháil	-1166
▁fós	-1167
▁faisnéis	-1168
▁w	-1169
▁De	-1170
▁uisce	-1171
ár	-1172
onraí	-1173
dála	-1174
tála	-1175
▁Ard	-1176
iméad	-1177
iúint	-1178
▁dú	-1179
obail	-1180
sp	-1181
earsanta	-1182
eideal	-1183
ág	-1184
▁bhíonn	-1185
▁mbeadh	-1186
▁tráth	-1187
aig	-1188
ity	-1189
char	-1190
▁oibre	-1191
úin	-1192
achtach	-1193
▁cothrom	-1194
eabhsú	-1195
▁luach	-1196
inneadh	-1197
▁clár	-1198
ice	-1199
▁min	-1200
000	-1201
▁mheas	-1202
▁choinn	-1203
▁2019	-1204
▁gheall	-1205
ow	-1206
ut	-1207
lais	-1208
▁Br	-1209
arasc	-1210
ala	-1211
▁páirt	-1212
▁gComhairle	-1213
weetáil	-1214
iúcháin	-1215
▁céanna	-1216
▁cluichí	-1217
eiceáil	-1218
and	-1219
▁tos	-1220
eisialta	-1221
altaí	-1222
ish	-1223
▁mhí	-1224
▁coinn	-1225
▁déanta	-1226
▁eolas	-1227
ríbh	-1228
▁teo	-1229
ck	-1230
▁Baile	-1231
rúpa	-1232
▁fud	-1233
ast	-1234
ibr	-1235
▁Leabaigh	-1236
▁(1)	-1237
eách	-1238
▁iarraidh	-1239
mhacht	-1240
▁Na	-1241
▁Agus	-1242
ond	-1243
líonadh	-1244
▁fhreagra	-1245
▁Atweetáil	-1246
▁ordú	-1247
ómhair	-1248
▁Ean	-1249
▁scéim	-1250
oit	-1251
▁Com	-1252
▁thug	-1253
náisiúnta	-1254
▁dóibh	-1255
óisialta	-1256
▁féadfaidh	-1257
▁iar	-1258
▁gnéas	-1259
▁seach	-1260
eoidh	-1261
▁seacht	-1262
eimh	-1263
iam	-1264
▁of	-1265
▁rogha	-1266
íche	-1267
▁againn	-1268
▁fógra	-1269
▁orthu	-1270
▁11	-1271
▁24	-1272
▁Fómhair	-1273
CE	-1274
▁nós	-1275
cs	-1276
▁breis	-1277
▁cion	-1278
▁Soláth	-1279
ide	-1280
ráid	-1281
iúin	-1282
▁liom	-1283
▁Comhairle	-1284
lan	-1285
bhair	-1286
▁bliain	-1287
raíonn	-1288
▁Oifig	-1289
▁leic	-1290
stit	-1291
▁infh	-1292
réir	-1293
ew	-1294
▁tuair	-1295
▁mír	-1296
íre	-1297
ruithe	-1298
▁14	-1299
▁16	-1300
▁Beal	-1301
▁uil	-1302
ation	-1303
chuí	-1304
▁tSín	-1305
▁tug	-1306
▁mhír	-1307
▁ráta	-1308
▁Fuaimniú	-1309
ov	-1310
▁cé	-1311
▁áireamh	-1312
▁Tu	-1313
táin	-1314
▁gcónaí	-1315
thóir	-1316
▁críocha	-1317
4)	-1318
íollacha	-1319
▁deis	-1320
úrtha	-1321
▁Gnó	-1322
ustaim	-1323
▁Aontaithe	-1324
▁The	-1325
llmh	-1326
▁13	-1327
▁feidhme	-1328
▁Balls	-1329
str	-1330
▁sm	-1331
▁iomchuí	-1332
▁bhfo	-1333
▁cabh	-1334
▁dl	-1335
osc	-1336
▁baint	-1337
▁leibhéal	-1338
▁Cé	-1339
▁ghlacadh	-1340
▁náisiúnta	-1341
iomlán	-1342
iosta	-1343
ríomh	-1344
▁Eorpaigh	-1345
▁fheabhsú	-1346
▁scannán	-1347
laidh	-1348
▁Féadfaidh	-1349
eád	-1350
aighde	-1351
eora	-1352
eoladh	-1353
aispeáin	-1354
Béarla	-1355
▁Coimisiún	-1356
▁17	-1357
éadú	-1358
▁aistr	-1359
▁mhéid	-1360
luais	-1361
▁comhair	-1362
▁ciallaíonn	-1363
▁amhlaidh	-1364
éithe	-1365
▁aith	-1366
ps	-1367
mas	-1368
ka	-1369
thar	-1370
▁tríd	-1371
▁Físeán	-1372
ism	-1373
▁measc	-1374
ng	-1375
▁taobh	-1376
ós	-1377
19	-1378
▁croí	-1379
áirge	-1380
▁háir	-1381
idí	-1382
▁príomh	-1383
▁Uimh	-1384
▁leictr	-1385
org	-1386
▁tion	-1387
bhreith	-1388
▁mian	-1389
▁athrú	-1390
iu	-1391
▁ró	-1392
▁muid	-1393
oimeád	-1394
▁Rialachán	-1395
tóirí	-1396
▁30	-1397
ok	-1398
me	-1399
iteach	-1400
▁Seirbhís	-1401
eagh	-1402
▁cail	-1403
▁Nach	-1404
▁2016	-1405
▁haon	-1406
aimh	-1407
lainn	-1408
ab	-1409
▁cáilíochta	-1410
▁éifeacht	-1411
inear	-1412
ler	-1413
mheas	-1414
12	-1415
man	-1416
▁lú	-1417
▁rialach	-1418
éadfar	-1419
▁199	-1420
eatha	-1421
▁Í	-1422
▁Samh	-1423
CH	-1424
nacha	-1425
▁rith	-1426
aontú	-1427
AI	-1428
uine	-1429
ailiú	-1430
eofar	-1431
Acht	-1432
oimisin	-1433
inearálta	-1434
airí	-1435
▁Stáit	-1436
▁háirithe	-1437
▁Náisiúnta	-1438
irí	-1439
▁Éirinn	-1440
ailt	-1441
éasca	-1442
áit	-1443
náth	-1444
achtar	-1445
aíonn	-1446
▁Airgead	-1447
▁Oireachtais	-1448
▁eis	-1449
áistí	-1450
▁gcuir	-1451
art	-1452
eanta	-1453
▁bia	-1454
▁Stát	-1455
scríobh	-1456
stitiú	-1457
▁speisialta	-1458
aite	-1459
▁chomhrá	-1460
ics	-1461
▁freagairt	-1462
raigh	-1463
EA	-1464
▁Lu	-1465
chur	-1466
▁shu	-1467
▁chlárú	-1468
▁Nuair	-1469
▁dhéanann	-1470
láir	-1471
namh	-1472
▁Su	-1473
▁fíor	-1474
▁lae	-1475
gn	-1476
ay	-1477
maí	-1478
▁uile	-1479
onradh	-1480
▁deireadh	-1481
▁ansin	-1482
qu	-1483
ou	-1484
▁sholáthar	-1485
oghlaim	-1486
▁Pharlaimint	-1487
ash	-1488
íola	-1489
▁k	-1490
▁éil	-1491
▁Ceisteanna	-1492
éanaí	-1493
▁poiblí	-1494
▁Leas	-1495
▁Iar	-1496
▁gcoinn	-1497
▁réimse	-1498
▁lán	-1499
ent	-1500
reat	-1501
aitheamh	-1502
▁tábh	-1503
bo	-1504
▁Dáil	-1505
▁bhrí	-1506
eithic	-1507
▁próis	-1508
▁fhorbairt	-1509
per	-1510
▁ghníomh	-1511
ies	-1512
▁cuideachta	-1513
▁tair	-1514
▁Feabh	-1515
▁téar	-1516
▁monar	-1517
lé	-1518
rian	-1519
▁thu	-1520
tachta	-1521
eicneola	-1522
5.	-1523
▁beart	-1524
usp	-1525
arascáil	-1526
▁po	-1527
▁Bhí	-1528
ior	-1529
▁modh	-1530
eartha	-1531
▁éig	-1532
earn	-1533
▁chruth	-1534
▁(4)	-1535
▁uir	-1536
▁ghnó	-1537
íortha	-1538
▁áitiúil	-1539
abháil	-1540
eaptha	-1541
ríbhinn	-1542
▁údarás	-1543
▁pearsanta	-1544
▁ís	-1545
mhainní	-1546
▁cosúil	-1547
óra	-1548
faí	-1549
▁os	-1550
▁eol	-1551
éacs	-1552
▁cuí	-1553
▁aic	-1554
▁ur	-1555
▁Rinne	-1556
líon	-1557
▁suim	-1558
▁ceang	-1559
▁aer	-1560
eim	-1561
▁Tithe	-1562
▁rialacha	-1563
▁imeachta	-1564
sí	-1565
aitéis	-1566
▁bhu	-1567
▁imirt	-1568
lachtaí	-1569
ex	-1570
▁'	-1571
▁dif	-1572
bartha	-1573
ly	-1574
▁déanaí	-1575
▁roghnú	-1576
ealbh	-1577
graítear	-1578
▁Bu	-1579
▁str	-1580
isín	-1581
▁nu	-1582
osca	-1583
ochtain	-1584
arlaiminte	-1585
,000	-1586
▁Seo	-1587
▁cumh	-1588
▁domhan	-1589
▁staid	-1590
▁praghas	-1591
▁airgeadra	-1592
▁airgeadais	-1593
úla	-1594
▁Átha	-1595
ioc	-1596
▁Gael	-1597
▁Gnóthaí	-1598
▁fheidhm	-1599
▁sábháil	-1600
▁bunaithe	-1601
aise	-1602
▁Aontas	-1603
▁Parlaiminte	-1604
ick	-1605
16	-1606
▁chead	-1607
imist	-1608
▁teas	-1609
uigh	-1610
▁sná	-1611
▁ort	-1612
abhair	-1613
▁Catagóir	-1614
▁25	-1615
ampla	-1616
▁chr	-1617
ontas	-1618
áirteach	-1619
óin	-1620
▁Idir	-1621
naithe	-1622
▁aonair	-1623
▁fiú	-1624
liath	-1625
▁mura	-1626
▁soc	-1627
aige	-1628
▁mal	-1629
eoireachta	-1630
▁Ballstáit	-1631
▁teanga	-1632
▁sheoladh	-1633
éig	-1634
dach	-1635
▁saol	-1636
reas	-1637
ong	-1638
istiú	-1639
▁21	-1640
est	-1641
tiúr	-1642
uath	-1643
▁hiomlán	-1644
▁coinníollacha	-1645
ideachas	-1646
▁dtagraítear	-1647
▁Conas	-1648
▁dhear	-1649
▁gcomhréir	-1650
▁23	-1651
nithe	-1652
▁Noll	-1653
orthaí	-1654
fa	-1655
▁dtug	-1656
tair	-1657
▁thr	-1658
▁gairm	-1659
ke	-1660
▁chás	-1661
▁roimhe	-1662
▁tagairt	-1663
oiliú	-1664
áilte	-1665
leach	-1666
▁uath	-1667
líne	-1668
aithí	-1669
▁22	-1670
▁Níl	-1671
▁domhain	-1672
▁chosaint	-1673
▁Cluichí	-1674
eála	-1675
nacht	-1676
▁Cliath	-1677
▁lucht	-1678
ate	-1679
eala	-1680
▁Cru	-1681
▁saoth	-1682
ack	-1683
▁gcr	-1684
ions	-1685
▁gcéad	-1686
lín	-1687
ff	-1688
▁aois	-1689
▁Tugadh	-1690
iosrú	-1691
▁bhfor	-1692
▁scr	-1693
▁laghdú	-1694
únas	-1695
▁cruinn	-1696
5)	-1697
áidí	-1698
▁gceist	-1699
tu	-1700
ino	-1701
nais	-1702
▁Mí	-1703
Fómh	-1704
▁thos	-1705
▁tacaíocht	-1706
▁nád	-1707
áip	-1708
aillimh	-1709
▁shampla	-1710
chta	-1711
▁cúr	-1712
ver	-1713
▁100	-1714
▁dtaobh	-1715
itheoirí	-1716
inbh	-1717
▁Airgeadais	-1718
▁2014	-1719
achtaí	-1720
ID	-1721
▁Cur	-1722
athair	-1723
ileanna	-1724
▁cad	-1725
lic	-1726
▁iúl	-1727
▁Cuntas	-1728
one	-1729
▁cruach	-1730
lis	-1731
▁ord	-1732
iz	-1733
AR	-1734
eanas	-1735
rainn	-1736
oireann	-1737
▁dúinn	-1738
ófar	-1739
osm	-1740
▁stiú	-1741
ore	-1742
▁cás	-1743
oncler	-1744
▁Cad	-1745
ábhar	-1746
rann	-1747
▁conas	-1748
ostaíochta	-1749
atagóirí	-1750
15	-1751
mhar	-1752
ons	-1753
aiteach	-1754
aib	-1755
▁Dá	-1756
▁eolais	-1757
leag	-1758
▁Saor	-1759
▁súil	-1760
ree	-1761
ris	-1762
▁Nua	-1763
olas	-1764
▁forálacha	-1765
oimisinéirí	-1766
.”	-1767
▁Treoir	-1768
ana	-1769
túil	-1770
ógra	-1771
▁dath	-1772
▁leanaí	-1773
▁Más	-1774
gann	-1775
▁bog	-1776
▁inmh	-1777
▁Im	-1778
ment	-1779
13	-1780
▁chuige	-1781
ve	-1782
▁inar	-1783
ideo	-1784
▁shon	-1785
▁idirnáisiúnta	-1786
▁chó	-1787
▁siúl	-1788
tor	-1789
▁Mór	-1790
▁Scoil	-1791
ógáil	-1792
▁Clár	-1793
▁ghnáth	-1794
▁láithreach	-1795
▁vó	-1796
fach	-1797
▁chroí	-1798
umas	-1799
ang	-1800
▁teagmháil	-1801
eachtach	-1802
▁oiriúnach	-1803
▁—	-1804
eam	-1805
▁tír	-1806
▁Éireann	-1807
ustaiméirí	-1808
▁laghad	-1809
aítear	-1810
▁thaobh	-1811
▁táirge	-1812
▁inniu	-1813
fhonn	-1814
áinig	-1815
▁gcoinne	-1816
und	-1817
IN	-1818
rúdú	-1819
mra	-1820
....	-1821
▁2015	-1822
eartas	-1823
gid	-1824
▁Am	-1825
▁doic	-1826
▁bP	-1827
▁ndiaidh	-1828
▁chinntiú	-1829
ille	-1830
rac	-1831
▁Lá	-1832
eit	-1833
aird	-1834
▁tho	-1835
aims	-1836
▁éad	-1837
▁Trá	-1838
▁osc	-1839
▁cheang	-1840
▁cinneadh	-1841
▁tuilleadh	-1842
▁Y	-1843
▁cuireadh	-1844
▁Gaillimh	-1845
▁Cas	-1846
▁2013	-1847
▁bhealach	-1848
ble	-1849
▁bearta	-1850
▁phróis	-1851
▁cli	-1852
▁tús	-1853
▁ailt	-1854
▁grian	-1855
▁chruthú	-1856
▁breise	-1857
áide	-1858
▁réamh	-1859
▁car	-1860
gas	-1861
▁Bord	-1862
▁foirm	-1863
▁leagan	-1864
▁dara	-1865
▁déanamh	-1866
▁sláinte	-1867
▁rinneadh	-1868
▁chineál	-1869
realamh	-1870
▁Sláinte	-1871
AE	-1872
ap	-1873
darás	-1874
eapadh	-1875
ess	-1876
▁eag	-1877
▁Meán	-1878
▁cánach	-1879
▁Re	-1880
ailís	-1881
▁dáil	-1882
íoctha	-1883
▁fuinn	-1884
▁úsáidtear	-1885
eánach	-1886
▁Pr	-1887
18	-1888
▁Do	-1889
▁dhuine	-1890
▁dtugtar	-1891
1)	-1892
▁Ionc	-1893
▁córas	-1894
▁forbairt	-1895
14	-1896
▁tás	-1897
ind	-1898
naigh	-1899
▁cabhrú	-1900
▁Áit	-1901
ianta	-1902
tail	-1903
rioc	-1904
▁bhonn	-1905
▁maoin	-1906
▁margadh	-1907
▁Bainfidh	-1908
tigh	-1909
tán	-1910
▁tal	-1911
▁rialú	-1912
bhreithniú	-1913
▁réas	-1914
36	-1915
▁Achta	-1916
▁rochtain	-1917
▁Rogh	-1918
osmálta	-1919
50	-1920
▁taighde	-1921
ks	-1922
▁sprea	-1923
▁déanfar	-1924
aireachta	-1925
▁blian	-1926
▁tAcht	-1927
▁tionscad	-1928
▁leathan	-1929
ive	-1930
▁iomp	-1931
▁tiom	-1932
▁bunaidh	-1933
▁riachtanais	-1934
▁Cr	-1935
nama	-1936
stal	-1937
íona	-1938
▁leanbh	-1939
▁slá	-1940
▁lámh	-1941
rucht	-1942
fheidhm	-1943
óc	-1944
▁dhiaidh	-1945
paí	-1946
▁éasca	-1947
30	-1948
▁Gach	-1949
▁céim	-1950
AN	-1951
▁Aib	-1952
▁197	-1953
▁bpr	-1954
its	-1955
aimid	-1956
▁cruth	-1957
▁sásta	-1958
▁dT	-1959
▁léinn	-1960
▁limist	-1961
ostaithe	-1962
gt	-1963
ionsa	-1964
straim	-1965
▁27	-1966
▁dí	-1967
24	-1968
eachtain	-1969
ling	-1970
▁mhar	-1971
tion	-1972
aingt	-1973
naíonn	-1974
adhb	-1975
▁réig	-1976
éann	-1977
▁curtha	-1978
aighdeáin	-1979
▁infheist	-1980
chóir	-1981
ompar	-1982
▁rinne	-1983
éin	-1984
▁26	-1985
uirear	-1986
naíodh	-1987
oibríoch	-1988
▁chuideachta	-1989
odh	-1990
aifead	-1991
▁mbliana	-1992
▁dhosmálta	-1993
léas	-1994
▁riar	-1995
ibreán	-1996
▁thíos	-1997
▁glacadh	-1998
aispeáint	-1999
▁mhór	-2000
▁diú	-2001
▁difr	-2002
▁smaoin	-2003
aipit	-2004
▁sainch	-2005
▁griangh	-2006
ola	-2007
ments	-2008
ianaise	-2009
▁Ghaeilge	-2010
▁creid	-2011
▁ghabh	-2012
eirm	-2013
▁tríú	-2014
reabh	-2015
▁1.	-2016
fr	-2017
▁eagra	-2018
▁talamh	-2019
easta	-2020
▁catagóirí	-2021
ton	-2022
▁seachas	-2023
SA	-2024
our	-2025
▁196	-2026
▁minic	-2027
itheach	-2028
▁Sonraí	-2029
▁leanúint	-2030
rad	-2031
implí	-2032
▁ionc	-2033
▁28	-2034
úinteoirí	-2035
▁Or	-2036
▁Cos	-2037
▁díol	-2038
údarás	-2039
▁aims	-2040
▁aird	-2041
▁iarratais	-2042
bla	-2043
atha	-2044
máin	-2045
ruinn	-2046
▁amhail	-2047
ik	-2048
anc	-2049
▁lig	-2050
▁fhág	-2051
ress	-2052
▁ullmh	-2053
▁Oideachais	-2054
▁neart	-2055
▁choinneáil	-2056
únú	-2057
▁29	-2058
▁(32	-2059
▁soch	-2060
▁airde	-2061
▁láimh	-2062
▁ábhair	-2063
oiléir	-2064
áirgeadh	-2065
oitianta	-2066
▁nádúrtha	-2067
11	-2068
▁críoch	-2069
▁(5)	-2070
ise	-2071
olla	-2072
▁ama	-2073
▁ndear	-2074
ual	-2075
▁meách	-2076
▁ndéanfar	-2077
▁fhios	-2078
▁arís	-2079
amlíne	-2080
▁Soláthraithe	-2081
asta	-2082
orm	-2083
▁comhrá	-2084
▁int	-2085
ghaidh	-2086
únamh	-2087
▁chuireann	-2088
▁chomhlíonadh	-2089
irg	-2090
▁freastal	-2091
An	-2092
▁31	-2093
▁con	-2094
aimseartha	-2095
lec	-2096
let	-2097
éalta	-2098
▁Fo	-2099
▁dte	-2100
▁fhaisnéis	-2101
▁il	-2102
▁mol	-2103
▁gurb	-2104
ána	-2105
▁mac	-2106
▁éist	-2107
II	-2108
▁Faigh	-2109
▁Máirt	-2110
▁ábhartha	-2111
▁Gaeltachta	-2112
ile	-2113
raf	-2114
▁fada	-2115
iciúil	-2116
illiún	-2117
aor	-2118
▁ionta	-2119
▁istigh	-2120
éard	-2121
▁tapa	-2122
▁cuairt	-2123
▁di	-2124
ochta	-2125
▁torthaí	-2126
▁Lond	-2127
▁nithe	-2128
▁plean	-2129
▁scoile	-2130
airte	-2131
▁eas	-2132
▁feabh	-2133
▁rialacháin	-2134
éif	-2135
óif	-2136
eaghlaigh	-2137
▁timp	-2138
▁scair	-2139
allstát	-2140
▁earraí	-2141
▁Tar	-2142
▁Ioncaim	-2143
▁lár	-2144
▁ionas	-2145
lea	-2146
rio	-2147
▁bó	-2148
órais	-2149
mad	-2150
thabh	-2151
seach	-2152
thóirí	-2153
ostaíocht	-2154
ec	-2155
eannta	-2156
▁áirith	-2157
▁thoradh	-2158
▁comhlacht	-2159
▁tábhachtach	-2160
▁samp	-2161
▁bhfad	-2162
áideach	-2163
aitheoir	-2164
▁clips	-2165
▁bhreis	-2166
aoir	-2167
taine	-2168
iteas	-2169
▁íseal	-2170
▁Domh	-2171
▁leasú	-2172
MS	-2173
▁him	-2174
▁stíl	-2175
▁díobh	-2176
▁nóiméad	-2177
▁lit	-2178
▁treoir	-2179
ys	-2180
pp	-2181
aitheoirí	-2182
▁ginearálta	-2183
▁Scéim	-2184
▁Úsáid	-2185
▁Gníomh	-2186
▁iníoctha	-2187
▁éigin	-2188
othú	-2189
▁Bun	-2190
oraip	-2191
itheoir	-2192
aibid	-2193
▁Faoi	-2194
▁sraith	-2195
▁seirbhíse	-2196
pla	-2197
▁aistriú	-2198
aomh	-2199
rain	-2200
▁198	-2201
chtanna	-2202
óireacht	-2203
▁imeachtaí	-2204
▁chug	-2205
▁láid	-2206
lachta	-2207
teacht	-2208
aithfidh	-2209
uan	-2210
▁fear	-2211
▁ghlac	-2212
aispeán	-2213
▁Tionsc	-2214
únta	-2215
▁déanfaidh	-2216
chúis	-2217
iúntas	-2218
▁húsáid	-2219
▁Sceideal	-2220
▁teicneola	-2221
unt	-2222
róidh	-2223
▁naisc	-2224
▁sheach	-2225
▁níl	-2226
ional	-2227
▁Chuid	-2228
óirt	-2229
ings	-2230
▁chlár	-2231
▁cúram	-2232
▁mu	-2233
eantar	-2234
▁soláthraí	-2235
▁sprioc	-2236
▁úsáide	-2237
airde	-2238
▁tuairim	-2239
▁gníomhaíochtaí	-2240
árta	-2241
ber	-2242
▁Eala	-2243
▁airgid	-2244
eangacha	-2245
thú	-2246
oilsiú	-2247
oist	-2248
chlár	-2249
uairisc	-2250
▁comhalta	-2251
17	-2252
néas	-2253
▁tuairisc	-2254
IT	-2255
▁oll	-2256
▁Cluiche	-2257
▁iarracht	-2258
▁Nu	-2259
eog	-2260
uro	-2261
acháin	-2262
▁scríbhinn	-2263
erv	-2264
▁dearadh	-2265
▁tháinig	-2266
▁dar	-2267
▁pic	-2268
▁liosta	-2269
▁soláthar	-2270
▁fa	-2271
neacha	-2272
▁Meitheamh	-2273
iach	-2274
▁mbun	-2275
▁chaitheamh	-2276
Th	-2277
▁lorg	-2278
dhíola	-2279
▁faisnéise	-2280
omp	-2281
mhór	-2282
▁frith	-2283
áiríre	-2284
ismitheoirí	-2285
▁Eoraip	-2286
▁cúis	-2287
▁dhíol	-2288
▁Eanáir	-2289
▁reatha	-2290
▁cóir	-2291
▁iniú	-2292
▁léi	-2293
▁Comments	-2294
athaoir	-2295
▁dteideal	-2296
▁cláraithe	-2297
les	-2298
▁Casino	-2299
▁2012	-2300
▁cusp	-2301
▁meaisín	-2302
AS	-2303
▁Feidhm	-2304
chaighdeán	-2305
arm	-2306
álaí	-2307
▁eala	-2308
▁Rialtais	-2309
▁straitéis	-2310
▁Londain	-2311
▁bhféadf	-2312
óireachta	-2313
ome	-2314
▁pac	-2315
▁cóip	-2316
▁thair	-2317
▁riachtanach	-2318
200	-2319
tóireacht	-2320
▁Bealtaine	-2321
fo	-2322
▁dío	-2323
▁gcrích	-2324
▁scoileanna	-2325
bhú	-2326
load	-2327
iocfaidh	-2328
▁porno	-2329
▁tionchar	-2330
bhun	-2331
▁cearta	-2332
▁fheiceáil	-2333
▁freagrach	-2334
ghníomh	-2335
▁Nollaig	-2336
▁dhéantar	-2337
▁Cum	-2338
▁Cuid	-2339
ork	-2340
olait	-2341
▁2.	-2342
lectr	-2343
▁Monar	-2344
▁laeth	-2345
▁leigh	-2346
▁saoir	-2347
ak	-2348
intí	-2349
▁aici	-2350
ábhair	-2351
eachtas	-2352
▁leabhar	-2353
▁shuíomh	-2354
OR	-2355
▁sr	-2356
▁Contae	-2357
▁téarma	-2358
▁Coimisinéirí	-2359
alar	-2360
▁bharr	-2361
▁breith	-2362
6)	-2363
chadh	-2364
▁iona	-2365
▁Aghaidh	-2366
ens	-2367
airgead	-2368
▁ghairm	-2369
▁Ceann	-2370
▁taithí	-2371
▁chinneadh	-2372
(1)	-2373
▁ngach	-2374
orc	-2375
▁las	-2376
▁stá	-2377
▁deara	-2378
raoi	-2379
thas	-2380
▁iasc	-2381
cr	-2382
▁éileamh	-2383
▁gCoimisiún	-2384
maid	-2385
óifíl	-2386
▁bheadh	-2387
eb	-2388
nda	-2389
▁Un	-2390
▁Coiste	-2391
▁Maidir	-2392
▁reachta	-2393
▁trádála	-2394
▁siúd	-2395
reacht	-2396
▁tíortha	-2397
▁chú	-2398
reamh	-2399
luiche	-2400
▁Naisc	-2401
▁rudaí	-2402
easc	-2403
▁eac	-2404
daithe	-2405
IS	-2406
▁te	-2407
iath	-2408
▁sean	-2409
eoch	-2410
omparáid	-2411
oill	-2412
▁soiléir	-2413
ight	-2414
▁uimh	-2415
▁Gr	-2416
iont	-2417
▁Léir	-2418
▁dr	-2419
▁Ind	-2420
▁fanacht	-2421
▁seoladh	-2422
▁íocaíocht	-2423
▁sl	-2424
llscoil	-2425
aoileadh	-2426
23	-2427
ted	-2428
▁195	-2429
▁Oil	-2430
ream	-2431
ionsab	-2432
ell	-2433
íth	-2434
▁earn	-2435
shaoil	-2436
▁thart	-2437
▁rannpháirt	-2438
▁2020	-2439
▁daon	-2440
aigheann	-2441
ní	-2442
ina	-2443
▁oil	-2444
▁anailís	-2445
atch	-2446
▁Fac	-2447
eanach	-2448
eon	-2449
nam	-2450
▁deimhniú	-2451
luaiseacht	-2452
▁dhéanfaidh	-2453
▁togra	-2454
▁toisc	-2455
▁choimeád	-2456
▁gcomparáid	-2457
▁Cén	-2458
ld	-2459
▁Rá	-2460
▁chumas	-2461
▁Déanfar	-2462
earradh	-2463
▁simplí	-2464
ure	-2465
anda	-2466
leath	-2467
urb	-2468
▁pé	-2469
▁oifigeach	-2470
iarr	-2471
▁sula	-2472
▁Chúirt	-2473
▁Cuireann	-2474
▁áirithiú	-2475
▁ríomhaire	-2476
tí	-2477
iméid	-2478
▁ghabhann	-2479
▁réiteach	-2480
nal	-2481
ora	-2482
oird	-2483
▁malairte	-2484
▁sóisialta	-2485
▁leictreach	-2486
earc	-2487
▁Meith	-2488
oláiste	-2489
▁thionsc	-2490
22	-2491
▁X	-2492
▁costais	-2493
iche	-2494
▁mná	-2495
insean	-2496
▁gearr	-2497
▁monaróirí	-2498
▁Cath	-2499
earadh	-2500
raíocht	-2501
▁shonraí	-2502
ews	-2503
óga	-2504
▁bhF	-2505
adadh	-2506
ánaigh	-2507
▁Liosta	-2508
eicniúil	-2509
▁scannáin	-2510
fhor	-2511
▁ndáiríre	-2512
▁Al	-2513
▁Se	-2514
ineálacha	-2515
▁tóg	-2516
▁inch	-2517
▁fáilte	-2518
▁tarr	-2519
▁tomh	-2520
▁Bhaile	-2521
▁leagtha	-2522
▁comhpháirt	-2523
ól	-2524
▁shoc	-2525
▁dhearna	-2526
▁leagtar	-2527
▁tAontas	-2528
mm	-2529
mhair	-2530
▁Aibreán	-2531
nu	-2532
▁cúig	-2533
▁feithic	-2534
▁thagann	-2535
▁Athraigh	-2536
etc	-2537
▁comp	-2538
▁chúis	-2539
▁tuarascáil	-2540
muigh	-2541
▁tacú	-2542
▁shain	-2543
íosa	-2544
▁gnáth	-2545
nar	-2546
▁Có	-2547
eoin	-2548
▁rio	-2549
erm	-2550
istíochta	-2551
▁Tweetáil	-2552
▁cath	-2553
▁oideachais	-2554
end	-2555
▁gru	-2556
orpar	-2557
thach	-2558
▁léamh	-2559
▁raon	-2560
▁faoina	-2561
aitheach	-2562
mhaíochta	-2563
tes	-2564
▁50	-2565
úrsa	-2566
▁Díl	-2567
▁feist	-2568
▁forbartha	-2569
▁limistéar	-2570
▁j	-2571
▁strucht	-2572
ointe	-2573
▁Grúpa	-2574
▁Electr	-2575
▁áitiúla	-2576
▁fén	-2577
▁Pornload	-2578
rap	-2579
▁Chu	-2580
▁luath	-2581
▁saothair	-2582
▁Ac	-2583
amhail	-2584
▁ins	-2585
sáide	-2586
▁stór	-2587
▁Tag	-2588
eiric	-2589
up	-2590
íoll	-2591
▁léas	-2592
▁As	-2593
▁óga	-2594
▁seas	-2595
raíochta	-2596
stitiúidí	-2597
1,	-2598
ry	-2599
éigh	-2600
▁Dílean	-2601
fe	-2602
▁Str	-2603
▁2009	-2604
▁chugainn	-2605
▁etc	-2606
▁ias	-2607
aireach	-2608
arda	-2609
eobh	-2610
FC	-2611
spl	-2612
láin	-2613
▁Sta	-2614
mhéid	-2615
▁mhaoin	-2616
▁oibriú	-2617
▁nár	-2618
dháil	-2619
reoir	-2620
▁earnáil	-2621
▁dtaca	-2622
1.	-2623
óid	-2624
úirte	-2625
▁mhéadú	-2626
▁teorainn	-2627
chl	-2628
éara	-2629
▁Bra	-2630
▁Tal	-2631
eagra	-2632
▁táil	-2633
namaíoch	-2634
chtála	-2635
▁bhunú	-2636
▁thugann	-2637
▁trealamh	-2638
▁cho	-2639
iteáil	-2640
▁tugadh	-2641
liú	-2642
ous	-2643
reo	-2644
▁mion	-2645
▁ranníoc	-2646
▁Chr	-2647
eithre	-2648
▁Ans	-2649
▁adh	-2650
▁chion	-2651
▁fhoirm	-2652
▁leanúnach	-2653
alla	-2654
▁dár	-2655
▁bhra	-2656
▁cosaint	-2657
▁Pro	-2658
IR	-2659
tanka	-2660
éacht	-2661
▁thoil	-2662
ashtanka	-2663
▁cosanta	-2664
▁and	-2665
▁Leis	-2666
▁Feabhra	-2667
▁at	-2668
▁fol	-2669
▁fáth	-2670
▁Plean	-2671
▁chail	-2672
25	-2673
▁al	-2674
fadh	-2675
ionann	-2676
omharc	-2677
▁réidh	-2678
▁cuntas	-2679
▁teideal	-2680
asturb	-2681
reland	-2682
eallraí	-2683
inmh	-2684
uill	-2685
▁Tac	-2686
▁ról	-2687
tacha	-2688
▁Físeáin	-2689
oy	-2690
▁the	-2691
neamh	-2692
▁dháta	-2693
uc	-2694
uim	-2695
▁togh	-2696
▁ionann	-2697
ES	-2698
lit	-2699
eigh	-2700
▁chríoch	-2701
pháirteach	-2702
ramh	-2703
eilbh	-2704
aidreamh	-2705
cair	-2706
ainne	-2707
PA	-2708
▁Du	-2709
léir	-2710
▁phobal	-2711
bharfaidh	-2712
lish	-2713
▁Thu	-2714
nt	-2715
icial	-2716
▁fuair	-2717
▁Dear	-2718
eonach	-2719
▁léiriú	-2720
av	-2721
obi	-2722
eadóirí	-2723
earmáin	-2724
inbhins	-2725
▁ráiteas	-2726
chla	-2727
▁Mac	-2728
▁dochar	-2729
▁Dú	-2730
▁pl	-2731
▁sá	-2732
▁agam	-2733
▁clárú	-2734
aistr	-2735
▁bhaile	-2736
▁ndéantar	-2737
ood	-2738
▁méad	-2739
▁fir	-2740
▁iompar	-2741
MH	-2742
▁gcu	-2743
▁álainn	-2744
▁phoiblí	-2745
▁Seirbhísí	-2746
▁ngníomh	-2747
iotail	-2748
TA	-2749
▁3.	-2750
inse	-2751
iarra	-2752
▁rang	-2753
lteanas	-2754
reachta	-2755
▁spraoi	-2756
▁ullmhú	-2757
▁snáithe	-2758
br	-2759
gan	-2760
▁194	-2761
itigh	-2762
rd	-2763
oich	-2764
▁gcomhair	-2765
▁Déanfaidh	-2766
▁bail	-2767
úinéir	-2768
bharfar	-2769
iosrúchán	-2770
▁phríomh	-2771
▁scileanna	-2772
▁seomra	-2773
▁roghanna	-2774
rúpaí	-2775
eoil	-2776
gaí	-2777
lóid	-2778
▁dom	-2779
táirg	-2780
▁foils	-2781
▁Ealaíon	-2782
eibh	-2783
éasc	-2784
▁Lún	-2785
insin	-2786
▁Eacht	-2787
▁Rialacháin	-2788
/20	-2789
ier	-2790
▁treo	-2791
▁cháil	-2792
▁údaráis	-2793
úsh	-2794
▁Choimisiún	-2795
▁Ina	-2796
▁Roimh	-2797
▁dteagmháil	-2798
oibriú	-2799
liantúil	-2800
▁thógáil	-2801
thi	-2802
▁sonraithe	-2803
leacht	-2804
▁méadú	-2805
eric	-2806
IL	-2807
itis	-2808
gaidh	-2809
eolaíochta	-2810
▁críche	-2811
▁dam	-2812
▁Líne	-2813
▁hion	-2814
▁dóigh	-2815
▁Leabhar	-2816
▁Uachtar	-2817
íofa	-2818
▁cult	-2819
eobhaidh	-2820
aide	-2821
fhéidir	-2822
▁páistí	-2823
stitiúid	-2824
▁dáileoir	-2825
▁Taispeáin	-2826
oh	-2827
▁táirg	-2828
▁mbíonn	-2829
▁fhágáil	-2830
▁cén	-2831
▁riamh	-2832
pe	-2833
▁teil	-2834
▁láidir	-2835
▁gnéithe	-2836
mobi	-2837
▁bogearraí	-2838
idhm	-2839
▁Phríomh	-2840
365.	-2841
onics	-2842
▁trom	-2843
▁cionn	-2844
▁fuinnimh	-2845
▁San	-2846
▁bunús	-2847
athaoirleach	-2848
nár	-2849
uth	-2850
▁hO	-2851
irce	-2852
▁(6)	-2853
▁193	-2854
▁grá	-2855
roinn	-2856
▁tíre	-2857
thabháil	-2858
LA	-2859
▁hI	-2860
▁rath	-2861
áipéar	-2862
▁MFómh	-2863
▁Stiúr	-2864
aiteachas	-2865
▁Parlaimint	-2866
▁scaireanna	-2867
abhar	-2868
▁doiciméad	-2869
Sh	-2870
eata	-2871
▁Trí	-2872
▁dhiú	-2873
▁tairbh	-2874
▁deiridh	-2875
▁stair	-2876
▁ionstraim	-2877
▁áis	-2878
▁údaraithe	-2879
ats	-2880
úile	-2881
▁eacht	-2882
▁iompair	-2883
ns	-2884
éanta	-2885
fheist	-2886
▁meáchan	-2887
▁cheangal	-2888
CC	-2889
▁Jack	-2890
eamara	-2891
lúth	-2892
▁bán	-2893
▁Poiblí	-2894
▁Masturb	-2895
▁beo	-2896
ndála	-2897
▁Údarás	-2898
▁cumhachta	-2899
▁Electronics	-2900
SP	-2901
ont	-2902
áirtí	-2903
▁chéanna	-2904
▁athbhreithniú	-2905
ocal	-2906
ósta	-2907
▁Vic	-2908
íochas	-2909
▁chomhalta	-2910
eard	-2911
iséad	-2912
phost	-2913
iúntais	-2914
▁beartaithe	-2915
ev	-2916
iorc	-2917
oirt	-2918
▁Éire	-2919
oirgn	-2920
▁meán	-2921
▁aidhm	-2922
2.	-2923
itim	-2924
▁árach	-2925
▁Fáilte	-2926
aitneamh	-2927
tús	-2928
▁Cl	-2929
▁teagmh	-2930
▁Déantar	-2931
▁neamhspl	-2932
▁comhairle	-2933
▁páirteach	-2934
ep	-2935
ball	-2936
lash	-2937
▁Sain	-2938
▁bhráid	-2939
▁scrúdú	-2940
laisteach	-2941
ER	-2942
mb	-2943
▁Te	-2944
▁taist	-2945
ailiúchán	-2946
7)	-2947
▁Meas	-2948
ileach	-2949
▁foirne	-2950
▁lasmuigh	-2951
ON	-2952
net	-2953
arán	-2954
raif	-2955
▁Tugann	-2956
▁hAchtanna	-2957
oladh	-2958
▁áfach	-2959
▁chluiche	-2960
ealaí	-2961
úrsaí	-2962
▁Freagra	-2963
▁cumas	-2964
áirc	-2965
lanna	-2966
romchla	-2967
asamhail	-2968
▁Áitiúil	-2969
▁AN	-2970
▁Ollscoil	-2971
▁sheirbhís	-2972
óil	-2973
▁2010	-2974
▁glac	-2975
eannas	-2976
Tá	-2977
▁Ad	-2978
▁bhr	-2979
arraige	-2980
▁uirlis	-2981
naimh	-2982
▁gcion	-2983
▁tharr	-2984
▁Sóisialta	-2985
▁on	-2986
iail	-2987
▁clú	-2988
▁thion	-2989
▁costas	-2990
▁luaithe	-2991
áiltear	-2992
▁fhógra	-2993
▁coitianta	-2994
únasa	-2995
▁téacs	-2996
▁Forbartha	-2997
US	-2998
né	-2999
▁brú	-3000
▁DFómh	-3001
▁feabhas	-3002
arb	-3003
taíocht	-3004
▁chumhacht	-3005
tic	-3006
▁arb	-3007
▁taisc	-3008
▁Rialtas	-3009
▁Gaillimhe	-3010
rán	-3011
▁faire	-3012
▁suntas	-3013
▁Trádála	-3014
▁féadfar	-3015
▁measfar	-3016
éine	-3017
ipéid	-3018
▁Leag	-3019
rúd	-3020
▁fás	-3021
▁gclár	-3022
▁Leanaí	-3023
▁Lúnasa	-3024
urop	-3025
▁Dlí	-3026
mhara	-3027
tanas	-3028
eimhniú	-3029
▁scrios	-3030
teachta	-3031
▁comhaltaí	-3032
▁fostaíochta	-3033
6,	-3034
ranta	-3035
rófar	-3036
uairim	-3037
eiriceá	-3038
▁cúnamh	-3039
▁réimsí	-3040
▁toiliú	-3041
▁ceallraí	-3042
▁chuirtear	-3043
▁seachtaine	-3044
▁gCuid	-3045
▁smaoineamh	-3046
▁Bó	-3047
▁blianta	-3048
ral	-3049
▁bhfoirm	-3050
▁próiseas	-3051
▁mBallstát	-3052
iúr	-3053
▁reacht	-3054
▁neamhch	-3055
▁Faisnéis	-3056
▁tré	-3057
▁Samhain	-3058
▁dtáirg	-3059
▁uirthi	-3060
inbhinsiún	-3061
chaí	-3062
oiriúnach	-3063
ábhachtach	-3064
▁gcomhairle	-3065
7.	-3066
oigh	-3067
▁Céad	-3068
▁chreid	-3069
▁saoire	-3070
▁cód	-3071
co	-3072
ien	-3073
▁fadhb	-3074
▁téarmaí	-3075
oid	-3076
áinn	-3077
▁mic	-3078
▁Príomh	-3079
▁nósanna	-3080
):	-3081
achán	-3082
▁cuma	-3083
▁mona	-3084
scoile	-3085
▁teach	-3086
aibidil	-3087
eantair	-3088
▁chomhair	-3089
▁Cú	-3090
idir	-3091
chuir	-3092
ithre	-3093
▁Jacket	-3094
▁phobail	-3095
▁sábháilte	-3096
-20	-3097
gen	-3098
oine	-3099
▁talún	-3100
urg	-3101
▁SMS	-3102
chéim	-3103
▁Seol	-3104
▁coir	-3105
▁híoc	-3106
▁ndearnadh	-3107
▁thaispeáint	-3108
lex	-3109
iall	-3110
▁Áir	-3111
▁Réig	-3112
▁gruaige	-3113
▁taifead	-3114
▁tháirgeadh	-3115
▁soláthraithe	-3116
▁gléas	-3117
▁mhodh	-3118
aisceart	-3119
▁infheidhm	-3120
imhin	-3121
aitear	-3122
óisial	-3123
▁bíonn	-3124
7,	-3125
xx	-3126
▁Wh	-3127
insí	-3128
landaí	-3129
▁foirgn	-3130
ant	-3131
▁EU	-3132
▁rún	-3133
tacht	-3134
▁fuaim	-3135
▁Déanann	-3136
8.	-3137
▁nD	-3138
údaráis	-3139
▁tosaigh	-3140
▁ceadúnas	-3141
▁Idirnáisiúnta	-3142
eg	-3143
▁Rann	-3144
▁héif	-3145
▁mích	-3146
▁thuas	-3147
▁comhth	-3148
scríbhinn	-3149
scoileanna	-3150
▁saincheaptha	-3151
3.	-3152
ofa	-3153
óide	-3154
▁Cult	-3155
▁ball	-3156
▁Éireannach	-3157
▁Leasú	-3158
▁uimhir	-3159
▁taitneamh	-3160
▁feidhmeanna	-3161
línte	-3162
▁anuas	-3163
▁rátaí	-3164
▁traid	-3165
oigeart	-3166
▁Ríocht	-3167
▁kashtanka	-3168
ium	-3169
▁CO	-3170
ollag	-3171
rainc	-3172
tiúir	-3173
▁chéim	-3174
▁faide	-3175
▁teastáil	-3176
▁tionscadal	-3177
”,	-3178
▁óg	-3179
▁díl	-3180
ionad	-3181
▁mBan	-3182
▁Roimhe	-3183
aoirs	-3184
▁Bíonn	-3185
▁Nollag	-3186
8,	-3187
ah	-3188
▁leasa	-3189
▁Táirgí	-3190
aoiseamh	-3191
▁Ireland	-3192
eolaíocht	-3193
▁cuirfear	-3194
▁theannta	-3195
oiliúna	-3196
▁seachtain	-3197
ue	-3198
▁seilbh	-3199
▁spreagadh	-3200
▁grianghraif	-3201
▁II	-3202
▁crua	-3203
▁bheas	-3204
éagóirí	-3205
▁rialta	-3206
▁bealach	-3207
▁Óga	-3208
▁Baineann	-3209
▁fheidhmiú	-3210
lub	-3211
▁cá	-3212
iomp	-3213
nann	-3214
tory	-3215
óigh	-3216
▁sta	-3217
▁uas	-3218
eimic	-3219
▁ainmh	-3220
▁Eachtracha	-3221
▁fág	-3222
▁teag	-3223
ivers	-3224
▁Gnéas	-3225
▁Ionad	-3226
▁polait	-3227
▁sín	-3228
▁Ainm	-3229
▁cheap	-3230
3,	-3231
▁Mura	-3232
▁feidhmiú	-3233
BC	-3234
aont	-3235
▁barr	-3236
▁Bhord	-3237
naítear	-3238
▁comhdh	-3239
éardaoin	-3240
▁cheapadh	-3241
▁ad	-3242
▁com	-3243
únais	-3244
▁siar	-3245
▁brath	-3246
▁mhaithe	-3247
▁cineálacha	-3248
21	-3249
sta	-3250
ostaí	-3251
ástáil	-3252
▁gníomhú	-3253
▁milliún	-3254
▁cuirfidh	-3255
íosp	-3256
▁dtús	-3257
▁rialachán	-3258
be	-3259
▁Níor	-3260
▁déil	-3261
▁fion	-3262
reacha	-3263
liceáil	-3264
▁dubh	-3265
laithe	-3266
▁gComh	-3267
▁damáiste	-3268
▁Straitéis	-3269
▁ceanglais	-3270
▁deiseanna	-3271
▁éifeachtach	-3272
▁nglac	-3273
eallacht	-3274
▁Moncler	-3275
aireachtaí	-3276
▁Déardaoin	-3277
ms	-3278
cho	-3279
lena	-3280
▁ola	-3281
oblacht	-3282
▁príobh	-3283
▁Féadfar	-3284
eoireacht	-3285
▁dhéanfar	-3286
▁samh	-3287
igiteach	-3288
▁acmhainní	-3289
▁ndéanfaidh	-3290
▁Soc	-3291
▁2011	-3292
▁oiread	-3293
4,	-3294
ré	-3295
iss	-3296
▁Rúis	-3297
▁foghlaim	-3298
▁tacaíochta	-3299
bhs	-3300
hon	-3301
lacháin	-3302
▁aisíoc	-3303
oimisiúin	-3304
leic	-3305
lóir	-3306
lam	-3307
▁háit	-3308
▁stiúr	-3309
▁deimhin	-3310
▁oscailte	-3311
to	-3312
▁sol	-3313
▁bronn	-3314
ruinniú	-3315
▁chuntas	-3316
are	-3317
▁Oidh	-3318
▁dhlí	-3319
▁mhéad	-3320
▁éadaí	-3321
▁Vicipéid	-3322
AT	-3323
Is	-3324
fí	-3325
▁Dún	-3326
▁marc	-3327
▁sibh	-3328
lainne	-3329
▁scolá	-3330
▁bhailiú	-3331
AM	-3332
róirí	-3333
táistí	-3334
▁Seinn	-3335
▁cúrsaí	-3336
eastaíonn	-3337
ime	-3338
ary	-3339
▁Inn	-3340
▁gal	-3341
▁dírithe	-3342
▁Ed	-3343
▁óc	-3344
▁cum	-3345
loine	-3346
▁fost	-3347
▁Foils	-3348
▁araon	-3349
▁Béarla	-3350
ghabháil	-3351
▁shábháil	-3352
▁fhoghlaim	-3353
.,	-3354
uk	-3355
▁Tú	-3356
▁lo	-3357
▁Con	-3358
▁dual	-3359
▁ceaptha	-3360
▁neamhspleách	-3361
row	-3362
oibreoir	-3363
lay	-3364
ock	-3365
chan	-3366
chas	-3367
▁fais	-3368
▁gear	-3369
▁cumar	-3370
▁suite	-3371
▁fostaithe	-3372
▁ceisteanna	-3373
▁gcuideachta	-3374
Ar	-3375
▁eit	-3376
▁Oibr	-3377
chtaí	-3378
raíodh	-3379
▁video	-3380
▁ioncam	-3381
▁Uair	-3382
▁Aistr	-3383
▁lenár	-3384
▁turas	-3385
▁gheobhaidh	-3386
▁Dr	-3387
▁ex	-3388
▁Ion	-3389
▁éard	-3390
ardach	-3391
uashon	-3392
íneáil	-3393
▁chaoi	-3394
▁sub	-3395
▁Cail	-3396
▁céad	-3397
5,	-3398
úb	-3399
ious	-3400
ánta	-3401
▁Cinn	-3402
ordach	-3403
▁Cead	-3404
▁post	-3405
áthair	-3406
▁Táimid	-3407
▁shocrú	-3408
▁tionscadail	-3409
róid	-3410
▁chosc	-3411
▁úinéir	-3412
ans	-3413
▁100%	-3414
▁Dubh	-3415
▁Uimhir	-3416
aiteachais	-3417
riotaíocht	-3418
▁oideachas	-3419
2,	-3420
▁tóir	-3421
fhoirm	-3422
▁nochta	-3423
▁sealbh	-3424
▁measúnú	-3425
iúna	-3426
luaist	-3427
▁iontu	-3428
▁oíche	-3429
▁Cánach	-3430
▁Choiste	-3431
▁Chonradh	-3432
▁comhaontú	-3433
▁doiciméid	-3434
lon	-3435
ory	-3436
▁Cliceáil	-3437
ger	-3438
▁glas	-3439
▁cláir	-3440
▁bpraghas	-3441
OS	-3442
▁gcur	-3443
▁imsc	-3444
eicniú	-3445
staint	-3446
▁dlíth	-3447
▁abairt	-3448
▁tugtha	-3449
▁tseirbhís	-3450
▁parlaimint	-3451
▁gníomhartha	-3452
ligh	-3453
▁hin	-3454
▁Sean	-3455
▁móra	-3456
▁chaill	-3457
▁gcásanna	-3458
íomhá	-3459
▁dúsh	-3460
▁líonadh	-3461
ithíochta	-3462
▁feiceáil	-3463
▁comhlachtaí	-3464
lta	-3465
res	-3466
▁Íos	-3467
bhuan	-3468
stráil	-3469
▁leighis	-3470
▁maoiniú	-3471
sanna	-3472
▁bonn	-3473
▁deon	-3474
▁spás	-3475
artlann	-3476
eaghlach	-3477
eicniúla	-3478
▁rialaithe	-3479
▁bhféadfadh	-3480
aw	-3481
dhío	-3482
rimh	-3483
▁Thos	-3484
airtear	-3485
▁pobail	-3486
▁ceithre	-3487
▁oscailt	-3488
CHT	-3489
ein	-3490
old	-3491
▁tag	-3492
oifige	-3493
▁mheán	-3494
▁stiúir	-3495
▁cuireann	-3496
rat	-3497
uinn	-3498
omhír	-3499
▁Dara	-3500
▁rach	-3501
▁beaga	-3502
▁seasamh	-3503
▁caillteanas	-3504
▁40	-3505
éala	-3506
thacht	-3507
altóirí	-3508
▁beartais	-3509
▁Scileanna	-3510
▁teaghlaigh	-3511
lama	-3512
▁ind	-3513
▁Tuarascáil	-3514
az	-3515
▁aig	-3516
▁chúl	-3517
▁shlí	-3518
éarmaí	-3519
omhairc	-3520
▁tuiscint	-3521
▁cúpla	-3522
▁mórdhíola	-3523
▁reachtaíocht	-3524
hub	-3525
▁Fhor	-3526
▁roth	-3527
▁bpróis	-3528
▁shealbh	-3529
▁Déagóirí	-3530
▁réasúnach	-3531
onna	-3532
▁Pol	-3533
dhchaí	-3534
untais	-3535
ardaigh	-3536
▁gabháil	-3537
ae	-3538
▁cod	-3539
▁mhonar	-3540
ainneoin	-3541
▁oiliúna	-3542
▁tástála	-3543
tóireachta	-3544
iceáil	-3545
▁thairiscint	-3546
▁Alt	-3547
▁tío	-3548
láine	-3549
▁solas	-3550
▁srian	-3551
▁Cúirte	-3552
▁Factory	-3553
▁tharraingt	-3554
AL	-3555
go	-3556
shaol	-3557
Moncler	-3558
únachta	-3559
▁aithean	-3560
▁oifigiúil	-3561
td	-3562
▁Theas	-3563
▁caite	-3564
▁amuigh	-3565
▁achomharc	-3566
▁iniúchadh	-3567
PS	-3568
ots	-3569
íorú	-3570
mheasa	-3571
▁comhch	-3572
▁liúntas	-3573
fhiosrúchán	-3574
▁tharlaíonn	-3575
unet	-3576
▁slí	-3577
ghabh	-3578
laoch	-3579
▁prionsab	-3580
▁múinteoirí	-3581
40	-3582
lin	-3583
roch	-3584
▁caipit	-3585
▁mhargadh	-3586
▁”	-3587
cra	-3588
ren	-3589
▁Cruach	-3590
▁bhreith	-3591
The	-3592
cam	-3593
olog	-3594
▁hath	-3595
scairt	-3596
▁ngleic	-3597
26	-3598
▁NA	-3599
▁Ro	-3600
lack	-3601
chomh	-3602
▁Comm	-3603
▁thóg	-3604
íochána	-3605
▁Leanúint	-3606
▁ghearradh	-3607
lig	-3608
▁Ex	-3609
áite	-3610
álach	-3611
íleata	-3612
▁gcomhar	-3613
▁ndaoine	-3614
▁fhaigheann	-3615
▁se	-3616
▁Eng	-3617
aille	-3618
▁flash	-3619
leathan	-3620
oghlama	-3621
▁ghearr	-3622
▁dearmad	-3623
▁Céadaoin	-3624
ráin	-3625
▁Íoc	-3626
ríbhn	-3627
▁pornhub	-3628
▁léiríonn	-3629
iii	-3630
▁1,	-3631
core	-3632
ealú	-3633
▁Pac	-3634
▁ham	-3635
▁tra	-3636
imsiú	-3637
raítear	-3638
▁comhartha	-3639
▁Choimisiúin	-3640
9,	-3641
▁óir	-3642
arthas	-3643
iúradh	-3644
▁gceann	-3645
▁teocht	-3646
raitheann	-3647
▁infheidhme	-3648
▁phróiseáil	-3649
ws	-3650
das	-3651
ias	-3652
▁dtáirgí	-3653
▁trádáil	-3654
▁staidéar	-3655
▁4.	-3656
ogra	-3657
oidh	-3658
ational	-3659
ialacha	-3660
ibhialta	-3661
▁dromchla	-3662
off	-3663
uirir	-3664
táiste	-3665
eacháin	-3666
únaithe	-3667
▁iasacht	-3668
▁uathúil	-3669
▁chatagóir	-3670
▁Siar	-3671
▁scéal	-3672
▁tairiscint	-3673
ió	-3674
eac	-3675
▁Gan	-3676
▁Súile	-3677
▁cheist	-3678
▁phlean	-3679
fhéadfaí	-3680
▁acmhainn	-3681
▁cruinniú	-3682
▁grianghraf	-3683
feadh	-3684
▁hamh	-3685
íreach	-3686
▁chorp	-3687
▁ollmhór	-3688
dá	-3689
gais	-3690
ghairm	-3691
osaint	-3692
▁cuidiú	-3693
▁ainmniú	-3694
▁beagnach	-3695
icí	-3696
▁un	-3697
aomhnú	-3698
▁Roinne	-3699
▁gcóras	-3700
▁cuspóirí	-3701
arn	-3702
▁dheon	-3703
áilithe	-3704
istíocht	-3705
▁pictiúir	-3706
▁páirtithe	-3707
."	-3708
9.	-3709
lánú	-3710
umann	-3711
▁glan	-3712
▁dearg	-3713
íchumas	-3714
▁cairde	-3715
▁gceart	-3716
scaoileadh	-3717
▁riaracháin	-3718
▁teicneolaíocht	-3719
by	-3720
ty	-3721
”.	-3722
▁mm	-3723
líona	-3724
ainéal	-3725
iúlacht	-3726
onnaithe	-3727
▁adhmaid	-3728
In	-3729
ez	-3730
▁(7)	-3731
▁Glac	-3732
▁cáin	-3733
▁cumhacht	-3734
Sp	-3735
ba	-3736
▁tí	-3737
ogle	-3738
▁arm	-3739
aíodh	-3740
▁déag	-3741
▁mhal	-3742
60	-3743
CU	-3744
lite	-3745
omhas	-3746
▁brab	-3747
eapáin	-3748
▁bréag	-3749
thaíonn	-3750
▁oiliúint	-3751
▁Oidhreachta	-3752
red	-3753
▁Eac	-3754
▁Man	-3755
▁Hard	-3756
lanadh	-3757
▁cuimhn	-3758
▁héasca	-3759
▁éigean	-3760
▁leibhéil	-3761
▁todhchaí	-3762
▁ainmnithe	-3763
▁comhoiriúnach	-3764
IM	-3765
téar	-3766
▁gáis	-3767
▁faigh	-3768
▁mothú	-3769
▁Ábhar	-3770
▁théann	-3771
▁thugtar	-3772
▁Seirbhíse	-3773
oms	-3774
achan	-3775
▁mais	-3776
▁Cathrach	-3777
▁éisteachta	-3778
/0	-3779
pi	-3780
oibh	-3781
chuid	-3782
▁Éabh	-3783
▁déantar	-3784
▁Eorpacha	-3785
▁áitreabh	-3786
ube	-3787
▁deo	-3788
▁páirtí	-3789
▁Chontae	-3790
▁labhairt	-3791
▁Éabhlóid	-3792
CO	-3793
▁díosp	-3794
▁chóras	-3795
▁orainn	-3796
▁ioncaim	-3797
▁húdaráis	-3798
▁Act	-3799
aifid	-3800
▁léar	-3801
▁nGall	-3802
▁branda	-3803
▁daltaí	-3804
▁bhreise	-3805
▁tráchtála	-3806
níomhaireacht	-3807
ame	-3808
ank	-3809
únaí	-3810
▁Céim	-3811
▁ísle	-3812
▁socrú	-3813
▁sperm	-3814
▁foirfe	-3815
Airteagal	-3816
▁struchtúr	-3817
iel	-3818
▁Dhún	-3819
▁stoc	-3820
▁malar	-3821
▁trína	-3822
▁Tabhar	-3823
▁monarcha	-3824
▁éisteacht	-3825
uirbh	-3826
▁Ciste	-3827
▁luas	-3828
▁Bille	-3829
▁grúpa	-3830
▁miotail	-3831
▁Cláraigh	-3832
▁modhanna	-3833
▁Atweetáilte	-3834
NA	-3835
ros	-3836
▁Son	-3837
▁bua	-3838
▁mba	-3839
mharc	-3840
▁asal	-3841
Údarás	-3842
▁thiom	-3843
▁caighdeáin	-3844
4.	-3845
80	-3846
EM	-3847
__	-3848
▁Il	-3849
ainte	-3850
chtáil	-3851
reoirí	-3852
▁Roghchlár	-3853
▁eagraíochtaí	-3854
▁shá	-3855
▁bosca	-3856
eananna	-3857
▁sochair	-3858
▁gairmiúla	-3859
agra	-3860
ifís	-3861
taigh	-3862
▁Tits	-3863
▁fhad	-3864
▁thrá	-3865
▁baile	-3866
▁fadhbanna	-3867
line	-3868
▁Par	-3869
▁plá	-3870
eanais	-3871
▁bhfaigh	-3872
ians	-3873
▁Slá	-3874
▁bás	-3875
ollar	-3876
eaisín	-3877
chóiriú	-3878
▁Nuacht	-3879
iúnaithe	-3880
▁ceamara	-3881
▁chóipeáil	-3882
▁eacnamaíoch	-3883
Fh	-3884
RO	-3885
sy	-3886
▁%	-3887
ink	-3888
éise	-3889
▁lín	-3890
▁mbu	-3891
▁Daon	-3892
eathrú	-3893
▁hordú	-3894
▁scríobh	-3895
chaighdeáin	-3896
▁sheachaint	-3897
6.	-3898
▁Oib	-3899
▁Ráit	-3900
▁Inter	-3901
arascálacha	-3902
100	-3903
▁Ós	-3904
▁sláint	-3905
iversity	-3906
▁sonrach	-3907
▁Ballstát	-3908
amb	-3909
mid	-3910
eictr	-3911
odáil	-3912
ordaithe	-3913
▁comhaid	-3914
▁scéalta	-3915
raic	-3916
aidió	-3917
iteamh	-3918
▁baill	-3919
▁sampla	-3920
▁hearraí	-3921
▁míreanna	-3922
▁laethanta	-3923
▁uathoibríoch	-3924
TH	-3925
low	-3926
thr	-3927
ealth	-3928
ester	-3929
▁bhua	-3930
▁romh	-3931
▁slán	-3932
tachán	-3933
laítear	-3934
▁toradh	-3935
▁socruithe	-3936
▁eagraíocht	-3937
▁traidisiúnta	-3938
8)	-3939
do	-3940
▁Mo	-3941
▁lin	-3942
▁uait	-3943
▁ligean	-3944
▁cásanna	-3945
▁farraige	-3946
▁fhoireann	-3947
▁chustaiméirí	-3948
UN	-3949
urs	-3950
▁cas	-3951
▁plé	-3952
▁sás	-3953
aillí	-3954
▁geall	-3955
eorainn	-3956
líonann	-3957
▁aithint	-3958
▁deartha	-3959
▁leabhair	-3960
▁mhalairt	-3961
▁shonraítear	-3962
ED	-3963
▁“(	-3964
áint	-3965
▁Bia	-3966
órtas	-3967
bheart	-3968
▁mBord	-3969
▁scoir	-3970
▁oifige	-3971
▁luaitear	-3972
▁nochtadh	-3973
▁tionscal	-3974
▁íocaíochtaí	-3975
súil	-3976
▁sóc	-3977
airtí	-3978
otball	-3979
▁spóirt	-3980
▁tástáil	-3981
raghsanna	-3982
▁taispeán	-3983
▁timpeall	-3984
▁Oideachas	-3985
▁aistrithe	-3986
▁Cá	-3987
dhearc	-3988
iachta	-3989
nachta	-3990
aingean	-3991
thaithe	-3992
fheidhmiú	-3993
▁gairmiúil	-3994
▁y	-3995
▁Ró	-3996
orld	-3997
▁cháin	-3998
▁dúirt	-3999
▁aimsiú	-4000
▁snáith	-4001
▁cailíní	-4002
▁tagairtí	-4003
bhuanaithe	-4004
▁forleathan	-4005
▁sábháilteachta	-4006
DF	-4007
scr	-4008
▁gu	-4009
▁cra	-4010
▁Iomp	-4011
▁sloinn	-4012
▁Tabhair	-4013
▁ab	-4014
eirt	-4015
celet	-4016
▁bord	-4017
▁níor	-4018
▁Údar	-4019
táiniam	-4020
▁spreag	-4021
▁lonnaithe	-4022
▁té	-4023
imes	-4024
▁Col	-4025
▁fis	-4026
neach	-4027
▁teasa	-4028
▁Bhoird	-4029
▁pleanála	-4030
▁himeachtaí	-4031
▁éifeachtaí	-4032
ect	-4033
omb	-4034
túla	-4035
▁Ama	-4036
▁siop	-4037
▁Europ	-4038
▁cuirtear	-4039
▁ainmhithe	-4040
▁hAirteagal	-4041
▁plaisteach	-4042
▁taispeáint	-4043
▁Aer	-4044
▁dia	-4045
ndáil	-4046
illeadh	-4047
▁Níos	-4048
▁corp	-4049
iosrúcháin	-4050
eoga	-4051
ical	-4052
▁Fion	-4053
néithe	-4054
▁ndóigh	-4055
▁Cuirtear	-4056
▁Gréasáin	-4057
▁eisiúint	-4058
▁suntasach	-4059
lad	-4060
lat	-4061
▁.—	-4062
samh	-4063
▁Car	-4064
▁2008	-4065
▁Eolas	-4066
churtha	-4067
▁comhsh	-4068
eolaithe	-4069
▁iontaofa	-4070
ky	-4071
▁5.	-4072
▁Dúin	-4073
▁fuar	-4074
iúchán	-4075
▁Bhain	-4076
▁poist	-4077
eannadh	-4078
eilleag	-4079
▁cailín	-4080
▁réitigh	-4081
▁slándála	-4082
▁chomhaontú	-4083
Uimh	-4084
▁ear	-4085
▁cuims	-4086
▁Síochána	-4087
▁Teicneola	-4088
▁phróiseas	-4089
▁Speisialta	-4090
▁íocaíochta	-4091
ltú	-4092
mer	-4093
▁liath	-4094
eabhair	-4095
▁moltaí	-4096
AD	-4097
ET	-4098
▁éin	-4099
▁caint	-4100
▁seala	-4101
úinteoir	-4102
oifigeach	-4103
▁cliceáil	-4104
oideachais	-4105
▁Stiúrthóir	-4106
▁uaireadóirí	-4107
che	-4108
iciúla	-4109
▁nuála	-4110
▁tsórt	-4111
▁sreang	-4112
▁leathnú	-4113
▁thréimhse	-4114
ód	-4115
AIR	-4116
iac	-4117
lag	-4118
úsa	-4119
▁Fran	-4120
▁clas	-4121
▁gaol	-4122
iúnacha	-4123
allstáit	-4124
▁cáilithe	-4125
▁ghabháil	-4126
▁mbealach	-4127
óisialaigh	-4128
inín	-4129
irim	-4130
thóg	-4131
▁New	-4132
▁Aibí	-4133
▁neamhdh	-4134
▁samplaí	-4135
▁fianaise	-4136
▁foireann	-4137
▁Déantóirí	-4138
▁bhainistiú	-4139
own	-4140
orts	-4141
▁fón	-4142
eorann	-4143
▁íomhá	-4144
▁Monarcha	-4145
▁Rinneadh	-4146
tac	-4147
▁oc	-4148
aoth	-4149
roid	-4150
▁buan	-4151
▁ceol	-4152
▁Foirm	-4153
▁links	-4154
▁scaip	-4155
▁tarraing	-4156
ráma	-4157
▁éirí	-4158
▁deich	-4159
▁inneal	-4160
oibrithe	-4161
ern	-4162
trá	-4163
▁rás	-4164
▁lasc	-4165
▁foráil	-4166
▁ealaíon	-4167
27	-4168
▁OÉ	-4169
▁ghr	-4170
mhach	-4171
▁Tags	-4172
▁dlit	-4173
úlacht	-4174
▁shaol	-4175
leabhar	-4176
▁coimeád	-4177
▁Hardcore	-4178
▁leithéid	-4179
AC	-4180
EC	-4181
▁ós	-4182
▁fuck	-4183
▁inár	-4184
▁éasc	-4185
▁córais	-4186
eithicil	-4187
▁Comhair	-4188
▁tuairimí	-4189
▁choinníoll	-4190
ilv	-4191
nat	-4192
ose	-4193
ímh	-4194
▁Eo	-4195
▁hu	-4196
iúnaí	-4197
▁fios	-4198
uspóir	-4199
▁saothar	-4200
▁áiteanna	-4201
▁hiarratas	-4202
▁compordach	-4203
▁riachtanas	-4204
▁friotaíocht	-4205
ste	-4206
edia	-4207
▁Tion	-4208
▁focail	-4209
▁cuspóir	-4210
Leas	-4211
eaga	-4212
ited	-4213
▁Cás	-4214
ochar	-4215
sCuntas	-4216
▁bheart	-4217
▁hábhair	-4218
eiliúradh	-4219
car	-4220
opa	-4221
▁En	-4222
▁chom	-4223
▁gabh	-4224
▁bhean	-4225
arsáide	-4226
mhachta	-4227
▁chúirt	-4228
▁dathanna	-4229
▁ndéanann	-4230
▁Oifigiúil	-4231
▁Fostaíochta	-4232
!!	-4233
eip	-4234
▁60	-4235
aidin	-4236
ington	-4237
▁cónaí	-4238
▁déantús	-4239
▁buntáistí	-4240
▁leictreonach	-4241
labh	-4242
press	-4243
tanais	-4244
▁Fearr	-4245
▁dhíth	-4246
▁docht	-4247
eachais	-4248
▁réasúnta	-4249
▁caitheamh	-4250
▁cáilíocht	-4251
▁scriosadh	-4252
áist	-4253
▁fuaime	-4254
▁Praghas	-4255
▁domhanda	-4256
▁thosaigh	-4257
▁caithfidh	-4258
▁sheachadadh	-4259
▁tuismitheoirí	-4260
fort	-4261
▁bhó	-4262
ianáin	-4263
aiceann	-4264
oimirce	-4265
▁Pobail	-4266
▁déileáil	-4267
ainmneacha	-4268
▁gcuirfear	-4269
▁parlaiminteach	-4270
▁Ár	-4271
iúnú	-4272
▁Fir	-4273
▁Min	-4274
▁vóta	-4275
únacht	-4276
▁tháirgí	-4277
▁tÚdarás	-4278
▁Faisnéise	-4279
▁cathracha	-4280
▁gcuirtear	-4281
eagraíochtaí	-4282
tur	-4283
▁Ltd	-4284
chais	-4285
othrom	-4286
▁comhar	-4287
▁tharla	-4288
▁chearta	-4289
▁aitheanta	-4290
eng	-4291
▁ardú	-4292
▁dlúth	-4293
▁mions	-4294
▁bunaíodh	-4295
▁athruithe	-4296
▁bliantúil	-4297
bhreithnithe	-4298
ey	-4299
ult	-4300
▁Tair	-4301
▁Aisce	-4302
saíocht	-4303
▁hAoine	-4304
▁pháirt	-4305
▁Fheidhm	-4306
▁réigiún	-4307
▁Thosaitheoirí	-4308
▁ardchaighdeán	-4309
IO	-4310
▁úr	-4311
agus	-4312
bair	-4313
less	-4314
▁deas	-4315
áistiú	-4316
▁bainte	-4317
leagáidí	-4318
onnmhair	-4319
reataine	-4320
▁Léiríonn	-4321
▁úsáideann	-4322
oo	-4323
aisí	-4324
▁sea	-4325
chool	-4326
▁Ghael	-4327
álaithe	-4328
▁triail	-4329
▁plandaí	-4330
son	-4331
unc	-4332
▁fr	-4333
port	-4334
▁lear	-4335
▁scag	-4336
faimid	-4337
thosca	-4338
ánacht	-4339
▁Mheán	-4340
ceannadh	-4341
▁Taighde	-4342
mheasanna	-4343
▁bpróifíl	-4344
Bh	-4345
work	-4346
▁Phen	-4347
▁tosú	-4348
▁táimid	-4349
▁gar	-4350
▁Tarr	-4351
▁Spáinn	-4352
itheacha	-4353
▁Cuirfidh	-4354
▁foghlama	-4355
▁inmheánach	-4356
lfar	-4357
▁lios	-4358
▁siopa	-4359
▁Google	-4360
▁táille	-4361
eachtadh	-4362
▁Astráil	-4363
▁Cabhair	-4364
▁cheantar	-4365
▁thuilleadh	-4366
▁chothabháil	-4367
ica	-4368
min	-4369
▁nA	-4370
▁Dia	-4371
lucht	-4372
▁chru	-4373
▁mhic	-4374
phobal	-4375
athanna	-4376
▁phraghas	-4377
▁phearsanta	-4378
SB	-4379
erg	-4380
irc	-4381
ogadh	-4382
▁Ghnó	-4383
▁Líon	-4384
▁aice	-4385
▁Video	-4386
▁Suíomh	-4387
eáchtáil	-4388
PE	-4389
▁dtu	-4390
▁mún	-4391
daíonn	-4392
▁droch	-4393
▁Dollar	-4394
▁theacht	-4395
▁Chosaint	-4396
▁fhoilsiú	-4397
▁shóisialta	-4398
▁infheistíochta	-4399
HO	-4400
iob	-4401
vis	-4402
▁fór	-4403
▁fíneáil	-4404
▁institiúidí	-4405
▁soláthróirí	-4406
TE	-4407
cy	-4408
(2)	-4409
ung	-4410
easa	-4411
máid	-4412
▁Clárú	-4413
▁Preas	-4414
▁Institiúid	-4415
ness	-4416
some	-4417
▁vol	-4418
leibh	-4419
▁Cabh	-4420
▁phost	-4421
▁Jackets	-4422
▁hamháin	-4423
▁shuiteáil	-4424
Ph	-4425
Mar	-4426
adal	-4427
mhas	-4428
▁Daoine	-4429
▁Leictr	-4430
▁cn	-4431
▁pío	-4432
▁éir	-4433
▁Cons	-4434
▁blas	-4435
chloch	-4436
▁Chéad	-4437
▁ndéanamh	-4438
▁orduithe	-4439
airgeadraí	-4440
▁dheireadh	-4441
gg	-4442
ass	-4443
isíní	-4444
▁char	-4445
▁crit	-4446
iúnais	-4447
▁Oibre	-4448
▁táillí	-4449
▁dearbhú	-4450
fhostaithe	-4451
ita	-4452
sla	-4453
▁tO	-4454
book	-4455
▁News	-4456
iompar	-4457
isiúin	-4458
▁Three	-4459
▁árachais	-4460
SE	-4461
ley	-4462
▁Nó	-4463
▁lua	-4464
táilte	-4465
▁Neamh	-4466
▁bíodh	-4467
▁difriúil	-4468
Sc	-4469
than	-4470
▁rátha	-4471
▁Sraith	-4472
▁gloine	-4473
▁Thuaidh	-4474
oideachas	-4475
▁iontaobh	-4476
▁cuideachtaí	-4477
▁inbhuanaithe	-4478
▁Bo	-4479
mach	-4480
ters	-4481
▁lámha	-4482
Uachtar	-4483
▁tairbhe	-4484
▁leathanaigh	-4485
ít	-4486
▁Gu	-4487
▁óna	-4488
igire	-4489
▁Síne	-4490
▁Éist	-4491
glaigh	-4492
▁conar	-4493
▁nuashon	-4494
▁Talmhaíochta	-4495
mus	-4496
óca	-4497
▁pion	-4498
bhaint	-4499
▁Uisce	-4500
▁fóill	-4501
▁contae	-4502
▁cuntais	-4503
▁Forbairt	-4504
▁tionscail	-4505
▁cumhachtaí	-4506
BL	-4507
▁Iris	-4508
▁Uath	-4509
théacs	-4510
▁Tugtar	-4511
▁Sábháil	-4512
▁ghnóthú	-4513
▁bpróiseas	-4514
▁caiteachas	-4515
rab	-4516
uds	-4517
ence	-4518
ithn	-4519
rish	-4520
óras	-4521
▁par	-4522
londe	-4523
▁stát	-4524
earach	-4525
▁Coinn	-4526
ireacht	-4527
▁Táirge	-4528
dhíonach	-4529
▁reáchtáil	-4530
▁tíotáiniam	-4531
NC	-4532
OL	-4533
olc	-4534
▁Iom	-4535
▁Grian	-4536
▁dlite	-4537
isteoir	-4538
▁gceang	-4539
▁neartú	-4540
aontuithe	-4541
90	-4542
ale	-4543
▁ua	-4544
▁Eag	-4545
▁dru	-4546
▁Sóis	-4547
▁oidh	-4548
erican	-4549
▁Anois	-4550
luaiste	-4551
▁luaidh	-4552
▁Ráiteas	-4553
▁Seoladh	-4554
▁pacáiste	-4555
▁Threesome	-4556
▁sheiceáil	-4557
▁thuairisc	-4558
▁sábháilteacht	-4559
een	-4560
ush	-4561
irte	-4562
▁sli	-4563
▁ceap	-4564
▁imeacht	-4565
eachtanna	-4566
▁rachaidh	-4567
▁thagairt	-4568
luach	-4569
▁imní	-4570
éimhsí	-4571
▁Creid	-4572
▁Críos	-4573
▁dócha	-4574
▁Teanga	-4575
▁fhadhb	-4576
▁pointe	-4577
▁riosca	-4578
áideacha	-4579
▁chontae	-4580
▁teoranta	-4581
▁bhforáiltear	-4582
ife	-4583
ula	-4584
vel	-4585
raidh	-4586
▁athsh	-4587
▁bhail	-4588
oigeartú	-4589
▁English	-4590
▁smaointe	-4591
CD	-4592
▁sn	-4593
news	-4594
annaí	-4595
▁crios	-4596
▁cárta	-4597
▁dtreo	-4598
▁scáil	-4599
▁trast	-4600
▁bpobal	-4601
▁chláir	-4602
▁méadar	-4603
▁bpointe	-4604
▁lárnach	-4605
▁substaint	-4606
▁chomhlacht	-4607
nad	-4608
rag	-4609
van	-4610
inge	-4611
▁Cáil	-4612
▁breá	-4613
aingniú	-4614
▁mBaile	-4615
▁fhoráil	-4616
aighdeánach	-4617
▁éagsúlacht	-4618
itheoireachta	-4619
▁talmhaíochta	-4620
▁III	-4621
▁mis	-4622
adail	-4623
▁2007	-4624
▁Iarra	-4625
▁gcroí	-4626
▁difear	-4627
▁Phoiblí	-4628
▁stóráil	-4629
▁comhréir	-4630
oinbhinsiún	-4631
▁University	-4632
antas	-4633
eiste	-4634
íosaí	-4635
▁Serv	-4636
▁Treo	-4637
▁meáin	-4638
▁grúpaí	-4639
▁pinsin	-4640
▁dréacht	-4641
▁National	-4642
28	-4643
way	-4644
luas	-4645
▁cor	-4646
▁stáit	-4647
aiceach	-4648
▁thuras	-4649
▁déanann	-4650
▁muirear	-4651
▁ghairmiúil	-4652
lor	-4653
real	-4654
reach	-4655
▁beagán	-4656
▁líonra	-4657
rúduithe	-4658
▁dteannta	-4659
▁ndéanfaí	-4660
▁mhonarcha	-4661
▁Ís	-4662
oise	-4663
ating	-4664
▁Play	-4665
▁Iodáil	-4666
▁íoctha	-4667
▁beartas	-4668
mhachtain	-4669
▁Mheiriceá	-4670
▁Mórdhíola	-4671
yd	-4672
bas	-4673
▁720	-4674
▁Mic	-4675
▁áil	-4676
▁—(1)	-4677
▁Páirt	-4678
▁chabh	-4679
▁tsuim	-4680
▁cinntí	-4681
▁greann	-4682
▁leigheas	-4683
▁liúntais	-4684
35	-4685
sm	-4686
job	-4687
oss	-4688
▁Teach	-4689
▁ceard	-4690
ealaíon	-4691
▁cheadú	-4692
▁gCúirt	-4693
▁Cailíní	-4694
▁choiste	-4695
▁pinsean	-4696
raíochtaí	-4697
pháirtíocht	-4698
);	-4699
ád	-4700
ere	-4701
mais	-4702
reag	-4703
scáil	-4704
▁allmh	-4705
▁cóimh	-4706
▁sráid	-4707
▁éascú	-4708
▁faireach	-4709
▁taisteal	-4710
fac	-4711
▁fá	-4712
▁re	-4713
▁abh	-4714
▁bac	-4715
chair	-4716
fháil	-4717
▁athch	-4718
▁casta	-4719
▁coiste	-4720
oirmeasc	-4721
▁Réigiún	-4722
▁sibhialta	-4723
▁fhorálacha	-4724
▁infheistíocht	-4725
IC	-4726
SC	-4727
mha	-4728
▁Bí	-4729
▁Cóir	-4730
ínithe	-4731
▁pobal	-4732
ónaithe	-4733
▁chothú	-4734
▁Dearadh	-4735
▁Gearmáin	-4736
▁fuarthas	-4737
▁meáchain	-4738
▁teilifís	-4739
AP	-4740
fho	-4741
iúl	-4742
/200	-4743
▁orm	-4744
earsan	-4745
▁sruth	-4746
íocháin	-4747
▁bealaí	-4748
▁ghrúpa	-4749
orparáide	-4750
▁ciontach	-4751
▁ceadaithe	-4752
▁chuirfidh	-4753
▁gníomhach	-4754
▁Ais	-4755
▁Barr	-4756
udsman	-4757
▁chult	-4758
▁scáth	-4759
▁láimhe	-4760
▁maoine	-4761
▁scaoileadh	-4762
▁timpeallacht	-4763
inní	-4764
rist	-4765
▁log	-4766
othar	-4767
▁Tras	-4768
▁ithe	-4769
iteáin	-4770
▁dramh	-4771
▁feirm	-4772
▁gcaoi	-4773
▁linbh	-4774
▁aeráide	-4775
▁ealaíne	-4776
▁pictiúr	-4777
▁príomha	-4778
▁laethúil	-4779
▁éineacht	-4780
▁tromchúis	-4781
500	-4782
any	-4783
nasc	-4784
▁Chlár	-4785
▁Réamh	-4786
▁ceist	-4787
▁thiar	-4788
eathach	-4789
▁conradh	-4790
olaíochta	-4791
▁Cuireadh	-4792
▁sonracha	-4793
-0	-4794
IF	-4795
for	-4796
kin	-4797
top	-4798
ower	-4799
▁sty	-4800
▁caith	-4801
▁cúrsa	-4802
eachtar	-4803
▁beatha	-4804
▁cúirte	-4805
▁cabhair	-4806
▁deacair	-4807
▁tionscnamh	-4808
▁macasamhail	-4809
▁tabharfaidh	-4810
▁rannpháirtíocht	-4811
65	-4812
eat	-4813
ouse	-4814
▁gné	-4815
▁Ansin	-4816
▁iarbh	-4817
taítear	-4818
▁loings	-4819
▁smacht	-4820
▁stádas	-4821
▁rathúil	-4822
▁láithreáin	-4823
▁scéimeanna	-4824
45	-4825
ced	-4826
ains	-4827
aisl	-4828
raon	-4829
ridh	-4830
▁tur	-4831
eilim	-4832
ublic	-4833
▁Euro	-4834
▁dtar	-4835
▁Bónas	-4836
▁Mhuir	-4837
phobail	-4838
▁gearán	-4839
▁maoirs	-4840
▁taifid	-4841
liúcháin	-4842
▁Meaisín	-4843
▁idirlín	-4844
▁uaireanta	-4845
INT	-4846
▁@1	-4847
▁Hot	-4848
▁dhí	-4849
▁mil	-4850
olasaí	-4851
▁tirim	-4852
▁ócáid	-4853
▁gluaiseacht	-4854
íc	-4855
▁2,	-4856
thais	-4857
▁2000	-4858
saithe	-4859
▁taisce	-4860
▁thosach	-4861
▁Uachtarán	-4862
SS	-4863
▁en	-4864
orth	-4865
▁Afr	-4866
▁Sín	-4867
▁urrú	-4868
bhaigh	-4869
éileamh	-4870
▁fhaigh	-4871
▁hiarra	-4872
▁páipéar	-4873
eilleagar	-4874
▁méideanna	-4875
▁bainistíochta	-4876
pt	-4877
▁AG	-4878
▁Sl	-4879
▁Osc	-4880
▁Tos	-4881
▁fola	-4882
▁sogh	-4883
▁stop	-4884
▁Black	-4885
▁bhall	-4886
▁gcoit	-4887
ionanna	-4888
▁gheimh	-4889
mbudsman	-4890
▁Coláiste	-4891
▁scoláirí	-4892
▁céimeanna	-4893
".	-4894
RE	-4895
zz	-4896
ipt	-4897
rand	-4898
Leasú	-4899
intir	-4900
▁béim	-4901
▁ioma	-4902
eisial	-4903
▁Stair	-4904
▁bainc	-4905
▁stáin	-4906
▁údarú	-4907
achtair	-4908
seachas	-4909
▁meascán	-4910
▁comhlíonadh	-4911
ST	-4912
ax	-4913
ls	-4914
▁gair	-4915
▁choir	-4916
▁litir	-4917
▁Gharda	-4918
▁tosach	-4919
ruinnithe	-4920
▁Tarraing	-4921
▁folaíonn	-4922
▁Monaróirí	-4923
▁tSeirbhís	-4924
▁chiallaíonn	-4925
▁teorainneacha	-4926
▁rannpháirteach	-4927
ten	-4928
▁bl	-4929
form	-4930
phoist	-4931
reithe	-4932
▁eagrú	-4933
▁scéime	-4934
▁leithligh	-4935
▁tseachtain	-4936
▁Sm	-4937
CUID	-4938
▁dhó	-4939
istan	-4940
▁Crua	-4941
▁gúna	-4942
aistriú	-4943
▁ndearna	-4944
chóirithe	-4945
▁onnmhair	-4946
▁feithiclí	-4947
▁trédhearc	-4948
CP	-4949
pro	-4950
aicí	-4951
king	-4952
reac	-4953
wood	-4954
ltóir	-4955
uaill	-4956
úsaem	-4957
eáilte	-4958
léiriú	-4959
réithe	-4960
▁gcead	-4961
▁shaor	-4962
▁Cuirfear	-4963
▁chathair	-4964
▁rialtais	-4965
cad	-4966
ách	-4967
igit	-4968
▁Bar	-4969
▁Teo	-4970
ories	-4971
▁dtos	-4972
▁inti	-4973
▁cúraim	-4974
eithiclí	-4975
▁Cultúir	-4976
▁Iompair	-4977
aitheacha	-4978
▁Tuairisc	-4979
▁tionscla	-4980
▁teagmhála	-4981
▁deireanach	-4982
▁príobháideach	-4983
▁And	-4984
▁Sch	-4985
aighn	-4986
▁bean	-4987
▁ciorc	-4988
▁ceimic	-4989
▁dheonú	-4990
official	-4991
▁Tuaithe	-4992
▁Coimirce	-4993
▁custaiméirí	-4994
3)	-4995
.”.	-4996
uch	-4997
Oifig	-4998
iotal	-4999
▁óige	-5000
▁barán	-5001
▁charm	-5002
▁thiontú	-5003
▁theastaíonn	-5004
▁Ghníomhaireacht	-5005
EU	-5006
dhó	-5007
out	-5008
léid	-5009
▁rub	-5010
▁Deir	-5011
▁Dearg	-5012
▁Whats	-5013
▁iarbhír	-5014
▁oibríonn	-5015
▁Breataine	-5016
▁Íoslódáil	-5017
▁feidhmíocht	-5018
▁ghinearálta	-5019
▁uiscedhíonach	-5020
99	-5021
RA	-5022
oft	-5023
láth	-5024
ártaí	-5025
▁Moms	-5026
▁bónas	-5027
▁sheol	-5028
▁chuaigh	-5029
▁leasanna	-5030
▁sheirbhísí	-5031
ban	-5032
úlra	-5033
cking	-5034
▁rian	-5035
▁scor	-5036
▁Leigh	-5037
▁Chiste	-5038
▁éagsúil	-5039
▁coileach	-5040
▁Roghnaigh	-5041
▁gcoitinne	-5042
▁Fostaíocht	-5043
ki	-5044
ÍO	-5045
mlig	-5046
▁srl	-5047
earsa	-5048
▁Ailt	-5049
▁Fhrainc	-5050
éireachta	-5051
▁Ghearmáin	-5052
▁limistéir	-5053
▁táirgeadh	-5054
▁Iarscríbhinn	-5055
.)	-5056
▁Mol	-5057
▁tob	-5058
eadán	-5059
icéid	-5060
alartú	-5061
▁Cruth	-5062
▁Solas	-5063
▁Bliain	-5064
▁scríofa	-5065
▁Idirlíon	-5066
▁cúiseanna	-5067
▁feistithe	-5068
▁aitheantas	-5069
du	-5070
eor	-5071
pid	-5072
▁dtír	-5073
▁feas	-5074
éirigh	-5075
▁Irish	-5076
▁Cruinn	-5077
▁Health	-5078
▁codanna	-5079
▁mhuirear	-5080
▁Tionscail	-5081
▁cumarsáide	-5082
▁tábhachtaí	-5083
uathoibríoch	-5084
ute	-5085
▁er	-5086
rais	-5087
daigh	-5088
▁carb	-5089
▁géar	-5090
iailiú	-5091
▁Córas	-5092
aiteoir	-5093
▁Brunet	-5094
liteanas	-5095
▁Conradh	-5096
▁ranganna	-5097
▁tiomanta	-5098
▁faoiseamh	-5099
IA	-5100
ama	-5101
▁Gl	-5102
ighn	-5103
perien	-5104
▁Duine	-5105
▁díriú	-5106
▁hoibr	-5107
▁chostas	-5108
▁oifigigh	-5109
aintréithe	-5110
▁thuiscint	-5111
▁creidmheasa	-5112
▁Bainistíochta	-5113
aer	-5114
inc	-5115
aolú	-5116
roim	-5117
scaí	-5118
▁Bhu	-5119
▁cal	-5120
altas	-5121
▁ríth	-5122
aispeá	-5123
▁Fógra	-5124
▁Shaor	-5125
▁Cumann	-5126
9)	-5127
Un	-5128
ark	-5129
era	-5130
▁aeir	-5131
▁tslí	-5132
bailte	-5133
iamond	-5134
▁saibh	-5135
▁spéis	-5136
aidrimh	-5137
▁nuacht	-5138
▁tugann	-5139
▁chairde	-5140
▁faighte	-5141
▁Údaráis	-5142
oimisinéir	-5143
▁difríocht	-5144
▁sócmhainní	-5145
▁z	-5146
ifr	-5147
atrú	-5148
inch	-5149
▁(8)	-5150
reast	-5151
▁cobh	-5152
▁shárú	-5153
▁éadrom	-5154
▁Domhanda	-5155
▁achtachán	-5156
▁ngairtear	-5157
▁bhfianaise	-5158
▁comhionann	-5159
▁dteangacha	-5160
CB	-5161
tra	-5162
▁IP	-5163
▁pá	-5164
iúir	-5165
oláir	-5166
▁Banc	-5167
▁Iasc	-5168
▁euro	-5169
▁Fuinn	-5170
bhearta	-5171
▁amhras	-5172
▁saille	-5173
▁sochar	-5174
▁sreabh	-5175
▁tionón	-5176
▁uirlisí	-5177
▁Áirítear	-5178
namaíochta	-5179
▁Úsáidtear	-5180
▁Comhshaoil	-5181
▁bronntanas	-5182
▁praghsanna	-5183
TS	-5184
íog	-5185
airc	-5186
outh	-5187
▁pro	-5188
abhta	-5189
▁toil	-5190
▁príos	-5191
▁uaidh	-5192
▁ceapadh	-5193
▁cuardach	-5194
dhóthanach	-5195
▁clasaiceach	-5196
▁0.	-5197
▁pol	-5198
ileog	-5199
▁mban	-5200
nachar	-5201
ostóir	-5202
eálacha	-5203
áireamh	-5204
▁chúram	-5205
onraithe	-5206
oirgneamh	-5207
▁féachana	-5208
▁romhainn	-5209
▁thaifead	-5210
▁Bailiúchán	-5211
▁ríthábhachtach	-5212
LE	-5213
ix	-5214
ada	-5215
ike	-5216
▁80	-5217
lithe	-5218
▁2006	-5219
eagasc	-5220
▁titim	-5221
bhsálaí	-5222
▁Dúiche	-5223
▁chúrsa	-5224
unreacht	-5225
▁Náisiún	-5226
▁feithicle	-5227
▁próiseála	-5228
",	-5229
70	-5230
Com	-5231
ógó	-5232
▁Lit	-5233
▁ail	-5234
▁Mhaigh	-5235
eolaíoch	-5236
▁critéir	-5237
▁taistil	-5238
aitheacht	-5239
▁Pleanála	-5240
▁dtíortha	-5241
dhá	-5242
▁CE	-5243
iscí	-5244
aidhm	-5245
inger	-5246
▁chon	-5247
▁díls	-5248
áipéir	-5249
▁2019;	-5250
▁Chorc	-5251
ealladh	-5252
eánacha	-5253
▁Afraic	-5254
▁Cosanta	-5255
▁bhféadfaí	-5256
▁teicniúla	-5257
▁dtabharfar	-5258
pháirtíochta	-5259
▁bhraitheann	-5260
ked	-5261
pol	-5262
róir	-5263
ánaí	-5264
▁Sin	-5265
▁Tóg	-5266
▁cúl	-5267
▁thú	-5268
foirt	-5269
nasta	-5270
▁mach	-5271
▁phlé	-5272
ánacha	-5273
▁solúb	-5274
saítear	-5275
▁rialtas	-5276
▁tsraith	-5277
▁deontais	-5278
▁thionscnamh	-5279
▁ghníomhaíochtaí	-5280
oph	-5281
ors	-5282
ghné	-5283
áthú	-5284
▁thrí	-5285
▁Gairm	-5286
yCuntas	-5287
▁Tháinig	-5288
▁chórais	-5289
▁cultúrtha	-5290
▁gCoimisinéirí	-5291
ti	-5292
ater	-5293
aisce	-5294
eamar	-5295
taobh	-5296
teurs	-5297
▁chum	-5298
▁Lucht	-5299
▁athnu	-5300
▁gcinn	-5301
airdeas	-5302
undation	-5303
▁cónaithe	-5304
▁teaghlach	-5305
cks	-5306
eur	-5307
▁RT	-5308
bhrú	-5309
▁Beo	-5310
▁org	-5311
▁aist	-5312
▁breo	-5313
ltóirí	-5314
▁ghlanadh	-5315
▁réigiúin	-5316
▁staidéir	-5317
▁dleathach	-5318
▁mbainfidh	-5319
▁tithíochta	-5320
▁athbhreithnithe	-5321
bol	-5322
gar	-5323
ole	-5324
▁pais	-5325
abraic	-5326
ataisí	-5327
roinnt	-5328
▁fheic	-5329
nálacha	-5330
thabhála	-5331
▁cartlann	-5332
▁huathoibríoch	-5333
▁teicneolaíochta	-5334
AO	-5335
oe	-5336
ya	-5337
▁70	-5338
túin	-5339
imhne	-5340
oscaí	-5341
▁Post	-5342
▁bhrú	-5343
labhra	-5344
▁Sráid	-5345
▁spins	-5346
iontáil	-5347
▁Christ	-5348
▁láimhs	-5349
▁mBéarla	-5350
▁allmhair	-5351
▁Bhallstáit	-5352
▁úsáideoirí	-5353
▁monatóireacht	-5354
▁leordhóthanach	-5355
con	-5356
phr	-5357
▁Lé	-5358
▁fú	-5359
ilip	-5360
▁suí	-5361
▁Dáta	-5362
▁thír	-5363
▁nádúr	-5364
▁bunúsach	-5365
▁dheimhniú	-5366
▁teangacha	-5367
uirearaithe	-5368
▁tionscnaimh	-5369
aipe	-5370
úram	-5371
ainmh	-5372
ction	-5373
▁Lios	-5374
▁béil	-5375
▁gcos	-5376
▁Céard	-5377
▁Rátáil	-5378
▁chaith	-5379
▁siopaí	-5380
▁deontas	-5381
acmhainní	-5382
▁Amateurs	-5383
▁Ceannais	-5384
▁tábhacht	-5385
▁roghnaigh	-5386
▁ardchaighdeáin	-5387
lar	-5388
eisc	-5389
▁téa	-5390
fimid	-5391
eachas	-5392
▁muinín	-5393
▁tugtar	-5394
fhreagra	-5395
▁fuinneamh	-5396
▁reachtúil	-5397
▁sealadach	-5398
▁bhfaighidh	-5399
▁inmhuirearaithe	-5400
77	-5401
ww	-5402
ota	-5403
News	-5404
aoch	-5405
ráite	-5406
▁toir	-5407
▁Ríomh	-5408
▁Super	-5409
laíocht	-5410
▁gcruth	-5411
oiciméad	-5412
▁Infheist	-5413
▁dochtúir	-5414
▁caidreamh	-5415
▁chinnfidh	-5416
▁incháilithe	-5417
——	-5418
iff	-5419
más	-5420
reen	-5421
lóidh	-5422
▁hoib	-5423
▁sárú	-5424
ráitis	-5425
▁Imirt	-5426
▁Turas	-5427
▁fíorú	-5428
▁iomlá	-5429
▁fiosrúcháin	-5430
CA	-5431
Fo	-5432
pl	-5433
lah	-5434
mat	-5435
ital	-5436
scne	-5437
tube	-5438
▁Tír	-5439
▁red	-5440
thóra	-5441
éasán	-5442
▁Edit	-5443
éaltaí	-5444
▁Rialú	-5445
▁ceoil	-5446
ideanna	-5447
liúchán	-5448
▁gcuirfí	-5449
▁Achtanna	-5450
▁bhféadfaidh	-5451
29	-5452
ron	-5453
lass	-5454
nigh	-5455
▁chuí	-5456
▁Léigh	-5457
▁chumh	-5458
▁gream	-5459
▁vitim	-5460
ionannas	-5461
▁dhearadh	-5462
▁dualgais	-5463
▁iarrthóir	-5464
▁leanfaidh	-5465
▁treoracha	-5466
▁bhfoireann	-5467
▁feidhmíochta	-5468
▁rannpháirtithe	-5469
pm	-5470
ezel	-5471
olún	-5472
▁clá	-5473
ugadh	-5474
▁cala	-5475
▁eisc	-5476
▁scála	-5477
▁fostaí	-5478
▁intinn	-5479
▁Riachta	-5480
▁chiontú	-5481
▁mholadh	-5482
Uachtarán	-5483
▁mhaoiniú	-5484
▁Bhallstát	-5485
▁bhféadfar	-5486
▁Cuideachta	-5487
▁Oireachtas	-5488
▁críochnaithe	-5489
▁héifeachtach	-5490
55	-5491
SO	-5492
▁ú	-5493
úine	-5494
▁Dan	-5495
▁Net	-5496
bians	-5497
▁2003	-5498
▁hArd	-5499
▁Phort	-5500
▁strap	-5501
uairimí	-5502
▁feistí	-5503
▁iomarc	-5504
namaíocha	-5505
▁Poblacht	-5506
▁Leasaítear	-5507
PR	-5508
tv	-5509
ful	-5510
ric	-5511
tam	-5512
idil	-5513
▁alc	-5514
▁res	-5515
iness	-5516
▁shás	-5517
eanada	-5518
ochair	-5519
▁gcéanna	-5520
▁thalamh	-5521
▁chomhaltaí	-5522
▁ríomhphost	-5523
▁Aistriúchán	-5524
▁leictreachais	-5525
DA	-5526
▁pas	-5527
▁ran	-5528
▁Luain	-5529
▁gcumas	-5530
▁dleacht	-5531
▁speisial	-5532
▁Iarratais	-5533
▁leasaítear	-5534
▁thuismitheoirí	-5535
íd	-5536
▁6.	-5537
▁90	-5538
▁gl	-5539
▁500	-5540
▁EUR	-5541
▁Stá	-5542
iarna	-5543
iúnas	-5544
óiste	-5545
▁earr	-5546
▁ngnó	-5547
▁phac	-5548
Aibreán	-5549
aisleán	-5550
▁Cíocha	-5551
▁Limist	-5552
bhunaithe	-5553
▁asbhaint	-5554
▁dúshláin	-5555
▁fhaightear	-5556
48	-5557
▁ma	-5558
ices	-5559
ochaí	-5560
ology	-5561
▁cíos	-5562
▁thac	-5563
ioncam	-5564
éigean	-5565
lachais	-5566
▁Tagann	-5567
▁threoir	-5568
▁leasuithe	-5569
▁bhliantúil	-5570
▁Macasamhail	-5571
▁Uathoibríoch	-5572
Gh	-5573
▁dé	-5574
ebook	-5575
ianna	-5576
rótac	-5577
ónais	-5578
aitist	-5579
chéime	-5580
mhaith	-5581
piacha	-5582
▁cistí	-5583
▁fiche	-5584
▁Cineál	-5585
▁Spóirt	-5586
▁ghnéas	-5587
▁pointí	-5588
▁éilimh	-5589
onarthaí	-5590
▁galánta	-5591
▁imscrúdú	-5592
▁fhianaise	-5593
▁múinteoir	-5594
mo	-5595
HAR	-5596
xxx	-5597
lisí	-5598
ruis	-5599
▁Mam	-5600
▁tap	-5601
▁carr	-5602
▁hach	-5603
ualgas	-5604
▁Bréag	-5605
▁Dúirt	-5606
▁fhoir	-5607
▁haois	-5608
▁tógála	-5609
omhaltóirí	-5610
▁bainistiú	-5611
▁tarraingt	-5612
▁Cumarsáide	-5613
▁Teaghlaigh	-5614
▁saincheisteanna	-5615
zh	-5616
aíl	-5617
iod	-5618
ames	-5619
iúirí	-5620
onclú	-5621
▁bpost	-5622
▁comhad	-5623
experien	-5624
▁Cuimsiú	-5625
▁teagaisc	-5626
▁Caithfidh	-5627
▁treoirlínte	-5628
▁chuntasaíochta	-5629
age	-5630
eer	-5631
ailí	-5632
uman	-5633
▁Dhá	-5634
▁Ome	-5635
eimhl	-5636
iallu	-5637
▁aire	-5638
▁dian	-5639
▁cearn	-5640
oiciméid	-5641
reagairt	-5642
▁uachtar	-5643
▁catagóir	-5644
▁chaomhnú	-5645
▁Ciallaíonn	-5646
88	-5647
▁Lo	-5648
▁pu	-5649
únadh	-5650
▁Féad	-5651
▁Star	-5652
▁réad	-5653
▁soic	-5654
eachán	-5655
líocht	-5656
▁saill	-5657
▁tsamh	-5658
fhéadfá	-5659
thaíodh	-5660
▁pháirtí	-5661
ialluíonn	-5662
▁nglacfaí	-5663
▁táirgthe	-5664
experienced	-5665
reithiúnais	-5666
▁Ginearálta	-5667
▁spriocanna	-5668
cc	-5669
chn	-5670
▁Ré	-5671
▁rú	-5672
ford	-5673
lata	-5674
sage	-5675
▁alú	-5676
▁tae	-5677
oilse	-5678
▁tine	-5679
▁caill	-5680
▁eagar	-5681
leagáid	-5682
▁moladh	-5683
▁chúrsaí	-5684
▁shláinte	-5685
▁dlíthiúil	-5686
iew	-5687
ugh	-5688
▁CH	-5689
▁Rú	-5690
▁ló	-5691
▁sú	-5692
cadh	-5693
óidí	-5694
▁shiúl	-5695
▁Samhna	-5696
▁ionaid	-5697
▁tagtha	-5698
▁Liúntas	-5699
▁dtionsc	-5700
▁míleata	-5701
▁scríbhn	-5702
▁Áitiúla	-5703
▁dhearbhú	-5704
▁greannmhar	-5705
▁Inexperienced	-5706
▁Teas	-5707
▁mara	-5708
▁Charm	-5709
éireacht	-5710
▁bualadh	-5711
chúiseamh	-5712
▁cúramach	-5713
▁chuirfear	-5714
▁corpraithe	-5715
▁sheachtain	-5716
-2	-5717
LAI	-5718
▁Mag	-5719
▁Iarr	-5720
▁chor	-5721
▁mhol	-5722
▁tuig	-5723
úcháin	-5724
▁Chill	-5725
▁creat	-5726
▁Dúradh	-5727
leachtas	-5728
▁shainch	-5729
▁suimiúil	-5730
▁thástáil	-5731
▁chóireáil	-5732
▁cruthaithe	-5733
▁Eacnamaíoch	-5734
.0	-5735
33	-5736
ampa	-5737
ance	-5738
ding	-5739
over	-5740
ting	-5741
ínse	-5742
▁gov	-5743
▁mhu	-5744
oimhd	-5745
órtáil	-5746
▁tógáil	-5747
▁brabúis	-5748
▁lascaine	-5749
▁mhargaidh	-5750
▁pleananna	-5751
▁Scoileanna	-5752
▁díolacháin	-5753
▁foirmeacha	-5754
▁mheasúnachta	-5755
▁ríomhaireachta	-5756
ket	-5757
ven	-5758
▁35	-5759
oimre	-5760
scéal	-5761
umais	-5762
uncil	-5763
▁nóim	-5764
▁seic	-5765
▁Eagra	-5766
▁chuma	-5767
▁polas	-5768
scartha	-5769
▁gréine	-5770
▁hoifig	-5771
eirbhísí	-5772
▁mbliain	-5773
▁stylish	-5774
▁meaisíní	-5775
▁ceadúnais	-5776
▁chruinniú	-5777
▁meicniúil	-5778
▁gcustaiméirí	-5779
▁ghníomhaíocht	-5780
▁gníomhaíochta	-5781
Am	-5782
SM	-5783
ef	-5784
bhu	-5785
vol	-5786
▁IV	-5787
aice	-5788
dóir	-5789
áine	-5790
▁mad	-5791
▁Feir	-5792
▁erot	-5793
aitheora	-5794
ealaíona	-5795
ireachta	-5796
▁Chorcaí	-5797
▁aimsire	-5798
▁chomhth	-5799
▁gcríoch	-5800
▁bunúsacha	-5801
▁nuashonrú	-5802
▁chailleadh	-5803
▁Grianchloch	-5804
75	-5805
SPC	-5806
ORPA	-5807
▁Mná	-5808
aradh	-5809
aíola	-5810
▁tasc	-5811
▁mhona	-5812
▁Rómáin	-5813
▁Sainch	-5814
orgáiste	-5815
▁phríobh	-5816
▁dhiailiú	-5817
▁digiteach	-5818
▁cruinnithe	-5819
▁Éireannacha	-5820
▁caighdeánach	-5821
CS	-5822
tad	-5823
▁45	-5824
▁Pl	-5825
▁Ta	-5826
ghrá	-5827
▁Big	-5828
▁fír	-5829
eilig	-5830
icket	-5831
istir	-5832
nróid	-5833
úraim	-5834
▁mhná	-5835
thaigh	-5836
▁Rolex	-5837
▁World	-5838
▁ainmn	-5839
▁tábla	-5840
rileach	-5841
▁Taispeán	-5842
pháirtithe	-5843
▁scaipeadh	-5844
▁úsáideoir	-5845
▁prionsabal	-5846
▁ríomhphoist	-5847
▁ae	-5848
▁Bog	-5849
▁(1),	-5850
▁long	-5851
▁séas	-5852
áipéis	-5853
▁ranga	-5854
fficial	-5855
oiteann	-5856
leathach	-5857
▁inniúil	-5858
▁sloinne	-5859
▁Uaireanta	-5860
▁éifeachta	-5861
▁fhorléiriú	-5862
▁Soláthraíonn	-5863
ele	-5864
ribh	-5865
aoire	-5866
eagar	-5867
readh	-5868
▁Óige	-5869
▁Nuála	-5870
▁aicme	-5871
▁easpa	-5872
▁dualgas	-5873
▁suiteáil	-5874
▁craiceann	-5875
▁oibreacha	-5876
▁sealbhóir	-5877
▁gcomhthéacs	-5878
éire	-5879
▁dTu	-5880
cháil	-5881
▁Coir	-5882
▁Comp	-5883
▁Liom	-5884
▁marg	-5885
uirbhé	-5886
▁Taois	-5887
▁prait	-5888
▁watch	-5889
▁Trealamh	-5890
▁mhíchumas	-5891
▁dhiúscairt	-5892
▁saoránaigh	-5893
▁seachadadh	-5894
▁thiocfaidh	-5895
:00	-5896
saíd	-5897
áire	-5898
▁Bán	-5899
▁Cor	-5900
▁cuim	-5901
▁sine	-5902
istant	-5903
▁beirt	-5904
▁teicn	-5905
▁buiséad	-5906
eirbheáil	-5907
▁saoráidí	-5908
▁chailleann	-5909
▁Tabharfaidh	-5910
▁prionsabail	-5911
▁gníomhaíocht	-5912
UK	-5913
loí	-5914
ocs	-5915
dúil	-5916
leac	-5917
▁Dath	-5918
▁Tuir	-5919
▁dhír	-5920
▁labh	-5921
taíonn	-5922
▁seans	-5923
▁íocadh	-5924
▁fhágann	-5925
▁pháistí	-5926
léireofar	-5927
▁Meiriceá	-5928
▁oibrithe	-5929
▁chríochnú	-5930
▁dhaingniú	-5931
▁tomhaltóirí	-5932
▁cathaoirleach	-5933
▁comhpháirteanna	-5934
46	-5935
fas	-5936
▁Cal	-5937
▁fig	-5938
▁tiú	-5939
▁lógó	-5940
dhealú	-5941
▁creim	-5942
▁Taithí	-5943
▁bpáirt	-5944
eannaigh	-5945
▁Tástáil	-5946
ashington	-5947
▁Bréagáin	-5948
▁Bunaíodh	-5949
▁dearfach	-5950
▁leictreo	-5951
▁shealbhú	-5952
▁chomhlánú	-5953
▁choigeartú	-5954
▁cialluíonn	-5955
▁fheithicil	-5956
▁ionadaithe	-5957
FA	-5958
-19	-5959
For	-5960
fer	-5961
▁(2	-5962
aras	-5963
eifr	-5964
mraí	-5965
▁ghin	-5966
aiméad	-5967
allamh	-5968
aoilte	-5969
gartha	-5970
lianta	-5971
▁aonad	-5972
▁bháis	-5973
thachta	-5974
▁Cosaint	-5975
▁foilsíodh	-5976
▁teilifíse	-5977
▁Leabharlann	-5978
▁iascaireachta	-5979
▁Uí	-5980
ibhe	-5981
illa	-5982
túir	-5983
▁Cód	-5984
▁Tran	-5985
▁féid	-5986
ógairt	-5987
▁bezel	-5988
▁hidir	-5989
▁Blonde	-5990
▁Láithr	-5991
▁Raidió	-5992
▁daonna	-5993
▁clúdach	-5994
▁Rialacha	-5995
▁bhfolach	-5996
▁chailíní	-5997
▁ordaithe	-5998
▁snáithín	-5999
▁Gluaiseacht	-6000
▁hainmneacha	-6001
▁comhoiriúnacht	-6002
EL	-6003
eh	-6004
my	-6005
ghná	-6006
▁Corp	-6007
▁Croí	-6008
▁punt	-6009
▁trád	-6010
inéirí	-6011
▁Bosca	-6012
▁Airgid	-6013
▁cliste	-6014
........	-6015
▁ceangal	-6016
▁gCoiste	-6017
▁margaidh	-6018
▁suimeanna	-6019
▁athchóiriú	-6020
▁comhshaoil	-6021
▁foirgneamh	-6022
▁stiúrthóir	-6023
CT	-6024
MA	-6025
Mh	-6026
cu	-6027
WHO	-6028
por	-6029
▁34	-6030
éist	-6031
▁Eas	-6032
▁sil	-6033
arcel	-6034
omair	-6035
▁acad	-6036
▁seol	-6037
▁Leasa	-6038
▁bhéal	-6039
▁cloch	-6040
▁troid	-6041
▁foláir	-6042
▁Threoir	-6043
▁teagasc	-6044
▁Domhnach	-6045
▁mhalartú	-6046
▁stáisiún	-6047
▁cheadúnas	-6048
▁oibríocht	-6049
aireachtáil	-6050
▁Achomhairc	-6051
▁iarratasóir	-6052
pr	-6053
eaf	-6054
▁Dí	-6055
adhn	-6056
▁Mad	-6057
▁halt	-6058
▁Watch	-6059
raincis	-6060
▁snasta	-6061
▁Phobail	-6062
▁faisean	-6063
▁phointe	-6064
▁stíleanna	-6065
▁Éisteachta	-6066
ipe	-6067
▁3,	-6068
▁Ur	-6069
ufac	-6070
▁Eis	-6071
úchán	-6072
▁Seas	-6073
▁Scann	-6074
▁bhosca	-6075
▁hEORPA	-6076
▁trácht	-6077
eimhnithe	-6078
fhoireann	-6079
▁Iarthair	-6080
▁tréimhsí	-6081
▁liathróid	-6082
▁áilleacht	-6083
▁ceangailte	-6084
▁saineolaithe	-6085
no	-6086
iet	-6087
ple	-6088
▁37	-6089
▁op	-6090
shoc	-6091
▁Aic	-6092
▁Mus	-6093
▁Tra	-6094
Chúirt	-6095
▁India	-6096
▁Obair	-6097
▁dheir	-6098
▁dháil	-6099
▁nuach	-6100
▁Seomra	-6101
▁bhaill	-6102
onclúidí	-6103
ustaiméir	-6104
▁Brunette	-6105
▁áiseanna	-6106
úsáideoirí	-6107
▁Fheidhmiú	-6108
▁Ombudsman	-6109
▁éigeandála	-6110
▁thabharfaidh	-6111
▁thábhachtach	-6112
úinteoireachta	-6113
dy	-6114
LAIM	-6115
fhág	-6116
ince	-6117
níonn	-6118
▁AGUS	-6119
▁Méid	-6120
▁Stíl	-6121
oichead	-6122
scríofa	-6123
usiness	-6124
▁Mhárta	-6125
▁cultúr	-6126
▁tsráid	-6127
▁fhomhír	-6128
▁glactha	-6129
▁inniúla	-6130
▁ceannairí	-6131
▁cumarsáid	-6132
▁dtiocfaidh	-6133
▁mionsonraithe	-6134
ité	-6135
iniú	-6136
▁lip	-6137
earaí	-6138
fhabh	-6139
▁2004	-6140
▁Anal	-6141
▁Thug	-6142
▁bunú	-6143
▁chlú	-6144
▁ocht	-6145
aoirse	-6146
riachta	-6147
▁diúltú	-6148
▁voltas	-6149
▁vótáil	-6150
▁stórála	-6151
▁tharchur	-6152
▁Tiocfaidh	-6153
▁cuimsitheach	-6154
▁Gníomhaíochta	-6155
wh	-6156
ker	-6157
ized	-6158
▁Mara	-6159
▁pian	-6160
urious	-6161
▁barra	-6162
▁mbaol	-6163
▁pósta	-6164
▁sheas	-6165
LAIMINT	-6166
arraigh	-6167
ghníomhú	-6168
▁fianáin	-6169
▁ghlacann	-6170
▁Fhorbairt	-6171
▁ghréasáin	-6172
▁thiomáint	-6173
▁dhliteanas	-6174
▁Uaireadóirí	-6175
▁Coinbhinsiún	-6176
▁díospóireacht	-6177
:5	-6178
iop	-6179
féar	-6180
oint	-6181
▁gás	-6182
▁prá	-6183
▁ste	-6184
nóidh	-6185
▁2001	-6186
▁Cáin	-6187
▁coig	-6188
▁dích	-6189
▁seis	-6190
astail	-6191
ograph	-6192
onnadh	-6193
Éirinn	-6194
▁cinnt	-6195
▁dhaon	-6196
▁Taisce	-6197
▁billiún	-6198
▁imreoirí	-6199
▁monaróir	-6200
▁cruinneas	-6201
▁próiseáil	-6202
▁toghcháin	-6203
▁bhforbairt	-6204
▁Preasráitis	-6205
▁Teicneolaíochta	-6206
ene	-6207
ext	-6208
try	-6209
part	-6210
réig	-6211
icéad	-6212
▁Díol	-6213
▁Mhic	-6214
▁Seic	-6215
▁thío	-6216
iceach	-6217
othair	-6218
▁2020;	-6219
▁aiste	-6220
▁thogh	-6221
▁muirir	-6222
oirgnimh	-6223
▁léasair	-6224
▁redtube	-6225
▁soicind	-6226
thóireacht	-6227
▁saoránach	-6228
▁chomhairle	-6229
▁sholáthraíonn	-6230
ja	-6231
just	-6232
thin	-6233
balta	-6234
▁Bail	-6235
▁Eile	-6236
lactha	-6237
únaimh	-6238
▁doras	-6239
▁saoil	-6240
▁tarlú	-6241
▁tithe	-6242
úineadh	-6243
▁aigéad	-6244
▁tháirg	-6245
téarmach	-6246
▁ionadaí	-6247
▁thomhas	-6248
▁ceannach	-6249
▁Masturbate	-6250
▁Tithíochta	-6251
▁chomhlachta	-6252
▁oibríochtaí	-6253
▁Af	-6254
▁IN	-6255
▁me	-6256
▁ús	-6257
earm	-6258
icel	-6259
idge	-6260
óige	-6261
▁Ord	-6262
▁col	-6263
ointí	-6264
▁PHAR	-6265
▁miond	-6266
bhaithe	-6267
inneoin	-6268
ualainn	-6269
▁gcúrsa	-6270
▁ráitis	-6271
arastail	-6272
▁theanga	-6273
▁gceannas	-6274
▁nAchtanna	-6275
▁teicniúil	-6276
▁institiúid	-6277
▁seachtrach	-6278
▁PHARLAIMINT	-6279
▁Athbhreithniú	-6280
-1	-6281
cl	-6282
▁bol	-6283
▁Rang	-6284
▁Togh	-6285
▁loch	-6286
airdín	-6287
▁2016.	-6288
▁gClár	-6289
achaillí	-6290
uilleamh	-6291
▁bóithre	-6292
aontaithe	-6293
▁tabharfar	-6294
impeallacht	-6295
▁mbunaítear	-6296
▁nuálaíocht	-6297
',	-6298
BH	-6299
Co	-6300
chr	-6301
enn	-6302
▁Amh	-6303
▁SEA	-6304
aiste	-6305
olais	-6306
▁diúl	-6307
éilire	-6308
▁Faoin	-6309
▁bhord	-6310
▁cúirt	-6311
▁luaite	-6312
▁sciath	-6313
leibhéal	-6314
uinneamh	-6315
▁bPríomh	-6316
▁Bracelet	-6317
▁Cinneadh	-6318
▁daingean	-6319
▁gcomhlacht	-6320
▁ghearrthóg	-6321
▁saintréithe	-6322
oot	-6323
rel	-6324
rew	-6325
airs	-6326
ewel	-6327
ionn	-6328
uimh	-6329
▁Pic	-6330
▁Sna	-6331
▁rad	-6332
chain	-6333
▁Foir	-6334
▁tuir	-6335
▁2018;	-6336
▁Páirc	-6337
▁uainn	-6338
ionsabal	-6339
▁Oiliúna	-6340
▁pháiste	-6341
eilimintí	-6342
raitheach	-6343
▁scáileán	-6344
▁bhfreagra	-6345
▁Bhliantúil	-6346
▁cháilíocht	-6347
eorainneacha	-6348
▁bhrabhsálaí	-6349
▁oibriúcháin	-6350
At	-6351
bu	-6352
log	-6353
ctha	-6354
nóir	-6355
ussy	-6356
board	-6357
enter	-6358
▁hard	-6359
▁póca	-6360
▁Bhean	-6361
▁Creat	-6362
▁Maith	-6363
▁speic	-6364
▁íosta	-6365
▁Aonair	-6366
▁shonrú	-6367
▁fostóir	-6368
▁buataisí	-6369
▁Gearmáinis	-6370
▁comharthaí	-6371
▁fhéadfaidh	-6372
▁polaitiúil	-6373
▁gcomhlíonann	-6374
iris	-6375
▁Cra	-6376
▁Ins	-6377
éarma	-6378
▁lamh	-6379
igeann	-6380
▁2017.	-6381
▁Poist	-6382
▁Strap	-6383
▁bláth	-6384
▁ospid	-6385
inneach	-6386
ufactur	-6387
▁siúcra	-6388
▁ualach	-6389
▁Chearta	-6390
imeachtaí	-6391
▁comhdhéanta	-6392
KO	-6393
St	-6394
ipí	-6395
iant	-6396
▁Blu	-6397
dháta	-6398
▁City	-6399
▁Mens	-6400
▁dhea	-6401
rótacal	-6402
▁ngairm	-6403
▁baineann	-6404
▁oifigiúla	-6405
▁shibhialta	-6406
▁stiúrthóirí	-6407
▁Masturbation	-6408
-6	-6409
df	-6410
▁x	-6411
ily	-6412
tle	-6413
▁..	-6414
▁7.	-6415
▁Res	-6416
bhach	-6417
ialaí	-6418
tráil	-6419
▁thús	-6420
▁Allah	-6421
▁uathu	-6422
adhnraí	-6423
straimí	-6424
▁aimsir	-6425
▁fágtha	-6426
▁rubair	-6427
▁Foilsiú	-6428
▁chaipit	-6429
▁inneall	-6430
▁srianta	-6431
▁American	-6432
▁dáileadh	-6433
▁Teagmháil	-6434
▁fhreagairt	-6435
▁páirteanna	-6436
▁Masturbating	-6437
39	-6438
eli	-6439
▁id	-6440
iasc	-6441
lanc	-6442
lege	-6443
ostú	-6444
▁RTÉ	-6445
▁luí	-6446
eoite	-6447
nófar	-6448
ocail	-6449
▁dhul	-6450
▁eoch	-6451
▁Breis	-6452
▁bhris	-6453
▁mhais	-6454
▁toirt	-6455
xurious	-6456
▁Sochar	-6457
▁chuims	-6458
▁cártaí	-6459
▁sceimhl	-6460
▁Óglaigh	-6461
lathaithe	-6462
▁Críostaí	-6463
▁dúbailte	-6464
▁sceideal	-6465
▁dliteanas	-6466
▁cruthaíodh	-6467
▁sheirbheáil	-6468
mí	-6469
eep	-6470
mon	-6471
rial	-6472
▁Les	-6473
▁míl	-6474
▁rap	-6475
sport	-6476
▁ÁSPC	-6477
aoiniú	-6478
▁Bíodh	-6479
▁Caith	-6480
▁ghear	-6481
ochtana	-6482
▁bainne	-6483
arcelona	-6484
▁chuairt	-6485
íocaíocht	-6486
▁cúiteamh	-6487
▁thíortha	-6488
▁Comhaontú	-6489
▁cóipeanna	-6490
▁Manufactur	-6491
▁comhábhair	-6492
▁caiteachais	-6493
▁shóisialaigh	-6494
za	-6495
▁(4	-6496
▁So	-6497
▁Ass	-6498
▁CNC	-6499
▁Dub	-6500
▁gla	-6501
▁shr	-6502
erman	-6503
uisce	-6504
▁2005	-6505
▁scór	-6506
▁áras	-6507
andora	-6508
▁Athrú	-6509
daítear	-6510
líochta	-6511
oláthar	-6512
rachtaí	-6513
óirtéir	-6514
▁amharc	-6515
▁riocht	-6516
▁tograí	-6517
lteanais	-6518
éalaithe	-6519
▁leanann	-6520
▁díolúine	-6521
▁leathair	-6522
▁shonrófar	-6523
▁comhoibriú	-6524
▁cothabháil	-6525
▁mBunreacht	-6526
▁roghnaíonn	-6527
▁chruinnithe	-6528
▁Tuarascálacha	-6529
34	-6530
GA	-6531
den	-6532
Chat	-6533
IDEA	-6534
ills	-6535
▁cao	-6536
▁dor	-6537
▁hAl	-6538
iorad	-6539
ister	-6540
lóirí	-6541
raois	-6542
▁Ordú	-6543
▁anal	-6544
▁muir	-6545
oclóir	-6546
▁Anseo	-6547
▁Ceang	-6548
▁Cuims	-6549
▁Gearr	-6550
▁cábla	-6551
▁línte	-6552
▁téigh	-6553
icelist	-6554
tacháin	-6555
▁dlínse	-6556
national	-6557
▁bóthair	-6558
▁cathrach	-6559
▁iascaigh	-6560
adóireacht	-6561
▁mhúinteoirí	-6562
96	-6563
GH	-6564
Pol	-6565
ces	-6566
▁--	-6567
▁36	-6568
spid	-6569
urna	-6570
▁ugg	-6571
▁Éig	-6572
thain	-6573
▁Just	-6574
▁litr	-6575
lowjob	-6576
▁Cúram	-6577
▁bailí	-6578
▁bheag	-6579
aighnéad	-6580
▁Deimhniú	-6581
▁imthosca	-6582
▁indéanta	-6583
▁bhainfidh	-6584
ha	-6585
Pro	-6586
len	-6587
tee	-6588
▁Op	-6589
eilg	-6590
léad	-6591
adóir	-6592
chead	-6593
▁Aims	-6594
▁Port	-6595
▁asta	-6596
mhéide	-6597
scrúdú	-6598
teacha	-6599
tachtaí	-6600
▁Inneal	-6601
▁School	-6602
▁Beartas	-6603
▁bhfuair	-6604
▁cóireáil	-6605
▁mheasúnú	-6606
iarrthóirí	-6607
▁gcomhlíon	-6608
▁healaíona	-6609
▁maoinithe	-6610
▁achomhairc	-6611
▁Saincheaptha	-6612
/19	-6613
ane	-6614
ars	-6615
que	-6616
▁Ón	-6617
aily	-6618
bour	-6619
ject	-6620
rown	-6621
urac	-6622
▁(10	-6623
▁buí	-6624
▁glú	-6625
Stiúr	-6626
▁feic	-6627
▁shín	-6628
▁Rúipí	-6629
▁ardán	-6630
▁Pandora	-6631
▁Próifíl	-6632
▁imreoir	-6633
▁oiriúnú	-6634
earrbhach	-6635
▁ainneoin	-6636
▁Cuardaigh	-6637
▁cleachtais	-6638
▁cothabhála	-6639
▁fheidhmeanna	-6640
▁éifeachtúlacht	-6641
IP	-6642
ME	-6643
SD	-6644
ini	-6645
úrs	-6646
▁La	-6647
▁MB	-6648
▁Sw	-6649
▁ro	-6650
Comh	-6651
aife	-6652
▁Lár	-6653
▁míle	-6654
▁radh	-6655
eálfar	-6656
reasta	-6657
itseáil	-6658
▁Breath	-6659
▁Oileán	-6660
▁thaisc	-6661
rúdaithe	-6662
▁bhíthin	-6663
▁gcuntas	-6664
▁Shábháil	-6665
▁gearradh	-6666
▁Domhnaigh	-6667
▁leithdháil	-6668
▁roghnaithe	-6669
▁réigiúnach	-6670
CEE	-6671
CHA	-6672
ild	-6673
ette	-6674
oker	-6675
▁You	-6676
▁cóc	-6677
óradh	-6678
▁rabh	-6679
rochta	-6680
▁Téigh	-6681
▁céile	-6682
ilvéise	-6683
▁brabús	-6684
▁náisiún	-6685
▁tarmlig	-6686
▁tuaithe	-6687
ainmhithe	-6688
ghairtear	-6689
▁dóiteáin	-6690
▁mháthair	-6691
▁suíomhanna	-6692
▁heagraíochtaí	-6693
38	-6694
CR	-6695
gu	-6696
eeps	-6697
inos	-6698
uaim	-6699
íoga	-6700
▁Adh	-6701
▁Uir	-6702
athrú	-6703
eogra	-6704
unter	-6705
▁poll	-6706
fhoils	-6707
nítear	-6708
ontais	-6709
éarach	-6710
▁2018.	-6711
▁2019.	-6712
▁galar	-6713
▁leacht	-6714
▁buíochas	-6715
▁foilsithe	-6716
▁gcuirfidh	-6717
▁gheimhridh	-6718
▁láimhseáil	-6719
▁gCuideachtaí	-6720
74	-6721
TR	-6722
cas	-6723
▁MP	-6724
nóna	-6725
▁cla	-6726
▁hid	-6727
▁tim	-6728
▁tor	-6729
manam	-6730
cheart	-6731
rosoft	-6732
▁aighn	-6733
▁deoch	-6734
▁fiach	-6735
▁laoch	-6736
▁Rannóg	-6737
▁Scoile	-6738
▁bogadh	-6739
▁cionta	-6740
▁dhlíth	-6741
▁rugadh	-6742
eannacht	-6743
ithíocht	-6744
▁Seapáin	-6745
▁bhearta	-6746
▁chomhch	-6747
▁bracelet	-6748
▁difriúla	-6749
▁tSeapáin	-6750
▁luxurious	-6751
▁ainmneacha	-6752
▁athnuachan	-6753
▁choinníollacha	-6754
VC	-6755
wa	-6756
med	-6757
▁Me	-6758
▁TS	-6759
pers	-6760
▁192	-6761
nóirí	-6762
sheas	-6763
▁astu	-6764
Gaeilge	-6765
▁dtagann	-6766
irteagail	-6767
▁Cumhacht	-6768
▁Facebook	-6769
orparáideach	-6770
▁eacnamaíocha	-6771
IÚ	-6772
ko	-6773
eed	-6774
osh	-6775
▁To	-6776
▁qu	-6777
áras	-6778
ónaí	-6779
▁Fág	-6780
▁Nós	-6781
▁vid	-6782
eataí	-6783
itimh	-6784
▁Acad	-6785
▁Ange	-6786
▁gior	-6787
▁“...	-6788
ainéil	-6789
eisirí	-6790
rionad	-6791
▁Rátaí	-6792
▁Tuirc	-6793
▁teirm	-6794
▁tobac	-6795
▁máthair	-6796
▁próisis	-6797
ionannais	-6798
▁caipitil	-6799
▁machnamh	-6800
▁bainteach	-6801
▁Ghaeltacht	-6802
▁fostaíocht	-6803
ealaíontóirí	-6804
fhostaíochta	-6805
▁leictreacha	-6806
▁soghluaiste	-6807
▁comhaontuithe	-6808
BS	-6809
MP	-6810
bs	-6811
gy	-6812
exy	-6813
iad	-6814
lib	-6815
▁LE	-6816
▁App	-6817
▁SCE	-6818
ition	-6819
uille	-6820
▁Aith	-6821
▁baol	-6822
▁tásc	-6823
chláir	-6824
▁ceadú	-6825
▁mhair	-6826
▁míniú	-6827
aithint	-6828
▁iontrá	-6829
▁tsaoil	-6830
▁rioscaí	-6831
▁Foghlaim	-6832
▁Choláiste	-6833
▁luachanna	-6834
oscaireacht	-6835
▁oidhreacht	-6836
▁straitéisí	-6837
▁Choinbhinsiún	-6838
:0	-6839
BA	-6840
TC	-6841
oto	-6842
▁8.	-6843
blaí	-6844
ents	-6845
▁Sil	-6846
illte	-6847
itear	-6848
arlais	-6849
assage	-6850
▁mórán	-6851
▁riail	-6852
▁throm	-6853
▁Chríos	-6854
▁Mheith	-6855
▁eitilt	-6856
▁gCiste	-6857
▁shíniú	-6858
▁folctha	-6859
▁moncler	-6860
▁Chathair	-6861
▁Cruinniú	-6862
▁Ghathanna	-6863
▁WhatsChat	-6864
▁chónaithe	-6865
▁hEilvéise	-6866
▁Sainmhíniú	-6867
▁thíolacadh	-6868
▁chomhshaoil	-6869
▁maireachtáil	-6870
:3	-6871
cer	-6872
eck	-6873
icn	-6874
led	-6875
▁DO	-6876
▁Lim	-6877
▁Inmh	-6878
▁Loch	-6879
▁easc	-6880
▁físe	-6881
▁mhún	-6882
▁míre	-6883
▁Times	-6884
▁Tiont	-6885
ullaigh	-6886
▁Phlean	-6887
▁fhoils	-6888
▁ionsaí	-6889
▁margaí	-6890
▁reilig	-6891
▁gluaist	-6892
▁Services	-6893
▁chostais	-6894
▁príomhch	-6895
▁Sóisialaí	-6896
▁criostail	-6897
▁thaifeadadh	-6898
’,	-6899
ney	-6900
sal	-6901
tel	-6902
val	-6903
▁AR	-6904
▁CU	-6905
▁Mu	-6906
earg	-6907
ible	-6908
ones	-6909
quir	-6910
ófaí	-6911
▁www	-6912
erica	-6913
ities	-6914
▁Answ	-6915
▁ghrá	-6916
▁Oíche	-6917
▁dhéag	-6918
stitute	-6919
▁Réalta	-6920
▁Sláint	-6921
▁láidre	-6922
▁bhóthar	-6923
▁forlíon	-6924
▁solúbtha	-6925
▁Forálacha	-6926
▁Soláthraí	-6927
▁Tacaíocht	-6928
▁léarscáil	-6929
▁soláthair	-6930
▁clárúcháin	-6931
▁freagracht	-6932
cle	-6933
íob	-6934
▁32	-6935
▁33	-6936
ield	-6937
suas	-6938
▁bag	-6939
▁pró	-6940
▁Bhun	-6941
▁Dial	-6942
▁Riar	-6943
▁siam	-6944
▁Léinn	-6945
▁Naomh	-6946
▁Tríon	-6947
▁marbh	-6948
▁píosa	-6949
▁uasta	-6950
itheora	-6951
▁pionós	-6952
▁raidió	-6953
illeacht	-6954
▁Council	-6955
▁Gnéithe	-6956
▁choinne	-6957
▁fíorúil	-6958
▁tagartha	-6959
▁úsáideach	-6960
▁úsáideora	-6961
▁chúlghairm	-6962
▁forordaithe	-6963
▁úinéireacht	-6964
98	-6965
pre	-6966
▁Fú	-6967
SAMH	-6968
aobh	-6969
iamh	-6970
mart	-6971
ther	-6972
últa	-6973
▁lag	-6974
▁Óir	-6975
▁Char	-6976
▁Tiom	-6977
▁deac	-6978
▁ghné	-6979
▁sagh	-6980
amburg	-6981
ocsain	-6982
▁Cumas	-6983
▁aigne	-6984
choiste	-6985
▁bhronn	-6986
▁deacra	-6987
▁gluais	-6988
saíochta	-6989
▁Indiach	-6990
▁carbóin	-6991
▁formhór	-6992
earthacht	-6993
▁gcruinniú	-6994
▁gcuireann	-6995
▁thabharfar	-6996
▁phríobháideach	-6997
san	-6998
eodh	-6999
ying	-7000
▁190	-7001
árach	-7002
▁Long	-7003
▁dlús	-7004
eadáin	-7005
rasmus	-7006
▁mílte	-7007
▁fórsaí	-7008
▁Answers	-7009
▁Diamond	-7010
▁roinnte	-7011
▁éarlais	-7012
▁chonradh	-7013
▁iomláine	-7014
▁héifeacht	-7015
▁iomaíocht	-7016
▁leideanna	-7017
▁gníomhaire	-7018
▁gnólachtaí	-7019
▁réigiúnacha	-7020
▁tábhachtacha	-7021
.—	-7022
va	-7023
yn	-7024
oad	-7025
▁CF	-7026
íric	-7027
▁íog	-7028
ility	-7029
riail	-7030
▁York	-7031
chuibh	-7032
eifear	-7033
raince	-7034
▁Power	-7035
▁fostú	-7036
▁naked	-7037
▁threo	-7038
eepskin	-7039
ochtúir	-7040
ucation	-7041
▁foinse	-7042
mhaíocht	-7043
▁Anailís	-7044
▁Feirste	-7045
▁SEASAMH	-7046
aitisticí	-7047
▁Tríonóide	-7048
▁bhformáid	-7049
▁conarthaí	-7050
▁gaolmhara	-7051
▁sheepskin	-7052
▁oibleagáid	-7053
▁Shóisialaigh	-7054
▁Uachtaránacht	-7055
66	-7056
:4	-7057
Al	-7058
siú	-7059
▁fi	-7060
▁Ior	-7061
▁úis	-7062
eálaí	-7063
éadaí	-7064
ógais	-7065
▁Aois	-7066
▁clin	-7067
▁mhac	-7068
nuithe	-7069
íochán	-7070
▁Techn	-7071
▁inarb	-7072
leachta	-7073
mhainne	-7074
éachtaí	-7075
▁bhunús	-7076
▁daonra	-7077
earsanra	-7078
▁ligeann	-7079
▁léargas	-7080
▁iomaíoch	-7081
▁pricelist	-7082
▁Múinteoirí	-7083
▁idirdhealú	-7084
▁theicniúil	-7085
ghnéitheacha	-7086
▁ionadaíocht	-7087
▁maoirseachta	-7088
▁tromchúiseach	-7089
▁tuarascálacha	-7090
DR	-7091
HE	-7092
ony	-7093
une	-7094
▁Dó	-7095
▁Rí	-7096
▁nE	-7097
▁Ste	-7098
▁lch	-7099
uthor	-7100
▁1916	-7101
▁Glas	-7102
Christ	-7103
▁Fuair	-7104
▁eagla	-7105
▁Depart	-7106
▁daonla	-7107
▁gcúirt	-7108
▁glasraí	-7109
▁iomlána	-7110
▁nascadh	-7111
▁saibhir	-7112
▁seachad	-7113
▁Oscailte	-7114
▁chothrom	-7115
▁Thuaisceart	-7116
▁Feidhmiúcháin	-7117
▁lánaimseartha	-7118
bur	-7119
▁38	-7120
ines	-7121
lond	-7122
amhsa	-7123
óthar	-7124
▁Ball	-7125
▁geal	-7126
▁tinn	-7127
arthaí	-7128
▁Frith	-7129
▁boinn	-7130
▁molta	-7131
▁patrú	-7132
▁tuism	-7133
▁vidio	-7134
aingéil	-7135
athairn	-7136
▁Rúisis	-7137
▁dlíthe	-7138
▁dtéann	-7139
▁hAlban	-7140
▁maidin	-7141
▁bheatha	-7142
▁feabhsú	-7143
▁truaill	-7144
fhorbairt	-7145
▁Football	-7146
▁ceanglas	-7147
▁eisceacht	-7148
adóireachta	-7149
aireachtála	-7150
▁hiarratais	-7151
▁sláintiúil	-7152
▁seachtracha	-7153
▁taispeántas	-7154
▁aistriúcháin	-7155
▁teachtaireacht	-7156
-3	-7157
:—	-7158
Ní	-7159
ze	-7160
ert	-7161
rid	-7162
▁ór	-7163
▁All	-7164
▁CBL	-7165
▁Ios	-7166
▁cló	-7167
earbh	-7168
litir	-7169
ásach	-7170
▁Data	-7171
▁Life	-7172
▁Oral	-7173
▁hair	-7174
ghrádú	-7175
luaite	-7176
▁Cúirt	-7177
▁Taist	-7178
▁aerár	-7179
mhaithe	-7180
éalainn	-7181
▁bhrath	-7182
▁fógraí	-7183
▁ghléas	-7184
ghabhála	-7185
▁ceannas	-7186
▁cuimilt	-7187
▁rialála	-7188
▁idirlíon	-7189
▁Ceadaíonn	-7190
▁Áilleacht	-7191
iarratasóir	-7192
▁ceiliúradh	-7193
▁dliteanais	-7194
▁dramhaíola	-7195
5%	-7196
NY	-7197
arú	-7198
mpa	-7199
▁44	-7200
▁CC	-7201
otán	-7202
péir	-7203
▁Ban	-7204
dhíol	-7205
shuim	-7206
chiste	-7207
eather	-7208
ewelry	-7209
ianach	-7210
▁Thair	-7211
▁mainn	-7212
▁meabh	-7213
aothair	-7214
arántas	-7215
▁Teacht	-7216
▁drugaí	-7217
▁insint	-7218
airdiúil	-7219
▁Blowjob	-7220
▁Pinsean	-7221
▁dtugann	-7222
▁áisiúil	-7223
▁gceantar	-7224
▁foirmiúil	-7225
▁chaidreamh	-7226
▁Chuideachta	-7227
▁astaíochtaí	-7228
▁Chomhphobail	-7229
▁Toscaireacht	-7230
▁urscaoileadh	-7231
tre	-7232
CHTA	-7233
ists	-7234
olly	-7235
omen	-7236
▁(9)	-7237
▁Dír	-7238
IDEAL	-7239
earas	-7240
iosca	-7241
éatad	-7242
úcair	-7243
▁Cirt	-7244
▁dhíl	-7245
▁dhío	-7246
ission	-7247
▁2014.	-7248
▁Aoine	-7249
▁Atlan	-7250
▁Fúinn	-7251
▁chlog	-7252
▁othar	-7253
▁taise	-7254
▁theas	-7255
oirmisc	-7256
▁Comhth	-7257
▁brunet	-7258
▁sochaí	-7259
albhaigh	-7260
▁Corpora	-7261
▁Fiontar	-7262
▁Fomhair	-7263
▁Margadh	-7264
▁Sóisial	-7265
▁dhaltaí	-7266
▁saoirse	-7267
▁Rochtain	-7268
▁iarnróid	-7269
▁Foilsithe	-7270
▁trasteorann	-7271
0.	-7272
37	-7273
DM	-7274
dom	-7275
mhu	-7276
▁4,	-7277
▁EN	-7278
▁UN	-7279
chum	-7280
▁...	-7281
▁cap	-7282
▁din	-7283
▁Éil	-7284
eirme	-7285
racht	-7286
▁Stoc	-7287
▁luch	-7288
▁díola	-7289
▁fhion	-7290
▁gcóir	-7291
▁super	-7292
▁vótaí	-7293
▁dúradh	-7294
▁gabhál	-7295
▁ngnáth	-7296
▁tógadh	-7297
naíochta	-7298
éifeacht	-7299
úcairist	-7300
▁Erasmus	-7301
▁Glacann	-7302
▁fabraic	-7303
▁tsochaí	-7304
▁innealra	-7305
▁hOllscoil	-7306
▁sreabhadh	-7307
▁Eagraíocht	-7308
▁hacmhainní	-7309
▁dTuaisceart	-7310
▁Infheistíochta	-7311
67	-7312
We	-7313
ny	-7314
ÁS	-7315
err	-7316
usa	-7317
zal	-7318
▁48	-7319
thrá	-7320
▁Lae	-7321
eolaí	-7322
eomra	-7323
onadh	-7324
radam	-7325
tíonn	-7326
▁ingh	-7327
tuithe	-7328
▁agóid	-7329
▁chóip	-7330
▁ghuth	-7331
▁gnách	-7332
▁ionsú	-7333
▁stoic	-7334
lándáil	-7335
reastal	-7336
ruiséil	-7337
uspóirí	-7338
▁Páirtí	-7339
▁Tionól	-7340
▁boscaí	-7341
▁mhainn	-7342
maisféar	-7343
▁bpríomh	-7344
▁mianraí	-7345
▁nasctha	-7346
▁calories	-7347
▁léirithe	-7348
▁thuairim	-7349
earnálacha	-7350
▁Cathracha	-7351
▁dháileadh	-7352
▁foirgnimh	-7353
▁Washington	-7354
▁deacrachtaí	-7355
▁oibleagáidí	-7356
Ag	-7357
TI	-7358
-10	-7359
bal	-7360
eme	-7361
▁wh	-7362
porn	-7363
zrel	-7364
▁300	-7365
▁lon	-7366
ltais	-7367
uropa	-7368
▁Next	-7369
▁bhia	-7370
▁dtrá	-7371
▁múnla	-7372
úinéirí	-7373
▁diúité	-7374
▁misean	-7375
▁Croíthe	-7376
▁réaltaí	-7377
▁Soláthar	-7378
▁ceachtar	-7379
▁carachtair	-7380
▁comhtháite	-7381
▁substaintí	-7382
▁cáilíochtaí	-7383
▁rialaitheoir	-7384
▁taispeántais	-7385
▁International	-7386
0,	-7387
HR	-7388
yl	-7389
eet	-7390
ves	-7391
ÁIL	-7392
▁IT	-7393
▁Ma	-7394
▁Sé	-7395
uirg	-7396
órsa	-7397
▁Gar	-7398
▁cis	-7399
inter	-7400
ustra	-7401
áillí	-7402
▁Lagh	-7403
▁Linn	-7404
▁fiac	-7405
▁mill	-7406
lámhas	-7407
uidéal	-7408
óithre	-7409
▁dúnta	-7410
▁earra	-7411
▁nGael	-7412
▁shots	-7413
orcaigh	-7414
▁luaidhe	-7415
▁ordóidh	-7416
aispeánann	-7417
▁gComhphobal	-7418
ml	-7419
su	-7420
Col	-7421
umb	-7422
▁Las	-7423
▁Off	-7424
▁ban	-7425
▁mam	-7426
éagsú	-7427
▁earc	-7428
▁mhea	-7429
▁2015.	-7430
▁Próis	-7431
▁pláta	-7432
▁spórt	-7433
▁vótála	-7434
▁ábalta	-7435
ibheacha	-7436
▁bainise	-7437
▁gContae	-7438
▁Sathairn	-7439
▁Tacaíonn	-7440
▁chuspóir	-7441
▁dhualgas	-7442
▁gcluiche	-7443
▁seiceáil	-7444
▁tiomáint	-7445
▁Acmhainní	-7446
▁gcaitheamh	-7447
▁ionstraimí	-7448
▁scrúduithe	-7449
▁Athchóirithe	-7450
▁riachtanacha	-7451
▁comhpháirtithe	-7452
-5	-7453
2:	-7454
illt	-7455
ocia	-7456
earch	-7457
▁Chon	-7458
▁airm	-7459
▁foch	-7460
▁Íseal	-7461
eangach	-7462
▁Chláir	-7463
▁aithne	-7464
▁cnaipe	-7465
▁mhaolú	-7466
▁breithe	-7467
▁cuimhne	-7468
▁eochair	-7469
▁neamhbh	-7470
▁teicníc	-7471
▁tréithe	-7472
▁chabhair	-7473
▁chuardach	-7474
▁Eolaíochta	-7475
▁gcaithfidh	-7476
▁bParlaimint	-7477
▁neamhchoitianta	-7478
eod	-7479
ohn	-7480
ott	-7481
inal	-7482
uasc	-7483
▁Med	-7484
▁OEM	-7485
▁PDF	-7486
eamhn	-7487
ights	-7488
thear	-7489
ustam	-7490
▁Mona	-7491
▁Muir	-7492
▁cloí	-7493
▁féad	-7494
▁gorm	-7495
▁léim	-7496
▁uirb	-7497
eáchan	-7498
eálann	-7499
olainn	-7500
▁Amach	-7501
▁Seice	-7502
▁ailse	-7503
▁dtogh	-7504
▁traen	-7505
ization	-7506
▁Dublin	-7507
▁Déanta	-7508
▁Uachta	-7509
▁bhfeic	-7510
▁faisin	-7511
▁mhíniú	-7512
▁séasúr	-7513
csamburg	-7514
▁Leagtar	-7515
▁Strucht	-7516
▁dteanga	-7517
▁Danmhair	-7518
▁Ghnóthaí	-7519
▁fhéadfar	-7520
▁vitimíní	-7521
▁Bhruiséil	-7522
▁Bogearraí	-7523
▁fisiciúil	-7524
▁scoirfidh	-7525
▁Ainmneacha	-7526
▁dteastaíonn	-7527
▁fheidhmíocht	-7528
▁léirmheasanna	-7529
▁ranníocaíochtaí	-7530
NN	-7531
Na	-7532
kh	-7533
gaz	-7534
lly	-7535
rog	-7536
ump	-7537
▁MO	-7538
ives	-7539
▁per	-7540
eofaí	-7541
video	-7542
éimhs	-7543
▁Mhar	-7544
▁Thar	-7545
▁caid	-7546
▁caol	-7547
▁díbh	-7548
▁mála	-7549
thacha	-7550
órtais	-7551
▁Ciorc	-7552
▁Ghlac	-7553
▁Ríoga	-7554
▁moill	-7555
bhaíodh	-7556
thriall	-7557
ánaithe	-7558
▁saghas	-7559
▁solais	-7560
dhéanamh	-7561
laochlad	-7562
ainníocht	-7563
▁Buíochas	-7564
▁Lesbians	-7565
▁gcuimhne	-7566
ustaiméara	-7567
▁leasmhara	-7568
▁ndéanfadh	-7569
▁shonraithe	-7570
▁chaiteachas	-7571
TU	-7572
ows	-7573
tro	-7574
▁AD	-7575
▁ga	-7576
elle	-7577
▁Gla	-7578
▁Imp	-7579
▁Sol	-7580
▁aib	-7581
▁ant	-7582
▁1999	-7583
▁Deis	-7584
▁Luim	-7585
▁Mach	-7586
▁Mont	-7587
▁Tríú	-7588
▁cara	-7589
bolone	-7590
eamhan	-7591
obhach	-7592
▁Story	-7593
▁caomh	-7594
▁facht	-7595
dhéanta	-7596
ínítear	-7597
▁polasaí	-7598
▁bhuiséad	-7599
▁mícheart	-7600
▁Tráchtála	-7601
▁mhuirearú	-7602
▁bailiúchán	-7603
▁eolaíochta	-7604
▁faireachán	-7605
▁iarrthóirí	-7606
▁polaitiúla	-7607
▁Bhreithiúnais	-7608
▁comhairliúcháin	-7609
95	-7610
BB	-7611
All	-7612
Iar	-7613
ham	-7614
ret	-7615
rig	-7616
uile	-7617
íoma	-7618
▁Clú	-7619
▁gin	-7620
▁mhó	-7621
macha	-7622
urnae	-7623
▁ANKO	-7624
▁Cent	-7625
▁Fire	-7626
▁Iniú	-7627
▁ghru	-7628
▁more	-7629
aothar	-7630
ladach	-7631
éalach	-7632
▁Bunús	-7633
▁Fhion	-7634
▁Príobh	-7635
▁ghrian	-7636
▁hábhar	-7637
▁Oileáin	-7638
▁meastar	-7639
▁áitribh	-7640
▁éilíonn	-7641
▁European	-7642
▁fhógairt	-7643
▁Christian	-7644
▁Dheireadh	-7645
▁Microsoft	-7646
▁Seachtain	-7647
▁Tabharfar	-7648
▁socraithe	-7649
íocaíochtaí	-7650
▁comhairimh	-7651
▁aitheantais	-7652
▁hinstitiúidí	-7653
VD	-7654
trú	-7655
ása	-7656
▁@_	-7657
▁Pa	-7658
aidí	-7659
vent	-7660
▁dis	-7661
▁olc	-7662
ittee	-7663
úintí	-7664
▁Ráta	-7665
Chiste	-7666
annadh	-7667
odanna	-7668
▁Ollmh	-7669
▁State	-7670
▁málaí	-7671
▁scriú	-7672
▁Eorpaí	-7673
▁rothar	-7674
othaithe	-7675
▁bhfíric	-7676
▁bhuaigh	-7677
▁próifíl	-7678
▁páipéir	-7679
▁tomhalt	-7680
aitéarach	-7681
igiteacha	-7682
▁Iascaigh	-7683
▁achoimre	-7684
▁ballóide	-7685
▁comhlíon	-7686
▁filleadh	-7687
▁mhuintir	-7688
▁Comhdháil	-7689
▁bheartais	-7690
▁creimeadh	-7691
▁faigheann	-7692
▁Cáilíochta	-7693
▁bhreithniú	-7694
▁laghdaithe	-7695
▁idirghníomh	-7696
▁híocaíochtaí	-7697
▁Comhionannais	-7698
▁Teicneolaíocht	-7699
ova	-7700
ilte	-7701
mhan	-7702
play	-7703
roup	-7704
óite	-7705
▁Gal	-7706
▁bal	-7707
▁cig	-7708
ifige	-7709
laith	-7710
tálaí	-7711
▁Free	-7712
▁Sula	-7713
▁fíon	-7714
illing	-7715
vision	-7716
▁Franc	-7717
▁páirc	-7718
▁píosaí	-7719
▁Déantús	-7720
▁chomhar	-7721
▁foclóir	-7722
▁seamhan	-7723
▁Slándála	-7724
▁Limistéar	-7725
▁coinníoll	-7726
▁diúscairt	-7727
▁hachomair	-7728
▁Úsáideann	-7729
▁Lucsamburg	-7730
▁Caiteachais	-7731
▁chathaoirleach	-7732
44	-7733
78	-7734
MT	-7735
VID	-7736
cur	-7737
ges	-7738
ense	-7739
fran	-7740
illí	-7741
ores	-7742
óram	-7743
▁150	-7744
▁dtr	-7745
gasms	-7746
íobla	-7747
▁Atha	-7748
▁Gold	-7749
ations	-7750
áirimh	-7751
▁Cheap	-7752
▁Leibh	-7753
▁Leith	-7754
▁bhéar	-7755
▁rásaí	-7756
▁áthas	-7757
pháirtí	-7758
▁Bhainc	-7759
▁United	-7760
▁beacht	-7761
▁forais	-7762
▁galair	-7763
▁gcreid	-7764
▁mbeart	-7765
▁seasta	-7766
▁toirch	-7767
▁Ábhair	-7768
aiteoirí	-7769
▁Scannán	-7770
▁gcúrsaí	-7771
▁líonraí	-7772
▁Deontais	-7773
▁inslithe	-7774
▁oiriúint	-7775
▁théarmaí	-7776
▁Sibhialta	-7777
▁Páirteanna	-7778
▁féideartha	-7779
▁cheiliúradh	-7780
▁tuairisceán	-7781
▁Turasóireachta	-7782
32	-7783
OP	-7784
yp	-7785
ace	-7786
▁39	-7787
▁CL	-7788
cess	-7789
iber	-7790
iver	-7791
núin	-7792
tábh	-7793
unty	-7794
facha	-7795
imate	-7796
pport	-7797
raing	-7798
▁Nios	-7799
▁cith	-7800
▁fhás	-7801
▁2016,	-7802
▁Chult	-7803
▁Fiont	-7804
▁Staid	-7805
▁Togra	-7806
▁Toisc	-7807
▁sular	-7808
arastal	-7809
rochtana	-7810
chuirtear	-7811
▁Fraincis	-7812
▁cóireála	-7813
▁phróisis	-7814
▁pleanáil	-7815
▁Committee	-7816
▁léirítear	-7817
▁Tacaíochta	-7818
athbhreithniú	-7819
▁dtabharfaidh	-7820
aS	-7821
uss	-7822
uts	-7823
gram	-7824
oide	-7825
phlé	-7826
▁Ros	-7827
▁Win	-7828
▁sár	-7829
▁clog	-7830
▁sorc	-7831
▁síol	-7832
▁Leabú	-7833
▁Seach	-7834
▁bróga	-7835
▁duais	-7836
▁gurbh	-7837
▁treal	-7838
chumann	-7839
▁Author	-7840
▁Cearta	-7841
▁Eolais	-7842
▁bheaga	-7843
▁réalta	-7844
▁teileaf	-7845
▁tiomána	-7846
▁airíonna	-7847
▁cáiliúla	-7848
▁deonacha	-7849
▁Digiteach	-7850
▁cleachtas	-7851
▁inchurtha	-7852
▁chomhshaol	-7853
▁chreidiúint	-7854
▁cuairteoirí	-7855
els	-7856
gle	-7857
▁bo	-7858
▁hé	-7859
eitr	-7860
▁Add	-7861
▁Arm	-7862
iodrá	-7863
▁Luan	-7864
▁cear	-7865
▁daor	-7866
▁éisc	-7867
aoithe	-7868
uimhir	-7869
íocach	-7870
▁Bronn	-7871
▁ngabh	-7872
▁péint	-7873
▁scior	-7874
incheap	-7875
▁Bliana	-7876
▁Breith	-7877
▁Cuimhn	-7878
▁mhoill	-7879
liúntais	-7880
▁Foclóir	-7881
▁dhiúltú	-7882
▁dlífear	-7883
▁dúshlán	-7884
▁cáiliúil	-7885
▁sloinnte	-7886
▁Chaibidil	-7887
▁Fhaisnéis	-7888
▁clúdaithe	-7889
▁neamhghná	-7890
▁Tairiscint	-7891
▁cheadúnais	-7892
▁cheapfaidh	-7893
▁rapóirtéir	-7894
▁ráthaíocht	-7895
▁Taispeántas	-7896
▁bhfaigheann	-7897
DC	-7898
gú	-7899
bra	-7900
irl	-7901
rey	-7902
▁Pu	-7903
arna	-7904
rans	-7905
tery	-7906
▁Bre	-7907
▁Cap	-7908
▁Nád	-7909
▁cón	-7910
▁ocs	-7911
▁stu	-7912
▁tsu	-7913
aoint	-7914
éilte	-7915
▁Club	-7916
▁Coda	-7917
▁heis	-7918
liaint	-7919
▁Luach	-7920
▁Riail	-7921
▁Árach	-7922
▁feirme	-7923
▁tógtha	-7924
ubstaint	-7925
▁fhéidir	-7926
▁ghruaig	-7927
▁seomraí	-7928
▁dearcadh	-7929
▁feithicil	-7930
▁rannchuid	-7931
▁Plaisteach	-7932
▁caipitiúil	-7933
▁ullmhaithe	-7934
▁sláintíochta	-7935
ft	-7936
fu	-7937
.”,	-7938
PDF	-7939
pph	-7940
▁VI	-7941
▁nú	-7942
eich	-7943
póin	-7944
ónta	-7945
▁Dul	-7946
▁bor	-7947
▁mus	-7948
aigin	-7949
ósadh	-7950
▁Airm	-7951
▁Modh	-7952
▁Rómh	-7953
▁Tour	-7954
▁iris	-7955
▁Ceart	-7956
▁crann	-7957
▁geimh	-7958
▁nótaí	-7959
▁phion	-7960
▁taibh	-7961
▁Amharc	-7962
▁bhalla	-7963
▁comhgh	-7964
▁erotic	-7965
▁soilse	-7966
oibríonn	-7967
▁Android	-7968
▁bainist	-7969
▁chánach	-7970
▁samhail	-7971
▁tabhair	-7972
▁Foireann	-7973
▁Imeachta	-7974
▁ceannais	-7975
▁teagmhas	-7976
▁spreagúil	-7977
▁bhfuiltear	-7978
▁hathruithe	-7979
▁ainmniúcháin	-7980
▁tionsclaíoch	-7981
▁seachtainiúil	-7982
Ind	-7983
key	-7984
ísh	-7985
andy	-7986
ants	-7987
aofa	-7988
rest	-7989
ward	-7990
▁fío	-7991
▁phá	-7992
▁rol	-7993
▁tam	-7994
▁Áis	-7995
ragon	-7996
ratch	-7997
under	-7998
▁hord	-7999
▁héil	-8000
▁taos	-8001
▁pussy	-8002
▁rolla	-8003
▁súile	-8004
Chúirte	-8005
omhanda	-8006
onartha	-8007
ualgais	-8008
▁fhíorú	-8009
▁gairid	-8010
▁tapúla	-8011
▁Fraince	-8012
▁cruinne	-8013
▁eisíodh	-8014
uideachta	-8015
▁cadhnraí	-8016
▁ionfhabh	-8017
▁Kashtanka	-8018
▁comhsheas	-8019
AA	-8020
’.	-8021
esh	-8022
ibe	-8023
▁2)	-8024
▁9.	-8025
▁@0	-8026
▁mp	-8027
núil	-8028
éige	-8029
▁Den	-8030
▁brí	-8031
▁gra	-8032
▁gun	-8033
arraí	-8034
fheic	-8035
ilium	-8036
éadan	-8037
▁cóid	-8038
▁Tábla	-8039
▁píopa	-8040
▁teagh	-8041
▁trosc	-8042
▁urrús	-8043
isceana	-8044
uirlisí	-8045
▁aonaid	-8046
▁bhuail	-8047
▁chónaí	-8048
▁phríos	-8049
▁chumasú	-8050
▁ghrúpaí	-8051
▁tomhais	-8052
▁iniúchta	-8053
ríbhneoirí	-8054
▁cuardaigh	-8055
▁resistant	-8056
▁Coimisinéir	-8057
▁feabhsaithe	-8058
▁foirgníochta	-8059
▁meastóireacht	-8060
Go	-8061
LC	-8062
LS	-8063
fox	-8064
lie	-8065
eilt	-8066
ival	-8067
rent	-8068
▁fóg	-8069
▁dheo	-8070
europa	-8071
lachas	-8072
ration	-8073
▁Aonad	-8074
▁chois	-8075
▁chúig	-8076
▁dhích	-8077
▁mótar	-8078
▁shamh	-8079
▁thras	-8080
mhairtí	-8081
oiseach	-8082
scéalta	-8083
▁Sprioc	-8084
▁coimhd	-8085
aighdean	-8086
onCuntas	-8087
▁Leathar	-8088
▁Nuashon	-8089
▁cobhsaí	-8090
▁síneadh	-8091
▁teochta	-8092
eolaíocha	-8093
úsáidtear	-8094
▁áirítear	-8095
▁bhriseadh	-8096
▁gcomhaontú	-8097
▁éifeachtacht	-8098
85	-8099
AG	-8100
IAN	-8101
der	-8102
ipp	-8103
íle	-8104
óta	-8105
▁PE	-8106
thir	-8107
table	-8108
▁pait	-8109
▁Bhéal	-8110
▁Halla	-8111
▁Taobh	-8112
▁rianú	-8113
▁síniú	-8114
aoisimh	-8115
▁German	-8116
▁caibid	-8117
▁gcaith	-8118
▁theach	-8119
▁thogra	-8120
onograph	-8121
éilleadh	-8122
▁Chuarda	-8123
▁Limited	-8124
▁mhonarú	-8125
▁riaradh	-8126
▁sínithe	-8127
iompartha	-8128
▁íocfaidh	-8129
▁Consilium	-8130
▁Phoblacht	-8131
▁tiocfaidh	-8132
▁Chomhaontú	-8133
▁iarrachtaí	-8134
▁cáilitheach	-8135
▁measúnachta	-8136
▁neamhfhoirm	-8137
▁creidiúnaithe	-8138
DH	-8139
eu	-8140
▁Ca	-8141
▁TR	-8142
▁FÁS	-8143
stair	-8144
ution	-8145
▁1923	-8146
▁Aeir	-8147
▁Eilv	-8148
▁Lena	-8149
▁Mhór	-8150
▁Wind	-8151
▁cist	-8152
▁fóir	-8153
▁téip	-8154
arbóin	-8155
eolann	-8156
neoidh	-8157
▁coibh	-8158
▁mhian	-8159
▁rácad	-8160
ainmniú	-8161
iméadar	-8162
réitigh	-8163
▁Caipit	-8164
▁sceith	-8165
▁Eilvéis	-8166
▁dtabhar	-8167
▁shásamh	-8168
▁sucking	-8169
▁thuaidh	-8170
▁dílsithe	-8171
▁Imeachtaí	-8172
▁bláthanna	-8173
▁forlámhas	-8174
▁rácadóirí	-8175
▁shonróidh	-8176
ithreachais	-8177
▁uimhreacha	-8178
▁fadtéarmach	-8179
▁inmheánacha	-8180
▁forléireofar	-8181
▁cuntasaíochta	-8182
▁comhpháirteach	-8183
94	-8184
Br	-8185
SF	-8186
now	-8187
ódh	-8188
▁TU	-8189
▁be	-8190
▁rí	-8191
mait	-8192
oras	-8193
▁Dar	-8194
▁Sam	-8195
▁Scr	-8196
▁Sea	-8197
▁ead	-8198
ríche	-8199
▁Béal	-8200
▁Nasc	-8201
▁forb	-8202
▁Chóir	-8203
▁breac	-8204
▁thosú	-8205
ánachta	-8206
▁Ghrúpa	-8207
▁cealla	-8208
▁cigire	-8209
éarchéim	-8210
▁Ríochta	-8211
▁Thionsc	-8212
▁malartú	-8213
▁spiorad	-8214
▁bhuachan	-8215
▁déanmhas	-8216
▁Coitianta	-8217
▁gceantair	-8218
▁tabhaíodh	-8219
▁dhlíthiúil	-8220
▁Nuálaíochta	-8221
▁Treoirlínte	-8222
▁breithiúnas	-8223
▁fhorlíonadh	-8224
▁táirgeachta	-8225
▁chomhlíonann	-8226
31	-8227
76	-8228
use	-8229
óiv	-8230
▁(5	-8231
ogal	-8232
▁(31	-8233
▁Mon	-8234
▁gco	-8235
máidí	-8236
▁2002	-8237
▁Cart	-8238
▁Suas	-8239
▁háis	-8240
▁meit	-8241
▁nóta	-8242
reasts	-8243
réasán	-8244
▁Shamh	-8245
▁chomp	-8246
▁laghd	-8247
▁líomh	-8248
Ireland	-8249
eánaigh	-8250
iocfadh	-8251
ionadaí	-8252
▁Líonra	-8253
oláthair	-8254
shláinte	-8255
▁Iarthar	-8256
▁aisling	-8257
▁bpáistí	-8258
▁pholait	-8259
▁pionóis	-8260
Forálacha	-8261
▁Fuinnimh	-8262
▁chomhrac	-8263
▁freagraí	-8264
▁gcoimeád	-8265
ionadaithe	-8266
▁Oifigeach	-8267
▁Soláthair	-8268
▁gabhálais	-8269
▁gearrthóg	-8270
▁saineolas	-8271
▁sainráite	-8272
▁hOllscoile	-8273
▁suntasacha	-8274
▁cumhachtach	-8275
▁bainistíocht	-8276
;&	-8277
MC	-8278
ade	-8279
ery	-8280
ico	-8281
mag	-8282
nan	-8283
▁Sk	-8284
▁nO	-8285
adaí	-8286
read	-8287
éalt	-8288
thadh	-8289
▁Asal	-8290
▁chlé	-8291
abhrac	-8292
eangal	-8293
▁Human	-8294
bhrúite	-8295
▁chugat	-8296
▁giorra	-8297
▁glaoch	-8298
Ghaeilge	-8299
leibhéil	-8300
▁Pháirtí	-8301
▁gnóthaí	-8302
▁tráchta	-8303
aistrithe	-8304
▁suimiúla	-8305
▁Caighdeán	-8306
▁bhuíochas	-8307
▁pacáistiú	-8308
▁phleanáil	-8309
▁thaispeán	-8310
▁Airteagail	-8311
▁bronntanais	-8312
--	-8313
OT	-8314
TV	-8315
▁55	-8316
eimp	-8317
iblí	-8318
▁Brú	-8319
▁Day	-8320
▁Fad	-8321
▁Pay	-8322
dacha	-8323
rable	-8324
▁Forb	-8325
▁Home	-8326
▁fabh	-8327
▁mall	-8328
igital	-8329
ofacht	-8330
▁Bhuel	-8331
▁Cárta	-8332
▁Asraon	-8333
▁Bhreat	-8334
▁Seacht	-8335
▁pearsa	-8336
▁Ceamara	-8337
▁comhlán	-8338
▁cosmaid	-8339
eallachta	-8340
▁ceantair	-8341
▁rochtana	-8342
▁seaicéid	-8343
▁slándáil	-8344
▁soladach	-8345
▁Pacáistiú	-8346
▁Pearsanta	-8347
▁dlíthiúla	-8348
▁háiteanna	-8349
▁tráthnóna	-8350
europapress	-8351
▁chultúrtha	-8352
▁chúiseanna	-8353
▁tarmligthe	-8354
▁ghníomhaire	-8355
▁iontaobhais	-8356
▁shaoránaigh	-8357
▁straitéiseach	-8358
89	-8359
Ath	-8360
elp	-8361
eth	-8362
lot	-8363
lum	-8364
rob	-8365
vir	-8366
eite	-8367
lace	-8368
tary	-8369
▁Log	-8370
▁Sli	-8371
▁fonn	-8372
▁hIar	-8373
bhaile	-8374
chéile	-8375
ranais	-8376
▁2017,	-8377
▁Féile	-8378
▁Omega	-8379
▁hAcht	-8380
▁séala	-8381
▁triúr	-8382
▁fheabh	-8383
▁oifigí	-8384
▁éirigh	-8385
Official	-8386
▁College	-8387
▁dheisiú	-8388
▁Cuidíonn	-8389
▁iontráil	-8390
▁thrádáil	-8391
▁Institute	-8392
▁Taoiseach	-8393
▁Treoracha	-8394
▁mhealladh	-8395
▁tSualainn	-8396
▁idirbheart	-8397
▁tosaíochta	-8398
oigeartaithe	-8399
▁fhostaíocht	-8400
▁spriocdháta	-8401
▁Ilghnéitheacha	-8402
BM	-8403
eál	-8404
ody	-8405
▁DE	-8406
▁US	-8407
Comm	-8408
neas	-8409
oilg	-8410
éabh	-8411
▁Ben	-8412
▁Cam	-8413
▁PVC	-8414
▁ana	-8415
▁seó	-8416
lófar	-8417
onach	-8418
reasa	-8419
▁TSín	-8420
▁uisc	-8421
eáchtá	-8422
leoirí	-8423
pphire	-8424
▁2012.	-8425
▁2013.	-8426
▁folún	-8427
▁fosta	-8428
▁nDaon	-8429
▁Moltar	-8430
▁damhsa	-8431
▁Ceanada	-8432
ealbhóirí	-8433
fhoilsigh	-8434
eartaítear	-8435
▁Cumhachta	-8436
▁gcinneadh	-8437
▁Gheobhaidh	-8438
▁malartacha	-8439
▁Phortaingéil	-8440
▁gcomhlíonadh	-8441
▁fhoirceannadh	-8442
Stiúrthóireacht	-8443
▁neamhdhleathach	-8444
IG	-8445
day	-8446
▁75	-8447
▁FC	-8448
▁IR	-8449
▁TG	-8450
ough	-8451
stru	-8452
vers	-8453
íste	-8454
▁(20	-8455
▁Alb	-8456
▁Bat	-8457
▁fac	-8458
▁ghá	-8459
iséid	-8460
tháir	-8461
▁(3),	-8462
▁Marc	-8463
▁Teil	-8464
▁club	-8465
▁mair	-8466
▁thit	-8467
fhocal	-8468
ogaidh	-8469
▁2018,	-8470
▁Iorua	-8471
▁balla	-8472
oibrigh	-8473
éireach	-8474
▁Críoch	-8475
▁Dearbh	-8476
▁Reacht	-8477
▁aschur	-8478
▁bónais	-8479
▁cumann	-8480
▁Eaglais	-8481
▁Ollmhór	-8482
▁bhfógra	-8483
▁rialáil	-8484
▁shraith	-8485
▁dhíreach	-8486
▁Ceannaigh	-8487
▁trealaimh	-8488
▁úsáideadh	-8489
▁aicrileach	-8490
▁cainteoirí	-8491
▁príobháideacha	-8492
-4	-8493
AF	-8494
PC	-8495
ici	-8496
▁No	-8497
▁TE	-8498
▁by	-8499
iond	-8500
itch	-8501
llar	-8502
ooth	-8503
rogh	-8504
ímid	-8505
▁316	-8506
▁Ana	-8507
▁Lio	-8508
▁Voy	-8509
▁aos	-8510
eanad	-8511
ranna	-8512
▁1924	-8513
▁1997	-8514
▁Fais	-8515
▁Féin	-8516
▁airt	-8517
aothrú	-8518
earnóg	-8519
▁Baint	-8520
▁Talún	-8521
▁chucu	-8522
▁gcáil	-8523
▁Iomlán	-8524
▁cruthú	-8525
▁íocfar	-8526
▁jewelry	-8527
▁strains	-8528
▁teorann	-8529
▁chomaoin	-8530
▁foclóirí	-8531
▁iontrála	-8532
fheithiclí	-8533
▁Education	-8534
▁Socruithe	-8535
▁thagairtí	-8536
▁tionchair	-8537
▁aisghabháil	-8538
▁gcomhpháirt	-8539
▁caillteanais	-8540
▁leictreachas	-8541
▁soláthraíonn	-8542
▁thionscadail	-8543
▁eacnamaíochta	-8544
CF	-8545
GS	-8546
ji	-8547
mu	-8548
sk	-8549
AIS	-8550
caí	-8551
ict	-8552
ifi	-8553
oma	-8554
▁41	-8555
▁Tí	-8556
lagh	-8557
ound	-8558
▁Aut	-8559
▁TFC	-8560
▁ful	-8561
▁ing	-8562
aistí	-8563
aonad	-8564
azine	-8565
gnóis	-8566
lette	-8567
níodh	-8568
ullmh	-8569
óilín	-8570
▁Fáil	-8571
▁Léar	-8572
▁Tren	-8573
▁doch	-8574
▁fhis	-8575
▁tonn	-8576
ionaid	-8577
▁éinne	-8578
▁dhroim	-8579
▁mheabh	-8580
ociation	-8581
ícheanna	-8582
▁Chóiste	-8583
▁Service	-8584
▁dheasca	-8585
▁dtéarmaí	-8586
▁iasachta	-8587
▁reachtach	-8588
▁Leispiacha	-8589
▁cuimhneamh	-8590
▁trastomhas	-8591
▁tairiscintí	-8592
▁ionchúiseamh	-8593
▁leictreonacha	-8594
▁reachtaíochta	-8595
▁comhréireachta	-8596
01	-8597
97	-8598
app	-8599
▁Mc	-8600
▁€2	-8601
oire	-8602
rael	-8603
view	-8604
▁Fiú	-8605
▁Rad	-8606
▁lúb	-8607
Europ	-8608
bhain	-8609
eople	-8610
ervat	-8611
▁(2),	-8612
▁dtrí	-8613
▁graf	-8614
▁sexy	-8615
▁seán	-8616
▁Organ	-8617
▁Rúise	-8618
▁Shóis	-8619
▁South	-8620
▁strus	-8621
▁éinní	-8622
bhliain	-8623
éatadán	-8624
▁Laidin	-8625
▁Philip	-8626
▁Public	-8627
▁feadán	-8628
▁gairme	-8629
▁hobair	-8630
▁oileán	-8631
▁salach	-8632
▁thairg	-8633
▁íocann	-8634
oiteanna	-8635
▁Thairis	-8636
▁Téarmaí	-8637
▁abhaile	-8638
▁chúnamh	-8639
aiméadair	-8640
▁Tuairimí	-8641
▁cearnach	-8642
▁cheithre	-8643
▁gearrtha	-8644
▁gnéasach	-8645
▁íomhánna	-8646
aighdeoirí	-8647
bhuntáiste	-8648
▁ceannaigh	-8649
▁chónaíonn	-8650
▁Íocaíocht	-8651
tábhachtach	-8652
▁bhfaisnéis	-8653
▁gcomhaltaí	-8654
▁luaidhtear	-8655
▁tUachtarán	-8656
▁cheanglaítear	-8657
▁dtimpeallacht	-8658
don	-8659
ray	-8660
▁66	-8661
▁CY	-8662
▁só	-8663
ainí	-8664
iang	-8665
iner	-8666
raig	-8667
éill	-8668
▁Sas	-8669
▁tiu	-8670
aicme	-8671
angua	-8672
ardas	-8673
itics	-8674
▁Gabh	-8675
▁admh	-8676
▁coil	-8677
cheann	-8678
ileáin	-8679
ogalra	-8680
reisiú	-8681
▁COVID	-8682
▁fúthu	-8683
▁prion	-8684
▁reifr	-8685
▁tionó	-8686
atamait	-8687
▁Cogadh	-8688
▁Iompar	-8689
▁feiste	-8690
▁litiam	-8691
eoltóirí	-8692
olacháin	-8693
▁Leighis	-8694
▁breosla	-8695
▁cúnaimh	-8696
▁slabhra	-8697
eicníocht	-8698
▁alúmanam	-8699
▁scoláire	-8700
▁shoiléir	-8701
▁iasachtaí	-8702
▁reachtúla	-8703
▁mheasfaidh	-8704
▁cheisteanna	-8705
▁fhreagracht	-8706
▁mheaitseáil	-8707
▁praiticiúil	-8708
▁tuismitheoir	-8709
▁Shábháilteacht	-8710
nap	-8711
▁42	-8712
▁El	-8713
airy	-8714
ship	-8715
▁10.	-8716
▁120	-8717
▁Art	-8718
▁Jav	-8719
▁han	-8720
▁hur	-8721
cráin	-8722
magaz	-8723
thion	-8724
▁(10)	-8725
▁chra	-8726
▁info	-8727
iseadh	-8728
luichí	-8729
neacht	-8730
írinne	-8731
únaigh	-8732
▁Beaga	-8733
▁Cháin	-8734
▁dátaí	-8735
aithean	-8736
chánach	-8737
▁breath	-8738
▁comhfh	-8739
▁intíre	-8740
orparáid	-8741
▁oireann	-8742
▁sheacht	-8743
▁comhshoc	-8744
▁tsamhail	-8745
▁brunettes	-8746
▁chuirimid	-8747
▁coinneáil	-8748
▁himthosca	-8749
▁luachmhar	-8750
▁ríomhairí	-8751
▁thosaíonn	-8752
▁Department	-8753
▁Fhionlainn	-8754
▁NewsCuntas	-8755
▁Technology	-8756
▁Trenbolone	-8757
▁Amaitéarach	-8758
▁chaiteachais	-8759
▁chomhlachtaí	-8760
▁Sábháilteacht	-8761
PW	-8762
ju	-8763
ÁC	-8764
III	-8765
uab	-8766
▁Mó	-8767
▁Pá	-8768
▁ob	-8769
ACHT	-8770
Fran	-8771
comh	-8772
dair	-8773
ords	-8774
umar	-8775
▁Tru	-8776
iltír	-8777
isean	-8778
▁Chur	-8779
▁Cumh	-8780
▁Díbh	-8781
▁alos	-8782
▁ceir	-8783
▁chlá	-8784
▁guth	-8785
▁China	-8786
▁Dlúth	-8787
▁Thiar	-8788
▁doimh	-8789
▁thaca	-8790
chasach	-8791
eimineá	-8792
liúntas	-8793
naíocht	-8794
stráile	-8795
▁Ghairm	-8796
erCuntas	-8797
▁Cathair	-8798
▁Torthaí	-8799
▁cultúir	-8800
▁fionraí	-8801
▁gnáthch	-8802
▁stopadh	-8803
achomharc	-8804
tseirbhís	-8805
▁Leibhéal	-8806
▁athchúrs	-8807
▁tráthúil	-8808
aitheachta	-8809
▁Mheithimh	-8810
▁hAstráile	-8811
▁Foundation	-8812
▁mionsonraí	-8813
▁onnmhairiú	-8814
aisghairtear	-8815
▁tarraingthe	-8816
▁shainaithint	-8817
(1	-8818
84	-8819
En	-8820
IB	-8821
uí	-8822
FCB	-8823
ign	-8824
met	-8825
shó	-8826
▁€3	-8827
asca	-8828
atal	-8829
lúin	-8830
tain	-8831
uais	-8832
▁May	-8833
aster	-8834
uporn	-8835
álfar	-8836
íolón	-8837
▁Phac	-8838
▁Thrá	-8839
▁gcom	-8840
▁rois	-8841
▁rúis	-8842
▁Press	-8843
▁boird	-8844
▁druil	-8845
▁gcorp	-8846
▁púdar	-8847
▁stamp	-8848
eoranta	-8849
áipéisí	-8850
▁Police	-8851
▁bhFear	-8852
▁bianna	-8853
▁casadh	-8854
▁urrúis	-8855
▁Úcráin	-8856
leananna	-8857
maíochta	-8858
▁Bhéarla	-8859
▁Polasaí	-8860
▁acadúil	-8861
▁dúchais	-8862
▁sliocht	-8863
úsáideann	-8864
▁Pholainn	-8865
▁fiontair	-8866
▁ndearadh	-8867
▁eagraithe	-8868
▁plátáilte	-8869
▁inrochtana	-8870
▁cobhsaíocht	-8871
▁rannpháirtí	-8872
▁sonraíochtaí	-8873
▁leithdháileadh	-8874
▁turasóireachta	-8875
,”	-8876
87	-8877
Pr	-8878
col	-8879
ely	-8880
ook	-8881
▁43	-8882
▁CR	-8883
▁On	-8884
▁Óg	-8885
cibé	-8886
trár	-8887
▁Lig	-8888
▁Met	-8889
▁gio	-8890
arium	-8891
iomad	-8892
áille	-8893
▁1000	-8894
▁Cill	-8895
▁Gall	-8896
▁phas	-8897
▁sách	-8898
▁tiús	-8899
ithigh	-8900
▁Gléas	-8901
▁bhrab	-8902
▁ciall	-8903
▁daite	-8904
tachais	-8905
úntóirí	-8906
▁Bóthar	-8907
laíochta	-8908
oiliúint	-8909
tálaithe	-8910
áistithe	-8911
▁Europol	-8912
▁cheanna	-8913
▁contrár	-8914
▁Ísiltír	-8915
luchtaigh	-8916
▁Spáinnis	-8917
▁baineadh	-8918
▁fhorchur	-8919
▁eachtrach	-8920
▁iniúchóir	-8921
▁thionchar	-8922
▁toirmeasc	-8923
▁cearrbhach	-8924
itheoireacht	-8925
▁ceadúnaithe	-8926
▁tosaíochtaí	-8927
▁trédhearcach	-8928
▁Sábháilteachta	-8929
▁déantúsaíochta	-8930
8/	-8931
▁AC	-8932
▁DC	-8933
dhlú	-8934
iria	-8935
ohns	-8936
▁Aud	-8937
▁Hua	-8938
▁USB	-8939
▁app	-8940
▁sal	-8941
▁éan	-8942
aonar	-8943
oload	-8944
íreas	-8945
órsaí	-8946
▁1952	-8947
▁Breo	-8948
▁hais	-8949
▁namh	-8950
láraim	-8951
taíodh	-8952
▁lasta	-8953
▁madra	-8954
▁mharc	-8955
▁míosa	-8956
▁naimh	-8957
▁Éasca	-8958
Óglaigh	-8959
▁bóthar	-8960
▁dhóigh	-8961
▁fucked	-8962
▁inscne	-8963
▁ngeall	-8964
magazine	-8965
▁Dhaoine	-8966
▁gnóthas	-8967
▁suirbhé	-8968
▁Oibríonn	-8969
▁Pleanáil	-8970
▁bréagach	-8971
▁chlúdach	-8972
▁comórtas	-8973
▁feasacht	-8974
▁mheastar	-8975
▁thorthaí	-8976
▁tiománaí	-8977
▁eolaíocht	-8978
▁pornoload	-8979
▁crícheanna	-8980
▁struchtúir	-8981
▁déantúsóirí	-8982
▁Eacnamaíochta	-8983
ht	-8984
ari	-8985
get	-8986
ize	-8987
nny	-8988
pdf	-8989
▁Lú	-8990
▁ST	-8991
▁ol	-8992
berg	-8993
treo	-8994
trig	-8995
————	-8996
▁Fin	-8997
▁ISO	-8998
▁Inc	-8999
▁Los	-9000
▁Pat	-9001
▁SAM	-9002
▁Uas	-9003
ianán	-9004
liuch	-9005
teist	-9006
▁eadh	-9007
▁sins	-9008
ainnis	-9009
bhsáil	-9010
rianta	-9011
▁fórsa	-9012
▁grinn	-9013
▁ionch	-9014
ibhléid	-9015
nachtaí	-9016
▁Bheilg	-9017
▁Office	-9018
▁Scheme	-9019
▁chumar	-9020
▁céadta	-9021
▁foinsí	-9022
▁phoist	-9023
▁snámha	-9024
olaíocht	-9025
▁Aimsigh	-9026
▁caillte	-9027
▁dhúnadh	-9028
raitheoir	-9029
▁Earraigh	-9030
▁Mórdhíol	-9031
▁SCEIDEAL	-9032
íomatáiste	-9033
▁breithniú	-9034
▁buntáiste	-9035
▁miondíola	-9036
▁stáisiúin	-9037
▁Leictreach	-9038
▁atmaisféar	-9039
▁bhfeidhmiú	-9040
▁eascraíonn	-9041
▁leabharlann	-9042
▁Bainistíocht	-9043
▁tarraingteach	-9044
Ad	-9045
OO	-9046
ux	-9047
als	-9048
eek	-9049
vid	-9050
arth	-9051
chat	-9052
iopa	-9053
lect	-9054
oite	-9055
vest	-9056
▁Don	-9057
▁Old	-9058
▁off	-9059
▁web	-9060
illia	-9061
róidí	-9062
áltas	-9063
▁Lámh	-9064
▁cart	-9065
▁hiar	-9066
▁ónár	-9067
▁Coats	-9068
▁Liotu	-9069
▁oibrí	-9070
▁tonna	-9071
▁Óstán	-9072
ostóirí	-9073
▁chiste	-9074
▁logáil	-9075
▁líonta	-9076
▁turais	-9077
infheist	-9078
oifigigh	-9079
thaítear	-9080
untertop	-9081
▁Páipéar	-9082
▁feistis	-9083
▁iarrann	-9084
▁nuachta	-9085
▁sciorta	-9086
▁seisiún	-9087
▁Cuirimid	-9088
▁bréagáin	-9089
▁gceangal	-9090
▁nglacadh	-9091
fhorálacha	-9092
▁tosaíocht	-9093
▁infheistiú	-9094
▁thacaíocht	-9095
▁thaisceadh	-9096
▁thuilleamh	-9097
▁idirbhearta	-9098
▁margaíochta	-9099
▁sraitheanna	-9100
▁cheanglaíonn	-9101
▁feidhmiúcháin	-9102
▁shaincheapadh	-9103
FT	-9104
cm	-9105
he	-9106
▁00	-9107
▁SE	-9108
▁bí	-9109
bout	-9110
emoc	-9111
ials	-9112
inné	-9113
▁Mil	-9114
▁Pas	-9115
▁cup	-9116
▁gcú	-9117
▁oid	-9118
▁por	-9119
athnu	-9120
ghraf	-9121
ifier	-9122
irgin	-9123
▁Cred	-9124
▁fash	-9125
▁oigh	-9126
▁ársa	-9127
▁Local	-9128
▁gceap	-9129
▁ghaol	-9130
▁loigh	-9131
▁Center	-9132
▁Comhar	-9133
▁Cultúr	-9134
▁Ghréig	-9135
▁Tiarna	-9136
▁asraon	-9137
▁buille	-9138
▁fheirm	-9139
ailearaí	-9140
itheacht	-9141
▁Angeles	-9142
▁airteag	-9143
▁hOifige	-9144
▁leithne	-9145
▁liachta	-9146
▁árachas	-9147
▁Oiliúint	-9148
▁aiseolas	-9149
▁comhordú	-9150
▁luacháil	-9151
▁mhíleata	-9152
▁raghaidh	-9153
▁sapphire	-9154
▁bharántas	-9155
▁hinfheist	-9156
▁seachadta	-9157
▁Tionscadail	-9158
▁ealaíontóirí	-9159
▁Gníomhaireacht	-9160
.’	-9161
83	-9162
DE	-9163
IE	-9164
LT	-9165
dúl	-9166
olf	-9167
ulg	-9168
yan	-9169
▁1)	-9170
▁SA	-9171
____	-9172
fhóg	-9173
ithí	-9174
ming	-9175
ular	-9176
íoló	-9177
▁Aig	-9178
▁cat	-9179
▁out	-9180
Ionad	-9181
ardaí	-9182
eácha	-9183
resid	-9184
rocht	-9185
▁1998	-9186
▁Inis	-9187
▁eint	-9188
▁grád	-9189
▁suit	-9190
▁tArd	-9191
adóirí	-9192
▁2020.	-9193
▁Class	-9194
▁dalta	-9195
▁rúnda	-9196
▁theip	-9197
▁Report	-9198
▁Silver	-9199
▁Voyeur	-9200
▁dearbh	-9201
▁dorcha	-9202
▁réasún	-9203
▁Éigean	-9204
▁Barbour	-9205
▁Teagasc	-9206
▁cartúin	-9207
▁gcineál	-9208
▁mhaoirs	-9209
▁muintir	-9210
▁sliotán	-9211
▁ceangail	-9212
▁mhilliún	-9213
▁mullaigh	-9214
▁stiúradh	-9215
▁athraithe	-9216
▁mhúineadh	-9217
▁chláraithe	-9218
▁hoibreacha	-9219
▁paisinéirí	-9220
▁difríochtaí	-9221
▁dámhachtain	-9222
▁staitisticí	-9223
▁Foilseacháin	-9224
▁dífhostaithe	-9225
▁Cathaoirleach	-9226
af	-9227
Con	-9228
act	-9229
lai	-9230
noc	-9231
éac	-9232
éit	-9233
▁46	-9234
eics	-9235
imhs	-9236
olta	-9237
▁400	-9238
▁Dis	-9239
▁Exp	-9240
▁Ola	-9241
▁drá	-9242
▁sci	-9243
▁síc	-9244
phone	-9245
roime	-9246
stáil	-9247
uilte	-9248
▁Cong	-9249
▁bhog	-9250
▁nách	-9251
aillmh	-9252
intinn	-9253
▁leoch	-9254
▁ráthú	-9255
▁tanaí	-9256
▁Access	-9257
▁Cúnamh	-9258
▁Músaem	-9259
▁Ostair	-9260
▁ainmhí	-9261
▁fomhír	-9262
▁leisce	-9263
▁muscle	-9264
▁pléasc	-9265
uairiscí	-9266
▁Breasts	-9267
▁phinsin	-9268
▁sorcóir	-9269
ersCuntas	-9270
iarratais	-9271
▁Cairdeas	-9272
▁Minister	-9273
▁bheartas	-9274
▁ghnéithe	-9275
▁Doiciméid	-9276
▁Tiontaire	-9277
▁litreacha	-9278
▁maighnéad	-9279
▁Sheirbhísí	-9280
▁Tairiscintí	-9281
▁chruthaíonn	-9282
▁oidhreachta	-9283
▁hoibleagáidí	-9284
▁Ardchaighdeáin	-9285
GB	-9286
SU	-9287
And	-9288
ged	-9289
ope	-9290
zon	-9291
▁hÁ	-9292
ergy	-9293
▁Grá	-9294
▁LED	-9295
▁Red	-9296
▁ult	-9297
▁íon	-9298
cript	-9299
overs	-9300
íomar	-9301
▁bhfu	-9302
▁bhás	-9303
▁roll	-9304
iompor	-9305
ádraig	-9306
▁2015,	-9307
▁Ospid	-9308
▁White	-9309
▁cúlta	-9310
▁déine	-9311
▁próit	-9312
phointí	-9313
▁Teagmh	-9314
▁athair	-9315
▁charms	-9316
▁fhuinn	-9317
▁rannán	-9318
▁rannóg	-9319
▁scaoil	-9320
aipiteal	-9321
scaoilte	-9322
íochaine	-9323
▁contúir	-9324
▁cúraimí	-9325
▁iarrtar	-9326
▁namhaid	-9327
umarsáide	-9328
▁ranníoca	-9329
▁Athruithe	-9330
▁Láithreán	-9331
▁Rialaithe	-9332
▁creideamh	-9333
▁fachtóirí	-9334
FCBarcelona	-9335
▁comhiomlán	-9336
▁feirmeoirí	-9337
▁leispiacha	-9338
▁timthriall	-9339
▁chleachtadh	-9340
1:	-9341
92	-9342
ni	-9343
400	-9344
Eng	-9345
emy	-9346
ove	-9347
via	-9348
▁6,	-9349
▁65	-9350
▁PR	-9351
▁em	-9352
▁gé	-9353
burg	-9354
eace	-9355
eans	-9356
inar	-9357
rika	-9358
▁Eit	-9359
▁dra	-9360
icone	-9361
ience	-9362
iopló	-9363
irect	-9364
light	-9365
áinli	-9366
▁Ceap	-9367
▁bhac	-9368
▁báis	-9369
▁hiom	-9370
eontas	-9371
luacha	-9372
manaim	-9373
▁Thoir	-9374
▁lóist	-9375
▁mharú	-9376
eallach	-9377
láinéid	-9378
thadóir	-9379
▁Inscne	-9380
▁Táthar	-9381
▁comhla	-9382
▁forála	-9383
▁ruporn	-9384
▁Chumann	-9385
▁borradh	-9386
▁iarainn	-9387
▁radharc	-9388
fhoghlaim	-9389
formation	-9390
▁Treorach	-9391
▁fulaingt	-9392
▁toirmisc	-9393
▁Danmhairg	-9394
▁carachtar	-9395
▁conclúidí	-9396
▁samhlacha	-9397
▁scáileáin	-9398
▁uasghrádú	-9399
▁Inmheánach	-9400
▁Shóisialta	-9401
▁Tionscadal	-9402
▁cuimilteora	-9403
▁hearnálacha	-9404
▁Aistriúcháin	-9405
▁foirceannadh	-9406
fheidhmeannach	-9407
▁nDaonlathaithe	-9408
▁neamhfhoirmiúil	-9409
-7	-9410
72	-9411
Ex	-9412
LU	-9413
MB	-9414
ym	-9415
ero	-9416
lut	-9417
reg	-9418
ród	-9419
leas	-9420
▁50%	-9421
▁Bas	-9422
▁Can	-9423
▁are	-9424
▁cam	-9425
▁can	-9426
▁tub	-9427
▁tum	-9428
world	-9429
▁coda	-9430
▁cois	-9431
▁Áise	-9432
chruth	-9433
chóirí	-9434
eochan	-9435
ibrary	-9436
lachán	-9437
otland	-9438
rialta	-9439
tarthu	-9440
▁Buail	-9441
▁JavaS	-9442
▁aníos	-9443
▁háite	-9444
▁luadh	-9445
éiseach	-9446
▁Bileog	-9447
▁alcóil	-9448
▁glúine	-9449
▁hoibre	-9450
▁lánúin	-9451
▁maraon	-9452
▁sráide	-9453
choimeád	-9454
iúlachta	-9455
▁Féadtar	-9456
▁Ceantair	-9457
▁toghchán	-9458
▁Conarthaí	-9459
▁Seapáinis	-9460
▁chúiteamh	-9461
▁morgáiste	-9462
▁JavaScript	-9463
▁Uachtarach	-9464
▁ngairmtear	-9465
▁Comhphobail	-9466
▁Mhúinteoirí	-9467
▁Díbhalbhaigh	-9468
▁Organization	-9469
▁thomhaltóirí	-9470
71	-9471
FF	-9472
EAR	-9473
Rep	-9474
obe	-9475
pat	-9476
▁09	-9477
▁bá	-9478
▁ha	-9479
▁sw	-9480
▁€1	-9481
eens	-9482
imhe	-9483
irse	-9484
éalú	-9485
▁Lao	-9486
▁Mír	-9487
▁Sem	-9488
▁Tim	-9489
▁ele	-9490
▁sco	-9491
thchl	-9492
▁Nóta	-9493
▁Tele	-9494
▁ilch	-9495
▁naoi	-9496
ocsaíd	-9497
réacht	-9498
▁Uladh	-9499
▁gcúis	-9500
anguage	-9501
arranna	-9502
cricket	-9503
▁imeall	-9504
▁iontas	-9505
▁moltar	-9506
partaigh	-9507
▁Coimeád	-9508
▁Costais	-9509
▁feasach	-9510
▁fhostaí	-9511
▁iarmhar	-9512
▁réamhch	-9513
aitheanta	-9514
▁eatarthu	-9515
▁mheasann	-9516
▁pornozal	-9517
▁toirchis	-9518
bhliantúil	-9519
eagraíocht	-9520
▁Bhreatain	-9521
▁cheantair	-9522
▁fholaíonn	-9523
▁trádmharc	-9524
▁vótaíochta	-9525
▁aistriúchán	-9526
▁ngníomhaíochtaí	-9527
PD	-9528
(3)	-9529
ius	-9530
rúp	-9531
tár	-9532
▁1:	-9533
▁ól	-9534
ally	-9535
ella	-9536
iana	-9537
iety	-9538
mair	-9539
oyal	-9540
star	-9541
▁Diú	-9542
▁Sná	-9543
▁Top	-9544
▁inf	-9545
eaclá	-9546
léach	-9547
threo	-9548
únaer	-9549
▁Part	-9550
▁dick	-9551
▁disc	-9552
▁poil	-9553
▁2014,	-9554
▁hailt	-9555
▁mbonn	-9556
▁Árann	-9557
roinnte	-9558
teistim	-9559
uraclam	-9560
▁Cheann	-9561
▁Láirge	-9562
▁Miotal	-9563
▁cógais	-9564
▁romhat	-9565
▁íogair	-9566
liantúla	-9567
▁Díreach	-9568
▁Fianáin	-9569
▁Réamhrá	-9570
▁bréagán	-9571
▁ceantar	-9572
▁mogalra	-9573
▁shuntas	-9574
▁Coiriúil	-9575
▁Pacáiste	-9576
▁ollscoil	-9577
▁orgánach	-9578
▁tromlach	-9579
obhsaíocht	-9580
▁Sheirbhís	-9581
▁bunscoile	-9582
▁deonaíodh	-9583
▁faiseanta	-9584
▁fheiceann	-9585
▁leantóirí	-9586
▁cheannaigh	-9587
▁gComhaontú	-9588
▁gcaidreamh	-9589
▁theaghlach	-9590
▁díolmhaithe	-9591
▁bhfostaíocht	-9592
▁comhaimseartha	-9593
2-	-9594
jo	-9595
ox	-9596
EAN	-9597
ets	-9598
ool	-9599
orr	-9600
íll	-9601
inic	-9602
láta	-9603
rick	-9604
▁Rep	-9605
▁Éif	-9606
duine	-9607
féach	-9608
▁Dála	-9609
▁Méad	-9610
▁chas	-9611
▁intu	-9612
▁sinn	-9613
▁teip	-9614
......	-9615
laíoch	-9616
éanach	-9617
▁Ambas	-9618
▁North	-9619
▁Sonrú	-9620
▁achar	-9621
▁gcumh	-9622
▁snámh	-9623
▁téama	-9624
chríoch	-9625
▁coinne	-9626
▁compar	-9627
▁mheasc	-9628
▁ndeach	-9629
▁píopaí	-9630
Caibidil	-9631
Football	-9632
athracha	-9633
áitreabh	-9634
▁America	-9635
▁Domhain	-9636
▁Network	-9637
▁bhabhta	-9638
▁eisithe	-9639
▁iliomad	-9640
airgeadra	-9641
ireachtaí	-9642
ócmhainní	-9643
▁Ciorclán	-9644
▁Corcaigh	-9645
▁Monaróir	-9646
▁chuntais	-9647
▁idéalach	-9648
▁ngréasán	-9649
▁Voyeurism	-9650
▁foriomlán	-9651
▁méadaithe	-9652
eiriceánach	-9653
▁corparáide	-9654
▁Ghinearálta	-9655
▁gheimhreadh	-9656
▁éifeachtúil	-9657
▁taitneamhach	-9658
▁dífhostaíochta	-9659
▁tromchúiseacha	-9660
'.	-9661
64	-9662
HS	-9663
VA	-9664
▁’	-9665
elt	-9666
gal	-9667
ift	-9668
rdú	-9669
▁DR	-9670
▁My	-9671
feas	-9672
onic	-9673
ócaí	-9674
▁Ann	-9675
▁Nud	-9676
▁bus	-9677
▁díd	-9678
▁rob	-9679
▁you	-9680
blanc	-9681
oiche	-9682
teoir	-9683
▁Beag	-9684
▁Cibé	-9685
▁náis	-9686
▁núic	-9687
aitlic	-9688
eisigh	-9689
▁Chead	-9690
▁dráma	-9691
▁dúlra	-9692
▁scrúd	-9693
▁suímh	-9694
achaill	-9695
zrelxxx	-9696
▁Cinnte	-9697
▁Commun	-9698
▁Mhuire	-9699
▁Sports	-9700
▁coistí	-9701
▁fréamh	-9702
▁lipéad	-9703
▁orlach	-9704
eamhnáin	-9705
leabhair	-9706
▁Fireann	-9707
▁cinntiú	-9708
▁mhodhnú	-9709
▁scratch	-9710
▁thaithí	-9711
▁Bunaithe	-9712
▁Comhalta	-9713
▁Shaoráil	-9714
▁dtuairim	-9715
▁díobháil	-9716
▁ospidéil	-9717
▁tionónta	-9718
▁Catagóirí	-9719
▁sozrelxxx	-9720
▁uaslódáil	-9721
fheidhmithe	-9722
▁Braitheann	-9723
▁tsamhraidh	-9724
iontuairiscí	-9725
▁fhoirgneamh	-9726
▁aighneachtaí	-9727
▁breithiúnach	-9728
▁chustaiméara	-9729
▁polaitíochta	-9730
:2	-9731
WC	-9732
lf	-9733
zy	-9734
eif	-9735
ids	-9736
ití	-9737
sed	-9738
tem	-9739
war	-9740
▁cm	-9741
▁€5	-9742
ider	-9743
ndaí	-9744
▁Ung	-9745
▁reg	-9746
▁sos	-9747
▁sur	-9748
▁tip	-9749
ander	-9750
aíoch	-9751
fhion	-9752
manas	-9753
▁Cóip	-9754
▁Náis	-9755
▁fáis	-9756
▁over	-9757
▁scam	-9758
éanadh	-9759
▁Fucks	-9760
▁Green	-9761
▁Méadú	-9762
▁charr	-9763
▁ciste	-9764
▁fiont	-9765
▁triom	-9766
Eabhrac	-9767
terling	-9768
▁County	-9769
▁cliant	-9770
▁míonna	-9771
▁roisín	-9772
thchleas	-9773
▁Faisean	-9774
▁Glaoigh	-9775
▁Maoiniú	-9776
▁bhealaí	-9777
▁uaillmh	-9778
ionsabail	-9779
▁Lárionad	-9780
▁bhfomhír	-9781
▁chogaidh	-9782
▁Corporate	-9783
▁Deimhnithe	-9784
▁Uachtaráin	-9785
▁gníomhairí	-9786
▁sceitheadh	-9787
▁tástálacha	-9788
▁Riachtanais	-9789
▁eachtraíochta	-9790
ek	-9791
gr	-9792
ih	-9793
óp	-9794
Ard	-9795
gov	-9796
iat	-9797
icy	-9798
var	-9799
▁Pé	-9800
▁SF	-9801
able	-9802
iceo	-9803
itan	-9804
oice	-9805
▁0/0	-9806
▁189	-9807
▁Cho	-9808
▁Fan	-9809
▁aip	-9810
▁dhú	-9811
▁iol	-9812
▁les	-9813
▁man	-9814
▁mhú	-9815
amach	-9816
eidil	-9817
eimid	-9818
áinní	-9819
▁Mich	-9820
▁Nuad	-9821
▁bród	-9822
▁hAer	-9823
▁inph	-9824
▁rúin	-9825
▁scar	-9826
▁stad	-9827
▁Áras	-9828
iotáil	-9829
liosta	-9830
radaim	-9831
▁Foras	-9832
▁const	-9833
▁hEala	-9834
▁leaga	-9835
▁lenar	-9836
▁mhóra	-9837
bhannaí	-9838
earacha	-9839
eartais	-9840
eochtaí	-9841
▁Omegle	-9842
▁Phobal	-9843
▁Spying	-9844
▁cainte	-9845
▁cleith	-9846
▁dollar	-9847
▁seirbh	-9848
cheantar	-9849
eálaithe	-9850
football	-9851
mhínithe	-9852
rochtain	-9853
▁Credits	-9854
▁Firefox	-9855
▁Teastas	-9856
▁aturnae	-9857
▁gcostas	-9858
▁gheofar	-9859
▁thógann	-9860
▁Teoranta	-9861
▁chuimsiú	-9862
▁coiriúil	-9863
▁soiléire	-9864
▁inmhuirir	-9865
▁rialuithe	-9866
▁tiomantas	-9867
institiúidí	-9868
leoireachta	-9869
▁chruthaigh	-9870
▁marthanach	-9871
▁comhionannas	-9872
EP	-9873
OM	-9874
má	-9875
.00	-9876
900	-9877
ASC	-9878
eum	-9879
ird	-9880
teo	-9881
tin	-9882
tom	-9883
...]	-9884
mara	-9885
néir	-9886
yder	-9887
▁CRO	-9888
▁ROS	-9889
▁Bith	-9890
▁Ceol	-9891
▁Gáis	-9892
▁Mais	-9893
▁arbh	-9894
▁deal	-9895
▁fhís	-9896
astáin	-9897
eadóir	-9898
ersion	-9899
ournal	-9900
íocfar	-9901
▁Aithn	-9902
▁Bróga	-9903
▁Forex	-9904
▁Shots	-9905
▁daing	-9906
▁deigh	-9907
▁urlár	-9908
aighead	-9909
fhógair	-9910
ontaobh	-9911
péireas	-9912
▁Chlárú	-9913
▁Oifigí	-9914
▁Stocaí	-9915
▁eadhon	-9916
▁geogra	-9917
▁ghream	-9918
▁ocsaíd	-9919
bheartas	-9920
iarraidh	-9921
réiteach	-9922
tréimhse	-9923
éacsanna	-9924
▁Saoirse	-9925
▁aláraim	-9926
▁foraois	-9927
▁glanadh	-9928
▁leagadh	-9929
▁léirigh	-9930
▁éiríonn	-9931
▁coiteann	-9932
▁diúltach	-9933
▁eolaíoch	-9934
▁trádálaí	-9935
▁dtiocfadh	-9936
▁forbairtí	-9937
▁glacfaidh	-9938
fhostaíocht	-9939
oirgníochta	-9940
▁Phacastáin	-9941
▁cheadaíonn	-9942
▁leaganacha	-9943
▁suiteáilte	-9944
▁tarchurtha	-9945
▁tuairisciú	-9946
▁iontaofacht	-9947
▁seirbhíseach	-9948
bhunscoileanna	-9949
ani	-9950
ees	-9951
loc	-9952
nua	-9953
ánú	-9954
éip	-9955
▁AP	-9956
▁Sr	-9957
amar	-9958
ards	-9959
ighe	-9960
linn	-9961
níní	-9962
orda	-9963
room	-9964
uest	-9965
vera	-9966
éama	-9967
▁Tur	-9968
laise	-9969
pital	-9970
thála	-9971
▁hAfr	-9972
▁slis	-9973
eagair	-9974
isting	-9975
áistir	-9976
úracha	-9977
▁Indus	-9978
▁gaire	-9979
▁olann	-9980
acáiste	-9981
inneall	-9982
rikaans	-9983
▁Iaráin	-9984
▁Roinnt	-9985
▁bplean	-9986
▁eastát	-9987
▁fhocal	-9988
ianaithe	-9989
▁England	-9990
▁gléasra	-9991
▁tairbhí	-9992
▁treocht	-9993
▁barántas	-9994
▁cheapfar	-9995
▁díoltóir	-9996
▁hAfraice	-9997
chleachtas	-9998
▁Afrikaans	-9999
▁alúmanaim	-10000
▁aonfhoirm	-10001
▁cairdiúil	-10002
▁riarachán	-10003
inbhinsiúin	-10004
▁Athchóiriú	-10005
▁digiteacha	-10006
▁inghlactha	-10007
▁liostaithe	-10008
▁mBúcairist	-10009
▁iniompartha	-10010
▁Leabharlainne	-10011
▁Manufacturers	-10012
▁gcoinníollacha	-10013
1-	-10014
79	-10015
MO	-10016
Sa	-10017
VI	-10018
vo	-10019
AIN	-10020
Par	-10021
bhr	-10022
uku	-10023
chos	-10024
chtú	-10025
very	-10026
▁Bet	-10027
▁Fón	-10028
▁Gru	-10029
AIRIM	-10030
bourg	-10031
ision	-10032
onder	-10033
▁Glan	-10034
▁haer	-10035
▁míos	-10036
ghaire	-10037
ohnson	-10038
phlean	-10039
▁Women	-10040
▁beann	-10041
▁dheas	-10042
▁fráma	-10043
▁mbarr	-10044
▁mhích	-10045
imeacht	-10046
ioplóma	-10047
uilleog	-10048
▁Leagan	-10049
▁folamh	-10050
▁fáinne	-10051
▁saighd	-10052
eisceart	-10053
▁bhfocal	-10054
▁painéal	-10055
leacaithe	-10056
▁Thosaigh	-10057
▁bhunaidh	-10058
▁leochail	-10059
▁pháipéar	-10060
▁scagaire	-10061
▁Braiteoir	-10062
▁Oiriúnach	-10063
▁ceimiceach	-10064
▁comhtháthú	-10065
▁fiosrúchán	-10066
▁ghníomhach	-10067
▁liathróidí	-10068
▁tomhaltóir	-10069
▁éigeantach	-10070
▁soláthairtí	-10071
▁thuairisciú	-10072
▁coimhdeachta	-10073
▁gCoinbhinsiún	-10074
BR	-10075
Sta	-10076
bar	-10077
eid	-10078
rop	-10079
zer	-10080
▁5,	-10081
▁@2	-10082
▁CD	-10083
▁ht	-10084
bill	-10085
ciam	-10086
▁Ber	-10087
▁Rud	-10088
▁Tob	-10089
aithn	-10090
aming	-10091
annel	-10092
dearg	-10093
eanaí	-10094
erson	-10095
iforn	-10096
mhais	-10097
▁(11)	-10098
▁CUID	-10099
▁Winx	-10100
▁aibí	-10101
▁ghal	-10102
▁iarg	-10103
antóir	-10104
bhanda	-10105
fhéach	-10106
iarraí	-10107
oimirc	-10108
saíonn	-10109
▁Enter	-10110
▁Feist	-10111
▁House	-10112
▁Sínis	-10113
▁Tráth	-10114
▁shoot	-10115
airsing	-10116
únuithe	-10117
▁League	-10118
▁clocha	-10119
▁hAchta	-10120
▁huisce	-10121
▁micrea	-10122
▁tailte	-10123
bhealach	-10124
chumainn	-10125
ealadach	-10126
fheicthe	-10127
ollywood	-10128
▁Ealaíne	-10129
▁Meastar	-10130
▁nuálach	-10131
▁shúchán	-10132
ireachtas	-10133
▁Caibidil	-10134
▁Luimnigh	-10135
▁Orduithe	-10136
▁coiriúla	-10137
▁gcathair	-10138
▁measctha	-10139
▁threisiú	-10140
▁Cuimsíonn	-10141
▁braiteoir	-10142
▁gcoinníoll	-10143
▁teileafóin	-10144
▁Éigeandála	-10145
▁Feidhmeanna	-10146
▁Plaisteacha	-10147
▁bainisteoir	-10148
▁bhforálacha	-10149
▁chailliúint	-10150
▁fhoráiltear	-10151
▁náisiúnaigh	-10152
▁Chustaiméirí	-10153
▁comhaontaithe	-10154
▁cothromaíocht	-10155
05	-10156
6/	-10157
PL	-10158
SL	-10159
UA	-10160
zo	-10161
bhe	-10162
dha	-10163
esa	-10164
esp	-10165
nós	-10166
tim	-10167
quis	-10168
▁Gné	-10169
▁Reg	-10170
▁fil	-10171
▁hIn	-10172
▁hom	-10173
túirt	-10174
▁Sing	-10175
▁Stud	-10176
▁bhur	-10177
▁béal	-10178
▁here	-10179
▁Éirí	-10180
mental	-10181
▁Chabh	-10182
▁spéir	-10183
▁tACHT	-10184
▁tiubh	-10185
▁táthú	-10186
mheasta	-10187
éileáil	-10188
▁Bailte	-10189
▁Foirne	-10190
▁Ungáir	-10191
▁chuici	-10192
▁ciseal	-10193
▁ealaín	-10194
▁matáin	-10195
▁othair	-10196
▁páiste	-10197
▁stampa	-10198
▁taiscí	-10199
aispeána	-10200
ardaithe	-10201
earmanas	-10202
▁Dearbhú	-10203
▁Ioncuim	-10204
▁Measfar	-10205
▁buidéal	-10206
▁fhorord	-10207
▁fireann	-10208
▁féilire	-10209
▁bailíodh	-10210
▁gnóchain	-10211
▁huirlisí	-10212
▁iargúlta	-10213
▁tosaithe	-10214
▁áireofar	-10215
▁Priontáil	-10216
▁chomhordú	-10217
▁stairiúil	-10218
oimisinéara	-10219
▁Réigiúnach	-10220
▁dTeangacha	-10221
▁frithsheas	-10222
▁strainséir	-10223
▁theicneola	-10224
▁thoirmeasc	-10225
▁tuarastail	-10226
▁chineálacha	-10227
▁príosúnacht	-10228
▁theaghlaigh	-10229
▁freagrachtaí	-10230
Tu	-10231
íb	-10232
isa	-10233
lim	-10234
▁(6	-10235
▁3)	-10236
▁Em	-10237
▁GA	-10238
▁ID	-10239
▁MA	-10240
ates	-10241
cher	-10242
iars	-10243
tern	-10244
▁250	-10245
▁BBC	-10246
▁CAI	-10247
▁Per	-10248
▁Sec	-10249
▁ngá	-10250
▁too	-10251
aibhr	-10252
engen	-10253
igthe	-10254
leoir	-10255
watch	-10256
ínigh	-10257
▁Arna	-10258
▁Cana	-10259
▁Chip	-10260
▁Deal	-10261
▁EURO	-10262
▁baic	-10263
▁bair	-10264
▁inst	-10265
▁áite	-10266
eitril	-10267
ruaill	-10268
▁[...]	-10269
▁chách	-10270
▁coisc	-10271
▁fhéin	-10272
▁scíth	-10273
▁France	-10274
▁cúinsí	-10275
▁dhiúlt	-10276
▁mótair	-10277
▁peataí	-10278
fhostóir	-10279
éireoidh	-10280
▁Bhliain	-10281
▁Deontas	-10282
▁ceathrú	-10283
▁codlata	-10284
▁eisiach	-10285
▁Bhóithre	-10286
▁Caisleán	-10287
▁agallamh	-10288
▁gCathair	-10289
▁grafaicí	-10290
▁samhradh	-10291
éagsúlacht	-10292
▁draíochta	-10293
▁himreoirí	-10294
▁spreagann	-10295
▁trialacha	-10296
▁uibheacha	-10297
▁Leathanach	-10298
▁geimhreadh	-10299
▁laghdaíonn	-10300
▁nglacfaidh	-10301
▁oibríochta	-10302
▁aisíocaíocht	-10303
▁cháilitheach	-10304
▁Airgeadaíochta	-10305
▁neamhspleáchas	-10306
▁nGníomhaireacht	-10307
RP	-10308
Su	-10309
bb	-10310
-12	-10311
-15	-10312
Mag	-10313
Soc	-10314
lip	-10315
ner	-10316
▁By	-10317
eamp	-10318
graf	-10319
mark	-10320
sean	-10321
stoc	-10322
earra	-10323
líthe	-10324
uirge	-10325
ónach	-10326
▁Bras	-10327
▁Buan	-10328
▁Camp	-10329
▁Chat	-10330
▁Clib	-10331
▁Táim	-10332
▁chón	-10333
▁nDún	-10334
▁thur	-10335
▁Íomh	-10336
chúrsa	-10337
eillea	-10338
racial	-10339
ualach	-10340
éachta	-10341
▁2011.	-10342
▁Rúnaí	-10343
▁mBanc	-10344
▁ndíol	-10345
▁peann	-10346
voltais	-10347
▁agaibh	-10348
▁choirp	-10349
▁choisc	-10350
▁cumais	-10351
▁imirce	-10352
▁tsuímh	-10353
▁árasán	-10354
▁ócáidí	-10355
aontaigh	-10356
▁Adhmaid	-10357
▁Chomhar	-10358
▁Windows	-10359
▁chultúr	-10360
▁dochair	-10361
▁gearáin	-10362
▁neamhth	-10363
eilleagra	-10364
▁Business	-10365
▁hiondúil	-10366
▁phinsean	-10367
▁sheolann	-10368
▁sáruithe	-10369
▁Gearmáine	-10370
▁greamaigh	-10371
▁phacáiste	-10372
▁ranníocaí	-10373
scolaíochta	-10374
▁náisiúnach	-10375
▁tháirgtear	-10376
▁Shaoránaigh	-10377
▁fógraíochta	-10378
▁Sláintíochta	-10379
▁chuideachtaí	-10380
▁fhorordaithe	-10381
▁Gníomhaireachta	-10382
▁infheistíochtaí	-10383
CM	-10384
IV	-10385
di	-10386
yo	-10387
120	-10388
Car	-10389
PEI	-10390
edu	-10391
igu	-10392
ílí	-10393
▁47	-10394
▁BR	-10395
▁ca	-10396
▁us	-10397
eint	-10398
eirg	-10399
info	-10400
ondú	-10401
tech	-10402
▁110	-10403
▁Bel	-10404
▁Blo	-10405
▁Tin	-10406
▁bil	-10407
▁cná	-10408
▁ild	-10409
scéim	-10410
teicn	-10411
éimhe	-10412
▁Arts	-10413
▁Game	-10414
▁King	-10415
▁Read	-10416
▁colá	-10417
▁sult	-10418
alaíon	-10419
▁Fuaim	-10420
▁Téann	-10421
▁aontú	-10422
▁céard	-10423
▁cíosa	-10424
▁hainm	-10425
▁iomaí	-10426
▁leaba	-10427
▁poker	-10428
▁print	-10429
▁shuim	-10430
▁steir	-10431
▁urram	-10432
bhainte	-10433
ghuaill	-10434
rúcháin	-10435
▁Bíobla	-10436
▁chionn	-10437
▁imithe	-10438
▁trátha	-10439
▁Dréacht	-10440
▁Feisirí	-10441
▁deonach	-10442
▁fhoinse	-10443
▁gaoithe	-10444
▁phearsa	-10445
ritheoirí	-10446
úsáideoir	-10447
▁Seiceáil	-10448
▁sheasamh	-10449
▁sneachta	-10450
▁thaighde	-10451
▁claochlad	-10452
▁iarrfaidh	-10453
▁iomarcach	-10454
▁labhartha	-10455
▁Corparáide	-10456
▁gcomhshaol	-10457
▁mhéideanna	-10458
▁Interracial	-10459
▁láithreacha	-10460
▁mheasúnacht	-10461
▁tacaíochtaí	-10462
ardchaighdeán	-10463
▁aoisliúntais	-10464
▁athsholáthar	-10465
▁Parlaiminteach	-10466
▁airgeadaíochta	-10467
04	-10468
GE	-10469
ND	-10470
yc	-10471
19.	-10472
BÁC	-10473
dsm	-10474
iki	-10475
oul	-10476
▁2:	-10477
▁es	-10478
bail	-10479
gham	-10480
lock	-10481
utes	-10482
▁Chl	-10483
▁Def	-10484
▁Mhá	-10485
▁Ois	-10486
▁Phr	-10487
▁cil	-10488
▁imp	-10489
House	-10490
Rúnaí	-10491
ghair	-10492
iller	-10493
▁brea	-10494
▁hias	-10495
▁máil	-10496
choirm	-10497
ianadh	-10498
oinnte	-10499
úraimí	-10500
▁Dramh	-10501
▁cheol	-10502
▁dlist	-10503
▁feoil	-10504
▁foras	-10505
▁measa	-10506
▁teann	-10507
..../20	-10508
ulation	-10509
▁Cúrsaí	-10510
▁Saoire	-10511
▁armtha	-10512
▁blonde	-10513
▁dhíriú	-10514
▁fhéadf	-10515
▁nítrig	-10516
▁optúla	-10517
▁táthar	-10518
reastail	-10519
ócmhainn	-10520
▁Chuaigh	-10521
▁Massage	-10522
▁Rialáil	-10523
▁Réitigh	-10524
▁Scríobh	-10525
▁buartha	-10526
iarrthóir	-10527
éiríochta	-10528
▁briseadh	-10529
▁cheapann	-10530
▁mblianta	-10531
▁pholasaí	-10532
chaipiteal	-10533
▁Gairmiúla	-10534
▁Leasuithe	-10535
▁Páirtithe	-10536
▁Struchtúr	-10537
▁fuaraithe	-10538
▁hEalaíona	-10539
▁meicniúla	-10540
▁teirmeach	-10541
▁tharraing	-10542
riachtanach	-10543
▁gealltanas	-10544
▁heilimintí	-10545
éidearthacht	-10546
▁chabhraíonn	-10547
▁ghnólachtaí	-10548
▁híocaíochta	-10549
▁athchóirithe	-10550
▁ghluaiseacht	-10551
▁speisialaithe	-10552
▁timpeallachta	-10553
▁féinfhostaithe	-10554
▁comhoiriúnachta	-10555
,"	-10556
UM	-10557
BBC	-10558
DSM	-10559
olg	-10560
rug	-10561
▁@3	-10562
▁hÚ	-10563
▁kg	-10564
duct	-10565
iadh	-10566
inis	-10567
iota	-10568
test	-10569
▁Giú	-10570
▁Lán	-10571
▁Mal	-10572
▁YAO	-10573
▁sms	-10574
▁súl	-10575
▁uaf	-10576
shire	-10577
uscar	-10578
▁Brit	-10579
▁Cúig	-10580
▁Inte	-10581
▁Liob	-10582
▁Réim	-10583
▁Sand	-10584
▁Stat	-10585
▁bloc	-10586
▁neod	-10587
▁star	-10588
▁vuku	-10589
▁zomb	-10590
estern	-10591
ghrúpa	-10592
icking	-10593
ictiúr	-10594
iocadh	-10595
onnect	-10596
▁Daily	-10597
▁Fhine	-10598
▁Leath	-10599
▁Maigh	-10600
▁chala	-10601
▁dtair	-10602
▁fhada	-10603
▁fhear	-10604
▁fhíor	-10605
▁siúil	-10606
▁áitiú	-10607
eorannú	-10608
liament	-10609
nasctha	-10610
quarium	-10611
▁Bearta	-10612
▁Phoist	-10613
▁YAOPEI	-10614
▁ateang	-10615
▁cluais	-10616
▁figiúr	-10617
▁sciála	-10618
▁torann	-10619
iteachta	-10620
▁Buiséad	-10621
▁Idirlín	-10622
▁Reachta	-10623
▁Tosaigh	-10624
▁Uirlisí	-10625
▁cheartú	-10626
▁chumann	-10627
▁théarma	-10628
▁tríocha	-10629
▁vitimín	-10630
íolacháin	-10631
▁Cheartas	-10632
▁Philippe	-10633
▁Schengen	-10634
▁díchumas	-10635
▁scaoilte	-10636
▁silicone	-10637
▁tascanna	-10638
▁Phrótacal	-10639
▁fheictear	-10640
▁idirghabh	-10641
▁litríocht	-10642
▁rialaíonn	-10643
▁rásaíocht	-10644
▁Aicrileach	-10645
▁buachaillí	-10646
▁cleachtadh	-10647
▁ghlacfaidh	-10648
▁Dámhachtain	-10649
▁chomhtháthú	-10650
▁gluaisteáin	-10651
▁plaisteacha	-10652
▁chuairteoirí	-10653
▁Corparáideach	-10654
68	-10655
FL	-10656
GN	-10657
ML	-10658
!!!	-10659
Ste	-10660
aca	-10661
fid	-10662
íse	-10663
▁hÍ	-10664
ghal	-10665
ghin	-10666
raid	-10667
▁Dea	-10668
▁FSS	-10669
▁Hum	-10670
▁aca	-10671
naipe	-10672
other	-10673
range	-10674
viron	-10675
▁Aibr	-10676
▁CFAE	-10677
▁chan	-10678
▁dona	-10679
atalóg	-10680
lantic	-10681
▁2009.	-10682
▁Flash	-10683
▁Inniu	-10684
▁fhéad	-10685
▁féile	-10686
▁mbord	-10687
▁móide	-10688
▁teoir	-10689
allaimh	-10690
ifornia	-10691
strucht	-10692
▁Bónais	-10693
▁Cosúil	-10694
▁Thithe	-10695
▁atáirg	-10696
▁ceanna	-10697
acmhainn	-10698
phrionsa	-10699
▁Aeráide	-10700
▁Taistil	-10701
▁bhliana	-10702
▁cheimic	-10703
▁cúltaca	-10704
▁pearsan	-10705
Shéalainn	-10706
iúlachtaí	-10707
naitheach	-10708
stitiúide	-10709
íobhálach	-10710
▁Coinnigh	-10711
▁Cóirithe	-10712
▁bhainist	-10713
▁dleachta	-10714
▁lesbians	-10715
▁ngabhann	-10716
▁ordachán	-10717
▁ospidéal	-10718
▁shaothrú	-10719
▁speiceas	-10720
ocsaineach	-10721
▁Bunscoile	-10722
▁Staidrimh	-10723
▁chinneann	-10724
▁dhromchla	-10725
▁gCaibidil	-10726
▁phláinéid	-10727
▁shonracha	-10728
▁staidrimh	-10729
▁tairseach	-10730
▁Straitéise	-10731
▁allmhairiú	-10732
▁phriontáil	-10733
Iarscríbhinn	-10734
▁ceimiceacha	-10735
▁cóimhiotail	-10736
▁gnáthchónaí	-10737
▁líomatáiste	-10738
▁tOireachtas	-10739
▁díchumasaithe	-10740
▁ranníocaíocht	-10741
▁dtuismitheoirí	-10742
Te	-10743
UR	-10744
je	-10745
wn	-10746
12.	-10747
INN	-10748
ISA	-10749
USA	-10750
dan	-10751
ode	-10752
pcs	-10753
set	-10754
ubh	-10755
xit	-10756
▁(“	-10757
▁52	-10758
▁UK	-10759
ator	-10760
ctor	-10761
lódh	-10762
raim	-10763
ráta	-10764
ríbe	-10765
tiús	-10766
ural	-10767
▁(30	-10768
▁Rec	-10769
▁bád	-10770
▁gor	-10771
eicst	-10772
graph	-10773
ionta	-10774
ormal	-10775
treon	-10776
usion	-10777
uíonn	-10778
▁Chró	-10779
▁Gear	-10780
▁bdsm	-10781
▁chod	-10782
aelach	-10783
ardian	-10784
london	-10785
uítear	-10786
▁Crann	-10787
▁Duais	-10788
▁Thion	-10789
▁bhfís	-10790
▁gcéim	-10791
▁lampa	-10792
▁locht	-10793
▁rúnaí	-10794
▁spáis	-10795
imreoir	-10796
▁Bhinse	-10797
▁Eanair	-10798
▁Máistr	-10799
▁choill	-10800
▁chárta	-10801
▁fhiach	-10802
▁iarann	-10803
▁leaist	-10804
eicsiceo	-10805
fhorbair	-10806
taíochta	-10807
▁Measúnú	-10808
▁caidéil	-10809
▁cogaidh	-10810
▁dtosach	-10811
▁durable	-10812
leanúnach	-10813
luaisteán	-10814
onuilleog	-10815
▁Dóiteáin	-10816
▁Taoisigh	-10817
▁bhunaigh	-10818
▁bronnadh	-10819
▁bándearg	-10820
▁eachtraí	-10821
▁hAeráide	-10822
▁nuálacha	-10823
▁thógaint	-10824
aitheantas	-10825
▁Caithfear	-10826
▁Montblanc	-10827
▁Samhraidh	-10828
▁athraíonn	-10829
▁cruthúnas	-10830
▁léireofar	-10831
▁oibreoidh	-10832
▁séalaithe	-10833
▁thacaíonn	-10834
▁Scéimeanna	-10835
▁geilleagar	-10836
▁seachtainí	-10837
▁táirgeoirí	-10838
▁neamhghnách	-10839
▁sholáthróidh	-10840
AW	-10841
Ed	-10842
Im	-10843
NL	-10844
att	-10845
ese	-10846
jac	-10847
opp	-10848
pen	-10849
rou	-10850
tex	-10851
uit	-10852
óim	-10853
▁69	-10854
▁mú	-10855
east	-10856
iece	-10857
rang	-10858
ráis	-10859
uble	-10860
óire	-10861
▁Har	-10862
▁Tás	-10863
▁Val	-10864
▁mon	-10865
▁mor	-10866
▁pre	-10867
▁sío	-10868
▁Éag	-10869
▁€20	-10870
aiche	-10871
▁Bonn	-10872
▁Corn	-10873
▁Feic	-10874
▁Real	-10875
▁dúil	-10876
▁hand	-10877
bróirí	-10878
eáladh	-10879
fhreag	-10880
ioscaí	-10881
▁Group	-10882
▁Light	-10883
▁Oisrí	-10884
▁hÁise	-10885
▁suime	-10886
latanam	-10887
odhchaí	-10888
▁Chuige	-10889
▁Mhacha	-10890
▁Seanad	-10891
▁bailiú	-10892
▁cistiú	-10893
▁conver	-10894
▁luchtú	-10895
▁seánra	-10896
▁Painéal	-10897
▁Pádraig	-10898
▁foilsiú	-10899
▁ionchur	-10900
▁lámhach	-10901
▁máistir	-10902
iniúchadh	-10903
▁Bunachar	-10904
▁feachtas	-10905
▁leithead	-10906
▁nuachtán	-10907
bhunscoile	-10908
olaíochtaí	-10909
▁Whatschat	-10910
▁bliantúla	-10911
▁chonartha	-10912
▁constaicí	-10913
▁gColáiste	-10914
▁ghiniúint	-10915
▁gléasanna	-10916
▁taifeadta	-10917
▁tharlóidh	-10918
▁Tionscnamh	-10919
▁Tuaisceart	-10920
▁gcuirfeadh	-10921
▁traidisiún	-10922
▁praiticiúla	-10923
▁Foirgníochta	-10924
▁comhdhéanamh	-10925
▁Choimisinéara	-10926
▁infheidhmithe	-10927
▁trédhearcacht	-10928
▁léitheoireachta	-10929
1/	-10930
49	-10931
DS	-10932
].	-10933
EID	-10934
Ean	-10935
cla	-10936
oon	-10937
▁TF	-10938
▁UM	-10939
▁sk	-10940
plat	-10941
ract	-10942
rúis	-10943
tics	-10944
uain	-10945
▁AIS	-10946
▁Bro	-10947
▁Por	-10948
▁Sub	-10949
▁bes	-10950
▁mbr	-10951
▁uig	-10952
Féach	-10953
ainní	-10954
aoibh	-10955
earna	-10956
rasta	-10957
riend	-10958
ubout	-10959
▁Scag	-10960
▁banc	-10961
▁ghla	-10962
ineáil	-10963
leacha	-10964
police	-10965
óilíní	-10966
▁cháis	-10967
▁scuab	-10968
▁téann	-10969
▁Íomhá	-10970
eanacha	-10971
▁Cuairt	-10972
▁EUROPA	-10973
▁Fhéile	-10974
▁Social	-10975
▁bannaí	-10976
▁bhainc	-10977
▁cheard	-10978
▁loinge	-10979
▁meitib	-10980
cheathrú	-10981
▁Seachas	-10982
▁Shamhna	-10983
▁Talmhan	-10984
▁cúitimh	-10985
▁ndaltaí	-10986
▁shimplí	-10987
▁voltais	-10988
▁Liúntais	-10989
▁cabhrach	-10990
▁costaisí	-10991
▁faoisimh	-10992
▁feabhais	-10993
▁fhírinne	-10994
▁gConradh	-10995
▁gnóthais	-10996
▁sonrófar	-10997
▁teicnící	-10998
▁Laoghaire	-10999
▁Sóisialai	-11000
▁comhéadan	-11001
▁convertor	-11002
▁cuirfimid	-11003
▁leasaithe	-11004
▁earnálacha	-11005
▁mothúcháin	-11006
▁dheireanach	-11007
▁phrionsabal	-11008
▁Leictreonach	-11009
▁smachtbhannaí	-11010
▁frithpháirteach	-11011
93	-11012
Gu	-11013
Le	-11014
au	-11015
gó	-11016
jp	-11017
Tra	-11018
ake	-11019
gil	-11020
ima	-11021
liz	-11022
rar	-11023
▁56	-11024
▁CM	-11025
▁Pe	-11026
City	-11027
ific	-11028
itor	-11029
▁Cla	-11030
▁Cló	-11031
▁LCD	-11032
▁lom	-11033
/2018	-11034
Beidh	-11035
ainse	-11036
ibear	-11037
proof	-11038
rugaí	-11039
tream	-11040
áinne	-11041
▁Coil	-11042
▁Gorm	-11043
▁Orgy	-11044
▁lann	-11045
inneal	-11046
online	-11047
éaclaí	-11048
▁EURES	-11049
▁Grand	-11050
▁coimh	-11051
▁colún	-11052
▁céime	-11053
▁dálaí	-11054
▁hearn	-11055
▁naíon	-11056
▁uiscí	-11057
phointe	-11058
▁Bheadh	-11059
▁Earraí	-11060
▁Pacáil	-11061
▁chreat	-11062
▁feasta	-11063
earmainn	-11064
eimpléad	-11065
▁Meáchan	-11066
▁chigire	-11067
▁dóthain	-11068
▁formáid	-11069
▁ghuthán	-11070
▁naimhde	-11071
▁patrúin	-11072
▁shroich	-11073
▁Nádúrtha	-11074
▁Semester	-11075
▁Staidéar	-11076
▁fhostóir	-11077
leachtanna	-11078
▁Bharraigh	-11079
▁Bunúsacha	-11080
▁Limistéir	-11081
▁Teangacha	-11082
▁deartháir	-11083
▁háiseanna	-11084
▁inphinsin	-11085
éifeachtach	-11086
▁ceardlanna	-11087
▁cúirteanna	-11088
ghluaiseacht	-11089
▁Association	-11090
▁Information	-11091
▁hiarrthóirí	-11092
▁rannchuidiú	-11093
▁ullmhúcháin	-11094
eachumarsáide	-11095
▁Fiontraíocht	-11096
▁fhorghníomhú	-11097
▁Coinníollacha	-11098
It	-11099
PG	-11100
eel	-11101
enc	-11102
erc	-11103
orb	-11104
pór	-11105
sex	-11106
unk	-11107
vin	-11108
▁PO	-11109
▁ho	-11110
▁ru	-11111
aign	-11112
back	-11113
cast	-11114
ides	-11115
lint	-11116
oman	-11117
uran	-11118
▁Abh	-11119
▁DVD	-11120
▁ESB	-11121
▁Mea	-11122
▁pos	-11123
einim	-11124
fholc	-11125
jiang	-11126
liant	-11127
llamh	-11128
línse	-11129
ombre	-11130
álann	-11131
▁Blue	-11132
▁Date	-11133
▁Dhia	-11134
▁East	-11135
▁Gúna	-11136
▁bhag	-11137
▁bplé	-11138
▁donn	-11139
▁html	-11140
▁mise	-11141
▁táim	-11142
▁umar	-11143
▁work	-11144
▁éide	-11145
láithr	-11146
▁2009/	-11147
▁Doras	-11148
▁thabh	-11149
▁tiont	-11150
▁tuill	-11151
▁víosa	-11152
ithníní	-11153
thaosta	-11154
thionsc	-11155
▁Cailín	-11156
▁Domhan	-11157
▁braith	-11158
▁briste	-11159
▁chealú	-11160
▁cogadh	-11161
▁fianán	-11162
▁fáinní	-11163
▁gruaig	-11164
▁idirmh	-11165
▁insliú	-11166
▁íoctar	-11167
oflondon	-11168
uascailt	-11169
íonachta	-11170
▁Cearnóg	-11171
▁Réaltaí	-11172
▁chríche	-11173
▁clainne	-11174
▁dhlíthe	-11175
▁feadáin	-11176
▁gearrth	-11177
▁ghearán	-11178
▁árasáin	-11179
áideachta	-11180
▁conartha	-11181
▁hOileáin	-11182
▁mheasfar	-11183
▁trialach	-11184
aidisiúnta	-11185
▁Léarscáil	-11186
▁Oifigiúla	-11187
▁Toghcháin	-11188
▁aontaithe	-11189
▁chomórtas	-11190
▁deochanna	-11191
▁dtosaíonn	-11192
▁iarchéime	-11193
▁oibreoirí	-11194
▁tráthanna	-11195
▁tuairiscí	-11196
luaisteacht	-11197
▁countertop	-11198
▁dhoiciméad	-11199
▁dhoiciméid	-11200
▁dtabharfaí	-11201
▁eachtracha	-11202
▁gcaighdeán	-11203
▁hainmhithe	-11204
▁mhúinteoir	-11205
▁sealbhóirí	-11206
▁áititheoir	-11207
▁ardleibhéil	-11208
▁héifeachtaí	-11209
▁seiceálacha	-11210
▁Íocaíochtaí	-11211
03	-11212
FE	-11213
gc	-11214
vi	-11215
11.	-11216
Mad	-11217
Man	-11218
eás	-11219
gel	-11220
lóv	-11221
uck	-11222
▁06	-11223
▁Fr	-11224
,...	-11225
Aire	-11226
gint	-11227
gniú	-11228
ompu	-11229
réim	-11230
▁11.	-11231
▁12.	-11232
▁@10	-11233
▁Gin	-11234
▁Jer	-11235
▁Nig	-11236
▁Ots	-11237
▁bru	-11238
-2020	-11239
Phone	-11240
arach	-11241
▁1936	-11242
▁Litr	-11243
▁Sath	-11244
▁aicm	-11245
▁bolg	-11246
▁cóta	-11247
▁dtóg	-11248
▁fide	-11249
▁fuil	-11250
▁rand	-11251
▁shár	-11252
▁soir	-11253
▁uain	-11254
amplaí	-11255
áirith	-11256
áltais	-11257
úsaeim	-11258
▁2019,	-11259
▁Cásca	-11260
▁Garda	-11261
▁Guang	-11262
▁Neart	-11263
▁chlub	-11264
▁craic	-11265
▁tSean	-11266
oCuntas	-11267
▁Daonna	-11268
▁Rights	-11269
▁bheirt	-11270
▁fliuch	-11271
▁níolón	-11272
▁seolta	-11273
▁trasna	-11274
leachtaí	-11275
▁Gruaige	-11276
▁Iosrael	-11277
▁Seasamh	-11278
▁caomhnú	-11279
▁chonaic	-11280
▁custaim	-11281
▁fearais	-11282
▁greanta	-11283
▁laochra	-11284
▁scagadh	-11285
▁soilsiú	-11286
mhínítear	-11287
▁Fiontair	-11288
▁Iodáilis	-11289
▁Ospidéal	-11290
▁formáidí	-11291
▁fógartha	-11292
▁mbeartas	-11293
▁oiriúnaí	-11294
▁scilling	-11295
óireachtaí	-11296
▁Faoiseamh	-11297
▁Glacfaidh	-11298
▁Ionstraim	-11299
▁Nuashonrú	-11300
▁bonneagar	-11301
▁caithfear	-11302
▁measartha	-11303
▁Shibhialta	-11304
▁iontaobhas	-11305
▁chomhpháirt	-11306
▁díobhálacha	-11307
▁hionstraimí	-11308
aidhleoireachta	-11309
▁shábháilteacht	-11310
4:	-11311
58	-11312
69	-11313
BO	-11314
RC	-11315
gp	-11316
(4)	-11317
10.	-11318
fil	-11319
ira	-11320
roc	-11321
▁(8	-11322
Cons	-11323
ITHE	-11324
fast	-11325
iomú	-11326
ison	-11327
iúró	-11328
ltúr	-11329
raft	-11330
ware	-11331
éilí	-11332
íopa	-11333
▁Law	-11334
▁ton	-11335
anann	-11336
chura	-11337
dheal	-11338
field	-11339
gress	-11340
mhuir	-11341
vanie	-11342
íseal	-11343
▁1990	-11344
▁Alex	-11345
▁Lasc	-11346
▁Mích	-11347
▁Rith	-11348
▁Town	-11349
▁bona	-11350
▁frio	-11351
▁gram	-11352
▁guys	-11353
▁morg	-11354
▁réit	-11355
▁sint	-11356
▁stra	-11357
▁teir	-11358
mhaoin	-11359
reidte	-11360
▁Ceard	-11361
▁Choir	-11362
▁Reifr	-11363
▁Rogha	-11364
▁boilg	-11365
▁caife	-11366
▁chara	-11367
▁eisia	-11368
▁ndích	-11369
▁uilig	-11370
ospital	-11371
thanais	-11372
íneacha	-11373
▁Bheaga	-11374
▁Otslai	-11375
▁Smaoin	-11376
▁amhrán	-11377
▁bhfear	-11378
▁bríomh	-11379
▁dTithe	-11380
▁maisiú	-11381
▁rátáil	-11382
▁spéise	-11383
▁éagtha	-11384
iniciúil	-11385
▁Chríost	-11386
▁brandaí	-11387
▁choróin	-11388
▁erotica	-11389
▁fashion	-11390
▁fheiste	-11391
▁gleoite	-11392
▁tarchur	-11393
▁thriail	-11394
▁úinéirí	-11395
athnuaite	-11396
▁Náisiúin	-11397
▁Oifigigh	-11398
▁dearaidh	-11399
▁dramhaíl	-11400
▁fhoirmle	-11401
▁milliúin	-11402
▁míchumas	-11403
▁tharmlig	-11404
▁theagasc	-11405
▁traenáil	-11406
▁Cuimhnigh	-11407
▁Faigheann	-11408
▁coimeádán	-11409
▁diúltacha	-11410
▁reifreann	-11411
▁thromlach	-11412
▁Stiúrthóra	-11413
▁tairbhiúil	-11414
ochtaineacht	-11415
▁Otslaivanie	-11416
▁chronograph	-11417
▁nuálaíochta	-11418
▁pholaitiúil	-11419
▁seirbhísigh	-11420
▁Manufacturing	-11421
▁Straitéiseach	-11422
▁cruthaitheach	-11423
▁mhíbhuntáiste	-11424
▁Comhairliúchán	-11425
▁straitéiseacha	-11426
54	-11427
56	-11428
kg	-11429
-00	-11430
alc	-11431
mhí	-11432
too	-11433
▁58	-11434
Cuir	-11435
amer	-11436
gasm	-11437
rant	-11438
ures	-11439
éich	-11440
▁Fás	-11441
▁Int	-11442
▁One	-11443
▁Rás	-11444
▁rib	-11445
▁tod	-11446
ampaí	-11447
láint	-11448
▁Aist	-11449
▁Earn	-11450
▁Help	-11451
▁Imir	-11452
▁blia	-11453
▁dtac	-11454
▁fhol	-11455
▁gain	-11456
▁seil	-11457
▁uaim	-11458
achana	-11459
bhuirg	-11460
bridge	-11461
raclam	-11462
uasach	-11463
íneach	-11464
▁Léann	-11465
▁fíona	-11466
▁nOibr	-11467
▁treis	-11468
arthana	-11469
hejiang	-11470
▁Chéile	-11471
▁Críost	-11472
▁chluas	-11473
▁chósta	-11474
▁doirse	-11475
▁fearas	-11476
▁fhéach	-11477
▁suirbh	-11478
▁tAonad	-11479
▁toirte	-11480
arthanas	-11481
íolótach	-11482
▁Company	-11483
▁Fisting	-11484
▁bródúil	-11485
▁fhoinsí	-11486
▁leathar	-11487
▁thairis	-11488
eirmeoirí	-11489
▁Iarmhéid	-11490
▁bhfabhar	-11491
▁dheonadh	-11492
▁figiúirí	-11493
▁phlandaí	-11494
▁spéaclaí	-11495
▁táscairí	-11496
▁Áiseanna	-11497
▁Saoránach	-11498
▁Táirgeadh	-11499
▁chomhlíon	-11500
▁coigríche	-11501
▁sliseanna	-11502
▁stairiúla	-11503
▁threalamh	-11504
▁tomhaltas	-11505
▁bhfoghlaim	-11506
▁custaiméir	-11507
▁dtarlaíonn	-11508
iarratasóirí	-11509
reastalaíonn	-11510
▁Riachtanach	-11511
▁Stiúrthóirí	-11512
▁hairgeadraí	-11513
▁hiarrachtaí	-11514
▁húsáideoirí	-11515
▁taighdeoirí	-11516
▁thionscadal	-11517
▁neamhspleácha	-11518
▁comhairliúchán	-11519
fc	-11520
Cas	-11521
ION	-11522
etv	-11523
ify	-11524
inh	-11525
irr	-11526
▁03	-11527
▁95	-11528
▁UV	-11529
▁hÉ	-11530
▁pe	-11531
Fhor	-11532
Star	-11533
ales	-11534
alex	-11535
▁600	-11536
▁Eur	-11537
▁Ról	-11538
▁eat	-11539
▁mag	-11540
aghas	-11541
aicmí	-11542
chris	-11543
dóirí	-11544
istin	-11545
lacks	-11546
▁1995	-11547
▁Saol	-11548
▁Tríd	-11549
▁arda	-11550
▁cirt	-11551
▁díog	-11552
▁mísh	-11553
▁pill	-11554
▁rúnd	-11555
▁time	-11556
▁éalú	-11557
Reacht	-11558
aibhir	-11559
eneral	-11560
▁1976,	-11561
▁Táirg	-11562
▁Water	-11563
▁anime	-11564
▁coirp	-11565
▁cúlra	-11566
▁péire	-11567
▁ranna	-11568
▁siomb	-11569
▁Éadaí	-11570
eirtear	-11571
ference	-11572
oscailt	-11573
scaradh	-11574
uboutin	-11575
▁Gloine	-11576
▁Ionaid	-11577
▁babhta	-11578
▁bhoird	-11579
▁boladh	-11580
▁chiall	-11581
▁elegan	-11582
▁iPhone	-11583
▁ngrúpa	-11584
▁pacála	-11585
▁patrún	-11586
▁webcam	-11587
innéithe	-11588
▁Battery	-11589
▁Liostaí	-11590
▁Machine	-11591
▁Nósanna	-11592
▁Satharn	-11593
▁admháil	-11594
▁earráid	-11595
▁eatramh	-11596
▁eisiamh	-11597
▁gcruthú	-11598
▁hÉirinn	-11599
▁sheilbh	-11600
▁tiúchan	-11601
▁uillinn	-11602
aisinéirí	-11603
bhreathnú	-11604
ithreacha	-11605
oibreoidh	-11606
threorach	-11607
▁Ceadúnas	-11608
▁Sloinnte	-11609
▁ardaíonn	-11610
▁athúsáid	-11611
▁bhóithre	-11612
▁cáipéisí	-11613
▁fostóirí	-11614
▁rialtóir	-11615
earthachta	-11616
eilleagair	-11617
scríbhinní	-11618
▁Comhlacht	-11619
▁Droichead	-11620
▁Eolaíocht	-11621
▁coincheap	-11622
▁dhochtúir	-11623
▁iarrthóra	-11624
chleachtais	-11625
eolaíochtaí	-11626
▁Nuálaíocht	-11627
▁chosnaíonn	-11628
▁dtáirgeadh	-11629
▁gluaisteán	-11630
▁réasúnacha	-11631
▁shuntasach	-11632
▁bailiúcháin	-11633
▁cheadaítear	-11634
▁fheidhmíonn	-11635
▁thuarascáil	-11636
▁Comhairleach	-11637
▁iascaireacht	-11638
▁íosluchtaigh	-11639
▁Daonlathaithe	-11640
▁ardoideachais	-11641
▁fhorchuirtear	-11642
▁sheachtainiúil	-11643
42	-11644
73	-11645
LO	-11646
WS	-11647
Wh	-11648
mc	-11649
EAS	-11650
MAT	-11651
Via	-11652
bel	-11653
des	-11654
eso	-11655
eár	-11656
oke	-11657
urt	-11658
▁49	-11659
▁Ab	-11660
▁FO	-11661
▁iP	-11662
Déan	-11663
earl	-11664
ient	-11665
iosc	-11666
izer	-11667
ning	-11668
oney	-11669
orks	-11670
ston	-11671
trib	-11672
uirm	-11673
▁188	-11674
▁But	-11675
▁Cón	-11676
▁Lab	-11677
▁Plé	-11678
▁imr	-11679
aidís	-11680
ecial	-11681
eitir	-11682
gradh	-11683
imble	-11684
imirc	-11685
rotic	-11686
ránaí	-11687
zzles	-11688
▁1925	-11689
▁1927	-11690
▁ACHT	-11691
▁Hand	-11692
▁Pink	-11693
▁anam	-11694
▁dóch	-11695
▁pics	-11696
chúirt	-11697
laghdú	-11698
lastic	-11699
oideas	-11700
raoise	-11701
ÍOCHTA	-11702
▁Aicme	-11703
▁Billí	-11704
▁Boird	-11705
▁Mamaí	-11706
▁Ranna	-11707
▁Scair	-11708
▁Ullmh	-11709
▁garbh	-11710
▁thábh	-11711
eitheal	-11712
eitling	-11713
england	-11714
theacht	-11715
▁Amazon	-11716
▁Brexit	-11717
▁Custam	-11718
▁Europa	-11719
▁adhmad	-11720
▁aerach	-11721
▁ballaí	-11722
▁dheimh	-11723
▁gcionn	-11724
▁plátaí	-11725
▁scríbe	-11726
▁sásamh	-11727
▁ticéad	-11728
▁túisce	-11729
▁Aithean	-11730
▁Féadann	-11731
▁Taifead	-11732
▁comhshó	-11733
▁iarrtha	-11734
▁inneach	-11735
▁massage	-11736
▁threorú	-11737
chúiseach	-11738
▁Aibreáin	-11739
▁Leabhair	-11740
▁Tionscal	-11741
▁cheaptha	-11742
▁daingniú	-11743
▁diagnóis	-11744
▁gconradh	-11745
▁ocsaigin	-11746
▁Chríostaí	-11747
▁Cáilíocht	-11748
▁neamhaird	-11749
▁núicléach	-11750
eagraíochta	-11751
▁chomhartha	-11752
▁creidmheas	-11753
▁fhoirgnimh	-11754
▁gcleachtas	-11755
▁measúnacht	-11756
▁modhnuithe	-11757
▁Accessories	-11758
▁Déantúsóirí	-11759
▁bprionsabal	-11760
▁comhlachais	-11761
▁Breithiúnais	-11762
▁imscrúdaithe	-11763
▁paraiméadair	-11764
▁thaispeántar	-11765
▁ghníomhaireacht	-11766
-8	-11767
06	-11768
GT	-11769
PP	-11770
mi	-11771
Ent	-11772
duc	-11773
▁Mp	-11774
aits	-11775
ging	-11776
icks	-11777
opol	-11778
▁Dom	-11779
▁Fol	-11780
▁Lib	-11781
▁fhu	-11782
Baile	-11783
aimis	-11784
anadh	-11785
fhoir	-11786
istra	-11787
oster	-11788
umbia	-11789
▁1920	-11790
▁1963	-11791
▁Lait	-11792
▁Sion	-11793
▁cosa	-11794
▁cáis	-11795
▁gcru	-11796
▁híos	-11797
▁ngrá	-11798
▁simp	-11799
▁tofa	-11800
etooth	-11801
ibléad	-11802
thaoir	-11803
▁1967,	-11804
▁2009,	-11805
▁Crios	-11806
▁Cúrsa	-11807
▁Media	-11808
▁bhuan	-11809
▁ghlas	-11810
▁iomad	-11811
▁mairt	-11812
▁mhuir	-11813
▁prost	-11814
▁tOrdú	-11815
▁thríú	-11816
teanach	-11817
▁cáblaí	-11818
▁diosca	-11819
▁Áirith	-11820
American	-11821
aiméadar	-11822
éabhlóid	-11823
▁Baintrí	-11824
▁Classic	-11825
▁fhiosrú	-11826
▁furasta	-11827
▁leanfar	-11828
▁troscán	-11829
eirmeacha	-11830
reastalaí	-11831
▁Datejust	-11832
▁Innealra	-11833
▁Teilifís	-11834
▁damáistí	-11835
▁fhíneáil	-11836
▁idirphlé	-11837
▁scannánú	-11838
▁Comhroinn	-11839
▁gceadúnas	-11840
▁gcumhacht	-11841
▁mhaireann	-11842
▁téacsanna	-11843
▁úsáidfear	-11844
▁Cabhraíonn	-11845
▁bpróiseáil	-11846
▁ceachtanna	-11847
▁charachtar	-11848
▁comhchuibh	-11849
▁dhigiteach	-11850
▁ndeachaigh	-11851
▁gealltanais	-11852
▁measúnaithe	-11853
▁thuasluaite	-11854
▁chaillteanas	-11855
▁idirghabháil	-11856
▁dhíscaoileadh	-11857
▁déantúsaíocht	-11858
▁fhorfheidhmiú	-11859
▁ghinearáltacht	-11860
%,	-11861
%.	-11862
Ba	-11863
EE	-11864
Lu	-11865
NO	-11866
Níl	-11867
ben	-11868
ops	-11869
bach	-11870
eels	-11871
egas	-11872
iong	-11873
live	-11874
mine	-11875
unch	-11876
ógas	-11877
▁BIA	-11878
▁EPA	-11879
▁Nat	-11880
▁PCB	-11881
▁dún	-11882
▁lgh	-11883
aeilg	-11884
gency	-11885
leith	-11886
luain	-11887
stone	-11888
ÉACHT	-11889
▁(4),	-11890
▁1992	-11891
▁Book	-11892
▁Fear	-11893
▁Tuig	-11894
▁West	-11895
▁caip	-11896
▁páir	-11897
▁píob	-11898
change	-11899
fhostú	-11900
quired	-11901
rúchán	-11902
▁Bhanc	-11903
▁Eagar	-11904
▁Laeth	-11905
▁Scéal	-11906
▁dinim	-11907
▁poill	-11908
▁pócaí	-11909
bhailte	-11910
▁Leitir	-11911
▁Pinsin	-11912
▁bileog	-11913
▁hiodrá	-11914
▁madraí	-11915
▁maille	-11916
▁mhéara	-11917
▁múnlaí	-11918
▁shúile	-11919
▁tiarna	-11920
▁tobann	-11921
▁urláir	-11922
▁Álainn	-11923
athraigh	-11924
ervative	-11925
roulette	-11926
éadchomh	-11927
íomhánna	-11928
▁Casinos	-11929
▁Máistir	-11930
▁Support	-11931
▁acadúla	-11932
▁amhairc	-11933
▁cainéal	-11934
▁coigilt	-11935
▁glaonna	-11936
▁leagfar	-11937
▁tuigthe	-11938
▁éagumas	-11939
ainteoirí	-11940
erversion	-11941
▁Agallamh	-11942
▁Aiseolas	-11943
▁Dúbailte	-11944
▁Iontaobh	-11945
▁Liospóin	-11946
▁folláine	-11947
▁infhaigh	-11948
▁iontacha	-11949
▁marcanna	-11950
▁mheaisín	-11951
▁treorach	-11952
▁Comhaltaí	-11953
▁cailleadh	-11954
▁eilimintí	-11955
▁inchánach	-11956
▁intleacht	-11957
▁California	-11958
▁Comhpháirt	-11959
▁chraiceann	-11960
▁cóimhiotal	-11961
▁minicíocht	-11962
▁taifeadadh	-11963
▁Comhlachais	-11964
▁Réigiúnacha	-11965
▁bheartaithe	-11966
▁maoirseacht	-11967
▁Chatroulette	-11968
▁comhfhreagra	-11969
▁corraitheach	-11970
▁linksoflondon	-11971
teicneolaíochta	-11972
▁comhsheasmhach	-11973
Dh	-11974
dí	-11975
yb	-11976
AST	-11977
Pal	-11978
add	-11979
fra	-11980
ítn	-11981
▁Ru	-11982
Tour	-11983
aíle	-11984
bhán	-11985
eads	-11986
iano	-11987
núth	-11988
tóra	-11989
éint	-11990
▁Ang	-11991
▁Aifr	-11992
▁BDSM	-11993
▁Chol	-11994
▁Uile	-11995
▁Wire	-11996
▁back	-11997
▁snea	-11998
▁sóis	-11999
Eanáir	-12000
Sports	-12001
eálach	-12002
▁Caomh	-12003
▁Cistí	-12004
▁Music	-12005
▁Naíon	-12006
▁ceath	-12007
▁dóich	-12008
▁inter	-12009
▁ndeon	-12010
▁nocht	-12011
▁shean	-12012
▁tnúth	-12013
▁Óráid	-12014
Mhúsaem	-12015
anfaidh	-12016
ibearsh	-12017
▁Erotic	-12018
▁Europe	-12019
▁Ráitis	-12020
▁States	-12021
▁fillte	-12022
▁gcolún	-12023
▁ghlúin	-12024
▁innill	-12025
▁modhnú	-12026
▁phrait	-12027
▁thráth	-12028
▁tomhas	-12029
Atlantic	-12030
arascála	-12031
eilimint	-12032
inmhithe	-12033
▁Acadamh	-12034
▁DRÉACHT	-12035
▁Feidhme	-12036
▁Leagann	-12037
▁Orgasms	-12038
▁ciorcad	-12039
▁gcoiste	-12040
▁neamhsh	-12041
▁seoltaí	-12042
▁uilíoch	-12043
ánaíochta	-12044
éisteacht	-12045
▁Chiarraí	-12046
▁comóradh	-12047
▁ghlactar	-12048
▁níocháin	-12049
▁poileist	-12050
▁seaicéad	-12051
▁shannadh	-12052
▁shonrach	-12053
▁tarchuir	-12054
▁Tairseach	-12055
▁acmhainne	-12056
▁barántúla	-12057
▁chomóradh	-12058
▁cláruithe	-12059
▁comparáid	-12060
▁cóiríocht	-12061
▁droichead	-12062
▁gcomhalta	-12063
▁mhíreanna	-12064
▁pearsanra	-12065
▁tipiciúil	-12066
▁Chomhdháil	-12067
▁bhfuarthas	-12068
▁chaitheann	-12069
▁comhlíonta	-12070
▁hoifigiúil	-12071
▁soláthróir	-12072
aighdeánacha	-12073
▁Bailiúcháin	-12074
▁Cuideachtaí	-12075
▁Dearbhuithe	-12076
▁Ghaeltachta	-12077
▁Taispeánann	-12078
▁chomhchuibh	-12079
▁chomhthéacs	-12080
▁dleachtanna	-12081
▁iarratasóra	-12082
▁Meiriceánach	-12083
▁PoliceCuntas	-12084
▁Sóisialaithe	-12085
▁siamsaíochta	-12086
▁struchtúrtha	-12087
▁Léirmheasanna	-12088
▁cearrbhachais	-12089
▁mhaireachtála	-12090
▁FootballCuntas	-12091
▁siopadóireacht	-12092
teistiméireachta	-12093
08	-12094
59	-12095
DP	-12096
MD	-12097
MI	-12098
RL	-12099
Net	-12100
ase	-12101
bam	-12102
bia	-12103
box	-12104
erd	-12105
ett	-12106
ila	-12107
lós	-12108
new	-12109
pal	-12110
tiv	-12111
zen	-12112
ÁIN	-12113
▁54	-12114
▁57	-12115
(1),	-12116
ESCO	-12117
elly	-12118
stát	-12119
▁Fil	-12120
▁Pan	-12121
▁Rob	-12122
▁Sun	-12123
▁VII	-12124
▁cut	-12125
▁fín	-12126
▁has	-12127
▁ith	-12128
▁rep	-12129
▁sof	-12130
ARASC	-12131
ánais	-12132
▁1993	-12133
▁1996	-12134
▁Save	-12135
▁Vítn	-12136
▁coin	-12137
▁gafa	-12138
▁truc	-12139
aigine	-12140
amhach	-12141
istory	-12142
neofar	-12143
ulgáir	-12144
últaca	-12145
▁2010.	-12146
▁Bainc	-12147
▁Cairt	-12148
▁Cábla	-12149
▁ITBÁC	-12150
▁Naofa	-12151
▁Rátha	-12152
▁banna	-12153
▁gasta	-12154
▁gnéis	-12155
▁milis	-12156
▁óstán	-12157
▁Energy	-12158
▁Hombre	-12159
▁Spyder	-12160
▁amanna	-12161
▁mhothú	-12162
▁máinli	-12163
▁víreas	-12164
ARASCÁIL	-12165
National	-12166
allmhair	-12167
▁Bhraith	-12168
▁Ligeann	-12169
▁earrach	-12170
▁seisean	-12171
▁speicis	-12172
▁thairbh	-12173
oibreacha	-12174
▁Liotuáin	-12175
▁Required	-12176
▁bríomhar	-12177
▁críochnú	-12178
▁dheiridh	-12179
▁díograis	-12180
▁laethúla	-12181
▁lárionad	-12182
▁nEalaíon	-12183
▁próitéin	-12184
▁uirbeach	-12185
fhreastail	-12186
raitheoirí	-12187
taobhaithe	-12188
▁Cabhraigh	-12189
▁drochuair	-12190
▁fharraige	-12191
▁ghathanna	-12192
▁lochtanna	-12193
▁nGaillimh	-12194
▁theorannú	-12195
aibidlíocht	-12196
▁chaithfidh	-12197
▁cheanglais	-12198
▁déanfaimid	-12199
▁gcruthófar	-12200
▁polasaithe	-12201
▁shubstaint	-12202
▁chomhionann	-12203
▁gheilleagar	-12204
▁ngeilleagar	-12205
▁roghnúcháin	-12206
▁fhreagraíonn	-12207
▁ilbhliantúil	-12208
▁ráthaíochtaí	-12209
▁tuairiscithe	-12210
▁Rannpháirtithe	-12211
▁parlaiminteacha	-12212
aa	-12213
ij	-12214
km	-12215
bya	-12216
dam	-12217
ena	-12218
kar	-12219
ken	-12220
lás	-12221
nia	-12222
osa	-12223
▁DH	-12224
▁Os	-12225
amaí	-12226
coin	-12227
john	-12228
post	-12229
vern	-12230
éite	-12231
▁Amp	-12232
▁Dil	-12233
▁Ild	-12234
▁Pra	-12235
▁Pre	-12236
▁all	-12237
▁gas	-12238
▁hum	-12239
▁top	-12240
IANNA	-12241
annta	-12242
ealla	-12243
eathú	-12244
ianad	-12245
inion	-12246
iplín	-12247
lated	-12248
orcra	-12249
scadh	-12250
senal	-12251
▁(12)	-12252
▁Carr	-12253
▁Disc	-12254
▁Dobh	-12255
▁Mion	-12256
▁Ráth	-12257
▁bheo	-12258
▁ceil	-12259
▁clos	-12260
▁díor	-12261
▁from	-12262
aingne	-12263
arbais	-12264
chóras	-12265
éigthe	-12266
írithe	-12267
▁2008.	-12268
▁Bheal	-12269
▁Dhaon	-12270
▁Swing	-12271
▁cairt	-12272
▁dhíon	-12273
▁halla	-12274
▁mhion	-12275
▁oilte	-12276
▁phóca	-12277
▁áille	-12278
ingerie	-12279
úshláin	-12280
▁Global	-12281
▁Maoine	-12282
▁Pháirc	-12283
▁cáiliú	-12284
▁dúnadh	-12285
▁faillí	-12286
▁heolas	-12287
▁lasair	-12288
▁mbosca	-12289
▁staire	-12290
▁uachta	-12291
▁víosaí	-12292
ruailliú	-12293
umarsáid	-12294
▁Strapon	-12295
▁Teideal	-12296
▁bhfoils	-12297
▁bhogadh	-12298
▁ceapfar	-12299
▁hIodáil	-12300
▁reáchtá	-12301
▁smaoint	-12302
▁thionól	-12303
ensington	-12304
téarmacha	-12305
▁Brasaíle	-12306
▁Cónaithe	-12307
▁Laistigh	-12308
▁Roghanna	-12309
▁bunachar	-12310
▁comhraic	-12311
▁maisithe	-12312
▁mbeifear	-12313
▁seimineá	-12314
▁spásanna	-12315
▁Bluetooth	-12316
▁Chartlann	-12317
▁Cruthaigh	-12318
▁Louboutin	-12319
▁foréigean	-12320
▁malartach	-12321
▁roghchlár	-12322
▁thagartha	-12323
athaoirligh	-12324
ondúireacht	-12325
▁Caipitiúil	-12326
▁Sláintiúil	-12327
▁aithnítear	-12328
▁cliniciúla	-12329
▁nOibreacha	-12330
▁reachtacha	-12331
▁scothaosta	-12332
▁Chomhphobal	-12333
▁bhuachaillí	-12334
▁ghníomhacha	-12335
▁Breathnaíonn	-12336
▁bhfoirgneamh	-12337
▁ghníomhartha	-12338
▁hoibríochtaí	-12339
▁Tionsclaíocht	-12340
▁gceanglaítear	-12341
▁sholáthraithe	-12342
BF	-12343
GC	-12344
GR	-12345
dr	-12346
gee	-12347
rod	-12348
rón	-12349
wal	-12350
wer	-12351
▁88	-12352
▁AS	-12353
▁KB	-12354
▁Oc	-12355
ease	-12356
ffic	-12357
ites	-12358
ródh	-12359
▁Cig	-12360
▁Cry	-12361
▁Sky	-12362
▁Ult	-12363
▁dtá	-12364
▁fos	-12365
▁inc	-12366
▁nud	-12367
▁sic	-12368
/2013	-12369
/2019	-12370
Media	-12371
aibis	-12372
eagán	-12373
lobal	-12374
rámaí	-12375
thing	-12376
ville	-12377
▁1988	-12378
▁Cala	-12379
▁Rach	-12380
▁Rock	-12381
▁Tomh	-12382
▁faid	-12383
▁fich	-12384
▁shuí	-12385
ternat	-12386
▁Democ	-12387
▁Gnáth	-12388
▁Print	-12389
▁Siopa	-12390
▁cuain	-12391
▁frása	-12392
▁gCill	-12393
▁huimh	-12394
▁longa	-12395
▁muirí	-12396
▁ocras	-12397
▁pragh	-12398
▁rince	-12399
eamaraí	-12400
ocation	-12401
▁Branda	-12402
▁Loings	-12403
▁Theach	-12404
▁chuala	-12405
▁fónamh	-12406
▁mbaile	-12407
▁pháirc	-12408
▁tagann	-12409
iotáille	-12410
lánaithe	-12411
tainment	-12412
▁Breosla	-12413
▁Leathan	-12414
▁Library	-12415
▁amhráin	-12416
▁bhranda	-12417
▁cruithn	-12418
▁eastáit	-12419
▁inchinn	-12420
▁orgasms	-12421
▁prostit	-12422
▁thriomú	-12423
ingCuntas	-12424
itheachta	-12425
▁Baintear	-12426
▁Chomhair	-12427
▁Electric	-12428
▁Foghlama	-12429
▁Thaighde	-12430
▁breiseán	-12431
▁caidrimh	-12432
▁chultúir	-12433
▁hiontach	-12434
▁múineadh	-12435
▁radhairc	-12436
Reachtaire	-12437
▁Ollscoile	-12438
▁buachaill	-12439
▁cleachtaí	-12440
▁coinneála	-12441
▁cruthanna	-12442
▁deacracht	-12443
▁dhomhanda	-12444
▁míchumais	-12445
▁teagmhais	-12446
obhsaíochta	-12447
▁Bhunreacht	-12448
▁Státchiste	-12449
▁cainníocht	-12450
▁chabhróidh	-12451
▁comhthéacs	-12452
▁fhaoiseamh	-12453
▁iomaíochta	-12454
▁Tomhaltóirí	-12455
▁chleachtais	-12456
▁craolacháin	-12457
▁cuairteanna	-12458
▁liostaítear	-12459
▁feabhsúcháin	-12460
▁idirghabhála	-12461
▁bhfeidhmeanna	-12462
FS	-12463
HC	-12464
RI	-12465
UD	-12466
kn	-12467
600	-12468
:30	-12469
Gov	-12470
dea	-12471
iog	-12472
lav	-12473
lem	-12474
ote	-12475
sem	-12476
ulo	-12477
wan	-12478
▁78	-12479
▁BH	-12480
▁Xi	-12481
Mich	-12482
adel	-12483
aigí	-12484
faoi	-12485
fhan	-12486
free	-12487
game	-12488
ique	-12489
irac	-12490
ista	-12491
qual	-12492
rama	-12493
▁180	-12494
▁304	-12495
▁Mur	-12496
▁Uil	-12497
▁end	-12498
▁fhi	-12499
▁hal	-12500
▁mas	-12501
▁ubh	-12502
ceann	-12503
conom	-12504
ental	-12505
iance	-12506
lóidí	-12507
ordan	-12508
▁1980	-12509
▁2021	-12510
▁Airí	-12511
▁Arab	-12512
▁Bang	-12513
▁Bean	-12514
▁Cust	-12515
▁Phil	-12516
▁cior	-12517
▁game	-12518
▁gcúl	-12519
▁lómh	-12520
▁with	-12521
easaín	-12522
quette	-12523
tation	-12524
teoirí	-12525
éasadh	-12526
▁2012,	-12527
▁Maoin	-12528
▁alcól	-12529
▁dream	-12530
▁feola	-12531
▁iníon	-12532
▁rangú	-12533
álfaidh	-12534
árthach	-12535
édhearc	-12536
▁Costas	-12537
▁Cuarda	-12538
▁Gardaí	-12539
▁Maoirs	-12540
▁Polait	-12541
▁Simplí	-12542
▁annamh	-12543
▁bPlean	-12544
▁diaper	-12545
▁maithe	-12546
▁tamall	-12547
▁teicst	-12548
▁thosnú	-12549
eimhridh	-12550
imreoirí	-12551
ustralia	-12552
▁athuair	-12553
▁bhreath	-12554
▁casinos	-12555
▁cleacht	-12556
▁cloiche	-12557
▁dáiríre	-12558
▁eachtra	-12559
▁easnamh	-12560
▁foirmiú	-12561
▁gcionta	-12562
▁gnóchan	-12563
▁mhaisiú	-12564
▁rathúla	-12565
▁teastas	-12566
cothaithe	-12567
▁Comórtas	-12568
▁Magazine	-12569
▁Pictiúir	-12570
▁chinnidh	-12571
▁earráidí	-12572
▁folúntas	-12573
▁fuinneog	-12574
▁hIodáile	-12575
▁iarmhéid	-12576
▁seisiúin	-12577
▁tosaíonn	-12578
▁Árachais	-12579
ranníocach	-12580
▁Breitling	-12581
▁Comhaltas	-12582
▁Hollywood	-12583
▁chomhréir	-12584
▁cithfholc	-12585
▁fisiceach	-12586
▁gceanglas	-12587
▁mhaisiúil	-12588
▁reiligiún	-12589
▁tiontaire	-12590
▁treochtaí	-12591
▁tuarastal	-12592
cháilíochta	-12593
óilíneachta	-12594
▁Feidhmíonn	-12595
▁fuaimeanna	-12596
▁Nuachtlitir	-12597
▁talmhaíocht	-12598
▁foilseacháin	-12599
▁scríbhneoirí	-12600
▁Príobháideach	-12601
▁caibidlíochta	-12602
▁hidirnáisiúnta	-12603
(3	-12604
As	-12605
oz	-12606
ÁN	-12607
300	-12608
Eur	-12609
Rob	-12610
ady	-12611
baí	-12612
cap	-12613
kes	-12614
mit	-12615
tál	-12616
▁07	-12617
▁64	-12618
▁77	-12619
▁99	-12620
▁Es	-12621
▁PP	-12622
▁it	-12623
▁kb	-12624
▁nI	-12625
acsa	-12626
aind	-12627
bert	-12628
ency	-12629
ghai	-12630
ghnó	-12631
icil	-12632
ikov	-12633
keup	-12634
nímh	-12635
seis	-12636
shot	-12637
thet	-12638
▁Des	-12639
▁guy	-12640
▁mho	-12641
▁nea	-12642
adach	-12643
asach	-12644
inson	-12645
james	-12646
peace	-12647
scair	-12648
▁Cóta	-12649
▁Geor	-12650
▁High	-12651
▁Mair	-12652
▁Mini	-12653
▁Sogh	-12654
▁cine	-12655
▁holl	-12656
▁horm	-12657
▁mBun	-12658
▁pras	-12659
ailíní	-12660
ulture	-12661
verall	-12662
éadach	-12663
▁2013,	-12664
▁2020,	-12665
▁Liath	-12666
▁ghlan	-12667
▁gunna	-12668
▁maolú	-12669
▁mhíle	-12670
▁pland	-12671
ainnigh	-12672
bhealaí	-12673
chester	-12674
eagaisc	-12675
iobraid	-12676
network	-12677
rannach	-12678
▁Chairt	-12679
▁Chipir	-12680
▁Scéime	-12681
▁fiacla	-12682
▁suaimh	-12683
▁éadach	-12684
bheochan	-12685
eisiúint	-12686
iallacha	-12687
áthaithe	-12688
▁Tionóil	-12689
▁Tíortha	-12690
▁foirmle	-12691
▁leagann	-12692
▁liostaí	-12693
▁painéil	-12694
▁scaradh	-12695
▁thoiliú	-12696
▁Árachas	-12697
chathaoir	-12698
eangailte	-12699
▁Próiseas	-12700
▁Seapáine	-12701
▁Téalainn	-12702
▁chumainn	-12703
▁coirníní	-12704
▁elegance	-12705
▁Chainnigh	-12706
▁Conclúidí	-12707
▁Leanfaidh	-12708
▁Transport	-12709
▁bPoblacht	-12710
▁bhaintear	-12711
▁ghnóthais	-12712
▁hoifigigh	-12713
▁mhodhanna	-12714
▁neamhréir	-12715
▁phríomhch	-12716
▁searmanas	-12717
▁Fhuinneamh	-12718
▁Oidhreacht	-12719
▁Seachadadh	-12720
▁atáirgeadh	-12721
▁fhuinneamh	-12722
▁fírinneach	-12723
▁rialúcháin	-12724
▁roghnaíodh	-12725
▁sheirbhíse	-12726
▁TimesCuntas	-12727
▁chorparáide	-12728
éareolaíochta	-12729
▁aonfhoirmeach	-12730
▁comhleanúnach	-12731
▁healaíontóirí	-12732
52	-12733
De	-12734
KB	-12735
RT	-12736
vy	-12737
-30	-12738
Ass	-12739
ida	-12740
ief	-12741
iní	-12742
álú	-12743
▁4)	-12744
▁59	-12745
▁Av	-12746
▁EC	-12747
Eorp	-12748
aici	-12749
fhás	-12750
itic	-12751
oran	-12752
orol	-12753
tems	-12754
well	-12755
zhou	-12756
▁Aos	-12757
▁Atá	-12758
▁Bhr	-12759
▁Tor	-12760
▁Tús	-12761
▁USA	-12762
▁aim	-12763
▁def	-12764
▁spl	-12765
MHAIR	-12766
Press	-12767
chirt	-12768
eapór	-12769
enáil	-12770
iacht	-12771
liabh	-12772
mpála	-12773
opher	-12774
ruthú	-12775
velop	-12776
▁1930	-12777
▁1994	-12778
▁Hong	-12779
▁Mosc	-12780
▁Pion	-12781
▁Roll	-12782
▁Rose	-12783
▁Shan	-12784
▁Síor	-12785
▁dáth	-12786
▁heas	-12787
▁moil	-12788
▁ndlí	-12789
▁slat	-12790
▁toit	-12791
▁tusa	-12792
amharc	-12793
intear	-12794
oichid	-12795
▁Brand	-12796
▁Chéim	-12797
▁Cláir	-12798
▁Dildo	-12799
▁Tairg	-12800
▁dhifr	-12801
▁dílis	-12802
▁húdar	-12803
▁léigh	-12804
▁peile	-12805
▁thais	-12806
Twitter	-12807
iamonds	-12808
urgnamh	-12809
íleanna	-12810
▁Centre	-12811
▁Gréige	-12812
▁Shráid	-12813
▁Téarma	-12814
▁bhíodh	-12815
▁cheoil	-12816
▁chúlra	-12817
▁hOifig	-12818
▁hidrig	-12819
▁ráithe	-12820
▁rúisis	-12821
▁seaclá	-12822
▁téamaí	-12823
▁urramú	-12824
easaíneo	-12825
leanúint	-12826
rasbourg	-12827
ráisléid	-12828
▁Aerfort	-12829
▁Amhráin	-12830
▁Rómáine	-12831
▁chruach	-12832
▁cluaise	-12833
▁dtaithí	-12834
▁féadann	-12835
▁fírinne	-12836
▁gairdín	-12837
▁masturb	-12838
▁mbreith	-12839
▁phionós	-12840
▁tinneas	-12841
▁tréimhs	-12842
eachtacht	-12843
eartaíonn	-12844
ibscríobh	-12845
ionsonraí	-12846
resistant	-12847
▁Ambasáid	-12848
▁Réiteach	-12849
▁Taisteal	-12850
▁Tosaíonn	-12851
▁cailciam	-12852
▁shaibhir	-12853
▁uasmhéid	-12854
▁Íomhánna	-12855
sealbhóirí	-12856
▁Ainmhithe	-12857
▁Athraíodh	-12858
▁Comhshaol	-12859
▁Rómhánach	-12860
▁ceapachán	-12861
▁dtréimhse	-12862
▁eintiteas	-12863
▁ndícheall	-12864
▁ollscoile	-12865
▁Fionlainne	-12866
▁breitheamh	-12867
▁ceapacháin	-12868
▁ionfhabhtú	-12869
▁pháirtithe	-12870
thábhachtach	-12871
▁Gníomhaithe	-12872
▁bhailiúchán	-12873
▁cheannaíonn	-12874
orparáideacha	-12875
▁Reachtaíocht	-12876
▁cosmaideacha	-12877
▁heagraíochta	-12878
▁maireachtála	-12879
▁sainmhínithe	-12880
▁tuairisceáin	-12881
Cr	-12882
GO	-12883
HA	-12884
Mo	-12885
TT	-12886
ím	-12887
50.	-12888
cel	-12889
mán	-12890
nsc	-12891
obs	-12892
qua	-12893
soc	-12894
tat	-12895
▁BU	-12896
▁He	-12897
▁SD	-12898
/...	-12899
Rann	-12900
Tube	-12901
asha	-12902
dáin	-12903
girl	-12904
pris	-12905
vens	-12906
▁30%	-12907
▁Ail	-12908
▁BCE	-12909
▁Gra	-12910
▁Mer	-12911
▁Tom	-12912
▁fab	-12913
andra	-12914
earth	-12915
lands	-12916
leans	-12917
mhéad	-12918
neart	-12919
íteas	-12920
▁Arch	-12921
▁Land	-12922
▁Scol	-12923
▁Sual	-12924
▁Timp	-12925
▁deil	-12926
▁fara	-12927
▁méar	-12928
▁spra	-12929
▁tuas	-12930
endent	-12931
fhórsa	-12932
gement	-12933
laíodh	-12934
rothar	-12935
▁Brown	-12936
▁Cloch	-12937
▁Cóiré	-12938
▁Fóram	-12939
▁Luath	-12940
▁Mheas	-12941
▁Mhóir	-12942
▁Scaip	-12943
▁caoga	-12944
▁craol	-12945
▁fóram	-12946
▁gcuma	-12947
▁léasa	-12948
▁ráite	-12949
▁shann	-12950
▁sonrú	-12951
▁sweet	-12952
▁tairg	-12953
cmhainn	-12954
illiams	-12955
ltaíonn	-12956
▁chaomh	-12957
▁chíche	-12958
▁cónasc	-12959
▁fhostú	-12960
▁fhuaim	-12961
▁féilte	-12962
▁gcúram	-12963
▁hEagra	-12964
▁mhionn	-12965
▁mhúnlú	-12966
▁minice	-12967
▁síolta	-12968
iadhúlra	-12969
phraghas	-12970
salachta	-12971
únaíocht	-12972
▁Breithe	-12973
▁Míleata	-12974
▁Weather	-12975
▁comhaon	-12976
▁dhaonna	-12977
▁fhorála	-12978
▁gcnaipe	-12979
▁glacfar	-12980
▁shamhlú	-12981
eitriliam	-12982
terCuntas	-12983
▁Creative	-12984
▁Freastal	-12985
▁Slándáil	-12986
▁Suiteáil	-12987
▁chásanna	-12988
▁cuirimid	-12989
▁gnólacht	-12990
▁luachála	-12991
▁pornorol	-12992
▁teaghais	-12993
▁Íoslainn	-12994
lóireachta	-12995
▁Cabhróidh	-12996
▁Ceadúnais	-12997
▁Fuinneamh	-12998
▁Iarchéime	-12999
▁Leideanna	-13000
▁fógraíodh	-13001
▁ndeireadh	-13002
▁randamach	-13003
▁riarthóir	-13004
▁theoranta	-13005
▁ócáideach	-13006
▁Comhphobal	-13007
▁bhailíocht	-13008
▁chumhachta	-13009
▁comhlachta	-13010
▁dhéanaimid	-13011
▁forlíonadh	-13012
▁luchtaithe	-13013
▁meastachán	-13014
▁sceidealta	-13015
▁Bainisteoir	-13016
▁próiseáilte	-13017
▁ráthaíochta	-13018
▁inmhianaithe	-13019
▁mainneachtain	-13020
▁tionsclaíocha	-13021
▁sholáthraítear	-13022
/2	-13023
??	-13024
Cé	-13025
La	-13026
TM	-13027
ye	-13028
yh	-13029
/10	-13030
IÚN	-13031
Reg	-13032
ano	-13033
ave	-13034
idd	-13035
kat	-13036
mhú	-13037
▁51	-13038
▁53	-13039
▁72	-13040
▁EP	-13041
▁bú	-13042
▁hU	-13043
atek	-13044
fiúr	-13045
grav	-13046
igen	-13047
tein	-13048
week	-13049
▁@19	-13050
▁Mot	-13051
▁Out	-13052
▁Tat	-13053
▁War	-13054
▁clé	-13055
▁leá	-13056
▁ser	-13057
amers	-13058
ender	-13059
rabús	-13060
rátaí	-13061
áthas	-13062
íosún	-13063
▁1961	-13064
▁Bank	-13065
▁Down	-13066
▁Food	-13067
▁Fíor	-13068
▁Léim	-13069
▁Mesa	-13070
▁Sins	-13071
▁cadh	-13072
▁uast	-13073
chósta	-13074
eimeas	-13075
eolach	-13076
master	-13077
rasaíl	-13078
▁2007,	-13079
▁Scrúd	-13080
▁béile	-13081
▁cadás	-13082
▁choig	-13083
▁diúlt	-13084
▁duill	-13085
▁feith	-13086
▁modúl	-13087
▁nárbh	-13088
▁phunt	-13089
▁rompu	-13090
▁seana	-13091
▁spark	-13092
England	-13093
dhreach	-13094
iompair	-13095
raclaim	-13096
reaseis	-13097
úntacht	-13098
▁Action	-13099
▁Fhoras	-13100
▁Skills	-13101
▁Soilse	-13102
▁Spraoi	-13103
▁Sreang	-13104
▁bailte	-13105
▁dtithe	-13106
▁eagrán	-13107
▁máistr	-13108
▁optúil	-13109
▁rollta	-13110
▁scéala	-13111
▁stocaí	-13112
▁tuirse	-13113
▁Caitlic	-13114
▁Fabraic	-13115
▁Ghníomh	-13116
▁bhforas	-13117
▁calaois	-13118
▁chomhad	-13119
▁chuimhn	-13120
▁croílár	-13121
▁dhearbh	-13122
▁ghluais	-13123
▁measann	-13124
▁sealbhú	-13125
▁tapaidh	-13126
eachadadh	-13127
▁Chaomhnú	-13128
▁Cúntóirí	-13129
▁Gearradh	-13130
▁Lascaine	-13131
▁Stáisiún	-13132
▁ardaithe	-13133
▁bairille	-13134
▁bhaineas	-13135
▁chomhaid	-13136
▁chompord	-13137
▁comharsa	-13138
▁cóimheas	-13139
▁eilimint	-13140
▁gcluichí	-13141
▁ghlacfar	-13142
▁leathadh	-13143
▁uafásach	-13144
chúiseanna	-13145
▁Deiseanna	-13146
▁Léirítear	-13147
▁bhfostóir	-13148
▁breataine	-13149
▁caipiteal	-13150
▁dochtúirí	-13151
▁díolachán	-13152
▁iomlánach	-13153
▁míochaine	-13154
▁priontála	-13155
▁theorainn	-13156
astaíochtaí	-13157
▁Comhoibriú	-13158
▁Commission	-13159
▁chuimsíonn	-13160
▁chumarsáid	-13161
▁cliniciúil	-13162
▁contrártha	-13163
▁daonlathas	-13164
▁déiríochta	-13165
▁díobhálach	-13166
▁iarmhairtí	-13167
▁sleamhnáin	-13168
▁úsáideacha	-13169
reaseisiúint	-13170
▁Státseirbhís	-13171
▁bheartaítear	-13172
▁chríochnaigh	-13173
▁phraiticiúil	-13174
▁dealraitheach	-13175
▁leathanbhanda	-13176
▁theorainneacha	-13177
▁scairchaipiteal	-13178
Cl	-13179
GG	-13180
JM	-13181
LF	-13182
NE	-13183
RD	-13184
fl	-13185
800	-13186
Doc	-13187
IRT	-13188
dal	-13189
eib	-13190
gha	-13191
lab	-13192
sin	-13193
▁76	-13194
▁89	-13195
▁Ho	-13196
▁km	-13197
▁my	-13198
▁tU	-13199
adar	-13200
carr	-13201
kers	-13202
nród	-13203
rome	-13204
▁Nic	-13205
▁crú	-13206
inity	-13207
organ	-13208
ruach	-13209
untar	-13210
írigh	-13211
▁1926	-13212
▁Auto	-13213
▁Chlé	-13214
▁Fund	-13215
▁Mana	-13216
▁Nike	-13217
▁This	-13218
▁grea	-13219
▁mean	-13220
▁mist	-13221
▁ndiú	-13222
▁tosc	-13223
eighil	-13224
eolais	-13225
iathar	-13226
iffany	-13227
ionsaí	-13228
letics	-13229
lánach	-13230
▁1,000	-13231
▁1998,	-13232
▁Fásta	-13233
▁Magic	-13234
▁Saint	-13235
▁aisti	-13236
▁chíos	-13237
▁cluas	-13238
▁dligh	-13239
▁light	-13240
airdíní	-13241
aiscirt	-13242
chuairt	-13243
dhlúite	-13244
fhocail	-13245
spleách	-13246
éiríonn	-13247
▁Aonach	-13248
▁Breise	-13249
▁Dragon	-13250
▁Molann	-13251
▁ceirde	-13252
▁chinnt	-13253
▁dídean	-13254
▁ticéid	-13255
▁traein	-13256
▁troigh	-13257
▁óstáil	-13258
aiseacha	-13259
ibhléidí	-13260
seacháin	-13261
áisteach	-13262
▁Finance	-13263
▁Leanann	-13264
▁Plandaí	-13265
▁YouTube	-13266
▁abhainn	-13267
▁dtalamh	-13268
▁gcontae	-13269
▁ghabhas	-13270
▁infheic	-13271
▁lóistín	-13272
▁macánta	-13273
▁rabhadh	-13274
▁saothrú	-13275
▁sruthán	-13276
▁Bunscoil	-13277
▁FCCuntas	-13278
▁Republic	-13279
▁Saothair	-13280
▁aisteach	-13281
▁bhrabúis	-13282
▁chomhshó	-13283
▁gameplay	-13284
▁ghnóthas	-13285
▁lámhaigh	-13286
▁mbuiséad	-13287
▁Altranais	-13288
▁Bliantúil	-13289
▁Bunreacht	-13290
▁Cláraithe	-13291
▁Teagmhála	-13292
▁airteagal	-13293
▁aisghairm	-13294
▁bhunúsach	-13295
▁caitheadh	-13296
▁cheadóidh	-13297
▁chuspóirí	-13298
▁comórtais	-13299
▁dtarlóidh	-13300
▁horduithe	-13301
▁múnlaithe	-13302
▁tarrthála	-13303
▁Ghairmiúil	-13304
▁bpáirtithe	-13305
▁geografach	-13306
▁Creidmheasa	-13307
▁cócaireacht	-13308
▁tharmligean	-13309
▁éifeachtúla	-13310
▁eisceachtúla	-13311
▁iarratasóirí	-13312
▁páirtaimseartha	-13313
/1	-13314
3/	-13315
BE	-13316
és	-13317
aiv	-13318
isp	-13319
lee	-13320
vil	-13321
web	-13322
▁01	-13323
▁GU	-13324
▁Ju	-13325
▁he	-13326
Char	-13327
imon	-13328
rate	-13329
éibh	-13330
▁000	-13331
▁4-6	-13332
▁Box	-13333
▁Rub	-13334
▁Sum	-13335
▁ain	-13336
▁bar	-13337
▁fút	-13338
▁tee	-13339
▁€15	-13340
/2009	-13341
aithi	-13342
amily	-13343
caire	-13344
eagrú	-13345
fhada	-13346
iúmar	-13347
léite	-13348
néara	-13349
uaird	-13350
úrach	-13351
▁1967	-13352
▁Bath	-13353
▁Cast	-13354
▁Fuck	-13355
▁Hood	-13356
▁Horn	-13357
▁Meit	-13358
▁More	-13359
▁Park	-13360
▁Peso	-13361
▁Plus	-13362
▁Stór	-13363
▁eitl	-13364
▁fóin	-13365
▁seam	-13366
▁tadh	-13367
▁test	-13368
aigéad	-13369
iosach	-13370
óifílí	-13371
▁2011,	-13372
▁Baill	-13373
▁Bloom	-13374
▁Caife	-13375
▁Child	-13376
▁Chinn	-13377
▁Móire	-13378
▁bhfol	-13379
▁candy	-13380
▁cupán	-13381
▁cíche	-13382
▁earcú	-13383
▁heels	-13384
▁table	-13385
▁thoir	-13386
▁tuath	-13387
iúnaigh	-13388
oillsiú	-13389
ulaingt	-13390
▁Aragon	-13391
▁Laghdú	-13392
▁bhfíor	-13393
▁braite	-13394
▁brúigh	-13395
▁cheilt	-13396
▁giotár	-13397
▁léacht	-13398
▁orgasm	-13399
▁phósta	-13400
▁scoilt	-13401
▁Bheatha	-13402
▁Crystal	-13403
▁Deartha	-13404
▁Forlíon	-13405
▁Labhair	-13406
▁Léirigh	-13407
▁Spáinne	-13408
▁achainí	-13409
▁chleith	-13410
▁chloist	-13411
▁chúinsí	-13412
▁diapers	-13413
▁glacann	-13414
▁iomláin	-13415
▁sannadh	-13416
▁scáthán	-13417
▁sofaist	-13418
▁sweetie	-13419
▁tamaill	-13420
▁tuaslag	-13421
fhaisnéis	-13422
▁Industry	-13423
▁chliaint	-13424
▁dheonach	-13425
▁hearnála	-13426
▁marcóirí	-13427
▁nglacann	-13428
▁uigeacht	-13429
eolocation	-13430
foundation	-13431
▁Cinntíonn	-13432
▁Cultúrtha	-13433
▁Gaelscoil	-13434
▁Leantóirí	-13435
▁airbheart	-13436
▁altranais	-13437
▁chaibidil	-13438
▁comhdháil	-13439
▁dodhéanta	-13440
▁fhormheas	-13441
▁sócmhainn	-13442
▁thuairimí	-13443
▁íoslaghdú	-13444
eilleagrach	-13445
▁Sonraíocht	-13446
▁comhlachas	-13447
▁húsáidtear	-13448
▁labhraíonn	-13449
▁léirmhíniú	-13450
▁mhéadaithe	-13451
▁sholáthraí	-13452
▁tOmbudsman	-13453
luaisteachta	-13454
▁Chúirteanna	-13455
▁Lámhleabhar	-13456
▁Shóisearach	-13457
▁chaighdeáin	-13458
▁dícháilithe	-13459
▁lámhleabhar	-13460
▁neamhrialta	-13461
▁pacáistithe	-13462
▁sráidbhaile	-13463
▁Ionchúiseamh	-13464
▁comhardaithe	-13465
▁cócaireachta	-13466
▁forfheidhmiú	-13467
▁gCoimisinéir	-13468
▁meitibileach	-13469
▁pornorolikov	-13470
▁Leictreachais	-13471
▁Monatóireacht	-13472
▁fiontraíochta	-13473
▁gníomhaireacht	-13474
▁shainmhínítear	-13475
5-	-13476
86	-13477
8:	-13478
BT	-13479
MM	-13480
Óg	-13481
Med	-13482
acs	-13483
ago	-13484
cat	-13485
dán	-13486
ede	-13487
ito	-13488
una	-13489
yal	-13490
úig	-13491
▁7,	-13492
▁GN	-13493
▁Li	-13494
▁Ob	-13495
(2),	-13496
arba	-13497
band	-13498
brán	-13499
come	-13500
gach	-13501
gers	-13502
omat	-13503
▁BAI	-13504
▁Oll	-13505
▁Pal	-13506
▁Tha	-13507
▁VIT	-13508
▁clo	-13509
▁cog	-13510
▁cré	-13511
▁fhr	-13512
▁flu	-13513
▁lón	-13514
▁shé	-13515
achtú	-13516
ganas	-13517
▁Dong	-13518
▁Earc	-13519
▁Shas	-13520
▁cent	-13521
▁crea	-13522
▁drom	-13523
▁rópa	-13524
▁teen	-13525
aisíoc	-13526
aitinn	-13527
aoirsí	-13528
itical	-13529
ulaing	-13530
▁Blond	-13531
▁Ghlas	-13532
▁Pobal	-13533
▁Téacs	-13534
▁aicmí	-13535
▁chrit	-13536
▁corda	-13537
▁deonú	-13538
▁gcáin	-13539
▁mbéal	-13540
▁onóir	-13541
▁sásra	-13542
▁thrád	-13543
▁únaer	-13544
bhliana	-13545
ketball	-13546
labhraí	-13547
teideal	-13548
traithe	-13549
▁Chúram	-13550
▁Sasana	-13551
▁aeráid	-13552
▁daoibh	-13553
▁dúiche	-13554
▁fionnu	-13555
▁murach	-13556
▁nudity	-13557
▁rothaí	-13558
▁thurus	-13559
chasacha	-13560
uaineach	-13561
uraclaim	-13562
éiseacha	-13563
▁Dhírigh	-13564
▁Dleacht	-13565
▁Uilíoch	-13566
▁cliaint	-13567
▁cánacha	-13568
▁fíochán	-13569
▁gcultúr	-13570
▁hiompar	-13571
▁hionann	-13572
▁ildaite	-13573
▁mbóthar	-13574
▁mholtaí	-13575
▁míosúil	-13576
▁neamhní	-13577
▁rothair	-13578
▁Áirithe	-13579
▁Éilíonn	-13580
eochracha	-13581
thuiscint	-13582
▁Beartais	-13583
▁Lasmuigh	-13584
▁bhFeidhm	-13585
▁chúitimh	-13586
▁creidimh	-13587
▁dhréacht	-13588
▁díospóid	-13589
▁fhormáid	-13590
▁ionchorp	-13591
▁mharcáil	-13592
▁náisiúin	-13593
▁phiocadh	-13594
▁phróifíl	-13595
▁platanam	-13596
▁seandála	-13597
▁shíneadh	-13598
▁spriocdh	-13599
▁sterling	-13600
▁suiteála	-13601
▁traenála	-13602
▁tsláinte	-13603
▁turraing	-13604
Foundation	-13605
aeilgeoirí	-13606
bhuntáistí	-13607
íocaíochta	-13608
▁Brunettes	-13609
▁Gailearaí	-13610
▁cáithníní	-13611
▁deireanaí	-13612
▁dhualgais	-13613
▁dtionscal	-13614
▁díolúintí	-13615
▁páirceála	-13616
▁truailliú	-13617
▁uisceadán	-13618
ainníochtaí	-13619
oibríochtaí	-13620
▁Cleachtais	-13621
▁Gheimhridh	-13622
▁bhéarfaidh	-13623
▁déileálfar	-13624
▁eagarthóir	-13625
▁gcaithfear	-13626
▁leithscéal	-13627
▁Geolocation	-13628
▁solúbthacht	-13629
▁truaillithe	-13630
▁Cláraitheoir	-13631
▁cógaisíochta	-13632
▁chuimsitheach	-13633
▁Choinbhinsiúin	-13634
CL	-13635
OC	-13636
sw	-13637
tt	-13638
EAD	-13639
San	-13640
can	-13641
eff	-13642
han	-13643
ied	-13644
lua	-13645
lux	-13646
mor	-13647
not	-13648
trí	-13649
uin	-13650
Úil	-13651
▁8,	-13652
▁MS	-13653
▁PA	-13654
▁RA	-13655
▁TP	-13656
dars	-13657
list	-13658
orse	-13659
orta	-13660
tent	-13661
téir	-13662
uilt	-13663
unes	-13664
▁Bal	-13665
▁Her	-13666
▁Not	-13667
▁Pet	-13668
▁Pri	-13669
▁lot	-13670
▁mín	-13671
▁she	-13672
▁slé	-13673
▁úra	-13674
▁€10	-13675
ifear	-13676
ingin	-13677
irmin	-13678
istic	-13679
leann	-13680
prene	-13681
tóidh	-13682
ubetv	-13683
yster	-13684
órach	-13685
údair	-13686
▁1950	-13687
▁2030	-13688
▁Fada	-13689
▁Sola	-13690
▁VEID	-13691
▁abhc	-13692
▁bear	-13693
▁cons	-13694
▁grán	-13695
▁nimh	-13696
▁sona	-13697
Police	-13698
cheadú	-13699
eisire	-13700
eoimid	-13701
raingt	-13702
suithe	-13703
▁2010,	-13704
▁Pearl	-13705
▁Srian	-13706
▁aeist	-13707
▁hAirí	-13708
▁hiniú	-13709
▁linne	-13710
▁mórth	-13711
▁ngear	-13712
▁pátrú	-13713
earrtha	-13714
eration	-13715
illteán	-13716
lamuigh	-13717
quisite	-13718
rialtas	-13719
▁Albain	-13720
▁Daonla	-13721
▁Palace	-13722
▁chuile	-13723
▁crainn	-13724
▁feinim	-13725
▁fheist	-13726
▁fiacha	-13727
▁fiosrú	-13728
▁gcaill	-13729
▁mhúnla	-13730
▁miotal	-13731
▁phíosa	-13732
▁soiree	-13733
▁uaithi	-13734
▁winter	-13735
▁Bóithre	-13736
▁Glacadh	-13737
▁Iarrtar	-13738
▁Trádáil	-13739
▁Vítneam	-13740
▁fhocail	-13741
▁sheomra	-13742
▁sparkly	-13743
▁zombies	-13744
fhreagair	-13745
ghluaiste	-13746
iúscartha	-13747
olasaithe	-13748
vironment	-13749
▁Aireacht	-13750
▁Hospital	-13751
▁Iaráinis	-13752
▁Socraigh	-13753
▁bacainní	-13754
▁bhóthair	-13755
▁céatadán	-13756
▁dhíoltar	-13757
▁fhoirmiú	-13758
▁himeacht	-13759
▁lingerie	-13760
▁shaothar	-13761
chláraithe	-13762
iomportáil	-13763
oidhreacht	-13764
▁Déanaimid	-13765
▁Litríocht	-13766
▁aerárthaí	-13767
▁cheachtar	-13768
▁comhachta	-13769
▁gcinnfidh	-13770
▁inneachar	-13771
▁nítrigine	-13772
▁Strasbourg	-13773
▁Trasfhoirm	-13774
▁ardvoltais	-13775
▁forbraíodh	-13776
▁ghéarchéim	-13777
▁hoideachas	-13778
▁inniúlacht	-13779
▁ngéarchéim	-13780
▁scrúdaithe	-13781
▁sráideanna	-13782
▁theicniúla	-13783
stitiúideach	-13784
▁Institiúidí	-13785
▁chorpraithe	-13786
▁doimhneacht	-13787
▁gcaiteachas	-13788
▁neamhbhailí	-13789
▁shócmhainní	-13790
▁siamsaíocht	-13791
▁snáitheanna	-13792
▁toilteanach	-13793
▁Comhionannas	-13794
▁allmhairithe	-13795
▁oibríochtúil	-13796
▁thionscnaimh	-13797
▁neamhdhíreach	-13798
eabhairshláinte	-13799
▁Gníomhaíochtaí	-13800
▁thuairiscítear	-13801
▁críochnaitheach	-13802
09	-13803
FP	-13804
NI	-13805
NT	-13806
PH	-13807
Re	-13808
ds	-13809
”)	-13810
Ben	-13811
iah	-13812
nab	-13813
plá	-13814
▁63	-13815
▁Cy	-13816
▁Gc	-13817
▁IX	-13818
▁Tw	-13819
Aois	-13820
Arch	-13821
Daon	-13822
avid	-13823
fhir	-13824
gent	-13825
idhe	-13826
like	-13827
lána	-13828
mont	-13829
ogen	-13830
ovie	-13831
rath	-13832
róra	-13833
saor	-13834
ways	-13835
ínte	-13836
▁Mak	-13837
▁Mat	-13838
▁Mhí	-13839
▁Sur	-13840
▁lia	-13841
▁meá	-13842
▁phl	-13843
▁thá	-13844
▁€1.	-13845
Abrán	-13846
ealsú	-13847
etish	-13848
focal	-13849
éasta	-13850
▁Chón	-13851
▁Cois	-13852
▁Dark	-13853
▁Main	-13854
▁Mhan	-13855
▁Spar	-13856
▁Spás	-13857
▁Team	-13858
▁báid	-13859
▁cair	-13860
▁thal	-13861
▁thig	-13862
▁tint	-13863
▁toch	-13864
Wimble	-13865
iarnaí	-13866
imming	-13867
iontrá	-13868
lifier	-13869
ontact	-13870
reinge	-13871
téarma	-13872
uraidh	-13873
▁2007.	-13874
▁Beall	-13875
▁Moscó	-13876
▁Mótar	-13877
▁Scoir	-13878
▁bhreo	-13879
▁chrua	-13880
▁détha	-13881
▁gráin	-13882
▁mBéal	-13883
▁murab	-13884
▁péirí	-13885
▁thuig	-13886
▁traht	-13887
aimsire	-13888
tanford	-13889
▁Caibid	-13890
▁Chreid	-13891
▁Grúpaí	-13892
▁Museum	-13893
▁Rannán	-13894
▁Rothar	-13895
▁chóimh	-13896
▁clóite	-13897
▁cúigiú	-13898
▁fhoras	-13899
▁finger	-13900
▁fágáil	-13901
▁pósadh	-13902
▁singil	-13903
▁stiall	-13904
cmhainne	-13905
eirmeach	-13906
líochtaí	-13907
rannaigh	-13908
reabhadh	-13909
▁Chúnamh	-13910
▁Cuntais	-13911
▁Earnáil	-13912
▁Project	-13913
▁aerfort	-13914
▁aschuir	-13915
▁bhfadhb	-13916
▁buailte	-13917
▁dtrácht	-13918
▁fiontar	-13919
▁gcomhrá	-13920
▁ghreamú	-13921
▁labhair	-13922
▁mianach	-13923
▁préimhe	-13924
Wimbledon	-13925
namaíocht	-13926
éileálann	-13927
údaraithe	-13928
▁Ardaithe	-13929
▁Fuinneog	-13930
▁Stiúrtha	-13931
▁Swingers	-13932
▁aeistéit	-13933
▁comhbhrú	-13934
▁cuidíonn	-13935
▁foraoise	-13936
▁imoibriú	-13937
▁lárnacha	-13938
▁sainordú	-13939
▁síochána	-13940
▁tSeanaid	-13941
▁thoghadh	-13942
▁Airgeadas	-13943
▁Sionainne	-13944
▁Teaghlach	-13945
▁Toirmeasc	-13946
▁bhfeighil	-13947
▁coigeartú	-13948
▁gCaisleán	-13949
▁gcatagóir	-13950
▁hoibrithe	-13951
▁mairteola	-13952
▁mheascadh	-13953
▁ocsaigine	-13954
▁radaíocht	-13955
▁rialachas	-13956
▁réamhshoc	-13957
▁sháraíonn	-13958
▁snáithíní	-13959
▁taispeána	-13960
▁Mionsonraí	-13961
▁chreideann	-13962
▁eispéireas	-13963
▁fhisiciúil	-13964
▁forlíontaí	-13965
▁margaíocht	-13966
▁oiriúnacha	-13967
▁próiseálaí	-13968
▁thairgeann	-13969
▁trahtubetv	-13970
▁tsoláthair	-13971
mheasúnaithe	-13972
▁Friotaíocht	-13973
▁chliniciúil	-13974
▁dinimiciúil	-13975
▁mbraitheann	-13976
▁Bhraitheamar	-13977
▁cadhnaíochta	-13978
▁gcuideachtaí	-13979
▁hEagraíochta	-13980
▁neamhghníomh	-13981
▁Ardoideachais	-13982
▁Entertainment	-13983
▁Pharlaimintigh	-13984
▁baincéireachta	-13985
▁comhchoiteanna	-13986
%)	-13987
02	-13988
51	-13989
PN	-13990
XX	-13991
bl	-13992
13.	-13993
Lea	-13994
SCE	-13995
bor	-13996
dap	-13997
her	-13998
ÁLA	-13999
▁CV	-14000
▁FM	-14001
▁NU	-14002
Leag	-14003
ervé	-14004
ilia	-14005
illi	-14006
inst	-14007
love	-14008
phia	-14009
quer	-14010
rosc	-14011
ÍOMH	-14012
óine	-14013
▁Buí	-14014
▁FDA	-14015
▁Jan	-14016
▁Max	-14017
▁Sal	-14018
▁fin	-14019
▁mur	-14020
EANNA	-14021
aighe	-14022
atrún	-14023
emars	-14024
neoir	-14025
neáin	-14026
ÍOCHT	-14027
▁1940	-14028
▁1970	-14029
▁Barb	-14030
▁Bell	-14031
▁Caol	-14032
▁Cean	-14033
▁Chás	-14034
▁Ioma	-14035
▁Mart	-14036
▁Road	-14037
▁Seán	-14038
▁Tíre	-14039
▁gclú	-14040
▁gcon	-14041
▁hind	-14042
▁masc	-14043
▁mils	-14044
▁néar	-14045
▁snow	-14046
fhógra	-14047
imirce	-14048
ostóra	-14049
tachas	-14050
óidiam	-14051
úshlán	-14052
▁Anuas	-14053
▁Cúige	-14054
▁Hervé	-14055
▁Laoch	-14056
▁Sport	-14057
▁bhfág	-14058
▁bloic	-14059
▁gcabh	-14060
▁sciar	-14061
▁todóg	-14062
▁ultra	-14063
▁vacsa	-14064
aighdeá	-14065
eontais	-14066
iceacha	-14067
lándála	-14068
obhaigh	-14069
▁Double	-14070
▁Scrúdú	-14071
▁Talamh	-14072
▁bPáras	-14073
▁bharra	-14074
▁bhféad	-14075
▁bhréag	-14076
▁caipín	-14077
▁gCóras	-14078
▁giúmar	-14079
▁luafar	-14080
▁nGrúpa	-14081
▁puiblí	-14082
▁sceite	-14083
▁shlánú	-14084
▁sroich	-14085
▁tSiria	-14086
▁thaist	-14087
bhuailte	-14088
napshuim	-14089
▁Pictiúr	-14090
▁Soilsiú	-14091
▁Sraithe	-14092
▁Sucking	-14093
▁TUAIRIM	-14094
▁Tástála	-14095
▁amárach	-14096
▁fáltais	-14097
▁gaireas	-14098
▁gcearta	-14099
▁gcuairt	-14100
▁handjob	-14101
▁húdarás	-14102
▁lómhara	-14103
▁scagtha	-14104
▁síntiús	-14105
irmingham	-14106
▁Bronnadh	-14107
▁Chultúir	-14108
▁Faireach	-14109
▁claonadh	-14110
▁earraigh	-14111
▁fhorordú	-14112
▁ghairdín	-14113
▁neamhniú	-14114
▁oibreoir	-14115
▁Buaileann	-14116
▁Imleabhar	-14117
▁Laethanta	-14118
▁Tiontaigh	-14119
▁dtuigeann	-14120
▁exquisite	-14121
▁gcomórtas	-14122
▁intuigthe	-14123
▁tearmainn	-14124
▁aontachais	-14125
▁athstrucht	-14126
▁cainteanna	-14127
▁duaiseanna	-14128
▁shealbhóir	-14129
▁sonraítear	-14130
▁straitéise	-14131
▁tuarascála	-14132
onuilleogach	-14133
▁PressCuntas	-14134
▁chloisteáil	-14135
▁chomhroinnt	-14136
▁dlisteanach	-14137
▁grianchloch	-14138
▁láithreacht	-14139
▁Cobhsaíochta	-14140
▁gcomhlíontar	-14141
▁ceannaitheoir	-14142
▁fhéidearthacht	-14143
▁monatóireachta	-14144
▁Comhairliúcháin	-14145
▁feirmeoireachta	-14146
57	-14147
On	-14148
SI	-14149
Bhí	-14150
Mus	-14151
Rev	-14152
aos	-14153
eos	-14154
iol	-14155
ips	-14156
liv	-14157
lue	-14158
oin	-14159
▁02	-14160
▁04	-14161
▁Ap	-14162
▁fl	-14163
▁íd	-14164
▁€4	-14165
Cana	-14166
Gach	-14167
aran	-14168
ects	-14169
erry	-14170
fish	-14171
lúir	-14172
nate	-14173
onge	-14174
ouch	-14175
oves	-14176
tric	-14177
Éire	-14178
íris	-14179
óibh	-14180
▁202	-14181
▁@12	-14182
▁Alú	-14183
▁Bur	-14184
▁Lia	-14185
▁amú	-14186
▁mhá	-14187
▁túr	-14188
Plean	-14189
aidhe	-14190
akers	-14191
bhunú	-14192
eadar	-14193
iguet	-14194
immer	-14195
nneal	-14196
odach	-14197
oibrí	-14198
osúil	-14199
scann	-14200
óiriú	-14201
▁CNCM	-14202
▁Píob	-14203
▁clib	-14204
▁hÚcr	-14205
▁leab	-14206
▁shíl	-14207
▁strá	-14208
School	-14209
earing	-14210
álainn	-14211
íseach	-14212
▁2017)	-14213
▁Analy	-14214
▁Ceist	-14215
▁ENISA	-14216
▁Great	-14217
▁Joint	-14218
▁Laser	-14219
▁Leger	-14220
▁Meabh	-14221
▁Paris	-14222
▁Radio	-14223
▁Trans	-14224
▁caoin	-14225
▁chine	-14226
▁dhath	-14227
▁fhoch	-14228
▁fócas	-14229
▁leapa	-14230
▁rotha	-14231
▁Éagsú	-14232
airteag	-14233
amhairc	-14234
íoltóir	-14235
▁Bhreis	-14236
▁Coistí	-14237
▁Piguet	-14238
▁buíoch	-14239
▁chiona	-14240
▁chrann	-14241
▁custam	-14242
▁dearaí	-14243
▁gaolta	-14244
▁gheobh	-14245
▁gunnaí	-14246
▁mearbh	-14247
▁tIonad	-14248
adelphia	-14249
ependent	-14250
oilsithe	-14251
▁Aistriú	-14252
▁Deiridh	-14253
▁Dobhair	-14254
▁Lámhach	-14255
▁Muirear	-14256
▁Thrácht	-14257
▁abairtí	-14258
▁besplat	-14259
▁cathair	-14260
▁ciorcal	-14261
▁dTreoir	-14262
▁earnála	-14263
▁fucking	-14264
▁fíorais	-14265
▁hoibriú	-14266
▁póilíní	-14267
▁sreinge	-14268
▁éadaigh	-14269
ealadacha	-14270
mhachtana	-14271
scileanna	-14272
▁Achoimre	-14273
▁Aragonés	-14274
▁Byvision	-14275
▁Feicfidh	-14276
▁Mullaigh	-14277
▁Shanghai	-14278
▁ardluais	-14279
▁bainfidh	-14280
▁fairsing	-14281
▁gCeanada	-14282
▁gcodanna	-14283
▁gcroílár	-14284
▁gnóthach	-14285
▁mháistir	-14286
▁táibléad	-14287
ciallaíonn	-14288
dhleathach	-14289
iarrachtaí	-14290
▁Clibeanna	-14291
▁Céimeanna	-14292
▁Dhomhanda	-14293
▁Fhorásach	-14294
▁chumhdach	-14295
▁dearfacha	-14296
▁dtaispeán	-14297
▁duilleoga	-14298
▁folúntais	-14299
▁hairíonna	-14300
▁ráthaithe	-14301
▁uirbeacha	-14302
▁Deireanach	-14303
▁Grianghraf	-14304
▁Phearsanta	-14305
▁ceolchoirm	-14306
▁fhoilsithe	-14307
▁hionstraim	-14308
▁sealadacha	-14309
oigeartuithe	-14310
▁Corporation	-14311
▁bainistithe	-14312
▁bhronntanas	-14313
▁dátheangach	-14314
▁saighdiúirí	-14315
▁scríbhneoir	-14316
▁tairisceana	-14317
▁tiománaithe	-14318
▁gcomhlachtaí	-14319
▁réamhaisnéis	-14320
▁Feidhmeannacht	-14321
▁Athbhreithnithe	-14322
)—	-14323
BP	-14324
EV	-14325
Me	-14326
Pa	-14327
RG	-14328
Sk	-14329
TF	-14330
gs	-14331
rt	-14332
-18	-14333
/46	-14334
IAL	-14335
OIR	-14336
gia	-14337
mir	-14338
nic	-14339
riú	-14340
uma	-14341
▁67	-14342
▁68	-14343
▁IM	-14344
▁PU	-14345
▁Ra	-14346
▁el	-14347
▁“”	-14348
-200	-14349
Iúil	-14350
alsa	-14351
ange	-14352
ardú	-14353
eant	-14354
good	-14355
jack	-14356
kate	-14357
leog	-14358
tage	-14359
thes	-14360
ture	-14361
áise	-14362
ínit	-14363
úbal	-14364
únlú	-14365
▁187	-14366
▁Dod	-14367
▁Fla	-14368
▁Ias	-14369
▁Mor	-14370
▁Ser	-14371
▁Tío	-14372
▁Vol	-14373
▁Wal	-14374
▁gCo	-14375
▁gen	-14376
▁phu	-14377
▁óil	-14378
Royal	-14379
arúis	-14380
bhirt	-14381
ciúil	-14382
iteán	-14383
media	-14384
oston	-14385
porno	-14386
rator	-14387
works	-14388
órtha	-14389
▁Mála	-14390
▁Open	-14391
▁Plan	-14392
▁Suim	-14393
▁Téip	-14394
▁bior	-14395
▁hEag	-14396
▁huas	-14397
▁lagú	-14398
▁nigh	-14399
▁plúr	-14400
▁poib	-14401
▁temp	-14402
▁véar	-14403
aillte	-14404
ervice	-14405
ithris	-14406
rogall	-14407
uscair	-14408
▁2008,	-14409
▁Ceoil	-14410
▁Nádúr	-14411
▁Santa	-14412
▁Spins	-14413
▁Staff	-14414
▁Teens	-14415
▁Trump	-14416
▁VITIM	-14417
▁chosa	-14418
▁dtríú	-14419
▁foirc	-14420
▁forex	-14421
▁fruil	-14422
▁gnímh	-14423
▁rubar	-14424
▁seilf	-14425
▁waist	-14426
graíonn	-14427
intiúir	-14428
laochlú	-14429
oileáin	-14430
▁Blacks	-14431
▁Chaith	-14432
▁Reatha	-14433
▁Rugadh	-14434
▁Táillí	-14435
▁gciste	-14436
▁gradam	-14437
▁lionsa	-14438
▁stóras	-14439
▁sásraí	-14440
▁sásúil	-14441
Business	-14442
ealbhóir	-14443
eilteach	-14444
éibheann	-14445
▁Central	-14446
▁Cricket	-14447
▁Develop	-14448
▁Laitvia	-14449
▁Slabhra	-14450
▁Tiffany	-14451
▁caorach	-14452
▁cumainn	-14453
▁cumaisc	-14454
▁dhíchur	-14455
▁déanach	-14456
▁gabhála	-14457
▁hionaid	-14458
▁héilimh	-14459
▁idirthr	-14460
▁ngrúpaí	-14461
▁scairsh	-14462
▁súgradh	-14463
▁torainn	-14464
doiciméad	-14465
lachaithe	-14466
lábhaithe	-14467
ternative	-14468
ustralian	-14469
▁Iarnróid	-14470
▁Iarraidh	-14471
▁Prótacal	-14472
▁Reifrinn	-14473
▁Todhchaí	-14474
▁anailíse	-14475
▁chodladh	-14476
▁coláiste	-14477
▁diamonds	-14478
▁gléasadh	-14479
▁hÚcráine	-14480
▁leantach	-14481
▁meitheal	-14482
▁príomhth	-14483
▁sainithe	-14484
▁sainiúil	-14485
▁shanntar	-14486
ghabhálach	-14487
ionstraimí	-14488
▁Barcelona	-14489
▁aontaíonn	-14490
▁maighdean	-14491
▁mbaintear	-14492
▁Dramhaíola	-14493
▁Déanfaimid	-14494
▁Lúthchleas	-14495
▁Mheitheamh	-14496
▁aerárthach	-14497
▁ainmneoidh	-14498
▁coimeádáin	-14499
▁iomaíochas	-14500
▁muiníneach	-14501
▁stiallacha	-14502
▁dearbhaithe	-14503
▁spioradálta	-14504
▁héifeachtúil	-14505
▁éifeachtacha	-14506
englandcricket	-14507
▁Eachtraíochta	-14508
▁Fiontraíochta	-14509
▁Miontuairiscí	-14510
▁struchtúracha	-14511
▁meastóireachta	-14512
47	-14513
91	-14514
Má	-14515
NS	-14516
Sw	-14517
yr	-14518
AND	-14519
ARA	-14520
Cal	-14521
EST	-14522
HEN	-14523
INE	-14524
ITH	-14525
Joe	-14526
NBC	-14527
bit	-14528
hal	-14529
mac	-14530
uel	-14531
ÁIS	-14532
▁Há	-14533
▁SC	-14534
▁Vó	-14535
Acad	-14536
bank	-14537
comp	-14538
ello	-14539
eous	-14540
iers	-14541
iliú	-14542
isch	-14543
olic	-14544
osis	-14545
oung	-14546
rich	-14547
róda	-14548
rúil	-14549
shan	-14550
trol	-14551
zhen	-14552
ábla	-14553
ásaí	-14554
éime	-14555
▁10,	-14556
▁13.	-14557
▁20%	-14558
▁Bit	-14559
▁FBM	-14560
▁Ghr	-14561
▁Hid	-14562
▁LEE	-14563
▁OTI	-14564
▁Thr	-14565
▁Web	-14566
▁ciú	-14567
▁eir	-14568
▁mer	-14569
▁shl	-14570
bheag	-14571
ducts	-14572
eable	-14573
eball	-14574
eight	-14575
imary	-14576
imeád	-14577
inigh	-14578
laosc	-14579
mheán	-14580
oidis	-14581
staid	-14582
ulous	-14583
urity	-14584
▁(5),	-14585
▁Luas	-14586
▁Punt	-14587
▁Temp	-14588
▁bPar	-14589
▁cait	-14590
▁dinn	-14591
▁díon	-14592
▁foth	-14593
▁hAon	-14594
▁seal	-14595
aontas	-14596
eallta	-14597
fhásta	-14598
france	-14599
oileán	-14600
semble	-14601
uidéil	-14602
óidigh	-14603
▁1963,	-14604
▁Breat	-14605
▁Dlíth	-14606
▁Earth	-14607
▁Málta	-14608
▁ciona	-14609
▁dtiom	-14610
▁fhadú	-14611
▁féadf	-14612
▁lúide	-14613
▁rónta	-14614
▁tacar	-14615
▁tsain	-14616
▁tuile	-14617
iversal	-14618
lection	-14619
ologist	-14620
sanacht	-14621
▁Direct	-14622
▁Fórsaí	-14623
▁Lovers	-14624
▁Láimhs	-14625
▁Online	-14626
▁Sampla	-14627
▁aigéid	-14628
▁bhfoir	-14629
▁báistí	-14630
▁fíricí	-14631
▁gamers	-14632
▁oideas	-14633
▁ríocht	-14634
▁tuilte	-14635
▁Íocfar	-14636
European	-14637
tálfaidh	-14638
éalainne	-14639
íseachta	-14640
▁Ceapadh	-14641
▁Chultúr	-14642
▁General	-14643
▁Samhail	-14644
▁Shasana	-14645
▁bileoga	-14646
▁chruinn	-14647
▁dhíothú	-14648
▁gréasán	-14649
▁iascach	-14650
▁scamall	-14651
▁shaoire	-14652
▁toghadh	-14653
atamaitic	-14654
dóireacht	-14655
fhiontair	-14656
fhoillsiú	-14657
néireacht	-14658
tarraingt	-14659
éimhseach	-14660
▁amhábhar	-14661
▁cathaoir	-14662
▁chuimhne	-14663
▁craicinn	-14664
▁craoladh	-14665
▁fearainn	-14666
▁fiachais	-14667
▁míshásta	-14668
▁tuigfear	-14669
▁tástálaí	-14670
▁éireoidh	-14671
Daonáirimh	-14672
fheithicil	-14673
▁Mhíchumas	-14674
▁bailíocht	-14675
▁brataithe	-14676
▁chinnfear	-14677
▁chomhshoc	-14678
▁dearthóir	-14679
▁fhuinneog	-14680
▁fhéadfadh	-14681
▁leictreon	-14682
▁teachtadh	-14683
▁thabhaigh	-14684
▁tíolacadh	-14685
▁údaruithe	-14686
Christopher	-14687
▁Cúirteanna	-14688
▁Foirmeacha	-14689
▁Iniúchóirí	-14690
▁Scrúduithe	-14691
▁braitheann	-14692
▁chleachtas	-14693
▁chomhdháil	-14694
▁dochreidte	-14695
▁mhainníonn	-14696
▁mhonaróirí	-14697
▁rialaítear	-14698
▁countertops	-14699
▁dteaghlaigh	-14700
▁hiarmhairtí	-14701
▁inmharthana	-14702
▁inmheánaigh	-14703
▁mheánmhéide	-14704
▁míthreorach	-14705
▁toirmiscthe	-14706
▁contúirteach	-14707
▁fadtéarmacha	-14708
▁maighnéadach	-14709
▁teagmhálacha	-14710
▁leabharlainne	-14711
▁chomhaontaithe	-14712
▁cinnteoireachta	-14713
07	-14714
AU	-14715
Du	-14716
LL	-14717
Ma	-14718
gí	-14719
nc	-14720
tw	-14721
tó	-14722
-24	-14723
Air	-14724
ING	-14725
OLA	-14726
Pat	-14727
but	-14728
gie	-14729
iap	-14730
ils	-14731
[...]
