<unk>	0
<s>	0
</s>	0
▁a	-0
ch	-1
ea	-2
ai	-3
▁d	-4
▁s	-5
in	-6
th	-7
na	-8
ir	-9
mh	-10
▁l	-11
▁,	-12
▁an	-13
ta	-14
bh	-15
is	-16
▁g	-17
▁f	-18
dh	-19
▁c	-20
▁ag	-21
ar	-22
▁.	-23
il	-24
on	-25
▁n	-26
▁ch	-27
▁t	-28
▁m	-29
us	-30
▁i	-31
▁le	-32
ío	-33
▁agus	-34
▁ar	-35
an	-36
ach	-37
▁bh	-38
▁na	-39
each	-40
ei	-41
air	-42
▁C	-43
iú	-44
▁)	-45
▁(	-46
or	-47
▁r	-48
▁A	-49
id	-50
al	-51
▁b	-52
eo	-53
ra	-54
gh	-55
la	-56
ear	-57
oi	-58
▁de	-59
the	-60
ean	-61
éa	-62
▁chu	-63
ain	-64
▁in	-65
▁nó	-66
omh	-67
ais	-68
▁go	-69
áil	-70
▁T	-71
▁p	-72
▁1	-73
▁S	-74
▁h	-75
íoch	-76
te	-77
aidh	-78
▁gc	-79
tha	-80
eidh	-81
inn	-82
▁do	-83
▁sin	-84
▁dh	-85
▁B	-86
▁é	-87
▁I	-88
án	-89
os	-90
▁2	-91
áin	-92
▁bhf	-93
▁seo	-94
as	-95
it	-96
▁fa	-97
eas	-98
▁fh	-99
▁is	-100
▁th	-101
tá	-102
ithe	-103
▁F	-104
ine	-105
ig	-106
▁chun	-107
aithe	-108
ás	-109
éir	-110
▁á	-111
▁D	-112
im	-113
▁leis	-114
▁M	-115
óir	-116
éad	-117
▁sa	-118
ith	-119
▁tr	-120
eann	-121
om	-122
▁L	-123
▁aon	-124
ail	-125
eachta	-126
ad	-127
ion	-128
ial	-129
uil	-130
▁mh	-131
cht	-132
ur	-133
▁den	-134
eacht	-135
ol	-136
eadh	-137
▁:	-138
eag	-139
íon	-140
ist	-141
▁Ch	-142
éan	-143
irt	-144
▁R	-145
▁sé	-146
▁sh	-147
▁P	-148
aigh	-149
eith	-150
▁ó	-151
éid	-152
ca	-153
far	-154
▁e	-155
un	-156
aid	-157
▁mar	-158
▁du	-159
lach	-160
▁faoi	-161
ile	-162
▁N	-163
íochta	-164
tear	-165
▁gh	-166
▁u	-167
tar	-168
▁G	-169
áid	-170
▁E	-171
lt	-172
re	-173
li	-174
nach	-175
le	-176
▁sc	-177
ín	-178
oir	-179
faidh	-180
íomh	-181
▁mb	-182
éana	-183
▁bhfuil	-184
▁cu	-185
se	-186
íos	-187
imh	-188
tas	-189
áth	-190
ead	-191
ona	-192
íonn	-193
rú	-194
▁;	-195
ic	-196
oin	-197
idh	-198
eal	-199
▁atá	-200
▁comh	-201
eamh	-202
airt	-203
eanna	-204
▁ú	-205
adh	-206
▁ina	-207
▁dá	-208
raí	-209
eidhm	-210
aí	-211
▁20	-212
ann	-213
▁3	-214
iún	-215
aith	-216
ór	-217
eoir	-218
áir	-219
íocht	-220
ce	-221
▁ná	-222
igh	-223
oil	-224
éanamh	-225
▁19	-226
▁"	-227
▁san	-228
▁eile	-229
sc	-230
▁-	-231
▁bheith	-232
ord	-233
▁chur	-234
▁nd	-235
▁duine	-236
aim	-237
▁alt	-238
▁cr	-239
aidir	-240
er	-241
▁lea	-242
fh	-243
oinn	-244
▁dhéanamh	-245
ár	-246
▁don	-247
▁maidir	-248
▁An	-249
ír	-250
lí	-251
▁fé	-252
▁dt	-253
▁ta	-254
int	-255
▁—	-256
▁am	-257
aint	-258
eir	-259
▁Tá	-260
▁ha	-261
sáid	-262
uair	-263
▁chomh	-264
taí	-265
oib	-266
ire	-267
▁réir	-268
▁amh	-269
dar	-270
anna	-271
▁tá	-272
ao	-273
▁st	-274
▁nach	-275
oc	-276
oim	-277
▁air	-278
óg	-279
éar	-280
▁ph	-281
▁bheidh	-282
ainn	-283
nas	-284
tais	-285
▁Is	-286
▁ach	-287
▁as	-288
▁lena	-289
▁lá	-290
▁tha	-291
éidir	-292
▁O	-293
ála	-294
orp	-295
alt	-296
▁iar	-297
isiún	-298
▁4	-299
eart	-300
▁gach	-301
abh	-302
iste	-303
▁féidir	-304
▁Acht	-305
iúil	-306
lacha	-307
ís	-308
ian	-309
uir	-310
▁trí	-311
níomh	-312
if	-313
lu	-314
▁/	-315
▁for	-316
ialach	-317
▁5	-318
▁U	-319
▁no	-320
▁201	-321
ua	-322
ia	-323
▁su	-324
▁ní	-325
▁iom	-326
▁níos	-327
bhar	-328
ún	-329
▁leith	-330
ghaidh	-331
acht	-332
ru	-333
▁faoin	-334
óirí	-335
▁o	-336
éim	-337
ró	-338
▁chuid	-339
en	-340
oimh	-341
teach	-342
▁gcás	-343
niú	-344
▁gur	-345
éas	-346
▁mó	-347
ib	-348
ál	-349
▁tú	-350
▁gC	-351
▁úsáid	-352
rí	-353
omhair	-354
íoc	-355
aon	-356
ogh	-357
úil	-358
de	-359
uid	-360
eid	-361
íol	-362
▁ion	-363
tr	-364
▁tar	-365
aineann	-366
isce	-367
aoine	-368
▁feidhm	-369
▁déan	-370
ras	-371
▁áir	-372
lán	-373
▁lu	-374
▁si	-375
▁éis	-376
tach	-377
▁”	-378
▁Bh	-379
all	-380
eirbh	-381
eacha	-382
▁so	-383
bhairt	-384
▁ann	-385
▁iad	-386
eist	-387
isc	-388
▁cú	-389
▁áit	-390
▁haghaidh	-391
▁tA	-392
▁dta	-393
▁im	-394
irteag	-395
nó	-396
rach	-397
ige	-398
▁cl	-399
▁“	-400
áirt	-401
▁dó	-402
eimh	-403
éadfaidh	-404
ítear	-405
ma	-406
ing	-407
gead	-408
ud	-409
ath	-410
▁ón	-411
▁son	-412
éimh	-413
ios	-414
▁Ar	-415
▁beidh	-416
ise	-417
▁Ní	-418
irteagal	-419
ph	-420
dir	-421
fidh	-422
▁thabhairt	-423
▁6	-424
obh	-425
▁amháin	-426
ge	-427
las	-428
álacha	-429
chta	-430
▁Aon	-431
oláth	-432
00	-433
▁roimh	-434
omhairle	-435
oibr	-436
▁H	-437
ád	-438
▁údar	-439
íochtaí	-440
ibh	-441
iar	-442
da	-443
▁sp	-444
né	-445
▁mbeidh	-446
ug	-447
iom	-448
▁um	-449
▁ac	-450
▁ath	-451
oif	-452
▁gcomh	-453
▁bli	-454
uithe	-455
onn	-456
og	-457
isin	-458
éal	-459
▁méid	-460
▁gan	-461
am	-462
oth	-463
eang	-464
▁]	-465
▁rá	-466
▁[	-467
éimhse	-468
▁br	-469
▁amach	-470
▁siad	-471
ac	-472
eic	-473
es	-474
▁idir	-475
▁iona	-476
nn	-477
▁isteach	-478
ip	-479
éag	-480
íne	-481
anta	-482
▁cos	-483
ich	-484
▁ng	-485
sh	-486
eoirí	-487
nadh	-488
▁thar	-489
▁chl	-490
▁fáil	-491
asc	-492
▁ord	-493
▁saor	-494
artha	-495
eap	-496
▁Th	-497
▁meas	-498
dú	-499
▁leas	-500
tú	-501
ánach	-502
laíonn	-503
▁la	-504
▁arna	-505
▁’	-506
▁rud	-507
eirbhís	-508
sa	-509
▁deimh	-510
um	-511
oifig	-512
▁má	-513
earr	-514
eil	-515
ite	-516
▁Airteagal	-517
▁Sc	-518
ob	-519
at	-520
onar	-521
▁Ph	-522
▁fhor	-523
▁mór	-524
▁7	-525
acha	-526
cadh	-527
achta	-528
▁féin	-529
radh	-530
cháin	-531
▁cuid	-532
▁Rialach	-533
eabh	-534
▁pr	-535
naí	-536
▁neamh	-537
orn	-538
íodh	-539
aighde	-540
▁acu	-541
▁tréimhse	-542
lan	-543
▁bhí	-544
eachtaí	-545
tát	-546
▁cinn	-547
isiúnta	-548
▁nua	-549
fear	-550
raithe	-551
▁có	-552
▁fr	-553
▁gr	-554
st	-555
íse	-556
▁200	-557
▁tAire	-558
aibh	-559
▁leanas	-560
▁daoine	-561
ana	-562
oimisiún	-563
uar	-564
órt	-565
eall	-566
▁gá	-567
ionsc	-568
untas	-569
raítear	-570
▁ts	-571
táit	-572
áirg	-573
nithe	-574
▁cur	-575
▁Uimh	-576
alls	-577
▁bun	-578
eideal	-579
ratas	-580
▁gníomh	-581
▁v	-582
▁léir	-583
lacht	-584
aist	-585
liain	-586
ost	-587
▁maith	-588
ógra	-589
▁Aire	-590
▁In	-591
▁rialach	-592
ill	-593
aisné	-594
▁ceann	-595
▁chuig	-596
▁fho	-597
▁Eorp	-598
▁Ag	-599
▁críoch	-600
éile	-601
▁EN	-602
▁cuir	-603
ter	-604
láin	-605
▁ain	-606
▁fháil	-607
▁bhaineann	-608
ialta	-609
▁airgead	-610
CH	-611
▁8	-612
▁sna	-613
eola	-614
ll	-615
laim	-616
▁iarr	-617
▁Á	-618
ois	-619
ibé	-620
chu	-621
íobh	-622
pa	-623
▁?	-624
oirm	-625
▁&	-626
▁bhfeidhm	-627
sú	-628
▁cibé	-629
ná	-630
ait	-631
iúir	-632
ro	-633
▁oifig	-634
▁aisce	-635
eis	-636
▁aige	-637
▁sonraí	-638
▁fo	-639
▁chú	-640
▁ábhar	-641
▁linn	-642
áis	-643
▁Déan	-644
uill	-645
▁cial	-646
▁'	-647
▁0	-648
▁bp	-649
▁raibh	-650
ích	-651
▁más	-652
▁éag	-653
▁agh	-654
▁bhun	-655
▁Beidh	-656
▁aghaidh	-657
lacadh	-658
éirí	-659
aire	-660
airm	-661
íoca	-662
▁leat	-663
▁í	-664
▁hA	-665
ins	-666
earta	-667
▁ionad	-668
iúla	-669
oinníol	-670
▁cead	-671
▁mo	-672
▁lean	-673
▁nuair	-674
luich	-675
▁leag	-676
eachas	-677
▁9	-678
▁dtí	-679
▁or	-680
▁É	-681
▁Rialachán	-682
et	-683
ara	-684
▁dhá	-685
▁uair	-686
óidh	-687
▁hE	-688
▁cru	-689
▁dhéan	-690
▁éif	-691
▁10	-692
réir	-693
éanna	-694
el	-695
arr	-696
▁Gh	-697
▁féadfaidh	-698
EA	-699
▁ndéan	-700
lamh	-701
▁rial	-702
▁bhr	-703
▁dul	-704
▁dtag	-705
▁rogh	-706
bairt	-707
▁fre	-708
▁porn	-709
▁ainm	-710
▁áirithe	-711
▁ans	-712
ainist	-713
▁freisin	-714
▁seirbhís	-715
▁íoc	-716
▁bhliain	-717
op	-718
▁Sa	-719
ct	-720
ilt	-721
▁oibr	-722
▁Tr	-723
▁Air	-724
▁ba	-725
▁dáta	-726
▁líne	-727
▁ordú	-728
lac	-729
mhair	-730
íl	-731
aing	-732
land	-733
inneadh	-734
nna	-735
▁ré	-736
▁dlí	-737
▁ciallaíonn	-738
▁dír	-739
▁ndáil	-740
ós	-741
arlaim	-742
cha	-743
oinnt	-744
eath	-745
AI	-746
chuí	-747
rom	-748
▁chéad	-749
▁mé	-750
nú	-751
inne	-752
eán	-753
▁mbaineann	-754
úirt	-755
iúr	-756
oinne	-757
▁Mh	-758
laidh	-759
▁Comh	-760
arlaimint	-761
thaí	-762
oils	-763
▁amhlaidh	-764
▁cion	-765
▁Má	-766
árú	-767
aíochta	-768
▁sórt	-769
▁St	-770
oiste	-771
▁údarás	-772
lío	-773
▁V	-774
▁sí	-775
▁W	-776
▁deir	-777
▁fearr	-778
▁Féadfaidh	-779
▁dtagraítear	-780
oic	-781
álta	-782
▁ard	-783
▁bith	-784
aile	-785
▁iomchuí	-786
aisnéis	-787
ne	-788
íor	-789
▁tráth	-790
▁ais	-791
▁eo	-792
aoin	-793
éadf	-794
▁mír	-795
▁críocha	-796
ora	-797
▁Mar	-798
▁bliana	-799
éil	-800
lú	-801
io	-802
ábh	-803
áthair	-804
ireann	-805
aistigh	-806
▁iarratas	-807
▁deimhnithe	-808
ard	-809
éadfar	-810
ón	-811
▁feidhme	-812
▁12	-813
orpa	-814
▁lagh	-815
▁Balls	-816
▁cheart	-817
char	-818
▁Le	-819
▁ár	-820
darás	-821
uilleadh	-822
▁páirt	-823
arc	-824
lár	-825
▁cheann	-826
ura	-827
▁gnó	-828
ga	-829
▁mB	-830
aip	-831
▁stiúir	-832
▁hEorpa	-833
táil	-834
▁clár	-835
lo	-836
eoidh	-837
áirgí	-838
▁bhaint	-839
rá	-840
iúnach	-841
▁laistigh	-842
▁os	-843
▁shon	-844
pháirt	-845
alta	-846
▁fógra	-847
ineál	-848
ríomh	-849
▁gcomhréir	-850
lais	-851
earraí	-852
ram	-853
ID	-854
iona	-855
▁iomlán	-856
únas	-857
▁dea	-858
▁roinnt	-859
ríbh	-860
aighdeán	-861
▁tu	-862
aill	-863
▁leor	-864
ent	-865
▁soláth	-866
náth	-867
namh	-868
▁18	-869
únach	-870
▁bhfo	-871
▁Ú	-872
áiste	-873
osta	-874
éamh	-875
▁Aontais	-876
▁con	-877
oinníollacha	-878
▁fu	-879
▁leo	-880
eana	-881
▁Cuntas	-882
úir	-883
▁inn	-884
▁mheas	-885
ré	-886
oig	-887
▁haon	-888
▁láith	-889
thóir	-890
▁Leas	-891
ag	-892
▁duit	-893
▁díreach	-894
▁Sh	-895
▁feadh	-896
ioc	-897
▁aist	-898
aise	-899
oiblí	-900
iachta	-901
oimisin	-902
▁bu	-903
taithe	-904
▁luach	-905
▁éagsú	-906
líonadh	-907
▁chos	-908
eor	-909
óid	-910
tóir	-911
ásta	-912
eofar	-913
▁oir	-914
éanann	-915
▁Coimisiún	-916
▁síos	-917
▁Achta	-918
▁chóir	-919
mhacht	-920
▁@	-921
ed	-922
▁chr	-923
lean	-924
oll	-925
tála	-926
iaidh	-927
ách	-928
▁forálacha	-929
úis	-930
▁láthair	-931
▁éifeacht	-932
bair	-933
reith	-934
▁For	-935
▁CE	-936
▁tS	-937
úr	-938
iúch	-939
áirítear	-940
oime	-941
▁chéile	-942
▁Eorpach	-943
óis	-944
▁ríomh	-945
mhainn	-946
ong	-947
▁ii	-948
aoi	-949
▁AE	-950
eicn	-951
ríbhinn	-952
▁cuideachta	-953
aic	-954
▁Fu	-955
▁sr	-956
▁dear	-957
▁sain	-958
▁dl	-959
▁cluich	-960
úl	-961
CHT	-962
▁scéim	-963
▁mhéid	-964
ears	-965
▁scr	-966
▁tionsc	-967
par	-968
▁mí	-969
ófar	-970
▁gcuid	-971
amh	-972
onc	-973
od	-974
gairt	-975
iúint	-976
aif	-977
▁Fh	-978
Acht	-979
▁Iar	-980
▁teacht	-981
▁tos	-982
aol	-983
▁Agus	-984
▁nós	-985
▁Chun	-986
úint	-987
▁Stát	-988
▁foir	-989
▁Ard	-990
▁sholáth	-991
tal	-992
oimeád	-993
imp	-994
ús	-995
istí	-996
▁tuair	-997
▁Ba	-998
▁dú	-999
▁seirbhísí	-1000
ordú	-1001
▁ailt	-1002
▁téar	-1003
▁mhí	-1004
▁Cuir	-1005
láinte	-1006
▁ghabh	-1007
▁15	-1008
aítear	-1009
oicim	-1010
úsáid	-1011
▁suas	-1012
▁Airgead	-1013
▁w	-1014
ant	-1015
▁Ó	-1016
▁aistr	-1017
▁comhair	-1018
tae	-1019
ladh	-1020
ealbh	-1021
▁11	-1022
▁to	-1023
aireacht	-1024
▁rann	-1025
▁iarraidh	-1026
ocht	-1027
aisc	-1028
▁mbeadh	-1029
eachtain	-1030
▁infh	-1031
▁oib	-1032
ot	-1033
▁Rial	-1034
pla	-1035
éarla	-1036
▁chead	-1037
▁déanfar	-1038
luais	-1039
▁íoca	-1040
▁leath	-1041
▁gheall	-1042
fa	-1043
▁imeachta	-1044
▁beag	-1045
▁uisce	-1046
▁gt	-1047
▁Lch	-1048
▁Sp	-1049
▁!	-1050
▁eis	-1051
maí	-1052
▁lé	-1053
▁cheap	-1054
eisteanna	-1055
irtear	-1056
reán	-1057
▁éagsúla	-1058
▁fén	-1059
▁mhír	-1060
ragh	-1061
▁seachas	-1062
▁monar	-1063
▁gComhairle	-1064
▁dtaobh	-1065
▁–	-1066
▁Seo	-1067
▁líon	-1068
▁áireamh	-1069
eagra	-1070
ugtar	-1071
▁ceart	-1072
▁tair	-1073
ruth	-1074
ers	-1075
▁Ach	-1076
▁céanna	-1077
éadfadh	-1078
▁roimhe	-1079
▁Ballstáit	-1080
▁De	-1081
uarasc	-1082
▁ghlacadh	-1083
oimisinéirí	-1084
▁bhrí	-1085
▁trád	-1086
▁riachta	-1087
▁aic	-1088
▁cáil	-1089
aisp	-1090
▁tion	-1091
▁airgeadais	-1092
ailt	-1093
▁pé	-1094
▁199	-1095
▁dhu	-1096
iomlán	-1097
▁Tw	-1098
íoctha	-1099
▁siú	-1100
▁éil	-1101
eachais	-1102
▁k	-1103
▁dóibh	-1104
▁AN	-1105
iúcháin	-1106
▁coinníollacha	-1107
ust	-1108
▁Dh	-1109
▁amp	-1110
▁thr	-1111
eagh	-1112
▁Airgeadais	-1113
▁suim	-1114
íní	-1115
▁ur	-1116
ailte	-1117
▁féach	-1118
ianaise	-1119
AR	-1120
▁192	-1121
▁rith	-1122
eala	-1123
▁chó	-1124
▁fad	-1125
▁Béarla	-1126
▁mura	-1127
ábháil	-1128
thu	-1129
saí	-1130
▁II	-1131
eannach	-1132
altaí	-1133
iscint	-1134
▁193	-1135
ims	-1136
eáin	-1137
chair	-1138
mheas	-1139
▁ghnó	-1140
▁leibh	-1141
iúin	-1142
▁réim	-1143
▁obair	-1144
chur	-1145
nacht	-1146
▁bhfor	-1147
▁cuí	-1148
▁Chomh	-1149
▁gcó	-1150
ceáil	-1151
▁tor	-1152
onas	-1153
▁pland	-1154
tion	-1155
reise	-1156
achtaí	-1157
IN	-1158
▁Fuaim	-1159
▁rialacha	-1160
osca	-1161
▁196	-1162
eatha	-1163
aiteach	-1164
eisialta	-1165
▁náisiúnta	-1166
▁J	-1167
ealach	-1168
iv	-1169
▁Ga	-1170
▁talamh	-1171
▁táirgí	-1172
▁físe	-1173
earsanta	-1174
▁Tuilleadh	-1175
▁30	-1176
▁Cu	-1177
▁197	-1178
▁thu	-1179
eagmh	-1180
rúpa	-1181
▁háir	-1182
▁tríd	-1183
▁bhíonn	-1184
éis	-1185
▁déanta	-1186
reach	-1187
▁13	-1188
▁Chomhairle	-1189
▁14	-1190
inear	-1191
▁ráta	-1192
ló	-1193
▁lae	-1194
str	-1195
LA	-1196
imist	-1197
▁Fuaimniú	-1198
TH	-1199
ifig	-1200
uirear	-1201
aird	-1202
▁00	-1203
▁ca	-1204
▁min	-1205
▁cumh	-1206
líon	-1207
▁bra	-1208
▁déanfaidh	-1209
▁iníoctha	-1210
ort	-1211
racha	-1212
▁ceap	-1213
éasáin	-1214
▁baint	-1215
▁ceang	-1216
▁ansin	-1217
aíochtaí	-1218
▁dhaoine	-1219
inearálta	-1220
íche	-1221
▁chinn	-1222
raíonn	-1223
▁doicim	-1224
ána	-1225
uile	-1226
▁domh	-1227
▁K	-1228
acháin	-1229
éadú	-1230
oiliú	-1231
▁áitiúil	-1232
▁Sceideal	-1233
aig	-1234
▁Na	-1235
óra	-1236
▁Cr	-1237
aois	-1238
IS	-1239
▁of	-1240
▁íos	-1241
▁%	-1242
oilsiú	-1243
▁fheidhm	-1244
MH	-1245
▁cé	-1246
igean	-1247
▁tAcht	-1248
▁ghníomh	-1249
▁16	-1250
ontae	-1251
▁háirithe	-1252
▁Br	-1253
dáil	-1254
eáil	-1255
▁soc	-1256
▁tagairt	-1257
ocal	-1258
dach	-1259
ogra	-1260
▁pró	-1261
▁Faoi	-1262
▁eolas	-1263
cmhainn	-1264
▁Go	-1265
aontú	-1266
▁orthu	-1267
ríobh	-1268
▁rialacháin	-1269
▁inmh	-1270
▁chion	-1271
▁Bord	-1272
eac	-1273
▁modh	-1274
▁Chuid	-1275
caoil	-1276
uaire	-1277
▁teor	-1278
gn	-1279
gadh	-1280
▁cum	-1281
reabh	-1282
▁uile	-1283
▁cheang	-1284
▁lú	-1285
▁deimhniú	-1286
eilge	-1287
▁freag	-1288
bhreith	-1289
iúrthóir	-1290
árta	-1291
▁réas	-1292
náisiúnta	-1293
Ch	-1294
▁bliain	-1295
raf	-1296
▁tug	-1297
▁Pharlaimint	-1298
▁chuideachta	-1299
áit	-1300
▁tás	-1301
▁scair	-1302
ior	-1303
aimh	-1304
llmh	-1305
▁iasc	-1306
aíocht	-1307
eirbhíse	-1308
▁leibhéal	-1309
▁CU	-1310
reag	-1311
▁leic	-1312
▁tras	-1313
sp	-1314
▁uir	-1315
laigh	-1316
▁leasú	-1317
▁dhéanann	-1318
omp	-1319
aite	-1320
raghas	-1321
▁agat	-1322
▁lios	-1323
iteach	-1324
ruithe	-1325
áirge	-1326
▁bainist	-1327
IR	-1328
▁Coimisinéirí	-1329
▁tal	-1330
eat	-1331
naithe	-1332
▁chuir	-1333
raing	-1334
▁riar	-1335
▁oifigeach	-1336
íniú	-1337
▁diú	-1338
ointe	-1339
▁anseo	-1340
uigh	-1341
▁Oifig	-1342
chtanna	-1343
▁Comhairle	-1344
▁tSín	-1345
achtach	-1346
▁Ionc	-1347
▁mion	-1348
▁chloig	-1349
údar	-1350
▁bhu	-1351
▁breith	-1352
▁deireadh	-1353
▁Ná	-1354
▁aer	-1355
▁leictr	-1356
obail	-1357
▁sholáthar	-1358
iam	-1359
ómhair	-1360
▁limist	-1361
aib	-1362
ice	-1363
▁bearta	-1364
▁speisialta	-1365
úin	-1366
bhair	-1367
▁aith	-1368
eithic	-1369
straim	-1370
oit	-1371
▁195	-1372
▁bunaithe	-1373
abháil	-1374
▁saoth	-1375
▁gréasáin	-1376
cam	-1377
áip	-1378
póir	-1379
íola	-1380
▁áirith	-1381
▁rinneadh	-1382
gid	-1383
iúid	-1384
eanas	-1385
▁cánach	-1386
▁príomh	-1387
uarascáil	-1388
áidí	-1389
otha	-1390
rúdú	-1391
▁mian	-1392
sí	-1393
org	-1394
stit	-1395
▁chuige	-1396
iail	-1397
othrom	-1398
▁Stáit	-1399
▁scríbhinn	-1400
▁Chéad	-1401
▁beart	-1402
tí	-1403
▁taca	-1404
▁hiomlán	-1405
me	-1406
▁17	-1407
▁Cé	-1408
▁25	-1409
láth	-1410
aitheoir	-1411
uim	-1412
ment	-1413
iangh	-1414
achtar	-1415
▁ndear	-1416
ul	-1417
éanaí	-1418
▁Corp	-1419
▁ghabhann	-1420
▁hÉ	-1421
antúil	-1422
▁déanamh	-1423
faí	-1424
▁creid	-1425
róid	-1426
▁198	-1427
▁cinneadh	-1428
▁ndéanfar	-1429
ág	-1430
▁ís	-1431
úla	-1432
ut	-1433
órais	-1434
▁pearsanta	-1435
▁thug	-1436
▁athrú	-1437
eam	-1438
▁dif	-1439
▁chás	-1440
itheoir	-1441
▁Fómhair	-1442
▁Eorpaigh	-1443
▁CUID	-1444
▁ráit	-1445
▁Roimh	-1446
▁gcéad	-1447
lachtaí	-1448
▁cuireadh	-1449
▁féachaint	-1450
AN	-1451
ss	-1452
ang	-1453
▁thos	-1454
▁Nuair	-1455
och	-1456
stitiúid	-1457
eog	-1458
▁vó	-1459
▁liún	-1460
údarás	-1461
▁thóg	-1462
alar	-1463
eireadh	-1464
leag	-1465
▁iomp	-1466
▁dhuine	-1467
inniú	-1468
▁oiriúnach	-1469
alg	-1470
▁HD	-1471
nais	-1472
▁fiú	-1473
▁cabh	-1474
▁soil	-1475
▁gcion	-1476
▁faisnéis	-1477
▁lán	-1478
aipit	-1479
▁eas	-1480
▁staid	-1481
eiceáil	-1482
ideachais	-1483
▁Co	-1484
▁Ceisteanna	-1485
obal	-1486
áide	-1487
▁dar	-1488
▁measc	-1489
▁oibre	-1490
▁aonair	-1491
uas	-1492
▁díol	-1493
▁taobh	-1494
▁teagmh	-1495
▁téarma	-1496
eon	-1497
▁ear	-1498
eannas	-1499
▁suíomh	-1500
laí	-1501
▁24	-1502
▁cail	-1503
▁Ioncaim	-1504
lann	-1505
▁000	-1506
▁Más	-1507
▁dhéanfaidh	-1508
únú	-1509
▁194	-1510
▁bhain	-1511
▁chlár	-1512
aisnéise	-1513
iu	-1514
scoil	-1515
▁rogha	-1516
▁pl	-1517
▁cad	-1518
▁Soláth	-1519
▁déanaí	-1520
▁hÉireann	-1521
▁togh	-1522
imid	-1523
▁Bhí	-1524
eanta	-1525
ianta	-1526
▁chomhlíonadh	-1527
ub	-1528
▁the	-1529
▁chum	-1530
omharc	-1531
ustaim	-1532
eachtas	-1533
▁ndiaidh	-1534
▁plandaí	-1535
▁ábhartha	-1536
ex	-1537
▁muid	-1538
▁Roimhe	-1539
iarratas	-1540
thar	-1541
cs	-1542
▁Com	-1543
▁lua	-1544
bharfar	-1545
iocfaidh	-1546
▁dhíol	-1547
▁Déanfar	-1548
aíonn	-1549
▁poiblí	-1550
áilte	-1551
▁cóir	-1552
▁griangh	-1553
▁Déanfaidh	-1554
▁Rialacháin	-1555
▁bP	-1556
aine	-1557
▁díobh	-1558
▁Eur	-1559
▁iúl	-1560
aibid	-1561
róidh	-1562
▁Cl	-1563
rích	-1564
tair	-1565
▁fás	-1566
▁huaire	-1567
▁choinne	-1568
▁údaráis	-1569
mhar	-1570
ratais	-1571
▁dháta	-1572
▁di	-1573
thair	-1574
▁2017	-1575
eet	-1576
▁rialú	-1577
léas	-1578
▁Cli	-1579
▁ionta	-1580
aitheamh	-1581
▁2016	-1582
▁Treoir	-1583
▁táirge	-1584
aireachta	-1585
OR	-1586
raith	-1587
▁teas	-1588
▁fhaisnéis	-1589
▁tóg	-1590
othabh	-1591
▁dochar	-1592
▁féadfar	-1593
▁comhalta	-1594
US	-1595
odh	-1596
▁31	-1597
▁inar	-1598
▁Chúirt	-1599
▁dhiaidh	-1600
▁dteideal	-1601
▁laghad	-1602
onarcha	-1603
aispeáin	-1604
ism	-1605
▁cluichí	-1606
IL	-1607
▁AG	-1608
▁NA	-1609
▁las	-1610
▁nár	-1611
▁fhoir	-1612
▁scoil	-1613
and	-1614
▁21	-1615
eachad	-1616
ochtain	-1617
▁cosúil	-1618
▁gceist	-1619
▁ghnáth	-1620
chán	-1621
tail	-1622
onradh	-1623
▁fásta	-1624
itter	-1625
▁bain	-1626
fheidhm	-1627
▁mhaith	-1628
▁chosaint	-1629
uth	-1630
fhéadfadh	-1631
▁láithreán	-1632
du	-1633
ala	-1634
▁chineál	-1635
▁Dá	-1636
▁dí	-1637
▁bheas	-1638
▁earraí	-1639
20	-1640
▁Son	-1641
ainne	-1642
▁2018	-1643
▁gcuir	-1644
▁áirithiú	-1645
nar	-1646
▁thor	-1647
▁tsórt	-1648
eicneola	-1649
▁ceadúnas	-1650
lit	-1651
▁Fr	-1652
▁bhráid	-1653
ble	-1654
lis	-1655
eoin	-1656
eoladh	-1657
▁cúram	-1658
▁rinne	-1659
▁Phríomh	-1660
▁cluiche	-1661
▁gcoinne	-1662
▁úsáidtear	-1663
éif	-1664
▁iniúch	-1665
ide	-1666
oile	-1667
reis	-1668
▁bhonn	-1669
▁comhlacht	-1670
▁seirbhíse	-1671
▁gcu	-1672
▁éad	-1673
▁amhail	-1674
▁laghdú	-1675
▁réimse	-1676
▁La	-1677
▁teagh	-1678
▁leagtha	-1679
airí	-1680
▁fol	-1681
▁cúis	-1682
▁cheana	-1683
▁éist	-1684
▁Maidir	-1685
▁físeáin	-1686
▁CH	-1687
▁cás	-1688
▁measfar	-1689
mp	-1690
▁dath	-1691
▁gurb	-1692
▁Roinn	-1693
▁dúinn	-1694
▁breise	-1695
▁chruth	-1696
▁Twitter	-1697
▁aistriú	-1698
▁gCoimisiún	-1699
▁ias	-1700
leach	-1701
thóirí	-1702
▁Pro	-1703
▁Porn	-1704
▁tábh	-1705
insean	-1706
▁anois	-1707
▁gcónaí	-1708
▁chinneadh	-1709
íre	-1710
▁Féadfar	-1711
▁cothrom	-1712
▁monaróirí	-1713
▁Níl	-1714
▁Tal	-1715
▁The	-1716
▁fud	-1717
eilbh	-1718
▁aird	-1719
óireachta	-1720
tu	-1721
ond	-1722
▁re	-1723
▁ama	-1724
▁tríú	-1725
lódáil	-1726
ócmhainn	-1727
bhú	-1728
▁Cos	-1729
éasca	-1730
▁ullmh	-1731
▁Aontaithe	-1732
▁ró	-1733
oird	-1734
éacs	-1735
íocha	-1736
▁dara	-1737
▁leagan	-1738
itheoirí	-1739
ostaíochta	-1740
▁scaireanna	-1741
▁eag	-1742
▁osc	-1743
thach	-1744
▁sonraithe	-1745
ainm	-1746
▁fós	-1747
liana	-1748
▁inch	-1749
▁Leasú	-1750
▁Aontas	-1751
aiteachas	-1752
▁íocaíocht	-1753
▁lár	-1754
▁tré	-1755
▁deon	-1756
▁fíor	-1757
áiltear	-1758
▁curtha	-1759
▁faoina	-1760
▁reatha	-1761
▁limistéar	-1762
néas	-1763
éach	-1764
▁Cad	-1765
nacha	-1766
▁nádú	-1767
▁nithe	-1768
▁cineál	-1769
▁toiliú	-1770
eachtach	-1771
▁Aghaidh	-1772
▁ngníomh	-1773
▁gcomhairle	-1774
nróid	-1775
▁réig	-1776
▁réamh	-1777
▁sláinte	-1778
▁éileamh	-1779
▁áitreabh	-1780
ov	-1781
ies	-1782
▁bia	-1783
▁thag	-1784
bartha	-1785
▁críche	-1786
caoileadh	-1787
eol	-1788
▁26	-1789
ligh	-1790
oire	-1791
▁fost	-1792
daithe	-1793
bla	-1794
ity	-1795
rán	-1796
anda	-1797
▁100	-1798
▁2013	-1799
oinníoll	-1800
óisialta	-1801
▁trádála	-1802
ON	-1803
ml	-1804
pp	-1805
anc	-1806
▁Su	-1807
aifead	-1808
▁fhios	-1809
▁nádúr	-1810
▁torthaí	-1811
▁Ath	-1812
▁shin	-1813
▁hAchtanna	-1814
ampla	-1815
▁cúig	-1816
▁phró	-1817
▁bhunú	-1818
ideachas	-1819
▁ráiteas	-1820
▁hAirteagal	-1821
óin	-1822
igin	-1823
▁tír	-1824
▁bail	-1825
▁and	-1826
iseas	-1827
▁deis	-1828
allstát	-1829
scríobh	-1830
▁Gaeilge	-1831
▁bhfianaise	-1832
thú	-1833
▁me	-1834
▁cúr	-1835
ábháilt	-1836
▁glacadh	-1837
airdín	-1838
ghníomh	-1839
▁ghairm	-1840
▁Náisiúnta	-1841
ec	-1842
ok	-1843
▁22	-1844
▁dhiú	-1845
▁liom	-1846
▁láimh	-1847
▁chéanna	-1848
▁chomhalta	-1849
▁Í	-1850
▁Éir	-1851
eartha	-1852
isiúin	-1853
naíodh	-1854
▁sásta	-1855
▁choimeád	-1856
ille	-1857
oinbh	-1858
▁bláth	-1859
unt	-1860
▁dT	-1861
▁San	-1862
▁maoin	-1863
▁imeachtaí	-1864
niúla	-1865
rófar	-1866
▁AGUS	-1867
▁soilsiú	-1868
eit	-1869
easc	-1870
chúis	-1871
▁Cuid	-1872
▁cuntas	-1873
▁cláraithe	-1874
▁idirnáisiúnta	-1875
ie	-1876
qu	-1877
tag	-1878
ealt	-1879
▁Gach	-1880
▁céim	-1881
▁fear	-1882
▁minic	-1883
umas	-1884
▁Tar	-1885
muigh	-1886
▁siúl	-1887
▁fhorbairt	-1888
▁Gr	-1889
▁slí	-1890
iosca	-1891
▁2012	-1892
▁Léim	-1893
thaoir	-1894
▁Gníomh	-1895
nt	-1896
dála	-1897
olas	-1898
íofa	-1899
▁him	-1900
▁costais	-1901
▁sheoladh	-1902
▁chaighdeán	-1903
ba	-1904
▁28	-1905
▁Idir	-1906
▁léas	-1907
▁árach	-1908
▁thaobh	-1909
ict	-1910
únta	-1911
inéir	-1912
eannta	-1913
▁Cluich	-1914
▁dtugtar	-1915
▁luaithe	-1916
▁rochtain	-1917
▁ionstraim	-1918
orm	-1919
▁shu	-1920
áinig	-1921
▁2014	-1922
▁corp	-1923
▁tiom	-1924
▁cuirfidh	-1925
▁infheist	-1926
▁Or	-1927
▁al	-1928
▁tuarascáil	-1929
AS	-1930
▁Có	-1931
iche	-1932
nama	-1933
áistí	-1934
▁uath	-1935
reacha	-1936
▁córas	-1937
▁thoradh	-1938
▁údaraithe	-1939
wn	-1940
▁Áit	-1941
▁aois	-1942
▁plean	-1943
airtear	-1944
▁thionsc	-1945
▁caighdeán	-1946
▁Do	-1947
▁Act	-1948
easta	-1949
fhonn	-1950
iméad	-1951
tachta	-1952
untais	-1953
▁faisnéise	-1954
▁Dé	-1955
▁cóip	-1956
arsáid	-1957
▁foirm	-1958
eirbhísí	-1959
▁shampla	-1960
iach	-1961
eanga	-1962
▁2009	-1963
▁Leic	-1964
▁Baile	-1965
▁Uimhir	-1966
▁airgid	-1967
▁leanbh	-1968
▁tuairim	-1969
▁Sta	-1970
▁léi	-1971
▁againn	-1972
▁scrios	-1973
eitheamh	-1974
scríbhinn	-1975
▁cheapadh	-1976
▁soláthar	-1977
daigh	-1978
itheach	-1979
▁Re	-1980
▁dío	-1981
▁táil	-1982
▁togra	-1983
tiú	-1984
oist	-1985
▁cus	-1986
▁díl	-1987
aithí	-1988
▁mhar	-1989
▁deara	-1990
▁23	-1991
maid	-1992
igthe	-1993
▁2019	-1994
lachta	-1995
▁chlárú	-1996
▁cruach	-1997
▁dhéanfar	-1998
one	-1999
ris	-2000
▁Ca	-2001
▁il	-2002
achán	-2003
málta	-2004
ábhar	-2005
▁tugadh	-2006
▁cheannach	-2007
▁choinneáil	-2008
▁kar	-2009
▁rún	-2010
bharfaidh	-2011
▁forbairt	-2012
▁doiciméad	-2013
▁gníomhaíochtaí	-2014
aoir	-2015
▁ionc	-2016
▁shoc	-2017
aibidil	-2018
▁chomhair	-2019
▁car	-2020
▁fos	-2021
▁2015	-2022
▁gnáth	-2023
▁freagrach	-2024
▁seachtain	-2025
léir	-2026
onad	-2027
imhir	-2028
láint	-2029
▁fhógra	-2030
▁karnar	-2031
▁roghnú	-2032
▁seoladh	-2033
úna	-2034
▁Oir	-2035
úirte	-2036
staint	-2037
▁cuirfear	-2038
▁íoslódáil	-2039
▁beartaithe	-2040
lín	-2041
ealamh	-2042
▁leagtar	-2043
▁téarmaí	-2044
aispeáint	-2045
▁orduithe	-2046
▁str	-2047
▁faid	-2048
▁saol	-2049
íortha	-2050
▁gairm	-2051
▁húsáid	-2052
▁athbhreith	-2053
CE	-2054
▁Conas	-2055
▁seilbh	-2056
▁úsáide	-2057
▁infheidhm	-2058
▁Lu	-2059
▁adh	-2060
▁sainch	-2061
tre	-2062
▁dam	-2063
alair	-2064
ionsa	-2065
▁Tabh	-2066
▁chúis	-2067
osmálta	-2068
ineálacha	-2069
oill	-2070
▁bar	-2071
▁sub	-2072
▁conas	-2073
▁sealbh	-2074
aitheach	-2075
▁margadh	-2076
▁mhonarcha	-2077
▁29	-2078
adal	-2079
▁slán	-2080
raíocht	-2081
áchtála	-2082
áideach	-2083
▁feithic	-2084
eim	-2085
▁arb	-2086
▁bog	-2087
▁Rogh	-2088
aitéis	-2089
▁airde	-2090
▁scann	-2091
▁scoth	-2092
▁táirg	-2093
▁éigin	-2094
▁ioncam	-2095
▁praghas	-2096
▁Choimisiún	-2097
ay	-2098
ps	-2099
▁Tag	-2100
▁cli	-2101
▁dóigh	-2102
▁cearta	-2103
▁cosanta	-2104
▁cheangal	-2105
paí	-2106
▁onn	-2107
orate	-2108
tóirí	-2109
▁bhail	-2110
▁gCuid	-2111
▁teach	-2112
▁Tionsc	-2113
▁ciontach	-2114
▁tacaíocht	-2115
rioc	-2116
▁gcr	-2117
eantar	-2118
▁tuairisc	-2119
▁z	-2120
alla	-2121
uthor	-2122
▁talún	-2123
▁iompair	-2124
IÚ	-2125
NA	-2126
ver	-2127
eigh	-2128
eastal	-2129
ghairm	-2130
iúchán	-2131
íneáil	-2132
▁Údarás	-2133
▁ndearnadh	-2134
▁ginearálta	-2135
▁trá	-2136
▁Author	-2137
▁chríoch	-2138
▁bhealach	-2139
▁deo	-2140
▁sná	-2141
▁neamhch	-2142
▁nádúrtha	-2143
▁grianghraf	-2144
▁shonraítear	-2145
bo	-2146
óga	-2147
▁co	-2148
ling	-2149
ithre	-2150
▁imirt	-2151
▁leigh	-2152
▁Feidhm	-2153
▁bheadh	-2154
▁domhain	-2155
▁iontach	-2156
▁iarratais	-2157
▁láithreach	-2158
▁bhéal	-2159
▁inniu	-2160
thanach	-2161
▁seacht	-2162
▁chumhacht	-2163
▁dhosmálta	-2164
▁ndéanfaidh	-2165
AIR	-2166
▁bó	-2167
▁com	-2168
▁barr	-2169
illiún	-2170
▁fuinn	-2171
▁liúntas	-2172
▁Ballstát	-2173
iz	-2174
▁lío	-2175
iarna	-2176
ibreán	-2177
▁chruthú	-2178
▁soiléir	-2179
ostaíocht	-2180
othabháil	-2181
▁rialachán	-2182
▁50	-2183
▁2011	-2184
▁leanaí	-2185
eicniúil	-2186
▁deiridh	-2187
insin	-2188
▁aici	-2189
▁ngach	-2190
únachta	-2191
▁iompar	-2192
▁reacht	-2193
oinbhins	-2194
▁chuntas	-2195
▁Corporate	-2196
▁Parlaimint	-2197
▁SO	-2198
▁Lea	-2199
▁bán	-2200
anáir	-2201
▁súil	-2202
▁feist	-2203
TE	-2204
ler	-2205
hong	-2206
íosa	-2207
▁Noll	-2208
iteamh	-2209
▁húdar	-2210
▁thagann	-2211
▁rannpháirt	-2212
ted	-2213
▁nu	-2214
▁ghr	-2215
alairt	-2216
eanach	-2217
▁hordú	-2218
▁Coiste	-2219
▁bhreith	-2220
eachadadh	-2221
▁LE	-2222
inní	-2223
implí	-2224
▁focal	-2225
▁abairt	-2226
▁ionann	-2227
▁tairbh	-2228
ainneoin	-2229
▁ioncaim	-2230
▁teideal	-2231
▁saothair	-2232
▁teorainn	-2233
luaiseacht	-2234
ITH	-2235
▁27	-2236
iamh	-2237
▁Oib	-2238
eartas	-2239
mheasa	-2240
naíonn	-2241
▁laeth	-2242
uairisc	-2243
▁cuntais	-2244
mhaíochta	-2245
▁riachtanais	-2246
▁Im	-2247
▁ra	-2248
aims	-2249
itigh	-2250
ocail	-2251
▁coir	-2252
▁cáin	-2253
▁lámh	-2254
▁nasc	-2255
athair	-2256
oifige	-2257
▁Feabh	-2258
▁bhainist	-2259
▁lasmuigh	-2260
oinse	-2261
▁Comm	-2262
▁chru	-2263
raingt	-2264
tuithe	-2265
▁dheon	-2266
▁frith	-2267
▁lucht	-2268
oibríoch	-2269
aighdeáin	-2270
▁achomharc	-2271
ní	-2272
lag	-2273
▁luath	-2274
▁mórdh	-2275
▁chreid	-2276
▁feidhmeanna	-2277
aor	-2278
per	-2279
▁int	-2280
aistr	-2281
▁fion	-2282
reacht	-2283
▁ionas	-2284
▁gníomhartha	-2285
ow	-2286
▁Pr	-2287
chuid	-2288
mhéid	-2289
▁ACHT	-2290
▁díos	-2291
▁siúd	-2292
iseáil	-2293
▁Cánach	-2294
▁sócmhainn	-2295
óide	-2296
▁uas	-2297
aoirs	-2298
únais	-2299
▁méad	-2300
▁shlí	-2301
▁mhodh	-2302
eathach	-2303
▁mhaoin	-2304
▁ceanglais	-2305
▁comhaltaí	-2306
▁Tu	-2307
▁éir	-2308
▁aims	-2309
ínithe	-2310
▁toisc	-2311
▁cabhrú	-2312
▁gcrích	-2313
▁úinéir	-2314
▁bhfoirm	-2315
▁III	-2316
▁stá	-2317
aitear	-2318
iciúil	-2319
▁dtaca	-2320
▁ghlac	-2321
airgead	-2322
▁Éireann	-2323
▁Al	-2324
▁et	-2325
▁comhsh	-2326
▁tháinig	-2327
▁onnmhair	-2328
iath	-2329
reor	-2330
éanta	-2331
▁treoir	-2332
▁ullmhú	-2333
▁Cluichí	-2334
▁riachtanach	-2335
em	-2336
tor	-2337
▁Du	-2338
▁nG	-2339
ation	-2340
▁siar	-2341
▁Féach	-2342
▁mhéadú	-2343
▁uimhir	-2344
▁comhpháirt	-2345
▁Ré	-2346
eirm	-2347
▁Ion	-2348
▁dtr	-2349
rucht	-2350
▁dáil	-2351
▁Europ	-2352
▁liosta	-2353
▁tháirg	-2354
níomhaireacht	-2355
nu	-2356
ind	-2357
nann	-2358
▁fhr	-2359
omhír	-2360
▁arís	-2361
▁stór	-2362
▁teil	-2363
▁Tweet	-2364
▁gnéas	-2365
▁ndéantar	-2366
▁tabhairt	-2367
aige	-2368
▁cha	-2369
▁dhó	-2370
▁gné	-2371
eartú	-2372
naigh	-2373
▁fada	-2374
▁halt	-2375
▁ceaptha	-2376
▁dhéantar	-2377
▁mhalairt	-2378
▁DO	-2379
eais	-2380
oich	-2381
▁etc	-2382
▁difr	-2383
▁Ceann	-2384
▁feabh	-2385
▁sprioc	-2386
▁feidhmiú	-2387
▁comhairle	-2388
rae	-2389
eobh	-2390
▁Áir	-2391
▁sula	-2392
leacht	-2393
uairim	-2394
▁cruth	-2395
▁mBord	-2396
ordaithe	-2397
mra	-2398
tur	-2399
álaí	-2400
▁cruinn	-2401
▁Nollaig	-2402
▁taighde	-2403
eoireachta	-2404
▁réasúnach	-2405
thaoirleach	-2406
chlár	-2407
▁glac	-2408
▁cháil	-2409
▁seach	-2410
▁thair	-2411
▁íseal	-2412
▁chúirt	-2413
▁oibriú	-2414
▁páirtí	-2415
▁shealbh	-2416
thas	-2417
uirir	-2418
▁Cuar	-2419
▁fair	-2420
▁pict	-2421
ionsab	-2422
▁foirgn	-2423
▁cosaint	-2424
▁damáiste	-2425
▁doiciméid	-2426
▁infheidhme	-2427
ól	-2428
▁EU	-2429
irbh	-2430
▁phr	-2431
▁céad	-2432
▁Bhord	-2433
▁shain	-2434
eartais	-2435
naítear	-2436
▁scrúdú	-2437
▁iasacht	-2438
▁measúnú	-2439
▁nósanna	-2440
▁scríofa	-2441
-1	-2442
▁docht	-2443
▁hoibr	-2444
▁fhaigh	-2445
▁fíneáil	-2446
▁bliantúil	-2447
AL	-2448
▁mba	-2449
oilse	-2450
▁fios	-2451
scairt	-2452
▁cumhacht	-2453
▁leanúint	-2454
▁riaracháin	-2455
ff	-2456
▁Am	-2457
▁dr	-2458
duct	-2459
treon	-2460
▁glas	-2461
eithre	-2462
▁deimhin	-2463
ck	-2464
ola	-2465
▁on	-2466
iarr	-2467
éann	-2468
▁Cru	-2469
ionann	-2470
eacháin	-2471
éigh	-2472
▁dualg	-2473
▁Cliath	-2474
▁Product	-2475
▁bláthanna	-2476
▁chuireann	-2477
fr	-2478
fach	-2479
réithe	-2480
▁eagra	-2481
▁faide	-2482
earradh	-2483
omhairc	-2484
▁ábhair	-2485
aiteachais	-2486
IT	-2487
aidr	-2488
▁tsa	-2489
iséad	-2490
▁Clár	-2491
chtadh	-2492
▁éasca	-2493
oghlaim	-2494
▁Rialtais	-2495
▁rialaithe	-2496
lá	-2497
▁Bu	-2498
▁fó	-2499
▁te	-2500
áirtí	-2501
▁Iúil	-2502
▁comhth	-2503
▁riosca	-2504
▁iontaobh	-2505
▁fheidhmiú	-2506
▁páirteach	-2507
▁mu	-2508
▁Con	-2509
▁lit	-2510
▁oll	-2511
▁sta	-2512
▁tús	-2513
igire	-2514
▁héif	-2515
▁Márta	-2516
▁gléas	-2517
luaiste	-2518
▁cinnte	-2519
▁sláint	-2520
óireacht	-2521
▁ainmniú	-2522
▁chiontú	-2523
▁gabháil	-2524
▁tábhachtach	-2525
▁j	-2526
fadh	-2527
lite	-2528
▁Bar	-2529
▁níl	-2530
▁raon	-2531
▁trom	-2532
▁athch	-2533
▁bharr	-2534
▁bhfad	-2535
▁Bainist	-2536
▁nóiméad	-2537
▁sochair	-2538
▁comhlachtaí	-2539
icí	-2540
▁CO	-2541
▁ex	-2542
▁ola	-2543
▁imsc	-2544
▁suite	-2545
▁Eanáir	-2546
▁phoiblí	-2547
▁reachta	-2548
▁tionchar	-2549
▁forbartha	-2550
▁mBallstát	-2551
fhor	-2552
áist	-2553
eánach	-2554
▁thart	-2555
ustaiméirí	-2556
ly	-2557
éin	-2558
búis	-2559
▁lorg	-2560
tachán	-2561
oifigeach	-2562
▁húdaráis	-2563
aoil	-2564
eibh	-2565
▁mol	-2566
umann	-2567
▁2008	-2568
▁hion	-2569
▁saint	-2570
eimhniú	-2571
▁costas	-2572
▁oifige	-2573
liantúil	-2574
▁Sláinte	-2575
▁thugtar	-2576
▁eisiúint	-2577
▁freastal	-2578
ts	-2579
oirc	-2580
ráin	-2581
▁iii	-2582
▁tac	-2583
póirí	-2584
▁Bain	-2585
▁Meán	-2586
▁ball	-2587
▁mhór	-2588
▁chorp	-2589
▁léamh	-2590
íochána	-2591
▁Soilse	-2592
▁tosach	-2593
TA	-2594
ew	-2595
rúd	-2596
thi	-2597
▁Gu	-2598
earm	-2599
ósta	-2600
mhara	-2601
reoir	-2602
▁Físe	-2603
▁clárú	-2604
▁gníomhú	-2605
▁tuilleadh	-2606
▁Leasaítear	-2607
IDEA	-2608
eata	-2609
▁ort	-2610
▁Líne	-2611
▁Meas	-2612
▁bhua	-2613
▁timp	-2614
▁urrú	-2615
óisial	-2616
▁déile	-2617
▁gclár	-2618
▁dearadh	-2619
▁inniúil	-2620
▁thugann	-2621
▁Deireadh	-2622
▁Leictreon	-2623
▁ainmnithe	-2624
▁substaint	-2625
oinbhinsiún	-2626
▁choinníoll	-2627
▁ham	-2628
neamh	-2629
▁dubh	-2630
raíodh	-2631
▁údarú	-2632
lteanas	-2633
▁taithí	-2634
▁uirthi	-2635
▁Rialtas	-2636
▁thógáil	-2637
▁gceannas	-2638
▁Lá	-2639
onnta	-2640
▁fáth	-2641
arthas	-2642
fheist	-2643
mhithe	-2644
▁meách	-2645
▁taist	-2646
eachtais	-2647
▁choiste	-2648
oimisiúin	-2649
▁acmhainn	-2650
▁iarnróid	-2651
ismitheoirí	-2652
▁parlaimint	-2653
osc	-2654
ance	-2655
▁Mór	-2656
mharc	-2657
▁fhoirm	-2658
raíochta	-2659
▁muirear	-2660
▁déantóir	-2661
▁nochtadh	-2662
fe	-2663
mhór	-2664
shan	-2665
▁Gnó	-2666
▁Nua	-2667
▁ins	-2668
chuir	-2669
▁gearr	-2670
eachtar	-2671
ash	-2672
arda	-2673
▁Bun	-2674
adail	-2675
▁mbain	-2676
▁scoir	-2677
illeadh	-2678
▁leabhar	-2679
tóireacht	-2680
eoga	-2681
▁gheobh	-2682
hongshan	-2683
▁caiteachas	-2684
rac	-2685
▁ith	-2686
▁pac	-2687
▁sma	-2688
▁dlíth	-2689
▁Bhoird	-2690
▁córais	-2691
▁Éirinn	-2692
▁zhongshan	-2693
▁cáilíochta	-2694
▁saintréithe	-2695
eich	-2696
únaí	-2697
▁Cén	-2698
▁cas	-2699
▁chúl	-2700
réacht	-2701
▁leasa	-2702
ghabháil	-2703
▁mbliana	-2704
▁fostaíochta	-2705
▁Iarscríbhinn	-2706
irg	-2707
List	-2708
ealú	-2709
▁tag	-2710
▁vol	-2711
tacht	-2712
▁tomh	-2713
▁Údar	-2714
ileanna	-2715
▁Contae	-2716
▁eolais	-2717
▁thuras	-2718
▁luaitear	-2719
▁ranníoca	-2720
▁ngairtear	-2721
ER	-2722
OS	-2723
oibh	-2724
▁col	-2725
eimhr	-2726
▁dhlí	-2727
▁tapa	-2728
▁fuair	-2729
▁Úsáid	-2730
▁foráil	-2731
▁físeán	-2732
▁sraith	-2733
oitianta	-2734
▁leanúnach	-2735
▁tairiscint	-2736
EAS	-2737
arm	-2738
▁Cur	-2739
ional	-2740
▁Samh	-2741
eathnú	-2742
▁grúpa	-2743
aispeán	-2744
leagáidí	-2745
▁fhoráil	-2746
▁tagairtí	-2747
▁trealamh	-2748
aimseartha	-2749
▁institiúid	-2750
IM	-2751
end	-2752
raigh	-2753
▁Gael	-2754
▁bord	-2755
▁glan	-2756
▁sean	-2757
eanais	-2758
áipéar	-2759
únaithe	-2760
▁chumas	-2761
▁cineálacha	-2762
art	-2763
▁cá	-2764
▁dom	-2765
eolas	-2766
lainn	-2767
lucht	-2768
ánaigh	-2769
arsáide	-2770
▁trádáil	-2771
▁folaíonn	-2772
ive	-2773
son	-2774
▁Cú	-2775
▁hI	-2776
▁sm	-2777
itim	-2778
tigh	-2779
▁seas	-2780
aráide	-2781
▁Clárú	-2782
▁adhmaid	-2783
▁chaitheamh	-2784
▁gcuideachta	-2785
▁bhforáiltear	-2786
PA	-2787
▁As	-2788
▁Un	-2789
aimid	-2790
▁Léir	-2791
nachta	-2792
▁domhan	-2793
▁focail	-2794
▁léiriú	-2795
▁réiteach	-2796
▁aistrithe	-2797
▁cumhachtaí	-2798
▁sócmhainní	-2799
ábháilteacht	-2800
▁TV	-2801
▁dlit	-2802
oncler	-2803
▁Táirgí	-2804
▁scannán	-2805
▁Cuirfidh	-2806
▁chinntiú	-2807
▁straitéis	-2808
▁fhorálacha	-2809
fo	-2810
óil	-2811
▁Dú	-2812
▁Iom	-2813
▁2006	-2814
eonach	-2815
táiste	-2816
▁cláir	-2817
▁tionón	-2818
ealtaine	-2819
▁comhréir	-2820
▁ríomhaire	-2821
▁teagmháil	-2822
BH	-2823
ik	-2824
rd	-2825
▁Alt	-2826
▁stoc	-2827
▁vóta	-2828
luíonn	-2829
seirbh	-2830
éadfaí	-2831
▁caith	-2832
eannadh	-2833
▁shocrú	-2834
▁scriosadh	-2835
EAN	-2836
cal	-2837
gaí	-2838
▁35	-2839
▁40	-2840
iúna	-2841
▁mac	-2842
▁pol	-2843
aisin	-2844
gaidh	-2845
▁samh	-2846
▁rátaí	-2847
eacnama	-2848
▁cúnamh	-2849
▁istigh	-2850
▁tíortha	-2851
▁fostaithe	-2852
▁Ghníomhaireacht	-2853
St	-2854
lé	-2855
▁cm	-2856
atch	-2857
IDEAL	-2858
odanna	-2859
thosca	-2860
▁thion	-2861
oireann	-2862
▁saoire	-2863
▁simplí	-2864
▁spreag	-2865
▁taifead	-2866
▁theacht	-2867
aitheoirí	-2868
▁teicneola	-2869
MS	-2870
chan	-2871
ltúr	-2872
náil	-2873
▁cosc	-2874
▁pion	-2875
▁araon	-2876
▁chumh	-2877
athrach	-2878
▁áitiúla	-2879
ÍO	-2880
▁Il	-2881
oigh	-2882
▁Chr	-2883
▁clú	-2884
dháil	-2885
▁Domh	-2886
▁socrú	-2887
áilithe	-2888
▁Bhaile	-2889
achtarán	-2890
▁Seirbhísí	-2891
iúrthóireacht	-2892
LAS	-2893
éasc	-2894
▁Fhor	-2895
▁Éist	-2896
únacht	-2897
▁dhear	-2898
▁Sonraí	-2899
▁fheabh	-2900
▁príobh	-2901
be	-2902
eip	-2903
ina	-2904
ité	-2905
thr	-2906
▁ío	-2907
▁Oll	-2908
▁bhra	-2909
▁daon	-2910
eaptha	-2911
▁bosca	-2912
▁cháin	-2913
▁Choiste	-2914
▁iarracht	-2915
▁athbhreithniú	-2916
II	-2917
est	-2918
ium	-2919
▁32	-2920
Daon	-2921
ITHE	-2922
éara	-2923
▁SCE	-2924
▁Dear	-2925
▁Lawn	-2926
▁deac	-2927
▁meán	-2928
▁Cúirte	-2929
▁luaidh	-2930
▁bhfaigh	-2931
▁bhreise	-2932
▁be	-2933
mhan	-2934
▁Gan	-2935
▁Gha	-2936
▁Tion	-2937
▁fhág	-2938
▁rach	-2939
earadh	-2940
Údarás	-2941
▁geall	-2942
▁teanga	-2943
▁SCEIDEAL	-2944
▁teastáil	-2945
aireachtaí	-2946
ele	-2947
▁nA	-2948
othú	-2949
▁eit	-2950
álfar	-2951
▁tslí	-2952
bhaint	-2953
▁léinn	-2954
▁riamh	-2955
▁scoile	-2956
▁ghnóthú	-2957
▁pinsean	-2958
▁comhartha	-2959
fí	-2960
ous	-2961
▁hu	-2962
ramh	-2963
▁gla	-2964
ailís	-2965
aíodh	-2966
uaras	-2967
▁punt	-2968
▁síol	-2969
landaí	-2970
▁ndáir	-2971
▁Bliain	-2972
▁Áitiúil	-2973
▁Síochána	-2974
▁méideanna	-2975
▁oideachais	-2976
▁comp	-2977
▁gcur	-2978
▁láid	-2979
▁mích	-2980
▁ísle	-2981
▁Grúpa	-2982
▁rudaí	-2983
churtha	-2984
▁contae	-2985
▁dheonú	-2986
▁rialta	-2987
▁coimeád	-2988
▁leathan	-2989
▁milliún	-2990
▁tástála	-2991
▁gcomhair	-2992
▁ndáiríre	-2993
▁thagairt	-2994
▁árachais	-2995
TI	-2996
iss	-2997
▁45	-2998
▁ad	-2999
▁un	-3000
bhun	-3001
▁ind	-3002
▁Ceist	-3003
▁méadú	-3004
▁caipit	-3005
▁blianta	-3006
▁díospóir	-3007
▁tharraingt	-3008
▁Choimisiúin	-3009
ack	-3010
das	-3011
íolt	-3012
▁Tug	-3013
ráite	-3014
▁Saor	-3015
▁díls	-3016
▁eola	-3017
▁mbun	-3018
▁conar	-3019
▁éadrom	-3020
ealadach	-3021
oirmeasc	-3022
▁Cuardaigh	-3023
ias	-3024
ica	-3025
iomp	-3026
▁cúl	-3027
oladh	-3028
▁Lond	-3029
íreach	-3030
▁Plean	-3031
▁balla	-3032
▁meais	-3033
▁cheist	-3034
allstáit	-3035
▁eacnama	-3036
▁hearraí	-3037
▁cialluíonn	-3038
▁dtabharfar	-3039
▁éisteachta	-3040
▁So	-3041
▁Ta	-3042
▁all	-3043
▁oil	-3044
sanna	-3045
▁cear	-3046
▁post	-3047
eallán	-3048
oibriú	-3049
▁baile	-3050
▁príos	-3051
▁Tabhar	-3052
úinteoirí	-3053
oirceallán	-3054
▁comhaontú	-3055
▁fheiceáil	-3056
▁inmheánach	-3057
angd	-3058
sple	-3059
▁mbu	-3060
▁suí	-3061
▁bunús	-3062
▁stiúr	-3063
▁thíos	-3064
angdong	-3065
▁táille	-3066
▁dearbhú	-3067
▁fanacht	-3068
▁tÚdarás	-3069
▁Guangdong	-3070
▁Poirceallán	-3071
ure	-3072
eoil	-3073
ibhe	-3074
táin	-3075
▁sam	-3076
loine	-3077
▁deich	-3078
▁treor	-3079
seirbhís	-3080
▁comhaon	-3081
▁dleacht	-3082
▁plandáil	-3083
▁páirtithe	-3084
▁thionscnamh	-3085
▁íocaíochtaí	-3086
ltú	-3087
ore	-3088
▁IV	-3089
▁Ina	-3090
naimh	-3091
romch	-3092
▁Iris	-3093
▁labh	-3094
eirice	-3095
ábhair	-3096
éarmaí	-3097
eantair	-3098
taítear	-3099
ónaithe	-3100
▁bhaile	-3101
▁foirne	-3102
▁gceang	-3103
▁inniúla	-3104
▁Ollscoil	-3105
▁Meitheamh	-3106
▁chuirtear	-3107
▁oibríocht	-3108
▁tráchtála	-3109
▁creidmheasa	-3110
▁éifeachtach	-3111
▁chuntasaíochta	-3112
ES	-3113
GH	-3114
ve	-3115
▁áis	-3116
alach	-3117
ifíse	-3118
íonna	-3119
▁tacú	-3120
▁Teach	-3121
▁foils	-3122
▁fuaim	-3123
igiteach	-3124
▁thosach	-3125
▁chothabháil	-3126
▁bainistíochta	-3127
ainc	-3128
átaí	-3129
▁cóg	-3130
▁hin	-3131
▁Átha	-3132
▁áitr	-3133
▁caite	-3134
▁gComh	-3135
▁tsuim	-3136
ruchtúr	-3137
▁cheadú	-3138
▁comhdh	-3139
▁liúntais	-3140
▁oscailte	-3141
▁gheobhaidh	-3142
▁scoileanna	-3143
▁íocaíochta	-3144
uarascálacha	-3145
our	-3146
loch	-3147
thin	-3148
▁Ans	-3149
▁Ind	-3150
▁lín	-3151
banna	-3152
caire	-3153
chomh	-3154
tacha	-3155
▁Mura	-3156
▁coig	-3157
▁Scoil	-3158
▁cionn	-3159
▁dlite	-3160
▁faois	-3161
▁cuairt	-3162
▁Chonradh	-3163
▁bogearraí	-3164
▁bhféadfadh	-3165
▁liostaithe	-3166
▁Soláthraithe	-3167
bhu	-3168
let	-3169
lic	-3170
aoth	-3171
inse	-3172
reen	-3173
▁Ais	-3174
▁tob	-3175
ontas	-3176
álach	-3177
eathrú	-3178
eadóirí	-3179
laítear	-3180
▁ligean	-3181
aitneamh	-3182
▁ceithre	-3183
▁phríomh	-3184
laisteach	-3185
▁ndéanamh	-3186
▁oifigigh	-3187
▁éisteacht	-3188
▁corpraithe	-3189
▁60	-3190
eimic	-3191
eocht	-3192
ionad	-3193
▁2007	-3194
▁déag	-3195
▁marc	-3196
▁chosc	-3197
▁mhéad	-3198
▁tarml	-3199
▁Físeán	-3200
▁difear	-3201
▁maoine	-3202
▁sampla	-3203
▁tharla	-3204
iúnaithe	-3205
▁pleanála	-3206
▁prionsab	-3207
▁cumhachta	-3208
▁dleathach	-3209
LE	-3210
ime	-3211
▁mná	-3212
ghabh	-3213
▁gabh	-3214
▁scor	-3215
eachán	-3216
▁réidh	-3217
▁scéal	-3218
tagóirí	-3219
áireamh	-3220
▁mbíonn	-3221
aitheann	-3222
▁cuspóirí	-3223
AD	-3224
nam	-3225
▁33	-3226
▁pe	-3227
▁sl	-3228
aimí	-3229
▁sca	-3230
▁éard	-3231
▁Bille	-3232
▁ainmn	-3233
▁bhéar	-3234
▁faigh	-3235
▁iontu	-3236
▁stair	-3237
▁Foinse	-3238
▁aisíoc	-3239
▁uirlis	-3240
▁tosaigh	-3241
irteagail	-3242
▁dochtúir	-3243
▁gcásanna	-3244
▁thréimhse	-3245
▁thaispeáint	-3246
AIS	-3247
oad	-3248
▁34	-3249
▁36	-3250
▁Me	-3251
▁fá	-3252
róir	-3253
▁Eag	-3254
aifid	-3255
iúradh	-3256
▁faire	-3257
▁Tiarna	-3258
▁gcóras	-3259
▁scéime	-3260
▁tugtha	-3261
▁Déantar	-3262
▁Feabhra	-3263
▁Londain	-3264
▁bhailiú	-3265
▁dteannta	-3266
▁fianaise	-3267
▁mhuirear	-3268
▁réasúnta	-3269
▁Bealtaine	-3270
▁laethanta	-3271
Stiúrthóireacht	-3272
íorú	-3273
óras	-3274
▁Trí	-3275
▁ghla	-3276
▁SOLAS	-3277
alairte	-3278
▁coiste	-3279
▁bhíthin	-3280
▁bpointe	-3281
▁gheimhr	-3282
fheidhmiú	-3283
▁allmhair	-3284
▁neamhsple	-3285
▁oifigiúil	-3286
▁Oireachtas	-3287
▁sláintíochta	-3288
bús	-3289
ofa	-3290
raif	-3291
▁Ain	-3292
▁Col	-3293
▁Dia	-3294
▁brú	-3295
earsa	-3296
láine	-3297
▁bréag	-3298
▁dúirt	-3299
phobail	-3300
▁comhch	-3301
eicniúla	-3302
▁chontae	-3303
raíochtaí	-3304
▁mbainfidh	-3305
▁leictreonach	-3306
gs	-3307
ein	-3308
iota	-3309
irce	-3310
▁500	-3311
▁cén	-3312
línte	-3313
rúpaí	-3314
▁bonn	-3315
▁crit	-3316
▁cíos	-3317
▁crích	-3318
▁soilse	-3319
▁álainn	-3320
▁cheadúnas	-3321
▁crícheanna	-3322
man	-3323
▁En	-3324
▁tO	-3325
▁Eor	-3326
▁bhó	-3327
▁dtá	-3328
▁fág	-3329
▁sín	-3330
ianch	-3331
lóidh	-3332
únasa	-3333
▁2010	-3334
▁Iomp	-3335
▁Lean	-3336
▁hach	-3337
▁speic	-3338
▁uaidh	-3339
romchla	-3340
▁Airgid	-3341
ceannadh	-3342
ostaithe	-3343
▁earnáil	-3344
▁fheabhsú	-3345
▁rachaidh	-3346
amp	-3347
oid	-3348
▁ea	-3349
▁Str	-3350
▁brath	-3351
▁gcead	-3352
▁bhreis	-3353
▁chaill	-3354
ábháilte	-3355
▁chomhsh	-3356
▁neamhdh	-3357
▁próiseas	-3358
chaighdeán	-3359
▁coitianta	-3360
▁ghearradh	-3361
▁leathanach	-3362
▁comhlíonadh	-3363
AMH	-3364
▁PH	-3365
CHTA	-3366
lúth	-3367
reas	-3368
túla	-3369
fháil	-3370
orann	-3371
▁stíl	-3372
▁Chuir	-3373
▁Scéim	-3374
▁cumas	-3375
▁seomra	-3376
▁éigean	-3377
ghníomhú	-3378
▁deontas	-3379
▁cruinniú	-3380
▁áirítear	-3381
▁socruithe	-3382
▁Stiúrthóir	-3383
▁phróiseáil	-3384
ys	-3385
hon	-3386
tes	-3387
▁dé	-3388
irte	-3389
áthú	-3390
▁CHU	-3391
▁Dlí	-3392
▁óga	-3393
alamh	-3394
▁Cead	-3395
▁Daon	-3396
▁Tuir	-3397
áirimh	-3398
▁fiche	-3399
▁íoctha	-3400
▁leighis	-3401
eirbheáil	-3402
▁pictiúir	-3403
▁iniúchadh	-3404
▁scaoileadh	-3405
▁parlaiminteach	-3406
eos	-3407
icr	-3408
ish	-3409
ráid	-3410
▁beo	-3411
▁gar	-3412
aighd	-3413
chéim	-3414
róirí	-3415
▁chon	-3416
▁gcom	-3417
▁long	-3418
táistí	-3419
áipéir	-3420
▁smaoin	-3421
aidreamh	-3422
eachtadh	-3423
liteanas	-3424
▁Údaráis	-3425
ithíochta	-3426
▁cúiteamh	-3427
▁Forálacha	-3428
▁Oideachais	-3429
▁onnmhaireoirí	-3430
tam	-3431
▁Nu	-3432
▁dru	-3433
omair	-3434
table	-3435
▁fadh	-3436
▁gcúr	-3437
aitist	-3438
▁Naisc	-3439
álaithe	-3440
▁chóras	-3441
▁Moncler	-3442
▁gnéithe	-3443
▁breathnú	-3444
▁stiúrthóir	-3445
▁cn	-3446
chaí	-3447
ghné	-3448
ight	-3449
inte	-3450
seach	-3451
▁agam	-3452
▁luas	-3453
bheart	-3454
▁chéim	-3455
▁thuas	-3456
aingean	-3457
▁Príomh	-3458
▁gceann	-3459
▁oiread	-3460
áideacha	-3461
▁freagra	-3462
raghsanna	-3463
▁fuarthas	-3464
dán	-3465
▁fi	-3466
▁tí	-3467
oisc	-3468
▁2001	-3469
▁chug	-3470
▁hath	-3471
éimhsí	-3472
▁eacht	-3473
aiceann	-3474
▁Eoraip	-3475
▁maoirs	-3476
▁cáilithe	-3477
▁malairte	-3478
▁fhaigheann	-3479
▁Éisteachta	-3480
▁sheachadadh	-3481
▁tabharfaidh	-3482
IA	-3483
íth	-3484
▁sú	-3485
ínse	-3486
▁Bra	-3487
▁arm	-3488
aillí	-3489
airtí	-3490
ealaí	-3491
taigh	-3492
▁Dara	-3493
▁mara	-3494
▁sárú	-3495
▁traid	-3496
▁áfach	-3497
thaithe	-3498
▁Chiste	-3499
▁Aibreán	-3500
▁brabúis	-3501
▁Bhallstáit	-3502
▁tionscadal	-3503
▁Ex	-3504
▁cal	-3505
▁eol	-3506
ádála	-3507
▁Glac	-3508
▁Tags	-3509
▁gear	-3510
▁mona	-3511
iompar	-3512
íleata	-3513
▁chail	-3514
▁trína	-3515
▁cionta	-3516
▁comhar	-3517
íolacadh	-3518
▁dlífear	-3519
▁oscailt	-3520
▁sealbhóir	-3521
▁taitneamh	-3522
▁tuairisce	-3523
▁caillteanas	-3524
▁ghinearálta	-3525
▁DH	-3526
▁hO	-3527
raoi	-3528
▁rath	-3529
▁Ciste	-3530
▁chabh	-3531
▁tACHT	-3532
▁turas	-3533
caíocht	-3534
reachta	-3535
▁Lúnasa	-3536
▁Poiblí	-3537
▁sonrach	-3538
▁comhairl	-3539
oimisinéir	-3540
▁sóisialta	-3541
uirearaithe	-3542
▁Idirnáisiúnta	-3543
RE	-3544
▁37	-3545
load	-3546
oith	-3547
ainte	-3548
iúnaí	-3549
racht	-3550
▁Tair	-3551
▁neart	-3552
▁Breith	-3553
▁Talmhan	-3554
▁gcomhar	-3555
▁mhaithe	-3556
ianchloch	-3557
▁asbhaint	-3558
▁fuinnimh	-3559
▁Roghchlár	-3560
▁sheirbhís	-3561
CD	-3562
ou	-3563
ens	-3564
▁AR	-3565
itte	-3566
▁bás	-3567
▁fir	-3568
▁Rann	-3569
▁spás	-3570
léiriú	-3571
uashon	-3572
▁Fógra	-3573
▁Teagh	-3574
▁nglac	-3575
▁scaip	-3576
arraige	-3577
líonann	-3578
▁Gharda	-3579
▁fiosrú	-3580
▁fostaí	-3581
▁ngairm	-3582
▁phobal	-3583
▁réimsí	-3584
▁suntas	-3585
itheacha	-3586
▁cásanna	-3587
▁Baineann	-3588
▁theannta	-3589
▁leithligh	-3590
aighdeánach	-3591
▁plaisteach	-3592
ábháilteachta	-3593
▁talmhaíochta	-3594
oy	-3595
AIM	-3596
AIN	-3597
cel	-3598
aolú	-3599
ilte	-3600
▁Soc	-3601
▁bhF	-3602
▁sás	-3603
▁íomh	-3604
iteáil	-3605
▁Gnóthaí	-3606
▁mionson	-3607
▁cheannas	-3608
▁modhanna	-3609
▁ordaithe	-3610
▁tuairimí	-3611
▁gcomhlíon	-3612
▁tháirgeadh	-3613
▁inmhuirearaithe	-3614
RA	-3615
of	-3616
ber	-3617
dhó	-3618
íte	-3619
▁Te	-3620
▁ol	-3621
fort	-3622
iscí	-3623
▁EUR	-3624
▁Oil	-3625
ríche	-3626
▁blas	-3627
mhíniú	-3628
phobal	-3629
roinnt	-3630
▁cúpla	-3631
earmáin	-3632
ireacht	-3633
rachtaí	-3634
▁ceapadh	-3635
▁leathnú	-3636
▁phobail	-3637
▁dualgais	-3638
▁míreanna	-3639
▁fhoireann	-3640
▁chomhlacht	-3641
▁tharlaíonn	-3642
▁tionscadail	-3643
▁díospóireacht	-3644
▁gCoimisinéirí	-3645
▁iascaireachta	-3646
fas	-3647
ome	-3648
▁39	-3649
▁ús	-3650
earc	-3651
ence	-3652
oidh	-3653
ress	-3654
áite	-3655
▁Cum	-3656
▁Inn	-3657
▁Tóg	-3658
mhach	-3659
▁Sain	-3660
▁eala	-3661
▁clips	-3662
▁cuard	-3663
▁duill	-3664
▁solas	-3665
iúntais	-3666
▁conradh	-3667
▁Cuireadh	-3668
▁leithéid	-3669
▁ndéanann	-3670
▁achtachán	-3671
▁ceadúnais	-3672
▁gcuirfear	-3673
▁mórdhíola	-3674
▁scileanna	-3675
▁tromchúis	-3676
▁mheasúnachta	-3677
INT	-3678
orc	-3679
▁UM	-3680
▁dia	-3681
▁dro	-3682
▁grá	-3683
ction	-3684
eiste	-3685
órsaí	-3686
▁Oibr	-3687
▁loin	-3688
▁míle	-3689
▁seol	-3690
neacht	-3691
▁anuas	-3692
▁éinní	-3693
▁déanmh	-3694
▁táillí	-3695
▁bPríomh	-3696
▁roghanna	-3697
▁chóireáil	-3698
▁oideachas	-3699
▁sealadach	-3700
▁stiúrthóirí	-3701
▁neamhspleách	-3702
che	-3703
ess	-3704
und	-3705
uath	-3706
éise	-3707
▁Chu	-3708
▁Hot	-3709
▁Uair	-3710
▁alos	-3711
▁buan	-3712
▁chom	-3713
▁roth	-3714
▁roinn	-3715
oiliúna	-3716
▁Ríocht	-3717
▁gceart	-3718
▁déantar	-3719
eoireacht	-3720
▁iascaigh	-3721
▁gcuirtear	-3722
▁tarmligthe	-3723
▁thiocfaidh	-3724
▁reachtaíocht	-3725
nb	-3726
▁46	-3727
▁191	-3728
▁aib	-3729
▁org	-3730
annaí	-3731
iúnas	-3732
thóra	-3733
▁1924	-3734
▁1999	-3735
▁Alla	-3736
▁Dáta	-3737
▁fhad	-3738
▁háit	-3739
▁pian	-3740
tagóir	-3741
▁thoil	-3742
iúnacha	-3743
▁Táimid	-3744
▁chórais	-3745
▁réigiún	-3746
iallaíonn	-3747
▁teoranta	-3748
▁ainmhithe	-3749
▁oibreacha	-3750
▁sábháilte	-3751
▁Gaeltachta	-3752
▁chomhairle	-3753
liú	-3754
ork	-3755
áta	-3756
ORPA	-3757
úine	-3758
▁cro	-3759
ittee	-3760
▁Iasc	-3761
▁Leag	-3762
▁gcru	-3763
▁hiar	-3764
▁toir	-3765
cheann	-3766
daíonn	-3767
earsan	-3768
iúnais	-3769
▁dócha	-3770
ochtúir	-3771
▁Cruach	-3772
▁gCúirt	-3773
▁sochar	-3774
▁leordhó	-3775
▁cuirtear	-3776
▁monarcha	-3777
▁sonracha	-3778
▁tarraing	-3779
scaoileadh	-3780
▁limistéir	-3781
▁tabharfar	-3782
▁thuilleadh	-3783
ST	-3784
▁x	-3785
caí	-3786
les	-3787
▁38	-3788
▁42	-3789
eice	-3790
eála	-3791
ánta	-3792
▁Hel	-3793
idéil	-3794
oirgn	-3795
▁2005	-3796
▁Euro	-3797
aistriú	-3798
altóirí	-3799
▁Threoir	-3800
▁líonadh	-3801
▁réitigh	-3802
▁thalamh	-3803
▁uachtar	-3804
▁Iarnróid	-3805
▁leabhair	-3806
▁leasanna	-3807
▁raghaidh	-3808
▁chinnfidh	-3809
▁cláruithe	-3810
▁suimeanna	-3811
▁treoracha	-3812
▁caighdeáin	-3813
▁forordaithe	-3814
mha	-3815
▁Fo	-3816
limh	-3817
óidí	-3818
óirt	-3819
▁fóg	-3820
▁chúr	-3821
▁dtar	-3822
▁fuar	-3823
Chiste	-3824
fhoirm	-3825
▁Porno	-3826
▁aicme	-3827
▁iarbh	-3828
Aibreán	-3829
▁diúité	-3830
íoltóirí	-3831
▁Fheidhm	-3832
▁dréacht	-3833
Airteagal	-3834
▁monaróir	-3835
▁slándála	-3836
óisialaigh	-3837
▁Committee	-3838
▁cúiseanna	-3839
▁dheimhniú	-3840
▁tseirbhís	-3841
▁BliainDaon	-3842
▁caiteachais	-3843
▁grianghraif	-3844
▁sheirbheáil	-3845
▁saincheaptha	-3846
ee	-3847
CHA	-3848
ans	-3849
ics	-3850
ocs	-3851
▁gu	-3852
láir	-3853
▁Aer	-3854
▁gaol	-3855
▁tíre	-3856
ainéal	-3857
iteáin	-3858
▁rátha	-3859
▁cinntí	-3860
▁gloine	-3861
▁pinsin	-3862
▁próise	-3863
▁toradh	-3864
▁dírithe	-3865
▁Caibidil	-3866
▁fhoilsiú	-3867
▁athruithe	-3868
▁faoiseamh	-3869
▁reachtúil	-3870
▁chomhaltaí	-3871
▁chomhaontú	-3872
▁dhiúscairt	-3873
▁eagraíocht	-3874
▁leasaítear	-3875
CA	-3876
ick	-3877
▁Ma	-3878
▁iP	-3879
▁Thu	-3880
▁éin	-3881
▁hoib	-3882
▁Ansin	-3883
▁iontr	-3884
▁oíche	-3885
eabhair	-3886
eananna	-3887
▁Screen	-3888
▁phlean	-3889
▁critéir	-3890
▁gcéanna	-3891
▁ndearna	-3892
▁ríomhph	-3893
▁tairbhe	-3894
léireofar	-3895
▁déileáil	-3896
▁feiceáil	-3897
▁mhargadh	-3898
▁thosaigh	-3899
▁dheireadh	-3900
▁teilifíse	-3901
▁thuairisc	-3902
▁dhliteanas	-3903
▁cuideachtaí	-3904
EN	-3905
SP	-3906
mí	-3907
ARL	-3908
ier	-3909
rap	-3910
▁BH	-3911
iorc	-3912
lánú	-3913
olún	-3914
▁SMS	-3915
ardas	-3916
celet	-3917
▁Help	-3918
▁Réig	-3919
▁aice	-3920
▁Réamh	-3921
isceana	-3922
▁chearta	-3923
eachtanna	-3924
▁ghabháil	-3925
▁tuiscint	-3926
▁chuirfidh	-3927
▁fhéadfadh	-3928
▁bhliantúil	-3929
mad	-3930
▁Eo	-3931
▁ro	-3932
tage	-3933
▁cla	-3934
▁lig	-3935
ointí	-3936
taobh	-3937
uirbh	-3938
▁2004	-3939
▁Ainm	-3940
▁Coda	-3941
▁Leis	-3942
▁dtos	-3943
▁mais	-3944
▁trae	-3945
dhíola	-3946
laithe	-3947
paráid	-3948
úlacht	-3949
▁théann	-3950
▁iarbhír	-3951
▁Pornload	-3952
▁beagnach	-3953
▁dromchla	-3954
▁leibhéil	-3955
▁leigheas	-3956
▁oiliúint	-3957
▁Oideachas	-3958
▁leasuithe	-3959
▁comhionann	-3960
▁taispeáint	-3961
..	-3962
▁y	-3963
-20	-3964
ast	-3965
▁IN	-3966
Load	-3967
chas	-3968
inbh	-3969
▁...	-3970
▁Ear	-3971
▁par	-3972
thais	-3973
▁gair	-3974
▁teag	-3975
acnama	-3976
▁Foils	-3977
▁bpost	-3978
▁Sraith	-3979
▁comhad	-3980
▁anailís	-3981
▁ndaoine	-3982
▁shuíomh	-3983
aisinéirí	-3984
▁Cuireann	-3985
▁imscrúdú	-3986
▁PornoLoad	-3987
▁Teicneola	-3988
▁seachtaine	-3989
▁smaoineamh	-3990
▁tithíochta	-3991
-2	-3992
IC	-3993
Sh	-3994
uib	-3995
▁Ac	-3996
▁IO	-3997
▁Rol	-3998
airde	-3999
▁Banc	-4000
▁cuma	-4001
alartú	-4002
▁Split	-4003
▁téacs	-4004
▁hEORPA	-4005
▁mhainn	-4006
▁Iompair	-4007
▁meaisín	-4008
▁tAontas	-4009
▁tástáil	-4010
▁Eorpacha	-4011
▁bhainfidh	-4012
íocaíochtaí	-4013
▁bhainistiú	-4014
▁luaidhtear	-4015
▁éagsúlacht	-4016
CHÁ	-4017
ate	-4018
red	-4019
ród	-4020
ther	-4021
▁bac	-4022
▁1923	-4023
▁1976	-4024
▁móra	-4025
▁éasc	-4026
amhail	-4027
glaigh	-4028
▁Allah	-4029
▁dheas	-4030
▁fhreag	-4031
▁taifid	-4032
▁scríobh	-4033
▁stóráil	-4034
▁taistil	-4035
▁bunaíodh	-4036
▁soláthraí	-4037
▁spreagadh	-4038
▁uaireanta	-4039
▁Speisialta	-4040
▁fhéadfaidh	-4041
▁Chuideachta	-4042
▁cuntasaíochta	-4043
AO	-4044
eb	-4045
iac	-4046
ung	-4047
▁ma	-4048
ghas	-4049
aille	-4050
raidh	-4051
▁Cinn	-4052
▁Eala	-4053
▁carr	-4054
▁crua	-4055
▁híoc	-4056
▁nách	-4057
▁ocht	-4058
ARLAIM	-4059
▁Bosca	-4060
▁Monar	-4061
▁Theas	-4062
▁cuimh	-4063
▁dearg	-4064
▁mhion	-4065
▁taisc	-4066
aingniú	-4067
neachta	-4068
▁dhualg	-4069
▁polait	-4070
▁sheach	-4071
▁comhaid	-4072
▁Achtanna	-4073
▁Institiúid	-4074
▁ceisteanna	-4075
▁sheachtain	-4076
▁tacaíochta	-4077
ki	-4078
úb	-4079
are	-4080
chr	-4081
erm	-4082
ext	-4083
lea	-4084
▁té	-4085
insí	-4086
irim	-4087
lash	-4088
scne	-4089
▁Lár	-4090
▁Mol	-4091
▁ról	-4092
▁Cabh	-4093
▁Chos	-4094
celona	-4095
iúntas	-4096
olasaí	-4097
▁Duine	-4098
▁bhall	-4099
▁breis	-4100
▁crann	-4101
▁crios	-4102
▁mheán	-4103
▁Tugann	-4104
▁cúirte	-4105
▁héasca	-4106
▁nuacht	-4107
▁pointe	-4108
eagmháil	-4109
eallacht	-4110
▁Déanann	-4111
▁bunaidh	-4112
▁fhomhír	-4113
▁ranníoc	-4114
▁seasamh	-4115
▁shonraí	-4116
▁Cuirfear	-4117
▁beartais	-4118
▁ghairdín	-4119
▁airgeadra	-4120
▁éifeachtaí	-4121
▁uathoibríoch	-4122
AE	-4123
urg	-4124
▁Fac	-4125
▁aig	-4126
▁dár	-4127
eithe	-4128
tions	-4129
éarma	-4130
▁Céad	-4131
▁char	-4132
▁rang	-4133
▁todh	-4134
orainn	-4135
▁Fearr	-4136
▁Stair	-4137
▁bhord	-4138
▁ceadú	-4139
▁thogh	-4140
▁Ábhar	-4141
caoilte	-4142
leagáid	-4143
▁chláir	-4144
▁pionós	-4145
matáiste	-4146
▁aithint	-4147
▁feabhas	-4148
ARLAIMINT	-4149
▁staidéar	-4150
▁áiteanna	-4151
▁bhféadfar	-4152
▁Grianchloch	-4153
▁infheistíochta	-4154
iob	-4155
▁CB	-4156
▁US	-4157
▁at	-4158
▁bl	-4159
▁ló	-4160
▁Ire	-4161
▁dhr	-4162
▁rás	-4163
idéal	-4164
luach	-4165
ogadh	-4166
tacal	-4167
▁sibh	-4168
antúla	-4169
▁Gairm	-4170
▁Uisce	-4171
▁caill	-4172
▁thomh	-4173
▁dtáirg	-4174
▁feistí	-4175
▁bronnta	-4176
▁oiliúna	-4177
iotaíocht	-4178
▁struchtúr	-4179
▁himeachtaí	-4180
▁teaghlaigh	-4181
▁gluaiseacht	-4182
▁iarratasóir	-4183
ry	-4184
der	-4185
óta	-4186
▁CF	-4187
ited	-4188
tory	-4189
▁Sín	-4190
▁ndó	-4191
▁shr	-4192
illte	-4193
lithe	-4194
omhnú	-4195
ostaí	-4196
seáil	-4197
▁Uath	-4198
lainne	-4199
scoile	-4200
▁Togra	-4201
▁ceall	-4202
▁gcinn	-4203
achtair	-4204
tacháin	-4205
▁cailín	-4206
▁shábháil	-4207
▁feithiclí	-4208
chuideachta	-4209
▁Ginearálta	-4210
ank	-4211
nae	-4212
▁hé	-4213
léid	-4214
íona	-4215
▁mil	-4216
▁sho	-4217
▁sol	-4218
▁óir	-4219
uiblí	-4220
uille	-4221
áltas	-4222
óiriú	-4223
▁toil	-4224
▁tuig	-4225
Chúirt	-4226
▁Inter	-4227
▁Watch	-4228
▁cárta	-4229
▁amuigh	-4230
▁beagán	-4231
▁fuaime	-4232
▁líonra	-4233
▁sreang	-4234
▁tógáil	-4235
aipiteal	-4236
▁Chontae	-4237
▁Eacnama	-4238
▁Ireland	-4239
▁ionadaí	-4240
eolaíocht	-4241
scoileanna	-4242
▁fhianaise	-4243
▁hachomair	-4244
▁iarrthóir	-4245
▁chomhlachta	-4246
▁institiúidí	-4247
▁Bainistíochta	-4248
mb	-4249
bhr	-4250
irc	-4251
irí	-4252
▁Ad	-4253
▁ab	-4254
iars	-4255
súil	-4256
uinn	-4257
ánaí	-4258
▁Aib	-4259
▁cra	-4260
eidil	-4261
ántas	-4262
▁2000	-4263
▁Next	-4264
▁fola	-4265
▁morg	-4266
▁tóir	-4267
thacht	-4268
▁fostú	-4269
▁gcóir	-4270
▁liath	-4271
▁tobac	-4272
▁íosta	-4273
innithe	-4274
oblacht	-4275
▁cógais	-4276
▁méadar	-4277
▁íocadh	-4278
aoiseamh	-4279
rúduithe	-4280
▁geallta	-4281
▁meáchan	-4282
▁Mheirice	-4283
▁chugainn	-4284
▁fadhbanna	-4285
iarratasóir	-4286
▁Airteagail	-4287
▁thabharfaidh	-4288
▁traidisiúnta	-4289
▁comhaontuithe	-4290
▁príobháideach	-4291
CR	-4292
iall	-4293
oint	-4294
weet	-4295
ments	-4296
reáin	-4297
roinn	-4298
▁1963	-4299
▁Conn	-4300
▁réal	-4301
dhearc	-4302
▁Creid	-4303
▁athnu	-4304
▁baill	-4305
▁beaga	-4306
▁choig	-4307
▁tsamh	-4308
oichead	-4309
▁Tabhair	-4310
▁inneall	-4311
▁nuashon	-4312
▁teorann	-4313
▁bréagach	-4314
▁tréimhsí	-4315
▁éineacht	-4316
tóireachta	-4317
▁Barcelona	-4318
▁chónaithe	-4319
▁leanfaidh	-4320
▁chúlghairm	-4321
▁ngairmtear	-4322
▁oibríochtaí	-4323
▁thairiscint	-4324
▁teorainneacha	-4325
erv	-4326
iúl	-4327
▁41	-4328
▁55	-4329
▁75	-4330
▁Se	-4331
ainí	-4332
ánna	-4333
▁rol	-4334
▁sli	-4335
chain	-4336
▁1933	-4337
▁Lios	-4338
▁ardú	-4339
▁bunú	-4340
▁coin	-4341
▁dífh	-4342
▁hamh	-4343
▁lamh	-4344
▁stát	-4345
rachas	-4346
▁Córas	-4347
▁Neamh	-4348
▁aerár	-4349
▁phion	-4350
uairimí	-4351
▁Dúiche	-4352
▁Leanaí	-4353
▁láidir	-4354
▁spraoi	-4355
▁buiséad	-4356
▁fostóir	-4357
▁gairdín	-4358
▁gcríoch	-4359
▁Cuirtear	-4360
▁ceachtar	-4361
▁dhearbhú	-4362
▁Tionscail	-4363
▁chuirfear	-4364
▁dtiocfaidh	-4365
▁mbunaítear	-4366
▁PHARLAIMINT	-4367
tan	-4368
ÁIL	-4369
▁gl	-4370
▁tv	-4371
ideo	-4372
quar	-4373
▁190	-4374
▁Nol	-4375
▁Tás	-4376
▁sla	-4377
▁Níor	-4378
▁chlú	-4379
▁géar	-4380
ission	-4381
▁Bláth	-4382
▁Críos	-4383
▁fiach	-4384
▁tirim	-4385
lacháin	-4386
éileamh	-4387
▁Nollag	-4388
▁dlínse	-4389
▁ndóigh	-4390
eithicil	-4391
éilleadh	-4392
▁aithean	-4393
▁gcuntas	-4394
▁saothar	-4395
▁Ghaeilge	-4396
▁ceallraí	-4397
▁shuiteáil	-4398
▁scéimeanna	-4399
▁thabharfar	-4400
▁líomatáiste	-4401
▁leordhóthanach	-4402
▁sábháilteachta	-4403
▁Dr	-4404
▁pá	-4405
bate	-4406
idhm	-4407
rimh	-4408
taca	-4409
ghlac	-4410
oirse	-4411
taisí	-4412
▁Ghnó	-4413
▁dích	-4414
▁ioml	-4415
▁ngnó	-4416
uspóir	-4417
▁Faigh	-4418
▁dheis	-4419
▁ithir	-4420
▁titim	-4421
aillimh	-4422
lachais	-4423
tálacha	-4424
▁ráitis	-4425
aithfidh	-4426
▁bealach	-4427
▁ordóidh	-4428
aitisticí	-4429
othabhála	-4430
▁staidéir	-4431
▁Uachtarán	-4432
▁caitheamh	-4433
▁nAchtanna	-4434
▁shonrófar	-4435
▁tionscail	-4436
▁Cuideachta	-4437
lam	-4438
mar	-4439
easa	-4440
ener	-4441
isis	-4442
look	-4443
luas	-4444
nách	-4445
ácht	-4446
áint	-4447
▁dor	-4448
▁dúb	-4449
▁ead	-4450
MHAIR	-4451
feadh	-4452
▁Cóip	-4453
▁chuí	-4454
▁Eolas	-4455
▁Mheán	-4456
▁chaoi	-4457
▁dhéag	-4458
ectable	-4459
iarsmaí	-4460
▁Comhsh	-4461
▁bheart	-4462
▁dearbh	-4463
▁teocht	-4464
▁íocfar	-4465
▁Plandaí	-4466
▁compord	-4467
▁ollmhór	-4468
▁dílsithe	-4469
▁Oifigiúil	-4470
▁acmhainní	-4471
▁deireanach	-4472
▁sheachaint	-4473
▁athbhreithnithe	-4474
riú	-4475
rád	-4476
ton	-4477
ÉAN	-4478
▁65	-4479
▁70	-4480
ctha	-4481
leic	-4482
▁New	-4483
▁din	-4484
oimhd	-4485
▁2020	-4486
▁Aois	-4487
▁Níos	-4488
▁cath	-4489
▁ceal	-4490
▁féil	-4491
▁níor	-4492
▁siop	-4493
▁sogh	-4494
▁wash	-4495
ainéil	-4496
neoidh	-4497
nuithe	-4498
ostóir	-4499
íochas	-4500
▁cónaí	-4501
▁earra	-4502
▁thiom	-4503
fhéidir	-4504
▁foirfe	-4505
▁gcruth	-4506
aisceart	-4507
eolaithe	-4508
▁deacair	-4509
▁náisiún	-4510
chúiseamh	-4511
▁European	-4512
▁Faisnéise	-4513
▁Tráchtála	-4514
▁dliteanas	-4515
▁duilleoga	-4516
▁fhorléiriú	-4517
▁leictreach	-4518
▁úsáideoirí	-4519
10	-4520
mm	-4521
oo	-4522
▁53	-4523
▁VI	-4524
▁se	-4525
nóir	-4526
roid	-4527
▁And	-4528
▁App	-4529
▁Out	-4530
▁Pró	-4531
▁hid	-4532
achan	-4533
aiste	-4534
chead	-4535
isean	-4536
áillí	-4537
▁1967	-4538
▁CHUN	-4539
▁Cumh	-4540
▁Sean	-4541
▁dtús	-4542
▁eisc	-4543
▁fíon	-4544
chtana	-4545
uítear	-4546
▁Foirm	-4547
▁Leigh	-4548
▁Tuirc	-4549
▁ceist	-4550
▁contr	-4551
▁dháil	-4552
eibhéal	-4553
scartha	-4554
▁coinne	-4555
▁gcoinn	-4556
▁shonrú	-4557
▁Factory	-4558
▁áitribh	-4559
ghairtear	-4560
▁luacháil	-4561
▁léiríonn	-4562
▁mbealach	-4563
▁saoráidí	-4564
▁Mórdhíola	-4565
▁Sóisialta	-4566
▁ceadaithe	-4567
▁scoirfidh	-4568
▁Connectable	-4569
▁Tabharfaidh	-4570
▁Talmhaíochta	-4571
Fh	-4572
CDD	-4573
ink	-4574
nat	-4575
siú	-4576
▁Pé	-4577
▁ce	-4578
adhb	-4579
▁abh	-4580
iorra	-4581
leath	-4582
▁aibí	-4583
▁gcos	-4584
fhreag	-4585
iotail	-4586
iseadh	-4587
scrúdú	-4588
táilte	-4589
▁Iosta	-4590
▁aidhm	-4591
▁fhonn	-4592
▁litir	-4593
▁urrús	-4594
▁Ilghné	-4595
▁pháirt	-4596
▁imeacht	-4597
▁labhairt	-4598
▁thógaint	-4599
▁Bhallstát	-4600
▁Forbartha	-4601
▁úsáideoir	-4602
▁Achomhairc	-4603
▁praghsanna	-4604
▁bhféadfaidh	-4605
▁Chomhphobail	-4606
▁ghníomhaíochtaí	-4607
br	-4608
ren	-4609
EASÚ	-4610
bhra	-4611
ious	-4612
onna	-4613
port	-4614
▁189	-4615
▁Car	-4616
▁bhe	-4617
▁gru	-4618
lanna	-4619
▁bpró	-4620
▁chor	-4621
▁gorm	-4622
▁hArd	-4623
▁inti	-4624
▁muir	-4625
▁tosú	-4626
chéile	-4627
luiche	-4628
óithre	-4629
▁aonad	-4630
▁cóimh	-4631
▁dheir	-4632
▁galar	-4633
▁éascú	-4634
▁éinne	-4635
saíocht	-4636
▁tuaras	-4637
▁cuspóir	-4638
▁Monarcha	-4639
▁imthosca	-4640
▁Seirbhíse	-4641
▁riachtanas	-4642
-3	-4643
SE	-4644
ha	-4645
AID	-4646
nár	-4647
ual	-4648
▁nD	-4649
nbúl	-4650
rais	-4651
▁Pol	-4652
▁mún	-4653
aisce	-4654
aoise	-4655
shuim	-4656
▁Cáil	-4657
▁TCDD	-4658
▁earr	-4659
▁muin	-4660
achana	-4661
▁Anois	-4662
▁Rolex	-4663
▁Treor	-4664
▁bainc	-4665
▁dhíon	-4666
▁luadh	-4667
▁shaor	-4668
inneach	-4669
▁cigire	-4670
▁ghrúpa	-4671
▁urrúis	-4672
▁Outlook	-4673
▁mbliain	-4674
▁mholadh	-4675
▁snáithe	-4676
eastaíonn	-4677
▁cónaithe	-4678
▁shealbhú	-4679
▁Áirítear	-4680
▁íocfaidh	-4681
▁Iostanbúl	-4682
▁chruinniú	-4683
▁suntasach	-4684
▁bhfaighidh	-4685
▁eacnamaíoch	-4686
▁oibleagáidí	-4687
▁tuairisceán	-4688
▁críochnaithe	-4689
▁Feidhmiúcháin	-4690
▁cathaoirleach	-4691
▁ós	-4692
▁Nat	-4693
▁alc	-4694
ainmn	-4695
ollar	-4696
▁1998	-4697
▁Líon	-4698
▁dheo	-4699
▁léar	-4700
▁athsh	-4701
▁cistí	-4702
▁cábla	-4703
▁feirm	-4704
▁linbh	-4705
▁shárú	-4706
quarium	-4707
▁Leictr	-4708
▁bpáirt	-4709
▁diúltú	-4710
▁fréamh	-4711
▁mhaolú	-4712
▁síolta	-4713
▁washer	-4714
▁Samhain	-4715
▁dualgas	-4716
▁fhoirgn	-4717
▁hábhair	-4718
▁maoiniú	-4719
▁pearsan	-4720
▁páipéar	-4721
▁threoir	-4722
▁ghlanadh	-4723
▁tionscal	-4724
▁todhchaí	-4725
bhreithniú	-4726
▁táirgeadh	-4727
▁bhreithniú	-4728
▁foirgneamh	-4729
▁múinteoirí	-4730
▁shonraithe	-4731
▁substaintí	-4732
▁thíolacadh	-4733
▁Éireannach	-4734
▁tionscnaimh	-4735
▁Shóisialaigh	-4736
▁fheidhmeanna	-4737
ke	-4738
ÁS	-4739
fho	-4740
gen	-4741
mer	-4742
res	-4743
scr	-4744
▁Mo	-4745
dáin	-4746
ostú	-4747
▁Par	-4748
▁Tos	-4749
ltais	-4750
▁Post	-4751
▁Teor	-4752
▁bhar	-4753
▁cobh	-4754
▁thrí	-4755
▁Leasa	-4756
▁droch	-4757
▁lámha	-4758
▁thrád	-4759
▁chuims	-4760
▁forála	-4761
▁moltaí	-4762
▁satail	-4763
▁triail	-4764
ireachta	-4765
▁Áitiúla	-4766
▁Cathrach	-4767
▁Gaillimh	-4768
▁cheaptha	-4769
▁déanmhas	-4770
▁díolúine	-4771
▁tionónta	-4772
▁faireachán	-4773
▁tionscnamh	-4774
▁comhréireachta	-4775
▁teicneolaíocht	-4776
TS	-4777
ld	-4778
▁44	-4779
▁DE	-4780
▁Fa	-4781
itis	-4782
▁cor	-4783
▁Íoc	-4784
▁úis	-4785
oláir	-4786
▁2002	-4787
▁Bail	-4788
▁éirí	-4789
iúchta	-4790
thaigh	-4791
théacs	-4792
▁Léigh	-4793
▁bhean	-4794
▁díola	-4795
▁gcoit	-4796
▁phost	-4797
▁stoic	-4798
▁Cineál	-4799
▁Inscne	-4800
▁amhras	-4801
▁branda	-4802
▁hoifig	-4803
áitreabh	-4804
▁bóithre	-4805
▁chomhar	-4806
▁pháirtí	-4807
▁Ceannais	-4808
▁Chosaint	-4809
▁foireann	-4810
▁buntáistí	-4811
▁difríocht	-4812
▁feistithe	-4813
▁gairmiúil	-4814
▁satailíte	-4815
▁teicniúil	-4816
▁comharthaí	-4817
▁cruinnithe	-4818
▁phearsanta	-4819
▁iontaobhais	-4820
▁soláthraithe	-4821
MA	-4822
▁48	-4823
▁49	-4824
earg	-4825
ighe	-4826
▁Mac	-4827
▁sal	-4828
▁tru	-4829
altas	-4830
iocht	-4831
túirt	-4832
▁1997	-4833
▁Atha	-4834
▁Fion	-4835
▁Rúis	-4836
▁fhóg	-4837
▁oidh	-4838
▁stop	-4839
▁tine	-4840
eadóir	-4841
eapáin	-4842
iailiú	-4843
iamond	-4844
uidéal	-4845
▁Ionad	-4846
▁bíonn	-4847
▁dtreo	-4848
▁dílse	-4849
▁mhích	-4850
▁míniú	-4851
▁scáth	-4852
ltúrtha	-4853
▁cuidiú	-4854
▁trácht	-4855
▁éilimh	-4856
lteanais	-4857
▁codanna	-4858
▁leanúna	-4859
▁tháirgí	-4860
▁chonradh	-4861
▁dáileadh	-4862
▁ndéanfaí	-4863
▁réigiúin	-4864
▁taisteal	-4865
▁teagmhas	-4866
▁thaifead	-4867
▁timpeall	-4868
oideachais	-4869
▁chláraithe	-4870
▁gcomparáid	-4871
▁hoibreacha	-4872
▁incháilithe	-4873
▁measúnachta	-4874
ock	-4875
rat	-4876
roí	-4877
ush	-4878
▁PR	-4879
▁ir	-4880
▁ru	-4881
eitr	-4882
mais	-4883
▁app	-4884
▁fis	-4885
▁lip	-4886
eoite	-4887
imint	-4888
ograí	-4889
rácht	-4890
▁2003	-4891
ÉANAMH	-4892
únaimh	-4893
▁Chuar	-4894
▁mainn	-4895
▁riail	-4896
▁thabh	-4897
dhéanta	-4898
▁Tweets	-4899
▁beatha	-4900
▁cumann	-4901
▁muirir	-4902
▁snáith	-4903
▁stádas	-4904
▁tógála	-4905
oiciméid	-4906
▁cúraimí	-4907
▁srianta	-4908
▁ballóide	-4909
▁phraghas	-4910
▁céimeanna	-4911
▁feithicle	-4912
▁gcoitinne	-4913
▁sibhialta	-4914
▁trédhearc	-4915
▁comhairimh	-4916
▁gcomhlacht	-4917
▁tuismitheoirí	-4918
cho	-4919
lia	-4920
nal	-4921
▁90	-4922
▁TU	-4923
▁iv	-4924
dhío	-4925
eaga	-4926
ical	-4927
lúma	-4928
naer	-4929
▁Fin	-4930
▁Mas	-4931
▁tur	-4932
EANNA	-4933
ealra	-4934
iúirí	-4935
ltóir	-4936
scáil	-4937
▁Nach	-4938
▁cuim	-4939
▁dhul	-4940
▁dhíl	-4941
▁féid	-4942
▁réad	-4943
illing	-4944
lachas	-4945
luaite	-4946
▁Dúirt	-4947
▁Local	-4948
▁agóid	-4949
▁línte	-4950
▁teasa	-4951
▁éadaí	-4952
daíocht	-4953
inneoin	-4954
straimí	-4955
ínítear	-4956
▁Nuacht	-4957
▁cúrsaí	-4958
▁dhlíth	-4959
caíochta	-4960
cmhainní	-4961
eangacha	-4962
saíochta	-4963
▁Ealaíon	-4964
▁Leabhar	-4965
▁gcionta	-4966
▁phointe	-4967
▁Cumhacht	-4968
▁cóireáil	-4969
▁gcoimeád	-4970
▁oibrithe	-4971
ábhachtach	-4972
▁bainistiú	-4973
▁ceannaigh	-4974
▁diúscairt	-4975
▁dlíthiúil	-4976
▁phróiseas	-4977
▁tiocfaidh	-4978
▁dliteanais	-4979
▁bainisteoir	-4980
▁bhraitheann	-4981
▁sábháilteacht	-4982
pt	-4983
ue	-4984
eaf	-4985
ons	-4986
tra	-4987
tán	-4988
uro	-4989
way	-4990
▁Sr	-4991
▁óc	-4992
atrú	-4993
earn	-4994
éine	-4995
▁Fhr	-4996
▁buí	-4997
▁lot	-4998
▁mic	-4999
itimh	-5000
árach	-5001
▁Déar	-5002
▁díbh	-5003
▁easc	-5004
aothrú	-5005
▁Rinne	-5006
▁únaer	-5007
lúmanam	-5008
oirmisc	-5009
omhairl	-5010
▁ceimic	-5011
▁ghrian	-5012
▁ngleic	-5013
▁Gairdín	-5014
▁dheasca	-5015
▁faighte	-5016
▁phríobh	-5017
▁voltage	-5018
eachtacht	-5019
▁iontaofa	-5020
▁mheasúnú	-5021
▁scannáin	-5022
▁Monaróirí	-5023
▁bhféadfaí	-5024
▁héifeacht	-5025
▁teaghlach	-5026
▁teicniúla	-5027
▁chreidiúint	-5028
▁ghníomhaíocht	-5029
HO	-5030
cu	-5031
alú	-5032
chó	-5033
ory	-5034
ote	-5035
▁52	-5036
▁Tí	-5037
▁Ur	-5038
oine	-5039
▁Cás	-5040
▁dhú	-5041
chais	-5042
eosla	-5043
▁Ordú	-5044
▁cist	-5045
▁clas	-5046
▁lasc	-5047
▁thur	-5048
▁uirb	-5049
turnae	-5050
úinéir	-5051
▁Chlár	-5052
▁Rialú	-5053
▁bhfol	-5054
▁dligh	-5055
▁hAcht	-5056
▁toirt	-5057
oiriúil	-5058
íocháin	-5059
▁Daoine	-5060
▁bainne	-5061
▁gCiste	-5062
▁galair	-5063
▁mhíniú	-5064
▁páistí	-5065
▁spóirt	-5066
▁bhearta	-5067
▁custaim	-5068
▁féilire	-5069
▁glactha	-5070
▁hamháin	-5071
▁míleata	-5072
▁Iascaigh	-5073
▁ainneoin	-5074
▁cuireann	-5075
▁deontais	-5076
▁fhéadfar	-5077
▁sceideal	-5078
▁caithfidh	-5079
▁teagmhála	-5080
▁thagairtí	-5081
▁thuiscint	-5082
▁achomhairc	-5083
▁gheimhridh	-5084
▁oibleagáid	-5085
▁friotaíocht	-5086
▁prionsabail	-5087
▁maoirseachta	-5088
▁tuarascálacha	-5089
ilv	-5090
ómh	-5091
▁43	-5092
▁51	-5093
▁58	-5094
▁Pl	-5095
▁en	-5096
eifr	-5097
mach	-5098
olog	-5099
▁Inc	-5100
▁Min	-5101
▁imp	-5102
▁tío	-5103
▁óna	-5104
aingt	-5105
cairí	-5106
ealth	-5107
▁bean	-5108
▁fhás	-5109
▁hais	-5110
eifear	-5111
othair	-5112
▁laghd	-5113
▁scála	-5114
leabhar	-5115
▁aimsiú	-5116
▁dhroim	-5117
▁gcumas	-5118
▁hAchta	-5119
▁sreabh	-5120
▁Sóisial	-5121
▁contrár	-5122
▁eochair	-5123
▁meascán	-5124
▁éagsúil	-5125
▁DHÉANAMH	-5126
▁Forbairt	-5127
▁cheantar	-5128
▁indéanta	-5129
▁Straitéis	-5130
▁craiceann	-5131
▁gníomhach	-5132
▁mhargaidh	-5133
▁cheapfaidh	-5134
▁Gluaiseacht	-5135
▁caighdeánach	-5136
▁eagraíochtaí	-5137
▁mórdhíoltóirí	-5138
ell	-5139
▁47	-5140
lish	-5141
máid	-5142
uirg	-5143
▁Chó	-5144
▁aca	-5145
▁brí	-5146
▁cao	-5147
▁cig	-5148
▁mad	-5149
▁sár	-5150
iseán	-5151
nóidh	-5152
thain	-5153
unter	-5154
▁Comp	-5155
▁croí	-5156
threor	-5157
▁Ríomh	-5158
▁fóill	-5159
▁mhona	-5160
▁poist	-5161
▁saoil	-5162
▁thiar	-5163
bhearta	-5164
éadfidh	-5165
▁Daonra	-5166
▁Dearbh	-5167
▁chúram	-5168
▁dúradh	-5169
▁ghearr	-5170
▁intinn	-5171
ainteoir	-5172
asamhail	-5173
▁bóthair	-5174
▁cailíní	-5175
▁fionraí	-5176
▁pictiúr	-5177
lathaithe	-5178
▁Bracelet	-5179
▁Catagóirí	-5180
▁dhochtúir	-5181
▁gcruinniú	-5182
▁úsáideann	-5183
▁sheirbhísí	-5184
▁éigeandála	-5185
▁gcomhpháirt	-5186
▁chaiteachais	-5187
ka	-5188
ya	-5189
top	-5190
▁57	-5191
aicí	-5192
ness	-5193
nnas	-5194
pers	-5195
▁clo	-5196
▁cód	-5197
▁tap	-5198
▁Íos	-5199
foirt	-5200
▁1952	-5201
▁Barr	-5202
▁Ráit	-5203
▁Tras	-5204
▁geal	-5205
▁heis	-5206
▁hord	-5207
▁tuir	-5208
iciúla	-5209
iniúch	-5210
saithe	-5211
íocfar	-5212
▁Cuims	-5213
▁bailí	-5214
▁charm	-5215
▁cheil	-5216
▁ciste	-5217
▁coinn	-5218
▁cuims	-5219
▁cúirt	-5220
▁fhion	-5221
▁mhair	-5222
▁shann	-5223
▁shaol	-5224
▁stáit	-5225
aithint	-5226
réitigh	-5227
áchtáil	-5228
▁Mhárta	-5229
▁sciath	-5230
ibhialta	-5231
▁Praghas	-5232
▁rathúil	-5233
íocaíocht	-5234
▁meáchain	-5235
▁stáisiún	-5236
▁toghchán	-5237
eolaíochta	-5238
▁aitheanta	-5239
▁dhaingniú	-5240
▁feithicil	-5241
▁inmhuirir	-5242
▁toirmeasc	-5243
chaighdeáin	-5244
▁compordach	-5245
▁ghairmiúil	-5246
▁staitisticí	-5247
▁Coinbhinsiún	-5248
▁ainmniúcháin	-5249
▁gCuideachtaí	-5250
▁iniúchóireachta	-5251
cy	-5252
INN	-5253
por	-5254
▁TR	-5255
ANNA	-5256
feas	-5257
ings	-5258
naid	-5259
ouse	-5260
áire	-5261
éata	-5262
▁CEE	-5263
▁fír	-5264
▁fón	-5265
▁sil	-5266
eagar	-5267
ivers	-5268
íosaí	-5269
▁1956	-5270
▁Cáin	-5271
▁dlúth	-5272
▁meabh	-5273
▁meáin	-5274
▁theas	-5275
rúcháin	-5276
▁forais	-5277
▁ionaid	-5278
▁leacht	-5279
▁láimhe	-5280
▁neartú	-5281
▁riocht	-5282
▁táimid	-5283
ubstaint	-5284
éifeacht	-5285
▁beartas	-5286
▁chuaigh	-5287
▁chluiche	-5288
▁comhshoc	-5289
▁farraige	-5290
▁táirgthe	-5291
▁liathróid	-5292
▁pleananna	-5293
▁reáchtáil	-5294
▁bhéarfaidh	-5295
▁dteagmháil	-5296
▁fheithicil	-5297
▁fostaíocht	-5298
▁tairisceana	-5299
▁foirgníochta	-5300
LÁ	-5301
ió	-5302
pe	-5303
old	-5304
opa	-5305
rad	-5306
tel	-5307
uin	-5308
ula	-5309
téir	-5310
uirm	-5311
▁dho	-5312
▁pas	-5313
EACHT	-5314
aráid	-5315
daoin	-5316
earch	-5317
fhabh	-5318
áthar	-5319
▁Céim	-5320
▁Eola	-5321
▁dtug	-5322
▁scar	-5323
taíonn	-5324
▁LEASÚ	-5325
▁Leith	-5326
▁líomh	-5327
▁máist	-5328
Chúirte	-5329
iúlacht	-5330
▁Iomlán	-5331
▁fhadhb	-5332
▁giorra	-5333
▁loings	-5334
leathach	-5335
▁Chuarda	-5336
▁Fhrainc	-5337
▁chostas	-5338
▁dtáirgí	-5339
▁fhágáil	-5340
▁forlíon	-5341
▁gléasra	-5342
airgeadra	-5343
chuirtear	-5344
naitheach	-5345
▁Seirbhís	-5346
▁foghlaim	-5347
▁shláinte	-5348
▁taispeán	-5349
▁coinníoll	-5350
▁conarthaí	-5351
▁cóipeanna	-5352
▁próiseála	-5353
▁Teaghlaigh	-5354
▁Tuarascáil	-5355
▁cleachtais	-5356
▁fréamhacha	-5357
▁seachtrach	-5358
▁theicniúil	-5359
▁forléireofar	-5360
▁Choinbhinsiún	-5361
▁cheanglaítear	-5362
▁mionsonraithe	-5363
▁choinníollacha	-5364
FC	-5365
UM	-5366
lar	-5367
ots	-5368
ten	-5369
▁02	-5370
▁he	-5371
blaí	-5372
iúnú	-5373
nasc	-5374
▁Pac	-5375
▁Tor	-5376
▁gCO	-5377
▁lag	-5378
▁pío	-5379
aidin	-5380
eilig	-5381
ghrád	-5382
neach	-5383
uirge	-5384
álann	-5385
ásach	-5386
▁1926	-5387
▁1936	-5388
▁fiac	-5389
▁ithe	-5390
chiste	-5391
ocsain	-5392
▁cinnt	-5393
▁cúrsa	-5394
MHAIRLE	-5395
dhreach	-5396
oiteann	-5397
teorann	-5398
▁Dollar	-5399
▁Roinne	-5400
▁phríos	-5401
▁thaisc	-5402
▁vótáil	-5403
póirtéir	-5404
▁Cosanta	-5405
▁Taighde	-5406
▁chigire	-5407
▁deartha	-5408
▁gruaige	-5409
▁scoláir	-5410
▁Céadaoin	-5411
▁Infheist	-5412
▁shanntar	-5413
▁tharchur	-5414
▁Déardaoin	-5415
▁Taispeáin	-5416
▁scaipeadh	-5417
▁toghcháin	-5418
▁Tionscadal	-5419
▁ionstraimí	-5420
▁chaiteachas	-5421
▁treoirlínte	-5422
▁ardchaighdeán	-5423
▁fhoirceannadh	-5424
▁gníomhaíochta	-5425
EAD	-5426
ran	-5427
▁At	-5428
▁Ós	-5429
chúr	-5430
dhlú	-5431
hone	-5432
inné	-5433
nigh	-5434
nród	-5435
ráma	-5436
áinn	-5437
▁Ins	-5438
▁Man	-5439
▁Sin	-5440
▁bpr	-5441
▁gal	-5442
ience	-5443
iotal	-5444
oimre	-5445
ublic	-5446
▁1927	-5447
▁Deir	-5448
▁Slán	-5449
▁deas	-5450
▁gáis	-5451
▁imní	-5452
chéime	-5453
earach	-5454
eisial	-5455
nítear	-5456
obhach	-5457
rúchán	-5458
▁Joint	-5459
▁Riail	-5460
▁breac	-5461
▁céile	-5462
▁miond	-5463
▁mothú	-5464
▁scáil	-5465
▁seice	-5466
▁tarlú	-5467
shealbh	-5468
thachta	-5469
▁Saoire	-5470
▁Tugtar	-5471
▁fáilte	-5472
▁gcúirt	-5473
▁Bhreith	-5474
▁chúnamh	-5475
▁iascach	-5476
ireachtas	-5477
▁Iarratas	-5478
▁dhiailiú	-5479
▁iniúchta	-5480
▁tagartha	-5481
▁táscaire	-5482
eartaítear	-5483
▁Ghearmáin	-5484
▁Tiocfaidh	-5485
▁cuardaigh	-5486
▁fhoghlaim	-5487
▁himthosca	-5488
▁mhuirearú	-5489
▁prionsabal	-5490
▁réigiúnach	-5491
▁Uaireadóirí	-5492
▁feidhmiúcháin	-5493
ev	-5494
ít	-5495
cra	-5496
idí	-5497
iog	-5498
net	-5499
ota	-5500
tic	-5501
▁óg	-5502
book	-5503
ista	-5504
leac	-5505
mair	-5506
ogle	-5507
rent	-5508
cheap	-5509
iteas	-5510
scail	-5511
óthar	-5512
▁Clib	-5513
▁Stat	-5514
▁dian	-5515
▁diúl	-5516
▁dúsh	-5517
▁fais	-5518
▁ilbh	-5519
▁mBan	-5520
▁mhol	-5521
▁máil	-5522
▁scag	-5523
▁shás	-5524
antóir	-5525
fhocal	-5526
mhaith	-5527
ánacha	-5528
▁Stiúr	-5529
▁chóip	-5530
ealaigh	-5531
spidéil	-5532
▁debate	-5533
▁fágtha	-5534
▁iPhone	-5535
▁mbeart	-5536
▁Dearadh	-5537
▁bhóthar	-5538
▁dtagann	-5539
▁earrach	-5540
éireachta	-5541
▁Rinneadh	-5542
▁leathair	-5543
▁oibríonn	-5544
íocaíochta	-5545
▁Chaibidil	-5546
▁digiteach	-5547
▁caipitiúil	-5548
▁cothabháil	-5549
▁gcaitheamh	-5550
▁ionadaithe	-5551
▁paisinéirí	-5552
▁seachadadh	-5553
▁custaiméirí	-5554
▁ghníomhaire	-5555
▁gníomhaíocht	-5556
▁héifeachtach	-5557
▁Gníomhaireachta	-5558
CP	-5559
ION	-5560
chl	-5561
low	-5562
▁mp	-5563
ampa	-5564
cess	-5565
iasc	-5566
less	-5567
líne	-5568
túin	-5569
▁FÁS	-5570
▁Lim	-5571
▁plé	-5572
bhuan	-5573
ltúir	-5574
uíonn	-5575
▁1939	-5576
▁1946	-5577
▁Bill	-5578
▁Dubh	-5579
▁aire	-5580
▁coda	-5581
▁tabh	-5582
áistiú	-5583
▁caomh	-5584
▁léigh	-5585
▁shiúl	-5586
▁cuibhe	-5587
▁dhiúlt	-5588
▁heagra	-5589
▁luaite	-5590
▁neamhr	-5591
▁othair	-5592
▁siopaí	-5593
▁ualach	-5594
eannaigh	-5595
oibrithe	-5596
onarthaí	-5597
▁Univers	-5598
▁aimsire	-5599
▁buidéal	-5600
▁glasraí	-5601
▁innealt	-5602
▁teachín	-5603
▁Cliceáil	-5604
▁National	-5605
▁chathair	-5606
▁cliceáil	-5607
▁coiriúla	-5608
▁domhanda	-5609
▁laethúil	-5610
▁áiseanna	-5611
▁chúiteamh	-5612
▁inchurtha	-5613
▁Cumarsáide	-5614
▁athnuachan	-5615
▁laghdaithe	-5616
▁tOireachtas	-5617
▁Uathoibríoch	-5618
▁rialaitheoir	-5619
▁infheistíocht	-5620
IB	-5621
go	-5622
ii	-5623
íd	-5624
tál	-5625
usc	-5626
▁01	-5627
▁SE	-5628
▁ST	-5629
áirc	-5630
▁Bhr	-5631
▁Cas	-5632
▁Chú	-5633
▁Stá	-5634
▁ban	-5635
▁bua	-5636
▁rad	-5637
áladh	-5638
ártaí	-5639
▁ghné	-5640
▁Oibre	-5641
▁Rátaí	-5642
▁Super	-5643
▁eagla	-5644
▁inarb	-5645
▁saibh	-5646
▁soith	-5647
▁sruth	-5648
eilleag	-5649
itheora	-5650
▁daonna	-5651
▁dhóigh	-5652
▁fomhír	-5653
▁fógraí	-5654
▁pointí	-5655
▁Áirith	-5656
▁Diamond	-5657
▁chríche	-5658
▁gcuirfí	-5659
▁speicis	-5660
stitiúidí	-5661
▁Léiríonn	-5662
▁ceanglas	-5663
▁comhlíon	-5664
▁difriúil	-5665
▁fhreagra	-5666
▁margaidh	-5667
▁suimiúil	-5668
▁tuigfear	-5669
▁Cainteoir	-5670
▁Déantóirí	-5671
▁dháileadh	-5672
▁sainráite	-5673
▁cumarsáide	-5674
▁tseachtain	-5675
▁Coimisinéir	-5676
itheoireachta	-5677
▁chustaiméirí	-5678
▁gcomhlíonann	-5679
▁meastóireacht	-5680
▁saincheisteanna	-5681
DA	-5682
IG	-5683
ím	-5684
EAR	-5685
ino	-5686
▁Da	-5687
▁SA	-5688
▁Sk	-5689
▁TH	-5690
IALA	-5691
bóin	-5692
▁Gné	-5693
▁Sna	-5694
▁cod	-5695
▁tas	-5696
cháil	-5697
ileán	-5698
oinsí	-5699
umais	-5700
▁cine	-5701
▁dtír	-5702
▁feas	-5703
▁míre	-5704
▁rabh	-5705
ration	-5706
▁Gearr	-5707
▁ciorc	-5708
▁deigh	-5709
▁dtogh	-5710
▁díosp	-5711
▁oibrí	-5712
▁uasta	-5713
▁íomhá	-5714
ainmniú	-5715
tachtaí	-5716
▁Tagann	-5717
▁bealaí	-5718
▁brabús	-5719
▁choinn	-5720
▁crutha	-5721
▁idirdh	-5722
▁mhoill	-5723
rúdaithe	-5724
▁Uachtar	-5725
▁dhiúltú	-5726
▁fhorord	-5727
▁lotnaid	-5728
▁príomha	-5729
▁tráchta	-5730
▁tuigthe	-5731
aitheacha	-5732
oideachas	-5733
▁Coláiste	-5734
▁dhearadh	-5735
▁mheastar	-5736
▁tábhacht	-5737
▁Roghnaigh	-5738
▁cáilíocht	-5739
▁iasachtaí	-5740
▁gheimhreadh	-5741
▁soláthróirí	-5742
▁urscaoileadh	-5743
SC	-5744
íc	-5745
▁Ã	-5746
lib	-5747
ser	-5748
ses	-5749
uss	-5750
▁56	-5751
▁Be	-5752
▁IS	-5753
▁Nó	-5754
▁fú	-5755
▁ie	-5756
▁úr	-5757
aice	-5758
eoch	-5759
kara	-5760
lata	-5761
urrú	-5762
▁Ama	-5763
▁Ord	-5764
▁VII	-5765
▁frá	-5766
▁lch	-5767
▁log	-5768
acket	-5769
ileog	-5770
▁1990	-5771
▁Bhun	-5772
▁Eile	-5773
▁Riar	-5774
▁Teil	-5775
▁tarr	-5776
iotáil	-5777
léasra	-5778
▁Breat	-5779
▁Ghael	-5780
▁Gnáth	-5781
▁Tábla	-5782
▁bháis	-5783
▁ceard	-5784
▁inniú	-5785
▁lenár	-5786
▁mharc	-5787
▁nuála	-5788
▁siopa	-5789
▁srian	-5790
▁vótaí	-5791
aidrimh	-5792
leathan	-5793
álfaidh	-5794
▁Google	-5795
▁Limist	-5796
▁aonaid	-5797
▁grúpaí	-5798
▁seirbh	-5799
▁smacht	-5800
▁theagh	-5801
▁voltas	-5802
liúntais	-5803
oiciméad	-5804
úinteoir	-5805
▁bhforas	-5806
▁cabhair	-5807
▁folctha	-5808
caíochtaí	-5809
▁Tuairimí	-5810
▁chomhaon	-5811
▁dhualgas	-5812
▁scilling	-5813
▁sonrófar	-5814
▁thuairim	-5815
▁Mheiriceá	-5816
▁catagóirí	-5817
▁próiseáil	-5818
▁soláthair	-5819
▁láithreáin	-5820
▁páirteanna	-5821
▁spriocanna	-5822
▁ríomhphoist	-5823
▁rannpháirteach	-5824
▁teachtaireacht	-5825
50	-5826
AT	-5827
IF	-5828
ert	-5829
ger	-5830
lub	-5831
▁68	-5832
▁Bí	-5833
▁wh	-5834
ions	-5835
liam	-5836
lóir	-5837
oise	-5838
stát	-5839
▁Arm	-5840
▁Bog	-5841
▁Cor	-5842
▁Nós	-5843
▁Res	-5844
▁bag	-5845
▁fig	-5846
▁olc	-5847
▁osp	-5848
adóir	-5849
itear	-5850
nófar	-5851
tóidh	-5852
uisce	-5853
▁1925	-5854
▁1994	-5855
▁Micr	-5856
▁Oidh	-5857
▁baol	-5858
▁ghin	-5859
▁mair	-5860
▁mbli	-5861
▁raid	-5862
▁shín	-5863
▁Éire	-5864
ÍOCHTA	-5865
▁Bíonn	-5866
▁Cruth	-5867
▁Frith	-5868
▁creat	-5869
▁deoch	-5870
▁pósta	-5871
▁taise	-5872
daítear	-5873
mhaithe	-5874
táiniam	-5875
▁Health	-5876
▁eitilt	-5877
▁fhíorú	-5878
▁gearán	-5879
▁moladh	-5880
▁muinín	-5881
▁orainn	-5882
▁thurus	-5883
▁tograí	-5884
ghlactha	-5885
untertop	-5886
éireacht	-5887
▁lárnach	-5888
▁rioscaí	-5889
▁samplaí	-5890
▁stórála	-5891
oibreacha	-5892
▁Cinneadh	-5893
▁alúmanam	-5894
▁dúbailte	-5895
ismitheoir	-5896
▁Fheidhmiú	-5897
▁deiseanna	-5898
▁fholaíonn	-5899
▁Ciallaíonn	-5900
▁Corparáide	-5901
▁Sainmhíniú	-5902
▁bronntanas	-5903
▁leithdháil	-5904
▁gComhphobal	-5905
▁úinéireacht	-5906
▁bhfostaíocht	-5907
▁hoibleagáidí	-5908
▁Gníomhaíochta	-5909
▁leictreachais	-5910
DF	-5911
amb	-5912
omb	-5913
ont	-5914
▁66	-5915
▁CR	-5916
▁CÚ	-5917
▁TE	-5918
▁Ár	-5919
▁ÓN	-5920
-201	-5921
neas	-5922
ting	-5923
▁Exp	-5924
▁ail	-5925
▁dhí	-5926
▁nea	-5927
▁res	-5928
▁óst	-5929
aispe	-5930
▁1960	-5931
▁Aith	-5932
▁Cóir	-5933
▁aeir	-5934
▁ceol	-5935
▁euro	-5936
▁héil	-5937
ailliú	-5938
arthaí	-5939
ogaidh	-5940
oicind	-5941
▁Apple	-5942
▁bíodh	-5943
▁caoga	-5944
▁coibh	-5945
▁dhích	-5946
▁dóich	-5947
▁fheic	-5948
▁ngabh	-5949
▁patrú	-5950
▁séala	-5951
landáil	-5952
▁Críoch	-5953
▁Teacht	-5954
▁aimsir	-5955
▁chiste	-5956
▁daltaí	-5957
▁ngnáth	-5958
▁reilig	-5959
onnaithe	-5960
uilleamh	-5961
▁ceangal	-5962
▁fhágann	-5963
▁seachad	-5964
▁tiomána	-5965
▁Faisnéis	-5966
▁bhuiséad	-5967
▁chlúdach	-5968
▁chomaoin	-5969
▁cóireála	-5970
▁gcuirfidh	-5971
▁reachtúla	-5972
▁Commission	-5973
▁ceangailte	-5974
▁fhorghníomhú	-5975
▁fhorordaithe	-5976
▁sholáthraíonn	-5977
▁rannpháirtíocht	-5978
Bh	-5979
its	-5980
rdú	-5981
sta	-5982
vol	-5983
▁63	-5984
▁80	-5985
▁mm	-5986
▁Ío	-5987
TAIS	-5988
sing	-5989
▁Bhu	-5990
▁Bia	-5991
▁Cal	-5992
▁Ios	-5993
▁ele	-5994
▁gin	-5995
▁mur	-5996
▁per	-5997
▁1972	-5998
▁Aist	-5999
▁CFAE	-6000
▁Méid	-6001
▁Thos	-6002
▁scór	-6003
abhair	-6004
chuibh	-6005
nscail	-6006
éadrom	-6007
▁Eacht	-6008
▁RIALA	-6009
▁ceoil	-6010
▁easpa	-6011
▁mhian	-6012
▁sráid	-6013
▁tithe	-6014
▁tábla	-6015
onartha	-6016
▁Bardas	-6017
▁chuard	-6018
▁gluais	-6019
eithiclí	-6020
fhéadfaí	-6021
▁Cluiche	-6022
▁Thuaidh	-6023
▁dearmad	-6024
▁fhostaí	-6025
▁gnóthas	-6026
▁miotail	-6027
▁rialáil	-6028
▁riaradh	-6029
▁uirlisí	-6030
ainníocht	-6031
▁bunúsach	-6032
▁dathanna	-6033
▁gluaiste	-6034
▁mheasann	-6035
▁speiceas	-6036
▁Iarratais	-6037
▁Tabharfar	-6038
▁gairmiúla	-6039
▁iarrfaidh	-6040
▁tSeirbhís	-6041
▁University	-6042
▁comhshaoil	-6043
▁féideartha	-6044
▁mheasfaidh	-6045
▁Eacnamaíoch	-6046
▁comhdhéanta	-6047
▁foirceannadh	-6048
▁saineolaithe	-6049
▁Ilghnéitheacha	-6050
IAL	-6051
lif	-6052
out	-6053
sic	-6054
íod	-6055
▁59	-6056
▁73	-6057
▁lo	-6058
léad	-6059
stru	-6060
úile	-6061
úise	-6062
▁187	-6063
▁Bur	-6064
▁Bán	-6065
▁Fir	-6066
▁Lig	-6067
▁Sam	-6068
▁ful	-6069
▁gcl	-6070
▁hum	-6071
CHÁIN	-6072
cráin	-6073
eirme	-6074
▁1988	-6075
▁Cons	-6076
▁fáis	-6077
▁gúna	-6078
▁nóta	-6079
eograf	-6080
ghrúpa	-6081
thacha	-6082
▁Lucht	-6083
▁Shaor	-6084
▁beirt	-6085
▁casta	-6086
▁choir	-6087
▁chúig	-6088
▁dhíth	-6089
▁gurbh	-6090
▁nótaí	-6091
▁rúnaí	-6092
▁throm	-6093
aiceach	-6094
ialacha	-6095
▁Mhaigh	-6096
▁crainn	-6097
▁fórsaí	-6098
▁pearsa	-6099
▁pobail	-6100
▁prátaí	-6101
▁tógtha	-6102
leibhéal	-6103
▁Trádála	-6104
▁achmair	-6105
▁inbhuan	-6106
▁pionóis	-6107
▁páipéir	-6108
aipitiúil	-6109
▁cathrach	-6110
▁iomláine	-6111
▁mhínithe	-6112
▁mícheart	-6113
▁pacáiste	-6114
▁áireofar	-6115
▁bpróiseas	-6116
▁deonaíodh	-6117
▁fuinneamh	-6118
▁mhíchumas	-6119
▁úsáideadh	-6120
▁ainmneacha	-6121
▁allmhairiú	-6122
▁choigeartú	-6123
▁cothabhála	-6124
▁díolacháin	-6125
▁fhaightear	-6126
▁forleathan	-6127
▁tsamhraidh	-6128
▁Fostaíochta	-6129
▁bhforálacha	-6130
▁breithiúnas	-6131
▁theastaíonn	-6132
▁uaireadóirí	-6133
▁Tuarascálacha	-6134
ks	-6135
bas	-6136
ces	-6137
mhí	-6138
mpa	-6139
olg	-6140
trú	-6141
▁Cá	-6142
ally	-6143
sage	-6144
téar	-6145
tíre	-6146
éist	-6147
ónta	-6148
▁Cúl	-6149
▁mas	-6150
▁sha	-6151
eimhl	-6152
icéad	-6153
ochla	-6154
▁1937	-6155
▁airm	-6156
▁bhfr	-6157
▁eadh	-6158
▁fogh	-6159
▁marg	-6160
▁rian	-6161
▁tasc	-6162
▁thás	-6163
éanach	-6164
▁Irish	-6165
▁cuain	-6166
▁huath	-6167
▁othar	-6168
▁sheol	-6169
▁video	-6170
▁vitim	-6171
ilvéise	-6172
oláiste	-6173
rachais	-6174
Óglaigh	-6175
▁Iompar	-6176
▁bpobal	-6177
▁cairde	-6178
▁gcúrsa	-6179
▁gréine	-6180
▁shíniú	-6181
▁tugtar	-6182
aoiseach	-6183
easmhach	-6184
▁Measfar	-6185
▁Ráiteas	-6186
▁aturnae	-6187
▁bhfógra	-6188
▁dtionsc	-6189
▁saoirse	-6190
▁uathúil	-6191
▁éilíonn	-6192
▁costaisí	-6193
▁gnóchain	-6194
▁íomhánna	-6195
adóireacht	-6196
▁Breataine	-6197
▁Clibeanna	-6198
▁chríochnú	-6199
▁leithreas	-6200
▁sreabhadh	-6201
▁Comhshaoil	-6202
▁bhfoireann	-6203
▁breitheamh	-6204
▁gcomhthéacs	-6205
▁Áiritheoidh	-6206
▁Soláthraíonn	-6207
▁gcomhlíonadh	-6208
▁ionchúiseamh	-6209
▁sholáthróidh	-6210
▁timpeallacht	-6211
TC	-6212
td	-6213
chn	-6214
gra	-6215
lon	-6216
mir	-6217
ump	-6218
vel	-6219
zon	-6220
ÓIR	-6221
▁IP	-6222
▁PA	-6223
▁PC	-6224
▁UN	-6225
aipe	-6226
iber	-6227
uirí	-6228
▁cóc	-6229
▁gcú	-6230
athar	-6231
láimh	-6232
nasta	-6233
phost	-6234
shaol	-6235
órtas	-6236
▁1961	-6237
▁1978	-6238
▁Mion	-6239
▁Sula	-6240
▁grád	-6241
▁inár	-6242
ianach	-6243
luaist	-6244
uirbhé	-6245
▁Ceang	-6246
▁Coinn	-6247
▁Turas	-6248
▁eagar	-6249
▁foras	-6250
▁fíorú	-6251
▁rolla	-6252
▁uiscí	-6253
ilteora	-6254
únuithe	-6255
▁Cumann	-6256
▁chothú	-6257
▁cleith	-6258
▁foinse	-6259
▁foláir	-6260
▁snámha	-6261
iniciúil	-6262
▁Oiliúna	-6263
▁ealaíne	-6264
▁feabhsú	-6265
▁gnóchan	-6266
▁phinsin	-6267
▁saothrú	-6268
aistrithe	-6269
▁dheonadh	-6270
▁dhíreach	-6271
▁iontráil	-6272
▁ithreach	-6273
▁mhaoiniú	-6274
▁speisial	-6275
▁teaghais	-6276
▁Gairmiúla	-6277
▁eisceacht	-6278
▁hEilvéise	-6279
▁saoránach	-6280
▁cheadúnais	-6281
▁comhiomlán	-6282
▁gníomhaire	-6283
▁hathruithe	-6284
▁oidhreacht	-6285
▁aisghabháil	-6286
▁chruinnithe	-6287
▁seiceálacha	-6288
▁soghluaiste	-6289
▁trasteorann	-6290
-4	-6291
con	-6292
gar	-6293
gha	-6294
ood	-6295
ree	-6296
reá	-6297
ÁLA	-6298
óca	-6299
▁67	-6300
▁98	-6301
▁PO	-6302
▁nO	-6303
gint	-6304
ifíl	-6305
oide	-6306
ters	-6307
unda	-6308
ófaí	-6309
▁Fad	-6310
▁Off	-6311
▁ant	-6312
▁dtu	-6313
▁gas	-6314
▁Éil	-6315
aicme	-6316
dearg	-6317
ghair	-6318
onadh	-6319
rasán	-6320
▁Dúin	-6321
▁mála	-6322
▁séas	-6323
cebook	-6324
eicthe	-6325
taíodh	-6326
áltais	-6327
▁druga	-6328
▁eagrú	-6329
▁ghaol	-6330
▁sheas	-6331
eánaigh	-6332
▁Foirgn	-6333
▁Príobh	-6334
▁bhosca	-6335
▁fhoils	-6336
▁folamh	-6337
▁maraon	-6338
▁réasún	-6339
aispeána	-6340
dhéanamh	-6341
ibheacha	-6342
national	-6343
oláthair	-6344
▁Conradh	-6345
▁Cosaint	-6346
▁Limited	-6347
▁Náisiún	-6348
▁Phoiblí	-6349
▁breithe	-6350
▁current	-6351
▁leanann	-6352
▁tuaithe	-6353
bhunaithe	-6354
▁Rialacha	-6355
▁bándearg	-6356
▁dtuairim	-6357
▁dóiteáin	-6358
▁gceangal	-6359
▁rochtana	-6360
▁teagaisc	-6361
▁gcuireann	-6362
▁hiarratas	-6363
▁nuashonrú	-6364
▁oifigiúla	-6365
▁shonróidh	-6366
▁tionchair	-6367
▁corparáide	-6368
▁foirmeacha	-6369
▁gCOMHAIRLE	-6370
▁saoránaigh	-6371
▁tháirgtear	-6372
▁feidhmíochta	-6373
ox	-6374
va	-6375
EID	-6376
ded	-6377
dha	-6378
eab	-6379
ipe	-6380
sen	-6381
tro	-6382
▁03	-6383
▁89	-6384
▁Dó	-6385
▁Rá	-6386
▁Ró	-6387
▁ae	-6388
Fómh	-6389
airc	-6390
ital	-6391
lisí	-6392
raen	-6393
▁Chl	-6394
▁Osc	-6395
▁tiú	-6396
abhar	-6397
iacha	-6398
icéid	-6399
llmhú	-6400
ories	-6401
othar	-6402
ríbhn	-6403
▁1934	-6404
▁Deon	-6405
▁aigh	-6406
▁coil	-6407
▁ioma	-6408
▁pait	-6409
▁radh	-6410
▁sine	-6411
▁tube	-6412
ghalar	-6413
ghrádú	-6414
ileach	-6415
istant	-6416
ograph	-6417
▁bróga	-6418
▁dramh	-6419
▁gClár	-6420
▁mbaol	-6421
alaithe	-6422
ealladh	-6423
liament	-6424
oimirce	-6425
▁Reacht	-6426
▁aigéad	-6427
▁insint	-6428
▁siúcra	-6429
▁tiarna	-6430
▁cainéil	-6431
▁chumann	-6432
▁clúdach	-6433
▁dtugann	-6434
▁eisíodh	-6435
▁gCoiste	-6436
▁mianraí	-6437
▁neamhní	-6438
eimhnithe	-6439
raitheach	-6440
▁Domhanda	-6441
▁chaomhnú	-6442
▁chustaim	-6443
▁contúirt	-6444
▁daingean	-6445
▁díoltóir	-6446
▁féachana	-6447
▁gnóthais	-6448
chaipiteal	-6449
▁Digiteach	-6450
▁meicniúil	-6451
▁morgáiste	-6452
▁theorainn	-6453
▁trádmharc	-6454
▁aitheantas	-6455
▁bhfuiltear	-6456
▁shóisialta	-6457
▁huathoibríoch	-6458
▁Teicneolaíocht	-6459
▁teicneolaíochta	-6460
ms	-6461
pr	-6462
ale	-6463
ful	-6464
iad	-6465
iop	-6466
ipt	-6467
nad	-6468
ógó	-6469
▁64	-6470
▁AC	-6471
▁Pa	-6472
EANN	-6473
Shan	-6474
eard	-6475
ghnó	-6476
lama	-6477
nóna	-6478
▁Diú	-6479
▁Gin	-6480
▁Lit	-6481
▁PDF	-6482
▁Phr	-6483
▁ghá	-6484
▁téa	-6485
abhta	-6486
chlib	-6487
earas	-6488
eolaí	-6489
fhios	-6490
iorad	-6491
obair	-6492
oirne	-6493
ology	-6494
scéal	-6495
▁1977	-6496
▁1980	-6497
▁Modh	-6498
▁astu	-6499
▁coth	-6500
▁deal	-6501
▁hias	-6502
eamara	-6503
iceach	-6504
▁Solas	-6505
▁gcúis	-6506
▁malar	-6507
▁naisc	-6508
▁triom	-6509
▁troid	-6510
▁áitiú	-6511
nachtaí	-6512
scríofa	-6513
▁Ankara	-6514
▁Pobail	-6515
▁Páirtí	-6516
▁Spáinn	-6517
▁bainte	-6518
▁bhaill	-6519
▁bhunús	-6520
▁tógadh	-6521
▁vótála	-6522
hongShan	-6523
▁Android	-6524
▁Eochair	-6525
▁Ioncuim	-6526
▁Réigiún	-6527
▁Tuaithe	-6528
▁bhfocal	-6529
▁chánach	-6530
▁dheisiú	-6531
▁phearsa	-6532
Uachtarán	-6533
luchtaigh	-6534
▁Tuairisc	-6535
▁dtéarmaí	-6536
▁mheasfar	-6537
▁nglacadh	-6538
▁teaghrán	-6539
▁théarmaí	-6540
▁óspidéil	-6541
▁Scileanna	-6542
▁bliantúla	-6543
▁cruinneas	-6544
▁gaolmhara	-6545
▁gcoinnibh	-6546
▁haischlib	-6547
▁léarscáil	-6548
▁roghnaigh	-6549
láintíochta	-6550
▁Breitheamh	-6551
▁clárúcháin	-6552
▁gcomhaltaí	-6553
▁tosaíochta	-6554
▁tábhachtaí	-6555
▁Oireachtais	-6556
▁chomhpháirt	-6557
▁clasaiceach	-6558
▁oibriúcháin	-6559
▁thaifeadadh	-6560
▁éifeachtacht	-6561
▁International	-6562
▁tromchúiseach	-6563
▁gcoinníollacha	-6564
▁phríobháideach	-6565
-7	-6566
11	-6567
THA	-6568
min	-6569
rag	-6570
zel	-6571
▁Mí	-6572
▁Mó	-6573
▁pu	-6574
▁rí	-6575
faid	-6576
just	-6577
than	-6578
órsa	-6579
▁120	-6580
▁202	-6581
▁Eis	-6582
▁Reg	-6583
▁Uir	-6584
▁bal	-6585
▁clá	-6586
▁nde	-6587
▁éan	-6588
aidhm	-6589
baigh	-6590
cking	-6591
eataí	-6592
ifige	-6593
ition	-6594
éimhs	-6595
▁SOCR	-6596
▁admh	-6597
▁breá	-6598
▁dhís	-6599
▁fian	-6600
▁phac	-6601
cation	-6602
chónaí	-6603
faimid	-6604
oranta	-6605
▁Fuinn	-6606
▁Luach	-6607
▁Obair	-6608
▁Páirt	-6609
▁diúlt	-6610
▁dúnta	-6611
▁ndeon	-6612
▁suime	-6613
▁treal	-6614
▁tweet	-6615
aighead	-6616
ascailt	-6617
ánaithe	-6618
▁Cosúil	-6619
▁Jacket	-6620
▁faisin	-6621
▁feiste	-6622
▁fhiach	-6623
▁iomarc	-6624
dhíonach	-6625
▁bhliana	-6626
▁billiún	-6627
▁bpríomh	-6628
▁dochair	-6629
▁déanann	-6630
▁iomlána	-6631
▁sliocht	-6632
aiticiúil	-6633
imhreacha	-6634
▁Facebook	-6635
▁Imeachta	-6636
▁Trealamh	-6637
▁conartha	-6638
▁eolaíoch	-6639
▁ordachán	-6640
▁shaothrú	-6641
▁smaointe	-6642
▁sneachta	-6643
▁toirmisc	-6644
ainmneacha	-6645
▁Fhorbairt	-6646
▁gCaibidil	-6647
▁leasmhara	-6648
▁measartha	-6649
▁oibreoidh	-6650
▁ranníocaí	-6651
▁socraithe	-6652
▁Tairiscint	-6653
▁creidmheas	-6654
▁gealltanas	-6655
▁ráthaíocht	-6656
▁soláthróir	-6657
▁tuairisciú	-6658
▁áititheoir	-6659
▁príosúnacht	-6660
▁tarraingthe	-6661
▁bainistíocht	-6662
▁caillteanais	-6663
▁creidiúnaithe	-6664
▁Teicneolaíochta	-6665
SA	-6666
UR	-6667
co	-6668
IÚN	-6669
THE	-6670
ici	-6671
lex	-6672
lor	-6673
ows	-6674
umb	-6675
ÉAD	-6676
▁54	-6677
▁99	-6678
▁ga	-6679
ding	-6680
mraí	-6681
ones	-6682
over	-6683
▁300	-6684
▁Cha	-6685
▁FOR	-6686
▁has	-6687
▁phá	-6688
▁sia	-6689
▁áil	-6690
chadh	-6691
reamh	-6692
éasán	-6693
▁1932	-6694
▁1974	-6695
▁Serv	-6696
▁Síne	-6697
▁Togh	-6698
▁bhrú	-6699
▁cons	-6700
▁dhír	-6701
▁forb	-6702
▁sheo	-6703
▁tinn	-6704
allamh	-6705
cheart	-6706
ioncam	-6707
únaigh	-6708
▁Charm	-6709
▁Faoin	-6710
▁Meais	-6711
▁Taist	-6712
▁Talún	-6713
▁gcaoi	-6714
▁gceap	-6715
▁gcumh	-6716
▁gnách	-6717
▁ndíol	-6718
▁saill	-6719
iméadar	-6720
leachta	-6721
liúntas	-6722
líochta	-6723
uspóirí	-6724
úineadh	-6725
▁boscaí	-6726
▁fhrith	-6727
▁tagtha	-6728
▁tharml	-6729
▁Úcráin	-6730
ghabhála	-6731
ionannas	-6732
▁Coimeád	-6733
▁Dhaoine	-6734
▁Europol	-6735
▁Phobail	-6736
▁aisling	-6737
▁bhfuair	-6738
▁fíorais	-6739
▁iarmhar	-6740
▁thiontú	-6741
▁thriail	-6742
▁árachas	-6743
aráideach	-6744
▁Soláthar	-6745
▁aquarium	-6746
▁barántas	-6747
▁chuntais	-6748
▁cúramach	-6749
▁fulaingt	-6750
▁innealra	-6751
▁léirithe	-6752
▁phlandaí	-6753
▁scoláirí	-6754
▁traenach	-6755
▁trádálaí	-6756
pháirteach	-6757
▁bunúsacha	-6758
▁caidreamh	-6759
▁cruthúnas	-6760
▁dlighfear	-6761
▁foirgnimh	-6762
▁iniúchóir	-6763
▁phlandáil	-6764
▁tabhaíodh	-6765
▁Bailiúchán	-6766
▁roghnaíonn	-6767
▁roimhráite	-6768
▁athchomharc	-6769
▁seachtracha	-6770
▁chathaoirleach	-6771
▁ríomhaireachta	-6772
▁comhairliúcháin	-6773
MP	-6774
NC	-6775
ah	-6776
xx	-6777
aer	-6778
iel	-6779
iod	-6780
ipp	-6781
isi	-6782
ket	-6783
ole	-6784
ors	-6785
san	-6786
uch	-6787
▁72	-6788
▁CD	-6789
▁nÃ	-6790
▁sn	-6791
AIGH	-6792
Bank	-6793
bour	-6794
gniú	-6795
leán	-6796
llar	-6797
néis	-6798
oite	-6799
work	-6800
▁Adh	-6801
▁cré	-6802
▁íog	-6803
eofaí	-6804
úbtha	-6805
▁1959	-6806
▁Fair	-6807
▁Lagh	-6808
▁Leid	-6809
▁Phró	-6810
▁Port	-6811
▁Trae	-6812
▁Wind	-6813
▁gain	-6814
▁hIar	-6815
▁lear	-6816
▁plan	-6817
▁sona	-6818
eagasc	-6819
iompor	-6820
oimirc	-6821
onnadh	-6822
▁Athch	-6823
▁China	-6824
▁Cháin	-6825
▁chron	-6826
▁cógas	-6827
▁díriú	-6828
▁fhost	-6829
▁gream	-6830
▁hiarr	-6831
▁nDaon	-6832
▁sular	-6833
bhainte	-6834
chumann	-6835
iontáil	-6836
riachta	-6837
thaíonn	-6838
éatadán	-6839
óirithe	-6840
▁Public	-6841
▁bóthar	-6842
▁chaith	-6843
▁eastát	-6844
▁fhuinn	-6845
▁gcolún	-6846
▁snasta	-6847
▁taisce	-6848
▁tsaoil	-6849
▁chúrsaí	-6850
▁deonadh	-6851
▁dineadh	-6852
▁déanach	-6853
▁faisean	-6854
▁gearrth	-6855
▁malartú	-6856
▁neamhgh	-6857
▁tomhalt	-6858
▁éiríonn	-6859
fhoireann	-6860
▁caipitil	-6861
▁cearnach	-6862
▁ionfhabh	-6863
▁rialtais	-6864
▁Caithfidh	-6865
▁Dheireadh	-6866
▁Glacfaidh	-6867
▁cheadóidh	-6868
▁fhormheas	-6869
▁glacfaidh	-6870
▁lonnaithe	-6871
▁úsáideach	-6872
▁eolaíochta	-6873
▁inghlactha	-6874
▁láimhseáil	-6875
▁scrúduithe	-6876
▁fhostaíocht	-6877
▁leathanaigh	-6878
▁aoisliúntais	-6879
▁oibríochtúil	-6880
▁nDaonlathaithe	-6881
▁éifeachtúlacht	-6882
▁nGníomhaireacht	-6883
▁ngníomhaíochtaí	-6884
ME	-6885
Ão	-6886
ARA	-6887
IMH	-6888
gas	-6889
rel	-6890
tom	-6891
íll	-6892
▁CC	-6893
▁GO	-6894
▁Sm	-6895
▁po	-6896
ians	-6897
illí	-6898
áile	-6899
éala	-6900
▁188	-6901
▁Eas	-6902
▁IAR	-6903
▁glú	-6904
▁mhó	-6905
▁orm	-6906
▁srl	-6907
aighn	-6908
ianna	-6909
imhne	-6910
níodh	-6911
▁Amer	-6912
▁Tríú	-6913
▁bhás	-6914
▁cith	-6915
▁disc	-6916
▁dtrí	-6917
▁intu	-6918
▁more	-6919
▁romh	-6920
▁scam	-6921
▁siam	-6922
chóras	-6923
líocht	-6924
rítear	-6925
áipéis	-6926
éadtar	-6927
íochán	-6928
írinne	-6929
▁Fuair	-6930
▁barra	-6931
▁ciona	-6932
▁féadf	-6933
▁moill	-6934
choiste	-6935
iúnacht	-6936
▁Aonair	-6937
▁Suíomh	-6938
▁Táirge	-6939
▁casadh	-6940
▁cruith	-6941
▁drugaí	-6942
▁eadhon	-6943
▁rothar	-6944
▁éirigh	-6945
choimeád	-6946
eachtála	-6947
liantúla	-6948
undation	-6949
▁Meirice	-6950
▁Tháinig	-6951
▁bheatha	-6952
▁bhfuirm	-6953
▁comhlán	-6954
▁eastáit	-6955
▁leagfar	-6956
▁meastar	-6957
▁rialtas	-6958
▁sheacht	-6959
▁théarma	-6960
achomharc	-6961
mhachtain	-6962
▁Pleanála	-6963
▁StatBank	-6964
▁Taispeán	-6965
▁bhfolach	-6966
▁ceannach	-6967
▁cheithre	-6968
▁chostais	-6969
▁chumainn	-6970
▁cuardach	-6971
▁dheiridh	-6972
▁mharcáil	-6973
▁slándáil	-6974
▁tiomanta	-6975
fhorálacha	-6976
ionadaithe	-6977
▁Gaillimhe	-6978
▁Rialaithe	-6979
▁breithniú	-6980
▁chomhlánú	-6981
▁cumarsáid	-6982
▁feitheamh	-6983
▁freagairt	-6984
▁inchánach	-6985
▁tráthanna	-6986
▁údaruithe	-6987
fheidhmithe	-6988
▁bhailíocht	-6989
▁fiosrúchán	-6990
▁idirbheart	-6991
▁mionsonraí	-6992
▁rapóirtéir	-6993
▁ríomhphost	-6994
▁thaisceadh	-6995
▁vótaíochta	-6996
▁Oidhreachta	-6997
▁cáilitheach	-6998
▁hionstraimí	-6999
▁héifeachtaí	-7000
▁chomhlíonann	-7001
▁ilbhliantúil	-7002
▁inbhuanaithe	-7003
▁riachtanacha	-7004
fheidhmeannach	-7005
▁monatóireacht	-7006
▁leithdháileadh	-7007
▁rannpháirtithe	-7008
zz	-7009
IRT	-7010
iol	-7011
oss	-7012
ric	-7013
urs	-7014
▁07	-7015
▁69	-7016
▁76	-7017
▁95	-7018
▁No	-7019
▁qu	-7020
▁ór	-7021
nímh	-7022
▁250	-7023
▁400	-7024
▁cis	-7025
▁eat	-7026
▁flu	-7027
▁ndu	-7028
House	-7029
iness	-7030
irect	-7031
ision	-7032
níonn	-7033
olais	-7034
tháir	-7035
thála	-7036
▁1931	-7037
▁1935	-7038
▁1964	-7039
▁Cail	-7040
▁Iniú	-7041
▁LEIS	-7042
▁Mais	-7043
▁Thug	-7044
▁bPar	-7045
▁fabh	-7046
▁graf	-7047
▁norm	-7048
▁oigh	-7049
▁éisc	-7050
eitril	-7051
mhairc	-7052
éirigh	-7053
úcháin	-7054
▁chucu	-7055
▁facht	-7056
▁fhear	-7057
▁flash	-7058
▁ionsú	-7059
▁leaba	-7060
▁marbh	-7061
▁ortha	-7062
▁pobal	-7063
▁stamp	-7064
▁uathu	-7065
▁ócáid	-7066
arraing	-7067
▁Chríos	-7068
▁bhuail	-7069
▁chealú	-7070
▁cúraim	-7071
▁dorcha	-7072
▁huisce	-7073
▁láidre	-7074
▁tailte	-7075
▁tapúla	-7076
eisiúint	-7077
pháipéir	-7078
▁Eaglais	-7079
▁Finance	-7080
▁Físeáin	-7081
▁breosla	-7082
▁ceantar	-7083
▁mhaoirs	-7084
▁mhodhnú	-7085
▁soicind	-7086
▁síológa	-7087
▁thomhas	-7088
untertops	-7089
▁Críostaí	-7090
▁Saorstát	-7091
▁achoimre	-7092
▁baineann	-7093
▁cheapfar	-7094
▁díobháil	-7095
▁fhorchur	-7096
▁hachtach	-7097
▁iasachta	-7098
▁príomhch	-7099
▁thorthaí	-7100
fhostaithe	-7101
▁Caighdeán	-7102
▁bainteach	-7103
▁bhriseadh	-7104
▁comhachta	-7105
▁dlíthiúla	-7106
▁gcinneadh	-7107
▁leasaithe	-7108
▁ndéanfadh	-7109
▁sheiceáil	-7110
▁thagartha	-7111
▁dílseánach	-7112
▁gcruthófar	-7113
▁idirdhealú	-7114
▁meastachán	-7115
▁straitéisí	-7116
oinbhinsiúin	-7117
▁Comhphobail	-7118
▁ceadúnaithe	-7119
▁chiallaíonn	-7120
▁cuimilteora	-7121
▁híocaíochtaí	-7122
▁seirbhíseach	-7123
úinteoireachta	-7124
▁Coinníollacha	-7125
▁seachtainiúil	-7126
▁Infheistíochta	-7127
▁gcomhlíonfaidh	-7128
▁ghinearáltacht	-7129
ix	-7130
ze	-7131
IST	-7132
Iar	-7133
ary	-7134
eod	-7135
fid	-7136
for	-7137
oms	-7138
▁Lé	-7139
▁Wh	-7140
▁só	-7141
CHÁN	-7142
aisb	-7143
ansp	-7144
igit	-7145
ionn	-7146
ithr	-7147
ning	-7148
ílár	-7149
óige	-7150
▁Ltd	-7151
▁Scr	-7152
▁cho	-7153
▁cón	-7154
▁lia	-7155
▁luí	-7156
Oifig	-7157
UITHE	-7158
achas	-7159
aince	-7160
earra	-7161
eirde	-7162
iltin	-7163
iséid	-7164
éadan	-7165
úintí	-7166
▁1941	-7167
▁Cion	-7168
▁Díol	-7169
▁Earr	-7170
▁Tiom	-7171
▁báis	-7172
▁béim	-7173
▁caid	-7174
▁eint	-7175
▁fóir	-7176
▁inph	-7177
▁lógó	-7178
▁shár	-7179
▁óige	-7180
EACHTA	-7181
aiméad	-7182
mhaoin	-7183
onntar	-7184
íocadh	-7185
órtáil	-7186
▁Chorp	-7187
▁Gnéas	-7188
▁Story	-7189
▁dálaí	-7190
▁déine	-7191
▁fiáin	-7192
▁folún	-7193
▁fráma	-7194
▁grinn	-7195
▁lampa	-7196
▁madra	-7197
▁púdar	-7198
▁seans	-7199
▁tanaí	-7200
▁thras	-7201
aothair	-7202
athanna	-7203
▁Bliana	-7204
▁bogadh	-7205
▁cártaí	-7206
▁dhíobh	-7207
▁gairme	-7208
▁puiblí	-7209
▁síntiú	-7210
▁árasán	-7211
eannasaí	-7212
eolaíoch	-7213
ionsabal	-7214
▁Seapáin	-7215
▁ceapfar	-7216
▁cúltaca	-7217
▁geograf	-7218
▁liachta	-7219
▁ligeann	-7220
▁sceimhl	-7221
▁slabhra	-7222
▁strucht	-7223
▁tairbhí	-7224
▁tarchur	-7225
eartaithe	-7226
eicníocht	-7227
iniúchadh	-7228
▁Foireann	-7229
▁Leabaigh	-7230
▁ardluais	-7231
▁bhfomhír	-7232
▁dearfach	-7233
▁leithead	-7234
▁lotnaidí	-7235
▁oiriúint	-7236
▁thrádáil	-7237
▁Acmhainní	-7238
▁Fhorásach	-7239
▁Leasuithe	-7240
▁airteagal	-7241
▁cheantair	-7242
▁iarrthóra	-7243
▁miondíola	-7244
▁reachtach	-7245
▁stáisiúin	-7246
▁tarraingt	-7247
▁Úsáidtear	-7248
▁úsáidfear	-7249
impeallacht	-7250
▁carachtair	-7251
▁cháilíocht	-7252
▁dhlíthiúil	-7253
▁hiarratais	-7254
▁bParliament	-7255
▁comhlachais	-7256
▁dícháilithe	-7257
▁fhoirgneamh	-7258
▁náisiúnaigh	-7259
▁Sóisialaithe	-7260
▁comhpháirteanna	-7261
▁neamhdhleathach	-7262
▁ranníocaíochtaí	-7263
CO	-7264
SS	-7265
ab	-7266
mu	-7267
nd	-7268
CAA	-7269
oft	-7270
omm	-7271
row	-7272
tin	-7273
tle	-7274
ult	-7275
▁62	-7276
▁EP	-7277
▁TF	-7278
ACHT	-7279
ailí	-7280
fhág	-7281
ines	-7282
ized	-7283
róra	-7284
shoc	-7285
éard	-7286
▁Afr	-7287
▁Sil	-7288
▁clu	-7289
▁gra	-7290
aibhr	-7291
athrú	-7292
lófar	-7293
▁1958	-7294
▁Mona	-7295
▁NCAA	-7296
▁SEAS	-7297
▁blia	-7298
▁béil	-7299
▁fuil	-7300
▁leid	-7301
▁micr	-7302
▁over	-7303
▁pais	-7304
▁phlé	-7305
▁poll	-7306
▁thit	-7307
achais	-7308
caíonn	-7309
eagair	-7310
lifier	-7311
mhéide	-7312
nachar	-7313
ánacht	-7314
▁Amach	-7315
▁Rúise	-7316
▁Stage	-7317
▁cairt	-7318
▁chuma	-7319
▁colún	-7320
▁comhr	-7321
▁hailt	-7322
▁lenar	-7323
▁teirm	-7324
▁theip	-7325
▁tionó	-7326
aipitil	-7327
mhairtí	-7328
roinnte	-7329
▁Bhainc	-7330
▁Tugadh	-7331
▁amharc	-7332
▁bhoird	-7333
▁chúrsa	-7334
▁daonra	-7335
▁innill	-7336
▁intíre	-7337
▁maidin	-7338
▁maille	-7339
▁seasta	-7340
infheist	-7341
iotáille	-7342
scaoilte	-7343
▁Chóiste	-7344
▁Pinsean	-7345
▁cúitimh	-7346
▁cúnaimh	-7347
▁fhéidir	-7348
▁formhór	-7349
▁iarrann	-7350
▁mbreith	-7351
▁polasaí	-7352
▁rialála	-7353
▁tomhais	-7354
▁Óglaigh	-7355
eilleagar	-7356
▁Cheartas	-7357
▁Cóipeáil	-7358
▁bhaineas	-7359
▁bhéarfar	-7360
▁ceantair	-7361
▁chailíní	-7362
▁comhordú	-7363
▁freagraí	-7364
▁mhalartú	-7365
▁nglacfaí	-7366
▁phinsean	-7367
▁Leideanna	-7368
▁chomhlíon	-7369
▁chuardach	-7370
▁gceadúnas	-7371
▁léireofar	-7372
▁méadaithe	-7373
▁múinteoir	-7374
▁trealaimh	-7375
▁tráthnóna	-7376
▁Chomhaontú	-7377
▁athchóiriú	-7378
▁cheannaigh	-7379
▁comhoibriú	-7380
▁gcomhaontú	-7381
▁roghnaithe	-7382
▁Dearbhuithe	-7383
▁dleachtanna	-7384
▁díolmhaithe	-7385
▁fhoráiltear	-7386
▁hachtacháin	-7387
▁ionadaíocht	-7388
▁macasamhail	-7389
▁mheasúnacht	-7390
▁seirbhísigh	-7391
▁fochuideachta	-7392
MI	-7393
OL	-7394
ri	-7395
uc	-7396
yr	-7397
AIL	-7398
bhs	-7399
eak	-7400
ely	-7401
ged	-7402
ife	-7403
men	-7404
uab	-7405
ínt	-7406
▁08	-7407
▁61	-7408
▁Dí	-7409
▁MS	-7410
▁Mp	-7411
▁Ra	-7412
▁us	-7413
ater	-7414
chos	-7415
dhlí	-7416
eait	-7417
eodh	-7418
ette	-7419
rown	-7420
tric	-7421
óite	-7422
▁184	-7423
▁CBL	-7424
▁Eng	-7425
▁Pre	-7426
▁USB	-7427
▁bru	-7428
▁fhu	-7429
▁tim	-7430
osoft	-7431
ratch	-7432
thadh	-7433
ósadh	-7434
▁1968	-7435
▁1970	-7436
▁1971	-7437
▁1995	-7438
▁Beal	-7439
▁Dhia	-7440
▁Dáil	-7441
▁Mhar	-7442
▁Tomh	-7443
▁bhfu	-7444
▁clog	-7445
▁hard	-7446
▁mban	-7447
▁mhic	-7448
▁naoi	-7449
▁uait	-7450
eanaid	-7451
ianadh	-7452
umainn	-7453
▁Bunús	-7454
▁Máirt	-7455
▁Poist	-7456
▁Techn	-7457
▁chroí	-7458
▁doimh	-7459
▁mbord	-7460
▁molta	-7461
▁málaí	-7462
▁strap	-7463
▁tOrdú	-7464
aithean	-7465
▁Caibid	-7466
▁Fórsaí	-7467
▁amanna	-7468
▁bheirt	-7469
▁coimhd	-7470
▁fillte	-7471
▁glaoch	-7472
▁hAoine	-7473
▁hábhar	-7474
▁ionsaí	-7475
▁margaí	-7476
▁traein	-7477
▁túisce	-7478
chleacht	-7479
orgáiste	-7480
▁Fraince	-7481
▁Freagra	-7482
▁SEASAMH	-7483
▁chumasú	-7484
▁fhaillí	-7485
▁gcúrsaí	-7486
▁héigean	-7487
▁máistir	-7488
▁próisis	-7489
▁samhail	-7490
▁shraith	-7491
▁síneadh	-7492
mhínítear	-7493
raitheoir	-7494
threorach	-7495
▁Bainfidh	-7496
▁Deontais	-7497
▁bhrabúis	-7498
▁chothrom	-7499
▁dleachta	-7500
▁gceantar	-7501
▁mbainist	-7502
▁scáileán	-7503
▁sheolann	-7504
▁suiteáil	-7505
▁Limistéar	-7506
▁Tacaíocht	-7507
▁aisghairm	-7508
▁athraithe	-7509
▁criostail	-7510
▁bailiúchán	-7511
▁bhfaisnéis	-7512
▁cruthaíodh	-7513
▁iarrthóirí	-7514
▁oibríochta	-7515
▁thoirmeasc	-7516
▁gcaiteachas	-7517
▁híocaíochta	-7518
▁áiritheoidh	-7519
▁éifeachtúil	-7520
▁ballapháipéir	-7521
▁gceanglaítear	-7522
▁infheidhmithe	-7523
▁uiscedhíonach	-7524
▁comhpháirtithe	-7525
60	-7526
ASC	-7527
aíl	-7528
eur	-7529
get	-7530
ids	-7531
iqu	-7532
lay	-7533
ste	-7534
unc	-7535
ódh	-7536
▁09	-7537
▁84	-7538
▁CL	-7539
▁DR	-7540
▁IW	-7541
▁Pe	-7542
anga	-7543
form	-7544
ustr	-7545
éire	-7546
úird	-7547
▁Big	-7548
▁Eit	-7549
▁Fiú	-7550
▁Sch	-7551
▁cil	-7552
▁fío	-7553
▁gás	-7554
▁nas	-7555
▁pro	-7556
▁sea	-7557
▁úin	-7558
▁1981	-7559
▁1989	-7560
▁Aims	-7561
▁Ceap	-7562
▁Réim	-7563
▁Tour	-7564
▁acad	-7565
▁bhag	-7566
▁ceil	-7567
▁fhol	-7568
▁hair	-7569
▁iris	-7570
▁mhac	-7571
annadh	-7572
imintí	-7573
lianta	-7574
▁Athrú	-7575
▁Cúirt	-7576
▁Téigh	-7577
▁bheag	-7578
▁cháis	-7579
▁craol	-7580
▁fhair	-7581
▁measa	-7582
▁síniú	-7583
▁téigh	-7584
▁víosa	-7585
ealaíon	-7586
iocfadh	-7587
laíocht	-7588
lándáil	-7589
spidéal	-7590
▁Amharc	-7591
▁Foirne	-7592
▁Tuirce	-7593
▁chónaí	-7594
▁fómhar	-7595
▁stampa	-7596
uairisce	-7597
▁Windows	-7598
▁bainise	-7599
▁dáileog	-7600
▁ealaíon	-7601
▁iarainn	-7602
▁éagumas	-7603
aitheacht	-7604
oirgneamh	-7605
taíochtaí	-7606
ócmhainní	-7607
▁Aireacht	-7608
▁Bhóithre	-7609
▁Pleanáil	-7610
▁breiseán	-7611
▁claochla	-7612
▁tuirling	-7613
▁uirbeach	-7614
▁áitreibh	-7615
▁Faoiseamh	-7616
▁bheirtear	-7617
▁cheachtar	-7618
▁chónaíonn	-7619
▁cultúrtha	-7620
▁gcinnfidh	-7621
▁gcomhalta	-7622
▁leideanna	-7623
▁rannchuid	-7624
▁saineolas	-7625
▁samhlacha	-7626
▁Eachtracha	-7627
▁bhfeidhmiú	-7628
▁comhtháite	-7629
▁fhreagairt	-7630
▁iontaobhaí	-7631
▁minicíocht	-7632
▁polaitiúla	-7633
▁shealbhóir	-7634
▁shibhialta	-7635
▁taifeadadh	-7636
▁toghacháin	-7637
▁chorpraithe	-7638
▁tharmligean	-7639
▁dtabharfaidh	-7640
▁hoibríochtaí	-7641
▁shainaithint	-7642
▁sonraíochtaí	-7643
▁thuismitheoirí	-7644
▁infheistíochtaí	-7645
BC	-7646
PS	-7647
ja	-7648
up	-7649
ata	-7650
cas	-7651
ibr	-7652
nap	-7653
▁06	-7654
▁Op	-7655
▁PE	-7656
EACH	-7657
EIDH	-7658
TIAS	-7659
TION	-7660
aife	-7661
ican	-7662
ives	-7663
lóid	-7664
orld	-7665
raon	-7666
réig	-7667
ílse	-7668
úlra	-7669
▁130	-7670
▁Dan	-7671
▁Las	-7672
▁Mad	-7673
▁Med	-7674
▁Sol	-7675
▁bró	-7676
▁bus	-7677
▁fís	-7678
▁obh	-7679
▁ste	-7680
▁xxx	-7681
balta	-7682
dháta	-7683
eanad	-7684
imeád	-7685
ister	-7686
thear	-7687
únaer	-7688
▁1940	-7689
▁1962	-7690
▁Buan	-7691
▁Just	-7692
▁Sion	-7693
▁Thar	-7694
▁bair	-7695
▁caol	-7696
▁info	-7697
eanada	-7698
oiléir	-7699
▁Bursa	-7700
▁ETIAS	-7701
▁India	-7702
▁Láith	-7703
▁Naomh	-7704
▁ailse	-7705
▁bhuan	-7706
▁coisc	-7707
▁loigh	-7708
▁mhais	-7709
▁ochta	-7710
▁pláta	-7711
▁sciar	-7712
dhlúite	-7713
ibhléid	-7714
▁Liosta	-7715
▁Maoirs	-7716
▁Mastur	-7717
▁cnaipe	-7718
▁duille	-7719
▁feasta	-7720
▁gcreid	-7721
▁mblian	-7722
▁ndéile	-7723
▁séasúr	-7724
▁trátha	-7725
eannacht	-7726
fheicthe	-7727
itheacht	-7728
leachtaí	-7729
ruailliú	-7730
tuairisc	-7731
téarmach	-7732
▁Gnéithe	-7733
▁airleac	-7734
▁bhfoils	-7735
▁chomhth	-7736
▁nasctha	-7737
▁saibhir	-7738
▁thairbh	-7739
ainmhithe	-7740
leanúnach	-7741
oiriúnach	-7742
▁Deimhniú	-7743
▁Gearmáin	-7744
▁Idirlíon	-7745
▁Leanúint	-7746
▁baineadh	-7747
▁coiriúil	-7748
▁fhostóir	-7749
▁foghlama	-7750
▁phróisis	-7751
▁shannadh	-7752
▁tSeanaid	-7753
aispeánann	-7754
ghéilleadh	-7755
▁Comhaontú	-7756
▁Doiciméid	-7757
▁Oifigeach	-7758
▁chumhdach	-7759
▁clúdaithe	-7760
▁dhualgais	-7761
▁iomlánach	-7762
▁litreacha	-7763
▁mheabhair	-7764
▁iontaobhas	-7765
▁rialaítear	-7766
▁sláintiúil	-7767
▁tástálacha	-7768
▁tomhaltóirí	-7769
▁Sláintíochta	-7770
▁fheidhmíocht	-7771
▁trédhearcach	-7772
▁tuismitheoir	-7773
▁Cathaoirleach	-7774
▁comhaontaithe	-7775
▁dealraitheach	-7776
▁heagraíochtaí	-7777
-0	-7778
-6	-7779
RD	-7780
uf	-7781
ges	-7782
icy	-7783
mat	-7784
ols	-7785
osa	-7786
▁93	-7787
▁Es	-7788
aobh	-7789
báin	-7790
eaca	-7791
féar	-7792
iang	-7793
ince	-7794
náin	-7795
onta	-7796
vest	-7797
íric	-7798
▁Log	-7799
▁Mes	-7800
▁Org	-7801
▁Tra	-7802
▁WHO	-7803
▁dTu	-7804
▁dlú	-7805
▁fán	-7806
▁kom	-7807
▁plá	-7808
▁prá	-7809
▁Óga	-7810
mhuin	-7811
ocsaí	-7812
réine	-7813
tófar	-7814
uíodh	-7815
óilín	-7816
▁1929	-7817
▁1949	-7818
▁1953	-7819
▁1983	-7820
▁Clas	-7821
▁Iarr	-7822
▁Inmh	-7823
▁MAID	-7824
▁RIAL	-7825
▁Stíl	-7826
▁caip	-7827
▁dtóg	-7828
▁sann	-7829
▁seam	-7830
▁seis	-7831
▁táib	-7832
▁with	-7833
Eanáir	-7834
bhuirg	-7835
eicníc	-7836
iseach	-7837
▁Scann	-7838
▁State	-7839
▁Toisc	-7840
▁beann	-7841
▁brain	-7842
▁ghrád	-7843
▁leann	-7844
▁mbonn	-7845
▁múnla	-7846
▁sperm	-7847
▁triúr	-7848
ualainn	-7849
▁Comhar	-7850
▁Comhth	-7851
▁choisc	-7852
▁chuici	-7853
▁clocha	-7854
▁feirme	-7855
▁lítear	-7856
íseachta	-7857
▁Chearta	-7858
▁Pháirtí	-7859
▁Réamhrá	-7860
▁Tástáil	-7861
▁chonaic	-7862
▁eatramh	-7863
▁gheofar	-7864
▁sínithe	-7865
▁teileaf	-7866
▁tríocha	-7867
▁tsraith	-7868
umarsáide	-7869
▁Chathair	-7870
▁Coiriúil	-7871
▁Oibríonn	-7872
▁Orduithe	-7873
▁Poblacht	-7874
▁catagóir	-7875
▁chuimsiú	-7876
▁filleadh	-7877
▁gaineamh	-7878
▁hairgead	-7879
▁luadhfar	-7880
▁thástáil	-7881
▁tiomáint	-7882
▁táscairí	-7883
arlaiminte	-7884
oiriúnacht	-7885
▁Imeachtaí	-7886
▁bhallóide	-7887
▁chatagóir	-7888
▁droichead	-7889
▁ghiniúint	-7890
▁riarthóir	-7891
▁thaispeán	-7892
▁thiomáint	-7893
▁húsáidtear	-7894
▁inniúlacht	-7895
▁measúnacht	-7896
▁ullmhaithe	-7897
aisghairtear	-7898
▁chorparáide	-7899
▁faireacháin	-7900
▁iarratasóra	-7901
▁láithreacha	-7902
▁thuarascáil	-7903
▁bheartaítear	-7904
▁	-7905
a	-7906
i	-7907
h	-7908
n	-7909
r	-7910
e	-7911
t	-7912
s	-7913
o	-7914
c	-7915
l	-7916
d	-7917
g	-7918
m	-7919
u	-7920
á	-7921
í	-7922
b	-7923
f	-7924
é	-7925
ú	-7926
,	-7927
ó	-7928
.	-7929
p	-7930
A	-7931
C	-7932
)	-7933
(	-7934
-	-7935
1	-7936
S	-7937
T	-7938
I	-7939
2	-7940
0	-7941
B	-7942
E	-7943
D	-7944
N	-7945
M	-7946
L	-7947
F	-7948
R	-7949
P	-7950
3	-7951
9	-7952
'	-7953
G	-7954
:	-7955
O	-7956
5	-7957
4	-7958
H	-7959
6	-7960
;	-7961
U	-7962
8	-7963
7	-7964
"	-7965
v	-7966
y	-7967
—	-7968
k	-7969
w	-7970
/	-7971
”	-7972
“	-7973
Á	-7974
É	-7975
]	-7976
[	-7977
V	-7978
Ú	-7979
’	-7980
x	-7981
z	-7982
?	-7983
&	-7984
W	-7985
Ó	-7986
Í	-7987
K	-7988
Ã	-7989
@	-7990
!	-7991
J	-7992
–	-7993
j	-7994
%	-7995
q	-7996
