{
  "version": "1.0",
  "truncation": null,
  "padding": null,
  "added_tokens": [
    {
      "id": 1,
      "content": "[UNK]",
      "single_word": false,
      "lstrip": false,
      "rstrip": false,
      "normalized": false,
      "special": true
    },
    {
      "id": 2,
      "content": "[CLS]",
      "single_word": false,
      "lstrip": false,
      "rstrip": false,
      "normalized": false,
      "special": true
    },
    {
      "id": 3,
      "content": "[SEP]",
      "single_word": false,
      "lstrip": false,
      "rstrip": false,
      "normalized": false,
      "special": true
    },
    {
      "id": 4,
      "content": "[PAD]",
      "single_word": false,
      "lstrip": false,
      "rstrip": false,
      "normalized": false,
      "special": true
    },
    {
      "id": 5,
      "content": "[MASK]",
      "single_word": false,
      "lstrip": false,
      "rstrip": false,
      "normalized": false,
      "special": true
    }
  ],
  "normalizer": {
    "type": "NFKC"
  },
  "pre_tokenizer": {
    "type": "Whitespace"
  },
  "post_processor": null,
  "decoder": null,
  "model": {
    "type": "Unigram",
    "unk_id": 0,
    "vocab": [
      [
        "<unk>",
        0.0
      ],
      [
        "[UNK]",
        0.0
      ],
      [
        "[CLS]",
        0.0
      ],
      [
        "[SEP]",
        0.0
      ],
      [
        "[PAD]",
        0.0
      ],
      [
        "[MASK]",
        0.0
      ],
      [
        "a",
        -2.6188220894753087
      ],
      [
        "n",
        -3.303332413394447
      ],
      [
        ",",
        -3.525006605893765
      ],
      [
        "an",
        -3.548295984777557
      ],
      [
        ".",
        -3.8282175589735044
      ],
      [
        "s",
        -3.9022623063820134
      ],
      [
        "ar",
        -4.058354800197783
      ],
      [
        "agus",
        -4.1099475483911245
      ],
      [
        "i",
        -4.184175778884553
      ],
      [
        "í",
        -4.193592217834944
      ],
      [
        "r",
        -4.420289309510027
      ],
      [
        "d",
        -4.4376248517819015
      ],
      [
        ")",
        -4.439781132715609
      ],
      [
        "(",
        -4.4419658698403985
      ],
      [
        "t",
        -4.549157567521309
      ],
      [
        "le",
        -4.555930658368357
      ],
      [
        "-",
        -4.64439528858693
      ],
      [
        "e",
        -4.718637856849574
      ],
      [
        "in",
        -4.822595480991341
      ],
      [
        "h",
        -4.8232123310728525
      ],
      [
        "nó",
        -4.886736292613966
      ],
      [
        "go",
        -4.962257869675819
      ],
      [
        "dh",
        -4.974645017174497
      ],
      [
        "is",
        -4.986984697118679
      ],
      [
        "de",
        -5.163188078333665
      ],
      [
        "sin",
        -5.187016456699292
      ],
      [
        "do",
        -5.222816837699179
      ],
      [
        "ag",
        -5.277272744883035
      ],
      [
        "seo",
        -5.346789410721977
      ],
      [
        "ú",
        -5.400229487447005
      ],
      [
        "b",
        -5.456873878824984
      ],
      [
        "il",
        -5.477104480036683
      ],
      [
        "l",
        -5.507967676979758
      ],
      [
        "chun",
        -5.530575693467727
      ],
      [
        "o",
        -5.545779134264576
      ],
      [
        "leis",
        -5.569384047757644
      ],
      [
        "aon",
        -5.579385339582341
      ],
      [
        "é",
        -5.590064922734646
      ],
      [
        "g",
        -5.5968625114932635
      ],
      [
        "ó",
        -5.59977361839942
      ],
      [
        "ithe",
        -5.661319041640414
      ],
      [
        "c",
        -5.664770486042082
      ],
      [
        "'",
        -5.670226539391669
      ],
      [
        "m",
        -5.710010140160808
      ],
      [
        ":",
        -5.741361019620621
      ],
      [
        "den",
        -5.775811219448597
      ],
      [
        "alt",
        -5.805218833367784
      ],
      [
        "faoi",
        -5.809323453119138
      ],
      [
        "sé",
        -5.825559126052825
      ],
      [
        "f",
        -5.826643939132264
      ],
      [
        "idh",
        -5.860099613400129
      ],
      [
        "mar",
        -5.966456754421207
      ],
      [
        "ach",
        -5.980432199151565
      ],
      [
        "bhfuil",
        -5.998294439239622
      ],
      [
        "1",
        -6.02064847242252
      ],
      [
        ";",
        -6.063378197890232
      ],
      [
        "B",
        -6.112350168402099
      ],
      [
        "atá",
        -6.121262400807252
      ],
      [
        "Acht",
        -6.12190499698095
      ],
      [
        "2",
        -6.175192719493639
      ],
      [
        "uine",
        -6.177723097527981
      ],
      [
        "ch",
        -6.186518679269337
      ],
      [
        "igh",
        -6.216043457896605
      ],
      [
        "chur",
        -6.23354077979427
      ],
      [
        "\"",
        -6.260342998904452
      ],
      [
        "eile",
        -6.261814903901154
      ],
      [
        "bheith",
        -6.2855650008236275
      ],
      [
        "I",
        -6.296757326421586
      ],
      [
        "A",
        -6.321204730799863
      ],
      [
        "dá",
        -6.354165974724843
      ],
      [
        "dhéanamh",
        -6.361272578766821
      ],
      [
        "anna",
        -6.393940777251039
      ],
      [
        "maidi",
        -6.397072333463624
      ],
      [
        "ina",
        -6.434423394131493
      ],
      [
        "á",
        -6.439848199304107
      ],
      [
        "3",
        -6.440901901468257
      ],
      [
        "—",
        -6.44170609208574
      ],
      [
        "C",
        -6.452188198707686
      ],
      [
        "Tá",
        -6.463275854332418
      ],
      [
        "nach",
        -6.476178965966353
      ],
      [
        "réir",
        -6.491941815099613
      ],
      [
        "don",
        -6.500881997977114
      ],
      [
        "S",
        -6.5231133302224205
      ],
      [
        "tá",
        -6.525079511422268
      ],
      [
        "tear",
        -6.525082161341083
      ],
      [
        "An",
        -6.541186472376607
      ],
      [
        "gach",
        -6.556214119575596
      ],
      [
        "ná",
        -6.568011806125342
      ],
      [
        "lena",
        -6.607356555047419
      ],
      [
        "Is",
        -6.609905389743725
      ],
      [
        "íos",
        -6.6180111804963095
      ],
      [
        "4",
        -6.627925295231744
      ],
      [
        "eidh",
        -6.645411977848988
      ],
      [
        "san",
        -6.6458345053355234
      ],
      [
        "/",
        -6.673548231166713
      ],
      [
        "bheid",
        -6.702328786048692
      ],
      [
        "eanna",
        -6.711805339812091
      ],
      [
        "éidir",
        -6.717873098861832
      ],
      [
        "T",
        -6.74789776827296
      ],
      [
        "Aire",
        -6.752832835992137
      ],
      [
        "5",
        -6.769750071691156
      ],
      [
        "D",
        -6.821781478583085
      ],
      [
        "gcás",
        -6.825678408194973
      ],
      [
        "L",
        -6.834042305401159
      ],
      [
        "íonn",
        -6.837212405918244
      ],
      [
        "tú",
        -6.858488441957076
      ],
      [
        "trí",
        -6.861735781031203
      ],
      [
        "mh",
        -6.865861077833863
      ],
      [
        "tha",
        -6.8690309532116425
      ],
      [
        "ir",
        -6.87084356674323
      ],
      [
        "faoin",
        -6.884107420377788
      ],
      [
        "mó",
        -6.8969752840247756
      ],
      [
        "éis",
        -6.912959104165105
      ],
      [
        "iad",
        -6.9158167708371545
      ],
      [
        "”",
        -6.931826823563089
      ],
      [
        "um",
        -6.948826283508601
      ],
      [
        "tar",
        -6.96384337122821
      ],
      [
        "leith",
        -6.966000664063581
      ],
      [
        "haghaidh",
        -6.968464929857771
      ],
      [
        "6",
        -6.971581905359894
      ],
      [
        "gur",
        -6.974576432719151
      ],
      [
        "lá",
        -6.977883152660752
      ],
      [
        "“",
        -6.986020858646569
      ],
      [
        "chuid",
        -6.996197258355609
      ],
      [
        "mháin",
        -7.017300278865528
      ],
      [
        "úsáid",
        -7.039246087280891
      ],
      [
        "thabhair",
        -7.058366727971323
      ],
      [
        "p",
        -7.064774696956638
      ],
      [
        "Airteagal",
        -7.065176541868712
      ],
      [
        "aoine",
        -7.068120636848195
      ],
      [
        "idir",
        -7.080811240933955
      ],
      [
        "bh",
        -7.0962498472202
      ],
      [
        "roimh",
        -7.121974116009874
      ],
      [
        "ítear",
        -7.124472643432852
      ],
      [
        "N",
        -7.133699338871123
      ],
      [
        "G",
        -7.1531605863654555
      ],
      [
        "mbeid",
        -7.1657044981234845
      ],
      [
        "méid",
        -7.168399174159109
      ],
      [
        "isteach",
        -7.185892945141486
      ],
      [
        "]",
        -7.192898485044935
      ],
      [
        "amach",
        -7.193127879986277
      ],
      [
        "[",
        -7.196857579482092
      ],
      [
        "Ní",
        -7.22321441621857
      ],
      [
        "siad",
        -7.229892337330422
      ],
      [
        "chuig",
        -7.237477120906128
      ],
      [
        "adh",
        -7.237796255213108
      ],
      [
        "gan",
        -7.276488574197774
      ],
      [
        "leana",
        -7.288885475740847
      ],
      [
        "rud",
        -7.291390925539756
      ],
      [
        "9",
        -7.293221381756336
      ],
      [
        "fáil",
        -7.293239409050013
      ],
      [
        "’",
        -7.29471645507193
      ],
      [
        "u",
        -7.307733975175555
      ],
      [
        "má",
        -7.316770524760207
      ],
      [
        "tréimhse",
        -7.316858599794667
      ],
      [
        "áirithe",
        -7.321564170254948
      ],
      [
        "arna",
        -7.329783022401815
      ],
      [
        "8",
        -7.349289321369866
      ],
      [
        "air",
        -7.349826252817358
      ],
      [
        "7",
        -7.349977864854799
      ],
      [
        "eamh",
        -7.354615898746219
      ],
      [
        "uair",
        -7.355609333149903
      ],
      [
        "acu",
        -7.356715728036222
      ],
      [
        "féin",
        -7.357998972437641
      ],
      [
        "nua",
        -7.365380498033284
      ],
      [
        "fho",
        -7.382871646038943
      ],
      [
        "Rialachá",
        -7.389562326721962
      ],
      [
        "cha",
        -7.3908934962739785
      ],
      [
        "F",
        -7.407554818108016
      ],
      [
        "gá",
        -7.416230682169707
      ],
      [
        "P",
        -7.425077708720642
      ],
      [
        "im",
        -7.425883925478535
      ],
      [
        "saor",
        -7.427239493036902
      ],
      [
        "fháil",
        -7.438894969578848
      ],
      [
        "bhí",
        -7.451184622060617
      ],
      [
        "fé",
        -7.46039279141094
      ],
      [
        "imh",
        -7.461533388600516
      ],
      [
        "mór",
        -7.463107628715913
      ],
      [
        "Má",
        -7.464304538790651
      ],
      [
        "cur",
        -7.465961338692287
      ],
      [
        "íoc",
        -7.470590727743504
      ],
      [
        "te",
        -7.476589445476561
      ],
      [
        "ordú",
        -7.481703899729702
      ],
      [
        "maith",
        -7.48231624395862
      ],
      [
        "EN",
        -7.492528423473484
      ],
      [
        "áit",
        -7.4938848725225125
      ],
      [
        "far",
        -7.49485987254802
      ],
      [
        "údarás",
        -7.50024654548287
      ],
      [
        "aghaidh",
        -7.527692380156166
      ],
      [
        "sórt",
        -7.530442805638718
      ],
      [
        "M",
        -7.5307066768495625
      ],
      [
        "aithe",
        -7.540388606195164
      ],
      [
        "bhainean",
        -7.54547710547714
      ],
      [
        "20",
        -7.552205009702282
      ],
      [
        "ibé",
        -7.554391382979789
      ],
      [
        "ceann",
        -7.5605193093009415
      ],
      [
        "aisce",
        -7.564117790874225
      ],
      [
        "sonraí",
        -7.565353392512335
      ],
      [
        "chomh",
        -7.568424388991248
      ],
      [
        "uithe",
        -7.575117799029697
      ],
      [
        "y",
        -7.575141745659304
      ],
      [
        "?",
        -7.576703251481301
      ],
      [
        "&",
        -7.579607415928793
      ],
      [
        "aige",
        -7.581830744962346
      ],
      [
        "Ar",
        -7.58326096089508
      ],
      [
        "linn",
        -7.591235532041798
      ],
      [
        "dtí",
        -7.612104672921009
      ],
      [
        "raibh",
        -7.619287722570127
      ],
      [
        "aigh",
        -7.622878245781031
      ],
      [
        "sna",
        -7.638190255006274
      ],
      [
        "leat",
        -7.640141991876261
      ],
      [
        "más",
        -7.661512136522416
      ],
      [
        "E",
        -7.667631573357499
      ],
      [
        "10",
        -7.66878554912584
      ],
      [
        "200",
        -7.6727491881779075
      ],
      [
        "bhfeidhm",
        -7.676145786664879
      ],
      [
        "R",
        -7.701695910218452
      ],
      [
        "dul",
        -7.705347161563153
      ],
      [
        "cheart",
        -7.705360291746075
      ],
      [
        "Uimh",
        -7.70667064200026
      ],
      [
        "fear",
        -7.709124804911628
      ],
      [
        "cháin",
        -7.713895769126456
      ],
      [
        "thar",
        -7.715950096643453
      ],
      [
        "the",
        -7.717630942071628
      ],
      [
        "líne",
        -7.718870471172019
      ],
      [
        "nuair",
        -7.71899209267867
      ],
      [
        "istigh",
        -7.7197800096773115
      ],
      [
        "dáta",
        -7.730556645773102
      ],
      [
        "bhliain",
        -7.744546798431589
      ],
      [
        "freisi",
        -7.7493119092495775
      ],
      [
        "porn",
        -7.756196572931223
      ],
      [
        "seirbhís",
        -7.760457855090218
      ],
      [
        "ionad",
        -7.764968608024734
      ],
      [
        "baineann",
        -7.765965364003434
      ],
      [
        "imeachta",
        -7.772892029141888
      ],
      [
        "náisiúnta",
        -7.778006612020901
      ],
      [
        "ábhar",
        -7.779794996428619
      ],
      [
        "ciallaíon",
        -7.779872430704266
      ],
      [
        "ndáil",
        -7.787000305727418
      ],
      [
        "mé",
        -7.787699412666185
      ],
      [
        "iomlán",
        -7.795223040521291
      ],
      [
        "iarratas",
        -7.807881927824303
      ],
      [
        "inneadh",
        -7.811447887881569
      ],
      [
        "chéad",
        -7.815803916773188
      ],
      [
        "ing",
        -7.819567594219565
      ],
      [
        "tráth",
        -7.8260249468877054
      ],
      [
        "amhlaid",
        -7.834411822614413
      ],
      [
        "fo",
        -7.834427670563652
      ],
      [
        "Le",
        -7.83594280604376
      ],
      [
        "0",
        -7.840040090464491
      ],
      [
        "léir",
        -7.841544762414055
      ],
      [
        "uas",
        -7.844322043400316
      ],
      [
        "dtagraí",
        -7.844450694571732
      ],
      [
        "ailt",
        -7.850079340039875
      ],
      [
        "iomchu",
        -7.854320091486779
      ],
      [
        "ár",
        -7.854831394887435
      ],
      [
        "cheann",
        -7.857347000686878
      ],
      [
        "fearr",
        -7.866046878577188
      ],
      [
        "19",
        -7.868442424445498
      ],
      [
        "dó",
        -7.872563460012903
      ],
      [
        "déanfa",
        -7.875476211369228
      ],
      [
        "críocha",
        -7.884930710079109
      ],
      [
        "gh",
        -7.888689300548472
      ],
      [
        "bhfo",
        -7.88978093378462
      ],
      [
        "deimhnithe",
        -7.897674062747912
      ],
      [
        "bliana",
        -7.901596236303403
      ],
      [
        "feidhm",
        -7.901693460821788
      ],
      [
        "bearta",
        -7.901900777959146
      ],
      [
        "mír",
        -7.903680175306725
      ],
      [
        "íodh",
        -7.906255493682183
      ],
      [
        "feidhme",
        -7.913015307277701
      ],
      [
        "Ballstá",
        -7.916555469888256
      ],
      [
        "féadfaid",
        -7.9190005482351244
      ],
      [
        "áiríte",
        -7.92427416904901
      ],
      [
        "tiúir",
        -7.933216352583785
      ],
      [
        "Eorpach",
        -7.940501238059225
      ],
      [
        "cuideachta",
        -7.941765911130857
      ],
      [
        "roinnt",
        -7.942440590577253
      ],
      [
        "hEorpa",
        -7.946040731032744
      ],
      [
        "bhaint",
        -7.949010745211888
      ],
      [
        "Coimisiún",
        -7.957236545998599
      ],
      [
        "bith",
        -7.966149645774914
      ],
      [
        "iú",
        -7.9670013550849665
      ],
      [
        "AE",
        -7.973302469007431
      ],
      [
        "fógra",
        -7.990472377895075
      ],
      [
        "feadh",
        -7.99303889955167
      ],
      [
        "Aonta",
        -8.002545207882447
      ],
      [
        "díreach",
        -8.003070776210407
      ],
      [
        "Aontais",
        -8.00414988630967
      ],
      [
        "éifeacht",
        -8.005450845023885
      ],
      [
        "chéile",
        -8.00557847922942
      ],
      [
        "gcomhréi",
        -8.015629143366807
      ],
      [
        "mhéid",
        -8.027550069197737
      ],
      [
        "Cuntas",
        -8.027626242096641
      ],
      [
        "eann",
        -8.028910819265374
      ],
      [
        "duit",
        -8.030295502505297
      ],
      [
        "bhun",
        -8.035013933242464
      ],
      [
        "luach",
        -8.041407762387546
      ],
      [
        "ndéanfa",
        -8.04850759998257
      ],
      [
        "Mar",
        -8.056592840933966
      ],
      [
        "Déanfa",
        -8.061421171343053
      ],
      [
        "@",
        -8.06553939694992
      ],
      [
        "láthair",
        -8.068704538918613
      ],
      [
        "eideal",
        -8.077525926739789
      ],
      [
        "15",
        -8.08285448991995
      ],
      [
        "rialachá",
        -8.086700032173091
      ],
      [
        "12",
        -8.093025156289235
      ],
      [
        "Féadfai",
        -8.096361899809118
      ],
      [
        "áireamh",
        -8.097728942348327
      ],
      [
        "oifig",
        -8.10110562258979
      ],
      [
        "céanna",
        -8.106799010365734
      ],
      [
        "leo",
        -8.10781934412822
      ],
      [
        "líon",
        -8.114681831976391
      ],
      [
        "O",
        -8.125751974360009
      ],
      [
        "leor",
        -8.135135680891402
      ],
      [
        "iarraid",
        -8.14190371051663
      ],
      [
        "cuid",
        -8.143835228941406
      ],
      [
        "déanta",
        -8.14470475973079
      ],
      [
        "eadh",
        -8.144839707334858
      ],
      [
        "uisce",
        -8.144899161626245
      ],
      [
        "Agus",
        -8.146070622206661
      ],
      [
        "síos",
        -8.146212641555081
      ],
      [
        "dlí",
        -8.146488222225264
      ],
      [
        "Bord",
        -8.15207158944163
      ],
      [
        "Stát",
        -8.154816617839597
      ],
      [
        "dhá",
        -8.155277283141881
      ],
      [
        "CE",
        -8.157102476944265
      ],
      [
        "haon",
        -8.158926546409155
      ],
      [
        "Chun",
        -8.158970409395035
      ],
      [
        "forála",
        -8.162480052603101
      ],
      [
        "mo",
        -8.16335656370926
      ],
      [
        "cinn",
        -8.171716037913377
      ],
      [
        "mhí",
        -8.177672339076484
      ],
      [
        "mhír",
        -8.185656788253597
      ],
      [
        "neamh",
        -8.191083708131137
      ],
      [
        "airgead",
        -8.192184548678437
      ],
      [
        "mbea",
        -8.194097636709657
      ],
      [
        "éarla",
        -8.198657076999528
      ],
      [
        "oifigeach",
        -8.200608079682512
      ],
      [
        "coinníollach",
        -8.203551228381752
      ],
      [
        "gníomh",
        -8.20382483136806
      ],
      [
        "teacht",
        -8.207000270386498
      ],
      [
        "on",
        -8.20922433186042
      ],
      [
        "AN",
        -8.211464896653215
      ],
      [
        "amp",
        -8.211469366752908
      ],
      [
        "ainm",
        -8.215786431826583
      ],
      [
        "éagsúla",
        -8.219987866128125
      ],
      [
        "!",
        -8.222188560610368
      ],
      [
        "eachas",
        -8.225642715839864
      ],
      [
        "gheall",
        -8.227590262048023
      ],
      [
        "gComhairle",
        -8.237874873762554
      ],
      [
        "–",
        -8.240793743074075
      ],
      [
        "Éireann",
        -8.241371406176176
      ],
      [
        "chóir",
        -8.242852779797037
      ],
      [
        "mura",
        -8.245382507781937
      ],
      [
        "dtaobh",
        -8.247003692870427
      ],
      [
        "ceart",
        -8.24771436081417
      ],
      [
        "ghlacadh",
        -8.25437380770008
      ],
      [
        "obair",
        -8.25605570995103
      ],
      [
        "comhalta",
        -8.256141486438807
      ],
      [
        "Airgeada",
        -8.256695653816042
      ],
      [
        "bhrí",
        -8.25721805491209
      ],
      [
        "Ard",
        -8.260539038148522
      ],
      [
        "éanann",
        -8.26145225039138
      ],
      [
        "áitiú",
        -8.265719668003891
      ],
      [
        "rialacha",
        -8.269126532598715
      ],
      [
        "fh",
        -8.277859667587142
      ],
      [
        "201",
        -8.280025651519518
      ],
      [
        "fad",
        -8.28385915230104
      ],
      [
        "féadfa",
        -8.285273043911793
      ],
      [
        "eolas",
        -8.285311181950004
      ],
      [
        "dóibh",
        -8.291573698576412
      ],
      [
        "for",
        -8.29171282595339
      ],
      [
        "airgeadai",
        -8.292300832800686
      ],
      [
        "beag",
        -8.296327971865951
      ],
      [
        "30",
        -8.30189969237333
      ],
      [
        "of",
        -8.305321418728392
      ],
      [
        "ráta",
        -8.309349103734514
      ],
      [
        "fén",
        -8.310012923547257
      ],
      [
        "Faoi",
        -8.311404180128914
      ],
      [
        "úil",
        -8.313963606626858
      ],
      [
        "th",
        -8.31799188166125
      ],
      [
        "earra",
        -8.3206432966314
      ],
      [
        "ionca",
        -8.329264833758458
      ],
      [
        "talamh",
        -8.329917775237966
      ],
      [
        "Údará",
        -8.333533320641934
      ],
      [
        "leas",
        -8.335605712801232
      ],
      [
        "cuí",
        -8.343067842200778
      ],
      [
        "Chomhairle",
        -8.343763582520435
      ],
      [
        "niú",
        -8.34807855568446
      ],
      [
        "11",
        -8.355301838623571
      ],
      [
        "Ceist",
        -8.357647809574402
      ],
      [
        "Seo",
        -8.360695948754756
      ],
      [
        "lú",
        -8.369923341550471
      ],
      [
        "táirgí",
        -8.37010119485174
      ],
      [
        "scéim",
        -8.370434207548982
      ],
      [
        "pé",
        -8.377155419821833
      ],
      [
        "chuir",
        -8.38461242297289
      ],
      [
        "rith",
        -8.384947838492778
      ],
      [
        "Tuillea",
        -8.388238804680686
      ],
      [
        "Ach",
        -8.388550565806941
      ],
      [
        "dhéanfa",
        -8.389173809375428
      ],
      [
        "éanamh",
        -8.389600084353024
      ],
      [
        "18",
        -8.39625794382999
      ],
      [
        "bhíonn",
        -8.398295674934557
      ],
      [
        "chuideachta",
        -8.398756668094165
      ],
      [
        "Fuaim",
        -8.39942631043544
      ],
      [
        "liain",
        -8.40440069134707
      ],
      [
        "cion",
        -8.405901983345988
      ],
      [
        "199",
        -8.419504608994771
      ],
      [
        "físeá",
        -8.419674836834604
      ],
      [
        "Coimisinéir",
        -8.422192338653677
      ],
      [
        "leibhéal",
        -8.42675308954474
      ],
      [
        "imid",
        -8.427816844527037
      ],
      [
        "aíonn",
        -8.440751404827736
      ],
      [
        "tríd",
        -8.448434208623878
      ],
      [
        "k",
        -8.448544629214421
      ],
      [
        "Ag",
        -8.452092328881402
      ],
      [
        "Cé",
        -8.452838950122512
      ],
      [
        "Aon",
        -8.453242753647025
      ],
      [
        "193",
        -8.454388098092611
      ],
      [
        "iníoc",
        -8.455141284599648
      ],
      [
        "uile",
        -8.456651968801232
      ],
      [
        "Sceideal",
        -8.458122842974948
      ],
      [
        "14",
        -8.458531167934964
      ],
      [
        "H",
        -8.46308372765536
      ],
      [
        "%",
        -8.469823041191393
      ],
      [
        "tagairt",
        -8.477465970901864
      ],
      [
        "cé",
        -8.480398979112273
      ],
      [
        "clár",
        -8.481868438240843
      ],
      [
        "deara",
        -8.486790616880395
      ],
      [
        "chlár",
        -8.493112945153992
      ],
      [
        "z",
        -8.506947968175009
      ],
      [
        "mb",
        -8.508562006785745
      ],
      [
        "orthu",
        -8.508794775283468
      ],
      [
        "V",
        -8.51033666687723
      ],
      [
        "16",
        -8.511729698155353
      ],
      [
        "athrú",
        -8.516013320465987
      ],
      [
        "cuirea",
        -8.517155134709272
      ],
      [
        "réims",
        -8.518000994828178
      ],
      [
        "eacha",
        -8.518268920495442
      ],
      [
        "iúil",
        -8.518459331212796
      ],
      [
        "gcuid",
        -8.519424226025501
      ],
      [
        "beid",
        -8.524425604498685
      ],
      [
        "suim",
        -8.52642898970276
      ],
      [
        "deirea",
        -8.527275967790434
      ],
      [
        "gréasá",
        -8.528162778431444
      ],
      [
        "fianaise",
        -8.532455819103921
      ],
      [
        "Pharlaimint",
        -8.53570048149184
      ],
      [
        "scríbhinn",
        -8.540433950040786
      ],
      [
        "Chúirt",
        -8.54308594809639
      ],
      [
        "slí",
        -8.547463127378435
      ],
      [
        "críche",
        -8.549786014492206
      ],
      [
        "fhéadfadh",
        -8.55007774805946
      ],
      [
        "déana",
        -8.550088408586749
      ],
      [
        "áil",
        -8.554390558464373
      ],
      [
        "leasú",
        -8.5554081626825
      ],
      [
        "Ã",
        -8.561800529589437
      ],
      [
        "ath",
        -8.56324477907453
      ],
      [
        "De",
        -8.565332540330697
      ],
      [
        "chloi",
        -8.566803096490204
      ],
      [
        "Comhairle",
        -8.568240246684432
      ],
      [
        "deimhniú",
        -8.57166962745272
      ],
      [
        "chomhalta",
        -8.574543129063288
      ],
      [
        "agat",
        -8.57580104158231
      ],
      [
        "baint",
        -8.57626469544503
      ],
      [
        "monaróir",
        -8.57955257721713
      ],
      [
        "aois",
        -8.582618639028428
      ],
      [
        "sholátha",
        -8.582994884496467
      ],
      [
        "tSín",
        -8.58431154589978
      ],
      [
        "limisté",
        -8.585002686941575
      ],
      [
        "192",
        -8.588657018444874
      ],
      [
        "speisialta",
        -8.589501097514404
      ],
      [
        "13",
        -8.591312379304107
      ],
      [
        "cánach",
        -8.595588725627705
      ],
      [
        "thug",
        -8.596030851964922
      ],
      [
        "aistriú",
        -8.59771731864113
      ],
      [
        "bunaithe",
        -8.597810983680064
      ],
      [
        "Ó",
        -8.599677639739271
      ],
      [
        "196",
        -8.605154996241133
      ],
      [
        "000",
        -8.607578137359479
      ],
      [
        "agtha",
        -8.60779086486863
      ],
      [
        "faidh",
        -8.618791340211596
      ],
      [
        "mhaith",
        -8.62121960488091
      ],
      [
        "Stáit",
        -8.622646722556745
      ],
      [
        "taobh",
        -8.623021743550451
      ],
      [
        "ceadúna",
        -8.623840964603096
      ],
      [
        "chomhlíona",
        -8.625333615992473
      ],
      [
        "Choimisiú",
        -8.625395987430487
      ],
      [
        "mí",
        -8.628351159112128
      ],
      [
        "Chéad",
        -8.630922384146125
      ],
      [
        "comh",
        -8.634156655735268
      ],
      [
        "197",
        -8.63487301049934
      ],
      [
        "24",
        -8.636265347108996
      ],
      [
        "páirt",
        -8.636590382639515
      ],
      [
        "bhféadfa",
        -8.636866121760953
      ],
      [
        "liosta",
        -8.639504251980574
      ],
      [
        "Féadfa",
        -8.642470439933303
      ],
      [
        "iúl",
        -8.645393495599787
      ],
      [
        "foca",
        -8.646986913437022
      ],
      [
        "láithreá",
        -8.647689437868396
      ],
      [
        "oiriúnach",
        -8.650948504587516
      ],
      [
        "hiomlán",
        -8.652403103086517
      ],
      [
        "téarma",
        -8.655318405959292
      ],
      [
        "planda",
        -8.656305081341056
      ],
      [
        "orthaí",
        -8.65651236273465
      ],
      [
        "táirge",
        -8.656948942600389
      ],
      [
        "Eorpaigh",
        -8.660124708856435
      ],
      [
        "Ionca",
        -8.661892130488926
      ],
      [
        "cead",
        -8.661944950865639
      ],
      [
        "fu",
        -8.66364934079196
      ],
      [
        "chás",
        -8.665927196754971
      ],
      [
        "éachaint",
        -8.67168392164541
      ],
      [
        "gcéad",
        -8.672359832840357
      ],
      [
        "Roimh",
        -8.673488062252558
      ],
      [
        "áitreabh",
        -8.673717811313313
      ],
      [
        "údará",
        -8.674522106888222
      ],
      [
        "acha",
        -8.675915812133333
      ],
      [
        "pearsanta",
        -8.677237507170034
      ],
      [
        "suíomh",
        -8.682106922829934
      ],
      [
        "ACHT",
        -8.68425544135475
      ],
      [
        "rogha",
        -8.689036804398633
      ],
      [
        "HD",
        -8.689108982666674
      ],
      [
        "faisnéis",
        -8.692515292064048
      ],
      [
        "fiú",
        -8.694888861587938
      ],
      [
        "mian",
        -8.708773446601874
      ],
      [
        "seirbhíse",
        -8.709365698570812
      ],
      [
        "amhail",
        -8.70976596926289
      ],
      [
        "25",
        -8.711520842509724
      ],
      [
        "ama",
        -8.711594203725921
      ],
      [
        "ríomh",
        -8.718510361560739
      ],
      [
        "nois",
        -8.719630581566491
      ],
      [
        "UID",
        -8.7200408349123
      ],
      [
        "ion",
        -8.720220344092246
      ],
      [
        "ndia",
        -8.720525451053351
      ],
      [
        "‘",
        -8.72080004988274
      ],
      [
        "gníomhaíochta",
        -8.723541909795447
      ],
      [
        "oibre",
        -8.723576937042388
      ],
      [
        "ábhartha",
        -8.726496986321063
      ],
      [
        "U",
        -8.730774672921747
      ],
      [
        "tras",
        -8.733054513017336
      ],
      [
        "2017",
        -8.737646421646236
      ],
      [
        "eas",
        -8.741583825035207
      ],
      [
        "fó",
        -8.743242914794438
      ],
      [
        "Bhí",
        -8.743449859169782
      ],
      [
        "inearálta",
        -8.744992801503027
      ],
      [
        "fás",
        -8.747610089049745
      ],
      [
        "scríobh",
        -8.748454142101544
      ],
      [
        "poiblí",
        -8.748494125636839
      ],
      [
        "muid",
        -8.74849665255424
      ],
      [
        "íocaíocht",
        -8.748564167433575
      ],
      [
        "huaire",
        -8.748822983651326
      ],
      [
        "Go",
        -8.749588191089007
      ],
      [
        "leagan",
        -8.750985183451633
      ],
      [
        "hAcht",
        -8.751599459696168
      ],
      [
        "fhonn",
        -8.753955776909494
      ],
      [
        "nár",
        -8.759525766103145
      ],
      [
        "dháta",
        -8.760359437800588
      ],
      [
        "súil",
        -8.760963241866797
      ],
      [
        "iompar",
        -8.763155348928692
      ],
      [
        "comhlacht",
        -8.763864785409073
      ],
      [
        "shonraí",
        -8.765278123923498
      ],
      [
        "17",
        -8.7655425900588
      ],
      [
        "2016",
        -8.766293590958577
      ],
      [
        "ndearna",
        -8.768434401039165
      ],
      [
        "rinne",
        -8.772329717703748
      ],
      [
        "bhea",
        -8.77345283391585
      ],
      [
        "fhaisnéis",
        -8.773985728127387
      ],
      [
        "rialú",
        -8.777001089950708
      ],
      [
        "NA",
        -8.777232077819875
      ],
      [
        "gnó",
        -8.78144997273536
      ],
      [
        "cluichí",
        -8.78689334279782
      ],
      [
        "laghdú",
        -8.793547442859488
      ],
      [
        "gurb",
        -8.794552160063443
      ],
      [
        "abhair",
        -8.79515300361715
      ],
      [
        "ileamh",
        -8.795490589361888
      ],
      [
        "Oifig",
        -8.795705074755764
      ],
      [
        "dhéanta",
        -8.795927866676992
      ],
      [
        "cluich",
        -8.796344927294665
      ],
      [
        "lagha",
        -8.796596989256575
      ],
      [
        "measfa",
        -8.796982953274817
      ],
      [
        "II",
        -8.798228408385278
      ],
      [
        "dóigh",
        -8.798798819241899
      ],
      [
        "dochar",
        -8.802528751871158
      ],
      [
        "togra",
        -8.807940696313153
      ],
      [
        "chosaint",
        -8.810117564397292
      ],
      [
        "gceist",
        -8.811671632747725
      ],
      [
        "trádála",
        -8.812957268290688
      ],
      [
        "léi",
        -8.8139668457656
      ],
      [
        "áirithi",
        -8.817577210070837
      ],
      [
        "Treoir",
        -8.818032284133723
      ],
      [
        "dhiai",
        -8.819160379233907
      ],
      [
        "fásta",
        -8.819739702906752
      ],
      [
        "2018",
        -8.821544796859932
      ],
      [
        "ghaidh",
        -8.823101620636518
      ],
      [
        "cad",
        -8.823980509112097
      ],
      [
        "cúram",
        -8.824084762565636
      ],
      [
        "chaighdeán",
        -8.824210599028525
      ],
      [
        "sheola",
        -8.825179228502353
      ],
      [
        "gcónaí",
        -8.82809322207832
      ],
      [
        "cosú",
        -8.829993591676025
      ],
      [
        "K",
        -8.83003234595046
      ],
      [
        "chineál",
        -8.830584033938942
      ],
      [
        "toiliú",
        -8.830972279433258
      ],
      [
        "álta",
        -8.832435974707192
      ],
      [
        "ghnáth",
        -8.833006093729688
      ],
      [
        "Phríomh",
        -8.837617656949714
      ],
      [
        "Chuid",
        -8.846690129697993
      ],
      [
        "cás",
        -8.848162366291941
      ],
      [
        "chinneadh",
        -8.848991387180599
      ],
      [
        "bia",
        -8.852077544629182
      ],
      [
        "onair",
        -8.852249715880152
      ],
      [
        "dhíol",
        -8.852321016922033
      ],
      [
        "aird",
        -8.85317059067891
      ],
      [
        "oilsiú",
        -8.853783733792834
      ],
      [
        "reatha",
        -8.853980836008223
      ],
      [
        "sláinte",
        -8.854959573074652
      ],
      [
        "onraithe",
        -8.855819222185122
      ],
      [
        "údara",
        -8.855953741030223
      ],
      [
        "cheana",
        -8.859284005869933
      ],
      [
        "gcoinne",
        -8.86071873429902
      ],
      [
        "artha",
        -8.861035550799361
      ],
      [
        "Roinn",
        -8.86208084417883
      ],
      [
        "cineál",
        -8.862294646760509
      ],
      [
        "Cuir",
        -8.863696258025811
      ],
      [
        "Maidir",
        -8.8678767833675
      ],
      [
        "Ch",
        -8.869488887819546
      ],
      [
        "córas",
        -8.869608575155265
      ],
      [
        "Fómha",
        -8.869990046236289
      ],
      [
        "éasca",
        -8.87118649356236
      ],
      [
        "bhrái",
        -8.871426037528085
      ],
      [
        "Gaeilge",
        -8.873566005311456
      ],
      [
        "dúin",
        -8.874444376206966
      ],
      [
        "Twitter",
        -8.874697813618535
      ],
      [
        "21",
        -8.878321031050314
      ],
      [
        "bhunú",
        -8.87897862178264
      ],
      [
        "oibriú",
        -8.879266652445569
      ],
      [
        "ochair",
        -8.8797967649333
      ],
      [
        "cúis",
        -8.879903835231547
      ],
      [
        "fhorbairt",
        -8.882165442833792
      ],
      [
        "v",
        -8.88217336814185
      ],
      [
        "shin",
        -8.88670669169083
      ],
      [
        "Co",
        -8.889442928432226
      ],
      [
        "téarmaí",
        -8.889980576386108
      ],
      [
        "26",
        -8.891349424290048
      ],
      [
        "bhonn",
        -8.895922353886387
      ],
      [
        "bun",
        -8.899162066337269
      ],
      [
        "ainneoi",
        -8.899935064304625
      ],
      [
        "The",
        -8.900660946287209
      ],
      [
        "leathan",
        -8.900783251129075
      ],
      [
        "us",
        -8.902434186187403
      ],
      [
        "tuarascá",
        -8.902945209200869
      ],
      [
        "2013",
        -8.903690338621544
      ],
      [
        "Baile",
        -8.904271368635364
      ],
      [
        "Níl",
        -8.907666017558673
      ],
      [
        "Leasú",
        -8.90845948763928
      ],
      [
        "ionann",
        -8.908777081082354
      ],
      [
        "gcomhairle",
        -8.919044318615184
      ],
      [
        "ráitea",
        -8.922633348380664
      ],
      [
        "athair",
        -8.9226380581086
      ],
      [
        "fíor",
        -8.92385409140114
      ],
      [
        "Cad",
        -8.925284115258279
      ],
      [
        "31",
        -8.928058673213709
      ],
      [
        "íocaíochta",
        -8.92855588449417
      ],
      [
        "comhaont",
        -8.932361404202371
      ],
      [
        "22",
        -8.93390668805148
      ],
      [
        "each",
        -8.934940231455425
      ],
      [
        "liom",
        -8.935732823573378
      ],
      [
        "cláraithe",
        -8.936437150129928
      ],
      [
        "doiciméad",
        -8.938858630609634
      ],
      [
        "forbairt",
        -8.940541211900932
      ],
      [
        "cúig",
        -8.946789266427103
      ],
      [
        "cóip",
        -8.948303057930517
      ],
      [
        "scaire",
        -8.94892446111967
      ],
      [
        "50",
        -8.9493413195551
      ],
      [
        "fhógra",
        -8.951943109357181
      ],
      [
        "cuir",
        -8.953967693047844
      ],
      [
        "100",
        -8.954508824228423
      ],
      [
        "w",
        -8.954969852195124
      ],
      [
        "riachtanach",
        -8.955851894494913
      ],
      [
        "cuirfid",
        -8.956099024537913
      ],
      [
        "194",
        -8.957229076665982
      ],
      [
        "28",
        -8.957729850439094
      ],
      [
        "Nua",
        -8.958803118350435
      ],
      [
        "oisc",
        -8.959046878215048
      ],
      [
        "choimeád",
        -8.9590829554344
      ],
      [
        "‐",
        -8.959619466248121
      ],
      [
        "gcion",
        -8.961366456022148
      ],
      [
        "ola",
        -8.962345782137152
      ],
      [
        "bláth",
        -8.963492242269645
      ],
      [
        "mhór",
        -8.964088091306797
      ],
      [
        "láithreach",
        -8.968582552207423
      ],
      [
        "thaobh",
        -8.972156444482449
      ],
      [
        "Seirbhís",
        -8.97229435152579
      ],
      [
        "éil",
        -8.97253374751109
      ],
      [
        "rochtain",
        -8.97359021873821
      ],
      [
        "GUS",
        -8.973778804562649
      ],
      [
        "W",
        -8.974565068633447
      ],
      [
        "195",
        -8.975337271015832
      ],
      [
        "chumhacht",
        -8.975745800307276
      ],
      [
        "lán",
        -8.976111564481386
      ],
      [
        "tuga",
        -8.97936847267242
      ],
      [
        "Coiste",
        -8.980384796716478
      ],
      [
        "2012",
        -8.980726741004045
      ],
      [
        "Leasa",
        -8.981343253853286
      ],
      [
        "Dé",
        -8.981487396707267
      ],
      [
        "achomharc",
        -8.98423923531125
      ],
      [
        "dtugta",
        -8.990792675206622
      ],
      [
        "Léim",
        -8.990954377983254
      ],
      [
        "costais",
        -8.991064835712507
      ],
      [
        "leasa",
        -8.991315896920497
      ],
      [
        "fheidhmiú",
        -8.991317948603005
      ],
      [
        "Náisiúnta",
        -8.993847068802289
      ],
      [
        "thora",
        -8.996190399890889
      ],
      [
        "Cluich",
        -8.998917796840107
      ],
      [
        "caighdeán",
        -8.999918208070005
      ],
      [
        "soláthar",
        -9.002933654091471
      ],
      [
        "measc",
        -9.004426223061852
      ],
      [
        "chéanna",
        -9.005345050954748
      ],
      [
        "dath",
        -9.008697493203393
      ],
      [
        "dara",
        -9.009001229737656
      ],
      [
        "ceap",
        -9.010140019844233
      ],
      [
        "luaite",
        -9.01110534008868
      ],
      [
        "irgid",
        -9.013324202287766
      ],
      [
        "ghabha",
        -9.014719321879868
      ],
      [
        "sásta",
        -9.014773153163311
      ],
      [
        "shampla",
        -9.015103799678718
      ],
      [
        "tuairim",
        -9.015433436564434
      ],
      [
        "rátaí",
        -9.018593012467546
      ],
      [
        "dheon",
        -9.01871397919696
      ],
      [
        "Uimhir",
        -9.019620275909396
      ],
      [
        "leanbh",
        -9.021506873541751
      ],
      [
        "iasc",
        -9.023310085419634
      ],
      [
        "tacaíocht",
        -9.023886247297941
      ],
      [
        "measún",
        -9.024228644343827
      ],
      [
        "cheangal",
        -9.024441066057088
      ],
      [
        "chlárú",
        -9.027610860616498
      ],
      [
        "faisnéise",
        -9.028033185467955
      ],
      [
        "praghas",
        -9.029631166884807
      ],
      [
        "bhua",
        -9.030240591799055
      ],
      [
        "againn",
        -9.030677069641545
      ],
      [
        "Act",
        -9.032550159740381
      ],
      [
        "seach",
        -9.032935772557614
      ],
      [
        "27",
        -9.034925846618766
      ],
      [
        "íoslódáil",
        -9.03589409684499
      ],
      [
        "úsáide",
        -9.038579290064295
      ],
      [
        "scoth",
        -9.040832879454623
      ],
      [
        "iúla",
        -9.040968703643983
      ],
      [
        "tharla",
        -9.041699681626957
      ],
      [
        "comhair",
        -9.045155378187069
      ],
      [
        "breise",
        -9.046932606298874
      ],
      [
        "airde",
        -9.04701929952289
      ],
      [
        "cruach",
        -9.04841263030851
      ],
      [
        "barr",
        -9.051218893733123
      ],
      [
        "Aibreá",
        -9.052433970384694
      ],
      [
        "tír",
        -9.0540832857041
      ],
      [
        "lae",
        -9.054376765625726
      ],
      [
        "aothair",
        -9.055546931737792
      ],
      [
        "éigin",
        -9.056469179294517
      ],
      [
        "ordu",
        -9.058547143074922
      ],
      [
        "sula",
        -9.058711987812439
      ],
      [
        "cheannach",
        -9.059620592995657
      ],
      [
        "scrío",
        -9.063853992991959
      ],
      [
        "leagt",
        -9.064868434573572
      ],
      [
        "oinneáil",
        -9.064990361682948
      ],
      [
        "inni",
        -9.06531017312928
      ],
      [
        "kar",
        -9.066260795953696
      ],
      [
        "lucht",
        -9.069246532886183
      ],
      [
        "roghnú",
        -9.069402931712627
      ],
      [
        "eiridh",
        -9.070788720764842
      ],
      [
        "fhios",
        -9.071593246440296
      ],
      [
        "chúis",
        -9.071627951878535
      ],
      [
        "iompai",
        -9.072592479975393
      ],
      [
        "fhéadfa",
        -9.072666634571071
      ],
      [
        "23",
        -9.072891439322746
      ],
      [
        "faid",
        -9.072928696699861
      ],
      [
        "áin",
        -9.073364455613051
      ],
      [
        "eisiúint",
        -9.073815413718208
      ],
      [
        "liúnta",
        -9.075334657469547
      ],
      [
        "fola",
        -9.076350191515
      ],
      [
        "Th",
        -9.076592060112489
      ],
      [
        "modh",
        -9.07760254408295
      ],
      [
        "siúl",
        -9.079055812710514
      ],
      [
        "uíonn",
        -9.080292939697308
      ],
      [
        "insean",
        -9.082273694199646
      ],
      [
        "seilbh",
        -9.082478750308095
      ],
      [
        "mhonarcha",
        -9.082586923794182
      ],
      [
        "saol",
        -9.083580306582734
      ],
      [
        "tioncha",
        -9.085358251937706
      ],
      [
        "lasmui",
        -9.08685085124255
      ],
      [
        "Oireachta",
        -9.091226393910963
      ],
      [
        "uimhir",
        -9.091230130135724
      ],
      [
        "leath",
        -9.092103602456573
      ],
      [
        "gCoimisiú",
        -9.094529870699088
      ],
      [
        "cosanta",
        -9.095661539856506
      ],
      [
        "stiúrthóir",
        -9.09664583744734
      ],
      [
        "hosm",
        -9.097442420385992
      ],
      [
        "cáin",
        -9.099587270121134
      ],
      [
        "Do",
        -9.099901531870877
      ],
      [
        "imir",
        -9.100110989857267
      ],
      [
        "bán",
        -9.10077769728052
      ],
      [
        "ála",
        -9.101587905533929
      ],
      [
        "Idir",
        -9.102610845333832
      ],
      [
        "príomh",
        -9.106041429476848
      ],
      [
        "damáist",
        -9.109033951994245
      ],
      [
        "nádúrtha",
        -9.109216285690373
      ],
      [
        "hord",
        -9.110192363551594
      ],
      [
        "díol",
        -9.111732493582092
      ],
      [
        "teach",
        -9.112092572944917
      ],
      [
        "chruthú",
        -9.112688072401049
      ],
      [
        "siú",
        -9.113707095388925
      ],
      [
        "Cona",
        -9.113842502081855
      ],
      [
        "domhain",
        -9.115335624830955
      ],
      [
        "céim",
        -9.11690017419544
      ],
      [
        "ciontach",
        -9.118306779071892
      ],
      [
        "inne",
        -9.123157588988832
      ],
      [
        "iarratais",
        -9.123994844380801
      ],
      [
        "óir",
        -9.124058682997294
      ],
      [
        "tionscada",
        -9.124519910251859
      ],
      [
        "iontach",
        -9.126429435414277
      ],
      [
        "grúpa",
        -9.13057065331671
      ],
      [
        "teorainn",
        -9.131411617214535
      ],
      [
        "talún",
        -9.131685057566353
      ],
      [
        "cheapad",
        -9.132654740673358
      ],
      [
        "bhéal",
        -9.133234351390668
      ],
      [
        "sanna",
        -9.136903234834778
      ],
      [
        "ort",
        -9.14012986541169
      ],
      [
        "Author",
        -9.140853053521894
      ],
      [
        "íochta",
        -9.141128548354365
      ],
      [
        "Parlaimint",
        -9.143364267986708
      ],
      [
        "luath",
        -9.146776483619316
      ],
      [
        "cabhr",
        -9.14696628634021
      ],
      [
        "Tweet",
        -9.150075122325628
      ],
      [
        "bliantú",
        -9.150166457107247
      ],
      [
        "sonrach",
        -9.150989102577597
      ],
      [
        "riachtanais",
        -9.152881334633822
      ],
      [
        "leanúint",
        -9.154764402947349
      ],
      [
        "abairt",
        -9.156091036882648
      ],
      [
        "choiste",
        -9.159032335833805
      ],
      [
        "2011",
        -9.160004315264192
      ],
      [
        "che",
        -9.161318804241075
      ],
      [
        "bheadh",
        -9.162782386311019
      ],
      [
        "aici",
        -9.164490251007408
      ],
      [
        "úsáidte",
        -9.165094460630609
      ],
      [
        "margadh",
        -9.168175903862457
      ],
      [
        "grianghraf",
        -9.16914325872017
      ],
      [
        "29",
        -9.169309166791425
      ],
      [
        "Chiste",
        -9.169564108832498
      ],
      [
        "tabhairt",
        -9.17010395883802
      ],
      [
        "fhorála",
        -9.171839582260898
      ],
      [
        "tús",
        -9.172550080821487
      ],
      [
        "Corporat",
        -9.173465599166464
      ],
      [
        "mhéadú",
        -9.176415169744526
      ],
      [
        "riarachá",
        -9.176740120496481
      ],
      [
        "léas",
        -9.178395113876133
      ],
      [
        "Eanáir",
        -9.178450618433661
      ],
      [
        "aistrithe",
        -9.181523577789298
      ],
      [
        "III",
        -9.183979596537272
      ],
      [
        "léiriú",
        -9.186409068531168
      ],
      [
        "cona",
        -9.186805680912697
      ],
      [
        "cúna",
        -9.1871562910145
      ],
      [
        "éinn",
        -9.188003361227295
      ],
      [
        "ip",
        -9.18905372091756
      ],
      [
        "Áitiú",
        -9.190297366769688
      ],
      [
        "minic",
        -9.19159703655408
      ],
      [
        "cuntais",
        -9.194473533555737
      ],
      [
        "hoird",
        -9.195243386340096
      ],
      [
        "ocht",
        -9.197768453262578
      ],
      [
        "DO",
        -9.198092722817302
      ],
      [
        "úsáideoir",
        -9.198127375922283
      ],
      [
        "Ú",
        -9.198425141820369
      ],
      [
        "réasúnach",
        -9.19888345394037
      ],
      [
        "hlí",
        -9.199141142947141
      ],
      [
        "úinéir",
        -9.199596487670348
      ],
      [
        "iarnró",
        -9.202784763118725
      ],
      [
        "freagrach",
        -9.203055243381083
      ],
      [
        "cht",
        -9.203725653091224
      ],
      [
        "nasc",
        -9.206196949683115
      ],
      [
        "íneáil",
        -9.206732085288959
      ],
      [
        "sócmhainn",
        -9.207696495594917
      ],
      [
        "ábhair",
        -9.20841037686647
      ],
      [
        "cuspóir",
        -9.208822694292925
      ],
      [
        "iméad",
        -9.210950477221452
      ],
      [
        "treala",
        -9.212148603990926
      ],
      [
        "costas",
        -9.212601911591626
      ],
      [
        "feidhmeanna",
        -9.213755738274427
      ],
      [
        "láimh",
        -9.215023051036287
      ],
      [
        "Á",
        -9.216550101245634
      ],
      [
        "fhoráil",
        -9.217745783319796
      ],
      [
        "Tar",
        -9.218750417237079
      ],
      [
        "tábhachtach",
        -9.21920279485742
      ],
      [
        "cothrom",
        -9.220778799835681
      ],
      [
        "Cánach",
        -9.222603857453603
      ],
      [
        "cumhacht",
        -9.2278017701475
      ],
      [
        "hordú",
        -9.228990181168898
      ],
      [
        "bhfoirm",
        -9.232323345670725
      ],
      [
        "dtabharfa",
        -9.233440889349033
      ],
      [
        "scrúdú",
        -9.234696159190872
      ],
      [
        "gcrích",
        -9.2351443932625
      ],
      [
        "feidhmiú",
        -9.235835343963497
      ],
      [
        "pe",
        -9.236059709133343
      ],
      [
        "rialta",
        -9.239584733257624
      ],
      [
        "tháinig",
        -9.23997959686583
      ],
      [
        "ollaig",
        -9.2403199198904
      ],
      [
        "foirgn",
        -9.242002450689936
      ],
      [
        "Ord",
        -9.243420832849193
      ],
      [
        "Bill",
        -9.24370186781372
      ],
      [
        "íseal",
        -9.24900804539685
      ],
      [
        "ghairm",
        -9.25107665142086
      ],
      [
        "cáilíochta",
        -9.251219421954067
      ],
      [
        "cearta",
        -9.251840322463899
      ],
      [
        "bharr",
        -9.252056206933648
      ],
      [
        "seachtain",
        -9.253019807966224
      ],
      [
        "Féach",
        -9.253392507554604
      ],
      [
        "iasacht",
        -9.253514738429413
      ],
      [
        "taighde",
        -9.253746363011192
      ],
      [
        "tuillea",
        -9.256507654708543
      ],
      [
        "breith",
        -9.2573856832847
      ],
      [
        "chúirt",
        -9.258636267079
      ],
      [
        "íortha",
        -9.25903169461376
      ],
      [
        "198",
        -9.259990058855763
      ],
      [
        "dtaca",
        -9.260298531490085
      ],
      [
        "dubh",
        -9.26054234274352
      ],
      [
        "deimh",
        -9.26184742923395
      ],
      [
        "mhalairt",
        -9.263491370321152
      ],
      [
        "rún",
        -9.2637958480015
      ],
      [
        "ullmhú",
        -9.264483205868332
      ],
      [
        "etc",
        -9.266571207176487
      ],
      [
        "uaithe",
        -9.2668945408269
      ],
      [
        "úirt",
        -9.266910854968831
      ],
      [
        "doiciméid",
        -9.267471495277137
      ],
      [
        "cosaint",
        -9.268737061542069
      ],
      [
        "mBallstá",
        -9.271069817337942
      ],
      [
        "bord",
        -9.272390935634071
      ],
      [
        "scaoileadh",
        -9.273997235810395
      ],
      [
        "éadrom",
        -9.273999533121408
      ],
      [
        "dleacht",
        -9.278075187902461
      ],
      [
        "Tag",
        -9.278614838489908
      ],
      [
        "comhairle",
        -9.279222362763981
      ],
      [
        "riosca",
        -9.27927764756582
      ],
      [
        "Bhallstá",
        -9.27928396057662
      ],
      [
        "x",
        -9.280911170431603
      ],
      [
        "shocr",
        -9.281363125469039
      ],
      [
        "mba",
        -9.282751843469502
      ],
      [
        "able",
        -9.283366651945263
      ],
      [
        "abháil",
        -9.286170648833979
      ],
      [
        "gné",
        -9.287267721803932
      ],
      [
        "tapa",
        -9.287837650993897
      ],
      [
        "chumas",
        -9.290695422571634
      ],
      [
        "ghabh",
        -9.291531015480357
      ],
      [
        "eal",
        -9.291600353082288
      ],
      [
        "gcuideachta",
        -9.2939549448995
      ],
      [
        "tástála",
        -9.29537685879395
      ],
      [
        "Soláthra",
        -9.296407194991477
      ],
      [
        "infheidhme",
        -9.296763228597708
      ],
      [
        "gnáth",
        -9.297159585158866
      ],
      [
        "glan",
        -9.297788830532706
      ],
      [
        "nochta",
        -9.298873222772079
      ],
      [
        "bainistíocht",
        -9.300812895853099
      ],
      [
        "ainmnithe",
        -9.301122668256713
      ],
      [
        "ealach",
        -9.303390789734953
      ],
      [
        "áir",
        -9.304332271690608
      ],
      [
        "cinnte",
        -9.304610081008203
      ],
      [
        "déanfaid",
        -9.306108848036343
      ],
      [
        "mhaoin",
        -9.307358079154369
      ],
      [
        "Porn",
        -9.307829552668139
      ],
      [
        "aisíoc",
        -9.307974050119949
      ],
      [
        "páirtí",
        -9.30886653796502
      ],
      [
        "údarú",
        -9.309247268331772
      ],
      [
        "eiceáil",
        -9.310735369317545
      ],
      [
        "díobh",
        -9.311106839878935
      ],
      [
        "anta",
        -9.311616342305804
      ],
      [
        "comhlachta",
        -9.315632426889483
      ],
      [
        "córa",
        -9.319739627463035
      ],
      [
        "soiléir",
        -9.321093352454735
      ],
      [
        "éiteach",
        -9.321971190230627
      ],
      [
        "ionstraim",
        -9.323504200101144
      ],
      [
        "ithre",
        -9.323762695262085
      ],
      [
        "scoil",
        -9.326645911091347
      ],
      [
        "foirm",
        -9.328065334954527
      ],
      [
        "Product",
        -9.328200288550196
      ],
      [
        "Cliath",
        -9.328400799190618
      ],
      [
        "páirteach",
        -9.32860135399915
      ],
      [
        "SC",
        -9.329222950208358
      ],
      [
        "taithí",
        -9.329688209521539
      ],
      [
        "eithre",
        -9.331393241777631
      ],
      [
        "glacad",
        -9.333125252957423
      ],
      [
        "maoin",
        -9.333581017066892
      ],
      [
        "Éirinn",
        -9.333787177727977
      ],
      [
        "siar",
        -9.33429968509854
      ],
      [
        "Cuarda",
        -9.334614959118097
      ],
      [
        "ham",
        -9.33485292467321
      ],
      [
        "oibreacha",
        -9.338475885834907
      ],
      [
        "Rialtais",
        -9.339673961599232
      ],
      [
        "oibleagáid",
        -9.34259088207766
      ],
      [
        "íocfa",
        -9.343692344906687
      ],
      [
        "Iarscríbhinn",
        -9.344280733298048
      ],
      [
        "Meán",
        -9.345135226076593
      ],
      [
        "mheas",
        -9.34587714977146
      ],
      [
        "forbartha",
        -9.346835767482407
      ],
      [
        "ndéanta",
        -9.347014849807422
      ],
      [
        "có",
        -9.347516198140998
      ],
      [
        "chiont",
        -9.349691989539277
      ],
      [
        "Deirea",
        -9.349741813591452
      ],
      [
        "LE",
        -9.350587014321814
      ],
      [
        "ligean",
        -9.351918630152028
      ],
      [
        "óga",
        -9.352053208120239
      ],
      [
        "iarratasóir",
        -9.353072740427534
      ],
      [
        "phoiblí",
        -9.357107302564133
      ],
      [
        "San",
        -9.357793295783335
      ],
      [
        "oideachais",
        -9.357807134587702
      ],
      [
        "bhfad",
        -9.358714290000103
      ],
      [
        "oifige",
        -9.359604267485198
      ],
      [
        "iniúcha",
        -9.362277114110706
      ],
      [
        "athbhreithniú",
        -9.36265201161996
      ],
      [
        "bhforáil",
        -9.363143506557437
      ],
      [
        "críoch",
        -9.36341064973335
      ],
      [
        "Chomh",
        -9.363862659370799
      ],
      [
        "ngair",
        -9.367381163115482
      ],
      [
        "Bh",
        -9.368072593323788
      ],
      [
        "mhuirear",
        -9.368173299548328
      ],
      [
        "seomra",
        -9.368178718957619
      ],
      [
        "húdará",
        -9.369018711632311
      ],
      [
        "rialaithe",
        -9.36999202034985
      ],
      [
        "cu",
        -9.370154804298554
      ],
      [
        "céad",
        -9.371016024824762
      ],
      [
        "40",
        -9.371043665809577
      ],
      [
        "feist",
        -9.372809144872484
      ],
      [
        "muirear",
        -9.37363361941308
      ],
      [
        "Sláinte",
        -9.374204355172614
      ],
      [
        "Líne",
        -9.37435151073089
      ],
      [
        "lorg",
        -9.374369079382056
      ],
      [
        "aitheanta",
        -9.374533368751738
      ],
      [
        "níl",
        -9.374552934707493
      ],
      [
        "dhéanfaid",
        -9.375163738296871
      ],
      [
        "freastal",
        -9.37787770825108
      ],
      [
        "ghabháil",
        -9.379551661217171
      ],
      [
        "rádáil",
        -9.379616863549735
      ],
      [
        "gceannas",
        -9.380227411909791
      ],
      [
        "stoc",
        -9.380378789731505
      ],
      [
        "ngníomh",
        -9.382502148502425
      ],
      [
        "choinníoll",
        -9.384875275944683
      ],
      [
        "léamh",
        -9.38553669467399
      ],
      [
        "próiseas",
        -9.385542031026642
      ],
      [
        "phost",
        -9.38559824106854
      ],
      [
        "fáth",
        -9.385611408689513
      ],
      [
        "theacht",
        -9.386023835117037
      ],
      [
        "sealbhóir",
        -9.38642131918328
      ],
      [
        "TV",
        -9.387366477641534
      ],
      [
        "simplí",
        -9.387377973334946
      ],
      [
        "lua",
        -9.390339855129177
      ],
      [
        "déantóir",
        -9.390548330657065
      ],
      [
        "tuairisc",
        -9.3906070290588
      ],
      [
        "acmhainn",
        -9.391787675852115
      ],
      [
        "Rialtas",
        -9.392242504738544
      ],
      [
        "gnéas",
        -9.39532452142122
      ],
      [
        "cineálach",
        -9.395557937307442
      ],
      [
        "Físeá",
        -9.397424074864697
      ],
      [
        "bhearta",
        -9.3977760419939
      ],
      [
        "leabhar",
        -9.39826025940066
      ],
      [
        "hong",
        -9.398923175128765
      ],
      [
        "mion",
        -9.399189047182876
      ],
      [
        "institiúid",
        -9.400456888762097
      ],
      [
        "sheirbhís",
        -9.401125907597686
      ],
      [
        "fuair",
        -9.402831042404085
      ],
      [
        "sprioc",
        -9.403130586097742
      ],
      [
        "foráil",
        -9.40319288372239
      ],
      [
        "uirthi",
        -9.403380656246213
      ],
      [
        "caillteana",
        -9.40381048637232
      ],
      [
        "cúit",
        -9.404974401037496
      ],
      [
        "ceist",
        -9.405759150597458
      ],
      [
        "ill",
        -9.40697785436511
      ],
      [
        "tor",
        -9.40833314867723
      ],
      [
        "tairiscint",
        -9.409404093891894
      ],
      [
        "bheala",
        -9.409577760645131
      ],
      [
        "Dá",
        -9.409895126271042
      ],
      [
        "List",
        -9.410407545559845
      ],
      [
        "ghnó",
        -9.411091391030357
      ],
      [
        "Táirg",
        -9.41195350840427
      ],
      [
        "thógá",
        -9.412344010672296
      ],
      [
        "sraith",
        -9.414576319024821
      ],
      [
        "thart",
        -9.416387227024632
      ],
      [
        "tabharfa",
        -9.416654963981006
      ],
      [
        "thabharfa",
        -9.41694083853347
      ],
      [
        "uaidh",
        -9.417122896097638
      ],
      [
        "Cuirea",
        -9.417543178564546
      ],
      [
        "caiteacha",
        -9.417678014344268
      ],
      [
        "iamh",
        -9.418904600096335
      ],
      [
        "éirí",
        -9.420577823399803
      ],
      [
        "airgeadra",
        -9.422625666247214
      ],
      [
        "saintréith",
        -9.42326800725009
      ],
      [
        "thaga",
        -9.42337934558416
      ],
      [
        "chu",
        -9.42352670736778
      ],
      [
        "Már",
        -9.424292409521797
      ],
      [
        "tionscna",
        -9.427701049507867
      ],
      [
        "bliant",
        -9.428804942292803
      ],
      [
        "Leictreon",
        -9.42946187076053
      ],
      [
        "ceanglai",
        -9.430174829385246
      ],
      [
        "húsáid",
        -9.432589914512814
      ],
      [
        "Grúpa",
        -9.433870080891301
      ],
      [
        "plean",
        -9.436777351311662
      ],
      [
        "iarrthóir",
        -9.4388869464937
      ],
      [
        "iarracht",
        -9.4389742795721
      ],
      [
        "cláir",
        -9.440804317499754
      ],
      [
        "ghnóth",
        -9.441160065164745
      ],
      [
        "leanúnach",
        -9.442003104286218
      ],
      [
        "Í",
        -9.44214176620726
      ],
      [
        "dliteana",
        -9.442553698849775
      ],
      [
        "shan",
        -9.443620501237437
      ],
      [
        "Be",
        -9.445144657259533
      ],
      [
        "deis",
        -9.447234254557113
      ],
      [
        "éifeachtach",
        -9.447862551123507
      ],
      [
        "domhan",
        -9.447953502471314
      ],
      [
        "Contae",
        -9.44870807967032
      ],
      [
        "aimseartha",
        -9.450766204017294
      ],
      [
        "substaint",
        -9.450877080853292
      ],
      [
        "forál",
        -9.451344727555902
      ],
      [
        "thosa",
        -9.451556037683922
      ],
      [
        "fostaíochta",
        -9.451882533165183
      ],
      [
        "éisteacht",
        -9.45226193947596
      ],
      [
        "adhmai",
        -9.452373097280653
      ],
      [
        "gcuir",
        -9.45237879677336
      ],
      [
        "Alt",
        -9.45371436668372
      ],
      [
        "tair",
        -9.45376472888323
      ],
      [
        "volta",
        -9.455463511557927
      ],
      [
        "pointe",
        -9.456875289162863
      ],
      [
        "ment",
        -9.456928879500584
      ],
      [
        "fada",
        -9.458615375072757
      ],
      [
        "saoire",
        -9.459451713239766
      ],
      [
        "IN",
        -9.459857853071156
      ],
      [
        "tionsca",
        -9.462568252205028
      ],
      [
        "gclár",
        -9.464853838786219
      ],
      [
        "íre",
        -9.465480895289353
      ],
      [
        "thionscna",
        -9.47172941763025
      ],
      [
        "post",
        -9.473236606106692
      ],
      [
        "laigh",
        -9.475261586035316
      ],
      [
        "Cuirfi",
        -9.475411061860441
      ],
      [
        "ball",
        -9.47551325380786
      ],
      [
        "ainmniú",
        -9.477081599450667
      ],
      [
        "ITHE",
        -9.477330158072665
      ],
      [
        "sábháilteacht",
        -9.478466426885534
      ],
      [
        "osach",
        -9.480304255561567
      ],
      [
        "teagmhá",
        -9.481831570947852
      ],
      [
        "scannán",
        -9.482030159318747
      ],
      [
        "cheist",
        -9.485775381082497
      ],
      [
        "eachta",
        -9.48578749988102
      ],
      [
        "coiste",
        -9.485884388453833
      ],
      [
        "cheadú",
        -9.48719467336798
      ],
      [
        "Cúirte",
        -9.48763703231031
      ],
      [
        "seolad",
        -9.489976366640775
      ],
      [
        "ly",
        -9.490049350231786
      ],
      [
        "thuras",
        -9.490120073183869
      ],
      [
        "mbliana",
        -9.490373596399511
      ],
      [
        "éard",
        -9.49049335754401
      ],
      [
        "chinnti",
        -9.490732419826388
      ],
      [
        "scoileanna",
        -9.490971324317083
      ],
      [
        "ríomhaire",
        -9.49107766942881
      ],
      [
        "Clárú",
        -9.491159935166632
      ],
      [
        "Stiúrthóir",
        -9.491504473812046
      ],
      [
        "cailín",
        -9.49317710773654
      ],
      [
        "óirí",
        -9.493420336120638
      ],
      [
        "cheap",
        -9.493491868726776
      ],
      [
        "cheadúna",
        -9.494317070433699
      ],
      [
        "milliú",
        -9.49506775926378
      ],
      [
        "aicm",
        -9.497042860154492
      ],
      [
        "punt",
        -9.499633890280519
      ],
      [
        "tosa",
        -9.499727541365901
      ],
      [
        "cumhachtaí",
        -9.50019420184541
      ],
      [
        "Lawn",
        -9.50070186385044
      ],
      [
        "onaid",
        -9.50114344969382
      ],
      [
        "60",
        -9.503050202326143
      ],
      [
        "oirí",
        -9.50324496959376
      ],
      [
        "teanga",
        -9.506404247932302
      ],
      [
        "Cuid",
        -9.50720442860661
      ],
      [
        "tóg",
        -9.50748786076068
      ],
      [
        "laeth",
        -9.507738563258428
      ],
      [
        "hníomhaireacht",
        -9.507993409624731
      ],
      [
        "ur",
        -9.5081428904023
      ],
      [
        "MS",
        -9.508262176934078
      ],
      [
        "dearg",
        -9.509746472770745
      ],
      [
        "prionsaba",
        -9.511221817872643
      ],
      [
        "Soils",
        -9.511444205248102
      ],
      [
        "balla",
        -9.513516948498157
      ],
      [
        "scéal",
        -9.514107056470726
      ],
      [
        "scair",
        -9.517279676247075
      ],
      [
        "ciall",
        -9.51739739787055
      ],
      [
        "hearra",
        -9.517679806412046
      ],
      [
        "teorann",
        -9.518116786622986
      ],
      [
        "oilse",
        -9.519429730506175
      ],
      [
        "chomhaont",
        -9.52037594633573
      ],
      [
        "EIDEA",
        -9.521206826807248
      ],
      [
        "Sonraí",
        -9.521452154417116
      ],
      [
        "Rogh",
        -9.523779831310481
      ],
      [
        "AR",
        -9.523987084747226
      ],
      [
        "féach",
        -9.525166005729755
      ],
      [
        "gal",
        -9.525699933781672
      ],
      [
        "roghna",
        -9.526303461398198
      ],
      [
        "35",
        -9.526998666548625
      ],
      [
        "Déan",
        -9.530266839915836
      ],
      [
        "réamh",
        -9.53046676814168
      ],
      [
        "tré",
        -9.53111410751363
      ],
      [
        "Clár",
        -9.531296648966823
      ],
      [
        "Choiste",
        -9.531606586226758
      ],
      [
        "aithint",
        -9.532812392473815
      ],
      [
        "scéime",
        -9.532832180267192
      ],
      [
        "iascaireacht",
        -9.538506082879094
      ],
      [
        "min",
        -9.541595602684431
      ],
      [
        "halt",
        -9.543315867966982
      ],
      [
        "bhei",
        -9.543637263870814
      ],
      [
        "cosc",
        -9.544636314408333
      ],
      [
        "Stiúrthóireacht",
        -9.545152267422624
      ],
      [
        "árachais",
        -9.545379480569387
      ],
      [
        "chríoch",
        -9.547837073459373
      ],
      [
        "bosca",
        -9.548628550452408
      ],
      [
        "slándá",
        -9.548645734249625
      ],
      [
        "achtachá",
        -9.550050973386028
      ],
      [
        "tíre",
        -9.550711702472602
      ],
      [
        "Caibidil",
        -9.552399579137038
      ],
      [
        "racha",
        -9.55269977421822
      ],
      [
        "oideachas",
        -9.552908558011362
      ],
      [
        "fhoirm",
        -9.553324250778791
      ],
      [
        "chion",
        -9.559369201172135
      ],
      [
        "ex",
        -9.559424526606534
      ],
      [
        "scriosa",
        -9.560052243302263
      ],
      [
        "scoile",
        -9.560347681334472
      ],
      [
        "socrú",
        -9.563700108723824
      ],
      [
        "Bhaile",
        -9.566061743892476
      ],
      [
        "teicniú",
        -9.566080709834036
      ],
      [
        "cheangla",
        -9.56610544810771
      ],
      [
        "ostaithe",
        -9.567128755493776
      ],
      [
        "daoin",
        -9.569497420411729
      ],
      [
        "Déanta",
        -9.569558826864903
      ],
      [
        "Cur",
        -9.57242606378012
      ],
      [
        "Z",
        -9.572505836147482
      ],
      [
        "ry",
        -9.573413750118215
      ],
      [
        "tharraingt",
        -9.57470880220798
      ],
      [
        "ndáir",
        -9.575048497635262
      ],
      [
        "IV",
        -9.576466685769176
      ],
      [
        "fheidhm",
        -9.577089326167803
      ],
      [
        "Comh",
        -9.57770071490707
      ],
      [
        "treoir",
        -9.579489742658925
      ],
      [
        "chó",
        -9.579965031440455
      ],
      [
        "thagairt",
        -9.58045288118927
      ],
      [
        "bhreise",
        -9.580525132260139
      ],
      [
        "fanacht",
        -9.580669341945654
      ],
      [
        "leictreonach",
        -9.580756793419257
      ],
      [
        "inmheánach",
        -9.581230328302766
      ],
      [
        "frith",
        -9.582086013861069
      ],
      [
        "beart",
        -9.58209316017518
      ],
      [
        "omhairc",
        -9.582586387548258
      ],
      [
        "infheistíochta",
        -9.582696250934235
      ],
      [
        "33",
        -9.583118283993196
      ],
      [
        "oscailte",
        -9.584170805050162
      ],
      [
        "scor",
        -9.586382366903814
      ],
      [
        "álainn",
        -9.588544192158908
      ],
      [
        "úla",
        -9.589133282949483
      ],
      [
        "cruinn",
        -9.590170104603093
      ],
      [
        "45",
        -9.590534026280007
      ],
      [
        "oibríochta",
        -9.592452050516357
      ],
      [
        "land",
        -9.59340477417813
      ],
      [
        "Ollscoil",
        -9.59346411168461
      ],
      [
        "dleathach",
        -9.594836253284674
      ],
      [
        "tóir",
        -9.59567725096717
      ],
      [
        "neart",
        -9.596268930532162
      ],
      [
        "long",
        -9.596747935650868
      ],
      [
        "deonta",
        -9.597432029831094
      ],
      [
        "méadú",
        -9.599079071060896
      ],
      [
        "fuarth",
        -9.599312620123634
      ],
      [
        "eolai",
        -9.599608872810613
      ],
      [
        "shealbh",
        -9.599998019943445
      ],
      [
        "lann",
        -9.600516520919726
      ],
      [
        "cóir",
        -9.600521169154279
      ],
      [
        "32",
        -9.600733534329663
      ],
      [
        "ladh",
        -9.6014072958815
      ],
      [
        "dong",
        -9.601672455457809
      ],
      [
        "thugta",
        -9.601804961297782
      ],
      [
        "36",
        -9.602082657423868
      ],
      [
        "Féadf",
        -9.60238363231526
      ],
      [
        "ainne",
        -9.602514375082947
      ],
      [
        "dom",
        -9.603458546316208
      ],
      [
        "Síochá",
        -9.60781794955706
      ],
      [
        "thos",
        -9.60876354334574
      ],
      [
        "gcur",
        -9.609356679549354
      ],
      [
        "oirceallá",
        -9.609403144993776
      ],
      [
        "dearbhú",
        -9.609410152034053
      ],
      [
        "meaisín",
        -9.609417656752628
      ],
      [
        "plandáil",
        -9.60944463009486
      ],
      [
        "bogearra",
        -9.611067533114166
      ],
      [
        "cleachta",
        -9.611681617449644
      ],
      [
        "léireofa",
        -9.611955826497432
      ],
      [
        "Óg",
        -9.612348308376934
      ],
      [
        "chéim",
        -9.612636802936134
      ],
      [
        "liúntais",
        -9.612816415749315
      ],
      [
        "eanta",
        -9.613841039965997
      ],
      [
        "uirlis",
        -9.616034058826369
      ],
      [
        "thréimhse",
        -9.616625751519802
      ],
      [
        "parlaiminteach",
        -9.616956364144748
      ],
      [
        "Guan",
        -9.617061251353938
      ],
      [
        "tacú",
        -9.617380452514428
      ],
      [
        "shonró",
        -9.618284706961997
      ],
      [
        "éisteachta",
        -9.621093533813465
      ],
      [
        "scil",
        -9.622180704358101
      ],
      [
        "cúraim",
        -9.624278937442636
      ],
      [
        "caite",
        -9.624604440015169
      ],
      [
        "chuntasaíocht",
        -9.624691804889135
      ],
      [
        "táille",
        -9.624798874088636
      ],
      [
        "chothabháil",
        -9.625584777509662
      ],
      [
        "chosc",
        -9.626000141081839
      ],
      [
        "údar",
        -9.62650287033478
      ],
      [
        "AMH",
        -9.62652216756759
      ],
      [
        "othair",
        -9.628228846918422
      ],
      [
        "Meitheam",
        -9.628704726237155
      ],
      [
        "lár",
        -9.629063026400864
      ],
      [
        "tory",
        -9.629422557174234
      ],
      [
        "bhaile",
        -9.630874332431866
      ],
      [
        "thíos",
        -9.630976010328984
      ],
      [
        "Teach",
        -9.631315131724435
      ],
      [
        "mhodh",
        -9.63178800356897
      ],
      [
        "*",
        -9.631791768874319
      ],
      [
        "inniúla",
        -9.631848616764966
      ],
      [
        "teannta",
        -9.631860454870584
      ],
      [
        "dochtúir",
        -9.63195745532925
      ],
      [
        "sampla",
        -9.631998661673858
      ],
      [
        "oscailt",
        -9.6332154975973
      ],
      [
        "tráchtál",
        -9.63699925685512
      ],
      [
        "dlite",
        -9.637431462394177
      ],
      [
        "X",
        -9.637490685420273
      ],
      [
        "Áth",
        -9.637581616823098
      ],
      [
        "gnótha",
        -9.638201571632553
      ],
      [
        "creidmheasa",
        -9.638299191363409
      ],
      [
        "thaispeáin",
        -9.639367528696111
      ],
      [
        "chaiteacha",
        -9.639447449168273
      ],
      [
        "molta",
        -9.639659722138383
      ],
      [
        "ord",
        -9.642277991811916
      ],
      [
        "Tiarna",
        -9.642415923728624
      ],
      [
        "gCuid",
        -9.643191377219544
      ],
      [
        "cíos",
        -9.644311254424437
      ],
      [
        "stát",
        -9.646666928230172
      ],
      [
        "cárta",
        -9.647022139312647
      ],
      [
        "éir",
        -9.647402998393241
      ],
      [
        "thuillea",
        -9.649664635420574
      ],
      [
        "méad",
        -9.650337143818016
      ],
      [
        "Foins",
        -9.650344847353358
      ],
      [
        "éag",
        -9.650518499128843
      ],
      [
        "astáil",
        -9.651604689197967
      ],
      [
        "baile",
        -9.652052162297547
      ],
      [
        "ph",
        -9.65219816532661
      ],
      [
        "ghlac",
        -9.652665323297
      ],
      [
        "ghníomh",
        -9.653145190847432
      ],
      [
        "co",
        -9.653413214683699
      ],
      [
        "ainmh",
        -9.653608034354459
      ],
      [
        "nách",
        -9.65438739073624
      ],
      [
        "Chonra",
        -9.654800813268004
      ],
      [
        "onnmhaireoir",
        -9.654866302090007
      ],
      [
        "Bealtaine",
        -9.655105159760126
      ],
      [
        "Mura",
        -9.655121932685603
      ],
      [
        "ire",
        -9.65514323443957
      ],
      [
        "réasúnta",
        -9.655348942475328
      ],
      [
        "ordaithe",
        -9.65536424541802
      ],
      [
        "cuma",
        -9.657001389458584
      ],
      [
        "cuirfe",
        -9.658902933504555
      ],
      [
        "chontae",
        -9.662448426247707
      ],
      [
        "earnáil",
        -9.662479169267863
      ],
      [
        "fheabhsú",
        -9.662868487104847
      ],
      [
        "réidh",
        -9.663445816041897
      ],
      [
        "corpraithe",
        -9.663712216821718
      ],
      [
        "tarmlig",
        -9.665402013090283
      ],
      [
        "faire",
        -9.666007464644235
      ],
      [
        "iontu",
        -9.667039900627046
      ],
      [
        "chóras",
        -9.668399572715959
      ],
      [
        "clárú",
        -9.668524887912056
      ],
      [
        "breathn",
        -9.66912634393141
      ],
      [
        "déanf",
        -9.66951236839958
      ],
      [
        "gheobhaid",
        -9.669585121853354
      ],
      [
        "J",
        -9.669706192311711
      ],
      [
        "sean",
        -9.669829659660909
      ],
      [
        "Oideacha",
        -9.670240335012563
      ],
      [
        "malairt",
        -9.670385995245933
      ],
      [
        "reachtaíocht",
        -9.670402257464577
      ],
      [
        "Tabharfa",
        -9.670492614064376
      ],
      [
        "com",
        -9.67049853385083
      ],
      [
        "talmhaíocht",
        -9.670558440528868
      ],
      [
        "Córa",
        -9.671815645089588
      ],
      [
        "For",
        -9.672537521311117
      ],
      [
        "treorach",
        -9.674104227882278
      ],
      [
        "contae",
        -9.67430093511777
      ],
      [
        "aire",
        -9.6743552752198
      ],
      [
        "gcomhair",
        -9.6753159277694
      ],
      [
        "oir",
        -9.675369188369325
      ],
      [
        "Y",
        -9.675860289109899
      ],
      [
        "sláintíocht",
        -9.678134025596048
      ],
      [
        "Londa",
        -9.67813966251219
      ],
      [
        "Iarnró",
        -9.678146067611674
      ],
      [
        "Moncler",
        -9.67823625327717
      ],
      [
        "stíl",
        -9.679238836663968
      ],
      [
        "tos",
        -9.68011588732962
      ],
      [
        "UM",
        -9.681001976419758
      ],
      [
        "2007",
        -9.683192931576166
      ],
      [
        "Uachtarán",
        -9.683193442904338
      ],
      [
        "bhailiú",
        -9.683397765665887
      ],
      [
        "gCoimisinéir",
        -9.683420157379915
      ],
      [
        "gheimhr",
        -9.686068809512568
      ],
      [
        "Feabhra",
        -9.686469125011532
      ],
      [
        "Scoil",
        -9.687056012105346
      ],
      [
        "ugtha",
        -9.687856167078532
      ],
      [
        "stair",
        -9.68962522738477
      ],
      [
        "gearr",
        -9.689849772900331
      ],
      [
        "hoireann",
        -9.68986233440759
      ],
      [
        "los",
        -9.690628507367704
      ],
      [
        "IS",
        -9.690743460522778
      ],
      [
        "fhor",
        -9.691039462042522
      ],
      [
        "staid",
        -9.691087010585182
      ],
      [
        "straitéis",
        -9.6930215687308
      ],
      [
        "34",
        -9.693128159939306
      ],
      [
        "tsuim",
        -9.693981670938097
      ],
      [
        "fiche",
        -9.69434350454975
      ],
      [
        "Chuir",
        -9.694833543828034
      ],
      [
        "crua",
        -9.695167058642987
      ],
      [
        "seamh",
        -9.698268172968138
      ],
      [
        "eagraíocht",
        -9.701464755807333
      ],
      [
        "bhíthin",
        -9.70216067777925
      ],
      [
        "deir",
        -9.705396744150448
      ],
      [
        "ireann",
        -9.705748494736222
      ],
      [
        "leathn",
        -9.70576722503598
      ],
      [
        "ibh",
        -9.705966191065109
      ],
      [
        "fheiceá",
        -9.706228908577362
      ],
      [
        "déag",
        -9.708094899777697
      ],
      [
        "SOLAS",
        -9.710267256686036
      ],
      [
        "phróiseáil",
        -9.710274388629681
      ],
      [
        "fach",
        -9.711482323628953
      ],
      [
        "iontaobha",
        -9.711511532533187
      ],
      [
        "glas",
        -9.711766541192564
      ],
      [
        "táill",
        -9.71208726683787
      ],
      [
        "Ríocht",
        -9.71242237536714
      ],
      [
        "leighis",
        -9.712834105226918
      ],
      [
        "ghearra",
        -9.713752453679575
      ],
      [
        "Dia",
        -9.715251038783176
      ],
      [
        "deich",
        -9.715676307812629
      ],
      [
        "ghrúpa",
        -9.717888001172692
      ],
      [
        "réit",
        -9.722970132184273
      ],
      [
        "comhlíona",
        -9.723042474055987
      ],
      [
        "iv",
        -9.723419382325652
      ],
      [
        "con",
        -9.723743606000365
      ],
      [
        "mhéad",
        -9.724338682118974
      ],
      [
        "iona",
        -9.724522830193337
      ],
      [
        "39",
        -9.725104549927636
      ],
      [
        "brú",
        -9.725694023908838
      ],
      [
        "fost",
        -9.726360012942177
      ],
      [
        "00",
        -9.726704263438846
      ],
      [
        "sheachada",
        -9.726759867173342
      ],
      [
        "socruithe",
        -9.72685528161098
      ],
      [
        "Eora",
        -9.727178419339452
      ],
      [
        "dír",
        -9.728138436049697
      ],
      [
        "brath",
        -9.728531655208158
      ],
      [
        "bhliantú",
        -9.728801400525697
      ],
      [
        "aice",
        -9.730243498748761
      ],
      [
        "taifead",
        -9.730304531179947
      ],
      [
        "maoine",
        -9.730382024829265
      ],
      [
        "Ph",
        -9.733772829904723
      ],
      [
        "siopa",
        -9.735059346157826
      ],
      [
        "mhaithe",
        -9.738436441576049
      ],
      [
        "Airgid",
        -9.738786647672862
      ],
      [
        "500",
        -9.740120594858631
      ],
      [
        "oist",
        -9.741340087370656
      ],
      [
        "cheanta",
        -9.74202730439741
      ],
      [
        "Re",
        -9.74288337689109
      ],
      [
        "mbainfid",
        -9.742959803791486
      ],
      [
        "sealadach",
        -9.743579135003856
      ],
      [
        "Ina",
        -9.743743788010525
      ],
      [
        "coitianta",
        -9.74392625822275
      ],
      [
        "cuairt",
        -9.744024040524298
      ],
      [
        "dhearbh",
        -9.744043866872204
      ],
      [
        "inniúi",
        -9.744189382256682
      ],
      [
        "gcuirf",
        -9.746627003955089
      ],
      [
        "cuntas",
        -9.747349676616057
      ],
      [
        "Mh",
        -9.747357084255844
      ],
      [
        "ies",
        -9.74773054461448
      ],
      [
        "onas",
        -9.750178676479148
      ],
      [
        "oiread",
        -9.750310669252187
      ],
      [
        "Gnótha",
        -9.750359229890552
      ],
      [
        "oifigiú",
        -9.751674454530242
      ],
      [
        "pictiúir",
        -9.752010983292866
      ],
      [
        "mórdhíol",
        -9.752470347938967
      ],
      [
        "luaidhte",
        -9.753624060140481
      ],
      [
        "olas",
        -9.754666323238894
      ],
      [
        "árú",
        -9.754686208360035
      ],
      [
        "tv",
        -9.755102396803903
      ],
      [
        "cionta",
        -9.755143763080731
      ],
      [
        "gairdín",
        -9.755144731817179
      ],
      [
        "Forála",
        -9.7556199891158
      ],
      [
        "dréacht",
        -9.757006262072164
      ],
      [
        "bhreith",
        -9.759581384761448
      ],
      [
        "déan",
        -9.759581443373284
      ],
      [
        "Bainistíocht",
        -9.760567405478044
      ],
      [
        "phríomh",
        -9.761510545855096
      ],
      [
        "thiocfa",
        -9.76375782310365
      ],
      [
        "ithi",
        -9.764969753868627
      ],
      [
        "mná",
        -9.765662691101102
      ],
      [
        "brabú",
        -9.766046636522209
      ],
      [
        "churtha",
        -9.766060444729494
      ],
      [
        "ionadaí",
        -9.766583836429097
      ],
      [
        "chóra",
        -9.767011471931312
      ],
      [
        "freagra",
        -9.767013568015889
      ],
      [
        "Dlí",
        -9.768384986082193
      ],
      [
        "crité",
        -9.769108717299368
      ],
      [
        "Tuirc",
        -9.769113405128074
      ],
      [
        "asbhaint",
        -9.770239530835887
      ],
      [
        "beo",
        -9.770818204658028
      ],
      [
        "ochar",
        -9.770987101851057
      ],
      [
        "léin",
        -9.772019615594797
      ],
      [
        "meán",
        -9.77220642582948
      ],
      [
        "ers",
        -9.77236459877454
      ],
      [
        "díospóireacht",
        -9.772618731529013
      ],
      [
        "Fómh",
        -9.774493752454337
      ],
      [
        "tuismitheoir",
        -9.774867573505563
      ],
      [
        "cruinni",
        -9.774964871427514
      ],
      [
        "cumhachta",
        -9.777742323862741
      ],
      [
        "fadhb",
        -9.777921006338381
      ],
      [
        "Naisc",
        -9.778170818791803
      ],
      [
        "soláthair",
        -9.778240263057244
      ],
      [
        "íomhá",
        -9.778390962358056
      ],
      [
        "líonra",
        -9.778744170631214
      ],
      [
        "chomhlacht",
        -9.783689856570426
      ],
      [
        "chleachta",
        -9.783930978814638
      ],
      [
        "imscrúdú",
        -9.78432275436073
      ],
      [
        "dtiocfa",
        -9.785040657113964
      ],
      [
        "dhiúlt",
        -9.785601807484259
      ],
      [
        "Trí",
        -9.787447250723044
      ],
      [
        "leanála",
        -9.788114544713128
      ],
      [
        "70",
        -9.79173889840127
      ],
      [
        "cáilithe",
        -9.79202828244971
      ],
      [
        "Éisteachta",
        -9.792760019406458
      ],
      [
        "múinteoir",
        -9.794631748215675
      ],
      [
        "ity",
        -9.794710727874051
      ],
      [
        "cúpl",
        -9.795421645044215
      ],
      [
        "achomair",
        -9.795462127668426
      ],
      [
        "dheimhniú",
        -9.795605715900335
      ],
      [
        "chuga",
        -9.795829598755745
      ],
      [
        "sóisial",
        -9.79588966958583
      ],
      [
        "speic",
        -9.796048610811006
      ],
      [
        "gcomh",
        -9.796216682363088
      ],
      [
        "gcuirfea",
        -9.796311063671983
      ],
      [
        "fostaí",
        -9.797249788976819
      ],
      [
        "Dara",
        -9.79904380800346
      ],
      [
        "thoil",
        -9.800143322665601
      ],
      [
        "agam",
        -9.801000905896116
      ],
      [
        "eacnamaíoch",
        -9.80255262532925
      ],
      [
        "óra",
        -9.803492104399194
      ],
      [
        "Chuideachta",
        -9.804597694558487
      ],
      [
        "clip",
        -9.804632775153284
      ],
      [
        "tháirgeadh",
        -9.804996730179262
      ],
      [
        "bhreis",
        -9.80552488000535
      ],
      [
        "ghinearálta",
        -9.805525890696815
      ],
      [
        "Bain",
        -9.806250336132326
      ],
      [
        "Chomhphoba",
        -9.810534579325456
      ],
      [
        "Banc",
        -9.811346538316021
      ],
      [
        "phobal",
        -9.812371179607979
      ],
      [
        "Eola",
        -9.812760370084256
      ],
      [
        "stáisiú",
        -9.813503979236469
      ],
      [
        "tuig",
        -9.813718546356842
      ],
      [
        "únaer",
        -9.814424767248386
      ],
      [
        "gceart",
        -9.817568792366805
      ],
      [
        "aptha",
        -9.818132626062463
      ],
      [
        "luas",
        -9.818359541120094
      ],
      [
        "oíche",
        -9.818478513513949
      ],
      [
        "Ciste",
        -9.819343228671649
      ],
      [
        "Fear",
        -9.821340359257118
      ],
      [
        "Poiblí",
        -9.821898886443996
      ],
      [
        "Talmhan",
        -9.822449022806214
      ],
      [
        "dhliteana",
        -9.82292313614637
      ],
      [
        "onn",
        -9.823519832636507
      ],
      [
        "faireachá",
        -9.823955381811881
      ],
      [
        "inneall",
        -9.82460966272075
      ],
      [
        "cheannas",
        -9.824916827609785
      ],
      [
        "dualgais",
        -9.825021425735294
      ],
      [
        "fir",
        -9.825102958373572
      ],
      [
        "Euro",
        -9.825131318926589
      ],
      [
        "chomhlachta",
        -9.825592370979813
      ],
      [
        "dócha",
        -9.825836285939733
      ],
      [
        "foirn",
        -9.826425027593125
      ],
      [
        "Saor",
        -9.826666015750188
      ],
      [
        "plaisteach",
        -9.831626714127284
      ],
      [
        "Gharda",
        -9.83166011345897
      ],
      [
        "dhó",
        -9.831783160102795
      ],
      [
        "himeachta",
        -9.832532163439993
      ],
      [
        "trína",
        -9.833407656654582
      ],
      [
        "thuas",
        -9.83424470562515
      ],
      [
        "heannta",
        -9.8369258997777
      ],
      [
        "gléas",
        -9.838598196901184
      ],
      [
        "oiliúna",
        -9.8390023416108
      ],
      [
        "chomhairle",
        -9.840509734290276
      ],
      [
        "monarcha",
        -9.840560504633558
      ],
      [
        "conartha",
        -9.840620722981217
      ],
      [
        "Ghaeilge",
        -9.840882697087986
      ],
      [
        "teoranta",
        -9.840887154751055
      ],
      [
        "cuarda",
        -9.841226411106156
      ],
      [
        "bail",
        -9.843095971110555
      ],
      [
        "mheasúnachta",
        -9.843536063316172
      ],
      [
        "tairbhe",
        -9.844757623276166
      ],
      [
        "shláint",
        -9.844930534619259
      ],
      [
        "uaire",
        -9.84533545619258
      ],
      [
        "ite",
        -9.845950572815742
      ],
      [
        "phoba",
        -9.846071951097855
      ],
      [
        "ru",
        -9.846464991330588
      ],
      [
        "cumas",
        -9.847059399375137
      ],
      [
        "conra",
        -9.84715397807252
      ],
      [
        "gnócha",
        -9.847215908242829
      ],
      [
        "leithl",
        -9.84730095978449
      ],
      [
        "athru",
        -9.848981924935316
      ],
      [
        "éagsúlacht",
        -9.850044822729616
      ],
      [
        "tithíocht",
        -9.850234273611406
      ],
      [
        "chóireáil",
        -9.850311533040717
      ],
      [
        "roghanna",
        -9.850546667649201
      ],
      [
        "buan",
        -9.850645506571322
      ],
      [
        "fostóir",
        -9.85078960318387
      ],
      [
        "Sraith",
        -9.852132374666475
      ],
      [
        "bog",
        -9.853222733534732
      ],
      [
        "irt",
        -9.853404125382152
      ],
      [
        "Scéim",
        -9.855101132858142
      ],
      [
        "oibrithe",
        -9.855979959229087
      ],
      [
        "shár",
        -9.856487511407746
      ],
      [
        "athaoirleach",
        -9.856912154898476
      ],
      [
        "smaoin",
        -9.857068497653126
      ],
      [
        "ceangla",
        -9.857913597058111
      ],
      [
        "soláthraí",
        -9.857923431627988
      ],
      [
        "seachtrach",
        -9.858538142258663
      ],
      [
        "bás",
        -9.859006138639032
      ],
      [
        "cuirfea",
        -9.859501135305337
      ],
      [
        "Coinbhinsiú",
        -9.859664997853315
      ],
      [
        "shaol",
        -9.859925098527725
      ],
      [
        "leictreacha",
        -9.860007542450257
      ],
      [
        "oiliúi",
        -9.860122645432352
      ],
      [
        "Dáta",
        -9.860905035851442
      ],
      [
        "eoil",
        -9.863208414890035
      ],
      [
        "ianaise",
        -9.863829344672673
      ],
      [
        "aonad",
        -9.865460967677684
      ],
      [
        "chánach",
        -9.865982242026696
      ],
      [
        "eol",
        -9.868044134959487
      ],
      [
        "shuíomh",
        -9.86918753660957
      ],
      [
        "leithéid",
        -9.869438164912179
      ],
      [
        "gloin",
        -9.869896481612185
      ],
      [
        "Cruach",
        -9.870150732343248
      ],
      [
        "grá",
        -9.870344843724471
      ],
      [
        "tuairisceá",
        -9.87050156382892
      ],
      [
        "90",
        -9.872917696451625
      ],
      [
        "oibreoir",
        -9.874063453167633
      ],
      [
        "EORPA",
        -9.877158426874473
      ],
      [
        "spreaga",
        -9.87878808405129
      ],
      [
        "#",
        -9.878801285330976
      ],
      [
        "déanmha",
        -9.879090179339933
      ],
      [
        "chinnf",
        -9.8791845186866
      ],
      [
        "soláthra",
        -9.880566208071851
      ],
      [
        "ling",
        -9.880630857478002
      ],
      [
        "scála",
        -9.880805282930078
      ],
      [
        "achta",
        -9.881369616227996
      ],
      [
        "fhoilsi",
        -9.882225572078706
      ],
      [
        "EU",
        -9.882877835501976
      ],
      [
        "fhág",
        -9.88320750915868
      ],
      [
        "bPríomh",
        -9.883278769356465
      ],
      [
        "chaithea",
        -9.884208980893948
      ],
      [
        "spás",
        -9.88493050644948
      ],
      [
        "ngairm",
        -9.88553390199053
      ],
      [
        "suntasach",
        -9.888599447649838
      ],
      [
        "Hel",
        -9.890265246629646
      ],
      [
        "diúlt",
        -9.890384838299882
      ],
      [
        "Ceann",
        -9.890689914534143
      ],
      [
        "46",
        -9.891062624738783
      ],
      [
        "Hot",
        -9.891829933942041
      ],
      [
        "réigiúnach",
        -9.89363883866471
      ],
      [
        "Noll",
        -9.89384784528092
      ],
      [
        "ceadúnais",
        -9.89447976648348
      ],
      [
        "modhann",
        -9.894666886002575
      ],
      [
        "38",
        -9.894777428243366
      ],
      [
        "urrús",
        -9.895485983249003
      ],
      [
        "VI",
        -9.895946025285454
      ],
      [
        "chomhair",
        -9.89670000668642
      ],
      [
        "37",
        -9.897075125274055
      ],
      [
        "sábháilte",
        -9.897949357860742
      ],
      [
        "•",
        -9.898313944763682
      ],
      [
        "dromchla",
        -9.898313990915657
      ],
      [
        "Oideachas",
        -9.898380913994338
      ],
      [
        "leordhóthanach",
        -9.898442605636786
      ],
      [
        "cinntí",
        -9.898962797337472
      ],
      [
        "chláir",
        -9.900230555263244
      ],
      [
        "réigiún",
        -9.901323852887217
      ],
      [
        "aerártha",
        -9.901433611799963
      ],
      [
        "AS",
        -9.901598441242506
      ],
      [
        "cheada",
        -9.902581301831972
      ],
      [
        "Tuga",
        -9.902885608561984
      ],
      [
        "raon",
        -9.903088066441873
      ],
      [
        "baol",
        -9.903391730281896
      ],
      [
        "saineola",
        -9.903514420168612
      ],
      [
        "Coda",
        -9.904426136824434
      ],
      [
        "cúirte",
        -9.904880390567026
      ],
      [
        "ceacht",
        -9.90511678441849
      ],
      [
        "suí",
        -9.90618493303905
      ],
      [
        "oidh",
        -9.907382921143803
      ],
      [
        "soláthróir",
        -9.908214934884757
      ],
      [
        "diúité",
        -9.908214994281096
      ],
      [
        "Commit",
        -9.908265421748597
      ],
      [
        "Load",
        -9.90837533094837
      ],
      [
        "caighdeáin",
        -9.908995736385734
      ],
      [
        "thalamh",
        -9.909664673732363
      ],
      [
        "gCúirt",
        -9.909899806857318
      ],
      [
        "déileáil",
        -9.909946613463964
      ],
      [
        "É",
        -9.910077878804929
      ],
      [
        "fág",
        -9.910380516260755
      ],
      [
        "tástáil",
        -9.91057844175992
      ],
      [
        "ionstraimí",
        -9.91154179867145
      ],
      [
        "chiste",
        -9.911806244875216
      ],
      [
        "seacht",
        -9.912045107255963
      ],
      [
        "ionadaithe",
        -9.912064533891535
      ],
      [
        "traidisiún",
        -9.913017806549249
      ],
      [
        "Príomh",
        -9.913366904705647
      ],
      [
        "mac",
        -9.913842939142354
      ],
      [
        "reachtú",
        -9.915073372931303
      ],
      [
        "Ainm",
        -9.9151553849643
      ],
      [
        "grianghra",
        -9.915243386126171
      ],
      [
        "inse",
        -9.915444662638176
      ],
      [
        "chuirfid",
        -9.915897599213263
      ],
      [
        "leibhé",
        -9.917663071120046
      ],
      [
        "Gh",
        -9.91779005759817
      ],
      [
        "dheirea",
        -9.91800426248878
      ],
      [
        "Cl",
        -9.918082755877549
      ],
      [
        "tiomána",
        -9.918214996294477
      ],
      [
        "hiúscairt",
        -9.918219893592482
      ],
      [
        "Mo",
        -9.918314541093928
      ],
      [
        "hreoir",
        -9.918332833165348
      ],
      [
        "Uisce",
        -9.919881792605793
      ],
      [
        "ardchaighdeá",
        -9.920588685824395
      ],
      [
        "Fógra",
        -9.92303855973071
      ],
      [
        "48",
        -9.923622977035551
      ],
      [
        "cumarsáid",
        -9.924308342703227
      ],
      [
        "sainche",
        -9.927129490105205
      ],
      [
        "míle",
        -9.927230719252428
      ],
      [
        "airdín",
        -9.92744658374981
      ],
      [
        "sheirbheáil",
        -9.928327885996291
      ],
      [
        "load",
        -9.928831135899015
      ],
      [
        "amu",
        -9.928831663310369
      ],
      [
        "tseirbhís",
        -9.928841963583094
      ],
      [
        "cuntasaíocht",
        -9.929073200827421
      ],
      [
        "tuiscint",
        -9.929135289610194
      ],
      [
        "tréimhs",
        -9.931359302071613
      ],
      [
        "shonr",
        -9.931407232110775
      ],
      [
        "tee",
        -9.932672844379717
      ],
      [
        "caiteachais",
        -9.934366462808553
      ],
      [
        "PH",
        -9.93468714353829
      ],
      [
        "gluaiseacht",
        -9.935117693974586
      ],
      [
        "Porno",
        -9.935634182413287
      ],
      [
        "híoc",
        -9.93655874727483
      ],
      [
        "sholáthra",
        -9.938542638696127
      ],
      [
        "póirt",
        -9.938667846559532
      ],
      [
        "bhord",
        -9.939253366539045
      ],
      [
        "Úsáid",
        -9.940596410309723
      ],
      [
        "j",
        -9.942068787833673
      ],
      [
        "fhomhír",
        -9.942193315678827
      ],
      [
        "Gaeltachta",
        -9.942427358942954
      ],
      [
        "leasuithe",
        -9.944064055030374
      ],
      [
        "Gan",
        -9.94651268961997
      ],
      [
        "struchtúr",
        -9.947308321041767
      ],
      [
        "mbun",
        -9.948496245269816
      ],
      [
        "BliainDaon",
        -9.948502571945557
      ],
      [
        "pinsin",
        -9.948647009534884
      ],
      [
        "Screen",
        -9.94882952034322
      ],
      [
        "sreang",
        -9.948868184842404
      ],
      [
        "taispeáint",
        -9.94899922858378
      ],
      [
        "suite",
        -9.949134127661583
      ],
      [
        "bhainfid",
        -9.949879824918614
      ],
      [
        "taifid",
        -9.95018625017006
      ],
      [
        "teilifíse",
        -9.950973462725447
      ],
      [
        "uathoibríoch",
        -9.951078713454725
      ],
      [
        "druga",
        -9.95186833691592
      ],
      [
        "glaca",
        -9.952227130215174
      ],
      [
        "lámha",
        -9.95401697870199
      ],
      [
        "bhainisti",
        -9.954637548892205
      ],
      [
        "tora",
        -9.955233700118805
      ],
      [
        "héann",
        -9.955658711947187
      ],
      [
        "mhargadh",
        -9.957280948507359
      ],
      [
        "éal",
        -9.958338237366068
      ],
      [
        "Tionsca",
        -9.958379996124398
      ],
      [
        "théarma",
        -9.959246551908002
      ],
      [
        "difriú",
        -9.959269293633533
      ],
      [
        "teocht",
        -9.95931115784176
      ],
      [
        "leigheas",
        -9.959413807342903
      ],
      [
        "téacs",
        -9.959546501244736
      ],
      [
        "leictreach",
        -9.959659312114773
      ],
      [
        "díolúin",
        -9.960744588143731
      ],
      [
        "bunúsach",
        -9.960943748922682
      ],
      [
        "comhai",
        -9.962024863391747
      ],
      [
        "dlíns",
        -9.963911460327875
      ],
      [
        "chuirea",
        -9.964122465158702
      ],
      [
        "réim",
        -9.96463144843359
      ],
      [
        "bhain",
        -9.964687315234935
      ],
      [
        "IL",
        -9.966256220082332
      ],
      [
        "bpost",
        -9.966261297071103
      ],
      [
        "ardú",
        -9.968283685524433
      ],
      [
        "stóráil",
        -9.968522990325344
      ],
      [
        "feithicl",
        -9.969058740964869
      ],
      [
        "theicniú",
        -9.969775736468812
      ],
      [
        "Split",
        -9.969778182681152
      ],
      [
        "páipéar",
        -9.970088123594351
      ],
      [
        "saoráid",
        -9.97012771107233
      ],
      [
        "comhpháirt",
        -9.970582208124569
      ],
      [
        "oireann",
        -9.971637262846581
      ],
      [
        "Institiúid",
        -9.972091779596923
      ],
      [
        "gceann",
        -9.972248180161687
      ],
      [
        "chláraithe",
        -9.973272868836489
      ],
      [
        "eacair",
        -9.974717514198925
      ],
      [
        "imeacht",
        -9.976323339110937
      ],
      [
        "tógá",
        -9.977205325242887
      ],
      [
        "ról",
        -9.978559705222821
      ],
      [
        "orbartha",
        -9.978818177662863
      ],
      [
        "fuinn",
        -9.979303569983713
      ],
      [
        "iarr",
        -9.980214251901032
      ],
      [
        "maoirseacht",
        -9.980491764345302
      ],
      [
        "príobháideach",
        -9.980546199858768
      ],
      [
        "Speisialt",
        -9.98118187765926
      ],
      [
        "fororda",
        -9.981433377451445
      ],
      [
        "ráitis",
        -9.982391140011199
      ],
      [
        "bhail",
        -9.9825512398069
      ],
      [
        "Stair",
        -9.984627095713147
      ],
      [
        "sain",
        -9.985097416546003
      ],
      [
        "Sóisial",
        -9.985884705676398
      ],
      [
        "comhionann",
        -9.987646166385932
      ],
      [
        "chuirfea",
        -9.988210155720948
      ],
      [
        "dlífea",
        -9.989293350829655
      ],
      [
        "líomatáist",
        -9.991163273685636
      ],
      [
        "pionós",
        -9.991163759568433
      ],
      [
        "Bosca",
        -9.991164329885429
      ],
      [
        "75",
        -9.992226228624354
      ],
      [
        "Mórdhíol",
        -9.992263732185508
      ],
      [
        "obac",
        -9.99315688825151
      ],
      [
        "chónaithe",
        -9.994516986965541
      ],
      [
        "agóid",
        -9.994685822829688
      ],
      [
        "áis",
        -9.995203515994046
      ],
      [
        "phointe",
        -9.996148227476933
      ],
      [
        "Páirt",
        -9.997592640340045
      ],
      [
        "teaghla",
        -9.998490753054064
      ],
      [
        "leanúna",
        -9.99863592050307
      ],
      [
        "caithea",
        -9.999883274543155
      ],
      [
        "tacaíochta",
        -10.000758578874333
      ],
      [
        "íolta",
        -10.001579997902548
      ],
      [
        "athbhreithn",
        -10.001847365055106
      ],
      [
        "Barcelon",
        -10.002032838722346
      ],
      [
        "Allah",
        -10.002248546655462
      ],
      [
        "Ire",
        -10.006453890297124
      ],
      [
        "chinn",
        -10.007547294617268
      ],
      [
        "eacht",
        -10.007806670472789
      ],
      [
        "fheidhmeanna",
        -10.007986144329319
      ],
      [
        "bainisteoir",
        -10.009095713451234
      ],
      [
        "urrú",
        -10.00964366472868
      ],
      [
        "ceadú",
        -10.010789389897841
      ],
      [
        "comparáid",
        -10.011934580586594
      ],
      [
        "Airteaga",
        -10.012096730920902
      ],
      [
        "bunaío",
        -10.013052372908087
      ],
      [
        "Togra",
        -10.013100577251848
      ],
      [
        "Sh",
        -10.013249963840003
      ],
      [
        "chuí",
        -10.013313641830255
      ],
      [
        "bunaidh",
        -10.013688210943634
      ],
      [
        "aoil",
        -10.013804714880216
      ],
      [
        "ghníomhaíochta",
        -10.014048813248081
      ],
      [
        "pobal",
        -10.015423536225558
      ],
      [
        "iomláin",
        -10.015770315029222
      ],
      [
        "Dúi",
        -10.017435682925894
      ],
      [
        "intinn",
        -10.019265757557244
      ],
      [
        "catagóir",
        -10.020184561839622
      ],
      [
        "rang",
        -10.0205787323796
      ],
      [
        "vóta",
        -10.020714666471939
      ],
      [
        "reacht",
        -10.02106807186026
      ],
      [
        "crann",
        -10.021656227530107
      ],
      [
        "taisti",
        -10.022740376909775
      ],
      [
        "thairiscint",
        -10.024133031119547
      ],
      [
        "próiseála",
        -10.024133373716765
      ],
      [
        "chruinni",
        -10.024511081906127
      ],
      [
        "gcomhar",
        -10.024893730787124
      ],
      [
        "seasamh",
        -10.025080657110973
      ],
      [
        "breithiúna",
        -10.026234230623963
      ],
      [
        "feabhas",
        -10.027959272910675
      ],
      [
        "mála",
        -10.030070074470832
      ],
      [
        "isce",
        -10.030978709923318
      ],
      [
        "phragha",
        -10.0314882644415
      ],
      [
        "rianchlo",
        -10.031536937567253
      ],
      [
        "Déanann",
        -10.032525961021427
      ],
      [
        "42",
        -10.032920661057947
      ],
      [
        "Leis",
        -10.033648791108112
      ],
      [
        "shuiteáil",
        -10.035804569638355
      ],
      [
        "DH",
        -10.036209134482565
      ],
      [
        "gCuideachta",
        -10.039282242484045
      ],
      [
        "Tabhair",
        -10.039480248187154
      ],
      [
        "staidéar",
        -10.040203871808263
      ],
      [
        "samhail",
        -10.04107383397064
      ],
      [
        "aghas",
        -10.041154689851385
      ],
      [
        "agartha",
        -10.041863912965342
      ],
      [
        "aigheann",
        -10.04227281099756
      ],
      [
        "cumann",
        -10.042711191209175
      ],
      [
        "Q",
        -10.042919493461515
      ],
      [
        "Monaróir",
        -10.046735930249795
      ],
      [
        "ollmhór",
        -10.046833919259132
      ],
      [
        "bréagach",
        -10.047084521149138
      ],
      [
        "dheasca",
        -10.04791031633225
      ],
      [
        "fuaime",
        -10.049260279275224
      ],
      [
        "49",
        -10.049803210634355
      ],
      [
        "shábháil",
        -10.051560642138927
      ],
      [
        "neamhspleách",
        -10.053209319299777
      ],
      [
        "bunú",
        -10.054296025373237
      ],
      [
        "chaith",
        -10.054429589341545
      ],
      [
        "páist",
        -10.054729212409288
      ],
      [
        "Plean",
        -10.056420720670168
      ],
      [
        "liti",
        -10.056436612381965
      ],
      [
        "gcomhalta",
        -10.058186493300646
      ],
      [
        "Catagóir",
        -10.058230166412024
      ],
      [
        "Iompai",
        -10.058294993502187
      ],
      [
        "todhchaí",
        -10.058911636087037
      ],
      [
        "bheart",
        -10.0598234728324
      ],
      [
        "roinn",
        -10.060732300975035
      ],
      [
        "iniúchta",
        -10.06137854220827
      ],
      [
        "inbh",
        -10.061545129917992
      ],
      [
        "Ábhar",
        -10.06203430429457
      ],
      [
        "praghs",
        -10.0629899425247
      ],
      [
        "Mór",
        -10.063827771545576
      ],
      [
        "Wat",
        -10.065975644176863
      ],
      [
        "aidhm",
        -10.066235026389172
      ],
      [
        "díls",
        -10.06726397014672
      ],
      [
        "snáithe",
        -10.068492247400386
      ],
      [
        "Chontae",
        -10.069855068283907
      ],
      [
        "ineacht",
        -10.07011387898978
      ],
      [
        "Post",
        -10.0702676685556
      ],
      [
        "chúlghairm",
        -10.070711799521803
      ],
      [
        "áitri",
        -10.070830151420612
      ],
      [
        "ige",
        -10.071797050181083
      ],
      [
        "íosta",
        -10.072278537072968
      ],
      [
        "ualach",
        -10.072592073725017
      ],
      [
        "meácha",
        -10.07295581316361
      ],
      [
        "othar",
        -10.07361526108954
      ],
      [
        "ceanta",
        -10.075771386967356
      ],
      [
        "chaoi",
        -10.077868150357267
      ],
      [
        "triail",
        -10.08000739100467
      ],
      [
        "Iris",
        -10.08028968470283
      ],
      [
        "ation",
        -10.080955063893313
      ],
      [
        "Next",
        -10.081633590134738
      ],
      [
        "dhíreach",
        -10.081828483244243
      ],
      [
        "riachtana",
        -10.082632916734728
      ],
      [
        "dhlí",
        -10.083406716482685
      ],
      [
        "Theas",
        -10.08375985841948
      ],
      [
        "mheán",
        -10.084275672808353
      ],
      [
        "éiríonn",
        -10.085195000750371
      ],
      [
        "bainisti",
        -10.085354563304104
      ],
      [
        "allraí",
        -10.086102999382998
      ],
      [
        "teagmhála",
        -10.086841236024938
      ],
      [
        "cruth",
        -10.088206430627345
      ],
      [
        "oladh",
        -10.088340967256672
      ],
      [
        "dúrad",
        -10.089881336968686
      ],
      [
        "bac",
        -10.090517263426065
      ],
      [
        "fhoirgn",
        -10.091304030215401
      ],
      [
        "tionónta",
        -10.091661540402818
      ],
      [
        "Áir",
        -10.092509641693223
      ],
      [
        "chuntas",
        -10.092916130322125
      ],
      [
        "iarsma",
        -10.093563743858205
      ],
      [
        "Ria",
        -10.093622828584461
      ],
      [
        "tirim",
        -10.093752930552288
      ],
      [
        "spraoi",
        -10.094395669140745
      ],
      [
        "ainmneach",
        -10.094427213138538
      ],
      [
        "Tionscada",
        -10.094516830520295
      ],
      [
        "bhall",
        -10.094707035775112
      ],
      [
        "ve",
        -10.096112148271779
      ],
      [
        "Fac",
        -10.096175630150686
      ],
      [
        "imthosca",
        -10.097421597025924
      ],
      [
        "dalta",
        -10.098668840401324
      ],
      [
        "duilleog",
        -10.098988701379966
      ],
      [
        "maoiniú",
        -10.100070081736506
      ],
      [
        "Pland",
        -10.102422670665359
      ],
      [
        "measúnachta",
        -10.103002833813822
      ],
      [
        "aill",
        -10.103115644936832
      ],
      [
        "anailís",
        -10.103291217242255
      ],
      [
        "nuashonr",
        -10.10333469317673
      ],
      [
        "tháirgí",
        -10.103360543397903
      ],
      [
        "eagra",
        -10.104655709285296
      ],
      [
        "ARLAIMINT",
        -10.104931500761163
      ],
      [
        "Ionad",
        -10.105105814627134
      ],
      [
        "Bláth",
        -10.105591386056483
      ],
      [
        "European",
        -10.10572575946804
      ],
      [
        "thógaint",
        -10.106161795318545
      ],
      [
        "Rinne",
        -10.10617860172589
      ],
      [
        "Leanaí",
        -10.106676621523292
      ],
      [
        "lach",
        -10.10848486906686
      ],
      [
        "saincheist",
        -10.10882480700942
      ],
      [
        "bonn",
        -10.108889789781111
      ],
      [
        "ordóid",
        -10.109084969972796
      ],
      [
        "pháirtí",
        -10.111708764134743
      ],
      [
        "Ceannai",
        -10.112104252946807
      ],
      [
        "aíochta",
        -10.112435582278874
      ],
      [
        "aontú",
        -10.114550778524741
      ],
      [
        "per",
        -10.115365727272673
      ],
      [
        "ailte",
        -10.115595995864421
      ],
      [
        "2000",
        -10.115957891652895
      ],
      [
        "Choinbhinsiú",
        -10.117767494577212
      ],
      [
        "friotaíocht",
        -10.1177674946212
      ],
      [
        "Fostaíocht",
        -10.117816727367833
      ],
      [
        "titim",
        -10.117906744741774
      ],
      [
        "cathrach",
        -10.11798339929437
      ],
      [
        "teicneolaíocht",
        -10.118249315532914
      ],
      [
        "ghníomhaíocht",
        -10.11826532016936
      ],
      [
        "bronntana",
        -10.11873905383655
      ],
      [
        "othabháil",
        -10.11880081537505
      ],
      [
        "CF",
        -10.119236102112861
      ],
      [
        "branda",
        -10.119569057893802
      ],
      [
        "Níor",
        -10.119818628672103
      ],
      [
        "stáit",
        -10.119874579765398
      ],
      [
        "eagraíochta",
        -10.120628884797021
      ],
      [
        "orainn",
        -10.121308264949072
      ],
      [
        "ness",
        -10.12169982184256
      ],
      [
        "comhréireacht",
        -10.122033463810883
      ],
      [
        "teaghlach",
        -10.122734451107302
      ],
      [
        "éadaí",
        -10.124440318662236
      ],
      [
        "mhíniú",
        -10.125632341292778
      ],
      [
        "bhreithniú",
        -10.126223781929278
      ],
      [
        "deireanach",
        -10.12642694017037
      ],
      [
        "Imeachta",
        -10.12709343365836
      ],
      [
        "creat",
        -10.12738032096224
      ],
      [
        "amhras",
        -10.129251654346431
      ],
      [
        "Talmhaíocht",
        -10.130113179763201
      ],
      [
        "Connect",
        -10.130113294117116
      ],
      [
        "Gaillimh",
        -10.130113700917164
      ],
      [
        "shóisial",
        -10.130145123674442
      ],
      [
        "stáda",
        -10.130764712967487
      ],
      [
        "Feidhmiú",
        -10.131224156853179
      ],
      [
        "thíolaca",
        -10.132162629351441
      ],
      [
        "mbeart",
        -10.132800554771435
      ],
      [
        "sheachai",
        -10.13327797753223
      ],
      [
        "55",
        -10.133723483641432
      ],
      [
        "ainmniúchá",
        -10.134523340294031
      ],
      [
        "chúna",
        -10.13474646056736
      ],
      [
        "bhforál",
        -10.13481698273704
      ],
      [
        "fhás",
        -10.135503726355832
      ],
      [
        "65",
        -10.13691005944932
      ],
      [
        "all",
        -10.138714318287061
      ],
      [
        "gníomhach",
        -10.13876538987996
      ],
      [
        "Foirm",
        -10.138961802372883
      ],
      [
        "Lún",
        -10.140858844787253
      ],
      [
        "blas",
        -10.141425305211527
      ],
      [
        "breis",
        -10.141760247717997
      ],
      [
        "scoirf",
        -10.141879940794729
      ],
      [
        "sibhialta",
        -10.142642641991038
      ],
      [
        "stoic",
        -10.14264959781222
      ],
      [
        "phinsin",
        -10.142701720090477
      ],
      [
        "chonra",
        -10.144680722221064
      ],
      [
        "Sta",
        -10.146686656363427
      ],
      [
        "mbunaí",
        -10.14683751146806
      ],
      [
        "gcuntas",
        -10.147363347237143
      ],
      [
        "úinéireacht",
        -10.147946729891284
      ],
      [
        "thrí",
        -10.148064679878736
      ],
      [
        "gcomhlacht",
        -10.14814735689288
      ],
      [
        "íocht",
        -10.149282364319138
      ],
      [
        "únas",
        -10.149863630090145
      ],
      [
        "Faisnéise",
        -10.150029579329907
      ],
      [
        "Ansin",
        -10.151251963432129
      ],
      [
        "Samhai",
        -10.151588479979612
      ],
      [
        "cónaí",
        -10.151623120036412
      ],
      [
        "riail",
        -10.152677627825877
      ],
      [
        "wash",
        -10.152961342568956
      ],
      [
        "caipit",
        -10.153445595917994
      ],
      [
        "custaiméir",
        -10.153771619772526
      ],
      [
        "foirfe",
        -10.154764987046176
      ],
      [
        "_",
        -10.155215854669812
      ],
      [
        "athnuachan",
        -10.15527171143075
      ],
      [
        "teaghais",
        -10.155272028165797
      ],
      [
        "Monarcha",
        -10.155272142980358
      ],
      [
        "Ráta",
        -10.155285898264719
      ],
      [
        "tromchúiseach",
        -10.156064995799696
      ],
      [
        "teas",
        -10.15660640521899
      ],
      [
        "gcóra",
        -10.15715779839645
      ],
      [
        "toghachá",
        -10.15774037419953
      ],
      [
        "srianta",
        -10.157961190227404
      ],
      [
        "cultúr",
        -10.158015476125335
      ],
      [
        "tine",
        -10.15812984279432
      ],
      [
        "tógála",
        -10.15867234637652
      ],
      [
        "difríocht",
        -10.158979144418952
      ],
      [
        "toghchán",
        -10.15972324637929
      ],
      [
        "Gníomhaíochta",
        -10.161884759659094
      ],
      [
        "creidiúna",
        -10.164275835186325
      ],
      [
        "pearsan",
        -10.164331455980097
      ],
      [
        "mic",
        -10.165053775242228
      ],
      [
        "Éireannach",
        -10.165710927446256
      ],
      [
        "CB",
        -10.166080367196006
      ],
      [
        "nglacfa",
        -10.166419062045806
      ],
      [
        "dhíon",
        -10.167821962013868
      ],
      [
        "eitilt",
        -10.168747213355243
      ],
      [
        "phearsanta",
        -10.168779453790417
      ],
      [
        "CDD",
        -10.169193084931335
      ],
      [
        "mórdhíoltóir",
        -10.16958182833215
      ],
      [
        "glacfa",
        -10.169773163616648
      ],
      [
        "tuarascála",
        -10.169795477620141
      ],
      [
        "dhéag",
        -10.171177225217814
      ],
      [
        "PS",
        -10.171374174769003
      ],
      [
        "staidé",
        -10.17233657108231
      ],
      [
        "Gníomhaireacht",
        -10.172381030039475
      ],
      [
        "cathaoirleach",
        -10.172914099906677
      ],
      [
        "ghnótha",
        -10.17418725515396
      ],
      [
        "dualga",
        -10.17507123540446
      ],
      [
        "Ealaíon",
        -10.175418465207596
      ],
      [
        "aineann",
        -10.17577292902806
      ],
      [
        "rolla",
        -10.17587077614385
      ],
      [
        "80",
        -10.176638956870644
      ],
      [
        "inti",
        -10.176994926932537
      ],
      [
        "oibríocht",
        -10.177253139043724
      ],
      [
        "taitneamh",
        -10.177703204115709
      ],
      [
        "raitheann",
        -10.178293088607395
      ],
      [
        "lacha",
        -10.178643689315614
      ],
      [
        "Seirbhíse",
        -10.179032752798086
      ],
      [
        "SE",
        -10.179184782657277
      ],
      [
        "comharthaí",
        -10.180395963339667
      ],
      [
        "Barr",
        -10.180727541825217
      ],
      [
        "Ilghnéitheach",
        -10.181078935495664
      ],
      [
        "Cumarsáid",
        -10.18107894874397
      ],
      [
        "éascú",
        -10.18108561230417
      ],
      [
        "Chearta",
        -10.181106634890021
      ],
      [
        "áititheoir",
        -10.181156351287921
      ],
      [
        "cóireáil",
        -10.181257174125761
      ],
      [
        "iniúchóir",
        -10.181334218571802
      ],
      [
        "threoir",
        -10.181541675884613
      ],
      [
        "aibí",
        -10.182149393765835
      ],
      [
        "Iosta",
        -10.182203440566017
      ],
      [
        "comha",
        -10.182333209796834
      ],
      [
        "gléasra",
        -10.182514524131559
      ],
      [
        "fuar",
        -10.182806339747549
      ],
      [
        "léiríonn",
        -10.183490657018384
      ],
      [
        "beala",
        -10.18350858494493
      ],
      [
        "labhairt",
        -10.18425354106319
      ],
      [
        "gorm",
        -10.184601407439388
      ],
      [
        "gcríoch",
        -10.186079427659395
      ],
      [
        "tiocfaid",
        -10.18706673752029
      ],
      [
        "stop",
        -10.187119429433121
      ],
      [
        "cod",
        -10.187526272001637
      ],
      [
        "iontaobhais",
        -10.187723335538749
      ],
      [
        "ANNA",
        -10.189032771508984
      ],
      [
        "fhaigh",
        -10.189326458909962
      ],
      [
        "bhéarfa",
        -10.189394335238955
      ],
      [
        "roichead",
        -10.18946985330206
      ],
      [
        "paisinéir",
        -10.189783948201816
      ],
      [
        "críochnaithe",
        -10.192077184726205
      ],
      [
        "Leas",
        -10.192823530678812
      ],
      [
        "Cuideachta",
        -10.193205847420952
      ],
      [
        "taisteal",
        -10.194240761940577
      ],
      [
        "Cathrach",
        -10.19424898509154
      ],
      [
        "App",
        -10.194287348963385
      ],
      [
        "bhfaighi",
        -10.194470518634684
      ],
      [
        "híocaíochta",
        -10.195278193458089
      ],
      [
        "mheasúnú",
        -10.195289876003024
      ],
      [
        "olex",
        -10.195723212786667
      ],
      [
        "huaigh",
        -10.196318028479775
      ],
      [
        "ki",
        -10.196795053470161
      ],
      [
        "táscair",
        -10.197614230626005
      ],
      [
        "Cum",
        -10.197918321747062
      ],
      [
        "Sin",
        -10.199238602044659
      ],
      [
        "míniú",
        -10.199350940933293
      ],
      [
        "incháilithe",
        -10.200068055010153
      ],
      [
        "lámh",
        -10.200472330547605
      ],
      [
        "ochta",
        -10.202713460501855
      ],
      [
        "ghlana",
        -10.203459315036852
      ],
      [
        "fhostaí",
        -10.203696873498991
      ],
      [
        "gcomhlíona",
        -10.203832299591085
      ],
      [
        "cigire",
        -10.204824225125748
      ],
      [
        "fiosrúchá",
        -10.204932516210306
      ],
      [
        "níor",
        -10.206056130690916
      ],
      [
        "cist",
        -10.206403046318147
      ],
      [
        "chead",
        -10.20673213798931
      ],
      [
        "iontaofa",
        -10.207375475493848
      ],
      [
        "digiteach",
        -10.20757744203588
      ],
      [
        "Outlook",
        -10.207580177164159
      ],
      [
        "comhairliúchá",
        -10.207736143366894
      ],
      [
        "mhaolú",
        -10.20792424723539
      ],
      [
        "tomhaltóir",
        -10.208289901090826
      ],
      [
        "Gairdín",
        -10.208617209174811
      ],
      [
        "dian",
        -10.208762568373022
      ],
      [
        "oibr",
        -10.20888191870348
      ],
      [
        "ordachá",
        -10.208903134974197
      ],
      [
        "choinníollach",
        -10.209315130692996
      ],
      [
        "stóra",
        -10.210108693156574
      ],
      [
        "tosaíochta",
        -10.21019825040549
      ],
      [
        "lárnach",
        -10.210606218755846
      ],
      [
        "iarbh",
        -10.210764165414734
      ],
      [
        "céil",
        -10.211447393111847
      ],
      [
        "hábhair",
        -10.211618017060712
      ],
      [
        "thóg",
        -10.212217843807284
      ],
      [
        "Athr",
        -10.212243995615587
      ],
      [
        "brabús",
        -10.212329865359713
      ],
      [
        "ullmha",
        -10.21261582338351
      ],
      [
        "Iarrata",
        -10.213957793340832
      ],
      [
        "mhargai",
        -10.215124830933522
      ],
      [
        "IO",
        -10.215287540740041
      ],
      [
        "po",
        -10.215304959081692
      ],
      [
        "eolaíoch",
        -10.215656703841411
      ],
      [
        "cónaithe",
        -10.2177799497982
      ],
      [
        "ugann",
        -10.218018513463273
      ],
      [
        "ceapad",
        -10.218885987084725
      ],
      [
        "coimeád",
        -10.219295935744945
      ],
      [
        "cábla",
        -10.219323092739323
      ],
      [
        "chruinn",
        -10.2198667862342
      ],
      [
        "deontais",
        -10.220894962748547
      ],
      [
        "diúscairt",
        -10.221083806989387
      ],
      [
        "buntáist",
        -10.222089160987
      ],
      [
        "Fo",
        -10.223090225340506
      ],
      [
        "ithreach",
        -10.223303740486799
      ],
      [
        "réigiú",
        -10.223416457623069
      ],
      [
        "dtreo",
        -10.223912988511186
      ],
      [
        "rialaitheoir",
        -10.224115735281334
      ],
      [
        "ionchúis",
        -10.224254598367283
      ],
      [
        "mheasfa",
        -10.224386621006172
      ],
      [
        "lu",
        -10.226610833103912
      ],
      [
        "dáilea",
        -10.227397234115458
      ],
      [
        "áirgeadh",
        -10.22779882088924
      ],
      [
        "oirne",
        -10.229328048492977
      ],
      [
        "mais",
        -10.230426313872599
      ],
      [
        "eora",
        -10.232585894832365
      ],
      [
        "fhad",
        -10.233069768898968
      ],
      [
        "nscne",
        -10.233136475199949
      ],
      [
        "meascá",
        -10.234238188939816
      ],
      [
        "chumhda",
        -10.234808809238558
      ],
      [
        "radh",
        -10.234965381570728
      ],
      [
        "Nuacht",
        -10.236138199713475
      ],
      [
        "scoir",
        -10.236315917666882
      ],
      [
        "uiscí",
        -10.236414812013592
      ],
      [
        "phróisea",
        -10.236476464927158
      ],
      [
        "Cumhacht",
        -10.236873408102218
      ],
      [
        "satailít",
        -10.24009060746771
      ],
      [
        "Cineál",
        -10.242684898899913
      ],
      [
        "athúil",
        -10.24314272173444
      ],
      [
        "beatha",
        -10.243418759325658
      ],
      [
        "áireofa",
        -10.244061289261914
      ],
      [
        "thur",
        -10.24442379381696
      ],
      [
        "fréamh",
        -10.244444966242263
      ],
      [
        "Pé",
        -10.245797425441488
      ],
      [
        "hosaint",
        -10.246016530604809
      ],
      [
        "eithicil",
        -10.246210721174801
      ],
      [
        "timpeall",
        -10.24829284660173
      ],
      [
        "díolachá",
        -10.248299219624286
      ],
      [
        "lactha",
        -10.248414470937522
      ],
      [
        "thuiscint",
        -10.248452083315414
      ],
      [
        "éigeandála",
        -10.248738056096574
      ],
      [
        "pháipéir",
        -10.249396727578675
      ],
      [
        "iasachtaí",
        -10.249676138482688
      ],
      [
        "gruaig",
        -10.25001418817429
      ],
      [
        "gearán",
        -10.250177295708315
      ],
      [
        "Chúirte",
        -10.250265043158599
      ],
      [
        "ice",
        -10.250288002386588
      ],
      [
        "01",
        -10.252411740698927
      ],
      [
        "treoirlín",
        -10.2536018665767
      ],
      [
        "feithicle",
        -10.253634634961125
      ],
      [
        "ous",
        -10.25459512477494
      ],
      [
        "fionraí",
        -10.254600754536234
      ],
      [
        "gcomhlíonfa",
        -10.254788767355816
      ],
      [
        "aimsire",
        -10.254817590381995
      ],
      [
        "tic",
        -10.25483550129854
      ],
      [
        "tu",
        -10.255144165742205
      ],
      [
        "gcoinn",
        -10.255776619433092
      ],
      [
        "ghala",
        -10.257496071095458
      ],
      [
        "pacáist",
        -10.257994443200904
      ],
      [
        "pá",
        -10.258031205888859
      ],
      [
        "oibríochtú",
        -10.258820612985375
      ],
      [
        "Oifigiú",
        -10.259046576743263
      ],
      [
        "41",
        -10.259415240267195
      ],
      [
        "mBan",
        -10.259657235254291
      ],
      [
        "gcruinni",
        -10.25990216906044
      ],
      [
        "infheistíocht",
        -10.260267541313548
      ],
      [
        "shain",
        -10.261000581827073
      ],
      [
        "faighte",
        -10.26122614100154
      ],
      [
        "gcoit",
        -10.262323069517002
      ],
      [
        "DHÉAN",
        -10.262755712078963
      ],
      [
        "Forbairt",
        -10.262756409855118
      ],
      [
        "Local",
        -10.262758710592278
      ],
      [
        "cóireála",
        -10.262771497673153
      ],
      [
        "iniúchóireachta",
        -10.26284747496577
      ],
      [
        "fhadhb",
        -10.262849963421573
      ],
      [
        "chigire",
        -10.26288206581177
      ],
      [
        "2002",
        -10.262893227056963
      ],
      [
        "comhshao",
        -10.264123812040303
      ],
      [
        "chluich",
        -10.265287540015429
      ],
      [
        "08",
        -10.266134013231195
      ],
      [
        "turas",
        -10.266263807414312
      ],
      [
        "seachada",
        -10.268380114903142
      ],
      [
        "oibrí",
        -10.268641982118677
      ],
      [
        "scanná",
        -10.268690229456773
      ],
      [
        "náisiún",
        -10.269024067668834
      ],
      [
        "Lá",
        -10.269159340119298
      ],
      [
        "gcóir",
        -10.269780943542882
      ],
      [
        "cód",
        -10.269908977877945
      ],
      [
        "phlean",
        -10.270301319063464
      ],
      [
        "muiri",
        -10.270695078897846
      ],
      [
        "leic",
        -10.27151926504921
      ],
      [
        "allóid",
        -10.271671718233213
      ],
      [
        "gcionta",
        -10.272053071885132
      ],
      [
        "Gníomhaireachta",
        -10.272337791760735
      ],
      [
        "oll",
        -10.27236331808821
      ],
      [
        "thuairisc",
        -10.273255515033082
      ],
      [
        "oirceannadh",
        -10.273555272033484
      ],
      [
        "táirgthe",
        -10.273799321560684
      ],
      [
        "Daon",
        -10.274656492372623
      ],
      [
        "Bhain",
        -10.274766589886013
      ],
      [
        "chostas",
        -10.275529093505561
      ],
      [
        "race",
        -10.27559538259363
      ],
      [
        "2003",
        -10.27566864805046
      ],
      [
        "dhear",
        -10.276092185994308
      ],
      [
        "Taispeáin",
        -10.277041409642226
      ],
      [
        "dhochtúir",
        -10.277479062787403
      ],
      [
        "riocht",
        -10.277980668638666
      ],
      [
        "croí",
        -10.278044009935062
      ],
      [
        "ive",
        -10.278337152341422
      ],
      [
        "eagrú",
        -10.278669793414718
      ],
      [
        "Tuarascá",
        -10.279015949906219
      ],
      [
        "pian",
        -10.280250961918155
      ],
      [
        "Conrad",
        -10.281543020753045
      ],
      [
        "47",
        -10.281837656440832
      ],
      [
        "dhul",
        -10.283992398591458
      ],
      [
        "ceal",
        -10.284957531408391
      ],
      [
        "sheachtain",
        -10.285889406277969
      ],
      [
        "02",
        -10.286584184712588
      ],
      [
        "chorp",
        -10.287418388862672
      ],
      [
        "66",
        -10.28833814327388
      ],
      [
        "vótála",
        -10.288621416684865
      ],
      [
        "caithfi",
        -10.288914394865984
      ],
      [
        "gairmiú",
        -10.289082107287982
      ],
      [
        "páipéir",
        -10.290755178696669
      ],
      [
        "58",
        -10.290849643278744
      ],
      [
        "teicneolaíochta",
        -10.291363882972114
      ],
      [
        "thuairim",
        -10.291538691852502
      ],
      [
        "Gluaiseacht",
        -10.291574420603418
      ],
      [
        "fórsa",
        -10.291627140400767
      ],
      [
        "imreoir",
        -10.291672086324269
      ],
      [
        "ghrian",
        -10.291764291254035
      ],
      [
        "sceideal",
        -10.29218426236251
      ],
      [
        "féilir",
        -10.292250771231167
      ],
      [
        "mhola",
        -10.292302683471945
      ],
      [
        "míleata",
        -10.293112127546546
      ],
      [
        "haoine",
        -10.293227215010802
      ],
      [
        "fhoghlaim",
        -10.294146980826891
      ],
      [
        "reidiúint",
        -10.294619746357842
      ],
      [
        "hArd",
        -10.295621827163561
      ],
      [
        "Ná",
        -10.29785457074584
      ],
      [
        "chaill",
        -10.297972977139981
      ],
      [
        "dlíthiúil",
        -10.298857708056047
      ],
      [
        "éagsú",
        -10.29920222526572
      ],
      [
        "Léig",
        -10.300517462590204
      ],
      [
        "pháirt",
        -10.300826486422562
      ],
      [
        "cúrsaí",
        -10.301305459715014
      ],
      [
        "mhodhn",
        -10.30198919796992
      ],
      [
        "honraithe",
        -10.302150172795058
      ],
      [
        "Faigh",
        -10.303590492705812
      ],
      [
        "chúram",
        -10.304607256497349
      ],
      [
        "Réamh",
        -10.304797024514004
      ],
      [
        "fhostaithe",
        -10.305423770957578
      ],
      [
        "buí",
        -10.30555734994243
      ],
      [
        "pictiúr",
        -10.30624006449999
      ],
      [
        "staitistic",
        -10.306242896789044
      ],
      [
        "alúmana",
        -10.306244219687349
      ],
      [
        "bheag",
        -10.306326620824205
      ],
      [
        "ealaín",
        -10.30635571103127
      ],
      [
        "urscaoileadh",
        -10.306471836680153
      ],
      [
        "fostaíocht",
        -10.306524552003452
      ],
      [
        "idirbheart",
        -10.306992157292258
      ],
      [
        "isceana",
        -10.308067617633679
      ],
      [
        "mblia",
        -10.308910076021595
      ],
      [
        "measta",
        -10.30917891080017
      ],
      [
        "Mheán",
        -10.309411671775603
      ],
      [
        "bhótha",
        -10.309692600492221
      ],
      [
        "cruthúna",
        -10.310849899870739
      ],
      [
        "rannpháirteach",
        -10.311819130834438
      ],
      [
        "iceáil",
        -10.312941632437553
      ],
      [
        "craice",
        -10.313545479639558
      ],
      [
        "aimsi",
        -10.314094841605197
      ],
      [
        "New",
        -10.315390605807528
      ],
      [
        "ortha",
        -10.31569655919066
      ],
      [
        "bpáirt",
        -10.315992343245433
      ],
      [
        "buiséad",
        -10.316407261183834
      ],
      [
        "fhreagra",
        -10.31707679863047
      ],
      [
        "carr",
        -10.317301337799796
      ],
      [
        "vi",
        -10.318555989438586
      ],
      [
        "bean",
        -10.31885036430856
      ],
      [
        "44",
        -10.320481497477813
      ],
      [
        "Daonlatha",
        -10.321166517668185
      ],
      [
        "caidr",
        -10.321190897850165
      ],
      [
        "ospidé",
        -10.321214976390467
      ],
      [
        "pro",
        -10.32154554821381
      ],
      [
        "tiomanta",
        -10.321734642457583
      ],
      [
        "giorra",
        -10.323817340447931
      ],
      [
        "shealbhóir",
        -10.324872455265666
      ],
      [
        "toirt",
        -10.32494092334736
      ],
      [
        "euro",
        -10.325361361698222
      ],
      [
        "díoltóir",
        -10.325583381493004
      ],
      [
        "toirmeasc",
        -10.325690316487655
      ],
      [
        "cainé",
        -10.325910623691033
      ],
      [
        "gCiste",
        -10.327411110899408
      ],
      [
        "less",
        -10.328477548203887
      ],
      [
        "eochair",
        -10.329014709189995
      ],
      [
        "Ráit",
        -10.329785034705345
      ],
      [
        "comhar",
        -10.330799622830595
      ],
      [
        "clúda",
        -10.331748138158513
      ],
      [
        "tarraing",
        -10.334198178378028
      ],
      [
        "gcomhlíon",
        -10.336118479659895
      ],
      [
        "Iomlán",
        -10.336317052348267
      ],
      [
        "Iasca",
        -10.336336661453021
      ],
      [
        "compordach",
        -10.336898388382004
      ],
      [
        "98",
        -10.337027186019952
      ],
      [
        "shiúl",
        -10.337256845718418
      ],
      [
        "fhostóir",
        -10.337299319612942
      ],
      [
        "Ciall",
        -10.337441470182672
      ],
      [
        "Roghna",
        -10.337488661670788
      ],
      [
        "ul",
        -10.337854039013568
      ],
      [
        "meáchain",
        -10.33802851253299
      ],
      [
        "So",
        -10.338892873340004
      ],
      [
        "trácht",
        -10.339500177407963
      ],
      [
        "bpoint",
        -10.339535130726222
      ],
      [
        "glasra",
        -10.339891569887719
      ],
      [
        "bhunaithe",
        -10.340411544687163
      ],
      [
        "séala",
        -10.340447879593917
      ],
      [
        "gníomhaíocht",
        -10.341296794606347
      ],
      [
        "uain",
        -10.341381460110345
      ],
      [
        "toghchá",
        -10.343700101961637
      ],
      [
        "éine",
        -10.345252283069414
      ],
      [
        "eachtúla",
        -10.34567109478553
      ],
      [
        "plé",
        -10.347096487848525
      ],
      [
        "caighdeánach",
        -10.348619437475701
      ],
      [
        "Fh",
        -10.349146856139566
      ],
      [
        "Saoir",
        -10.349942690306184
      ],
      [
        "eagla",
        -10.35018501698503
      ],
      [
        "pol",
        -10.351224038693966
      ],
      [
        "Eilvéis",
        -10.351701559768632
      ],
      [
        "Praghas",
        -10.351713488679577
      ],
      [
        "geal",
        -10.352471802753568
      ],
      [
        "Mhár",
        -10.352477948358786
      ],
      [
        "nasctha",
        -10.352531730671181
      ],
      [
        "iontráil",
        -10.352567615367501
      ],
      [
        "léigh",
        -10.35349416668463
      ],
      [
        "ty",
        -10.353836996363135
      ],
      [
        "chustaiméir",
        -10.354130383921294
      ],
      [
        "príosúnacht",
        -10.354687334132628
      ],
      [
        "fíon",
        -10.354918120381644
      ],
      [
        "oiciméid",
        -10.355464284409598
      ],
      [
        "mionsonra",
        -10.355699635529051
      ],
      [
        "línt",
        -10.356317131366023
      ],
      [
        "chúrsa",
        -10.356774715968658
      ],
      [
        "teasa",
        -10.356888813551137
      ],
      [
        "Cáin",
        -10.358267060026227
      ],
      [
        "reachtach",
        -10.35860335847605
      ],
      [
        "seolta",
        -10.36103995659785
      ],
      [
        "Nach",
        -10.361100607855185
      ],
      [
        "phionós",
        -10.361460088650293
      ],
      [
        "hoifig",
        -10.361613379621605
      ],
      [
        "ciste",
        -10.362588161089498
      ],
      [
        "meái",
        -10.365581957440323
      ],
      [
        "189",
        -10.367228237966984
      ],
      [
        "Ö",
        -10.367326548796544
      ],
      [
        "Uaireadóir",
        -10.367326568108698
      ],
      [
        "reáchtáil",
        -10.367326576659664
      ],
      [
        "Chuarda",
        -10.367333257391122
      ],
      [
        "baránta",
        -10.367387730911743
      ],
      [
        "Tábla",
        -10.367390204011286
      ],
      [
        "fhororda",
        -10.367612859125565
      ],
      [
        "National",
        -10.368041014398763
      ],
      [
        "allmhairiú",
        -10.368306406088866
      ],
      [
        "rac",
        -10.36841251194136
      ],
      [
        "chuma",
        -10.368424776593166
      ],
      [
        "Aois",
        -10.3686840699589
      ],
      [
        "book",
        -10.368725982220035
      ],
      [
        "dhaingniú",
        -10.368797170434455
      ],
      [
        "IR",
        -10.368935616574475
      ],
      [
        "bailí",
        -10.36921773536493
      ],
      [
        "tábhacht",
        -10.369531352476821
      ],
      [
        "clúdach",
        -10.370058668866996
      ],
      [
        "Oibre",
        -10.370312587256382
      ],
      [
        "riala",
        -10.370406887904792
      ],
      [
        "arainn",
        -10.37067122759796
      ],
      [
        "píosa",
        -10.37144430703249
      ],
      [
        "Céim",
        -10.371530071415096
      ],
      [
        "fhoirceann",
        -10.3727325533449
      ],
      [
        "ime",
        -10.373255847860161
      ],
      [
        "68",
        -10.373376180227053
      ],
      [
        "cáilíocht",
        -10.373671403706453
      ],
      [
        "coinníoll",
        -10.373874126272735
      ],
      [
        "Atha",
        -10.3740767146525
      ],
      [
        "hoibleagáid",
        -10.37420639627959
      ],
      [
        "meas",
        -10.374384220008519
      ],
      [
        "asta",
        -10.374739913808607
      ],
      [
        "áilte",
        -10.375075331021023
      ],
      [
        "eastá",
        -10.375777622906003
      ],
      [
        "shannta",
        -10.376325801927434
      ],
      [
        "Earra",
        -10.376350326008804
      ],
      [
        "eir",
        -10.376559328502054
      ],
      [
        "eolaíocht",
        -10.378117531050549
      ],
      [
        "réasún",
        -10.378249600398302
      ],
      [
        "chostais",
        -10.379534284037849
      ],
      [
        "Coláist",
        -10.379848321016187
      ],
      [
        "gcumas",
        -10.38037517129073
      ],
      [
        "Shóisiala",
        -10.381105169086641
      ],
      [
        "fhorghníomh",
        -10.382309194228654
      ],
      [
        "phlé",
        -10.383050411358083
      ],
      [
        "taispeánta",
        -10.383199565569516
      ],
      [
        "tírdhreach",
        -10.383205759954912
      ],
      [
        "Tiocf",
        -10.383205942301192
      ],
      [
        "liathróid",
        -10.383211160377016
      ],
      [
        "tuarasta",
        -10.383218754832837
      ],
      [
        "Dollar",
        -10.383222577766016
      ],
      [
        "Taighde",
        -10.38334306133357
      ],
      [
        "thiar",
        -10.383371519669744
      ],
      [
        "fuinni",
        -10.383444738873337
      ],
      [
        "Teaghla",
        -10.38414636177518
      ],
      [
        "theasta",
        -10.384904266329062
      ],
      [
        "olais",
        -10.386430082345964
      ],
      [
        "iche",
        -10.389421921933438
      ],
      [
        "dligh",
        -10.389475253390456
      ],
      [
        "teachtaireacht",
        -10.390175150081909
      ],
      [
        "comhartha",
        -10.390468456910515
      ],
      [
        "cairde",
        -10.391208811618306
      ],
      [
        "CEE",
        -10.391726644896405
      ],
      [
        "sreabha",
        -10.39236956629786
      ],
      [
        "choinne",
        -10.392527599217283
      ],
      [
        "tabha",
        -10.392941496353714
      ],
      [
        "slán",
        -10.393242290025094
      ],
      [
        "59",
        -10.393497354560512
      ],
      [
        "dtaga",
        -10.393537284637748
      ],
      [
        "point",
        -10.393713415440688
      ],
      [
        "deona",
        -10.394319324525775
      ],
      [
        "bhean",
        -10.395528533868916
      ],
      [
        "tháirg",
        -10.39604386490309
      ],
      [
        "aisghair",
        -10.396174830919996
      ],
      [
        "dhiaili",
        -10.396189886620322
      ],
      [
        "óige",
        -10.39648036896283
      ],
      [
        "cúrsa",
        -10.396621360251368
      ],
      [
        "caipitiú",
        -10.396773370001032
      ],
      [
        "56",
        -10.397022544500583
      ],
      [
        "chta",
        -10.397540099451897
      ],
      [
        "fhorléir",
        -10.397669400039298
      ],
      [
        "Iompa",
        -10.399244104405666
      ],
      [
        "Fhrainc",
        -10.399328627564689
      ],
      [
        "rapóirtéir",
        -10.399328813775771
      ],
      [
        "traenach",
        -10.399333207831736
      ],
      [
        "díbhinn",
        -10.39933821479858
      ],
      [
        "gaolmhar",
        -10.399422875869574
      ],
      [
        "madra",
        -10.399445799933051
      ],
      [
        "Cosant",
        -10.399632520765199
      ],
      [
        "chríche",
        -10.399673684276252
      ],
      [
        "suime",
        -10.399830882654541
      ],
      [
        "carachta",
        -10.399882806561084
      ],
      [
        "Déardao",
        -10.39998708782725
      ],
      [
        "dteagmhá",
        -10.39998833970461
      ],
      [
        "EASÚ",
        -10.400637168258857
      ],
      [
        "gúna",
        -10.400830378477856
      ],
      [
        "Rialú",
        -10.400981019024279
      ],
      [
        "máil",
        -10.401061605898267
      ],
      [
        "foláir",
        -10.40108986784735
      ],
      [
        "Comhalta",
        -10.401507357931628
      ],
      [
        "olctha",
        -10.401525890562798
      ],
      [
        "DE",
        -10.401709921214746
      ],
      [
        "cheal",
        -10.402232173578504
      ],
      [
        "cháil",
        -10.402309218209773
      ],
      [
        "fáilte",
        -10.402333548798318
      ],
      [
        "inmhuir",
        -10.4023592317523
      ],
      [
        "scaipea",
        -10.402834950395064
      ],
      [
        "héifeachtach",
        -10.40393576312319
      ],
      [
        "bailiúchá",
        -10.405699546701232
      ],
      [
        "52",
        -10.406095033745588
      ],
      [
        "óthair",
        -10.406670967813207
      ],
      [
        "meastóireacht",
        -10.40746066818528
      ],
      [
        "ínte",
        -10.408197169294674
      ],
      [
        "bu",
        -10.409166686839377
      ],
      [
        "ghá",
        -10.410256228299112
      ],
      [
        "cuibhe",
        -10.411464477138075
      ],
      [
        "gceangla",
        -10.412564483333515
      ],
      [
        "Beal",
        -10.41305381219334
      ],
      [
        "Neamh",
        -10.413193144160552
      ],
      [
        "deartha",
        -10.41450331952613
      ],
      [
        "Ár",
        -10.414600153816313
      ],
      [
        "vótáil",
        -10.415722185523748
      ],
      [
        "polaitiú",
        -10.415725466161504
      ],
      [
        "Uathoibríoch",
        -10.415731326506046
      ],
      [
        "Joint",
        -10.41576823410257
      ],
      [
        "imní",
        -10.415808988441082
      ],
      [
        "rannpháirtíocht",
        -10.416065700578827
      ],
      [
        "laghdaithe",
        -10.41607936447082
      ],
      [
        "earrach",
        -10.416211903920392
      ],
      [
        "úsáideach",
        -10.416257971163233
      ],
      [
        "sainráite",
        -10.416318588822442
      ],
      [
        "díola",
        -10.41635466426705
      ],
      [
        "bhf",
        -10.41647662011777
      ],
      [
        "scáileá",
        -10.41761953202576
      ],
      [
        "deoch",
        -10.417792795246193
      ],
      [
        "Léir",
        -10.417897331309891
      ],
      [
        "dúbailt",
        -10.419437637044698
      ],
      [
        "míre",
        -10.420794665280905
      ],
      [
        "gceanta",
        -10.421121805730825
      ],
      [
        "gairm",
        -10.421705311634971
      ],
      [
        "corparáide",
        -10.42239248077846
      ],
      [
        "Deara",
        -10.42304362226665
      ],
      [
        "ze",
        -10.425485034332091
      ],
      [
        "malart",
        -10.425517098488545
      ],
      [
        "Pro",
        -10.4266340343503
      ],
      [
        "scáth",
        -10.42723055553604
      ],
      [
        "Comhshao",
        -10.427553917270572
      ],
      [
        "tabharfaid",
        -10.427582094283999
      ],
      [
        "eolaíochta",
        -10.427858838291222
      ],
      [
        "polasa",
        -10.428273781293445
      ],
      [
        "Tugt",
        -10.429331472397992
      ],
      [
        "ghníomhaire",
        -10.431534805560442
      ],
      [
        "fhostaíocht",
        -10.432121157683069
      ],
      [
        "réalta",
        -10.432365347694791
      ],
      [
        "Ghearmáin",
        -10.43238870807317
      ],
      [
        "díospóid",
        -10.432388715088967
      ],
      [
        "óspidé",
        -10.432410721981288
      ],
      [
        "Super",
        -10.432418221094723
      ],
      [
        "Rialacha",
        -10.432559908316893
      ],
      [
        "easpa",
        -10.433087267582618
      ],
      [
        "éifeachta",
        -10.433297361804197
      ],
      [
        "Cás",
        -10.4345894128151
      ],
      [
        "ebate",
        -10.434651594563029
      ],
      [
        "fheithic",
        -10.434680480589885
      ],
      [
        "domhanda",
        -10.43488864694682
      ],
      [
        "53",
        -10.435908272031016
      ],
      [
        "Comhaont",
        -10.43699319400822
      ],
      [
        "aimsir",
        -10.43707500069516
      ],
      [
        "COMHAIRLE",
        -10.43711864584917
      ],
      [
        "gcúirt",
        -10.437162250034287
      ],
      [
        "FC",
        -10.438316246558118
      ],
      [
        "shaothr",
        -10.439126416933277
      ],
      [
        "fol",
        -10.440025857502752
      ],
      [
        "CH",
        -10.440744572591363
      ],
      [
        "éifeachtúlacht",
        -10.440861694271794
      ],
      [
        "chlúdach",
        -10.441825187829554
      ],
      [
        "mhuirearú",
        -10.441983805111839
      ],
      [
        "Có",
        -10.443031643394654
      ],
      [
        "himthosca",
        -10.443802609204624
      ],
      [
        "EUR",
        -10.444070916486858
      ],
      [
        "Roinne",
        -10.444116151707737
      ],
      [
        "uachtar",
        -10.444186170860018
      ],
      [
        "éireo",
        -10.444576773810745
      ],
      [
        "hroim",
        -10.445359032457887
      ],
      [
        "09",
        -10.445420394072501
      ],
      [
        "indéanta",
        -10.445681476509261
      ],
      [
        "margai",
        -10.445999708238197
      ],
      [
        "íniú",
        -10.446318972487841
      ],
      [
        "Síne",
        -10.44680097007977
      ],
      [
        "laethú",
        -10.44711614958995
      ],
      [
        "ceangailte",
        -10.44726307859047
      ],
      [
        "Feidhm",
        -10.44855183688276
      ],
      [
        "over",
        -10.448939200410468
      ],
      [
        "stórála",
        -10.449078557238858
      ],
      [
        "iPhone",
        -10.44933798337756
      ],
      [
        "Cainteoir",
        -10.449339713852744
      ],
      [
        "Clib",
        -10.449487387928478
      ],
      [
        "fuinneog",
        -10.449491636387101
      ],
      [
        "aeráid",
        -10.449729218502185
      ],
      [
        "víosa",
        -10.449806399814385
      ],
      [
        "Méad",
        -10.450391195139938
      ],
      [
        "coiriúla",
        -10.450634923558022
      ],
      [
        "chomaoin",
        -10.450651016288745
      ],
      [
        "by",
        -10.451021591465645
      ],
      [
        "Treorach",
        -10.451268392507274
      ],
      [
        "coda",
        -10.451367969771507
      ],
      [
        "Chaibid",
        -10.45195106564552
      ],
      [
        "Déantóir",
        -10.452047383135845
      ],
      [
        "mheasta",
        -10.45238236868408
      ],
      [
        "cliceá",
        -10.453183247334993
      ],
      [
        "oird",
        -10.453955520975864
      ],
      [
        "orm",
        -10.453965962585084
      ],
      [
        "ghníomhach",
        -10.454343373880803
      ],
      [
        "FÁ",
        -10.454856573149385
      ],
      [
        "Straitéis",
        -10.455427552944483
      ],
      [
        "Eacnamaíoch",
        -10.455750948453211
      ],
      [
        "ici",
        -10.456271322871924
      ],
      [
        "Fheidhmiú",
        -10.457825004686178
      ],
      [
        "Ath",
        -10.457930151055702
      ],
      [
        "64",
        -10.458424792972496
      ],
      [
        "ilbhliantú",
        -10.458456468137943
      ],
      [
        "Eo",
        -10.459109165505158
      ],
      [
        "Oifigeach",
        -10.459137572389398
      ],
      [
        "illiún",
        -10.459606860121951
      ],
      [
        "fhágá",
        -10.459999610946198
      ],
      [
        "daonna",
        -10.460041178776358
      ],
      [
        "shuim",
        -10.460844747993765
      ],
      [
        "chumann",
        -10.461315133071238
      ],
      [
        "bótha",
        -10.461986465434748
      ],
      [
        "Glacfa",
        -10.464157638875406
      ],
      [
        "07",
        -10.464591760942394
      ],
      [
        "dtuairim",
        -10.465251116596328
      ],
      [
        "ócáid",
        -10.465974650144043
      ],
      [
        "Â",
        -10.466579238069958
      ],
      [
        "mhoill",
        -10.466594979746944
      ],
      [
        "Tuairim",
        -10.466601462332662
      ],
      [
        "uaireadóir",
        -10.466604525542781
      ],
      [
        "Limisté",
        -10.466965115945225
      ],
      [
        "TA",
        -10.467007371513269
      ],
      [
        "eartú",
        -10.467405221449535
      ],
      [
        "chuarda",
        -10.46746323868717
      ],
      [
        "State",
        -10.467515700033653
      ],
      [
        "buidéal",
        -10.467540134093522
      ],
      [
        "phríobháideach",
        -10.46759036974137
      ],
      [
        "dílseána",
        -10.467700067257098
      ],
      [
        "port",
        -10.467922544420983
      ],
      [
        "géar",
        -10.468142063614675
      ],
      [
        "CO",
        -10.468185914628233
      ],
      [
        "dearfach",
        -10.468284087087124
      ],
      [
        "bainc",
        -10.468450869407844
      ],
      [
        "raein",
        -10.468721969824738
      ],
      [
        "cóiríocht",
        -10.469566535275916
      ],
      [
        "istí",
        -10.46978806177611
      ],
      [
        "lig",
        -10.471044495314395
      ],
      [
        "Dubh",
        -10.471776570327949
      ],
      [
        "Comhphoba",
        -10.472281085552293
      ],
      [
        "breac",
        -10.472304574785746
      ],
      [
        "fholaío",
        -10.472327025485132
      ],
      [
        "chrutha",
        -10.4745322202738
      ],
      [
        "ghairmiú",
        -10.475310052991023
      ],
      [
        "tarraingt",
        -10.476468303234263
      ],
      [
        "íoch",
        -10.47666290443199
      ],
      [
        "dhualga",
        -10.476868951517588
      ],
      [
        "Feabh",
        -10.476909688829453
      ],
      [
        "taise",
        -10.477987584199242
      ],
      [
        "mB",
        -10.478134710120633
      ],
      [
        "67",
        -10.4799900556482
      ],
      [
        "aistriúchá",
        -10.480273585503866
      ],
      [
        "Cumhachta",
        -10.480884873788451
      ],
      [
        "saoirse",
        -10.481568522386947
      ],
      [
        "riara",
        -10.48158978175298
      ],
      [
        "Éire",
        -10.482789290926874
      ],
      [
        "Sean",
        -10.483347991594059
      ],
      [
        "tráchta",
        -10.483424307118336
      ],
      [
        "»",
        -10.484123097719081
      ],
      [
        "fomhír",
        -10.484329698621607
      ],
      [
        "Diamond",
        -10.484386450079615
      ],
      [
        "bháis",
        -10.484868326882271
      ],
      [
        "pota",
        -10.48550296829779
      ],
      [
        "ionta",
        -10.485650175501444
      ],
      [
        "Sainmhíni",
        -10.486423666044935
      ],
      [
        "Chomhaont",
        -10.486785691487317
      ],
      [
        "eastái",
        -10.487064756739784
      ],
      [
        "uacht",
        -10.48837594398317
      ],
      [
        "fios",
        -10.488508212522376
      ],
      [
        "dtáirgí",
        -10.489028982206895
      ],
      [
        "inarb",
        -10.489332451798116
      ],
      [
        "vótaí",
        -10.49043954474833
      ],
      [
        "cuain",
        -10.490764166909575
      ],
      [
        "olc",
        -10.492294175199305
      ],
      [
        "farraig",
        -10.492617301694958
      ],
      [
        "89",
        -10.493244218385637
      ],
      [
        "dháilea",
        -10.493642128931544
      ],
      [
        "Bu",
        -10.494347190179441
      ],
      [
        "Leigh",
        -10.495261483707463
      ],
      [
        "43",
        -10.4952766197364
      ],
      [
        "cáilitheach",
        -10.4958298030508
      ],
      [
        "Lean",
        -10.49656147350127
      ],
      [
        "iúint",
        -10.497024248449009
      ],
      [
        "ghearr",
        -10.497130507744261
      ],
      [
        "rochta",
        -10.498312342029326
      ],
      [
        "bua",
        -10.49902535175724
      ],
      [
        "chúit",
        -10.499387748957622
      ],
      [
        "line",
        -10.499817224422168
      ],
      [
        "irí",
        -10.500104695294766
      ],
      [
        "Mheiriceá",
        -10.500550363392113
      ],
      [
        "pas",
        -10.500586987595385
      ],
      [
        "údaru",
        -10.500979160976453
      ],
      [
        "píopa",
        -10.501980430357648
      ],
      [
        "fráma",
        -10.501981145953774
      ],
      [
        "fhógair",
        -10.501988423769758
      ],
      [
        "caoga",
        -10.501990155197008
      ],
      [
        "dathanna",
        -10.502177712397561
      ],
      [
        "gluaisteá",
        -10.502465017489383
      ],
      [
        "leanfa",
        -10.502526462536059
      ],
      [
        "cothromaíocht",
        -10.5035295954622
      ],
      [
        "bróg",
        -10.503933084807745
      ],
      [
        "bhfostaíocht",
        -10.50426603854006
      ],
      [
        "cháilíocht",
        -10.504340697236643
      ],
      [
        "cheadó",
        -10.504640308622783
      ],
      [
        "tuigfea",
        -10.505084326613163
      ],
      [
        "aturnae",
        -10.505482518726911
      ],
      [
        "fhíorú",
        -10.505525490630575
      ],
      [
        "Eile",
        -10.505546587001827
      ],
      [
        "Chlár",
        -10.50573529077911
      ],
      [
        "Gné",
        -10.506771252541437
      ],
      [
        "tube",
        -10.507323905501828
      ],
      [
        "ÓN",
        -10.507719574139541
      ],
      [
        "scrios",
        -10.507955321962047
      ],
      [
        "rúnaí",
        -10.508530855030443
      ],
      [
        "Universit",
        -10.509866631278594
      ],
      [
        "oiriún",
        -10.509903151335312
      ],
      [
        "dóiteá",
        -10.511063756824266
      ],
      [
        "light",
        -10.511365101300019
      ],
      [
        "sonrófa",
        -10.512894533291847
      ],
      [
        "mbeal",
        -10.512957766561662
      ],
      [
        "CP",
        -10.513393662658899
      ],
      [
        "meicniú",
        -10.513776527322467
      ],
      [
        "íní",
        -10.513841522536397
      ],
      [
        "litreach",
        -10.514605016320797
      ],
      [
        "Samh",
        -10.514710252047475
      ],
      [
        "próiseáil",
        -10.514988760308695
      ],
      [
        "roth",
        -10.5162167783568
      ],
      [
        "teagmhas",
        -10.516450369856045
      ],
      [
        "uaisceart",
        -10.516543519759747
      ],
      [
        "cheadúnais",
        -10.516599961085536
      ],
      [
        "beirt",
        -10.516829508438665
      ],
      [
        "Shan",
        -10.517505665922627
      ],
      [
        "cháilithe",
        -10.518131139972864
      ],
      [
        "meastachá",
        -10.518826841867087
      ],
      [
        "99",
        -10.519618497434559
      ],
      [
        "PC",
        -10.519990957008856
      ],
      [
        "breosla",
        -10.520162059571392
      ],
      [
        "loingseoireacht",
        -10.52016207846314
      ],
      [
        "Google",
        -10.520162990695672
      ],
      [
        "Health",
        -10.520176710105371
      ],
      [
        "siúcra",
        -10.520176860241767
      ],
      [
        "video",
        -10.520191841165223
      ],
      [
        "infheisteoir",
        -10.520192596880323
      ],
      [
        "patrú",
        -10.52023089474076
      ],
      [
        "scilling",
        -10.520292276458918
      ],
      [
        "hraitheann",
        -10.520669533423156
      ],
      [
        "ríomhphoi",
        -10.520945461232621
      ],
      [
        "tseachtain",
        -10.521172287563548
      ],
      [
        "Mhaigh",
        -10.52160646187961
      ],
      [
        "Soláthair",
        -10.522773398983826
      ],
      [
        "aonta",
        -10.523398590185938
      ],
      [
        "astu",
        -10.52407254418905
      ],
      [
        "timpeallacht",
        -10.525751432070138
      ],
      [
        "díobhálach",
        -10.526934518881609
      ],
      [
        "áid",
        -10.52734240730818
      ],
      [
        "bhfoca",
        -10.527462360342852
      ],
      [
        "ent",
        -10.527676945687158
      ],
      [
        "chónaí",
        -10.529427054842166
      ],
      [
        "gComhphoba",
        -10.530219707590442
      ],
      [
        "osú",
        -10.530328421103206
      ],
      [
        "alair",
        -10.531930567360149
      ],
      [
        "bainte",
        -10.53294796613515
      ],
      [
        "marc",
        -10.533624331954911
      ],
      [
        "57",
        -10.534370591987107
      ],
      [
        "flash",
        -10.534901622284009
      ],
      [
        "fáis",
        -10.535179005770544
      ],
      [
        "Corparáide",
        -10.537549329501584
      ],
      [
        "Réigiún",
        -10.537578015011352
      ],
      [
        "éifeachtacht",
        -10.537688779161439
      ],
      [
        "Sín",
        -10.537737332305685
      ],
      [
        "nádúr",
        -10.53802602078426
      ],
      [
        "·",
        -10.538680577276562
      ],
      [
        "phlanda",
        -10.538694656922758
      ],
      [
        "stampa",
        -10.538842242131015
      ],
      [
        "sruth",
        -10.539596903514322
      ],
      [
        "Teicneolaíocht",
        -10.539737756944907
      ],
      [
        "faisean",
        -10.539810329387828
      ],
      [
        "mhian",
        -10.539963175920532
      ],
      [
        "hoist",
        -10.539979752126893
      ],
      [
        "tábla",
        -10.54008675265324
      ],
      [
        "dearmad",
        -10.541058580315214
      ],
      [
        "Thu",
        -10.541746468503465
      ],
      [
        "leagfa",
        -10.541846722840978
      ],
      [
        "irteagal",
        -10.542045665163169
      ],
      [
        "ov",
        -10.542467636403064
      ],
      [
        "69",
        -10.542655290408177
      ],
      [
        "saothrú",
        -10.543299286435559
      ],
      [
        "HUN",
        -10.543605316222333
      ],
      [
        "03",
        -10.545192945765784
      ],
      [
        "rialáil",
        -10.545398766182275
      ],
      [
        "Athbhreithni",
        -10.545426370243614
      ],
      [
        "gníomhaire",
        -10.54571447819793
      ],
      [
        "cáiliú",
        -10.546390273809935
      ],
      [
        "ceapachá",
        -10.546521825806487
      ],
      [
        "Áiritheo",
        -10.546643753849608
      ],
      [
        "shonrach",
        -10.54707769875229
      ],
      [
        "úcháin",
        -10.547658036486727
      ],
      [
        "bhrú",
        -10.548236784098425
      ],
      [
        "Trácht",
        -10.549027942061898
      ],
      [
        "Infheistíochta",
        -10.549891421212221
      ],
      [
        "uigh",
        -10.550063704317674
      ],
      [
        "Irish",
        -10.551635496463941
      ],
      [
        "ceangal",
        -10.552133500982126
      ],
      [
        "bhfora",
        -10.553515507288097
      ],
      [
        "múnla",
        -10.553895419637572
      ],
      [
        "poba",
        -10.554685081541553
      ],
      [
        "Tuarascála",
        -10.554940768451418
      ],
      [
        "Tóg",
        -10.555505655778685
      ],
      [
        "ranníoc",
        -10.55619657734421
      ],
      [
        "inneal",
        -10.557091668099499
      ],
      [
        "coigeart",
        -10.557551257339313
      ],
      [
        "Bearta",
        -10.557659916949959
      ],
      [
        "dóich",
        -10.558073505919038
      ],
      [
        "Breataine",
        -10.558270273150205
      ],
      [
        "scór",
        -10.558610550030163
      ],
      [
        "iompróir",
        -10.55871762605581
      ],
      [
        "Méid",
        -10.558849908049707
      ],
      [
        "árasá",
        -10.559100131978505
      ],
      [
        "Europ",
        -10.559244569077395
      ],
      [
        "Arm",
        -10.559505154135374
      ],
      [
        "leasmhar",
        -10.560011308517103
      ],
      [
        "Oiliún",
        -10.560014299218295
      ],
      [
        "mháil",
        -10.560584724814403
      ],
      [
        "achmair",
        -10.560792210092313
      ],
      [
        "choigeartú",
        -10.56084686954624
      ],
      [
        "ineann",
        -10.56103003490968
      ],
      [
        "1960",
        -10.56146006714365
      ],
      [
        "cothabhála",
        -10.562510013589609
      ],
      [
        "crainn",
        -10.563220306753523
      ],
      [
        "ghné",
        -10.56396438137491
      ],
      [
        "breithe",
        -10.563995202415562
      ],
      [
        "féideartha",
        -10.56516163660167
      ],
      [
        "chuntais",
        -10.56546496919539
      ],
      [
        "chaillea",
        -10.56562617482711
      ],
      [
        "Líon",
        -10.566742085638186
      ],
      [
        "mail",
        -10.566986821874657
      ],
      [
        "dhéana",
        -10.567153813029888
      ],
      [
        "Iarratais",
        -10.56775609598942
      ],
      [
        "Fórsa",
        -10.567999052622216
      ],
      [
        "gairmiúla",
        -10.569185452020573
      ],
      [
        "PD",
        -10.56919748659601
      ],
      [
        "ceol",
        -10.570583837575736
      ],
      [
        "airm",
        -10.571150594351199
      ],
      [
        "Nós",
        -10.571326751227053
      ],
      [
        "chaomhn",
        -10.5716997439382
      ],
      [
        "bhuiséad",
        -10.571742693594054
      ],
      [
        "toba",
        -10.57197911997835
      ],
      [
        "cúirt",
        -10.573226785149952
      ],
      [
        "eiceálach",
        -10.57376429010073
      ],
      [
        "mheasann",
        -10.574047375574699
      ],
      [
        "CHA",
        -10.57509114455229
      ],
      [
        "73",
        -10.57555937794569
      ],
      [
        "híniú",
        -10.575767609162781
      ],
      [
        "abhartha",
        -10.575886762059815
      ],
      [
        "bhuirg",
        -10.576451729294
      ],
      [
        "Trádála",
        -10.576780311814296
      ],
      [
        "Oileá",
        -10.576824685627964
      ],
      [
        "athchomharc",
        -10.57684353795672
      ],
      [
        "Digiteach",
        -10.576926551335212
      ],
      [
        "Lucht",
        -10.577112050595192
      ],
      [
        "maireachtá",
        -10.577393482343588
      ],
      [
        "Sula",
        -10.577549068543322
      ],
      [
        "chor",
        -10.578010890048759
      ],
      [
        "tíolaca",
        -10.578082452409099
      ],
      [
        "gáis",
        -10.578315026583114
      ],
      [
        "gréine",
        -10.57887086020193
      ],
      [
        "dlúth",
        -10.579120553712283
      ],
      [
        "Domhna",
        -10.579122890484282
      ],
      [
        "lonnaithe",
        -10.579368627282546
      ],
      [
        "aisghabháil",
        -10.579817813498162
      ],
      [
        "fochuideachta",
        -10.579946615296095
      ],
      [
        "Po",
        -10.581645661447837
      ],
      [
        "tiarna",
        -10.581752150390159
      ],
      [
        "AG",
        -10.581851928545065
      ],
      [
        "áracha",
        -10.582377499809692
      ],
      [
        "fhaois",
        -10.584846598875925
      ],
      [
        "cruinnea",
        -10.58551426116225
      ],
      [
        "GO",
        -10.585999629193127
      ],
      [
        "ious",
        -10.586510387584497
      ],
      [
        "hoibreach",
        -10.586593230651564
      ],
      [
        "just",
        -10.587233185284202
      ],
      [
        "comhiomlán",
        -10.587495079440624
      ],
      [
        "nuacht",
        -10.588940675663096
      ],
      [
        "thriail",
        -10.589091191107185
      ],
      [
        "gealltana",
        -10.589772646911909
      ],
      [
        "suimiú",
        -10.590304080138447
      ],
      [
        "heagraíochta",
        -10.590640805860318
      ],
      [
        "RE",
        -10.590928885716714
      ],
      [
        "CHU",
        -10.592494510858906
      ],
      [
        "strap",
        -10.59321568069305
      ],
      [
        "léasa",
        -10.593429341617565
      ],
      [
        "Sóisiala",
        -10.594666089104384
      ],
      [
        "ionadaíocht",
        -10.594668668829566
      ],
      [
        "grád",
        -10.59521346070909
      ],
      [
        "tail",
        -10.595311575857021
      ],
      [
        "fóill",
        -10.595675098156184
      ],
      [
        "ranníocaíochta",
        -10.596004282389293
      ],
      [
        "pionóis",
        -10.596387379933352
      ],
      [
        "vitimín",
        -10.596389094195164
      ],
      [
        "chaillteana",
        -10.59639133760954
      ],
      [
        "monatóireacht",
        -10.596393709656837
      ],
      [
        "trádmharc",
        -10.596409764643113
      ],
      [
        "scairchaipit",
        -10.596449269542159
      ],
      [
        "Phoba",
        -10.596500399992118
      ],
      [
        "Measfa",
        -10.596574051396905
      ],
      [
        "tarchur",
        -10.596786980319404
      ],
      [
        "chríochnú",
        -10.596985592609398
      ],
      [
        "mp3",
        -10.597100931531816
      ],
      [
        "bhosca",
        -10.597185461873028
      ],
      [
        "95",
        -10.597199095290977
      ],
      [
        "mianra",
        -10.597275489862032
      ],
      [
        "uathúil",
        -10.59759319861405
      ],
      [
        "lasta",
        -10.59808638611573
      ],
      [
        "gcúrsa",
        -10.598504278593877
      ],
      [
        "gcomhthéacs",
        -10.598769139319366
      ],
      [
        "Glac",
        -10.599473729873402
      ],
      [
        "1988",
        -10.599513304661087
      ],
      [
        "mhíchumas",
        -10.60048669383595
      ],
      [
        "nótaí",
        -10.600605711673154
      ],
      [
        "leithead",
        -10.60070634462814
      ],
      [
        "tsamhraidh",
        -10.601208238589656
      ],
      [
        "casta",
        -10.601625414671807
      ],
      [
        "Cúna",
        -10.602004815306236
      ],
      [
        "leasaithe",
        -10.602333980587373
      ],
      [
        "tugta",
        -10.605028209356258
      ],
      [
        "Air",
        -10.605734301007637
      ],
      [
        "Ós",
        -10.606223910235219
      ],
      [
        "63",
        -10.606232212111586
      ],
      [
        "fhoins",
        -10.606832685186806
      ],
      [
        "staidr",
        -10.607577081862313
      ],
      [
        "rabha",
        -10.609499275852217
      ],
      [
        "Cáilíochta",
        -10.61056641739206
      ],
      [
        "eintit",
        -10.610913865826758
      ],
      [
        "scoláir",
        -10.611672600676213
      ],
      [
        "Dún",
        -10.61204952363511
      ],
      [
        "Du",
        -10.614571785923374
      ],
      [
        "naisc",
        -10.61515110829899
      ],
      [
        "forai",
        -10.615511165028266
      ],
      [
        "Cuirtea",
        -10.615920451401125
      ],
      [
        "Fir",
        -10.61595460139474
      ],
      [
        "Úcráin",
        -10.616387136113033
      ],
      [
        "lipéad",
        -10.616390903734306
      ],
      [
        "Afraic",
        -10.61639581685316
      ],
      [
        "ionfhabht",
        -10.616402705795892
      ],
      [
        "socraithe",
        -10.61640741916322
      ],
      [
        "diaper",
        -10.616410590874562
      ],
      [
        "leanfaid",
        -10.616784119743023
      ],
      [
        "thionscada",
        -10.61685933395633
      ],
      [
        "bhrisea",
        -10.61800195057278
      ],
      [
        "RIALACHÁ",
        -10.618544128719249
      ],
      [
        "measa",
        -10.620414346699118
      ],
      [
        "Thuai",
        -10.6222304056232
      ],
      [
        "cine",
        -10.622357130784195
      ],
      [
        "06",
        -10.622441373329735
      ],
      [
        "insint",
        -10.622650628686017
      ],
      [
        "Faisnéis",
        -10.623537056181803
      ],
      [
        "teaghrá",
        -10.623749900447969
      ],
      [
        "ráthaíocht",
        -10.623755587433102
      ],
      [
        "Domhand",
        -10.623853493857059
      ],
      [
        "gcaithea",
        -10.625210218523591
      ],
      [
        "Cho",
        -10.625928205558482
      ],
      [
        "íche",
        -10.626435795806373
      ],
      [
        "bhfógra",
        -10.62783135155968
      ],
      [
        "Bia",
        -10.627986318516168
      ],
      [
        "chúig",
        -10.628524144380412
      ],
      [
        "gcomhaont",
        -10.628889886388368
      ],
      [
        "foins",
        -10.629172976331574
      ],
      [
        "eisia",
        -10.62950298766898
      ],
      [
        "modhn",
        -10.62975203042729
      ],
      [
        "Sola",
        -10.630283262687378
      ],
      [
        "béil",
        -10.632207061591602
      ],
      [
        "geall",
        -10.632312931883337
      ],
      [
        "Bardas",
        -10.632925183549784
      ],
      [
        "tweet",
        -10.633651195933359
      ],
      [
        "feidhmiúchá",
        -10.633967611068714
      ],
      [
        "hathru",
        -10.634208325890778
      ],
      [
        "Eolaíochta",
        -10.634781848047052
      ],
      [
        "chomhlán",
        -10.636534883737642
      ],
      [
        "chuspóir",
        -10.636570472559061
      ],
      [
        "soghluaiste",
        -10.636695865391053
      ],
      [
        "Parliament",
        -10.636795278745776
      ],
      [
        "Phoibl",
        -10.636795280173926
      ],
      [
        "freagairt",
        -10.636795449865051
      ],
      [
        "Acmhainn",
        -10.636801530499433
      ],
      [
        "Táirge",
        -10.636802579907723
      ],
      [
        "current",
        -10.636807063738093
      ],
      [
        "pláta",
        -10.636827680141351
      ],
      [
        "fulaing",
        -10.63683816750593
      ],
      [
        "snámha",
        -10.637113164046353
      ],
      [
        "aoisliúnta",
        -10.637255492800453
      ],
      [
        "breiseá",
        -10.63727549473021
      ],
      [
        "Limit",
        -10.63728870290651
      ],
      [
        "Ankara",
        -10.637353659364372
      ],
      [
        "sláintiú",
        -10.637356254184313
      ],
      [
        "Oibreacha",
        -10.637432416597903
      ],
      [
        "theorainn",
        -10.637575678294606
      ],
      [
        "IP",
        -10.637763210806234
      ],
      [
        "cáil",
        -10.637989898540368
      ],
      [
        "Fad",
        -10.638060134051486
      ],
      [
        "nternational",
        -10.638093250955201
      ],
      [
        "tasc",
        -10.638159922373074
      ],
      [
        "onnmhairiú",
        -10.638632214016488
      ],
      [
        "dorcha",
        -10.638795391849618
      ],
      [
        "díobháil",
        -10.638968930340464
      ],
      [
        "ow",
        -10.639316258059917
      ],
      [
        "toil",
        -10.639736026073333
      ],
      [
        "Dearbh",
        -10.639748362902987
      ],
      [
        "lampa",
        -10.639766019975164
      ],
      [
        "Slándá",
        -10.640029032889469
      ],
      [
        "eisiach",
        -10.640141370641064
      ],
      [
        "ionsaí",
        -10.640382793650556
      ],
      [
        "dhlíthe",
        -10.64081635535553
      ],
      [
        "tuairisciú",
        -10.641196739685437
      ],
      [
        "scaoilte",
        -10.641708283817305
      ],
      [
        "srian",
        -10.641872152781993
      ],
      [
        "ture",
        -10.64218599139306
      ],
      [
        "India",
        -10.642867880660777
      ],
      [
        "iom",
        -10.643570689463889
      ],
      [
        "leachta",
        -10.644117297105499
      ],
      [
        "chúl",
        -10.644387295882606
      ],
      [
        "gceangal",
        -10.645642060224969
      ],
      [
        "comhréir",
        -10.646884534951743
      ],
      [
        "bair",
        -10.647521853307548
      ],
      [
        "háite",
        -10.647996878672583
      ],
      [
        "slabhra",
        -10.648162274895693
      ],
      [
        "thoiliú",
        -10.648486378640543
      ],
      [
        "leaba",
        -10.649514161928835
      ],
      [
        "chonartha",
        -10.650576830189465
      ],
      [
        "morgáiste",
        -10.652472069310676
      ],
      [
        "caol",
        -10.654621403813591
      ],
      [
        "Leasu",
        -10.654992562378816
      ],
      [
        "sholáthróid",
        -10.655142717188376
      ],
      [
        "rannpháirt",
        -10.655187653140334
      ],
      [
        "taisce",
        -10.655338615143686
      ],
      [
        "deonaío",
        -10.655350928356992
      ],
      [
        "foghlaim",
        -10.656689016503574
      ],
      [
        "ke",
        -10.656692652925855
      ],
      [
        "Sheirbhís",
        -10.657628620853837
      ],
      [
        "Cosaint",
        -10.657632394493685
      ],
      [
        "dáileog",
        -10.657632735283753
      ],
      [
        "Mheith",
        -10.65779210749499
      ],
      [
        "irc",
        -10.657902071321658
      ],
      [
        "chóip",
        -10.657965359341429
      ],
      [
        "cal",
        -10.658267971517414
      ],
      [
        "mhainn",
        -10.65834773437273
      ],
      [
        "Andro",
        -10.658461259187979
      ],
      [
        "fheidhmíocht",
        -10.658483342490706
      ],
      [
        "togha",
        -10.658663921310966
      ],
      [
        "thrádála",
        -10.658848950735935
      ],
      [
        "ailse",
        -10.66003508306308
      ],
      [
        "teagaisc",
        -10.660246818027314
      ],
      [
        "feiste",
        -10.66037907284575
      ],
      [
        "aithne",
        -10.6603804891757
      ],
      [
        "EM",
        -10.66084224392137
      ],
      [
        "cósta",
        -10.6612099987226
      ],
      [
        "bain",
        -10.661475244388548
      ],
      [
        "beaga",
        -10.662396398526468
      ],
      [
        "naoi",
        -10.662502760516627
      ],
      [
        "earráid",
        -10.662637724320653
      ],
      [
        "folamh",
        -10.66299614329794
      ],
      [
        "bhéarfaid",
        -10.665485292004671
      ],
      [
        "gcinnea",
        -10.665561372204685
      ],
      [
        "neamhní",
        -10.666142584256411
      ],
      [
        "ríomhaireachta",
        -10.666593624205836
      ],
      [
        "93",
        -10.666783429234128
      ],
      [
        "Sonra",
        -10.666953653751719
      ],
      [
        "Dúin",
        -10.66709115207202
      ],
      [
        "76",
        -10.66727707856995
      ],
      [
        "chomhshao",
        -10.667325096722355
      ],
      [
        "tion",
        -10.667857918987727
      ],
      [
        "ful",
        -10.669173937116115
      ],
      [
        "saoránach",
        -10.669659281904124
      ],
      [
        "aireacht",
        -10.669783448058574
      ],
      [
        "Scil",
        -10.66990308816137
      ],
      [
        "ráchtál",
        -10.670360229233712
      ],
      [
        "dainge",
        -10.670908304487284
      ],
      [
        "feidhmíochta",
        -10.67153383968266
      ],
      [
        "chúrsaí",
        -10.671920800494837
      ],
      [
        "China",
        -10.67228680040995
      ],
      [
        "léirithe",
        -10.672618406512177
      ],
      [
        "51",
        -10.673556185658425
      ],
      [
        "foilsiú",
        -10.673743738853725
      ],
      [
        "huathoibríoch",
        -10.674256896299184
      ],
      [
        "sliú",
        -10.674357826152436
      ],
      [
        "féachan",
        -10.674601557234125
      ],
      [
        "tharmlig",
        -10.674925620432745
      ],
      [
        "choth",
        -10.675380860249476
      ],
      [
        "Sna",
        -10.675542588816278
      ],
      [
        "tap",
        -10.675621857003568
      ],
      [
        "gartha",
        -10.676318943457371
      ],
      [
        "scrúdu",
        -10.67636786669335
      ],
      [
        "eachín",
        -10.677132250281957
      ],
      [
        "cruthaío",
        -10.67742838879384
      ],
      [
        "aeir",
        -10.677632457573583
      ],
      [
        "tais",
        -10.678527579767314
      ],
      [
        "lotnaid",
        -10.678899582080923
      ],
      [
        "léarscáil",
        -10.678905550471619
      ],
      [
        "Public",
        -10.678905585683383
      ],
      [
        "Ioncu",
        -10.679023705794188
      ],
      [
        "uast",
        -10.679047253079938
      ],
      [
        "clasaiceach",
        -10.679096117678554
      ],
      [
        "Zhong",
        -10.679157195910767
      ],
      [
        "bhainistíocht",
        -10.679201726317103
      ],
      [
        "neamhdhleathach",
        -10.679267035527152
      ],
      [
        "Nóta",
        -10.679632911589275
      ],
      [
        "dheisiú",
        -10.679708764613196
      ],
      [
        "docht",
        -10.67971190188548
      ],
      [
        "iomarcach",
        -10.680076000903188
      ],
      [
        "hoibríochta",
        -10.680330042002176
      ],
      [
        "Dhia",
        -10.680350097691516
      ],
      [
        "cnaipe",
        -10.68077082374002
      ],
      [
        "liacht",
        -10.680806656671514
      ],
      [
        "TF",
        -10.681264233768497
      ],
      [
        "smaointe",
        -10.682441366907392
      ],
      [
        "esistant",
        -10.68265338563597
      ],
      [
        "Ríomh",
        -10.683623245504327
      ],
      [
        "oine",
        -10.683717188119644
      ],
      [
        "phearsa",
        -10.68399146656548
      ],
      [
        "phlandáil",
        -10.684985907931383
      ],
      [
        "Aisghair",
        -10.685465385702093
      ],
      [
        "chailín",
        -10.685603885523129
      ],
      [
        "ure",
        -10.685790965376743
      ],
      [
        "mall",
        -10.685835319834448
      ],
      [
        "charm",
        -10.686157207374126
      ],
      [
        "oibriúcháin",
        -10.686566117082938
      ],
      [
        "moill",
        -10.686946473912883
      ],
      [
        "No",
        -10.687656973513914
      ],
      [
        "Tras",
        -10.687911468836317
      ],
      [
        "déanach",
        -10.688149891683786
      ],
      [
        "gceadúna",
        -10.688215663065446
      ],
      [
        "iontair",
        -10.688648628900605
      ],
      [
        "feast",
        -10.689297066202457
      ],
      [
        "cirt",
        -10.690780167297817
      ],
      [
        "gníomhaireachta",
        -10.69086966599413
      ],
      [
        "cheapfa",
        -10.691123030628738
      ],
      [
        "oite",
        -10.69192304222242
      ],
      [
        "Aer",
[...]
