{
  "version": "1.0",
  "truncation": null,
  "padding": null,
  "added_tokens": [
    {
      "id": 1,
      "content": "[UNK]",
      "single_word": false,
      "lstrip": false,
      "rstrip": false,
      "normalized": false,
      "special": true
    },
    {
      "id": 2,
      "content": "[CLS]",
      "single_word": false,
      "lstrip": false,
      "rstrip": false,
      "normalized": false,
      "special": true
    },
    {
      "id": 3,
      "content": "[SEP]",
      "single_word": false,
      "lstrip": false,
      "rstrip": false,
      "normalized": false,
      "special": true
    },
    {
      "id": 4,
      "content": "[PAD]",
      "single_word": false,
      "lstrip": false,
      "rstrip": false,
      "normalized": false,
      "special": true
    },
    {
      "id": 5,
      "content": "[MASK]",
      "single_word": false,
      "lstrip": false,
      "rstrip": false,
      "normalized": false,
      "special": true
    }
  ],
  "normalizer": {
    "type": "NFKC"
  },
  "pre_tokenizer": {
    "type": "Whitespace"
  },
  "post_processor": null,
  "decoder": null,
  "model": {
    "type": "Unigram",
    "unk_id": 0,
    "vocab": [
      [
        "<unk>",
        0.0
      ],
      [
        "[UNK]",
        0.0
      ],
      [
        "[CLS]",
        0.0
      ],
      [
        "[SEP]",
        0.0
      ],
      [
        "[PAD]",
        0.0
      ],
      [
        "[MASK]",
        0.0
      ],
      [
        "a",
        -2.592977596566328
      ],
      [
        "n",
        -3.2634729325028644
      ],
      [
        ",",
        -3.5115854990100956
      ],
      [
        "an",
        -3.621545589120137
      ],
      [
        ".",
        -3.814796452089835
      ],
      [
        "s",
        -3.9152273215026696
      ],
      [
        "ar",
        -4.093423334328257
      ],
      [
        "agus",
        -4.096628170596356
      ],
      [
        "i",
        -4.198197056579495
      ],
      [
        "í",
        -4.201955583674378
      ],
      [
        "r",
        -4.41544168722595
      ],
      [
        ")",
        -4.42636002583194
      ],
      [
        "(",
        -4.428544762956729
      ],
      [
        "d",
        -4.457238450150532
      ],
      [
        "le",
        -4.567573668024286
      ],
      [
        "t",
        -4.620666498727481
      ],
      [
        "-",
        -4.630974181703261
      ],
      [
        "e",
        -4.795050545575281
      ],
      [
        "in",
        -4.85232255341006
      ],
      [
        "nó",
        -4.881760606034165
      ],
      [
        "h",
        -4.900358139242261
      ],
      [
        "go",
        -4.953445878771907
      ],
      [
        "is",
        -5.043822859903409
      ],
      [
        "dh",
        -5.07907795767669
      ],
      [
        "de",
        -5.16453948247821
      ],
      [
        "sin",
        -5.193572559467526
      ],
      [
        "do",
        -5.21218940891116
      ],
      [
        "seo",
        -5.357646821743568
      ],
      [
        "ag",
        -5.365491542979807
      ],
      [
        "b",
        -5.376295955435767
      ],
      [
        "g",
        -5.415729656892106
      ],
      [
        "ú",
        -5.426087601794778
      ],
      [
        "chun",
        -5.518114494573448
      ],
      [
        "il",
        -5.531446289089217
      ],
      [
        "l",
        -5.53774981826974
      ],
      [
        "leis",
        -5.553147116834445
      ],
      [
        "é",
        -5.553532604077802
      ],
      [
        "aon",
        -5.577349779563564
      ],
      [
        "ó",
        -5.5997844446926734
      ],
      [
        "o",
        -5.6237646292249845
      ],
      [
        "'",
        -5.6568054325079995
      ],
      [
        "m",
        -5.6723520161508265
      ],
      [
        "c",
        -5.715512359084645
      ],
      [
        ":",
        -5.727939912736952
      ],
      [
        "ithe",
        -5.7467523949250765
      ],
      [
        "den",
        -5.7741414870999925
      ],
      [
        "faoi",
        -5.788359746381987
      ],
      [
        "alt",
        -5.7968938314676155
      ],
      [
        "sé",
        -5.816569993893713
      ],
      [
        "f",
        -5.837740807186933
      ],
      [
        "idh",
        -5.887932828133362
      ],
      [
        "mar",
        -5.963807854037627
      ],
      [
        "ach",
        -5.978672387965551
      ],
      [
        "bhfuil",
        -5.984876236814262
      ],
      [
        "1",
        -6.0179140451121516
      ],
      [
        ";",
        -6.049957091006563
      ],
      [
        "atá",
        -6.115246952124229
      ],
      [
        "2",
        -6.166635429685295
      ],
      [
        "uine",
        -6.16734361952825
      ],
      [
        "Acht",
        -6.171759610024221
      ],
      [
        "igh",
        -6.182993329865809
      ],
      [
        "B",
        -6.185467038422042
      ],
      [
        "chur",
        -6.230174985690645
      ],
      [
        "\"",
        -6.246921892020783
      ],
      [
        "eile",
        -6.249905849026121
      ],
      [
        "ch",
        -6.261545991606198
      ],
      [
        "bheith",
        -6.272137427816537
      ],
      [
        "A",
        -6.314040636830427
      ],
      [
        "á",
        -6.330922628979257
      ],
      [
        "dhéanamh",
        -6.347768299289216
      ],
      [
        "dá",
        -6.363771212180122
      ],
      [
        "I",
        -6.367567848201345
      ],
      [
        "maidi",
        -6.403077150815308
      ],
      [
        "—",
        -6.428284985202071
      ],
      [
        "anna",
        -6.4456839523278955
      ],
      [
        "3",
        -6.451781465590251
      ],
      [
        "Tá",
        -6.455002681801146
      ],
      [
        "réir",
        -6.480941757771433
      ],
      [
        "nach",
        -6.489697119571636
      ],
      [
        "don",
        -6.501116360155249
      ],
      [
        "C",
        -6.517481987245349
      ],
      [
        "tear",
        -6.520556203044722
      ],
      [
        "tá",
        -6.530063782039202
      ],
      [
        "ina",
        -6.535522625746841
      ],
      [
        "An",
        -6.557785753537119
      ],
      [
        "san",
        -6.571155256026465
      ],
      [
        "gach",
        -6.585253552610695
      ],
      [
        "Is",
        -6.596055703830823
      ],
      [
        "lena",
        -6.599292766841656
      ],
      [
        "4",
        -6.638056928690356
      ],
      [
        "ná",
        -6.640062062993975
      ],
      [
        "eidh",
        -6.641317069442981
      ],
      [
        "/",
        -6.6601271242830435
      ],
      [
        "S",
        -6.671134990629753
      ],
      [
        "éidir",
        -6.6835419748488905
      ],
      [
        "íos",
        -6.69136387865769
      ],
      [
        "Aire",
        -6.739298293967964
      ],
      [
        "5",
        -6.771280331465337
      ],
      [
        "adh",
        -6.789948074415896
      ],
      [
        "T",
        -6.812232748934887
      ],
      [
        "gcás",
        -6.812555353491589
      ],
      [
        "eanna",
        -6.844440736984876
      ],
      [
        "trí",
        -6.850008647392852
      ],
      [
        "tú",
        -6.863817905988062
      ],
      [
        "D",
        -6.881096244242735
      ],
      [
        "faoin",
        -6.893266886758552
      ],
      [
        "mó",
        -6.8966761653233695
      ],
      [
        "éis",
        -6.909919164216443
      ],
      [
        "iad",
        -6.910517721246426
      ],
      [
        "mh",
        -6.910605060609861
      ],
      [
        "”",
        -6.91840571667942
      ],
      [
        "leith",
        -6.942549883429392
      ],
      [
        "ir",
        -6.950744097625682
      ],
      [
        "haghaidh",
        -6.95481267889127
      ],
      [
        "gur",
        -6.964865749495824
      ],
      [
        "um",
        -6.968877398832125
      ],
      [
        "“",
        -6.9725997517629
      ],
      [
        "lá",
        -6.980085995754801
      ],
      [
        "6",
        -6.980473649012518
      ],
      [
        "L",
        -6.983642052705619
      ],
      [
        "chuid",
        -6.985107469221115
      ],
      [
        "ann",
        -6.9866557261389195
      ],
      [
        "tar",
        -6.989186135840504
      ],
      [
        "mháin",
        -7.005469764056204
      ],
      [
        "thabhair",
        -7.0454248851625945
      ],
      [
        "Airteagal",
        -7.05194709102468
      ],
      [
        "úsáid",
        -7.058667450405067
      ],
      [
        "íonn",
        -7.070266131855917
      ],
      [
        "tha",
        -7.08223513791888
      ],
      [
        "ítear",
        -7.101691085547556
      ],
      [
        "roimh",
        -7.108707422044363
      ],
      [
        "idir",
        -7.109846260952361
      ],
      [
        "méid",
        -7.154971754701127
      ],
      [
        "isteach",
        -7.176506224889059
      ],
      [
        "]",
        -7.179477378161266
      ],
      [
        "amach",
        -7.180908459494994
      ],
      [
        "aoine",
        -7.181747811031843
      ],
      [
        "[",
        -7.183436472598423
      ],
      [
        "mbeid",
        -7.195135632713341
      ],
      [
        "Ní",
        -7.206477304140968
      ],
      [
        "siad",
        -7.21493640566502
      ],
      [
        "N",
        -7.216593302369109
      ],
      [
        "chuig",
        -7.224383418500943
      ],
      [
        "rud",
        -7.278443757419145
      ],
      [
        "’",
        -7.2812953481882605
      ],
      [
        "fáil",
        -7.283608757398584
      ],
      [
        "G",
        -7.300062610766218
      ],
      [
        "leana",
        -7.30014698230903
      ],
      [
        "áirithe",
        -7.3024793632824565
      ],
      [
        "9",
        -7.303009839887814
      ],
      [
        "tréimhse",
        -7.306511261631039
      ],
      [
        "má",
        -7.321009292115685
      ],
      [
        "p",
        -7.322604576956191
      ],
      [
        "bheid",
        -7.323383089926845
      ],
      [
        "arna",
        -7.339367762757228
      ],
      [
        "acu",
        -7.348052602374838
      ],
      [
        "féin",
        -7.351378782752028
      ],
      [
        "nua",
        -7.357496488224974
      ],
      [
        "8",
        -7.362224119108542
      ],
      [
        "7",
        -7.364131723553747
      ],
      [
        "bh",
        -7.3735800307548764
      ],
      [
        "Rialachá",
        -7.376128022454727
      ],
      [
        "uair",
        -7.376717997831149
      ],
      [
        "gan",
        -7.397708889016874
      ],
      [
        "heidh",
        -7.40572004706956
      ],
      [
        "fho",
        -7.408697402406426
      ],
      [
        "aithe",
        -7.41310108599706
      ],
      [
        "saor",
        -7.413175015790861
      ],
      [
        "eamh",
        -7.424230101174487
      ],
      [
        "fháil",
        -7.425472997854848
      ],
      [
        "bhí",
        -7.436414052252039
      ],
      [
        "Má",
        -7.447000086132238
      ],
      [
        "gá",
        -7.44846806532586
      ],
      [
        "mór",
        -7.455400674627666
      ],
      [
        "íoc",
        -7.470799953500109
      ],
      [
        "maith",
        -7.47226301679118
      ],
      [
        "ordú",
        -7.481406257637236
      ],
      [
        "air",
        -7.485742020413595
      ],
      [
        "údarás",
        -7.49059828571268
      ],
      [
        "EN",
        -7.5118702727109214
      ],
      [
        "sórt",
        -7.517123039533334
      ],
      [
        "aghaidh",
        -7.517406357961118
      ],
      [
        "fé",
        -7.51775710077156
      ],
      [
        "bhainean",
        -7.531254229078319
      ],
      [
        "u",
        -7.53451802688337
      ],
      [
        "áit",
        -7.5388603332512485
      ],
      [
        "F",
        -7.547093578006397
      ],
      [
        "sonraí",
        -7.5516041335594
      ],
      [
        "ceann",
        -7.556593798358788
      ],
      [
        "aisce",
        -7.557978904391834
      ],
      [
        "uithe",
        -7.562704938831336
      ],
      [
        "?",
        -7.563282144597632
      ],
      [
        "&",
        -7.566186309045124
      ],
      [
        "far",
        -7.566465944821227
      ],
      [
        "aige",
        -7.570329988784447
      ],
      [
        "P",
        -7.574275403124438
      ],
      [
        "linn",
        -7.584851192088126
      ],
      [
        "cur",
        -7.5855070690527855
      ],
      [
        "imh",
        -7.599031809595643
      ],
      [
        "dtí",
        -7.6011511419918785
      ],
      [
        "chomh",
        -7.604785290345644
      ],
      [
        "M",
        -7.605923841343198
      ],
      [
        "raibh",
        -7.606120892919271
      ],
      [
        "Ar",
        -7.619562559725606
      ],
      [
        "leat",
        -7.627440843905987
      ],
      [
        "más",
        -7.646228466586849
      ],
      [
        "aigh",
        -7.661875584464901
      ],
      [
        "bhfeidhm",
        -7.663021633218372
      ],
      [
        "dul",
        -7.694665481576323
      ],
      [
        "Uimh",
        -7.695713936463344
      ],
      [
        "200",
        -7.698410872218709
      ],
      [
        "10",
        -7.705323865571768
      ],
      [
        "líne",
        -7.706981062883674
      ],
      [
        "thar",
        -7.7140093052374
      ],
      [
        "nuair",
        -7.7156218934437995
      ],
      [
        "dáta",
        -7.7175988158244
      ],
      [
        "cheart",
        -7.720493627232234
      ],
      [
        "the",
        -7.725164811162507
      ],
      [
        "bhliain",
        -7.7316088523012505
      ],
      [
        "freisi",
        -7.735953705747396
      ],
      [
        "porn",
        -7.741519030352917
      ],
      [
        "20",
        -7.747607361263262
      ],
      [
        "seirbhís",
        -7.752580553151825
      ],
      [
        "ionad",
        -7.753943433344644
      ],
      [
        "baineann",
        -7.756566751367256
      ],
      [
        "imeachta",
        -7.76053307195814
      ],
      [
        "sna",
        -7.761668666723384
      ],
      [
        "ciallaíon",
        -7.766327959025593
      ],
      [
        "im",
        -7.77272386685457
      ],
      [
        "ábhar",
        -7.7754468899806435
      ],
      [
        "ndáil",
        -7.777022011367373
      ],
      [
        "iomlán",
        -7.782766347224409
      ],
      [
        "cháin",
        -7.789513419452624
      ],
      [
        "y",
        -7.790931916983435
      ],
      [
        "ibé",
        -7.793259851906031
      ],
      [
        "chéad",
        -7.802435532781219
      ],
      [
        "inneadh",
        -7.810592947797884
      ],
      [
        "mé",
        -7.818480325527185
      ],
      [
        "iarratas",
        -7.820076362276939
      ],
      [
        "tráth",
        -7.820132478912493
      ],
      [
        "amhlaid",
        -7.82110191275677
      ],
      [
        "te",
        -7.827001028418299
      ],
      [
        "dtagraí",
        -7.831081718171608
      ],
      [
        "féadfaid",
        -7.836192786082003
      ],
      [
        "0",
        -7.83769231333392
      ],
      [
        "iomchu",
        -7.837705280356041
      ],
      [
        "ailt",
        -7.840365633462961
      ],
      [
        "léir",
        -7.851112621662868
      ],
      [
        "fearr",
        -7.851503187213106
      ],
      [
        "náisiúnta",
        -7.859491164372089
      ],
      [
        "Coimisiún",
        -7.869105638523615
      ],
      [
        "déanfa",
        -7.87150038731086
      ],
      [
        "críocha",
        -7.871628986953584
      ],
      [
        "cha",
        -7.872653838360634
      ],
      [
        "E",
        -7.875335050783696
      ],
      [
        "bhfo",
        -7.8842346289675564
      ],
      [
        "deimhnithe",
        -7.884461421855773
      ],
      [
        "bliana",
        -7.888042568019291
      ],
      [
        "feidhm",
        -7.8889486920526535
      ],
      [
        "Le",
        -7.89161863694977
      ],
      [
        "feidhme",
        -7.899819285015504
      ],
      [
        "Ballstá",
        -7.900857007611856
      ],
      [
        "R",
        -7.901037847848763
      ],
      [
        "fo",
        -7.902415110984556
      ],
      [
        "cheann",
        -7.903942578916311
      ],
      [
        "áiríte",
        -7.915821678622542
      ],
      [
        "tiúir",
        -7.920701804568686
      ],
      [
        "mír",
        -7.921679670217139
      ],
      [
        "cuideachta",
        -7.925749301850462
      ],
      [
        "fear",
        -7.926327214699832
      ],
      [
        "Eorpach",
        -7.927042919742986
      ],
      [
        "dó",
        -7.929809271375813
      ],
      [
        "bhaint",
        -7.932288439160036
      ],
      [
        "hEorpa",
        -7.93274977835907
      ],
      [
        "roinnt",
        -7.933814069471486
      ],
      [
        "uas",
        -7.94416297656033
      ],
      [
        "bith",
        -7.952169514542165
      ],
      [
        "bearta",
        -7.958716301983315
      ],
      [
        "íodh",
        -7.971914047406537
      ],
      [
        "ing",
        -7.97708607165465
      ],
      [
        "fógra",
        -7.978536423313815
      ],
      [
        "éifeacht",
        -7.988034372191623
      ],
      [
        "feadh",
        -7.988679771996838
      ],
      [
        "Aontais",
        -7.989025026880611
      ],
      [
        "díreach",
        -7.990472719917428
      ],
      [
        "chéile",
        -7.99392048473006
      ],
      [
        "Cuntas",
        -8.014685705001192
      ],
      [
        "gh",
        -8.015723074010118
      ],
      [
        "duit",
        -8.01674231852677
      ],
      [
        "AE",
        -8.020088112666002
      ],
      [
        "mhéid",
        -8.020783305819624
      ],
      [
        "ár",
        -8.033458347455369
      ],
      [
        "bhun",
        -8.040000112782664
      ],
      [
        "Aonta",
        -8.0452476734118
      ],
      [
        "luach",
        -8.047617714748682
      ],
      [
        "19",
        -8.049334953494384
      ],
      [
        "@",
        -8.05211829006625
      ],
      [
        "láthair",
        -8.055353133150476
      ],
      [
        "eideal",
        -8.066804633176593
      ],
      [
        "on",
        -8.071820222865906
      ],
      [
        "rialachá",
        -8.072779699244666
      ],
      [
        "Déanfa",
        -8.083659242291564
      ],
      [
        "céanna",
        -8.093075510638698
      ],
      [
        "eadh",
        -8.100701718445952
      ],
      [
        "áireamh",
        -8.101105461171944
      ],
      [
        "Mar",
        -8.107818147013184
      ],
      [
        "oifig",
        -8.112594513397315
      ],
      [
        "síos",
        -8.121201264376825
      ],
      [
        "déanta",
        -8.12537245790508
      ],
      [
        "201",
        -8.126210255511753
      ],
      [
        "leor",
        -8.126799603394874
      ],
      [
        "cuid",
        -8.130240669366046
      ],
      [
        "Agus",
        -8.132775072225467
      ],
      [
        "12",
        -8.13605541562096
      ],
      [
        "uisce",
        -8.13632089020209
      ],
      [
        "Bord",
        -8.138674704098543
      ],
      [
        "iarraid",
        -8.142643504707987
      ],
      [
        "haon",
        -8.144227247857057
      ],
      [
        "istigh",
        -8.144233775461238
      ],
      [
        "Chun",
        -8.144753152287095
      ],
      [
        "líon",
        -8.145324219459013
      ],
      [
        "leo",
        -8.149627360941382
      ],
      [
        "Stát",
        -8.151885192573712
      ],
      [
        "15",
        -8.159148424716186
      ],
      [
        "dlí",
        -8.16105626853781
      ],
      [
        "dhá",
        -8.163968585822596
      ],
      [
        "cinn",
        -8.166830616180244
      ],
      [
        "mhí",
        -8.169454360992209
      ],
      [
        "airgead",
        -8.179296247366743
      ],
      [
        "coinníollach",
        -8.186456721264621
      ],
      [
        "oifigeach",
        -8.18746050240209
      ],
      [
        "mhír",
        -8.192918614072312
      ],
      [
        "iú",
        -8.201841645772216
      ],
      [
        "ndéanfa",
        -8.206798325009988
      ],
      [
        "éagsúla",
        -8.207279128076863
      ],
      [
        "áitiú",
        -8.207308015136036
      ],
      [
        "!",
        -8.208767453726699
      ],
      [
        "teacht",
        -8.210775871202054
      ],
      [
        "CE",
        -8.212075498754896
      ],
      [
        "gheall",
        -8.213993804579735
      ],
      [
        "éarla",
        -8.21904441286858
      ],
      [
        "ceart",
        -8.224034091667555
      ],
      [
        "gComhairle",
        -8.226277592556684
      ],
      [
        "–",
        -8.227372636190406
      ],
      [
        "Éireann",
        -8.228365946978817
      ],
      [
        "mura",
        -8.231267680673346
      ],
      [
        "dtaobh",
        -8.233884292907852
      ],
      [
        "Féadfai",
        -8.234501998978082
      ],
      [
        "chóir",
        -8.238667604293553
      ],
      [
        "gníomh",
        -8.240160459178394
      ],
      [
        "comhalta",
        -8.240335247911473
      ],
      [
        "ghlacadh",
        -8.241247024119364
      ],
      [
        "bhrí",
        -8.242961919313323
      ],
      [
        "obair",
        -8.243695369464316
      ],
      [
        "Airgeada",
        -8.245304965780228
      ],
      [
        "Ard",
        -8.259195241777977
      ],
      [
        "ainm",
        -8.261204525468722
      ],
      [
        "rialacha",
        -8.264364661354424
      ],
      [
        "úil",
        -8.269724946521952
      ],
      [
        "fad",
        -8.271442520220475
      ],
      [
        "airgeadai",
        -8.277656154084351
      ],
      [
        "dóibh",
        -8.278108300072049
      ],
      [
        "amp",
        -8.280052481597309
      ],
      [
        "eolas",
        -8.28025133544504
      ],
      [
        "beag",
        -8.280637979042805
      ],
      [
        "AN",
        -8.28913306973292
      ],
      [
        "fén",
        -8.304681732081907
      ],
      [
        "talamh",
        -8.31635629553829
      ],
      [
        "Údará",
        -8.320103865548042
      ],
      [
        "Féadfa",
        -8.32122232773726
      ],
      [
        "Faoi",
        -8.328549633084602
      ],
      [
        "cuí",
        -8.331366458742153
      ],
      [
        "ráta",
        -8.33370633533301
      ],
      [
        "Chomhairle",
        -8.336169397350176
      ],
      [
        "neamh",
        -8.337931515557678
      ],
      [
        "th",
        -8.340639282867857
      ],
      [
        "ionca",
        -8.342369561878652
      ],
      [
        "Ceist",
        -8.344270402284668
      ],
      [
        "Seo",
        -8.349446677408423
      ],
      [
        "aíonn",
        -8.351367873234214
      ],
      [
        "táirgí",
        -8.355566003570297
      ],
      [
        "niú",
        -8.355894421156812
      ],
      [
        "30",
        -8.362621694536974
      ],
      [
        "leas",
        -8.36343026339225
      ],
      [
        "scéim",
        -8.36644893006013
      ],
      [
        "mbea",
        -8.37081706146034
      ],
      [
        "eann",
        -8.3734059212831
      ],
      [
        "pé",
        -8.37803861129536
      ],
      [
        "gcomhréi",
        -8.38005174256303
      ],
      [
        "bhíonn",
        -8.383536380447556
      ],
      [
        "féadfa",
        -8.383661123118568
      ],
      [
        "rith",
        -8.386019480450026
      ],
      [
        "Fuaim",
        -8.389054746235498
      ],
      [
        "liain",
        -8.393395132615549
      ],
      [
        "iúil",
        -8.393887367242861
      ],
      [
        "chuideachta",
        -8.398322667182551
      ],
      [
        "Ach",
        -8.400836232881298
      ],
      [
        "11",
        -8.403224323686958
      ],
      [
        "Coimisinéir",
        -8.406191795036293
      ],
      [
        "físeá",
        -8.406404327664237
      ],
      [
        "Tuillea",
        -8.406934106585656
      ],
      [
        "193",
        -8.41063040225427
      ],
      [
        "cion",
        -8.41293701448993
      ],
      [
        "leibhéal",
        -8.414434277937985
      ],
      [
        "acha",
        -8.421557959172919
      ],
      [
        "éanamh",
        -8.425641665712192
      ],
      [
        "mo",
        -8.42624600504909
      ],
      [
        "199",
        -8.438840416517333
      ],
      [
        "tríd",
        -8.439097055653594
      ],
      [
        "for",
        -8.43932782098651
      ],
      [
        "iníoc",
        -8.439435211034441
      ],
      [
        "Sceideal",
        -8.44469862964707
      ],
      [
        "imid",
        -8.444983555246342
      ],
      [
        "%",
        -8.456401934307724
      ],
      [
        "of",
        -8.456475737611937
      ],
      [
        "tagairt",
        -8.46396367272041
      ],
      [
        "uile",
        -8.475768291636713
      ],
      [
        "Cé",
        -8.477760717551508
      ],
      [
        "chlár",
        -8.494318495542219
      ],
      [
        "orthu",
        -8.494982396934017
      ],
      [
        "18",
        -8.498684237788822
      ],
      [
        "Aon",
        -8.50045488826864
      ],
      [
        "chuir",
        -8.503536664552083
      ],
      [
        "Ag",
        -8.506615994226447
      ],
      [
        "athrú",
        -8.51206756939442
      ],
      [
        "cuirea",
        -8.512251406998534
      ],
      [
        "cé",
        -8.512340264780605
      ],
      [
        "réims",
        -8.51312691495223
      ],
      [
        "deara",
        -8.514567020423605
      ],
      [
        "gréasá",
        -8.51481259223368
      ],
      [
        "fianaise",
        -8.517934564418056
      ],
      [
        "gcuid",
        -8.518332397623322
      ],
      [
        "192",
        -8.520740158215428
      ],
      [
        "Pharlaimint",
        -8.522279376975119
      ],
      [
        "Chúirt",
        -8.529852227089766
      ],
      [
        "14",
        -8.532636025575785
      ],
      [
        "fhéadfadh",
        -8.534982802878309
      ],
      [
        "críche",
        -8.535952898017605
      ],
      [
        "slí",
        -8.537222773446757
      ],
      [
        "leasú",
        -8.542235123373999
      ],
      [
        "earra",
        -8.546650580372944
      ],
      [
        "dhéanfa",
        -8.551593497457066
      ],
      [
        "scríbhinn",
        -8.552221008784585
      ],
      [
        "lú",
        -8.553873246822702
      ],
      [
        "Comhairle",
        -8.554073865989928
      ],
      [
        "beid",
        -8.55589255145093
      ],
      [
        "clár",
        -8.557397523969701
      ],
      [
        "agat",
        -8.559263798512902
      ],
      [
        "deimhniú",
        -8.560777716919308
      ],
      [
        "baint",
        -8.56172950674598
      ],
      [
        "deirea",
        -8.562439521466434
      ],
      [
        "chomhalta",
        -8.562601227189841
      ],
      [
        "áil",
        -8.565222594484677
      ],
      [
        "faidh",
        -8.566466464687831
      ],
      [
        "monaróir",
        -8.568302127952238
      ],
      [
        "16",
        -8.57014162992222
      ],
      [
        "tSín",
        -8.570887525672145
      ],
      [
        "limisté",
        -8.571572309007962
      ],
      [
        "sholátha",
        -8.57235660534624
      ],
      [
        "speisialta",
        -8.576178166756296
      ],
      [
        "déana",
        -8.577548047455672
      ],
      [
        "196",
        -8.578157485430754
      ],
      [
        "O",
        -8.58112919759931
      ],
      [
        "bunaithe",
        -8.584611371722522
      ],
      [
        "aistriú",
        -8.585332136701766
      ],
      [
        "chloi",
        -8.589809625212055
      ],
      [
        "suim",
        -8.59028181166958
      ],
      [
        "mb",
        -8.59060296285153
      ],
      [
        "cánach",
        -8.591718846689028
      ],
      [
        "aois",
        -8.607313835556965
      ],
      [
        "iúl",
        -8.608509671035014
      ],
      [
        "197",
        -8.60926000071585
      ],
      [
        "Stáit",
        -8.60930168226488
      ],
      [
        "ceadúna",
        -8.61104527634464
      ],
      [
        "Choimisiú",
        -8.61197336707087
      ],
      [
        "táirge",
        -8.614523692560695
      ],
      [
        "mhaith",
        -8.616168033305838
      ],
      [
        "Chéad",
        -8.617523214025374
      ],
      [
        "taobh",
        -8.622043953883992
      ],
      [
        "Ã",
        -8.62669596084513
      ],
      [
        "láithreá",
        -8.634281265892817
      ],
      [
        "liosta",
        -8.637189825676547
      ],
      [
        "13",
        -8.637333563305795
      ],
      [
        "oiriúnach",
        -8.63766680211
      ],
      [
        "hiomlán",
        -8.638075465105935
      ],
      [
        "Ó",
        -8.639190624714729
      ],
      [
        "planda",
        -8.64290786554567
      ],
      [
        "fh",
        -8.644785485642071
      ],
      [
        "Eorpaigh",
        -8.646676141567546
      ],
      [
        "Ionca",
        -8.649084674070721
      ],
      [
        "chás",
        -8.65422373035155
      ],
      [
        "páirt",
        -8.659306903543591
      ],
      [
        "éachaint",
        -8.659600813439972
      ],
      [
        "Roimh",
        -8.660032106035652
      ],
      [
        "áitreabh",
        -8.660402902408162
      ],
      [
        "gcéad",
        -8.66058254734578
      ],
      [
        "cead",
        -8.661100572033082
      ],
      [
        "téarma",
        -8.662232081774949
      ],
      [
        "000",
        -8.662770684566153
      ],
      [
        "De",
        -8.663351172905973
      ],
      [
        "pearsanta",
        -8.664180634569487
      ],
      [
        "údará",
        -8.664900886663755
      ],
      [
        "foca",
        -8.669248209410672
      ],
      [
        "thug",
        -8.673384451523832
      ],
      [
        "rogha",
        -8.67534923544283
      ],
      [
        "suíomh",
        -8.677414647697006
      ],
      [
        "faisnéis",
        -8.679567644507568
      ],
      [
        "fiú",
        -8.680281973569848
      ],
      [
        "HD",
        -8.681071895733114
      ],
      [
        "forála",
        -8.68657248098246
      ],
      [
        "bhféadfa",
        -8.689121616050446
      ],
      [
        "24",
        -8.69229680220758
      ],
      [
        "mian",
        -8.700984046580626
      ],
      [
        "seirbhíse",
        -8.704110049547996
      ],
      [
        "oibre",
        -8.705889484127919
      ],
      [
        "amhail",
        -8.70623801146165
      ],
      [
        "‘",
        -8.707378942999071
      ],
      [
        "ACHT",
        -8.708034696342782
      ],
      [
        "gníomhaíochta",
        -8.712065320427456
      ],
      [
        "ábhartha",
        -8.71235904117877
      ],
      [
        "nár",
        -8.712958368950806
      ],
      [
        "ileamh",
        -8.723089752940975
      ],
      [
        "tras",
        -8.724053941890874
      ],
      [
        "2017",
        -8.724222390289942
      ],
      [
        "Bhí",
        -8.726498273821832
      ],
      [
        "córas",
        -8.727432597945475
      ],
      [
        "25",
        -8.728645595478824
      ],
      [
        "íocaíocht",
        -8.729092500915534
      ],
      [
        "laist",
        -8.729997046205003
      ],
      [
        "ndia",
        -8.733094039058972
      ],
      [
        "huaire",
        -8.734997059904805
      ],
      [
        "comhlacht",
        -8.735154801057325
      ],
      [
        "muid",
        -8.735296481339425
      ],
      [
        "fu",
        -8.736711397403969
      ],
      [
        "súil",
        -8.736855660584336
      ],
      [
        "leagan",
        -8.736962659940097
      ],
      [
        "V",
        -8.73821467036682
      ],
      [
        "fhonn",
        -8.742033465477054
      ],
      [
        "orthaí",
        -8.742067400687745
      ],
      [
        "UID",
        -8.743335657452683
      ],
      [
        "chomhlíona",
        -8.745539657824427
      ],
      [
        "dháta",
        -8.746709444066484
      ],
      [
        "poiblí",
        -8.747276550473998
      ],
      [
        "fás",
        -8.747941350405348
      ],
      [
        "scríobh",
        -8.750032205709669
      ],
      [
        "2016",
        -8.752836605287037
      ],
      [
        "ndearna",
        -8.75633272751438
      ],
      [
        "Go",
        -8.757221464874283
      ],
      [
        "iompar",
        -8.757498674998597
      ],
      [
        "rinne",
        -8.759548607047975
      ],
      [
        "fhaisnéis",
        -8.760576963710989
      ],
      [
        "forál",
        -8.763105331386075
      ],
      [
        "rialú",
        -8.76442566474907
      ],
      [
        "eacha",
        -8.764914974706645
      ],
      [
        "cluichí",
        -8.766915749891366
      ],
      [
        "ríomh",
        -8.768647903057511
      ],
      [
        "Oifig",
        -8.770649368726996
      ],
      [
        "gurb",
        -8.772668031086013
      ],
      [
        "onair",
        -8.774041976697202
      ],
      [
        "éanann",
        -8.775215491612421
      ],
      [
        "bhea",
        -8.777434206539347
      ],
      [
        "inearálta",
        -8.78041148088489
      ],
      [
        "measfa",
        -8.782173634394578
      ],
      [
        "dóigh",
        -8.783722793376672
      ],
      [
        "cluich",
        -8.78381581950492
      ],
      [
        "laghdú",
        -8.784283935464298
      ],
      [
        "dochar",
        -8.787917704835511
      ],
      [
        "H",
        -8.791400808525212
      ],
      [
        "hAcht",
        -8.792818504780364
      ],
      [
        "nois",
        -8.795565442196407
      ],
      [
        "chosaint",
        -8.796898401511442
      ],
      [
        "togra",
        -8.798004241844218
      ],
      [
        "ghaidh",
        -8.798656857742177
      ],
      [
        "gceist",
        -8.800075950123777
      ],
      [
        "II",
        -8.80041924906417
      ],
      [
        "áirithi",
        -8.80386771893861
      ],
      [
        "Treoir",
        -8.805231089449247
      ],
      [
        "fásta",
        -8.806389299412338
      ],
      [
        "2018",
        -8.808083641490278
      ],
      [
        "17",
        -8.80933299656716
      ],
      [
        "cúram",
        -8.810090344997851
      ],
      [
        "fó",
        -8.812382974804272
      ],
      [
        "chaighdeán",
        -8.8141509201999
      ],
      [
        "léi",
        -8.815778020783181
      ],
      [
        "toiliú",
        -8.818047086070672
      ],
      [
        "chineál",
        -8.820438734621113
      ],
      [
        "trádála",
        -8.82184382721817
      ],
      [
        "gcónaí",
        -8.822562331361535
      ],
      [
        "NA",
        -8.826353096439096
      ],
      [
        "Phríomh",
        -8.830236210484747
      ],
      [
        "dhéanta",
        -8.830612370895315
      ],
      [
        "ghnáth",
        -8.832057125645294
      ],
      [
        "Chuid",
        -8.833299741988856
      ],
      [
        "Fómha",
        -8.833411040228768
      ],
      [
        "onraithe",
        -8.833469963922123
      ],
      [
        "cad",
        -8.834239676690903
      ],
      [
        "chinneadh",
        -8.836543145011934
      ],
      [
        "sláinte",
        -8.84127598805818
      ],
      [
        "cás",
        -8.84151424357768
      ],
      [
        "shonraí",
        -8.843812998146248
      ],
      [
        "cosú",
        -8.845492065216968
      ],
      [
        "cineál",
        -8.845871596306118
      ],
      [
        "gcoinne",
        -8.849865485505937
      ],
      [
        "eachas",
        -8.850722591590856
      ],
      [
        "mí",
        -8.85073152126727
      ],
      [
        "cheana",
        -8.853600453765079
      ],
      [
        "Maidir",
        -8.854883703429302
      ],
      [
        "Roinn",
        -8.855062538581734
      ],
      [
        "oilsiú",
        -8.857044779144228
      ],
      [
        "Gaeilge",
        -8.860594012098396
      ],
      [
        "Twitter",
        -8.861278858609442
      ],
      [
        "éasca",
        -8.865609657202928
      ],
      [
        "bia",
        -8.865812020273026
      ],
      [
        "dhíol",
        -8.86609092128781
      ],
      [
        "álta",
        -8.867337618025143
      ],
      [
        "fhorbairt",
        -8.8687220180611
      ],
      [
        "reatha",
        -8.871212903048074
      ],
      [
        "bhrái",
        -8.874247423332239
      ],
      [
        "téarmaí",
        -8.877422118166319
      ],
      [
        "lagha",
        -8.878588572346217
      ],
      [
        "bhunú",
        -8.879105659742029
      ],
      [
        "Achta",
        -8.884415192706044
      ],
      [
        "bhonn",
        -8.884611754324826
      ],
      [
        "aird",
        -8.884916608553741
      ],
      [
        "abhair",
        -8.884947545148954
      ],
      [
        "ainneoi",
        -8.885770370624172
      ],
      [
        "2013",
        -8.892166307081197
      ],
      [
        "Baile",
        -8.892303408816101
      ],
      [
        "shin",
        -8.89249850313059
      ],
      [
        "Leasú",
        -8.895152561147409
      ],
      [
        "ochair",
        -8.895200721523373
      ],
      [
        "tuarascá",
        -8.895801168252127
      ],
      [
        "Níl",
        -8.897931710710328
      ],
      [
        "gnó",
        -8.903878777621477
      ],
      [
        "comhréir",
        -8.908507249505252
      ],
      [
        "ionann",
        -8.908581965328874
      ],
      [
        "gcomhairle",
        -8.908846506113937
      ],
      [
        "ráitea",
        -8.909430744056841
      ],
      [
        "oibriú",
        -8.911120897909102
      ],
      [
        "Cad",
        -8.912840817347334
      ],
      [
        "údar",
        -8.913368389517633
      ],
      [
        "comhaont",
        -8.916180186487418
      ],
      [
        "agtha",
        -8.91705272846317
      ],
      [
        "cuir",
        -8.920888960517479
      ],
      [
        "sheola",
        -8.924226568947471
      ],
      [
        "cláraithe",
        -8.925016902322298
      ],
      [
        "liom",
        -8.926828171734364
      ],
      [
        "forbairt",
        -8.927128558011992
      ],
      [
        "194",
        -8.927769426842826
      ],
      [
        "íocaíochta",
        -8.929791788921172
      ],
      [
        "déanfaid",
        -8.930059399057047
      ],
      [
        "21",
        -8.93147654048166
      ],
      [
        "dhiai",
        -8.931779814573494
      ],
      [
        "fíor",
        -8.931883574287419
      ],
      [
        "cúis",
        -8.933409075669552
      ],
      [
        "amh",
        -8.933924023366735
      ],
      [
        "bun",
        -8.938868220786844
      ],
      [
        "195",
        -8.942584489293589
      ],
      [
        "26",
        -8.944728026160792
      ],
      [
        "‐",
        -8.946198359364452
      ],
      [
        "doiciméad",
        -8.946222631529858
      ],
      [
        "artha",
        -8.948955451320014
      ],
      [
        "bláth",
        -8.95012260941759
      ],
      [
        "úsáide",
        -8.953150974760227
      ],
      [
        "cúig",
        -8.953304939381084
      ],
      [
        "riachtanach",
        -8.953385057404894
      ],
      [
        "The",
        -8.95394992114801
      ],
      [
        "ion",
        -8.954613788456317
      ],
      [
        "cuirfid",
        -8.955154696317642
      ],
      [
        "láithreach",
        -8.95931672945272
      ],
      [
        "mhór",
        -8.959360023816178
      ],
      [
        "31",
        -8.961735958159194
      ],
      [
        "k",
        -8.962183747059974
      ],
      [
        "Seirbhís",
        -8.96294984112528
      ],
      [
        "seacha",
        -8.966202113580712
      ],
      [
        "2012",
        -8.967130429995292
      ],
      [
        "Coiste",
        -8.971955639688137
      ],
      [
        "100",
        -8.97199774684907
      ],
      [
        "dúin",
        -8.972702239444162
      ],
      [
        "gcion",
        -8.97270825066639
      ],
      [
        "chumhacht",
        -8.972752475367361
      ],
      [
        "costais",
        -8.974477446646063
      ],
      [
        "rochtain",
        -8.974984148396747
      ],
      [
        "dtugta",
        -8.975510869334585
      ],
      [
        "Léim",
        -8.977746727586801
      ],
      [
        "thaobh",
        -8.977907518336206
      ],
      [
        "fhógra",
        -8.97853496979965
      ],
      [
        "Nua",
        -8.978958213150456
      ],
      [
        "Náisiúnta",
        -8.981269928743057
      ],
      [
        "caighdeán",
        -8.983760984133147
      ],
      [
        "U",
        -8.98528473320119
      ],
      [
        "Cluich",
        -8.985501253858493
      ],
      [
        "ama",
        -8.988483248369008
      ],
      [
        "fheidhmiú",
        -8.988777942676991
      ],
      [
        "soláthar",
        -8.989512519482187
      ],
      [
        "leasa",
        -8.991249570471222
      ],
      [
        "chéanna",
        -8.993379134703194
      ],
      [
        "measc",
        -8.995390922973836
      ],
      [
        "eas",
        -8.997763586321607
      ],
      [
        "luaite",
        -8.998342363417969
      ],
      [
        "Leasa",
        -8.998351464992538
      ],
      [
        "lae",
        -8.998762309372534
      ],
      [
        "irgid",
        -8.99964587812222
      ],
      [
        "Dé",
        -8.999917379011993
      ],
      [
        "tacaíocht",
        -9.000027240591333
      ],
      [
        "tuairim",
        -9.001167377575676
      ],
      [
        "sásta",
        -9.001419750815966
      ],
      [
        "achomharc",
        -9.00172554154637
      ],
      [
        "22",
        -9.002789926978448
      ],
      [
        "shampla",
        -9.005147468585614
      ],
      [
        "Uimhir",
        -9.00565912142369
      ],
      [
        "athair",
        -9.006295920064126
      ],
      [
        "rátaí",
        -9.006569193378326
      ],
      [
        "leanbh",
        -9.00741953209543
      ],
      [
        "choimeád",
        -9.011560383047247
      ],
      [
        "dara",
        -9.012034308423807
      ],
      [
        "uaithe",
        -9.014127559946374
      ],
      [
        "faisnéise",
        -9.014296777945038
      ],
      [
        "scaire",
        -9.015073635232955
      ],
      [
        "praghas",
        -9.016364727944495
      ],
      [
        "tuga",
        -9.017113828714802
      ],
      [
        "Act",
        -9.019241896671687
      ],
      [
        "airde",
        -9.020454989718898
      ],
      [
        "Cuir",
        -9.020862776514637
      ],
      [
        "íoslódáil",
        -9.022465456571172
      ],
      [
        "bhua",
        -9.022945466836074
      ],
      [
        "leagt",
        -9.02308509864383
      ],
      [
        "oisc",
        -9.024951031624237
      ],
      [
        "dath",
        -9.026757867854819
      ],
      [
        "scoth",
        -9.027136094264524
      ],
      [
        "inne",
        -9.029175792568967
      ],
      [
        "breise",
        -9.030914541568155
      ],
      [
        "cheangal",
        -9.033027179134075
      ],
      [
        "kar",
        -9.033185496236005
      ],
      [
        "cruach",
        -9.034402593980003
      ],
      [
        "50",
        -9.03473163326902
      ],
      [
        "againn",
        -9.036367536079982
      ],
      [
        "leathan",
        -9.036622070388244
      ],
      [
        "comhair",
        -9.037290454082642
      ],
      [
        "Aibreá",
        -9.039024267267557
      ],
      [
        "ghabh",
        -9.04087552706986
      ],
      [
        "chlárú",
        -9.04246429791753
      ],
      [
        "cheannach",
        -9.044649113372541
      ],
      [
        "cib",
        -9.04494814952016
      ],
      [
        "aothair",
        -9.048088466300138
      ],
      [
        "modh",
        -9.048565656172201
      ],
      [
        "barr",
        -9.048644086622495
      ],
      [
        "uíonn",
        -9.049696069266332
      ],
      [
        "GUS",
        -9.050526581786864
      ],
      [
        "tharla",
        -9.053176643970103
      ],
      [
        "nío",
        -9.053948614098703
      ],
      [
        "éigin",
        -9.05727770603582
      ],
      [
        "fhios",
        -9.059498948703741
      ],
      [
        "iasc",
        -9.06026675502017
      ],
      [
        "iompai",
        -9.060550039768227
      ],
      [
        "eisiúint",
        -9.060861109520154
      ],
      [
        "liúnta",
        -9.06272649567022
      ],
      [
        "sula",
        -9.06331074413846
      ],
      [
        "seilbh",
        -9.069056437700851
      ],
      [
        "oinneáil",
        -9.06912178365921
      ],
      [
        "mhonarcha",
        -9.06913925116486
      ],
      [
        "saol",
        -9.070430789017305
      ],
      [
        "tioncha",
        -9.071817028114182
      ],
      [
        "ath",
        -9.071982470331392
      ],
      [
        "siúl",
        -9.073448027400016
      ],
      [
        "lasmui",
        -9.073454708948166
      ],
      [
        "comh",
        -9.076020057451645
      ],
      [
        "Oireachta",
        -9.077808610381222
      ],
      [
        "uimhir",
        -9.077816016068082
      ],
      [
        "tír",
        -9.079795792473616
      ],
      [
        "stiúrthóir",
        -9.083175031797921
      ],
      [
        "faid",
        -9.08435773203405
      ],
      [
        "dhéanfaid",
        -9.085324335967574
      ],
      [
        "scrío",
        -9.085565413694226
      ],
      [
        "díol",
        -9.086842217998957
      ],
      [
        "thora",
        -9.088722731503362
      ],
      [
        "Cona",
        -9.091054770304591
      ],
      [
        "insean",
        -9.091261675296325
      ],
      [
        "28",
        -9.09167395613606
      ],
      [
        "Do",
        -9.09226706102689
      ],
      [
        "cáin",
        -9.095440191507455
      ],
      [
        "damáist",
        -9.095634973039447
      ],
      [
        "nádúrtha",
        -9.095724299811682
      ],
      [
        "lucht",
        -9.096794391348016
      ],
      [
        "lán",
        -9.098872387914735
      ],
      [
        "bán",
        -9.099075633144693
      ],
      [
        "each",
        -9.099646601079577
      ],
      [
        "cosanta",
        -9.100823611193825
      ],
      [
        "27",
        -9.101059800205164
      ],
      [
        "domhain",
        -9.101303319527148
      ],
      [
        "cóip",
        -9.103835344111108
      ],
      [
        "ciontach",
        -9.104980791499546
      ],
      [
        "us",
        -9.107194900802252
      ],
      [
        "hord",
        -9.107935097082649
      ],
      [
        "eiridh",
        -9.108959059431005
      ],
      [
        "daoin",
        -9.109099728814954
      ],
      [
        "tionscada",
        -9.109782717723892
      ],
      [
        "roghnú",
        -9.110293666623111
      ],
      [
        "iarratais",
        -9.110852748378406
      ],
      [
        "grúpa",
        -9.112104316228805
      ],
      [
        "siú",
        -9.11219258259803
      ],
      [
        "bhéal",
        -9.11280772500039
      ],
      [
        "iontach",
        -9.114805336450766
      ],
      [
        "imir",
        -9.116107393143427
      ],
      [
        "chúis",
        -9.11727446315184
      ],
      [
        "talún",
        -9.118492565191495
      ],
      [
        "teorainn",
        -9.120462271856852
      ],
      [
        "hosm",
        -9.121149881771906
      ],
      [
        "chu",
        -9.12163426173303
      ],
      [
        "chruthú",
        -9.124393232141351
      ],
      [
        "ola",
        -9.127702295643628
      ],
      [
        "Author",
        -9.130228794246914
      ],
      [
        "Parlaimint",
        -9.130301260560318
      ],
      [
        "luath",
        -9.133985330604887
      ],
      [
        "Tweet",
        -9.136656299869205
      ],
      [
        "bliantú",
        -9.138966705203488
      ],
      [
        "riachtanais",
        -9.139103883886687
      ],
      [
        "áin",
        -9.13941821553479
      ],
      [
        "leanúint",
        -9.141440628045359
      ],
      [
        "abairt",
        -9.143250677170224
      ],
      [
        "aici",
        -9.144133674957
      ],
      [
        "bheadh",
        -9.147444995160635
      ],
      [
        "23",
        -9.150353080567562
      ],
      [
        "sonrach",
        -9.151293196044303
      ],
      [
        "2011",
        -9.151786400677464
      ],
      [
        "tús",
        -9.15253188093633
      ],
      [
        "leath",
        -9.153926097652342
      ],
      [
        "dheon",
        -9.155295907427014
      ],
      [
        "margadh",
        -9.155886614312397
      ],
      [
        "Chiste",
        -9.155991194798279
      ],
      [
        "tabhairt",
        -9.157417712660198
      ],
      [
        "riarachá",
        -9.158638979898189
      ],
      [
        "Corporat",
        -9.160083030252057
      ],
      [
        "Áitiú",
        -9.160308302323031
      ],
      [
        "choiste",
        -9.16145197132371
      ],
      [
        "Eanáir",
        -9.165066327788153
      ],
      [
        "grianghraf",
        -9.172516927313357
      ],
      [
        "Co",
        -9.173187240923262
      ],
      [
        "cona",
        -9.174807424729941
      ],
      [
        "cheapad",
        -9.174967389331773
      ],
      [
        "cuntais",
        -9.177707210724698
      ],
      [
        "III",
        -9.179783315594104
      ],
      [
        "minic",
        -9.183072129662726
      ],
      [
        "úsáideoir",
        -9.184915711686086
      ],
      [
        "úinéir",
        -9.186519213321438
      ],
      [
        "réasúnach",
        -9.187826759560838
      ],
      [
        "teach",
        -9.18915186819055
      ],
      [
        "iarnró",
        -9.189567572967556
      ],
      [
        "hoird",
        -9.18959188582839
      ],
      [
        "Tar",
        -9.18986762455793
      ],
      [
        "freagrach",
        -9.190328153051123
      ],
      [
        "cuspóir",
        -9.192705495496888
      ],
      [
        "ansin",
        -9.193056189693692
      ],
      [
        "aistrithe",
        -9.19690154792388
      ],
      [
        "sócmhainn",
        -9.197698746767099
      ],
      [
        "cuirfea",
        -9.198187861441635
      ],
      [
        "ábhair",
        -9.198195363524095
      ],
      [
        "mhéadú",
        -9.198793293674495
      ],
      [
        "feidhmeanna",
        -9.199284713204518
      ],
      [
        "costas",
        -9.19930119993797
      ],
      [
        "seach",
        -9.200262921430266
      ],
      [
        "íneáil",
        -9.200413864433344
      ],
      [
        "cumhacht",
        -9.201000839770625
      ],
      [
        "fhoráil",
        -9.204288260174799
      ],
      [
        "29",
        -9.205110007743981
      ],
      [
        "tábhachtach",
        -9.20562591487107
      ],
      [
        "léiriú",
        -9.206305024112023
      ],
      [
        "Cánach",
        -9.209204740601532
      ],
      [
        "DO",
        -9.210513025836093
      ],
      [
        "ghairm",
        -9.211577608292387
      ],
      [
        "hordú",
        -9.213086086348893
      ],
      [
        "iméad",
        -9.214318284584504
      ],
      [
        "láimh",
        -9.215164243244292
      ],
      [
        "San",
        -9.220725661395164
      ],
      [
        "gcrích",
        -9.22258246464018
      ],
      [
        "tháinig",
        -9.226418175617756
      ],
      [
        "úsáidte",
        -9.230663723039342
      ],
      [
        "rialta",
        -9.234358738738326
      ],
      [
        "bhfoirm",
        -9.235282312004454
      ],
      [
        "íseal",
        -9.235452966220155
      ],
      [
        "léas",
        -9.23561273801391
      ],
      [
        "feidhmiú",
        -9.23840611599447
      ],
      [
        "ordu",
        -9.240703084449027
      ],
      [
        "bharr",
        -9.240784307407182
      ],
      [
        "taighde",
        -9.24109453037028
      ],
      [
        "nasc",
        -9.241204775574305
      ],
      [
        "cáilíochta",
        -9.242371625865529
      ],
      [
        "príomh",
        -9.244855005523867
      ],
      [
        "íortha",
        -9.245100857462734
      ],
      [
        "Féach",
        -9.246147345618738
      ],
      [
        "dubh",
        -9.246547385221595
      ],
      [
        "dtaca",
        -9.246572841837551
      ],
      [
        "treala",
        -9.248546997548454
      ],
      [
        "iasacht",
        -9.249767946595298
      ],
      [
        "198",
        -9.249809016284111
      ],
      [
        "mhalairt",
        -9.250070517150519
      ],
      [
        "ullmhú",
        -9.252721146600079
      ],
      [
        "ocht",
        -9.253765873061969
      ],
      [
        "Bill",
        -9.253857297379902
      ],
      [
        "doiciméid",
        -9.25423342645255
      ],
      [
        "etc",
        -9.254515785495597
      ],
      [
        "cosaint",
        -9.255324676810636
      ],
      [
        "cúna",
        -9.255404660898822
      ],
      [
        "deimh",
        -9.256828941342429
      ],
      [
        "dtabharfa",
        -9.259116528177945
      ],
      [
        "éadrom",
        -9.260576236269843
      ],
      [
        "hlí",
        -9.261016606117451
      ],
      [
        "mBallstá",
        -9.26157654791053
      ],
      [
        "chúirt",
        -9.264390254601143
      ],
      [
        "comhairle",
        -9.26521286700319
      ],
      [
        "seachtain",
        -9.26594695720783
      ],
      [
        "Bhallstá",
        -9.267350342555032
      ],
      [
        "cothrom",
        -9.268477709870687
      ],
      [
        "scaoileadh",
        -9.27210211480833
      ],
      [
        "céim",
        -9.274991468460346
      ],
      [
        "dleacht",
        -9.275315730606172
      ],
      [
        "haoine",
        -9.275445640628282
      ],
      [
        "bord",
        -9.276001574013126
      ],
      [
        "tapa",
        -9.27679572570499
      ],
      [
        "abháil",
        -9.27700541804655
      ],
      [
        "ghabha",
        -9.277023427130295
      ],
      [
        "anseo",
        -9.279146916652987
      ],
      [
        "cearta",
        -9.280382953239185
      ],
      [
        "tuillea",
        -9.283101225277342
      ],
      [
        "infheidhme",
        -9.28367434761179
      ],
      [
        "údara",
        -9.286502838990364
      ],
      [
        "bainistíocht",
        -9.287422462205587
      ],
      [
        "riosca",
        -9.287759970235513
      ],
      [
        "chiont",
        -9.28925577753489
      ],
      [
        "scrúdú",
        -9.289978662858399
      ],
      [
        "ort",
        -9.290559532822304
      ],
      [
        "gcuideachta",
        -9.290572724932236
      ],
      [
        "Tag",
        -9.29059661008084
      ],
      [
        "ainmnithe",
        -9.291403662785482
      ],
      [
        "díobh",
        -9.294899214744081
      ],
      [
        "úirt",
        -9.295601282270521
      ],
      [
        "chumas",
        -9.296262281975904
      ],
      [
        "Porn",
        -9.296321292649132
      ],
      [
        "páirtí",
        -9.296418462925228
      ],
      [
        "able",
        -9.298253762272795
      ],
      [
        "córa",
        -9.301205002445757
      ],
      [
        "che",
        -9.301599086034638
      ],
      [
        "cinnte",
        -9.303209220976198
      ],
      [
        "sanna",
        -9.303426825452604
      ],
      [
        "ball",
        -9.304249388619905
      ],
      [
        "eiceáil",
        -9.306159950214234
      ],
      [
        "rún",
        -9.306501813027193
      ],
      [
        "tástála",
        -9.309298657376939
      ],
      [
        "soiléir",
        -9.309351524467177
      ],
      [
        "osach",
        -9.310678046209153
      ],
      [
        "ionstraim",
        -9.310735177877028
      ],
      [
        "mhaoin",
        -9.31280398410213
      ],
      [
        "fhéadfa",
        -9.313813026753866
      ],
      [
        "Product",
        -9.314779180996453
      ],
      [
        "Cliath",
        -9.314964851452018
      ],
      [
        "páirteach",
        -9.315220891291286
      ],
      [
        "maoin",
        -9.315419393049293
      ],
      [
        "taithí",
        -9.316298497390846
      ],
      [
        "ithre",
        -9.31819470923418
      ],
      [
        "Éirinn",
        -9.320366017287444
      ],
      [
        "comhlachta",
        -9.321306164777438
      ],
      [
        "éiteach",
        -9.321444422203989
      ],
      [
        "eithre",
        -9.321633090403461
      ],
      [
        "siar",
        -9.323544976831553
      ],
      [
        "aisíoc",
        -9.324171430726935
      ],
      [
        "Rialtais",
        -9.326222132040066
      ],
      [
        "breith",
        -9.327706453265849
      ],
      [
        "Iarscríbhinn",
        -9.331437272503063
      ],
      [
        "shocr",
        -9.331922096153274
      ],
      [
        "v",
        -9.332425543496543
      ],
      [
        "ollaig",
        -9.332593255098516
      ],
      [
        "forbartha",
        -9.333592610926374
      ],
      [
        "ligean",
        -9.334966114852284
      ],
      [
        "oibreacha",
        -9.336582184360845
      ],
      [
        "Cuirea",
        -9.3380400773356
      ],
      [
        "údarú",
        -9.339136871478221
      ],
      [
        "Cuarda",
        -9.339139968283412
      ],
      [
        "gnáth",
        -9.339184818151136
      ],
      [
        "iarratasóir",
        -9.340179474853155
      ],
      [
        "oibleagáid",
        -9.343094964269085
      ],
      [
        "phoiblí",
        -9.343647189756872
      ],
      [
        "bhfad",
        -9.345113850390863
      ],
      [
        "oifige",
        -9.345225304969418
      ],
      [
        "Meán",
        -9.34588961261219
      ],
      [
        "Ú",
        -9.346106625113975
      ],
      [
        "ceanglai",
        -9.346406057498259
      ],
      [
        "oideachais",
        -9.347255356512456
      ],
      [
        "athbhreithniú",
        -9.349388634051948
      ],
      [
        "bhforáil",
        -9.349491444714516
      ],
      [
        "Ch",
        -9.35032952438327
      ],
      [
        "críoch",
        -9.35226331035942
      ],
      [
        "óir",
        -9.353174944811343
      ],
      [
        "húdará",
        -9.35394310220432
      ],
      [
        "seomra",
        -9.354843222459328
      ],
      [
        "mba",
        -9.355932978832271
      ],
      [
        "gCoimisiú",
        -9.358224024126926
      ],
      [
        "ham",
        -9.359384958472749
      ],
      [
        "Sláinte",
        -9.360726725504943
      ],
      [
        "Líne",
        -9.360907708158052
      ],
      [
        "lorg",
        -9.361335941805741
      ],
      [
        "thaga",
        -9.36143090465026
      ],
      [
        "seolad",
        -9.362408415738116
      ],
      [
        "freastal",
        -9.364325685723083
      ],
      [
        "muirear",
        -9.364507540813634
      ],
      [
        "Ord",
        -9.365457427634787
      ],
      [
        "rádáil",
        -9.367624048638014
      ],
      [
        "z",
        -9.368229023086853
      ],
      [
        "éinn",
        -9.3689198005563
      ],
      [
        "feist",
        -9.369199374483586
      ],
      [
        "íocfa",
        -9.37010858743687
      ],
      [
        "choinníoll",
        -9.372014276734767
      ],
      [
        "próiseas",
        -9.372237346924841
      ],
      [
        "léamh",
        -9.372292068225484
      ],
      [
        "simplí",
        -9.372610843118391
      ],
      [
        "sealbhóir",
        -9.373014831599766
      ],
      [
        "TV",
        -9.373431167002
      ],
      [
        "glan",
        -9.374097836938027
      ],
      [
        "ghabháil",
        -9.374748049529579
      ],
      [
        "cineálach",
        -9.376178207508925
      ],
      [
        "nochta",
        -9.37701805548338
      ],
      [
        "níl",
        -9.377045985689445
      ],
      [
        "Deirea",
        -9.377087126317225
      ],
      [
        "déantóir",
        -9.377413021873892
      ],
      [
        "Rialtas",
        -9.378833908690865
      ],
      [
        "acmhainn",
        -9.37923087863069
      ],
      [
        "ngníomh",
        -9.380081320103454
      ],
      [
        "gnéas",
        -9.381053774591571
      ],
      [
        "Físeá",
        -9.384033894874307
      ],
      [
        "gceannas",
        -9.385022446951712
      ],
      [
        "Soláthra",
        -9.387033814366252
      ],
      [
        "rialaithe",
        -9.387554646035534
      ],
      [
        "ngair",
        -9.388786720298388
      ],
      [
        "thabharfa",
        -9.389057034632273
      ],
      [
        "theacht",
        -9.389534165654297
      ],
      [
        "uirthi",
        -9.389959251376233
      ],
      [
        "foráil",
        -9.389994352392748
      ],
      [
        "caillteana",
        -9.390633354023434
      ],
      [
        "thart",
        -9.396501206426109
      ],
      [
        "List",
        -9.396843545961715
      ],
      [
        "Chomh",
        -9.400156726724653
      ],
      [
        "sheirbhís",
        -9.400297854474623
      ],
      [
        "leabhar",
        -9.400851725992393
      ],
      [
        "tuairisc",
        -9.401089285634576
      ],
      [
        "caiteacha",
        -9.40214448959927
      ],
      [
        "fáth",
        -9.402655721795327
      ],
      [
        "ghnó",
        -9.402840655458348
      ],
      [
        "bliant",
        -9.40526081808537
      ],
      [
        "cht",
        -9.408525972091871
      ],
      [
        "tor",
        -9.408661777418002
      ],
      [
        "saintréith",
        -9.409263127147199
      ],
      [
        "airgeadra",
        -9.41021525000663
      ],
      [
        "céad",
        -9.41058835742065
      ],
      [
        "deis",
        -9.411599299167978
      ],
      [
        "iarracht",
        -9.412842415217547
      ],
      [
        "tionscna",
        -9.41285300917204
      ],
      [
        "Dá",
        -9.413971924795087
      ],
      [
        "Leictreon",
        -9.414434728188557
      ],
      [
        "thógá",
        -9.414843739138394
      ],
      [
        "fuair",
        -9.41537051625877
      ],
      [
        "institiúid",
        -9.415855071957385
      ],
      [
        "tairiscint",
        -9.417081474872727
      ],
      [
        "sprioc",
        -9.42004465249256
      ],
      [
        "stoc",
        -9.420229545025826
      ],
      [
        "Grúpa",
        -9.420451820596863
      ],
      [
        "ndéanta",
        -9.420632866597572
      ],
      [
        "Táirg",
        -9.420953268233207
      ],
      [
        "measún",
        -9.42173019556153
      ],
      [
        "uaidh",
        -9.426077521473351
      ],
      [
        "iarrthóir",
        -9.426175902406046
      ],
      [
        "substaint",
        -9.426692167678999
      ],
      [
        "ghnóth",
        -9.426863133424195
      ],
      [
        "cláir",
        -9.427561767814886
      ],
      [
        "phost",
        -9.430405875036792
      ],
      [
        "áir",
        -9.430454888144768
      ],
      [
        "éil",
        -9.432250412220256
      ],
      [
        "húsáid",
        -9.43400084608305
      ],
      [
        "iamh",
        -9.434983678782753
      ],
      [
        "dliteana",
        -9.43615489254642
      ],
      [
        "ealach",
        -9.436614487304592
      ],
      [
        "domhan",
        -9.438911529647863
      ],
      [
        "leanúnach",
        -9.440215164118719
      ],
      [
        "éifeachtach",
        -9.440905128327508
      ],
      [
        "mion",
        -9.442172151894987
      ],
      [
        "fostaíochta",
        -9.442672469108224
      ],
      [
        "SC",
        -9.445291852281684
      ],
      [
        "íochta",
        -9.445769023149252
      ],
      [
        "Contae",
        -9.446626411944944
      ],
      [
        "éisteacht",
        -9.447021374471772
      ],
      [
        "saoire",
        -9.447350383620769
      ],
      [
        "tionsca",
        -9.447580262298299
      ],
      [
        "mbe",
        -9.448519120802821
      ],
      [
        "sraith",
        -9.451102116592896
      ],
      [
        "foirm",
        -9.45461157602103
      ],
      [
        "thos",
        -9.455473158048243
      ],
      [
        "plean",
        -9.457275889460576
      ],
      [
        "Alt",
        -9.459124228053996
      ],
      [
        "40",
        -9.45980526139039
      ],
      [
        "thionscna",
        -9.461313423914792
      ],
      [
        "ITHE",
        -9.461476229003871
      ],
      [
        "Á",
        -9.461983574262891
      ],
      [
        "teagmhá",
        -9.462850820633104
      ],
      [
        "sábháilteacht",
        -9.464943084108322
      ],
      [
        "post",
        -9.465222193654547
      ],
      [
        "scoil",
        -9.467077569416112
      ],
      [
        "ainmniú",
        -9.467086563032266
      ],
      [
        "adhmai",
        -9.467408752410526
      ],
      [
        "ord",
        -9.468582693346715
      ],
      [
        "coiste",
        -9.469750903144755
      ],
      [
        "laigh",
        -9.47021868022465
      ],
      [
        "éard",
        -9.470435935609247
      ],
      [
        "scannán",
        -9.471560364274573
      ],
      [
        "Soils",
        -9.472041818840909
      ],
      [
        "Cúirte",
        -9.472768143130128
      ],
      [
        "óga",
        -9.472959921451574
      ],
      [
        "volta",
        -9.474960667542419
      ],
      [
        "cheadú",
        -9.475430517856275
      ],
      [
        "dhéana",
        -9.477057677536227
      ],
      [
        "thuras",
        -9.477216889111437
      ],
      [
        "íre",
        -9.477306416377854
      ],
      [
        "ríomhaire",
        -9.478037671573487
      ],
      [
        "Stiúrthóir",
        -9.478071444102309
      ],
      [
        "Clárú",
        -9.479744284427175
      ],
      [
        "cailín",
        -9.480776942050902
      ],
      [
        "aicm",
        -9.48145348083877
      ],
      [
        "chinnti",
        -9.482482735973408
      ],
      [
        "cumhachtaí",
        -9.483357115060144
      ],
      [
        "fhorála",
        -9.483861969296044
      ],
      [
        "punt",
        -9.485498699661667
      ],
      [
        "mbliana",
        -9.487277089461692
      ],
      [
        "Lawn",
        -9.487811077442043
      ],
      [
        "cheadúna",
        -9.490687835306467
      ],
      [
        "pointe",
        -9.490988054114142
      ],
      [
        "onaid",
        -9.491240458577334
      ],
      [
        "Cuid",
        -9.491241057123727
      ],
      [
        "milliú",
        -9.491268135752202
      ],
      [
        "hníomhaireacht",
        -9.491912215174283
      ],
      [
        "cheist",
        -9.492765801116786
      ],
      [
        "bhearta",
        -9.492878872530373
      ],
      [
        "mheas",
        -9.494055751332777
      ],
      [
        "iniúcha",
        -9.494116577700995
      ],
      [
        "LE",
        -9.494385850198906
      ],
      [
        "aimseartha",
        -9.494441438338729
      ],
      [
        "scoileanna",
        -9.49565423723228
      ],
      [
        "fada",
        -9.49577243118959
      ],
      [
        "hearra",
        -9.496815226374679
      ],
      [
        "scair",
        -9.49760684948312
      ],
      [
        "prionsaba",
        -9.497847796225876
      ],
      [
        "W",
        -9.498478795354032
      ],
      [
        "cu",
        -9.498820079355358
      ],
      [
        "dearg",
        -9.499029092937798
      ],
      [
        "thugta",
        -9.500030620563479
      ],
      [
        "scéime",
        -9.500244445238767
      ],
      [
        "ciall",
        -9.502159323956585
      ],
      [
        "chomhaont",
        -9.50456263662551
      ],
      [
        "Sonraí",
        -9.506748018735447
      ],
      [
        "EIDEA",
        -9.511263251903237
      ],
      [
        "féach",
        -9.512300389167017
      ],
      [
        "gclár",
        -9.51315538338265
      ],
      [
        "scéal",
        -9.51520063102341
      ],
      [
        "Th",
        -9.516541573601225
      ],
      [
        "tabharfa",
        -9.517128515356477
      ],
      [
        "Choiste",
        -9.518137650992497
      ],
      [
        "w",
        -9.520713319735272
      ],
      [
        "glacad",
        -9.521529420717181
      ],
      [
        "balla",
        -9.521668433477785
      ],
      [
        "teanga",
        -9.524675348876162
      ],
      [
        "Clár",
        -9.527648576514522
      ],
      [
        "MS",
        -9.530286161427693
      ],
      [
        "Stiúrthóireacht",
        -9.531732036632102
      ],
      [
        "teorann",
        -9.532037411862087
      ],
      [
        "halt",
        -9.532915454956058
      ],
      [
        "beart",
        -9.533159037669623
      ],
      [
        "árachais",
        -9.533708106562804
      ],
      [
        "achtachá",
        -9.534522257027964
      ],
      [
        "bosca",
        -9.534880594277393
      ],
      [
        "slándá",
        -9.537009904943842
      ],
      [
        "Déanta",
        -9.537753197356315
      ],
      [
        "tíre",
        -9.53795066506079
      ],
      [
        "Caibidil",
        -9.539061577489097
      ],
      [
        "oilse",
        -9.54154077770219
      ],
      [
        "oideachas",
        -9.543980251669437
      ],
      [
        "scoile",
        -9.547585732109173
      ],
      [
        "eal",
        -9.547844309491767
      ],
      [
        "35",
        -9.548625620141415
      ],
      [
        "iascaireacht",
        -9.550797832830764
      ],
      [
        "socrú",
        -9.550895869932749
      ],
      [
        "teicniú",
        -9.552703523716582
      ],
      [
        "Bhaile",
        -9.552867068868093
      ],
      [
        "urtha",
        -9.554656889840356
      ],
      [
        "ostaithe",
        -9.555957771710176
      ],
      [
        "cosc",
        -9.557161906614938
      ],
      [
        "abhrú",
        -9.557792877209103
      ],
      [
        "bhreise",
        -9.558297433480512
      ],
      [
        "ndáir",
        -9.56184088790381
      ],
      [
        "éag",
        -9.562718920794733
      ],
      [
        "tré",
        -9.563634326853247
      ],
      [
        "oirí",
        -9.563717840659525
      ],
      [
        "Rogh",
        -9.564370349715393
      ],
      [
        "thagairt",
        -9.567064399006796
      ],
      [
        "leictreonach",
        -9.567137783756923
      ],
      [
        "fanacht",
        -9.567179569993264
      ],
      [
        "inmheánach",
        -9.567583566527345
      ],
      [
        "chion",
        -9.569633795465498
      ],
      [
        "oscailte",
        -9.570935326415395
      ],
      [
        "infheistíochta",
        -9.573333328671593
      ],
      [
        "tharraingt",
        -9.57420854979155
      ],
      [
        "cheangla",
        -9.574777983773856
      ],
      [
        "álainn",
        -9.57500620755052
      ],
      [
        "dleathach",
        -9.581412393227176
      ],
      [
        "long",
        -9.582361769720034
      ],
      [
        "méadú",
        -9.58337748353863
      ],
      [
        "oibríochta",
        -9.584419164980954
      ],
      [
        "foirgn",
        -9.588475059232845
      ],
      [
        "ceist",
        -9.590006800543
      ],
      [
        "Síochá",
        -9.59279007771328
      ],
      [
        "liúntais",
        -9.595595715286379
      ],
      [
        "deonta",
        -9.595781664906301
      ],
      [
        "plandáil",
        -9.596062166414868
      ],
      [
        "óirí",
        -9.59687032926473
      ],
      [
        "Ollscoil",
        -9.598271656927754
      ],
      [
        "laeth",
        -9.59878914004457
      ],
      [
        "ip",
        -9.599999581635615
      ],
      [
        "dearbhú",
        -9.601801056645
      ],
      [
        "chríoch",
        -9.602684746431212
      ],
      [
        "uirlis",
        -9.60295212951484
      ],
      [
        "parlaiminteach",
        -9.603574597366638
      ],
      [
        "tacú",
        -9.60393331580298
      ],
      [
        "othair",
        -9.603981212122243
      ],
      [
        "Guan",
        -9.604890117382844
      ],
      [
        "Óg",
        -9.605283709043412
      ],
      [
        "fuarth",
        -9.60887920838475
      ],
      [
        "oirceallá",
        -9.609933809463472
      ],
      [
        "cúraim",
        -9.610855588047496
      ],
      [
        "chuntasaíocht",
        -9.611146237478717
      ],
      [
        "mhodh",
        -9.61183510100145
      ],
      [
        "táille",
        -9.611885960631351
      ],
      [
        "chothabháil",
        -9.61204975211184
      ],
      [
        "gcur",
        -9.612263715784778
      ],
      [
        "creidmheasa",
        -9.612558915876363
      ],
      [
        "chosc",
        -9.612577921838056
      ],
      [
        "Meitheam",
        -9.614631462142155
      ],
      [
        "Áth",
        -9.614876110145147
      ],
      [
        "anta",
        -9.61513697164991
      ],
      [
        "Déan",
        -9.616862544750878
      ],
      [
        "bhaile",
        -9.61698371364407
      ],
      [
        "K",
        -9.617120470643023
      ],
      [
        "thíos",
        -9.61722287971535
      ],
      [
        "cíos",
        -9.617389404637283
      ],
      [
        "Teach",
        -9.61793418940983
      ],
      [
        "meaisín",
        -9.61804660176367
      ],
      [
        "inniúla",
        -9.61815533831642
      ],
      [
        "*",
        -9.61837066199065
      ],
      [
        "x",
        -9.618550204185041
      ],
      [
        "teannta",
        -9.6185852735725
      ],
      [
        "aitheanta",
        -9.619500705935135
      ],
      [
        "fheidhm",
        -9.620885173860518
      ],
      [
        "éirí",
        -9.62202249992308
      ],
      [
        "treoir",
        -9.623021546519919
      ],
      [
        "IV",
        -9.623400602716957
      ],
      [
        "tráchtál",
        -9.623751444678398
      ],
      [
        "cóir",
        -9.624094891703574
      ],
      [
        "dlite",
        -9.624203327944194
      ],
      [
        "tory",
        -9.624604484756222
      ],
      [
        "scor",
        -9.624941322915436
      ],
      [
        "thréimhse",
        -9.62573242144355
      ],
      [
        "thaispeáin",
        -9.625946421199124
      ],
      [
        "chaiteacha",
        -9.62630966450282
      ],
      [
        "fhoirm",
        -9.62650754425319
      ],
      [
        "molta",
        -9.626924617674604
      ],
      [
        "Tiarna",
        -9.6275568218243
      ],
      [
        "neart",
        -9.628203250948893
      ],
      [
        "ment",
        -9.630033814170552
      ],
      [
        "nách",
        -9.632226537130848
      ],
      [
        "caite",
        -9.632348428107132
      ],
      [
        "gCuid",
        -9.632647442178591
      ],
      [
        "cruinn",
        -9.633370751785177
      ],
      [
        "hoireann",
        -9.635000381968572
      ],
      [
        "ly",
        -9.63608361228993
      ],
      [
        "60",
        -9.636519340765624
      ],
      [
        "Foins",
        -9.636904710804394
      ],
      [
        "bogearra",
        -9.637948131902872
      ],
      [
        "ceapt",
        -9.638791291180489
      ],
      [
        "léireofa",
        -9.639927109727603
      ],
      [
        "Cur",
        -9.640738823862804
      ],
      [
        "dochtúir",
        -9.640755944442397
      ],
      [
        "arraí",
        -9.641346122223093
      ],
      [
        "aithint",
        -9.641427923804304
      ],
      [
        "onnmhaireoir",
        -9.641482772569702
      ],
      [
        "Bealtaine",
        -9.64163651715991
      ],
      [
        "réasúnta",
        -9.641755849975498
      ],
      [
        "Chonra",
        -9.642237300489619
      ],
      [
        "baile",
        -9.64399665701967
      ],
      [
        "AMH",
        -9.644649596708279
      ],
      [
        "gheobhaid",
        -9.646016604100385
      ],
      [
        "cuma",
        -9.646079613904678
      ],
      [
        "Mura",
        -9.646913205006406
      ],
      [
        "Í",
        -9.649049842368886
      ],
      [
        "ainmh",
        -9.64979202458393
      ],
      [
        "corpraithe",
        -9.650299905582873
      ],
      [
        "réidh",
        -9.650545056402713
      ],
      [
        "faire",
        -9.650810083401424
      ],
      [
        "stát",
        -9.65134818750289
      ],
      [
        "ordaithe",
        -9.651898976149866
      ],
      [
        "eachta",
        -9.651933320609542
      ],
      [
        "tarmlig",
        -9.653025103489409
      ],
      [
        "réamh",
        -9.653400970991264
      ],
      [
        "32",
        -9.653903200392268
      ],
      [
        "éisteachta",
        -9.654344772784134
      ],
      [
        "tos",
        -9.654607271089866
      ],
      [
        "staid",
        -9.65672554973919
      ],
      [
        "reachtaíocht",
        -9.656944496456815
      ],
      [
        "talmhaíocht",
        -9.65711979622862
      ],
      [
        "Oideacha",
        -9.657477339235292
      ],
      [
        "fheabhsú",
        -9.657675128462584
      ],
      [
        "chuirea",
        -9.659524825082588
      ],
      [
        "Tabharfa",
        -9.661043790335274
      ],
      [
        "dom",
        -9.66210333559952
      ],
      [
        "sampla",
        -9.662866894633007
      ],
      [
        "niu",
        -9.664329897397536
      ],
      [
        "sláintíocht",
        -9.664711964929687
      ],
      [
        "Londa",
        -9.664721563122338
      ],
      [
        "Iarnró",
        -9.664757354811679
      ],
      [
        "Moncler",
        -9.664813321683557
      ],
      [
        "36",
        -9.665827728402414
      ],
      [
        "lacadh",
        -9.666359578934365
      ],
      [
        "cárta",
        -9.666582129094273
      ],
      [
        "gcomhair",
        -9.66694696673029
      ],
      [
        "dong",
        -9.667014908296613
      ],
      [
        "2007",
        -9.669290290724565
      ],
      [
        "clárú",
        -9.670019115494839
      ],
      [
        "iontu",
        -9.670704752908703
      ],
      [
        "bhailiú",
        -9.67116540874368
      ],
      [
        "fiche",
        -9.671938208827441
      ],
      [
        "oscailt",
        -9.672103884423239
      ],
      [
        "malairt",
        -9.672443206315204
      ],
      [
        "gheimhr",
        -9.672647704718779
      ],
      [
        "chontae",
        -9.672651271616292
      ],
      [
        "earnáil",
        -9.672715227261167
      ],
      [
        "Feabhra",
        -9.673130323346442
      ],
      [
        "tsuim",
        -9.674285979075414
      ],
      [
        "frith",
        -9.67436723592265
      ],
      [
        "chéim",
        -9.678178162550394
      ],
      [
        "land",
        -9.678627382489989
      ],
      [
        "gCoimisinéir",
        -9.67916906228174
      ],
      [
        "fheiceá",
        -9.68015750014644
      ],
      [
        "lár",
        -9.681995698664178
      ],
      [
        "chóras",
        -9.682739768413562
      ],
      [
        "treorach",
        -9.682869366176533
      ],
      [
        "Uachtarán",
        -9.684226830405795
      ],
      [
        "stíl",
        -9.685419855785835
      ],
      [
        "33",
        -9.685514409787165
      ],
      [
        "crua",
        -9.68698454645016
      ],
      [
        "bhíthin",
        -9.688740905241346
      ],
      [
        "néithe",
        -9.691536304455912
      ],
      [
        "Scoil",
        -9.692154423560257
      ],
      [
        "contae",
        -9.693258421686991
      ],
      [
        "inniúi",
        -9.694508130151247
      ],
      [
        "breathn",
        -9.69603591229938
      ],
      [
        "ugtha",
        -9.696945961465872
      ],
      [
        "45",
        -9.697193176043342
      ],
      [
        "déag",
        -9.697352423397
      ],
      [
        "SOLAS",
        -9.697549043396641
      ],
      [
        "Ríocht",
        -9.697935452874866
      ],
      [
        "iona",
        -9.69805732411978
      ],
      [
        "leighis",
        -9.698971809627384
      ],
      [
        "Córa",
        -9.699673659774252
      ],
      [
        "iontaobha",
        -9.70263223779253
      ],
      [
        "deich",
        -9.704836298885912
      ],
      [
        "cruinni",
        -9.705485510573642
      ],
      [
        "maoine",
        -9.706607841727312
      ],
      [
        "táill",
        -9.707539496068675
      ],
      [
        "léin",
        -9.711494750268464
      ],
      [
        "glas",
        -9.71156043726969
      ],
      [
        "bail",
        -9.713325359407081
      ],
      [
        "gcuir",
        -9.713523039801409
      ],
      [
        "eagraíocht",
        -9.714176057627654
      ],
      [
        "ceap",
        -9.71421584224948
      ],
      [
        "déan",
        -9.716016573325824
      ],
      [
        "socruithe",
        -9.71611097241378
      ],
      [
        "mbainfid",
        -9.716678250575336
      ],
      [
        "oifigiú",
        -9.717399157153281
      ],
      [
        "Eora",
        -9.717972455122112
      ],
      [
        "straitéis",
        -9.718852069635293
      ],
      [
        "shealbh",
        -9.719049781047934
      ],
      [
        "brath",
        -9.719156176655893
      ],
      [
        "bhliantú",
        -9.719277745143547
      ],
      [
        "tóir",
        -9.719722076391623
      ],
      [
        "UM",
        -9.722991795662264
      ],
      [
        "tair",
        -9.72300933333974
      ],
      [
        "phróiseáil",
        -9.724272803575118
      ],
      [
        "stair",
        -9.724576562774388
      ],
      [
        "có",
        -9.725152678355151
      ],
      [
        "Airgid",
        -9.726073088408716
      ],
      [
        "leanála",
        -9.729207480758044
      ],
      [
        "sealadach",
        -9.730115335242097
      ],
      [
        "siopa",
        -9.730146281076092
      ],
      [
        "coitianta",
        -9.730523069666269
      ],
      [
        "int",
        -9.73151835185098
      ],
      [
        "fola",
        -9.73205361879807
      ],
      [
        "leathn",
        -9.733196375746754
      ],
      [
        "taifead",
        -9.735732741654758
      ],
      [
        "churtha",
        -9.736226630613407
      ],
      [
        "Idir",
        -9.737302593402243
      ],
      [
        "ireann",
        -9.73829264854358
      ],
      [
        "oiread",
        -9.738468538511892
      ],
      [
        "pictiúir",
        -9.738559499994354
      ],
      [
        "roghna",
        -9.73878816715041
      ],
      [
        "dhearbh",
        -9.738804654795002
      ],
      [
        "Chuir",
        -9.74064267575126
      ],
      [
        "eolai",
        -9.7406964620236
      ],
      [
        "com",
        -9.740746196280742
      ],
      [
        "cuntas",
        -9.74178892214401
      ],
      [
        "mná",
        -9.741879390133864
      ],
      [
        "luaidhte",
        -9.742042102443602
      ],
      [
        "mhaithe",
        -9.742291386071937
      ],
      [
        "co",
        -9.742467377297883
      ],
      [
        "mórdhíol",
        -9.743663217460654
      ],
      [
        "gairdín",
        -9.743837235610059
      ],
      [
        "tóg",
        -9.745535349796873
      ],
      [
        "díospóireacht",
        -9.746919651235348
      ],
      [
        "Bainistíocht",
        -9.747164910348062
      ],
      [
        "gcuirf",
        -9.748013040686518
      ],
      [
        "oist",
        -9.749219152445766
      ],
      [
        "Bh",
        -9.749371032046106
      ],
      [
        "cionta",
        -9.751975875765396
      ],
      [
        "réit",
        -9.752937329368415
      ],
      [
        "sean",
        -9.753029712028312
      ],
      [
        "ainne",
        -9.753276684808498
      ],
      [
        "freagra",
        -9.755173045253034
      ],
      [
        "Tuirc",
        -9.755734117182804
      ],
      [
        "crité",
        -9.756646213736325
      ],
      [
        "thiocfa",
        -9.757453521493165
      ],
      [
        "asbhaint",
        -9.758144898630416
      ],
      [
        "deir",
        -9.75828715197331
      ],
      [
        "chó",
        -9.75851790292489
      ],
      [
        "thosa",
        -9.759872791285362
      ],
      [
        "tuismitheoir",
        -9.760606019392238
      ],
      [
        "chomhlacht",
        -9.760654290523139
      ],
      [
        "Gnótha",
        -9.760938436318373
      ],
      [
        "cúit",
        -9.76182779726659
      ],
      [
        "Naisc",
        -9.764772726591158
      ],
      [
        "soláthair",
        -9.764886889649707
      ],
      [
        "foirn",
        -9.764942043155138
      ],
      [
        "íomhá",
        -9.765196339233139
      ],
      [
        "fadhb",
        -9.765215837380296
      ],
      [
        "ghrúpa",
        -9.7662850842379
      ],
      [
        "líonra",
        -9.768686872708777
      ],
      [
        "X",
        -9.76906327182811
      ],
      [
        "brabú",
        -9.769362782641807
      ],
      [
        "thuillea",
        -9.769559527999107
      ],
      [
        "Dlí",
        -9.770717900513091
      ],
      [
        "imscrúdú",
        -9.770763333192445
      ],
      [
        "cuairt",
        -9.77142388192487
      ],
      [
        "Trí",
        -9.772217143735187
      ],
      [
        "34",
        -9.772406949266212
      ],
      [
        "aice",
        -9.77428850052787
      ],
      [
        "Dia",
        -9.775337409824573
      ],
      [
        "sheachada",
        -9.776258888030245
      ],
      [
        "brú",
        -9.77739447736884
      ],
      [
        "cabhr",
        -9.777589312647478
      ],
      [
        "aptha",
        -9.77848973107994
      ],
      [
        "los",
        -9.77980368890028
      ],
      [
        "cáilithe",
        -9.779931223697734
      ],
      [
        "lua",
        -9.780647725818072
      ],
      [
        "Éisteachta",
        -9.781318830233083
      ],
      [
        "múinteoir",
        -9.781439605964785
      ],
      [
        "chleachta",
        -9.783281522962628
      ],
      [
        "sóisial",
        -9.783403495151136
      ],
      [
        "Dara",
        -9.784046481166019
      ],
      [
        "árú",
        -9.78423950351823
      ],
      [
        "Banc",
        -9.784551189173321
      ],
      [
        "cumhachta",
        -9.784688014038863
      ],
      [
        "chomhair",
        -9.785176236496506
      ],
      [
        "ála",
        -9.78567552329746
      ],
      [
        "beo",
        -9.785882870270488
      ],
      [
        "inni",
        -9.785912679857182
      ],
      [
        "dtiocfa",
        -9.787443240553225
      ],
      [
        "zh",
        -9.787627908793198
      ],
      [
        "speic",
        -9.787831383802454
      ],
      [
        "raon",
        -9.788691889904566
      ],
      [
        "ghlac",
        -9.788841552789727
      ],
      [
        "bhreith",
        -9.788885133054961
      ],
      [
        "ionadaí",
        -9.788943944810544
      ],
      [
        "fhoilsi",
        -9.789081304894221
      ],
      [
        "fostaí",
        -9.790419405589946
      ],
      [
        "chóra",
        -9.790889183000687
      ],
      [
        "Chuideachta",
        -9.791166184064627
      ],
      [
        "tháirgeadh",
        -9.79179144656576
      ],
      [
        "agam",
        -9.791929990441059
      ],
      [
        "ghinearálta",
        -9.79205434046939
      ],
      [
        "bhreis",
        -9.793282518171015
      ],
      [
        "folaío",
        -9.7937178923525
      ],
      [
        "Chomhphoba",
        -9.79600773363277
      ],
      [
        "achomair",
        -9.796171165777022
      ],
      [
        "onas",
        -9.796562631466957
      ],
      [
        "pe",
        -9.797336716522539
      ],
      [
        "tv",
        -9.799041607977633
      ],
      [
        "stáisiú",
        -9.800154730324703
      ],
      [
        "shonró",
        -9.800747897141093
      ],
      [
        "clip",
        -9.800791981549784
      ],
      [
        "cúpl",
        -9.80097012068186
      ],
      [
        "IN",
        -9.802442633258174
      ],
      [
        "Gan",
        -9.802847529500495
      ],
      [
        "dualgais",
        -9.803365829531717
      ],
      [
        "Ciste",
        -9.80349914472755
      ],
      [
        "Cuirfi",
        -9.804899692363765
      ],
      [
        "phobal",
        -9.805119397594357
      ],
      [
        "orálach",
        -9.805265710289259
      ],
      [
        "meán",
        -9.805650954929732
      ],
      [
        "oíche",
        -9.805941762302808
      ],
      [
        "eacnamaíoch",
        -9.807457277594885
      ],
      [
        "Poiblí",
        -9.808435040352013
      ],
      [
        "dócha",
        -9.808795263406864
      ],
      [
        "scriosa",
        -9.808822190080932
      ],
      [
        "Talmhan",
        -9.80902788966965
      ],
      [
        "gceart",
        -9.81038648363765
      ],
      [
        "cheannas",
        -9.811909688402256
      ],
      [
        "dheimhniú",
        -9.812503448669762
      ],
      [
        "Ina",
        -9.8134136679871
      ],
      [
        "Fear",
        -9.8142790751324
      ],
      [
        "iúla",
        -9.814835493170955
      ],
      [
        "cheanta",
        -9.815750925524743
      ],
      [
        "dhliteana",
        -9.816967606551188
      ],
      [
        "himeachta",
        -9.81818240564959
      ],
      [
        "Gharda",
        -9.818225537226933
      ],
      [
        "plaisteach",
        -9.818235888847212
      ],
      [
        "monarcha",
        -9.819275775039824
      ],
      [
        "Fómh",
        -9.820313906449375
      ],
      [
        "thuas",
        -9.820883580686676
      ],
      [
        "chomhlachta",
        -9.82262897591895
      ],
      [
        "conartha",
        -9.825802265522622
      ],
      [
        "grá",
        -9.825861905219472
      ],
      [
        "racha",
        -9.82689022862445
      ],
      [
        "heannta",
        -9.826926442850304
      ],
      [
        "Ghaeilge",
        -9.827461453706476
      ],
      [
        "teoranta",
        -9.827466249993485
      ],
      [
        "faireachá",
        -9.828164381422429
      ],
      [
        "gléas",
        -9.828783447308695
      ],
      [
        "500",
        -9.83181299838079
      ],
      [
        "seamh",
        -9.831972913146133
      ],
      [
        "luas",
        -9.832134093602765
      ],
      [
        "gnócha",
        -9.83232094869727
      ],
      [
        "phoba",
        -9.832601172279706
      ],
      [
        "mheasúnachta",
        -9.834208356465126
      ],
      [
        "thoil",
        -9.83446795811437
      ],
      [
        "trína",
        -9.834792252344972
      ],
      [
        "soláthraí",
        -9.835608152952654
      ],
      [
        "fach",
        -9.835925543134554
      ],
      [
        "comhlíona",
        -9.83610516718256
      ],
      [
        "ity",
        -9.836345053682678
      ],
      [
        "tithíocht",
        -9.836957954545657
      ],
      [
        "chóireáil",
        -9.837021690470277
      ],
      [
        "gcuirfea",
        -9.837142380550222
      ],
      [
        "fostóir",
        -9.837184516593243
      ],
      [
        "roghanna",
        -9.83727719906653
      ],
      [
        "únaer",
        -9.837338466797666
      ],
      [
        "shláint",
        -9.838613631390878
      ],
      [
        "ire",
        -9.84052600845603
      ],
      [
        "oiliúna",
        -9.841136935319163
      ],
      [
        "conra",
        -9.841729122475034
      ],
      [
        "oibrithe",
        -9.842387477565381
      ],
      [
        "tairbhe",
        -9.843769815439398
      ],
      [
        "gearr",
        -9.84414116473917
      ],
      [
        "39",
        -9.84439176321471
      ],
      [
        "seachtrach",
        -9.844780886360688
      ],
      [
        "inneall",
        -9.846514729396695
      ],
      [
        "Dáta",
        -9.847454486452722
      ],
      [
        "Coinbhinsiú",
        -9.847549403927083
      ],
      [
        "cumas",
        -9.848463977229994
      ],
      [
        "athaoirleach",
        -9.848548688249025
      ],
      [
        "dréacht",
        -9.849279665143383
      ],
      [
        "Scéim",
        -9.849312422497606
      ],
      [
        "ongs",
        -9.849842559624767
      ],
      [
        "tosa",
        -9.850465647511818
      ],
      [
        "chánach",
        -9.85240324810464
      ],
      [
        "cheap",
        -9.852765129624892
      ],
      [
        "ur",
        -9.853943851714206
      ],
      [
        "chomhairle",
        -9.854493390683006
      ],
      [
        "shuíomh",
        -9.855765220265408
      ],
      [
        "leithéid",
        -9.85603909428508
      ],
      [
        "Cruach",
        -9.856551011413064
      ],
      [
        "tuig",
        -9.856788903034317
      ],
      [
        "gloin",
        -9.857140987049306
      ],
      [
        "tuairisceá",
        -9.857243675159262
      ],
      [
        "leictreacha",
        -9.858282246866892
      ],
      [
        "oibreoir",
        -9.858782513618262
      ],
      [
        "gnótha",
        -9.860192828631938
      ],
      [
        "EORPA",
        -9.864167403185867
      ],
      [
        "smaoin",
        -9.864881276939343
      ],
      [
        "éagsúlacht",
        -9.865266588080834
      ],
      [
        "#",
        -9.865380178447307
      ],
      [
        "arb",
        -9.867485309901166
      ],
      [
        "úla",
        -9.868419975909521
      ],
      [
        "ionstraimí",
        -9.87019581493901
      ],
      [
        "bPríomh",
        -9.870536666853141
      ],
      [
        "chinnf",
        -9.87092214117346
      ],
      [
        "ngach",
        -9.871269342665588
      ],
      [
        "déanmha",
        -9.871373358705576
      ],
      [
        "modhann",
        -9.871902050113906
      ],
      [
        "cinntí",
        -9.872895025523821
      ],
      [
        "aonad",
        -9.874170666815203
      ],
      [
        "dír",
        -9.874797598017647
      ],
      [
        "chaithea",
        -9.874816345425252
      ],
      [
        "Sraith",
        -9.875070267292907
      ],
      [
        "suntasach",
        -9.875293695457966
      ],
      [
        "Hot",
        -9.876850321117935
      ],
      [
        "bás",
        -9.87693101248647
      ],
      [
        "phríomh",
        -9.877101810178086
      ],
      [
        "ceadúnais",
        -9.878038372077125
      ],
      [
        "dhó",
        -9.8786924318953
      ],
      [
        "uigh",
        -9.879427219857291
      ],
      [
        "réigiúnach",
        -9.880084789765846
      ],
      [
        "scála",
        -9.88143551961609
      ],
      [
        "Bain",
        -9.881801642788119
      ],
      [
        "oladh",
        -9.881994511618577
      ],
      [
        "cúirte",
        -9.883726452172066
      ],
      [
        "ngairm",
        -9.884483658092979
      ],
      [
        "sábháilte",
        -9.88477979087569
      ],
      [
        "•",
        -9.884892837880013
      ],
      [
        "dromchla",
        -9.88489285626217
      ],
      [
        "Oideachas",
        -9.885121108107413
      ],
      [
        "Coda",
        -9.885461213476608
      ],
      [
        "bheal",
        -9.886155468479316
      ],
      [
        "Már",
        -9.88634752545316
      ],
      [
        "diúlt",
        -9.887469878071236
      ],
      [
        "chláir",
        -9.888253838992345
      ],
      [
        "déileáil",
        -9.888587741740487
      ],
      [
        "00",
        -9.89002592907293
      ],
      [
        "baol",
        -9.890901697195723
      ],
      [
        "buan",
        -9.893235333696337
      ],
      [
        "Sóisial",
        -9.893495575151125
      ],
      [
        "shár",
        -9.893858491717491
      ],
      [
        "Eola",
        -9.893877494178415
      ],
      [
        "réigiún",
        -9.89400373858734
      ],
      [
        "chiste",
        -9.894398899424132
      ],
      [
        "soláthróir",
        -9.894793828064941
      ],
      [
        "diúité",
        -9.894811534329456
      ],
      [
        "Commit",
        -9.894824345552266
      ],
      [
        "Load",
        -9.894968820810965
      ],
      [
        "caighdeáin",
        -9.895787815649562
      ],
      [
        "thalamh",
        -9.896313563404235
      ],
      [
        "Saor",
        -9.896757091291324
      ],
      [
        "Tuga",
        -9.896936083863801
      ],
      [
        "gCúirt",
        -9.89775887113267
      ],
      [
        "Hel",
        -9.897759429512423
      ],
      [
        "ionadaithe",
        -9.89971096051319
      ],
      [
        "tástáil",
        -9.899757586762878
      ],
      [
        "irt",
        -9.900128383919029
      ],
      [
        "míle",
        -9.900135594148669
      ],
      [
        "traidisiún",
        -9.900148710422833
      ],
      [
        "grianghra",
        -9.901688735907133
      ],
      [
        "eoil",
        -9.902992293911595
      ],
      [
        "hreoir",
        -9.903502924045366
      ],
      [
        "fir",
        -9.903596834980398
      ],
      [
        "ardchaighdeá",
        -9.904850969891635
      ],
      [
        "tiomána",
        -9.904856451022674
      ],
      [
        "dlífea",
        -9.90575539530496
      ],
      [
        "Uisce",
        -9.90579851662439
      ],
      [
        "cumarsáid",
        -9.907745277320242
      ],
      [
        "saineola",
        -9.908620304138594
      ],
      [
        "70",
        -9.908700351059686
      ],
      [
        "airdín",
        -9.90870910297599
      ],
      [
        "tseirbhís",
        -9.909552998895315
      ],
      [
        "gluaiseacht",
        -9.910520293455106
      ],
      [
        "Príomh",
        -9.910551921305245
      ],
      [
        "ex",
        -9.911477621470691
      ],
      [
        "spás",
        -9.912084842703232
      ],
      [
        "sainche",
        -9.912114965618585
      ],
      [
        "Fógra",
        -9.912582564073105
      ],
      [
        "ithi",
        -9.91408590471567
      ],
      [
        "sheirbheáil",
        -9.914898565033644
      ],
      [
        "cuntasaíocht",
        -9.91543708504426
      ],
      [
        "tuiscint",
        -9.915603051673532
      ],
      [
        "AR",
        -9.91603415874528
      ],
      [
        "EU",
        -9.91626557658195
      ],
      [
        "caiteachais",
        -9.918097081764305
      ],
      [
        "eacair",
        -9.919478797961252
      ],
      [
        "mhéad",
        -9.921217732877885
      ],
      [
        "Porno",
        -9.923081952285902
      ],
      [
        "load",
        -9.923098436713104
      ],
      [
        "leasuithe",
        -9.926647523139675
      ],
      [
        "tee",
        -9.92702461693377
      ],
      [
        "ies",
        -9.927418416394303
      ],
      [
        "bhord",
        -9.927466887749064
      ],
      [
        "urrús",
        -9.927541822296224
      ],
      [
        "agartha",
        -9.928253639025181
      ],
      [
        "soláthra",
        -9.92837017295395
      ],
      [
        "mhuirear",
        -9.929047994371787
      ],
      [
        "teocht",
        -9.929095974898086
      ],
      [
        "BliainDaon",
        -9.929372950936035
      ],
      [
        "ochar",
        -9.929966016050038
      ],
      [
        "Gaeltachta",
        -9.930903548797254
      ],
      [
        "ghearra",
        -9.930997385758353
      ],
      [
        "oidh",
        -9.93292626342572
      ],
      [
        "leictreach",
        -9.933310840901616
      ],
      [
        "eol",
        -9.933477218918679
      ],
      [
        "dhiúlt",
        -9.934193399511912
      ],
      [
        "leordhóthanach",
        -9.93461129057554
      ],
      [
        "sreang",
        -9.935434349124566
      ],
      [
        "taispeáint",
        -9.935567637055286
      ],
      [
        "Screen",
        -9.935674965391506
      ],
      [
        "suite",
        -9.935677272608444
      ],
      [
        "struchtúr",
        -9.935874520957247
      ],
      [
        "bhainfid",
        -9.936508121447904
      ],
      [
        "For",
        -9.936703242775167
      ],
      [
        "taifid",
        -9.936807144600063
      ],
      [
        "aerártha",
        -9.937951112669314
      ],
      [
        "uathoibríoch",
        -9.938029713146804
      ],
      [
        "bhain",
        -9.938290166059907
      ],
      [
        "chuirfid",
        -9.938318858585058
      ],
      [
        "tréimhs",
        -9.940392399993506
      ],
      [
        "chruinni",
        -9.942371204459313
      ],
      [
        "leibhé",
        -9.943782443777627
      ],
      [
        "druga",
        -9.944267136933703
      ],
      [
        "uaire",
        -9.945500183687926
      ],
      [
        "mhargadh",
        -9.945608118715331
      ],
      [
        "leigheas",
        -9.945964912255516
      ],
      [
        "téacs",
        -9.946170806575152
      ],
      [
        "díolúin",
        -9.947120683779316
      ],
      [
        "bunúsach",
        -9.947455513451306
      ],
      [
        "difriú",
        -9.947476759505717
      ],
      [
        "38",
        -9.947824672669656
      ],
      [
        "pinsin",
        -9.948932502885363
      ],
      [
        "dheirea",
        -9.94970819812334
      ],
      [
        "fhomhír",
        -9.94972143801123
      ],
      [
        "mbun",
        -9.950037664831296
      ],
      [
        "héann",
        -9.95043055481148
      ],
      [
        "bhainisti",
        -9.950894535313234
      ],
      [
        "stóráil",
        -9.952811703568017
      ],
      [
        "lámha",
        -9.95433089622522
      ],
      [
        "príobháideach",
        -9.955313139710743
      ],
      [
        "bpost",
        -9.955903245300053
      ],
      [
        "Split",
        -9.956366469390488
      ],
      [
        "theicniú",
        -9.956415392326612
      ],
      [
        "páipéar",
        -9.956624488659946
      ],
      [
        "ry",
        -9.956660688669091
      ],
      [
        "min",
        -9.957322111580352
      ],
      [
        "comhionann",
        -9.957715277455078
      ],
      [
        "Institiúid",
        -9.959012924491958
      ],
      [
        "Féadf",
        -9.959259587770754
      ],
      [
        "ceangla",
        -9.959598024491584
      ],
      [
        "chuirfea",
        -9.960410910102913
      ],
      [
        "híoc",
        -9.963345698474065
      ],
      [
        "oireann",
        -9.964192891880185
      ],
      [
        "omhairc",
        -9.964522242986867
      ],
      [
        "eanta",
        -9.964578750460506
      ],
      [
        "90",
        -9.964880555181457
      ],
      [
        "ról",
        -9.965975286187403
      ],
      [
        "ghníomh",
        -9.96629757517054
      ],
      [
        "oiliúi",
        -9.966665818734542
      ],
      [
        "maoirseacht",
        -9.967424548589232
      ],
      [
        "orbartha",
        -9.968473227282715
      ],
      [
        "ráitis",
        -9.968863471551202
      ],
      [
        "Comh",
        -9.969180984321284
      ],
      [
        "reacht",
        -9.969488026245186
      ],
      [
        "athru",
        -9.969698799454436
      ],
      [
        "Lún",
        -9.969819591686994
      ],
      [
        "Stair",
        -9.96996882951111
      ],
      [
        "fost",
        -9.9707451895556
      ],
      [
        "Tionsca",
        -9.971186242987383
      ],
      [
        "Speisialt",
        -9.972014502385829
      ],
      [
        "mac",
        -9.973692728126988
      ],
      [
        "PH",
        -9.973827076687371
      ],
      [
        "cleachta",
        -9.973852572949495
      ],
      [
        "imeacht",
        -9.974186937597993
      ],
      [
        "comhai",
        -9.974314337784309
      ],
      [
        "teilifíse",
        -9.974655205556505
      ],
      [
        "ardú",
        -9.975573809778197
      ],
      [
        "líomatáist",
        -9.97774224593637
      ],
      [
        "pionós",
        -9.977742555217533
      ],
      [
        "théarma",
        -9.977784363835827
      ],
      [
        "Bosca",
        -9.978234349544723
      ],
      [
        "póirt",
        -9.978366886610692
      ],
      [
        "Plean",
        -9.980189047464345
      ],
      [
        "feithicl",
        -9.980942006985897
      ],
      [
        "saoráid",
        -9.982146869617964
      ],
      [
        "Dúi",
        -9.982298206023032
      ],
      [
        "phointe",
        -9.984195391967269
      ],
      [
        "teaghla",
        -9.98452016341668
      ],
      [
        "dife",
        -9.985783407907922
      ],
      [
        "Nolla",
        -9.98630485518536
      ],
      [
        "leanúna",
        -9.986425383170083
      ],
      [
        "fororda",
        -9.986550290462272
      ],
      [
        "fhor",
        -9.987559836264904
      ],
      [
        "ine",
        -9.987667131166837
      ],
      [
        "athbhreithn",
        -9.987879207364163
      ],
      [
        "iv",
        -9.988510751139064
      ],
      [
        "Barcelon",
        -9.988782562965287
      ],
      [
        "Allah",
        -9.988797919196454
      ],
      [
        "tógá",
        -9.990007516666594
      ],
      [
        "agóid",
        -9.99308559531144
      ],
      [
        "suí",
        -9.994459436467668
      ],
      [
        "seacht",
        -9.99447941911227
      ],
      [
        "urrú",
        -9.994658198322877
      ],
      [
        "ceadú",
        -9.994737865151311
      ],
      [
        "bainisteoir",
        -9.99507586048647
      ],
      [
        "shonr",
        -9.99645531259402
      ],
      [
        "46",
        -9.99668564684756
      ],
      [
        "astáil",
        -9.99692594986345
      ],
      [
        "Mórdhíol",
        -9.999228280165873
      ],
      [
        "Airteaga",
        -9.99943078311253
      ],
      [
        "Togra",
        -9.999779953585263
      ],
      [
        "Y",
        -10.00034131038218
      ],
      [
        "taisti",
        -10.000458030868511
      ],
      [
        "bunaidh",
        -10.0004858380525
      ],
      [
        "scrios",
        -10.000778252016243
      ],
      [
        "chláraithe",
        -10.001373005269256
      ],
      [
        "bunaío",
        -10.002051780547315
      ],
      [
        "easúnú",
        -10.002646969499278
      ],
      [
        "iomláin",
        -10.002786405452206
      ],
      [
        "reachtú",
        -10.002830841582394
      ],
      [
        "rís",
        -10.003669395125637
      ],
      [
        "catagóir",
        -10.0038212220134
      ],
      [
        "vóta",
        -10.007250862669633
      ],
      [
        "gcomhar",
        -10.00773560193831
      ],
      [
        "ghníomhaíochta",
        -10.008446903166096
      ],
      [
        "lann",
        -10.009135882148854
      ],
      [
        "Ainm",
        -10.010307929526416
      ],
      [
        "thairiscint",
        -10.010712082107691
      ],
      [
        "bheala",
        -10.011089215393268
      ],
      [
        "Leis",
        -10.01112548993177
      ],
      [
        "Páirt",
        -10.011631644906956
      ],
      [
        "seasamh",
        -10.012154518378267
      ],
      [
        "Rinne",
        -10.012487369013616
      ],
      [
        "dlíns",
        -10.01400354350024
      ],
      [
        "feabhas",
        -10.014550230107723
      ],
      [
        "tacaíochta",
        -10.015465683042823
      ],
      [
        "rianchlo",
        -10.015583006685809
      ],
      [
        "Ire",
        -10.015823369693926
      ],
      [
        "Déanann",
        -10.016250063936752
      ],
      [
        "fheidhmeanna",
        -10.017794125268033
      ],
      [
        "phragha",
        -10.018949817740536
      ],
      [
        "comparáid",
        -10.019785684466267
      ],
      [
        "staidéar",
        -10.02394872796281
      ],
      [
        "fhág",
        -10.024803544428183
      ],
      [
        "Iompai",
        -10.024838922216844
      ],
      [
        "samhail",
        -10.02608283569527
      ],
      [
        "Tabhair",
        -10.0263945117828
      ],
      [
        "cumann",
        -10.026734604346007
      ],
      [
        "réim",
        -10.027608562733883
      ],
      [
        "gCuideachta",
        -10.028099326071537
      ],
      [
        "neamhspleách",
        -10.028977186081805
      ],
      [
        "bhail",
        -10.02910328235378
      ],
      [
        "rang",
        -10.029938795262957
      ],
      [
        "gceann",
        -10.030347093598408
      ],
      [
        "mála",
        -10.031019172603706
      ],
      [
        "inbh",
        -10.032415093641204
      ],
      [
        "oir",
        -10.03250955243741
      ],
      [
        "ollmhór",
        -10.03335249890428
      ],
      [
        "Monaróir",
        -10.033397149311156
      ],
      [
        "bréagach",
        -10.033672819416303
      ],
      [
        "chuí",
        -10.034016950896124
      ],
      [
        "dheasca",
        -10.036264602329936
      ],
      [
        "eagtha",
        -10.03626676930105
      ],
      [
        "VI",
        -10.036568943976512
      ],
      [
        "othar",
        -10.036598691791914
      ],
      [
        "shábháil",
        -10.038754964827792
      ],
      [
        "ceapad",
        -10.038868305368531
      ],
      [
        "fuaime",
        -10.040480783386222
      ],
      [
        "bunú",
        -10.040853775767207
      ],
      [
        "aire",
        -10.042411996643896
      ],
      [
        "díls",
        -10.042522626555026
      ],
      [
        "páist",
        -10.043091680234937
      ],
      [
        "spreaga",
        -10.043826524439279
      ],
      [
        "Catagóir",
        -10.044806992102995
      ],
      [
        "todhchaí",
        -10.045641868177315
      ],
      [
        "48",
        -10.046642357450768
      ],
      [
        "praghs",
        -10.04743206837006
      ],
      [
        "Ábhar",
        -10.049283117634673
      ],
      [
        "fuinni",
        -10.049359206929868
      ],
      [
        "chuga",
        -10.049496446338814
      ],
      [
        "iniúchta",
        -10.049788617429877
      ],
      [
        "próiseála",
        -10.050666682010872
      ],
      [
        "snáithe",
        -10.051877263616554
      ],
      [
        "chead",
        -10.052220856927192
      ],
      [
        "Wat",
        -10.054347240585393
      ],
      [
        "chónaithe",
        -10.054627967853854
      ],
      [
        "comhshao",
        -10.055102162882148
      ],
      [
        "Chontae",
        -10.056434368990283
      ],
      [
        "chúlghairm",
        -10.05741427374777
      ],
      [
        "inse",
        -10.057525631608865
      ],
      [
        "comha",
        -10.05752723550442
      ],
      [
        "isce",
        -10.059698323333416
      ],
      [
        "meácha",
        -10.060028979848877
      ],
      [
        "aoil",
        -10.061343620205523
      ],
      [
        "gcomhalta",
        -10.061440972284888
      ],
      [
        "Z",
        -10.062616531992882
      ],
      [
        "shaol",
        -10.06276136443368
      ],
      [
        "Post",
        -10.064650308332439
      ],
      [
        "ite",
        -10.064727913606553
      ],
      [
        "olas",
        -10.06493154584681
      ],
      [
        "liti",
        -10.065219395922014
      ],
      [
        "cuarda",
        -10.065380381274265
      ],
      [
        "ill",
        -10.066477129088389
      ],
      [
        "Theas",
        -10.067482206490343
      ],
      [
        "shuiteáil",
        -10.067893573806595
      ],
      [
        "gné",
        -10.068245615913108
      ],
      [
        "íosta",
        -10.068315451820549
      ],
      [
        "dhíreach",
        -10.068575097537483
      ],
      [
        "Next",
        -10.068639064994247
      ],
      [
        "aghas",
        -10.069295717326305
      ],
      [
        "ordóid",
        -10.069831184383823
      ],
      [
        "chaoi",
        -10.070081385212884
      ],
      [
        "ualach",
        -10.070164664414095
      ],
      [
        "íolta",
        -10.070920391469258
      ],
      [
        "75",
        -10.071710575099665
      ],
      [
        "iarr",
        -10.072349449502445
      ],
      [
        "onn",
        -10.078872659064324
      ],
      [
        "Áir",
        -10.07894447241103
      ],
      [
        "ineacht",
        -10.079044098699242
      ],
      [
        "Pland",
        -10.079054812860587
      ],
      [
        "tionónta",
        -10.080148573385115
      ],
      [
        "iarsma",
        -10.080154217826204
      ],
      [
        "42",
        -10.080207732148093
      ],
      [
        "tirim",
        -10.080406380111729
      ],
      [
        "spraoi",
        -10.08076559758805
      ],
      [
        "Tionscada",
        -10.081283751965321
      ],
      [
        "riachtana",
        -10.082412514797127
      ],
      [
        "teagmhála",
        -10.082620424396278
      ],
      [
        "dúrad",
        -10.084928765531785
      ],
      [
        "imthosca",
        -10.085091105733177
      ],
      [
        "nuashonr",
        -10.088015193007031
      ],
      [
        "ailte",
        -10.088786761244242
      ],
      [
        "intinn",
        -10.088881410697581
      ],
      [
        "European",
        -10.090679031222429
      ],
      [
        "37",
        -10.09136595107796
      ],
      [
        "ARLAIMINT",
        -10.091599709814357
      ],
      [
        "Ionad",
        -10.09200334750399
      ],
      [
        "obac",
        -10.092037799173127
      ],
      [
        "Bláth",
        -10.092210175724714
      ],
      [
        "duilleog",
        -10.09258397442775
      ],
      [
        "thógaint",
        -10.092699443558185
      ],
      [
        "Euro",
        -10.093547045949526
      ],
      [
        "measúnachta",
        -10.093589541324977
      ],
      [
        "chuntas",
        -10.09399185889263
      ],
      [
        "Leanaí",
        -10.094230160886577
      ],
      [
        "Ansin",
        -10.094282748462692
      ],
      [
        "bainisti",
        -10.094697014537354
      ],
      [
        "teicneolaíocht",
        -10.094866671011484
      ],
      [
        "maoiniú",
        -10.095152654679818
      ],
      [
        "Fac",
        -10.095818335607596
      ],
      [
        "ladh",
        -10.096650145686905
      ],
      [
        "aidhm",
        -10.096752182343089
      ],
      [
        "Iris",
        -10.098685692993154
      ],
      [
        "bog",
        -10.098869330858932
      ],
      [
        "bhall",
        -10.098955440668508
      ],
      [
        "bonn",
        -10.09946885593781
      ],
      [
        "comhpháirt",
        -10.101610173911142
      ],
      [
        "lach",
        -10.103579115506243
      ],
      [
        "tháirgí",
        -10.104139999368169
      ],
      [
        "Choinbhinsiú",
        -10.1043463889654
      ],
      [
        "friotaíocht",
        -10.104347581669348
      ],
      [
        "Fostaíocht",
        -10.10439244781389
      ],
      [
        "cathrach",
        -10.10522151677837
      ],
      [
        "titim",
        -10.105452479588074
      ],
      [
        "bronntana",
        -10.105626879073819
      ],
      [
        "Níor",
        -10.107669030085367
      ],
      [
        "2000",
        -10.108216235370909
      ],
      [
        "branda",
        -10.109010871301239
      ],
      [
        "teaghlach",
        -10.1092612796836
      ],
      [
        "anailís",
        -10.10949121692687
      ],
      [
        "comhréireacht",
        -10.11113415291509
      ],
      [
        "othabháil",
        -10.11167904640554
      ],
      [
        "deireanach",
        -10.111836404661648
      ],
      [
        "triail",
        -10.112756572462043
      ],
      [
        "méad",
        -10.113341081577001
      ],
      [
        "Ceann",
        -10.113876412508816
      ],
      [
        "Imeachta",
        -10.114971857797228
      ],
      [
        "breithiúna",
        -10.11558771724577
      ],
      [
        "ibh",
        -10.11570625773939
      ],
      [
        "ghearr",
        -10.116479760525198
      ],
      [
        "Gaillimh",
        -10.116692231353866
      ],
      [
        "Connect",
        -10.116692776117858
      ],
      [
        "Talmhaíocht",
        -10.116696555387698
      ],
      [
        "IS",
        -10.118226450663837
      ],
      [
        "shóisial",
        -10.11853561906829
      ],
      [
        "chinn",
        -10.119042026623077
      ],
      [
        "eagraíochta",
        -10.120548538455417
      ],
      [
        "crann",
        -10.121177400457192
      ],
      [
        "Samhai",
        -10.121965735739504
      ],
      [
        "istí",
        -10.122013795373975
      ],
      [
        "ghníomhaíocht",
        -10.122709070272204
      ],
      [
        "bhreithniú",
        -10.122736875749133
      ],
      [
        "ainmneach",
        -10.123141250231939
      ],
      [
        "49",
        -10.123317610910096
      ],
      [
        "orainn",
        -10.12505053098591
      ],
      [
        "creat",
        -10.125215766144905
      ],
      [
        "scoirf",
        -10.12740519300463
      ],
      [
        "táscair",
        -10.128715594964582
      ],
      [
        "Europ",
        -10.130329271470067
      ],
      [
        "stoic",
        -10.13033581232346
      ],
      [
        "gcomhlíon",
        -10.133350844310087
      ],
      [
        "difríocht",
        -10.133968242791934
      ],
      [
        "úinéireacht",
        -10.134202808009643
      ],
      [
        "éiríonn",
        -10.134630029357595
      ],
      [
        "fhás",
        -10.135268516682284
      ],
      [
        "cónaí",
        -10.13594577939662
      ],
      [
        "thrí",
        -10.136119032752475
      ],
      [
        "fhorál",
        -10.136384678961392
      ],
      [
        "Faisnéise",
        -10.136697263354833
      ],
      [
        "custaiméir",
        -10.137337937461322
      ],
      [
        "Be",
        -10.137638906361524
      ],
      [
        "bhforál",
        -10.138533148044651
      ],
      [
        "fhaigh",
        -10.138636067041947
      ],
      [
        "riail",
        -10.139857693532711
      ],
      [
        "gcuntas",
        -10.140210563727129
      ],
      [
        "ling",
        -10.14029659396272
      ],
      [
        "pobal",
        -10.140791207775473
      ],
      [
        "Leas",
        -10.141430974835856
      ],
      [
        "foirfe",
        -10.141539474917483
      ],
      [
        "athnuachan",
        -10.141853105153679
      ],
      [
        "teaghais",
        -10.14185715542948
      ],
      [
        "Monarcha",
        -10.141860681627552
      ],
      [
        "Ráta",
        -10.141870322570682
      ],
      [
        "tromchúiseach",
        -10.142222057690569
      ],
      [
        "wash",
        -10.142336169230596
      ],
      [
        "éadaí",
        -10.142339470055797
      ],
      [
        "mbeart",
        -10.142548980105158
      ],
      [
        "Mór",
        -10.142555000825393
      ],
      [
        "ndéanfaid",
        -10.142631748167389
      ],
      [
        "pháirtí",
        -10.142671060718513
      ],
      [
        "toghachá",
        -10.144108962745285
      ],
      [
        "roinn",
        -10.145716490347475
      ],
      [
        "ceanta",
        -10.14815381591859
      ],
      [
        "breis",
        -10.148616836417354
      ],
      [
        "Gníomhaireacht",
        -10.148671862284484
      ],
      [
        "Gníomhaíochta",
        -10.149401487714403
      ],
      [
        "eacht",
        -10.14962798057055
      ],
      [
        "Éireannach",
        -10.151558758104487
      ],
      [
        "mbunaí",
        -10.152193131954744
      ],
      [
        "gcomhlacht",
        -10.152748103888547
      ],
      [
        "Ealaíon",
        -10.153623620106295
      ],
      [
        "ainmniúchá",
        -10.153717100751795
      ],
      [
        "fuar",
        -10.154411633225001
      ],
      [
        "dualga",
        -10.154614595875167
      ],
      [
        "bac",
        -10.154628805531418
      ],
      [
        "blas",
        -10.15492208359968
      ],
      [
        "phearsanta",
        -10.15502534290336
      ],
      [
        "pearsan",
        -10.155179056435786
      ],
      [
        "CDD",
        -10.15537171905428
      ],
      [
        "mórdhíoltóir",
        -10.155700212925275
      ],
      [
        "amhras",
        -10.15624379110254
      ],
      [
        "Feidhmiú",
        -10.156348984080113
      ],
      [
        "tiocfaid",
        -10.157515612694242
      ],
      [
        "dhéag",
        -10.157757642697643
      ],
      [
        "IL",
        -10.157879759037144
      ],
      [
        "nglacfa",
        -10.158378260794002
      ],
      [
        "Ceannai",
        -10.158649285931018
      ],
      [
        "cathaoirleach",
        -10.159632110437602
      ],
      [
        "staidé",
        -10.15985460134808
      ],
      [
        "bheart",
        -10.16148723066561
      ],
      [
        "ness",
        -10.162256658546887
      ],
      [
        "stáit",
        -10.162878095689585
      ],
      [
        "cultúr",
        -10.163286241289189
      ],
      [
        "65",
        -10.164430986318356
      ],
      [
        "Seirbhíse",
        -10.164482218187448
      ],
      [
        "taitneamh",
        -10.164510695356839
      ],
      [
        "comharthaí",
        -10.166366355797317
      ],
      [
        "Forála",
        -10.166736371852231
      ],
      [
        "léiríonn",
        -10.166760713077938
      ],
      [
        "thóg",
        -10.16684160929689
      ],
      [
        "threoir",
        -10.167393821123085
      ],
      [
        "Cumarsáid",
        -10.167657868083232
      ],
      [
        "Ilghnéitheach",
        -10.1676579074405
      ],
      [
        "Chearta",
        -10.167683734563411
      ],
      [
        "éascú",
        -10.16773555962771
      ],
      [
        "áititheoir",
        -10.167877637340819
      ],
      [
        "cóireáil",
        -10.167894760053695
      ],
      [
        "Iosta",
        -10.168466007866073
      ],
      [
        "Cuideachta",
        -10.169385829908183
      ],
      [
        "mheán",
        -10.169927366048205
      ],
      [
        "sheachai",
        -10.170298816980472
      ],
      [
        "glacfa",
        -10.171030835924249
      ],
      [
        "roichead",
        -10.171669037228977
      ],
      [
        "labhairt",
        -10.171688490676845
      ],
      [
        "toghchán",
        -10.1722436411205
      ],
      [
        "fág",
        -10.172438473348873
      ],
      [
        "srianta",
        -10.172991794676388
      ],
      [
        "gorm",
        -10.173170205303204
      ],
      [
        "aigheann",
        -10.173257662708235
      ],
      [
        "paisinéir",
        -10.176043539510175
      ],
      [
        "thíolaca",
        -10.177453353278512
      ],
      [
        "teas",
        -10.178118992563927
      ],
      [
        "críochnaithe",
        -10.178578772257339
      ],
      [
        "Cathrach",
        -10.180872898359794
      ],
      [
        "aibí",
        -10.181214022868536
      ],
      [
        "híocaíochta",
        -10.181820728768216
      ],
      [
        "ochta",
        -10.182771900847586
      ],
      [
        "fhostaí",
        -10.183548441266439
      ],
      [
        "Idirnáisiún",
        -10.183661675856166
      ],
      [
        "rolla",
        -10.18619530644743
      ],
      [
        "incháilithe",
        -10.18709080511126
      ],
      [
        "raitheann",
        -10.187863357467094
      ],
      [
        "cigire",
        -10.188440452873488
      ],
      [
        "fiosrúchá",
        -10.19047211602336
      ],
      [
        "sibhialta",
        -10.190746493890984
      ],
      [
        "stáda",
        -10.19093461779071
      ],
      [
        "tabharfaid",
        -10.19114936489688
      ],
      [
        "hiúscairt",
        -10.191623522938524
      ],
      [
        "Úsáid",
        -10.193242459365905
      ],
      [
        "chúna",
        -10.193592703375462
      ],
      [
        "olex",
        -10.193682086270504
      ],
      [
        "dhíon",
        -10.193754427236499
      ],
      [
        "iontaofa",
        -10.193995365520479
      ],
      [
        "Outlook",
        -10.19415570935972
      ],
      [
        "digiteach",
        -10.194162025573718
      ],
      [
        "mhaolú",
        -10.194381684164224
      ],
      [
        "choinníollach",
        -10.194624822102842
      ],
      [
        "tomhaltóir",
        -10.194795094260236
      ],
      [
        "chomhlíon",
        -10.19497025423076
      ],
      [
        "comhairliúchá",
        -10.195017569056962
      ],
      [
        "Gairdín",
        -10.19505508144308
      ],
      [
        "chaith",
        -10.195106516223518
      ],
      [
        "lámh",
        -10.195664505862396
      ],
      [
        "Foirm",
        -10.196092288041623
      ],
      [
        "dhlí",
        -10.196095494086787
      ],
      [
        "chonra",
        -10.196220649627321
      ],
      [
        "nmhuirear",
        -10.196924832209305
      ],
      [
        "lárnach",
        -10.197037737801049
      ],
      [
        "hábhair",
        -10.199332053406888
      ],
      [
        "mhíniú",
        -10.19994021560273
      ],
      [
        "cheada",
        -10.200840208342195
      ],
      [
        "réigiú",
        -10.201907450043912
      ],
      [
        "tógála",
        -10.20431726871885
      ],
      [
        "tine",
        -10.204703013661266
      ],
      [
        "55",
        -10.204715939538643
      ],
      [
        "deontais",
        -10.205991491535782
      ],
      [
        "cónaithe",
        -10.206316939360434
      ],
      [
        "oibríocht",
        -10.206643711390882
      ],
      [
        "cábla",
        -10.207049587181878
      ],
      [
        "caithea",
        -10.207695068434203
      ],
      [
        "diúscairt",
        -10.207699281605407
      ],
      [
        "buntáist",
        -10.209035695803426
      ],
      [
        "mheasúnú",
        -10.209333208649948
      ],
      [
        "con",
        -10.209777722830445
      ],
      [
        "rialaitheoir",
        -10.210361250559483
      ],
      [
        "ullmha",
        -10.210567187833114
      ],
      [
        "ige",
        -10.211550199484945
      ],
      [
        "lacha",
        -10.212158340828278
      ],
      [
        "eitilt",
        -10.212727907119522
      ],
      [
        "iniúchóir",
        -10.21312211441293
      ],
      [
        "fhad",
        -10.214721536063458
      ],
      [
        "phinsin",
        -10.214785717654657
      ],
      [
        "oibríochtú",
        -10.218639938082308
      ],
      [
        "inti",
        -10.218846104254023
      ],
      [
        "beatha",
        -10.219579687615251
      ],
      [
        "míniú",
        -10.21973143417005
      ],
      [
        "ithreach",
        -10.22087622304279
      ],
      [
        "luaith",
        -10.221101533105303
      ],
      [
        "bpoint",
        -10.221110389133656
      ],
      [
        "chumhda",
        -10.221498296411458
      ],
      [
        "dtreo",
        -10.221751956179961
      ],
      [
        "lactha",
        -10.222701997918762
      ],
      [
        "Comhaont",
        -10.223452672236231
      ],
      [
        "uiscí",
        -10.223512552738757
      ],
      [
        "j",
        -10.224185936116879
      ],
      [
        "úcháin",
        -10.225001603229742
      ],
      [
        "meascá",
        -10.22578193932751
      ],
      [
        "satailít",
        -10.226779303247195
      ],
      [
        "creidiúna",
        -10.227193028930367
      ],
      [
        "tosaíochta",
        -10.227439426158195
      ],
      [
        "áireofa",
        -10.228982158576557
      ],
      [
        "Cineál",
        -10.229557585110385
      ],
      [
        "stop",
        -10.229853704276405
      ],
      [
        "gléasra",
        -10.230379641362113
      ],
      [
        "phróisea",
        -10.230944324340598
      ],
      [
        "cód",
        -10.231544473908208
      ],
      [
        "ínte",
        -10.231981516502358
      ],
      [
        "Iarrata",
        -10.233079005716792
      ],
      [
        "éigeandála",
        -10.235323335543303
      ],
      [
        "Chúirte",
        -10.235636710422261
      ],
      [
        "thuiscint",
        -10.235897365221332
      ],
      [
        "pháipéir",
        -10.23594306667272
      ],
      [
        "iasachtaí",
        -10.236296258283296
      ],
      [
        "gruaig",
        -10.236994756465133
      ],
      [
        "iontaobhais",
        -10.237315864799562
      ],
      [
        "iarbh",
        -10.23985739662924
      ],
      [
        "Ria",
        -10.239928703411556
      ],
      [
        "treoirlín",
        -10.240950518522848
      ],
      [
        "taisteal",
        -10.240965746058873
      ],
      [
        "gníomhach",
        -10.241097861548452
      ],
      [
        "aimsire",
        -10.241450895791314
      ],
      [
        "coda",
        -10.242002980317384
      ],
      [
        "ordachá",
        -10.243429579550579
      ],
      [
        "timpeall",
        -10.244038712555849
      ],
      [
        "gcoinn",
        -10.244447220509507
      ],
      [
        "fhoirgn",
        -10.244458181733256
      ],
      [
        "scil",
        -10.245882776786438
      ],
      [
        "nscne",
        -10.246183332220951
      ],
      [
        "fionraí",
        -10.246676697134554
      ],
      [
        "athúil",
        -10.247309500739078
      ],
      [
        "gcríoch",
        -10.247721904043209
      ],
      [
        "2002",
        -10.247793339745511
      ],
      [
        "ugann",
        -10.248621059158083
      ],
      [
        "scanná",
        -10.248875230895983
      ],
      [
        "scoir",
        -10.249046342281835
      ],
      [
        "faighte",
        -10.249146296816747
      ],
      [
        "DHÉAN",
        -10.249335124700885
      ],
      [
        "Forbairt",
        -10.249433528983484
      ],
      [
        "fhadhb",
        -10.249436180977021
      ],
      [
        "chigire",
        -10.249618579822021
      ],
      [
        "Local",
        -10.249928721322377
      ],
      [
        "hosaint",
        -10.25065206356454
      ],
      [
        "sheachtain",
        -10.250674329119821
      ],
      [
        "muiri",
        -10.250996189716181
      ],
      [
        "mBan",
        -10.25123658977743
      ],
      [
        "alair",
        -10.251268156408678
      ],
      [
        "chluich",
        -10.251352946941076
      ],
      [
        "turas",
        -10.251753916505589
      ],
      [
        "gcruinni",
        -10.252782289525006
      ],
      [
        "gcomhlíonfa",
        -10.253974407971278
      ],
      [
        "radh",
        -10.254006321655126
      ],
      [
        "ionchúis",
        -10.254340617725468
      ],
      [
        "phlean",
        -10.25492569876784
      ],
      [
        "fhoirceann",
        -10.255941738593837
      ],
      [
        "J",
        -10.257732830612081
      ],
      [
        "thur",
        -10.258110848613082
      ],
      [
        "cóireála",
        -10.258812437109157
      ],
      [
        "croí",
        -10.258905633821087
      ],
      [
        "2003",
        -10.259862881729157
      ],
      [
        "gcóir",
        -10.26098048844545
      ],
      [
        "Tuarascá",
        -10.261649791014403
      ],
      [
        "eagra",
        -10.261662984499232
      ],
      [
        "chostas",
        -10.262253020024126
      ],
      [
        "gcionta",
        -10.262853964373932
      ],
      [
        "oibrí",
        -10.262914516432911
      ],
      [
        "gcoit",
        -10.263288678100764
      ],
      [
        "Taispeáin",
        -10.263620303330322
      ],
      [
        "bhéarfa",
        -10.263884210043642
      ],
      [
        "dhochtúir",
        -10.264104959146358
      ],
      [
        "pacáist",
        -10.264659710687123
      ],
      [
        "pian",
        -10.264678626665434
      ],
      [
        "táirgthe",
        -10.265718823916938
      ],
      [
        "dhul",
        -10.266310087533729
      ],
      [
        "Daon",
        -10.267061395961203
      ],
      [
        "bhei",
        -10.26800416999789
      ],
      [
        "ráchtál",
        -10.268533673489639
      ],
      [
        "Gníomhaireachta",
        -10.270401797092722
      ],
      [
        "Lá",
        -10.270424531535433
      ],
      [
        "feithicle",
        -10.270844387107203
      ],
      [
        "éir",
        -10.272836525449996
      ],
      [
        "páipéir",
        -10.273476334029214
      ],
      [
        "PS",
        -10.27365170481048
      ],
      [
        "mais",
        -10.275953935642384
      ],
      [
        "irí",
        -10.276356645088
      ],
      [
        "Barr",
        -10.277183320454405
      ],
      [
        "Conrad",
        -10.277300976450567
      ],
      [
        "áitri",
        -10.277555337149352
      ],
      [
        "thuairim",
        -10.278117986567334
      ],
      [
        "Gluaiseacht",
        -10.278157748486121
      ],
      [
        "New",
        -10.278267198460126
      ],
      [
        "imreoir",
        -10.278398937707117
      ],
      [
        "ghrian",
        -10.278554617351247
      ],
      [
        "sceideal",
        -10.278831000297782
      ],
      [
        "reidiúint",
        -10.279682033314565
      ],
      [
        "míleata",
        -10.279684746505481
      ],
      [
        "41",
        -10.28015434045832
      ],
      [
        "Nuacht",
        -10.280217606852794
      ],
      [
        "féilir",
        -10.281402316446776
      ],
      [
        "Pé",
        -10.282623650859243
      ],
      [
        "ceachta",
        -10.282682039149115
      ],
      [
        "fostaíocht",
        -10.283793898838518
      ],
      [
        "cúrsaí",
        -10.284933930754093
      ],
      [
        "dlíthiúil",
        -10.285736279769939
      ],
      [
        "Cumhacht",
        -10.286562389550593
      ],
      [
        "riocht",
        -10.28687102512681
      ],
      [
        "IO",
        -10.287658445182199
      ],
      [
        "buí",
        -10.288277881850803
      ],
      [
        "aíochta",
        -10.288894410322602
      ],
      [
        "iceáil",
        -10.290807714051393
      ],
      [
        "eithicil",
        -10.29100998063533
      ],
      [
        "infheistíocht",
        -10.29116944588718
      ],
      [
        "mblia",
        -10.291738900460148
      ],
      [
        "hArd",
        -10.292050371680602
      ],
      [
        "alúmana",
        -10.29282306413553
      ],
      [
        "staitistic",
        -10.292896599039933
      ],
      [
        "urscaoileadh",
        -10.293077917807146
      ],
      [
        "sheol",
        -10.293340449950907
      ],
      [
        "chúram",
        -10.296454859512915
      ],
      [
        "fhorléir",
        -10.296576030968872
      ],
      [
        "Léig",
        -10.297514354307719
      ],
      [
        "leic",
        -10.297867302264976
      ],
      [
        "mheasfa",
        -10.298799908715106
      ],
      [
        "DH",
        -10.299982058675756
      ],
      [
        "gairmiú",
        -10.300349455252283
      ],
      [
        "eis",
        -10.301781573711962
      ],
      [
        "mhodhn",
        -10.302303184377642
      ],
      [
        "bean",
        -10.303211954263242
      ],
      [
        "buiséad",
        -10.303817524934122
      ],
      [
        "isceana",
        -10.30633927898744
      ],
      [
        "bheag",
        -10.307083995318404
      ],
      [
        "craice",
        -10.30709334377195
      ],
      [
        "tiomanta",
        -10.307976808887677
      ],
      [
        "Faigh",
        -10.308645026180425
      ],
      [
        "choinne",
        -10.308941994444854
      ],
      [
        "ANNA",
        -10.308956127567104
      ],
      [
        "caidr",
        -10.309115325201095
      ],
      [
        "chorp",
        -10.309118629825562
      ],
      [
        "fhoghlaim",
        -10.309122773349525
      ],
      [
        "mic",
        -10.309171673703283
      ],
      [
        "PC",
        -10.310305305998735
      ],
      [
        "Sin",
        -10.310459740574508
      ],
      [
        "gníomhaíocht",
        -10.31059392378118
      ],
      [
        "giorra",
        -10.31087218187913
      ],
      [
        "díolachá",
        -10.312005898373691
      ],
      [
        "toirt",
        -10.312153430807808
      ],
      [
        "shealbhóir",
        -10.31287205510029
      ],
      [
        "aimsi",
        -10.313147790525768
      ],
      [
        "Oifigiú",
        -10.313209688357986
      ],
      [
        "leithl",
        -10.313531999216544
      ],
      [
        "bpáirt",
        -10.314913638255074
      ],
      [
        "ers",
        -10.314959279150766
      ],
      [
        "dian",
        -10.31509361912961
      ],
      [
        "teicneolaíochta",
        -10.315922720490232
      ],
      [
        "óthair",
        -10.31633430982069
      ],
      [
        "aontú",
        -10.317680061376677
      ],
      [
        "gCiste",
        -10.318265388251778
      ],
      [
        "tuarascála",
        -10.319008233381876
      ],
      [
        "meas",
        -10.319262369494623
      ],
      [
        "fhostaithe",
        -10.319793860703694
      ],
      [
        "ealaín",
        -10.320283643268558
      ],
      [
        "pictiúr",
        -10.321300932101526
      ],
      [
        "Iomlán",
        -10.322916990961748
      ],
      [
        "compordach",
        -10.323371951024356
      ],
      [
        "seachada",
        -10.323535029516798
      ],
      [
        "shiúl",
        -10.324040744251306
      ],
      [
        "díoltóir",
        -10.324190924149582
      ],
      [
        "fhostóir",
        -10.32443308312816
      ],
      [
        "01",
        -10.324500646070344
      ],
      [
        "idirbheart",
        -10.325282667126075
      ],
      [
        "ospidé",
        -10.326668143330078
      ],
      [
        "glasra",
        -10.32711209068854
      ],
      [
        "AS",
        -10.32792950466233
      ],
      [
        "Daonlatha",
        -10.32818152042616
      ],
      [
        "Mheán",
        -10.328382755573053
      ],
      [
        "fuinn",
        -10.328526437292833
      ],
      [
        "hoifig",
        -10.328584695058025
      ],
      [
        "bhótha",
        -10.328665498098875
      ],
      [
        "meáchain",
        -10.329947681821928
      ],
      [
        "gal",
        -10.331198566606265
      ],
      [
        "iniúchóireachta",
        -10.33192362738206
      ],
      [
        "Bhain",
        -10.332500074481043
      ],
      [
        "cainé",
        -10.333676632280426
      ],
      [
        "caighdeánach",
        -10.334946020835625
      ],
      [
        "eastái",
        -10.33582291484332
      ],
      [
        "eolaíoch",
        -10.336606076426541
      ],
      [
        "éal",
        -10.337085309516464
      ],
      [
        "fórsa",
        -10.33765977111603
      ],
      [
        "toirmeasc",
        -10.338263994022276
      ],
      [
        "Eilvéis",
        -10.338280448175327
      ],
      [
        "Praghas",
        -10.338296650496092
      ],
      [
        "iontráil",
        -10.33923366068179
      ],
      [
        "chustaiméir",
        -10.340498039966706
      ],
      [
        "Atha",
        -10.340561412057179
      ],
      [
        "Nach",
        -10.341077836395616
      ],
      [
        "príosúnacht",
        -10.341080962599378
      ],
      [
        "per",
        -10.341174355615319
      ],
      [
        "vótála",
        -10.341236086043718
      ],
      [
        "comhar",
        -10.341303752087132
      ],
      [
        "oiciméid",
        -10.341473928817205
      ],
      [
        "fíon",
        -10.341497103050035
      ],
      [
        "eochair",
        -10.341569172795268
      ],
      [
        "toghchá",
        -10.342146244189124
      ],
      [
        "08",
        -10.342360061968227
      ],
      [
        "mionsonra",
        -10.342453058067363
      ],
      [
        "nasctha",
        -10.34269729295327
      ],
      [
        "66",
        -10.34300153528876
      ],
      [
        "mhargai",
        -10.343968088156323
      ],
      [
        "Ná",
        -10.344308907344995
      ],
      [
        "measta",
        -10.344640888834284
      ],
      [
        "tábhacht",
        -10.344678297376142
      ],
      [
        "eachtúla",
        -10.344928444235375
      ],
      [
        "asta",
        -10.347424991090648
      ],
      [
        "gearán",
        -10.348364423030041
      ],
      [
        "phionós",
        -10.348414441325884
      ],
      [
        "pháirt",
        -10.348636129177748
      ],
      [
        "aidh",
        -10.350522909695162
      ],
      [
        "aidir",
        -10.351604415230309
      ],
      [
        "reachtach",
        -10.351609391122704
      ],
      [
        "séala",
        -10.351709191053438
      ],
      [
        "pá",
        -10.35176816219606
      ],
      [
        "ortha",
        -10.352028464181098
      ],
      [
        "eagla",
        -10.352432570933479
      ],
      [
        "níor",
        -10.352888055881756
      ],
      [
        "ianaise",
        -10.352892715322152
      ],
      [
        "clúdach",
        -10.352932842566062
      ],
      [
        "reáchtáil",
        -10.353905480512228
      ],
      [
        "Uaireadóir",
        -10.35390557458308
      ],
      [
        "Chuarda",
        -10.353929134462332
      ],
      [
        "baránta",
        -10.353931085409712
      ],
      [
        "Tábla",
        -10.353994413022864
      ],
      [
        "80",
        -10.35476047531958
      ],
      [
        "É",
        -10.355313017701377
      ],
      [
        "dhaingniú",
        -10.35568617272683
      ],
      [
        "chaill",
        -10.356093828619693
      ],
      [
        "cruthúna",
        -10.356131156273884
      ],
      [
        "bhunaithe",
        -10.356607553615266
      ],
      [
        "Ciall",
        -10.35667130104487
      ],
      [
        "Ráit",
        -10.356722667838726
      ],
      [
        "allmhairiú",
        -10.356736552108249
      ],
      [
        "coinníoll",
        -10.357952210175252
      ],
      [
        "Comhshao",
        -10.358373925633025
      ],
      [
        "éagsú",
        -10.360032663296984
      ],
      [
        "hoibleagáid",
        -10.362161861276785
      ],
      [
        "bailí",
        -10.362196771095713
      ],
      [
        "Coláist",
        -10.363589420125848
      ],
      [
        "ation",
        -10.36468837642406
      ],
      [
        "teachtaireacht",
        -10.365239358772193
      ],
      [
        "book",
        -10.365598058513939
      ],
      [
        "chostais",
        -10.366011345721027
      ],
      [
        "EUR",
        -10.366787012619696
      ],
      [
        "teasa",
        -10.368716631121629
      ],
      [
        "thiar",
        -10.369403773009953
      ],
      [
        "liathróid",
        -10.369792600690355
      ],
      [
        "Tiocf",
        -10.369823252736197
      ],
      [
        "tírdhreach",
        -10.369865469788152
      ],
      [
        "Taighde",
        -10.370112836768673
      ],
      [
        "Dollar",
        -10.371111510517684
      ],
      [
        "oirne",
        -10.372154587769572
      ],
      [
        "clúda",
        -10.372526439879229
      ],
      [
        "chúrsa",
        -10.373208198373451
      ],
      [
        "ciste",
        -10.373349415458847
      ],
      [
        "Teaghla",
        -10.374015599999858
      ],
      [
        "58",
        -10.37404595913113
      ],
      [
        "Cl",
        -10.374478089567589
      ],
      [
        "ph",
        -10.376117241675143
      ],
      [
        "trácht",
        -10.376720627691263
      ],
      [
        "Cáin",
        -10.376919099902993
      ],
      [
        "CEE",
        -10.376949868232714
      ],
      [
        "cairde",
        -10.377414329059967
      ],
      [
        "taispeánta",
        -10.377492722376982
      ],
      [
        "dhiaili",
        -10.377826491345054
      ],
      [
        "comhartha",
        -10.378624801147907
      ],
      [
        "réasún",
        -10.379233790264129
      ],
      [
        "áilte",
        -10.37934180421409
      ],
      [
        "dtaga",
        -10.379468937710826
      ],
      [
        "Cuirf",
        -10.379866178845749
      ],
      [
        "caithfi",
        -10.380298524831687
      ],
      [
        "Aois",
        -10.380650352342233
      ],
      [
        "caipitiú",
        -10.3808152607393
      ],
      [
        "gcomh",
        -10.38154934560107
      ],
      [
        "aisghair",
        -10.38221418232861
      ],
      [
        "point",
        -10.382686605949635
      ],
      [
        "meastóireacht",
        -10.383612987303573
      ],
      [
        "phlé",
        -10.383638390501776
      ],
      [
        "óige",
        -10.383792968940128
      ],
      [
        "íniú",
        -10.383884016023199
      ],
      [
        "Mo",
        -10.384679040968418
      ],
      [
        "mheasta",
        -10.38472408657709
      ],
      [
        "allraí",
        -10.385450026495242
      ],
      [
        "rapóirtéir",
        -10.385907667142403
      ],
      [
        "Fhrainc",
        -10.3859098643084
      ],
      [
        "gaolmhar",
        -10.385964626510951
      ],
      [
        "National",
        -10.385972605444554
      ],
      [
        "foláir",
        -10.386158026426994
      ],
      [
        "chríche",
        -10.386196772159686
      ],
      [
        "díbhinn",
        -10.386259752804708
      ],
      [
        "traenach",
        -10.386265265515103
      ],
      [
        "áirgeadh",
        -10.386400140545668
      ],
      [
        "Cosant",
        -10.386438634289235
      ],
      [
        "madra",
        -10.3866209912544
      ],
      [
        "Feidhm",
        -10.387154607178985
      ],
      [
        "cúrsa",
        -10.387255036433878
      ],
      [
        "fhorghníomh",
        -10.387502271463399
      ],
      [
        "dteagmhá",
        -10.387756261132457
      ],
      [
        "Déardao",
        -10.387819806988386
      ],
      [
        "arainn",
        -10.389872754434876
      ],
      [
        "hroim",
        -10.390066933290868
      ],
      [
        "Rialú",
        -10.390616835012871
      ],
      [
        "árta",
        -10.390809818187432
      ],
      [
        "gcomhlíona",
        -10.39148331371987
      ],
      [
        "gúna",
        -10.391536100809265
      ],
      [
        "bailiúchá",
        -10.392098215839498
      ],
      [
        "cruth",
        -10.392255207511262
      ],
      [
        "Ph",
        -10.392619162194102
      ],
      [
        "olais",
        -10.392661253502439
      ],
      [
        "stóra",
        -10.392943451197219
      ],
      [
        "cáilíocht",
        -10.39389729797535
      ],
      [
        "deartha",
        -10.394846344658212
      ],
      [
        "earrach",
        -10.396166400453374
      ],
      [
        "eastá",
        -10.399038476381746
      ],
      [
        "léigh",
        -10.399280375907043
      ],
      [
        "úsáideach",
        -10.399851443631807
      ],
      [
        "Q",
        -10.399932977886268
      ],
      [
        "Réamh",
        -10.400600265507975
      ],
      [
        "Lean",
        -10.400912272661134
      ],
      [
        "olctha",
        -10.401541157102834
      ],
      [
        "189",
        -10.402161571222148
      ],
      [
        "vótáil",
        -10.402301056674045
      ],
      [
        "Uathoibríoch",
        -10.402305730905237
      ],
      [
        "polaitiú",
        -10.402364811176293
      ],
      [
        "rannpháirtíocht",
        -10.402557951631628
      ],
      [
        "Joint",
        -10.402562399043775
      ],
      [
        "sainráite",
        -10.402562794762805
      ],
      [
        "Saoir",
        -10.402667408547913
      ],
      [
        "fheithic",
        -10.402762835372126
      ],
      [
        "laghdaithe",
        -10.402856589999669
      ],
      [
        "EASÚ",
        -10.403427529571628
      ],
      [
        "scáileá",
        -10.404243861068352
      ],
      [
        "fáilte",
        -10.404369370483476
      ],
      [
        "gceangla",
        -10.40441349603059
      ],
      [
        "shannta",
        -10.404908019045944
      ],
      [
        "brabús",
        -10.40509689865355
      ],
      [
        "eagrú",
        -10.405778895737921
      ],
      [
        "sua",
        -10.406122002117769
      ],
      [
        "Roghna",
        -10.406128791846314
      ],
      [
        "dúbailt",
        -10.406202999565423
      ],
      [
        "hAchta",
        -10.40713927084057
      ],
      [
        "oirceannadh",
        -10.407142890713862
      ],
      [
        "corparáide",
        -10.40864937125189
      ],
      [
        "imní",
        -10.409449136949934
      ],
      [
        "breithe",
        -10.409563879808346
      ],
      [
        "oibrío",
        -10.410716269999394
      ],
      [
        "gceanta",
        -10.411772088852578
      ],
      [
        "scáth",
        -10.411910864439609
      ],
      [
        "68",
        -10.412424089939279
      ],
      [
        "polasa",
        -10.414385223041062
      ],
      [
        "cuibhe",
        -10.414486997112189
      ],
      [
        "euro",
        -10.41542372670558
      ],
      [
        "Tugt",
        -10.415562597669759
      ],
      [
        "rannpháirteach",
        -10.417574712328006
      ],
      [
        "carr",
        -10.418328083615917
      ],
      [
        "díospóid",
        -10.41896771570689
      ],
      [
        "óspidé",
        -10.418980092207706
      ],
      [
        "Ghearmáin",
        -10.419044818828318
      ],
      [
        "02",
        -10.419546244147536
      ],
      [
        "illiún",
        -10.419820055440818
      ],
      [
        "fhreagra",
        -10.419829343940775
      ],
      [
        "ghníomhaire",
        -10.419941606193186
      ],
      [
        "carachta",
        -10.420239338578455
      ],
      [
        "ebate",
        -10.42052510276621
      ],
      [
        "sreabha",
        -10.42080287375596
      ],
      [
        "réalta",
        -10.421450328009282
      ],
      [
        "tuarasta",
        -10.421587558355796
      ],
      [
        "sain",
        -10.421756286461417
      ],
      [
        "domhanda",
        -10.421900961037665
      ],
      [
        "gairm",
        -10.422399247276658
      ],
      [
        "mhuirearú",
        -10.422474882442316
      ],
      [
        "meái",
        -10.422681130188455
      ],
      [
        "Rialacha",
        -10.423196817300699
      ],
      [
        "plé",
        -10.424308730567459
      ],
      [
        "honraithe",
        -10.424455977671123
      ],
      [
        "Roinne",
        -10.42503908238189
      ],
      [
        "máil",
        -10.425275677614021
      ],
      [
        "ois",
        -10.426309551467076
      ],
      [
        "Oibre",
        -10.426401602479311
      ],
      [
        "indéanta",
        -10.426741515410743
      ],
      [
        "Síne",
        -10.426995689792635
      ],
      [
        "éifeachtúlacht",
        -10.427787821736224
      ],
      [
        "chuma",
        -10.429448796730547
      ],
      [
        "himthosca",
        -10.429844061134848
      ],
      [
        "seolta",
        -10.43214866783418
      ],
      [
        "stórála",
        -10.432426950879279
      ],
      [
        "Chaibid",
        -10.432766088121737
      ],
      [
        "éireo",
        -10.433100254533848
      ],
      [
        "coimeád",
        -10.433367859742653
      ],
      [
        "únas",
        -10.433627549552599
      ],
      [
        "ascach",
        -10.433939201245506
      ],
      [
        "ceangailte",
        -10.434023339518758
      ],
      [
        "deoch",
        -10.434331439097956
      ],
      [
        "eartú",
        -10.434809018482397
      ],
      [
        "Cainteoir",
        -10.435923155311528
      ],
      [
        "bhean",
        -10.436177134151952
      ],
      [
        "fuinneog",
        -10.4361848996162
      ],
      [
        "víosa",
        -10.436210794358356
      ],
      [
        "iPhone",
        -10.436351778912078
      ],
      [
        "chomaoin",
        -10.436560710943803
      ],
      [
        "Clib",
        -10.43661113764454
      ],
      [
        "47",
        -10.436783875567873
      ],
      [
        "coiriúla",
        -10.43710955369589
      ],
      [
        "Treorach",
        -10.43717507605571
      ],
      [
        "laethú",
        -10.437421245043346
      ],
      [
        "Déantóir",
        -10.437582751060678
      ],
      [
        "44",
        -10.437823861714804
      ],
      [
        "aeráid",
        -10.438203801364747
      ],
      [
        "achta",
        -10.438218110954704
      ],
      [
        "tháirg",
        -10.438445790682092
      ],
      [
        "ghlana",
        -10.438687312590329
      ],
      [
        "Fheidhmiú",
        -10.438865967662366
      ],
      [
        "osú",
        -10.438981850092244
      ],
      [
        "tráchta",
        -10.439040050489346
      ],
      [
        "dhear",
        -10.43908759028881
      ],
      [
        "scaipea",
        -10.439642341098264
      ],
      [
        "Beal",
        -10.439999210341444
      ],
      [
        "Comhalta",
        -10.440040442083195
      ],
      [
        "chlúdach",
        -10.440397586827807
      ],
      [
        "Glacfa",
        -10.441264837605722
      ],
      [
        "cliceá",
        -10.441606701729214
      ],
      [
        "geal",
        -10.442009366722905
      ],
      [
        "cáiliú",
        -10.44209040627207
      ],
      [
        "míre",
        -10.442163638672632
      ],
      [
        "cháil",
        -10.442274128200868
      ],
      [
        "Mh",
        -10.442723447260033
      ],
      [
        "Straitéis",
        -10.442865483913069
      ],
      [
        "Eacnamaíoch",
        -10.442979560988192
      ],
      [
        "gcumas",
        -10.443424072401609
      ],
      [
        "gcúirt",
        -10.443443730412335
      ],
      [
        "ilbhliantú",
        -10.443656937364278
      ],
      [
        "Céim",
        -10.44378176923361
      ],
      [
        "ghala",
        -10.444823524122029
      ],
      [
        "tabha",
        -10.445156458869477
      ],
      [
        "Oifigeach",
        -10.445724687895233
      ],
      [
        "aimsir",
        -10.447033178695595
      ],
      [
        "raein",
        -10.44716281164894
      ],
      [
        "héifeachtach",
        -10.449125305495137
      ],
      [
        "shan",
        -10.44927300029214
      ],
      [
        "chumann",
        -10.450623450320204
      ],
      [
        "píosa",
        -10.450706295477964
      ],
      [
        "riala",
        -10.450800869237636
      ],
      [
        "oird",
        -10.451262978701635
      ],
      [
        "toba",
        -10.451420745963347
      ],
      [
        "hraitheann",
        -10.45173904279373
      ],
      [
        "Comhphoba",
        -10.452001057902978
      ],
      [
        "thuairisc",
        -10.453092869158898
      ],
      [
        "Â",
        -10.453158131186289
      ],
      [
        "Tuairim",
        -10.453170511704124
      ],
      [
        "uaireadóir",
        -10.453183709598886
      ],
      [
        "Super",
        -10.453185639494338
      ],
      [
        "Limisté",
        -10.453443980668158
      ],
      [
        "bháis",
        -10.45353124640862
      ],
      [
        "Athr",
        -10.453540976833821
      ],
      [
        "buidéal",
        -10.453965655151638
      ],
      [
        "dearfach",
        -10.454249474419665
      ],
      [
        "tarraingt",
        -10.454299783779033
      ],
      [
        "COMHAIRLE",
        -10.454642341244378
      ],
      [
        "cóiríocht",
        -10.454959157431308
      ],
      [
        "dílseána",
        -10.454980901416526
      ],
      [
        "dtuairim",
        -10.455356705787944
      ],
      [
        "inmhuir",
        -10.456691004758257
      ],
      [
        "State",
        -10.45705875996607
      ],
      [
        "Dubh",
        -10.457512292688975
      ],
      [
        "Bei",
        -10.457515993401756
      ],
      [
        "tarraing",
        -10.45895647057819
      ],
      [
        "malart",
        -10.459614337977527
      ],
      [
        "ceal",
        -10.460075664989052
      ],
      [
        "easpa",
        -10.460980217904016
      ],
      [
        "taise",
        -10.462265460897502
      ],
      [
        "huaigh",
        -10.46285264755167
      ],
      [
        "dhualga",
        -10.46430511917154
      ],
      [
        "56",
        -10.464713627242332
      ],
      [
        "mhoill",
        -10.46618959061843
      ],
      [
        "chuarda",
        -10.468068089190162
      ],
      [
        "Cumhachta",
        -10.46857393127226
      ],
      [
        "»",
        -10.470701990835412
      ],
      [
        "Diamond",
        -10.470964120027205
      ],
      [
        "fomhír",
        -10.471258722735133
      ],
      [
        "suime",
        -10.47126209937451
      ],
      [
        "fios",
        -10.472220832704036
      ],
      [
        "Chomhaont",
        -10.473541479543336
      ],
      [
        "Shan",
        -10.473746671700994
      ],
      [
        "daonna",
        -10.475960053123101
      ],
      [
        "Leigh",
        -10.477250334115404
      ],
      [
        "Cuirtea",
        -10.478376211471637
      ],
      [
        "vótaí",
        -10.479376115464722
      ],
      [
        "dtáirgí",
        -10.480019223299337
      ],
      [
        "Ö",
        -10.480193777395462
      ],
      [
        "olc",
        -10.481593070442376
      ],
      [
        "dáilea",
        -10.481648550324378
      ],
      [
        "bhfoca",
        -10.485284211337591
      ],
      [
        "Feabh",
        -10.48541279012381
      ],
      [
        "Sainmhíni",
        -10.485460274645817
      ],
      [
        "Éire",
        -10.485495507793466
      ],
      [
        "fhágá",
        -10.485796530077543
      ],
      [
        "fholaío",
        -10.486049585251202
      ],
      [
        "farraig",
        -10.486096793804792
      ],
      [
        "Mheiriceá",
        -10.487213201879504
      ],
      [
        "59",
        -10.487359810651316
      ],
      [
        "breac",
        -10.488495308900228
      ],
      [
        "fráma",
        -10.488561531994907
      ],
      [
        "caoga",
        -10.488582752746815
      ],
      [
        "dathanna",
        -10.488590812822705
      ],
      [
        "bainc",
        -10.488817931881558
      ],
      [
        "rochta",
        -10.48884359998473
      ],
      [
        "Iasca",
        -10.488903501566547
      ],
      [
        "Cás",
        -10.488951617763899
      ],
      [
        "uachtar",
        -10.488951945223873
      ],
      [
        "fhógair",
        -10.489030750151167
      ],
      [
        "cod",
        -10.489093690057604
      ],
      [
        "gluaisteá",
        -10.489177478147074
      ],
      [
        "cothromaíocht",
        -10.489621082552217
      ],
      [
        "bhfostaíocht",
        -10.490292708493751
      ],
      [
        "shaothr",
        -10.490685469556642
      ],
      [
        "Eile",
        -10.49152199975084
      ],
      [
        "fhíorú",
        -10.491725644226175
      ],
      [
        "64",
        -10.492934970843212
      ],
      [
        "cháilithe",
        -10.493109878017808
      ],
      [
        "chruinn",
        -10.493931421099084
      ],
      [
        "aineann",
        -10.49448836580991
      ],
      [
        "sonrófa",
        -10.495020324641414
      ],
      [
        "meicniú",
        -10.495971985752217
      ],
      [
        "géar",
        -10.496132231535475
      ],
      [
        "inarb",
        -10.496142931288095
      ],
      [
        "suimiú",
        -10.49616399369197
      ],
      [
        "ÓN",
        -10.49622368010132
      ],
      [
        "bróg",
        -10.496227734994237
      ],
      [
        "aturnae",
        -10.496454711920489
      ],
      [
        "Fo",
        -10.498395795386669
      ],
      [
        "Samh",
        -10.498666286217286
      ],
      [
        "dóiteá",
        -10.49869965255536
      ],
      [
        "ócáid",
        -10.498874573432731
      ],
      [
        "Universit",
        -10.499049979067308
      ],
      [
        "timpeallacht",
        -10.500100473263739
      ],
      [
        "eartaithe",
        -10.500120107573938
      ],
      [
        "Shóisiala",
        -10.500454773194503
      ],
      [
        "próiseáil",
        -10.501288464609132
      ],
      [
        "bhe",
        -10.50129195627252
      ],
      [
        "saincheist",
        -10.50289726202811
      ],
      [
        "teagmhas",
        -10.503150400776867
      ],
      [
        "meastachá",
        -10.503368571584724
      ],
      [
        "cheadó",
        -10.503550391668998
      ],
      [
        "tseachtain",
        -10.50455573076698
      ],
      [
        "ndéana",
        -10.50499503722551
      ],
      [
        "Earra",
        -10.50565377307723
      ],
      [
        "tuigfea",
        -10.505923426586765
      ],
      [
        "hong",
        -10.50660362244555
      ],
      [
        "Google",
        -10.506742560381294
      ],
      [
        "Health",
        -10.506746981303166
      ],
      [
        "infheisteoir",
        -10.506848723617846
      ],
      [
        "scilling",
        -10.50722977246249
      ],
      [
        "ríomhphoi",
        -10.50731414702355
      ],
      [
        "siúcra",
        -10.507698661630874
      ],
      [
        "cheadúnais",
        -10.507738805286538
      ],
      [
        "slán",
        -10.507790128066397
      ],
      [
        "Mhaigh",
        -10.508796053178349
      ],
      [
        "Soláthair",
        -10.509093504589737
      ],
      [
        "98",
        -10.509218951802794
      ],
      [
        "céil",
        -10.509744654471723
      ],
      [
        "díobhálach",
        -10.511193750513652
      ],
      [
        "Eo",
        -10.51239567118883
      ],
      [
        "Méad",
        -10.513348824655154
      ],
      [
        "phríobháideach",
        -10.513924959918674
      ],
      [
        "gáis",
        -10.51431198478604
      ],
      [
        "gComhphoba",
        -10.514919506585407
      ],
      [
        "éifeachta",
        -10.515047669554725
      ],
      [
        "chaillea",
        -10.51564105498161
      ],
      [
        "gcaithea",
        -10.516956441200934
      ],
      [
        "aistriúchá",
        -10.517579206341319
      ],
      [
        "cáilitheach",
        -10.519225909084373
      ],
      [
        "cháilíocht",
        -10.520786671465103
      ],
      [
        "chónaí",
        -10.52112126401996
      ],
      [
        "Sín",
        -10.521537020180642
      ],
      [
        "leanfaid",
        -10.522198741960674
      ],
      [
        "flash",
        -10.522748744526904
      ],
      [
        "ghníomhach",
        -10.522933901892811
      ],
      [
        "Corparáide",
        -10.524174125938146
      ],
      [
        "hoist",
        -10.52435137714939
      ],
      [
        "dháilea",
        -10.524865682839462
      ],
      [
        "·",
        -10.525259470392893
      ],
      [
        "bhéarfaid",
        -10.525276912985516
      ],
      [
        "scile",
        -10.52601578326988
      ],
      [
        "faisean",
        -10.526091472777786
      ],
      [
        "fhororda",
        -10.527026332071019
      ],
      [
        "dearmad",
        -10.52772134555047
      ],
      [
        "tube",
        -10.528037338132455
      ],
      [
        "phlanda",
        -10.528720533216138
      ],
      [
        "bainte",
        -10.528894604463275
      ],
      [
        "tábla",
        -10.528931624517343
      ],
      [
        "Ár",
        -10.529005445730574
      ],
      [
        "Chlár",
        -10.52930041897222
      ],
      [
        "saothrú",
        -10.530029097526212
      ],
      [
        "43",
        -10.530033941921369
      ],
      [
        "ghá",
        -10.530185990573639
      ],
      [
        "Athbhreithni",
        -10.53078586809891
      ],
      [
        "ghnótha",
        -10.530795301865895
      ],
      [
        "53",
        -10.53086765402821
      ],
      [
        "irteagal",
        -10.531046766627647
      ],
      [
        "rialáil",
        -10.53156790093328
      ],
      [
        "Iompa",
        -10.53177680095899
      ],
      [
        "rúnaí",
        -10.53204888479106
      ],
      [
        "gníomhaire",
        -10.53293614598734
      ],
      [
        "hoibreach",
        -10.533511288017277
      ],
      [
        "bhf",
        -10.533767895038377
      ],
      [
        "Áiritheo",
        -10.534143257269374
      ],
      [
        "áis",
        -10.534264232154253
      ],
      [
        "shonrach",
        -10.537021299007575
      ],
      [
        "by",
        -10.537132730272404
      ],
      [
        "Irish",
        -10.53724620853101
      ],
      [
        "Teicneolaíocht",
        -10.537479369919893
      ],
      [
        "patrú",
        -10.537552247841257
      ],
      [
        "Infheistíochta",
        -10.537979179479127
      ],
      [
        "láraitheoir",
        -10.538023481387887
      ],
      [
        "ontaithe",
        -10.53893315417816
      ],
      [
        "cuimhne",
        -10.539611703580846
      ],
      [
        "52",
        -10.539616845914972
      ],
      [
        "bhfora",
        -10.541429288285135
      ],
      [
        "mháil",
        -10.542131831247875
      ],
      [
        "video",
        -10.544127850506914
      ],
      [
        "dóich",
        -10.544523026624589
      ],
      [
        "Breataine",
        -10.54481315086591
      ],
      [
        "stampa",
        -10.544981614645693
      ],
      [
        "iompróir",
        -10.54534115886589
      ],
      [
        "leasmhar",
        -10.545899870158397
      ],
      [
        "íocht",
        -10.545921032662312
      ],
      [
        "choigeartú",
        -10.546804535431988
      ],
      [
        "scór",
        -10.547017735845277
      ],
      [
        "múnla",
        -10.547572526902837
      ],
      [
        "1960",
        -10.5477499401992
      ],
      [
        "07",
        -10.54781772070962
      ],
      [
        "gairmiúla",
        -10.54792768581477
      ],
      [
        "dligh",
        -10.54853800428079
      ],
      [
        "cheapfa",
        -10.548903199353706
      ],
      [
        "cothabhála",
        -10.549660458583883
      ],
      [
        "árasá",
        -10.55051498190866
      ],
      [
        "fréamh",
        -10.550789069784894
      ],
      [
        "chuntais",
        -10.551031791442323
      ],
      [
        "Iarratais",
        -10.55337552220383
      ],
      [
        "féideartha",
        -10.554517752497658
      ],
      [
        "fhostaíocht",
        -10.555743664816676
      ],
      [
        "forai",
        -10.556882002734412
      ],
      [
        "HUN",
        -10.55800410017344
      ],
      [
        "breosla",
        -10.558351418871368
      ],
      [
        "éine",
        -10.55837232067909
      ],
      [
        "Nós",
        -10.559083890775408
      ],
      [
        "eolaíochta",
        -10.55964363226781
      ],
      [
        "díola",
        -10.560650780020355
      ],
      [
        "astu",
        -10.561324475181006
      ],
      [
        "Gairmiú",
        -10.561436733379724
      ],
      [
        "nádúr",
        -10.562467991405128
      ],
      [
        "fáis",
        -10.562870811285709
      ],
      [
        "cruinnea",
        -10.56294129203344
      ],
      [
        "Trádála",
        -10.563359935444552
      ],
      [
        "Digiteach",
        -10.563468612084645
      ],
      [
        "athchomharc",
        -10.563522961674535
      ],
      [
        "maireachtá",
        -10.563733292977652
      ],
      [
        "Lucht",
        -10.564075961639588
      ],
      [
        "Fórsa",
        -10.564352228602962
      ],
      [
        "cuain",
        -10.564358255452706
      ],
      [
        "Sula",
        -10.56474203625158
      ],
      [
        "Domhna",
        -10.565472452040511
      ],
      [
        "gréine",
        -10.565832961061025
      ],
      [
        "mheasann",
        -10.566230719132449
      ],
      [
        "aisghabháil",
        -10.567109783446897
      ],
      [
        "miotai",
        -10.567467962046921
      ],
      [
        "Tóg",
        -10.56776811754981
      ],
      [
        "beirt",
        -10.568345130172789
      ],
      [
        "tiarna",
        -10.568380910114461
      ],
      [
        "leagfa",
        -10.570370278649705
      ],
      [
        "ghairmiú",
        -10.570542081792075
      ],
      [
        "fhaois",
        -10.570703301181926
      ],
      [
        "lonnaithe",
        -10.571977128546933
      ],
      [
        "crainn",
        -10.574188248741578
      ],
      [
        "litreach",
        -10.574395367077242
      ],
      [
        "úis",
        -10.574992361274665
      ],
      [
        "gealltana",
        -10.577364135840902
      ],
      [
        "píopa",
        -10.57761257485826
      ],
      [
        "achmair",
        -10.578262667373602
      ],
      [
        "ime",
        -10.579824877726141
      ],
      [
        "grád",
        -10.580154978712002
      ],
      [
        "fhéadfaid",
        -10.580891623134253
      ],
      [
        "fóill",
        -10.58248502292484
      ],
      [
        "pionóis",
        -10.58296619643951
      ],
      [
        "vitimín",
        -10.582967044228933
      ],
      [
        "monatóireacht",
        -10.582969907123978
      ],
      [
        "chaillteana",
        -10.583035758211278
      ],
      [
        "bhosca",
        -10.583408859106417
      ],
      [
        "mp3",
        -10.583449912105102
      ],
      [
        "scairchaipit",
        -10.583551308045552
      ],
      [
        "heagraíochta",
        -10.58374810708072
      ],
      [
        "Phoba",
        -10.583857616836033
      ],
      [
        "caith",
        -10.58404007405946
      ],
      [
        "uathúil",
        -10.584149297053102
      ],
      [
        "Bearta",
        -10.584266688418538
      ],
      [
        "Arm",
        -10.584471558764212
      ],
      [
        "chríochnú",
        -10.584597708588982
      ],
      [
        "casta",
        -10.584716414143093
      ],
      [
        "theasta",
        -10.58521086216464
      ],
      [
        "Táirge",
        -10.585217258451308
      ],
      [
        "fochuideachta",
        -10.585414857302771
      ],
      [
        "SE",
        -10.585486383616894
      ],
      [
        "mianra",
        -10.5854987444226
      ],
      [
        "ceapfa",
        -10.585786398478799
      ],
      [
        "1988",
        -10.585900764003934
      ],
      [
        "nótaí",
        -10.586191134681947
      ],
      [
        "Tuarascála",
        -10.586330704898687
      ],
      [
        "ceangal",
        -10.586450402185868
      ],
      [
        "Measfa",
        -10.586498599885156
      ],
      [
        "gcomhthéacs",
        -10.586917566072533
      ],
      [
        "mhíchumas",
        -10.587150321714272
      ],
      [
        "éifeachtacht",
        -10.587159828460367
      ],
      [
        "poba",
        -10.58739186534477
      ],
      [
        "tsamhraidh",
        -10.587481436750746
      ],
      [
        "leithead",
        -10.587846520094086
      ],
      [
        "ranníocaíochta",
        -10.588102660915323
      ],
      [
        "foins",
        -10.588573201927147
      ],
      [
        "bhfaighi",
        -10.588790279055933
      ],
      [
        "Bainea",
        -10.589735580265698
      ],
      [
        "shain",
        -10.58987248262773
      ],
      [
        "uaisceart",
        -10.590085360778655
      ],
      [
        "leasaithe",
        -10.590096121466555
      ],
      [
        "Re",
        -10.590212556148897
      ],
      [
        "saoirse",
        -10.590973223770789
      ],
      [
        "Líon",
        -10.590974770926053
      ],
      [
        "gcúrsa",
        -10.592712610656907
      ],
      [
        "oiriún",
        -10.59285839259502
      ],
      [
        "comhiomlán",
        -10.59404752329303
      ],
      [
        "bhrú",
        -10.594378518657374
      ],
      [
        "Thu",
        -10.595546385451993
      ],
      [
        "Fir",
        -10.596613272845243
      ],
      [
        "altaí",
        -10.598026322662333
      ],
      [
        "eintit",
        -10.598633088549457
      ],
      [
        "iúint",
        -10.599034680632359
      ],
      [
        "ceapachá",
        -10.599137884786206
      ],
      [
        "ghné",
        -10.599247432642265
      ],
      [
        "ráthaíocht",
        -10.59937524395636
      ],
      [
        "Cáilíochta",
        -10.601797336830463
      ],
      [
        "beala",
        -10.601902025362994
      ],
      [
        "mhian",
        -10.602181110330617
      ],
      [
        "Ós",
        -10.6027374337805
      ],
      [
        "Úcráin",
        -10.60296604899159
      ],
      [
        "lipéad",
        -10.602978258254847
      ],
      [
        "socraithe",
        -10.603026456853605
      ],
      [
        "Afraic",
        -10.603079254275908
      ],
      [
        "náisiún",
        -10.603232758107092
      ],
      [
        "Oiliún",
        -10.604148328552526
      ],
      [
        "insint",
        -10.604405595567943
      ],
      [
        "strap",
        -10.605170062011812
      ],
      [
        "RIALACHÁ",
        -10.605324656250488
      ],
      [
        "nuacht",
        -10.605751081737106
      ],
      [
        "airm",
        -10.606206998062582
      ],
      [
        "híniú",
        -10.60726450073751
      ],
      [
        "dlúth",
        -10.608011380180338
      ],
      [
        "teaghrá",
        -10.609017920949537
      ],
      [
        "tarchur",
        -10.609614437764856
      ],
      [
        "shuim",
        -10.610065718937022
      ],
      [
        "orm",
        -10.610190530390735
      ],
      [
        "chomhshao",
        -10.610318022154011
      ],
      [
        "Faisnéis",
        -10.610486796064821
      ],
      [
        "Domhand",
        -10.610831580527023
      ],
      [
        "67",
        -10.612599121744593
      ],
      [
        "bhfógra",
        -10.613508951832351
      ],
      [
        "chúig",
        -10.614059932097366
      ],
      [
        "57",
        -10.615306086545482
      ],
      [
        "bótha",
        -10.61537440523339
      ],
      [
        "diaper",
        -10.615894250679412
      ],
      [
        "háite",
        -10.615895026884587
      ],
      [
        "hathru",
        -10.6162503003567
      ],
      [
        "inneal",
        -10.616507450384939
      ],
      [
        "lasta",
        -10.617248632683912
      ],
      [
        "ranníoc",
        -10.61728838888029
      ],
      [
        "sholáthróid",
        -10.618251494950254
      ],
      [
        "gcomhaont",
        -10.618852425832586
      ],
      [
        "fón",
        -10.619635024454157
      ],
      [
        "Cum",
        -10.619813043195713
      ],
      [
        "éimeanna",
        -10.62022333795751
      ],
      [
        "Bardas",
        -10.620246743797328
      ],
      [
        "deonaío",
        -10.620730124570049
      ],
      [
        "leanfa",
        -10.620884839552815
      ],
      [
        "eiceálach",
        -10.621130783112783
      ],
      [
        "ionta",
        -10.622961567006286
      ],
      [
        "bhuiséad",
        -10.623093061544662
      ],
      [
        "bhuirg",
        -10.623106394985493
      ],
      [
        "soghluaiste",
        -10.62332381085838
      ],
      [
        "Phoibl",
        -10.623374192499082
      ],
      [
        "Parliament",
        -10.62340739655621
      ],
      [
        "current",
        -10.623428763726306
      ],
      [
        "pláta",
        -10.623436995563834
      ],
      [
        "Acmhainn",
        -10.62344290134395
      ],
      [
        "freagairt",
        -10.623491857955123
      ],
      [
        "less",
        -10.623516398455358
      ],
      [
        "fulaing",
        -10.623636657149275
      ],
      [
        "09",
        -10.623874842704382
      ],
      [
        "sláintiú",
        -10.62391801208743
      ],
      [
        "Ankara",
        -10.623926389349506
      ],
      [
        "Oibreacha",
        -10.624106506516155
      ],
      [
        "Limit",
        -10.624175380263535
      ],
      [
        "chomhlán",
        -10.624347648598171
      ],
      [
        "srian",
        -10.62452074851807
      ],
      [
        "dorcha",
        -10.624799310574328
      ],
      [
        "Fad",
        -10.625619566531114
      ],
      [
        "tíolaca",
        -10.625922070995042
      ],
      [
        "eisiach",
        -10.625923297251406
      ],
      [
        "Dearbh",
        -10.626335297771407
      ],
      [
        "lampa",
        -10.626888552601804
      ],
      [
        "just",
        -10.626992020256045
      ],
      [
        "Slándá",
        -10.627108488013182
      ],
      [
        "Dún",
        -10.62755108370235
      ],
      [
        "onnmhairiú",
        -10.627683714257206
      ],
      [
        "cúirt",
        -10.62786517838401
      ],
      [
        "pota",
        -10.628364889744827
      ],
      [
        "tuairisciú",
        -10.628628746353815
      ],
      [
        "áracha",
        -10.62863056786959
      ],
      [
        "aeir",
        -10.628882436723483
      ],
      [
        "snámha",
        -10.62942647462756
      ],
      [
        "aoisliúnta",
        -10.629925722217612
      ],
      [
        "slabhra",
        -10.630837389429344
      ],
      [
        "95",
        -10.631609892069653
      ],
      [
        "geall",
        -10.631932804725112
      ],
      [
        "breiseá",
        -10.63237756778021
      ],
      [
        "Shóisial",
        -10.632588569307114
      ],
      [
        "Sean",
        -10.633936571093045
      ],
      [
        "Bia",
        -10.635066459846417
      ],
      [
        "uast",
        -10.635244231298737
      ],
      [
        "chaomhn",
        -10.635426885213473
      ],
      [
        "naisc",
        -10.635489532445474
      ],
      [
        "sruth",
        -10.635853370222204
      ],
      [
        "Oileá",
        -10.636034153271218
      ],
      [
        "bua",
        -10.636544868272775
      ],
      [
        "cheapfaid",
        -10.636599910972146
      ],
      [
        "díobháil",
        -10.6368247289875
      ],
      [
        "athraío",
        -10.63708741780676
      ],
      [
        "gceangal",
        -10.637128397321396
      ],
      [
        "coigeart",
        -10.63718548860929
      ],
      [
        "fhoins",
        -10.637596652124202
      ],
      [
        "tweet",
        -10.637670794362673
      ],
      [
        "thriail",
        -10.640100143300366
      ],
      [
        "feiste",
        -10.640178897059375
      ],
      [
        "feidhmiúchá",
        -10.64095145745578
      ],
      [
        "leaba",
        -10.641603229843442
      ],
      [
        "abhartha",
        -10.641852798144987
      ],
      [
        "chuspóir",
        -10.64395617979673
      ],
      [
        "Sheirbhís",
        -10.644212769067257
      ],
      [
        "dáileog",
        -10.644361892789284
      ],
      [
        "Cosaint",
        -10.644748064104373
      ],
      [
        "thrádála",
        -10.645368977326697
      ],
      [
        "cósta",
        -10.646364701260294
      ],
      [
        "folamh",
        -10.646656206641715
      ],
      [
        "teagaisc",
        -10.646658053851224
      ],
      [
        "loingseoireacht",
        -10.647902965734803
      ],
      [
        "Andro",
        -10.648130510041938
      ],
      [
        "tugta",
        -10.648284588697418
      ],
      [
        "méada",
        -10.649608024184612
      ],
      [
        "trádmharc",
        -10.649848779762626
      ],
      [
        "eolaíocht",
        -10.649930024193525
      ],
      [
        "morgáiste",
        -10.650116277342848
      ],
      [
        "léirithe",
        -10.651287670846964
      ],
      [
        "sliú",
        -10.652301029577647
      ],
      [
        "China",
        -10.652442978467512
      ],
      [
        "ki",
        -10.652495353137377
      ],
      [
        "neamhní",
        -10.652967936163078
      ],
      [
        "ceol",
        -10.653127524983919
      ],
      [
        "staidr",
        -10.653354893064254
      ],
      [
        "ailse",
        -10.653731719253937
      ],
      [
        "thaifead",
        -10.65433482823082
      ],
      [
        "deona",
        -10.654558142217219
      ],
      [
        "elet",
        -10.654668540627966
      ],
      [
        "ríomhaireachta",
        -10.655667409361552
      ],
      [
        "ionfhabht",
        -10.655701301770518
      ],
      [
        "rtha",
        -10.655932240065132
      ],
      [
        "chor",
        -10.656039987122943
      ],
      [
        "saoránach",
        -10.656378772260823
      ],
      [
        "ionsaí",
        -10.656839619828656
      ],
      [
        "cruthaío",
        -10.658001778807641
      ],
      [
        "caol",
        -10.658568231691559
      ],
      [
        "modhn",
        -10.659253677394766
      ],
      [
        "ious",
        -10.65945830581951
      ],
      [
        "DE",
        -10.659614332541913
      ],
      [
        "riara",
        -10.659971444577316
      ],
      [
        "huathoibríoch",
        -10.66006727832828
      ],
      [
        "chonartha",
        -10.66029312847432
      ],
      [
        "rannpháirt",
        -10.660547970956323
      ],
      [
        "íche",
        -10.660692367368412
      ],
      [
        "dhéan",
        -10.66169684523155
      ],
      [
        "sholáthra",
        -10.662457534003485
      ],
      [
        "phearsa",
        -10.662827011628453
      ],
      [
        "chailín",
        -10.662975021823438
      ],
      [
        "69",
        -10.663249582448595
      ],
      [
        "dainge",
        -10.6651740658976
      ],
      [
        "oibreoid",
        -10.665199677219446
      ],
      [
        "mhaoini",
        -10.66526052484718
      ],
      [
        "nternational",
        -10.665371797598063
      ],
      [
        "lotnaid",
        -10.665473380172065
      ],
      [
        "Public",
        -10.66548420246937
      ],
      [
        "Zhong",
        -10.66555367779701
      ],
      [
        "léarscáil",
        -10.665572145829008
      ],
      [
        "clasaiceach",
        -10.66568139180173
      ],
      [
        "feidhmíochta",
        -10.665700160083508
      ],
      [
        "neamhdhleathach",
        -10.665774783589564
      ],
      [
        "Nóta",
        -10.66608119618082
      ],
      [
        "taisce",
        -10.66612942005861
      ],
      [
        "dheisiú",
        -10.666732469255123
      ],
      [
        "cnaipe",
        -10.667350821652178
      ],
      [
        "Ioncu",
        -10.667831300208677
      ],
      [
        "hoibríochta",
        -10.668248407503489
      ],
      [
        "chruth",
        -10.668831414563336
      ],
      [
        "tharmlig",
        -10.66911282654547
      ],
      [
        "Dúin",
        -10.669220241266874
      ],
      [
        "Réigiún",
        -10.669348373889767
      ],
      [
        "scrúdu",
        -10.67007998173206
      ],
      [
        "tora",
        -10.671580842006067
      ],
      [
        "Aisghair",
        -10.67165523004497
      ],
      [
        "foilsiú",
        -10.67182099191483
      ],
      [
        "charm",
        -10.672328329775922
      ],
      [
        "docht",
        -10.672674914209825
      ],
      [
        "Dhia",
        -10.67316345037543
      ],
      [
        "caipit",
        -10.673554067646174
      ],
      [
        "acht",
        -10.67471699846362
      ],
      [
        "oibriúcháin",
        -10.674781517230565
      ],
      [
        "cheal",
        -10.67530884686574
      ],
      [
        "feast",
        -10.675879775903196
      ],
      [
        "scoláir",
        -10.676053285793285
      ],
      [
        "Deara",
        -10.677668729330762
      ],
      [
        "chúrsaí",
        -10.677732615038908
      ],
      [
        "fógraí",
        -10.678582465964938
      ],
      [
        "63",
        -10.678906337272874
      ],
      [
        "iarrfaid",
        -10.67937680943787
      ],
      [
        "India",
        -10.679636387748412
      ],
      [
        "smaointe",
        -10.679952682942197
      ],
      [
        "dhlíthe",
        -10.680363231476635
      ],
      [
        "gníomhaireachta",
        -10.681428467999424
      ],
      [
        "bhrisea",
        -10.681487640783415
      ],
      [
        "tap",
        -10.682021600494478
      ],
      [
        "aithne",
        -10.682078709920443
      ],
      [
        "Caighdeán",
        -10.684027930510672
      ],
      [
        "déanf",
        -10.684956065355932
      ],
      [
        "bainteach",
        -10.684974905496643
      ],
      [
        "díri",
        -10.685138607578965
      ],
      [
        "bain",
        -10.686025818187947
      ],
      [
        "ve",
        -10.68638814983465
      ],
      [
        "línt",
        -10.686527908150682
      ],
      [
        "fheidhmíocht",
        -10.686984203669239
      ],
      [
        "breá",
        -10.687138802284567
      ],
      [
        "Fhorbairt",
        -10.68722376876874
      ],
      [
        "Eaglais",
        -10.687321988795055
      ],
      [
        "light",
        -10.687358023519078
      ],
      [
        "innealtóireacht",
        -10.687498665751978
      ],
      [
        "dúnta",
        -10.687679968093777
      ],
      [
        "VII",
        -10.687759358871748
      ],
      [
        "Charm",
        -10.687842748869857
      ],
      [
        "more",
        -10.687993330902977
      ],
      [
        "athchóiriú",
        -10.688198076495823
      ],
      [
        "phlandáil",
        -10.68839859140689
      ],
      [
        "Áracha",
        -10.68865743397805
      ],
      [
        "So",
        -10.688962191018407
      ],
      [
        "bonneaga",
        -10.689130301251966
      ],
      [
        "1980",
        -10.689355496945927
      ],
      [
        "bhainisteoir",
        -10.689505456024012
      ],
      [
        "athanna",
        -10.69055404533988
      ],
      [
        "déanach",
        -10.690872892221389
      ],
      [
        "óra",
        -10.691458764601702
      ],
      [
        "ghlan",
        -10.691774482024465
      ],
      [
        "scaoilte",
        -10.692352070949369
      ],
      [
        "Poba",
        -10.69257483374798
      ],
      [
        "seachtainiú",
        -10.692618632923018
      ],
      [
        "Costais",
        -10.693029208869374
      ],
      [
        "gcaoi",
        -10.693286851245034
      ],
      [
        "mheasúnacht",
        -10.693453466760095
      ],
      [
        "fhorchu",
        -10.69346094382512
      ],
      [
        "féachan",
        -10.69476514443809
      ],
      [
        "Modh",
        -10.694972224987449
      ],
      [
        "TF",
        -10.695146585767816
      ],
      [
        "ru",
        -10.69518731657833
      ],
      [
        "nuachtá",
        -10.695568331384493
      ],
      [
        "Ath",
        -10.695661438783324
      ],
      [
        "1977",
        -10.69613255782843
      ],
      [
        "lig",
        -10.697870308279175
      ],
      [
        "iomarcach",
        -10.698123565286163
      ],
      [
        "Cúna",
        -10.698134917034416
      ],
      [
        "gceadúna",
        -10.69827136327368
      ],
      [
        "Treal",
        -10.698517919077393
      ],
      [
        "theaghla",
        -10.700285150706737
      ],
      [
        "foghlaim",
        -10.700322740574144
      ],
      [
        "Rúise",
        -10.700389828519832
      ],
      [
        "oite",
        -10.700617961119317
      ],
      [
        "mhola",
        -10.700910899184082
      ],
      [
        "Scil",
        -10.701220433940659
      ],
      [
        "uairean",
        -10.701337465456554
      ],
      [
        "leanann",
        -10.701760310901665
      ],
      [
        "Mhár",
        -10.702448273431289
      ],
      [
        "Face",
        -10.703341331278908
      ],
      [
        "beaga",
        -10.70362519530173
      ],
      [
        "Thuai",
        -10.704434401784264
      ],
      [
        "89",
        -10.7056887394841
      ],
      [
        "earráid",
        -10.707102337115773
      ],
      [
        "Có",
        -10.708583174774194
      ],
      [
        "Críostaí",
        -10.70880696252847
      ],
      [
        "Sh",
        -10.709122929141417
      ],
      [
        "Õ",
        -10.709445452289543
      ],
      [
        "sliocht",
        -10.709452497832292
      ],
      [
        "saothar",
        -10.709624717927866
      ],
      [
        "Tairiscint",
        -10.709631590941529
      ],
      [
        "measa",
        -10.709682057540475
      ],
      [
        "measartha",
        -10.709746333281599
      ],
      [
        "liacht",
        -10.709749992612423
      ],
      [
        "suiteáil",
        -10.709899728961915
      ],
      [
        "síológ",
        -10.7100852637222
      ],
      [
        "bradá",
        -10.710148131944294
      ],
      [
        "Léir",
        -10.710158573637964
      ],
      [
        "mharcáil",
        -10.710163346253434
      ],
      [
        "Bailiúchá",
        -10.710184088217893
      ],
      [
        "chúl",
        -10.710420469732075
      ],
      [
        "thrádáil",
        -10.710876524294138
      ],
      [
        "dlíthiúla",
        -10.7113952806927
      ],
      [
        "shon",
        -10.711612623693043
      ],
      [
        "Forál",
        -10.712701538636889
      ],
      [
        "Sola",
        -10.714008178646182
      ],
      [
        "mB",
        -10.714184615512117
      ],
      [
        "minicíocht",
        -10.714401207643396
      ],
      [
        "Fáilt",
        -10.714475618841535
      ],
      [
        "Sta",
        -10.714667762407066
      ],
      [
        "painé",
        -10.714801826060256
      ],
      [
        "Méid",
        -10.71491692694773
      ],
      [
        "iríonn",
        -10.71619310550193
      ],
      [
        "poll",
        -10.716364816149367
      ],
      [
        "bhanna",
        -10.71652597595532
      ],
      [
        "teachtaireachta",
        -10.716542667817068
      ],
      [
        "99",
        -10.717388953164107
      ],
      [
        "06",
        -10.717751034595983
      ],
      [
        "aiscí",
[...]
