{
  "version": "1.0",
  "truncation": null,
  "padding": null,
  "added_tokens": [
    {
      "id": 1,
      "content": "[UNK]",
      "single_word": false,
      "lstrip": false,
      "rstrip": false,
      "normalized": false,
      "special": true
    },
    {
      "id": 2,
      "content": "[CLS]",
      "single_word": false,
      "lstrip": false,
      "rstrip": false,
      "normalized": false,
      "special": true
    },
    {
      "id": 3,
      "content": "[SEP]",
      "single_word": false,
      "lstrip": false,
      "rstrip": false,
      "normalized": false,
      "special": true
    },
    {
      "id": 4,
      "content": "[PAD]",
      "single_word": false,
      "lstrip": false,
      "rstrip": false,
      "normalized": false,
      "special": true
    },
    {
      "id": 5,
      "content": "[MASK]",
      "single_word": false,
      "lstrip": false,
      "rstrip": false,
      "normalized": false,
      "special": true
    }
  ],
  "normalizer": {
    "type": "NFKC"
  },
  "pre_tokenizer": {
    "type": "Whitespace"
  },
  "post_processor": null,
  "decoder": null,
  "model": {
    "type": "Unigram",
    "unk_id": 0,
    "vocab": [
      [
        "<unk>",
        0.0
      ],
      [
        "[UNK]",
        0.0
      ],
      [
        "[CLS]",
        0.0
      ],
      [
        "[SEP]",
        0.0
      ],
      [
        "[PAD]",
        0.0
      ],
      [
        "[MASK]",
        0.0
      ],
      [
        "a",
        -2.4316462051551415
      ],
      [
        "n",
        -3.0054557805201636
      ],
      [
        ",",
        -3.5582277885671427
      ],
      [
        "s",
        -3.7890627556331733
      ],
      [
        ".",
        -3.8614809046932113
      ],
      [
        "i",
        -3.9067161070926897
      ],
      [
        "r",
        -4.0599619552664805
      ],
      [
        "d",
        -4.106361134839688
      ],
      [
        "agus",
        -4.155208686142986
      ],
      [
        "an",
        -4.220138095707586
      ],
      [
        "í",
        -4.2961610931146765
      ],
      [
        ")",
        -4.473002315388987
      ],
      [
        "(",
        -4.4751870525137765
      ],
      [
        "ar",
        -4.494586949942855
      ],
      [
        "e",
        -4.557148653096489
      ],
      [
        "g",
        -4.56268454231326
      ],
      [
        "t",
        -4.600965601378926
      ],
      [
        "-",
        -4.677616471260308
      ],
      [
        "o",
        -4.6975165787985045
      ],
      [
        "le",
        -4.700157665077894
      ],
      [
        "h",
        -4.764351009799338
      ],
      [
        "l",
        -5.012363911702508
      ],
      [
        "in",
        -5.130860333547128
      ],
      [
        "nó",
        -5.170071859417611
      ],
      [
        "é",
        -5.233346532105031
      ],
      [
        "ó",
        -5.2632743070852115
      ],
      [
        "m",
        -5.284801323961796
      ],
      [
        "sin",
        -5.32259356615806
      ],
      [
        "b",
        -5.326936172440327
      ],
      [
        "á",
        -5.349666407944181
      ],
      [
        "de",
        -5.376100290635877
      ],
      [
        "go",
        -5.402311392931942
      ],
      [
        "c",
        -5.4104916745321745
      ],
      [
        "seo",
        -5.435905173010818
      ],
      [
        "ú",
        -5.444323115395681
      ],
      [
        "is",
        -5.444787075721708
      ],
      [
        "na",
        -5.462589963904538
      ],
      [
        "dh",
        -5.485183389384323
      ],
      [
        "leis",
        -5.6050027728924725
      ],
      [
        "chun",
        -5.60897615343162
      ],
      [
        "f",
        -5.681760493120109
      ],
      [
        "'",
        -5.703447722065047
      ],
      [
        "do",
        -5.7716243563468925
      ],
      [
        ":",
        -5.774582202293999
      ],
      [
        "A",
        -5.8381624068715325
      ],
      [
        "faoi",
        -5.841055321442402
      ],
      [
        "aon",
        -5.867104375974128
      ],
      [
        "alt",
        -5.884446335881229
      ],
      [
        "den",
        -5.901590524469411
      ],
      [
        "il",
        -6.007271339008952
      ],
      [
        "bhfuil",
        -6.032629812616086
      ],
      [
        "ach",
        -6.038338370824206
      ],
      [
        "1",
        -6.049061671014151
      ],
      [
        "mar",
        -6.054370026768389
      ],
      [
        ";",
        -6.09659938056361
      ],
      [
        "ithe",
        -6.113426789435097
      ],
      [
        "2",
        -6.180406494065908
      ],
      [
        "idh",
        -6.194154570408557
      ],
      [
        "I",
        -6.2483785139762364
      ],
      [
        "Acht",
        -6.256139505321247
      ],
      [
        "ag",
        -6.269311756965031
      ],
      [
        "atá",
        -6.270963888649282
      ],
      [
        "uine",
        -6.278315885958117
      ],
      [
        "\"",
        -6.29356418157783
      ],
      [
        "eile",
        -6.308998531712994
      ],
      [
        "ch",
        -6.315211252116471
      ],
      [
        "bheith",
        -6.319122439185232
      ],
      [
        "chur",
        -6.3219935886661975
      ],
      [
        "B",
        -6.341242518524677
      ],
      [
        "dhéanamh",
        -6.3952030001547
      ],
      [
        "C",
        -6.407070229802391
      ],
      [
        "sé",
        -6.433257275852043
      ],
      [
        "—",
        -6.474927274759118
      ],
      [
        "adh",
        -6.484185896626727
      ],
      [
        "3",
        -6.503546378498045
      ],
      [
        "igh",
        -6.510933284737863
      ],
      [
        "réir",
        -6.542570538966826
      ],
      [
        "Tá",
        -6.560219532814302
      ],
      [
        "tear",
        -6.606847986742357
      ],
      [
        "nach",
        -6.61739965604398
      ],
      [
        "tá",
        -6.6212105887899515
      ],
      [
        "u",
        -6.669821901405269
      ],
      [
        "maidi",
        -6.68166780605645
      ],
      [
        "don",
        -6.683713461737675
      ],
      [
        "S",
        -6.693747483102219
      ],
      [
        "4",
        -6.696254871221446
      ],
      [
        "/",
        -6.706769413840091
      ],
      [
        "gach",
        -6.714059771372025
      ],
      [
        "eidh",
        -6.72643587816596
      ],
      [
        "lena",
        -6.727557050833944
      ],
      [
        "T",
        -6.74737782396712
      ],
      [
        "san",
        -6.796573137763155
      ],
      [
        "D",
        -6.815424105416217
      ],
      [
        "5",
        -6.823307141300262
      ],
      [
        "éidir",
        -6.830840220961344
      ],
      [
        "anna",
        -6.836389480953478
      ],
      [
        "Aire",
        -6.843369789513397
      ],
      [
        "gcás",
        -6.864994625831245
      ],
      [
        "ann",
        -6.874096398271054
      ],
      [
        "dá",
        -6.923565969683749
      ],
      [
        "trí",
        -6.927179130792672
      ],
      [
        "Is",
        -6.929985852547761
      ],
      [
        "”",
        -6.965048006236467
      ],
      [
        "éis",
        -6.979472917687549
      ],
      [
        "L",
        -6.981275448816262
      ],
      [
        "on",
        -6.984954706521034
      ],
      [
        "leith",
        -6.994834150685378
      ],
      [
        "íos",
        -6.995781000507781
      ],
      [
        "haghaidh",
        -7.006627561417599
      ],
      [
        "“",
        -7.019242041319947
      ],
      [
        "faoin",
        -7.027058530006149
      ],
      [
        "ítear",
        -7.039320238736669
      ],
      [
        "heidh",
        -7.044025021886946
      ],
      [
        "chuid",
        -7.044263415546811
      ],
      [
        "6",
        -7.057820220103259
      ],
      [
        "gur",
        -7.060176867404947
      ],
      [
        "mh",
        -7.095257857973656
      ],
      [
        "Airteagal",
        -7.103013057638178
      ],
      [
        "ir",
        -7.108502463895539
      ],
      [
        "úsáid",
        -7.110524504675527
      ],
      [
        "tú",
        -7.121571968203084
      ],
      [
        "thabhair",
        -7.1222961457154135
      ],
      [
        "mó",
        -7.153942603671
      ],
      [
        "roimh",
        -7.164121499176907
      ],
      [
        "idir",
        -7.164618801563324
      ],
      [
        "um",
        -7.186211776998121
      ],
      [
        "tar",
        -7.188082372343923
      ],
      [
        "N",
        -7.193994313372084
      ],
      [
        "méid",
        -7.215198585768034
      ],
      [
        "mbeid",
        -7.218462050797638
      ],
      [
        "isteach",
        -7.2213035541711195
      ],
      [
        "]",
        -7.226119667718313
      ],
      [
        "aithe",
        -7.226425368965115
      ],
      [
        "[",
        -7.23007876215547
      ],
      [
        "p",
        -7.238400026060565
      ],
      [
        "amach",
        -7.250645019398133
      ],
      [
        "eanna",
        -7.25354876968946
      ],
      [
        "siad",
        -7.266616473458322
      ],
      [
        "ina",
        -7.268907250899524
      ],
      [
        "An",
        -7.271963682678038
      ],
      [
        "uair",
        -7.277704466099626
      ],
      [
        "Ní",
        -7.3198530118635015
      ],
      [
        "chuig",
        -7.32650731341052
      ],
      [
        "’",
        -7.327937637745308
      ],
      [
        "fáil",
        -7.337972561721815
      ],
      [
        "G",
        -7.34596529781704
      ],
      [
        "9",
        -7.353199091144285
      ],
      [
        "tréimhse",
        -7.362724719068816
      ],
      [
        "tha",
        -7.369724387915702
      ],
      [
        "áirithe",
        -7.37763088204363
      ],
      [
        "lá",
        -7.3793361311796195
      ],
      [
        "mháin",
        -7.406615467980755
      ],
      [
        "féin",
        -7.414237367167225
      ],
      [
        "7",
        -7.415567837464458
      ],
      [
        "rud",
        -7.418736018580781
      ],
      [
        "M",
        -7.419236756664263
      ],
      [
        "íonn",
        -7.422915418667526
      ],
      [
        "Rialachá",
        -7.426679821027943
      ],
      [
        "8",
        -7.428541711643346
      ],
      [
        "fho",
        -7.472228277653605
      ],
      [
        "saor",
        -7.474547885217001
      ],
      [
        "fháil",
        -7.474925648586314
      ],
      [
        "bhí",
        -7.488387535779089
      ],
      [
        "arna",
        -7.492278589467435
      ],
      [
        "bh",
        -7.507671315955435
      ],
      [
        "F",
        -7.510899957663357
      ],
      [
        "íoc",
        -7.524129694730737
      ],
      [
        "mór",
        -7.529315912579069
      ],
      [
        "ordú",
        -7.533003247424647
      ],
      [
        "maith",
        -7.536164910785672
      ],
      [
        "údarás",
        -7.539639556724822
      ],
      [
        "P",
        -7.554484901737979
      ],
      [
        "Má",
        -7.554999860829478
      ],
      [
        "aoine",
        -7.557459863513082
      ],
      [
        "EN",
        -7.563781435822963
      ],
      [
        "aghaidh",
        -7.567254904481073
      ],
      [
        "sórt",
        -7.579270772149237
      ],
      [
        "bhainean",
        -7.589597094148869
      ],
      [
        "the",
        -7.595755046671558
      ],
      [
        "eamh",
        -7.600222430224788
      ],
      [
        "sonraí",
        -7.600856037266542
      ],
      [
        "?",
        -7.609924434154679
      ],
      [
        "&",
        -7.612828598602171
      ],
      [
        "iad",
        -7.618845749945687
      ],
      [
        "aisce",
        -7.639858457390471
      ],
      [
        "air",
        -7.641952978791454
      ],
      [
        "nua",
        -7.64419586789738
      ],
      [
        "uithe",
        -7.644389832206948
      ],
      [
        "ceann",
        -7.650315415751111
      ],
      [
        "áit",
        -7.664719100983064
      ],
      [
        "raibh",
        -7.667415720707778
      ],
      [
        "leat",
        -7.6791717808919975
      ],
      [
        "fé",
        -7.687662298661737
      ],
      [
        "chomh",
        -7.7044466446334665
      ],
      [
        "bhfeidhm",
        -7.70919794268241
      ],
      [
        "aigh",
        -7.711572897464221
      ],
      [
        "aige",
        -7.725348269438864
      ],
      [
        "gh",
        -7.732418756967244
      ],
      [
        "linn",
        -7.734983387913509
      ],
      [
        "acu",
        -7.740135127713467
      ],
      [
        "ná",
        -7.740541378981028
      ],
      [
        "Uimh",
        -7.742035806583359
      ],
      [
        "dtí",
        -7.748652144564005
      ],
      [
        "má",
        -7.752294233911406
      ],
      [
        "líne",
        -7.765011182225346
      ],
      [
        "dul",
        -7.774119567695655
      ],
      [
        "far",
        -7.777096425889594
      ],
      [
        "féadfaid",
        -7.77783092830959
      ],
      [
        "más",
        -7.777998600424051
      ],
      [
        "bhliain",
        -7.779522021104121
      ],
      [
        "freisi",
        -7.783064753159459
      ],
      [
        "seirbhís",
        -7.7833260592462326
      ],
      [
        "dáta",
        -7.79060488311672
      ],
      [
        "inneadh",
        -7.790903404299209
      ],
      [
        "porn",
        -7.796658959606764
      ],
      [
        "cur",
        -7.797114805434914
      ],
      [
        "ibé",
        -7.803617546859422
      ],
      [
        "10",
        -7.810055345762824
      ],
      [
        "eadh",
        -7.812464769306589
      ],
      [
        "ciallaíon",
        -7.812989872616075
      ],
      [
        "0",
        -7.814268145188484
      ],
      [
        "200",
        -7.816055441373704
      ],
      [
        "ionad",
        -7.817771783593827
      ],
      [
        "E",
        -7.825137428611515
      ],
      [
        "imeachta",
        -7.825980341297733
      ],
      [
        "baineann",
        -7.828425670668906
      ],
      [
        "ndáil",
        -7.832108620784287
      ],
      [
        "ábhar",
        -7.837232173422073
      ],
      [
        "gan",
        -7.844587433886595
      ],
      [
        "leana",
        -7.84499997249184
      ],
      [
        "chéad",
        -7.852313164392971
      ],
      [
        "iomlán",
        -7.8545436633395145
      ],
      [
        "R",
        -7.860758566347494
      ],
      [
        "th",
        -7.860894474430796
      ],
      [
        "chu",
        -7.8647421031040885
      ],
      [
        "sa",
        -7.870960955170139
      ],
      [
        "cheart",
        -7.872444126908513
      ],
      [
        "nío",
        -7.87712855438328
      ],
      [
        "iarratas",
        -7.877577172463771
      ],
      [
        "iomchu",
        -7.887414012253224
      ],
      [
        "dtagraí",
        -7.887491739389918
      ],
      [
        "Coimisiún",
        -7.8899186886747135
      ],
      [
        "istigh",
        -7.898847485683223
      ],
      [
        "tráth",
        -7.900794611479957
      ],
      [
        "amhlaid",
        -7.90472484581637
      ],
      [
        "feidhm",
        -7.920720395940336
      ],
      [
        "thar",
        -7.924501098254134
      ],
      [
        "imh",
        -7.926885812622447
      ],
      [
        "ailt",
        -7.927439317916748
      ],
      [
        "léir",
        -7.931236111128244
      ],
      [
        "bhfo",
        -7.932105514811165
      ],
      [
        "deimhnithe",
        -7.932327842419483
      ],
      [
        "y",
        -7.940084534415819
      ],
      [
        "bliana",
        -7.943326608089473
      ],
      [
        "náisiúnta",
        -7.952033458548228
      ],
      [
        "Ballstá",
        -7.955144508389352
      ],
      [
        "feidhme",
        -7.963501084383329
      ],
      [
        "fearr",
        -7.9719840336821095
      ],
      [
        "Eorpach",
        -7.973727434956324
      ],
      [
        "bhaint",
        -7.97648849208658
      ],
      [
        "cuideachta",
        -7.976521736999528
      ],
      [
        "fear",
        -7.976955013625809
      ],
      [
        "roinnt",
        -7.979689499953493
      ],
      [
        "hEorpa",
        -7.988878453087227
      ],
      [
        "críocha",
        -7.99251309562281
      ],
      [
        "bheid",
        -8.011068226190748
      ],
      [
        "bith",
        -8.011472665589631
      ],
      [
        "cháin",
        -8.017326125922168
      ],
      [
        "Aontais",
        -8.033838387370098
      ],
      [
        "feadh",
        -8.036165267272729
      ],
      [
        "úil",
        -8.038923770553511
      ],
      [
        "díreach",
        -8.040551528910118
      ],
      [
        "cheann",
        -8.043039874010088
      ],
      [
        "fógra",
        -8.044524583587904
      ],
      [
        "chéile",
        -8.045952977166671
      ],
      [
        "nuair",
        -8.052331278310028
      ],
      [
        "éifeacht",
        -8.05252571027128
      ],
      [
        "ní",
        -8.053053105786617
      ],
      [
        "Le",
        -8.05334550725652
      ],
      [
        "Cuntas",
        -8.065792765048279
      ],
      [
        "20",
        -8.074124151595285
      ],
      [
        "mhéid",
        -8.074581892761529
      ],
      [
        "duit",
        -8.076526213342184
      ],
      [
        "mír",
        -8.07822173760399
      ],
      [
        "íodh",
        -8.079885894602157
      ],
      [
        "amh",
        -8.085881478724495
      ],
      [
        "201",
        -8.09310239128191
      ],
      [
        "as",
        -8.093482496031768
      ],
      [
        "déanfa",
        -8.095088749609737
      ],
      [
        "@",
        -8.098760579623299
      ],
      [
        "AE",
        -8.100830064591028
      ],
      [
        "láthair",
        -8.102487680221126
      ],
      [
        "eideal",
        -8.138490775559065
      ],
      [
        "céanna",
        -8.139664459488733
      ],
      [
        "la",
        -8.142243751955185
      ],
      [
        "bhun",
        -8.142900658006482
      ],
      [
        "áireamh",
        -8.143197654076273
      ],
      [
        "cha",
        -8.156277135457728
      ],
      [
        "rialachá",
        -8.156533026897119
      ],
      [
        "luach",
        -8.165375808664688
      ],
      [
        "áil",
        -8.173724142259353
      ],
      [
        "nn",
        -8.17441856069426
      ],
      [
        "tiúir",
        -8.177836492692254
      ],
      [
        "Bord",
        -8.185166920564123
      ],
      [
        "oifig",
        -8.191615235382077
      ],
      [
        "uisce",
        -8.19213858683253
      ],
      [
        "déanta",
        -8.19858636455458
      ],
      [
        "iarraid",
        -8.202802530883993
      ],
      [
        "Agus",
        -8.202877943325213
      ],
      [
        "12",
        -8.203275791151775
      ],
      [
        "haon",
        -8.208493225926233
      ],
      [
        "Mar",
        -8.20895058143386
      ],
      [
        "Chun",
        -8.209385435834498
      ],
      [
        "Stát",
        -8.214183626911009
      ],
      [
        "ta",
        -8.222918438927266
      ],
      [
        "leor",
        -8.223302093155691
      ],
      [
        "19",
        -8.23191768571637
      ],
      [
        "cuid",
        -8.232315947298538
      ],
      [
        "coinníollach",
        -8.23254963736058
      ],
      [
        "airgead",
        -8.238828778133989
      ],
      [
        "oifigeach",
        -8.23914473641334
      ],
      [
        "iúil",
        -8.247504552113863
      ],
      [
        "Ar",
        -8.250230678407009
      ],
      [
        "!",
        -8.255409743283746
      ],
      [
        "ceart",
        -8.259664543027547
      ],
      [
        "éagsúla",
        -8.260510644725123
      ],
      [
        "gheall",
        -8.263648810768514
      ],
      [
        "mhír",
        -8.264226351423016
      ],
      [
        "15",
        -8.269868864883573
      ],
      [
        "bearta",
        -8.270522392929669
      ],
      [
        "fo",
        -8.273930734470483
      ],
      [
        "–",
        -8.274014925747453
      ],
      [
        "dlí",
        -8.275207001297991
      ],
      [
        "síos",
        -8.275213719147555
      ],
      [
        "mhí",
        -8.275744548036549
      ],
      [
        "Éireann",
        -8.278648181893209
      ],
      [
        "comhalta",
        -8.2807352752313
      ],
      [
        "gComhairle",
        -8.281473756999848
      ],
      [
        "eann",
        -8.283200211076014
      ],
      [
        "uas",
        -8.284724167027395
      ],
      [
        "CE",
        -8.287083991122827
      ],
      [
        "ghlacadh",
        -8.290076576672245
      ],
      [
        "líon",
        -8.291615912397141
      ],
      [
        "faidh",
        -8.292692789675066
      ],
      [
        "chóir",
        -8.29394767644881
      ],
      [
        "teacht",
        -8.296303690350289
      ],
      [
        "obair",
        -8.29635446210245
      ],
      [
        "dtaobh",
        -8.296474014533612
      ],
      [
        "bhrí",
        -8.300576057022836
      ],
      [
        "aíonn",
        -8.307263663721326
      ],
      [
        "mura",
        -8.308047583133632
      ],
      [
        "cinn",
        -8.311696914303553
      ],
      [
        "aidir",
        -8.314287981576292
      ],
      [
        "áiríte",
        -8.315372052677517
      ],
      [
        "Ard",
        -8.319382193911094
      ],
      [
        "ing",
        -8.322425165895872
      ],
      [
        "Féadfa",
        -8.322980880343993
      ],
      [
        "dóibh",
        -8.325737595876406
      ],
      [
        "mé",
        -8.326357279379664
      ],
      [
        "dhá",
        -8.33025232723218
      ],
      [
        "aidh",
        -8.331035706267125
      ],
      [
        "amhái",
        -8.3321377142959
      ],
      [
        "ainm",
        -8.337986333808487
      ],
      [
        "iú",
        -8.34144033334783
      ],
      [
        "leo",
        -8.345887282612349
      ],
      [
        "airgeadai",
        -8.352986515810766
      ],
      [
        "rialacha",
        -8.35567944808168
      ],
      [
        "ón",
        -8.3562006301925
      ],
      [
        "eolas",
        -8.359647576692907
      ],
      [
        "amp",
        -8.360380029698037
      ],
      [
        "beag",
        -8.363886913834714
      ],
      [
        "talamh",
        -8.365126290182694
      ],
      [
        "Údará",
        -8.37569494871393
      ],
      [
        "AN",
        -8.378640280601342
      ],
      [
        "Féadfai",
        -8.382287129759085
      ],
      [
        "Aonta",
        -8.384130018714142
      ],
      [
        "Chomhairle",
        -8.38592802020742
      ],
      [
        "Ceist",
        -8.394598921173984
      ],
      [
        "Airgeada",
        -8.39628646231542
      ],
      [
        "fad",
        -8.397295706430272
      ],
      [
        "táirgí",
        -8.39827090942133
      ],
      [
        "Faoi",
        -8.40239696844959
      ],
      [
        "Seo",
        -8.402616237077975
      ],
      [
        "gá",
        -8.404437411725915
      ],
      [
        "acha",
        -8.419222852094949
      ],
      [
        "comhréir",
        -8.41977421912356
      ],
      [
        "O",
        -8.421846461098859
      ],
      [
        "cu",
        -8.425464653095041
      ],
      [
        "Déanfa",
        -8.427131891866269
      ],
      [
        "éanamh",
        -8.429926784933993
      ],
      [
        "bhíonn",
        -8.42994078794953
      ],
      [
        "te",
        -8.432196346840858
      ],
      [
        "scéim",
        -8.432439569202032
      ],
      [
        "30",
        -8.432456765562913
      ],
      [
        "ráta",
        -8.4348226122114
      ],
      [
        "cuí",
        -8.440336360869871
      ],
      [
        "Coimisinéir",
        -8.444266319441757
      ],
      [
        "chuideachta",
        -8.448818322301378
      ],
      [
        "neamh",
        -8.450593379886637
      ],
      [
        "ndéanfa",
        -8.451721809509726
      ],
      [
        "Fuaim",
        -8.457546143454323
      ],
      [
        "físeá",
        -8.462301656492052
      ],
      [
        "leibhéal",
        -8.474066639955527
      ],
      [
        "súil",
        -8.476985334453493
      ],
      [
        "193",
        -8.480657728605006
      ],
      [
        "11",
        -8.487495516854043
      ],
      [
        "Sceideal",
        -8.491364051109489
      ],
      [
        "pé",
        -8.497306753353733
      ],
      [
        "iníoc",
        -8.50165725893116
      ],
      [
        "áitiú",
        -8.502334841279449
      ],
      [
        "rith",
        -8.50240554934792
      ],
      [
        "%",
        -8.503044223864773
      ],
      [
        "tríd",
        -8.51045284718331
      ],
      [
        "tagairt",
        -8.513165700711282
      ],
      [
        "orthu",
        -8.546489159503356
      ],
      [
        "haoine",
        -8.554432618640309
      ],
      [
        "niú",
        -8.558380586980054
      ],
      [
        "beid",
        -8.560096458696387
      ],
      [
        "déanfaid",
        -8.560710188329491
      ],
      [
        "leas",
        -8.56190336275943
      ],
      [
        "192",
        -8.562974676512678
      ],
      [
        "am",
        -8.565319571158362
      ],
      [
        "Chúirt",
        -8.567434937569468
      ],
      [
        "Pharlaimint",
        -8.569230083296121
      ],
      [
        "cion",
        -8.570638710800267
      ],
      [
        "athrú",
        -8.571480872135371
      ],
      [
        "199",
        -8.573841149600387
      ],
      [
        "gcuid",
        -8.574792653378188
      ],
      [
        "Achta",
        -8.57983355078456
      ],
      [
        "gréasá",
        -8.579864441667993
      ],
      [
        "fhéadfadh",
        -8.579988107031731
      ],
      [
        "uile",
        -8.580724937023213
      ],
      [
        "chlár",
        -8.582431467562358
      ],
      [
        "gus",
        -8.583763418314337
      ],
      [
        "áin",
        -8.586424606564389
      ],
      [
        "18",
        -8.590725714088503
      ],
      [
        "Comhairle",
        -8.591557751148944
      ],
      [
        "fianaise",
        -8.593184899528154
      ],
      [
        "baint",
        -8.597285724755238
      ],
      [
        "leasú",
        -8.600201745176687
      ],
      [
        "ionca",
        -8.603890465762213
      ],
      [
        "críche",
        -8.60412994084679
      ],
      [
        "chomhalta",
        -8.61105428206886
      ],
      [
        "scríbhinn",
        -8.611318393921506
      ],
      [
        "deimhniú",
        -8.613233854106563
      ],
      [
        "clár",
        -8.614964288653926
      ],
      [
        "monaróir",
        -8.616119876153153
      ],
      [
        "gníomh",
        -8.617683203450436
      ],
      [
        "Tuillea",
        -8.62000367981453
      ],
      [
        "tSín",
        -8.622008789613691
      ],
      [
        "196",
        -8.622830755609662
      ],
      [
        "Ó",
        -8.627041652348009
      ],
      [
        "limisté",
        -8.6302854607694
      ],
      [
        "Ach",
        -8.632869389216246
      ],
      [
        "bunaithe",
        -8.632998839457871
      ],
      [
        "mb",
        -8.636388862184734
      ],
      [
        "speisialta",
        -8.637649223377213
      ],
      [
        "16",
        -8.638784542376438
      ],
      [
        "aistriú",
        -8.639129089291691
      ],
      [
        "14",
        -8.64276544061175
      ],
      [
        "for",
        -8.643606014586611
      ],
      [
        "ais",
        -8.644203886813411
      ],
      [
        "fén",
        -8.645324700964583
      ],
      [
        "taobh",
        -8.649664529463978
      ],
      [
        "Stáit",
        -8.657385238299177
      ],
      [
        "mhaith",
        -8.660051702463164
      ],
      [
        "Choimisiú",
        -8.662615184475108
      ],
      [
        "197",
        -8.663465540457494
      ],
      [
        "im",
        -8.663943242159885
      ],
      [
        "Chéad",
        -8.665525864958305
      ],
      [
        "daoin",
        -8.672114407050856
      ],
      [
        "údar",
        -8.676091959784797
      ],
      [
        "liain",
        -8.683767030675043
      ],
      [
        "láithreá",
        -8.684338541300288
      ],
      [
        "oiriúnach",
        -8.687283293921036
      ],
      [
        "ceadúna",
        -8.688949078121391
      ],
      [
        "Eorpaigh",
        -8.692784053369412
      ],
      [
        "cánach",
        -8.695699264190054
      ],
      [
        "hiomlán",
        -8.69617631023694
      ],
      [
        "féadfa",
        -8.705408134262727
      ],
      [
        "áitreabh",
        -8.705509558344929
      ],
      [
        "Roimh",
        -8.707274602253879
      ],
      [
        "dó",
        -8.707859314501707
      ],
      [
        "éachaint",
        -8.710503621555025
      ],
      [
        "13",
        -8.712694046305998
      ],
      [
        "faisnéis",
        -8.713389520097063
      ],
      [
        "éarla",
        -8.716767291978268
      ],
      [
        "Aon",
        -8.718132325381585
      ],
      [
        "sholátha",
        -8.718435266057929
      ],
      [
        "comhlacht",
        -8.718939256099588
      ],
      [
        "pearsanta",
        -8.719007612890003
      ],
      [
        "téarma",
        -8.719105790283773
      ],
      [
        "chuir",
        -8.719715000315695
      ],
      [
        "Ã",
        -8.720528475608894
      ],
      [
        "000",
        -8.72488210404953
      ],
      [
        "suíomh",
        -8.726239788305818
      ],
      [
        "údará",
        -8.72656001649712
      ],
      [
        "HD",
        -8.729948075670066
      ],
      [
        "planda",
        -8.73001759211503
      ],
      [
        "gcéad",
        -8.737370045080862
      ],
      [
        "oibre",
        -8.738469740717791
      ],
      [
        "páirt",
        -8.740207927849383
      ],
      [
        "íocaíocht",
        -8.744341003076212
      ],
      [
        "táirge",
        -8.748033664178223
      ],
      [
        "‘",
        -8.754021232556116
      ],
      [
        "iúl",
        -8.756762879630312
      ],
      [
        "rogha",
        -8.75719369644905
      ],
      [
        "ábhartha",
        -8.764827233539673
      ],
      [
        "fiú",
        -8.76552263701542
      ],
      [
        "déana",
        -8.76571659112442
      ],
      [
        "ACHT",
        -8.766469194004753
      ],
      [
        "24",
        -8.768192596099952
      ],
      [
        "suim",
        -8.769178933530364
      ],
      [
        "2017",
        -8.77056277139626
      ],
      [
        "Bhí",
        -8.771288786591484
      ],
      [
        "H",
        -8.771500644055717
      ],
      [
        "cuirea",
        -8.772401690199798
      ],
      [
        "chloi",
        -8.773050528163825
      ],
      [
        "amhail",
        -8.77311632569127
      ],
      [
        "orthaí",
        -8.7757427605825
      ],
      [
        "eanas",
        -8.776639914958253
      ],
      [
        "gurb",
        -8.781162889442669
      ],
      [
        "córas",
        -8.789291012764355
      ],
      [
        "leagan",
        -8.791091960671327
      ],
      [
        "V",
        -8.791979066715424
      ],
      [
        "poiblí",
        -8.79402069086952
      ],
      [
        "25",
        -8.794903175996707
      ],
      [
        "áir",
        -8.798241323690757
      ],
      [
        "huaire",
        -8.798746771604641
      ],
      [
        "2016",
        -8.798922638040132
      ],
      [
        "ghaidh",
        -8.804081274566293
      ],
      [
        "scríobh",
        -8.805971622605874
      ],
      [
        "muid",
        -8.807312504555284
      ],
      [
        "fhaisnéis",
        -8.807409873083992
      ],
      [
        "seirbhíse",
        -8.807722328024209
      ],
      [
        "cluichí",
        -8.809444283292077
      ],
      [
        "dháta",
        -8.810040300353652
      ],
      [
        "ansin",
        -8.81006053661115
      ],
      [
        "aois",
        -8.810335976692368
      ],
      [
        "fhonn",
        -8.81034451369679
      ],
      [
        "iompar",
        -8.814174818447858
      ],
      [
        "liosta",
        -8.815949064345894
      ],
      [
        "cead",
        -8.816923936716975
      ],
      [
        "gníomhaíochta",
        -8.817628447366097
      ],
      [
        "dhéanfa",
        -8.817793571039825
      ],
      [
        "k",
        -8.820111804484476
      ],
      [
        "Oifig",
        -8.822046522501413
      ],
      [
        "onair",
        -8.823681751841768
      ],
      [
        "ndearna",
        -8.8257333579337
      ],
      [
        "measfa",
        -8.828786556813952
      ],
      [
        "tras",
        -8.829617513221422
      ],
      [
        "dóigh",
        -8.831951094905408
      ],
      [
        "aí",
        -8.832742902786944
      ],
      [
        "it",
        -8.832989350597533
      ],
      [
        "ileamh",
        -8.833955827256554
      ],
      [
        "cluich",
        -8.835555889776991
      ],
      [
        "Treoir",
        -8.836917262683542
      ],
      [
        "rialú",
        -8.837177751583756
      ],
      [
        "id",
        -8.83751514692294
      ],
      [
        "dochar",
        -8.8388230473423
      ],
      [
        "léi",
        -8.840593562361079
      ],
      [
        "cht",
        -8.840871765344403
      ],
      [
        "mian",
        -8.844100423996533
      ],
      [
        "chosaint",
        -8.845142135085787
      ],
      [
        "laghdú",
        -8.84950514684712
      ],
      [
        "fás",
        -8.849717134416164
      ],
      [
        "chás",
        -8.850335988387194
      ],
      [
        "gceist",
        -8.85083500171817
      ],
      [
        "imid",
        -8.852490745303529
      ],
      [
        "2018",
        -8.854282492319323
      ],
      [
        "cuir",
        -8.859232663116426
      ],
      [
        "dhéanfaid",
        -8.86124765667384
      ],
      [
        "fásta",
        -8.86211848991878
      ],
      [
        "UID",
        -8.863112413504115
      ],
      [
        "onraithe",
        -8.86420908180405
      ],
      [
        "U",
        -8.864334625395816
      ],
      [
        "chaighdeán",
        -8.867550290577327
      ],
      [
        "trádála",
        -8.868611245656414
      ],
      [
        "gcónaí",
        -8.869528491511751
      ],
      [
        "17",
        -8.873390177410656
      ],
      [
        "toiliú",
        -8.87365906202933
      ],
      [
        "deirea",
        -8.87404801399122
      ],
      [
        "chineál",
        -8.87441057827491
      ],
      [
        "Phríomh",
        -8.879825059261936
      ],
      [
        "Chuid",
        -8.883303730363469
      ],
      [
        "ghnáth",
        -8.883608435504222
      ],
      [
        "chinneadh",
        -8.885123408845882
      ],
      [
        "togra",
        -8.888081143686172
      ],
      [
        "réims",
        -8.888202154243867
      ],
      [
        "Roinn",
        -8.89087307814177
      ],
      [
        "sláinte",
        -8.891322412385804
      ],
      [
        "dhéana",
        -8.892043867003991
      ],
      [
        "II",
        -8.892315778083088
      ],
      [
        "cineál",
        -8.892321559794285
      ],
      [
        "anseo",
        -8.89263782177125
      ],
      [
        "rinne",
        -8.892740286166072
      ],
      [
        "ion",
        -8.893419935133274
      ],
      [
        "féid",
        -8.900188490874484
      ],
      [
        "oilsiú",
        -8.903050902918029
      ],
      [
        "gcoinne",
        -8.90352273846435
      ],
      [
        "Maidir",
        -8.90496949753732
      ],
      [
        "ear",
        -8.905007435808567
      ],
      [
        "Gaeilge",
        -8.908145269047996
      ],
      [
        "Twitter",
        -8.909465449248511
      ],
      [
        "nna",
        -8.910577889143994
      ],
      [
        "bhféadfa",
        -8.910640087337917
      ],
      [
        "forál",
        -8.9151763366328
      ],
      [
        "fhorbairt",
        -8.916040816274673
      ],
      [
        "cúram",
        -8.917572834797602
      ],
      [
        "lean",
        -8.919955078381385
      ],
      [
        "áirithi",
        -8.924347469880203
      ],
      [
        "Fómha",
        -8.924921106979628
      ],
      [
        "bhunú",
        -8.926250219225652
      ],
      [
        "gnó",
        -8.929101634878002
      ],
      [
        "se",
        -8.929582776186887
      ],
      [
        "deara",
        -8.932036726342615
      ],
      [
        "NA",
        -8.934766173057422
      ],
      [
        "téarmaí",
        -8.934886841904063
      ],
      [
        "bhea",
        -8.936421375300396
      ],
      [
        "bhonn",
        -8.936514384199363
      ],
      [
        "fh",
        -8.939071828683417
      ],
      [
        "2013",
        -8.939688063945418
      ],
      [
        "éasca",
        -8.940390167970211
      ],
      [
        "Leasú",
        -8.943033194039216
      ],
      [
        "gcomhréi",
        -8.944282450108318
      ],
      [
        "arraí",
        -8.944861177403961
      ],
      [
        "Cé",
        -8.946152163652233
      ],
      [
        "Níl",
        -8.94633701874358
      ],
      [
        "each",
        -8.947864891399846
      ],
      [
        "dhéanta",
        -8.948113020021488
      ],
      [
        "eachas",
        -8.94857667195437
      ],
      [
        "cuirfid",
        -8.95039094417232
      ],
      [
        "agat",
        -8.953413234388922
      ],
      [
        "radh",
        -8.956658666145765
      ],
      [
        "ainneoi",
        -8.957972290777425
      ],
      [
        "ad",
        -8.959107789799397
      ],
      [
        "reatha",
        -8.960316243782106
      ],
      [
        "gcomhairle",
        -8.961806781616886
      ],
      [
        "ard",
        -8.962501709741437
      ],
      [
        "Go",
        -8.967370175890583
      ],
      [
        "Baile",
        -8.969308366570953
      ],
      [
        "ríomh",
        -8.970265134449672
      ],
      [
        "tuarascá",
        -8.970295601633905
      ],
      [
        "inearálta",
        -8.970699330249047
      ],
      [
        "dhíol",
        -8.973016750887854
      ],
      [
        "mbea",
        -8.974929923798882
      ],
      [
        "liom",
        -8.975605274826103
      ],
      [
        "forbairt",
        -8.97594517435909
      ],
      [
        "cláraithe",
        -8.980114603074767
      ],
      [
        "slí",
        -8.981038744178926
      ],
      [
        "ráitea",
        -8.981921327265567
      ],
      [
        "oibriú",
        -8.987716983546813
      ],
      [
        "De",
        -8.98868304300592
      ],
      [
        "so",
        -8.99073091933125
      ],
      [
        "‐",
        -8.9928406489215
      ],
      [
        "shin",
        -8.993077725966554
      ],
      [
        "comhaont",
        -8.994080946243628
      ],
      [
        "álta",
        -8.995056031071607
      ],
      [
        "195",
        -8.996595005341398
      ],
      [
        "bláth",
        -8.998767322210337
      ],
      [
        "eis",
        -8.999179614012514
      ],
      [
        "cúig",
        -8.999382924511883
      ],
      [
        "194",
        -9.000793503090378
      ],
      [
        "ionann",
        -9.002537348531977
      ],
      [
        "riachtanach",
        -9.003923803521246
      ],
      [
        "íocaíochta",
        -9.006976000018149
      ],
      [
        "Seirbhís",
        -9.011387407190291
      ],
      [
        "2012",
        -9.012924625711669
      ],
      [
        "fíor",
        -9.014886107609335
      ],
      [
        "26",
        -9.015355316853356
      ],
      [
        "costais",
        -9.01664397945417
      ],
      [
        "21",
        -9.01772777535884
      ],
      [
        "The",
        -9.01839522208789
      ],
      [
        "31",
        -9.020389790486767
      ],
      [
        "chumhacht",
        -9.021993370915064
      ],
      [
        "dtugta",
        -9.02343590873619
      ],
      [
        "rochtain",
        -9.025398091426847
      ],
      [
        "thaobh",
        -9.026847699096123
      ],
      [
        "Léim",
        -9.026893701878299
      ],
      [
        "thug",
        -9.030370485589337
      ],
      [
        "Ionca",
        -9.031006346740567
      ],
      [
        "caighdeán",
        -9.032057179093673
      ],
      [
        "100",
        -9.034787760799784
      ],
      [
        "seacha",
        -9.034794497603489
      ],
      [
        "Náisiúnta",
        -9.034866160352674
      ],
      [
        "ár",
        -9.03525702139072
      ],
      [
        "ochair",
        -9.038748139631391
      ],
      [
        "tuairim",
        -9.038952204899847
      ],
      [
        "doiciméad",
        -9.040200893869196
      ],
      [
        "Coiste",
        -9.041580218745576
      ],
      [
        "eagtha",
        -9.042004622868445
      ],
      [
        "gcion",
        -9.04378011484307
      ],
      [
        "soláthar",
        -9.043827269869404
      ],
      [
        "tacaíocht",
        -9.044677084054385
      ],
      [
        "urtha",
        -9.046099309825795
      ],
      [
        "fheidhmiú",
        -9.0468869148923
      ],
      [
        "measc",
        -9.04714348211597
      ],
      [
        "chéanna",
        -9.047578136375256
      ],
      [
        "inn",
        -9.047678198474017
      ],
      [
        "ine",
        -9.048343067200431
      ],
      [
        "ghabh",
        -9.048817144111823
      ],
      [
        "leasa",
        -9.049016446115603
      ],
      [
        "forála",
        -9.051734929897256
      ],
      [
        "Uimhir",
        -9.053906782106214
      ],
      [
        "rátaí",
        -9.05447441839161
      ],
      [
        "sásta",
        -9.054736438764756
      ],
      [
        "leanbh",
        -9.055290951969353
      ],
      [
        "fhógra",
        -9.05801800357859
      ],
      [
        "shampla",
        -9.063751474943611
      ],
      [
        "bhrái",
        -9.064594978385827
      ],
      [
        "praghas",
        -9.065896594512417
      ],
      [
        "breise",
        -9.066172060967244
      ],
      [
        "Cluich",
        -9.068096746151152
      ],
      [
        "íoslódáil",
        -9.06932194592984
      ],
      [
        "nós",
        -9.071855741436066
      ],
      [
        "inne",
        -9.079080413126427
      ],
      [
        "faisnéise",
        -9.079450691493115
      ],
      [
        "achomharc",
        -9.08029589524078
      ],
      [
        "cruach",
        -9.080667987377272
      ],
      [
        "láithreach",
        -9.082806378512025
      ],
      [
        "bun",
        -9.083415849215847
      ],
      [
        "orálach",
        -9.085100134574013
      ],
      [
        "Aibreá",
        -9.08629628957258
      ],
      [
        "22",
        -9.089144982510117
      ],
      [
        "chomhlíona",
        -9.089716966047845
      ],
      [
        "shonraí",
        -9.0899082057771
      ],
      [
        "comhair",
        -9.090098307392026
      ],
      [
        "luaite",
        -9.09162747533527
      ],
      [
        "Act",
        -9.092611071856618
      ],
      [
        "cheannach",
        -9.094452956082138
      ],
      [
        "modh",
        -9.095965112276897
      ],
      [
        "airde",
        -9.099477977500797
      ],
      [
        "mhór",
        -9.101524010028715
      ],
      [
        "chlárú",
        -9.101900884619536
      ],
      [
        "50",
        -9.102481812785127
      ],
      [
        "ma",
        -9.1027100965646
      ],
      [
        "cheangal",
        -9.104013999458548
      ],
      [
        "aird",
        -9.1042170510941
      ],
      [
        "choimeád",
        -9.105705580293368
      ],
      [
        "againn",
        -9.105893028752718
      ],
      [
        "críoch",
        -9.10706621370431
      ],
      [
        "scoth",
        -9.109778583211202
      ],
      [
        "eisiúint",
        -9.110718541784038
      ],
      [
        "irgid",
        -9.113999573199022
      ],
      [
        "fhios",
        -9.115520676783154
      ],
      [
        "mhonarcha",
        -9.117551932616845
      ],
      [
        "leagt",
        -9.1194042829174
      ],
      [
        "Ba",
        -9.119856155092371
      ],
      [
        "uaithe",
        -9.120224773226568
      ],
      [
        "éigin",
        -9.122120763940657
      ],
      [
        "seilbh",
        -9.122198601092784
      ],
      [
        "Oireachta",
        -9.124512188938201
      ],
      [
        "liúnta",
        -9.12499519791469
      ],
      [
        "lasmui",
        -9.126121293087017
      ],
      [
        "cheapad",
        -9.12743761192989
      ],
      [
        "mbe",
        -9.12752045009756
      ],
      [
        "stiúrthóir",
        -9.128248927475605
      ],
      [
        "al",
        -9.128269128026297
      ],
      [
        "úsáide",
        -9.128421738762967
      ],
      [
        "uimhir",
        -9.13074483327291
      ],
      [
        "tioncha",
        -9.133608463467816
      ],
      [
        "barr",
        -9.136789611518815
      ],
      [
        "foca",
        -9.141307783524528
      ],
      [
        "Nua",
        -9.143198008675213
      ],
      [
        "nádúrtha",
        -9.145144826810188
      ],
      [
        "iompai",
        -9.145895526690204
      ],
      [
        "scrío",
        -9.148582754380403
      ],
      [
        "aothair",
        -9.149217204011784
      ],
      [
        "damáist",
        -9.149330165637505
      ],
      [
        "domhain",
        -9.150395814270421
      ],
      [
        "Parlaimint",
        -9.152708794160505
      ],
      [
        "tionscada",
        -9.153907033276997
      ],
      [
        "eo",
        -9.154712004065114
      ],
      [
        "iarratais",
        -9.15540100903077
      ],
      [
        "28",
        -9.156164841372684
      ],
      [
        "ciontach",
        -9.156606145774361
      ],
      [
        "bhéal",
        -9.160805369517018
      ],
      [
        "iontach",
        -9.162196827035004
      ],
      [
        "cuirfea",
        -9.162676939534624
      ],
      [
        "Dé",
        -9.163007533388193
      ],
      [
        "cosanta",
        -9.164115453366307
      ],
      [
        "nár",
        -9.166350202609067
      ],
      [
        "chruthú",
        -9.16636933625935
      ],
      [
        "roghnú",
        -9.169012941479334
      ],
      [
        "siúl",
        -9.170287480813496
      ],
      [
        "talún",
        -9.170880718497163
      ],
      [
        "faid",
        -9.17672211194553
      ],
      [
        "sheola",
        -9.177422961345648
      ],
      [
        "díol",
        -9.17803609341076
      ],
      [
        "Author",
        -9.178596122234545
      ],
      [
        "oisc",
        -9.179582048076998
      ],
      [
        "teorainn",
        -9.179886149544247
      ],
      [
        "27",
        -9.18048181868069
      ],
      [
        "Leasa",
        -9.18079543781283
      ],
      [
        "Cuir",
        -9.180988202814962
      ],
      [
        "Tweet",
        -9.183379633526432
      ],
      [
        "cheana",
        -9.183553355896887
      ],
      [
        "saol",
        -9.186304026470893
      ],
      [
        "lucht",
        -9.186871900370374
      ],
      [
        "riachtanais",
        -9.186974701473623
      ],
      [
        "dath",
        -9.18730248408913
      ],
      [
        "leanúint",
        -9.188897551089422
      ],
      [
        "osach",
        -9.189805832501968
      ],
      [
        "eacha",
        -9.19088086114181
      ],
      [
        "uíonn",
        -9.191446471637068
      ],
      [
        "grúpa",
        -9.192057912756791
      ],
      [
        "cúis",
        -9.192530477076843
      ],
      [
        "bheadh",
        -9.193353352690652
      ],
      [
        "ath",
        -9.194750301401209
      ],
      [
        "sna",
        -9.195115610142004
      ],
      [
        "2011",
        -9.197968277813148
      ],
      [
        "earra",
        -9.200302067918868
      ],
      [
        "sonrach",
        -9.203039625717512
      ],
      [
        "margadh",
        -9.204046154539395
      ],
      [
        "riarachá",
        -9.204075348677637
      ],
      [
        "Chiste",
        -9.206186057651031
      ],
      [
        "v",
        -9.21178036473894
      ],
      [
        "luath",
        -9.21227871524699
      ],
      [
        "Eanáir",
        -9.21267771417119
      ],
      [
        "Corporat",
        -9.213181419046396
      ],
      [
        "sula",
        -9.21352457917179
      ],
      [
        "tús",
        -9.213578184345925
      ],
      [
        "bliantú",
        -9.213766729992251
      ],
      [
        "kar",
        -9.214639327959183
      ],
      [
        "íortha",
        -9.214869306124957
      ],
      [
        "abairt",
        -9.214869641472195
      ],
      [
        "tharla",
        -9.218827366210153
      ],
      [
        "23",
        -9.219847767248456
      ],
      [
        "teach",
        -9.22124454571702
      ],
      [
        "cuntais",
        -9.221725092360138
      ],
      [
        "choiste",
        -9.224896758454136
      ],
      [
        "cás",
        -9.225282909057618
      ],
      [
        "úsáideoir",
        -9.22730588361691
      ],
      [
        "leath",
        -9.227349222320502
      ],
      [
        "minic",
        -9.22894029682477
      ],
      [
        "freagrach",
        -9.229175623483124
      ],
      [
        "lú",
        -9.229353546943244
      ],
      [
        "ocht",
        -9.229621426469496
      ],
      [
        "ghairm",
        -9.229646004223218
      ],
      [
        "úinéir",
        -9.23128639265618
      ],
      [
        "lán",
        -9.23144446818908
      ],
      [
        "cumhacht",
        -9.231865803161114
      ],
      [
        "cuspóir",
        -9.232809919261507
      ],
      [
        "hord",
        -9.234655272663902
      ],
      [
        "cad",
        -9.235650792631317
      ],
      [
        "tabhairt",
        -9.236356042660969
      ],
      [
        "Áitiú",
        -9.23685291906586
      ],
      [
        "eiceáil",
        -9.2372944414995
      ],
      [
        "sócmhainn",
        -9.238613935687907
      ],
      [
        "láimh",
        -9.24008142726175
      ],
      [
        "cáin",
        -9.241710569663828
      ],
      [
        "Cad",
        -9.242114502068123
      ],
      [
        "feidhmeanna",
        -9.242429644408451
      ],
      [
        "III",
        -9.243957375750682
      ],
      [
        "grianghraf",
        -9.245679902402031
      ],
      [
        "insean",
        -9.245990866625561
      ],
      [
        "tír",
        -9.24762279863376
      ],
      [
        "siú",
        -9.248700669000566
      ],
      [
        "seach",
        -9.248846954195052
      ],
      [
        "dheon",
        -9.249613355782373
      ],
      [
        "fhoráil",
        -9.251334260756382
      ],
      [
        "tábhachtach",
        -9.25436397582465
      ],
      [
        "réasúnach",
        -9.25498636684254
      ],
      [
        "aistrithe",
        -9.255017871088167
      ],
      [
        "Cona",
        -9.2569789623216
      ],
      [
        "chiont",
        -9.257565030939471
      ],
      [
        "bhua",
        -9.257945929915323
      ],
      [
        "us",
        -9.259294826036925
      ],
      [
        "nois",
        -9.261289399504243
      ],
      [
        "comh",
        -9.262970603656766
      ],
      [
        "z",
        -9.264220143603797
      ],
      [
        "ábhair",
        -9.264724731862945
      ],
      [
        "chúis",
        -9.266183414048527
      ],
      [
        "íneáil",
        -9.266885353850542
      ],
      [
        "29",
        -9.267014177512763
      ],
      [
        "mhéadú",
        -9.26714942304649
      ],
      [
        "fa",
        -9.267774386485971
      ],
      [
        "DO",
        -9.2684435022396
      ],
      [
        "si",
        -9.268447666410047
      ],
      [
        "gcrích",
        -9.27338528578861
      ],
      [
        "tháinig",
        -9.27396540696075
      ],
      [
        "leathan",
        -9.277131604732803
      ],
      [
        "San",
        -9.280864319384005
      ],
      [
        "Béar",
        -9.282162427296656
      ],
      [
        "hordú",
        -9.283078904032855
      ],
      [
        "léiriú",
        -9.285814485673743
      ],
      [
        "feidhmiú",
        -9.28629855504752
      ],
      [
        "íseal",
        -9.288620985043735
      ],
      [
        "bán",
        -9.289515778227091
      ],
      [
        "Bill",
        -9.289953850409916
      ],
      [
        "comhairle",
        -9.291473673631806
      ],
      [
        "hAcht",
        -9.294189243594047
      ],
      [
        "Á",
        -9.294864978974083
      ],
      [
        "bhfoirm",
        -9.295471203870857
      ],
      [
        "costas",
        -9.295616858953036
      ],
      [
        "taighde",
        -9.29567493997169
      ],
      [
        "ullmhú",
        -9.297090556941589
      ],
      [
        "mhalairt",
        -9.29920943498388
      ],
      [
        "GUS",
        -9.300005634321154
      ],
      [
        "doiciméid",
        -9.302619102895505
      ],
      [
        "cosaint",
        -9.302954975950552
      ],
      [
        "cib",
        -9.305775651031741
      ],
      [
        "éadrom",
        -9.307433268592295
      ],
      [
        "chúirt",
        -9.308830571479792
      ],
      [
        "dubh",
        -9.309165238245363
      ],
      [
        "ostaithe",
        -9.309796455586046
      ],
      [
        "dtaca",
        -9.311902275571203
      ],
      [
        "artha",
        -9.312739767450015
      ],
      [
        "Bhallstá",
        -9.312985077992895
      ],
      [
        "iasacht",
        -9.313274436346347
      ],
      [
        "Féach",
        -9.313599748916271
      ],
      [
        "huine",
        -9.314745695931448
      ],
      [
        "iarnró",
        -9.315515643511098
      ],
      [
        "198",
        -9.315858386301578
      ],
      [
        "cáilíochta",
        -9.319142071241993
      ],
      [
        "Cánach",
        -9.321691897532457
      ],
      [
        "cóip",
        -9.322771916408941
      ],
      [
        "abhair",
        -9.323940272176607
      ],
      [
        "deimh",
        -9.323959698601755
      ],
      [
        "ceanglai",
        -9.32396832500994
      ],
      [
        "léas",
        -9.324635859537153
      ],
      [
        "úsáidte",
        -9.325455407531791
      ],
      [
        "mBallstá",
        -9.32558612596241
      ],
      [
        "cothrom",
        -9.32654994494648
      ],
      [
        "Tar",
        -9.329214435172169
      ],
      [
        "ur",
        -9.329288391083178
      ],
      [
        "páirtí",
        -9.333535946419799
      ],
      [
        "bainistíocht",
        -9.33446333586486
      ],
      [
        "infheidhme",
        -9.335779450186076
      ],
      [
        "seachtain",
        -9.335804166284976
      ],
      [
        "cinnte",
        -9.33645594204593
      ],
      [
        "abhrú",
        -9.341879425146747
      ],
      [
        "bharr",
        -9.342276883837318
      ],
      [
        "scrúdú",
        -9.345263193523104
      ],
      [
        "cearta",
        -9.34576353852188
      ],
      [
        "díobh",
        -9.346240636020507
      ],
      [
        "bord",
        -9.34697014982917
      ],
      [
        "riosca",
        -9.347589490922335
      ],
      [
        "príomh",
        -9.349187402038577
      ],
      [
        "ionstraim",
        -9.34954130533891
      ],
      [
        "maoin",
        -9.350464489016215
      ],
      [
        "ainmnithe",
        -9.350655190169705
      ],
      [
        "oibreacha",
        -9.355847344400225
      ],
      [
        "abháil",
        -9.356479526370293
      ],
      [
        "Product",
        -9.361434064000829
      ],
      [
        "Cliath",
        -9.36166378326675
      ],
      [
        "chumas",
        -9.362427451421109
      ],
      [
        "tapa",
        -9.362600043088758
      ],
      [
        "páirteach",
        -9.363459256894714
      ],
      [
        "soiléir",
        -9.364262598109715
      ],
      [
        "able",
        -9.365365327062351
      ],
      [
        "eiridh",
        -9.366912559323822
      ],
      [
        "Éirinn",
        -9.367033136686828
      ],
      [
        "Ú",
        -9.369125990414378
      ],
      [
        "chomhair",
        -9.369385578810629
      ],
      [
        "gcuideachta",
        -9.369783676552615
      ],
      [
        "ithre",
        -9.371409188258465
      ],
      [
        "inni",
        -9.371754941219045
      ],
      [
        "Rialtais",
        -9.37295740909631
      ],
      [
        "taithí",
        -9.373742077888398
      ],
      [
        "Iarscríbhinn",
        -9.378133245477182
      ],
      [
        "eas",
        -9.379831362856734
      ],
      [
        "hosm",
        -9.380578997280518
      ],
      [
        "bia",
        -9.380897154374901
      ],
      [
        "forbartha",
        -9.381425247473242
      ],
      [
        "seolad",
        -9.382095708864236
      ],
      [
        "mhaoin",
        -9.382227798234895
      ],
      [
        "oibleagáid",
        -9.386093933118213
      ],
      [
        "hoird",
        -9.387356886046279
      ],
      [
        "ontaithe",
        -9.38801825077264
      ],
      [
        "lagha",
        -9.38876166576712
      ],
      [
        "ghabha",
        -9.389235844054651
      ],
      [
        "phoiblí",
        -9.390604917630885
      ],
      [
        "úcháin",
        -9.391384713596441
      ],
      [
        "eithre",
        -9.39144592434267
      ],
      [
        "scaoileadh",
        -9.395475304275854
      ],
      [
        "éiteach",
        -9.395808788168127
      ],
      [
        "bhforáil",
        -9.396593727675796
      ],
      [
        "ligean",
        -9.399271527005226
      ],
      [
        "mí",
        -9.400307639538
      ],
      [
        "iarratasóir",
        -9.400318435290806
      ],
      [
        "aici",
        -9.401656831826834
      ],
      [
        "tástála",
        -9.402603228785594
      ],
      [
        "bhfad",
        -9.403208615360505
      ],
      [
        "athair",
        -9.404668970245915
      ],
      [
        "seomra",
        -9.404857956692451
      ],
      [
        "Meán",
        -9.406046541589735
      ],
      [
        "fu",
        -9.407941715622071
      ],
      [
        "sheirbhís",
        -9.40908200073187
      ],
      [
        "Sláinte",
        -9.40972703935272
      ],
      [
        "Líne",
        -9.4098440205968
      ],
      [
        "rtha",
        -9.410418719897486
      ],
      [
        "oideachais",
        -9.411401364905302
      ],
      [
        "freastal",
        -9.41329304625313
      ],
      [
        "rialaithe",
        -9.414015278261907
      ],
      [
        "gnáth",
        -9.41519031303801
      ],
      [
        "oifige",
        -9.416548470726884
      ],
      [
        "athbhreithniú",
        -9.417477281993666
      ],
      [
        "choinníoll",
        -9.418334506960065
      ],
      [
        "TV",
        -9.420244675842806
      ],
      [
        "cineálach",
        -9.421327993270967
      ],
      [
        "húdará",
        -9.42248244165199
      ],
      [
        "simplí",
        -9.423633875717904
      ],
      [
        "déantóir",
        -9.425016113048798
      ],
      [
        "sealbhóir",
        -9.42537200486786
      ],
      [
        "mba",
        -9.42702886412673
      ],
      [
        "Co",
        -9.427500525463799
      ],
      [
        "Rialtas",
        -9.427833437345653
      ],
      [
        "dtabharfa",
        -9.427915687440496
      ],
      [
        "iarracht",
        -9.428415658665163
      ],
      [
        "thugta",
        -9.428453592889017
      ],
      [
        "shocr",
        -9.429768869132534
      ],
      [
        "rialta",
        -9.43095035227288
      ],
      [
        "Físeá",
        -9.432526957720608
      ],
      [
        "gnéas",
        -9.432576230476624
      ],
      [
        "sanna",
        -9.432784888026486
      ],
      [
        "léamh",
        -9.434230074304617
      ],
      [
        "tuga",
        -9.434261050316383
      ],
      [
        "hAchta",
        -9.434499811702974
      ],
      [
        "údarú",
        -9.434538646730328
      ],
      [
        "lorg",
        -9.436383208189216
      ],
      [
        "lt",
        -9.437080101490434
      ],
      [
        "gceannas",
        -9.437145381140338
      ],
      [
        "cé",
        -9.437273797743739
      ],
      [
        "foráil",
        -9.43760369570341
      ],
      [
        "acmhainn",
        -9.439120762251054
      ],
      [
        "caillteana",
        -9.439262479397172
      ],
      [
        "uirthi",
        -9.439553154455538
      ],
      [
        "ngníomh",
        -9.440112716418332
      ],
      [
        "próiseas",
        -9.441182703180278
      ],
      [
        "ghnó",
        -9.4425372608578
      ],
      [
        "hlí",
        -9.44429267279786
      ],
      [
        "ith",
        -9.444686386239134
      ],
      [
        "caiteacha",
        -9.445005533366892
      ],
      [
        "List",
        -9.445686726346416
      ],
      [
        "eartaithe",
        -9.451270439238023
      ],
      [
        "bliant",
        -9.451343862568068
      ],
      [
        "rádáil",
        -9.45298814951199
      ],
      [
        "ball",
        -9.453035761036439
      ],
      [
        "int",
        -9.455581291198694
      ],
      [
        "institiúid",
        -9.457833264784515
      ],
      [
        "fáth",
        -9.457997837083788
      ],
      [
        "Leictreon",
        -9.458200842815796
      ],
      [
        "saintréith",
        -9.45828953607641
      ],
      [
        "céim",
        -9.46059675805458
      ],
      [
        "ghabháil",
        -9.461057631470231
      ],
      [
        "sí",
        -9.461485092500189
      ],
      [
        "leabhar",
        -9.462699299834936
      ],
      [
        "glacad",
        -9.463402914595896
      ],
      [
        "tairiscint",
        -9.465601203546989
      ],
      [
        "tuairisc",
        -9.468228436769866
      ],
      [
        "éisteacht",
        -9.470685820796312
      ],
      [
        "airgeadra",
        -9.470766900813569
      ],
      [
        "iarrthóir",
        -9.471806566189699
      ],
      [
        "úirt",
        -9.471937164675122
      ],
      [
        "In",
        -9.47320515120861
      ],
      [
        "éifeachtach",
        -9.474995930949031
      ],
      [
        "dleacht",
        -9.475105626592697
      ],
      [
        "córa",
        -9.477641706960227
      ],
      [
        "ndéanta",
        -9.477892233491863
      ],
      [
        "beart",
        -9.478007577133333
      ],
      [
        "thart",
        -9.478048801738673
      ],
      [
        "comhlachta",
        -9.47833645467282
      ],
      [
        "no",
        -9.479980798905881
      ],
      [
        "substaint",
        -9.480430143481522
      ],
      [
        "rí",
        -9.480452600985727
      ],
      [
        "Do",
        -9.481732565274445
      ],
      [
        "cláir",
        -9.481931793240797
      ],
      [
        "éir",
        -9.484992363596646
      ],
      [
        "ghnóth",
        -9.485369064498524
      ],
      [
        "or",
        -9.486100096653583
      ],
      [
        "tuillea",
        -9.486960115371405
      ],
      [
        "nasc",
        -9.487034431064927
      ],
      [
        "Grúpa",
        -9.488362238653256
      ],
      [
        "oladh",
        -9.489057818358399
      ],
      [
        "Chomh",
        -9.489303761133058
      ],
      [
        "theacht",
        -9.48962586543005
      ],
      [
        "dara",
        -9.490872240217092
      ],
      [
        "thabharfa",
        -9.492894620653722
      ],
      [
        "breith",
        -9.49332799436301
      ],
      [
        "laigh",
        -9.494041295562004
      ],
      [
        "ort",
        -9.495755004132167
      ],
      [
        "Soils",
        -9.497137278342258
      ],
      [
        "domhan",
        -9.497773740602481
      ],
      [
        "ord",
        -9.498492393779372
      ],
      [
        "Contae",
        -9.499203005502764
      ],
      [
        "stoc",
        -9.499331461950415
      ],
      [
        "aisíoc",
        -9.499450882911166
      ],
      [
        "Ord",
        -9.503253424321041
      ],
      [
        "saoire",
        -9.50425316467116
      ],
      [
        "chomhlíon",
        -9.50519993189287
      ],
      [
        "fostaíochta",
        -9.505326434299345
      ],
      [
        "ige",
        -9.506882712283382
      ],
      [
        "céad",
        -9.513267724268548
      ],
      [
        "sábháilteacht",
        -9.514392589081076
      ],
      [
        "scoil",
        -9.515740486116876
      ],
      [
        "óir",
        -9.516328676083535
      ],
      [
        "Ch",
        -9.5170823465155
      ],
      [
        "déan",
        -9.519280241896073
      ],
      [
        "ndéanfaid",
        -9.521572260407808
      ],
      [
        "Cúirte",
        -9.522638568468954
      ],
      [
        "cumhachtaí",
        -9.523113521034812
      ],
      [
        "ainmniú",
        -9.523251471736504
      ],
      [
        "scannán",
        -9.524373673952175
      ],
      [
        "post",
        -9.52487752598884
      ],
      [
        "Stiúrthóir",
        -9.525000164850042
      ],
      [
        "40",
        -9.525452045670399
      ],
      [
        "thuras",
        -9.526291855756728
      ],
      [
        "of",
        -9.527314123185281
      ],
      [
        "nithe",
        -9.527389588739235
      ],
      [
        "Táirg",
        -9.527774151406298
      ],
      [
        "Cuirea",
        -9.53036145355589
      ],
      [
        "húsáid",
        -9.53040780188972
      ],
      [
        "sprioc",
        -9.53192999592136
      ],
      [
        "coiste",
        -9.532803272788936
      ],
      [
        "co",
        -9.533660942652427
      ],
      [
        "fuair",
        -9.53389942752891
      ],
      [
        "ríomhaire",
        -9.53453691057261
      ],
      [
        "Clárú",
        -9.534950430688083
      ],
      [
        "W",
        -9.536013010469716
      ],
      [
        "cona",
        -9.536314948257314
      ],
      [
        "ITHE",
        -9.53853627897698
      ],
      [
        "scaire",
        -9.541182062526016
      ],
      [
        "Lawn",
        -9.54244011555377
      ],
      [
        "ra",
        -9.543170166434512
      ],
      [
        "punt",
        -9.544212336136038
      ],
      [
        "prionsaba",
        -9.544952426166276
      ],
      [
        "muirear",
        -9.545013785235666
      ],
      [
        "staid",
        -9.54503459302103
      ],
      [
        "íocfa",
        -9.545444685227277
      ],
      [
        "fhéadfa",
        -9.546930746315432
      ],
      [
        "gCoimisiú",
        -9.547763599797452
      ],
      [
        "Sonraí",
        -9.548393628930217
      ],
      [
        "Sa",
        -9.548444901204157
      ],
      [
        "fó",
        -9.549784958694676
      ],
      [
        "faoina",
        -9.551801559809554
      ],
      [
        "ealach",
        -9.552329150428314
      ],
      [
        "néithe",
        -9.552747119041888
      ],
      [
        "hníomhaireacht",
        -9.552992903760458
      ],
      [
        "dliteana",
        -9.553005507114186
      ],
      [
        "Tag",
        -9.554909049950014
      ],
      [
        "tí",
        -9.556931653510894
      ],
      [
        "leanúnach",
        -9.557234040209643
      ],
      [
        "ola",
        -9.557597803477503
      ],
      [
        "cailín",
        -9.560091949715883
      ],
      [
        "cheadú",
        -9.560299231680002
      ],
      [
        "iméad",
        -9.561749085889236
      ],
      [
        "ciall",
        -9.562112902170588
      ],
      [
        "féach",
        -9.564472735328465
      ],
      [
        "Nolla",
        -9.564983173041718
      ],
      [
        "Choiste",
        -9.56614000200653
      ],
      [
        "Alt",
        -9.566145078021595
      ],
      [
        "ndia",
        -9.566494730610282
      ],
      [
        "halt",
        -9.566775159117899
      ],
      [
        "imir",
        -9.568696195733391
      ],
      [
        "chinnti",
        -9.568738844386159
      ],
      [
        "glan",
        -9.570411862916657
      ],
      [
        "mbliana",
        -9.571620550745958
      ],
      [
        "scair",
        -9.572517099340118
      ],
      [
        "uaidh",
        -9.57357117675178
      ],
      [
        "teanga",
        -9.574210519960975
      ],
      [
        "plean",
        -9.575393772233117
      ],
      [
        "aicm",
        -9.575723405278476
      ],
      [
        "cheadúna",
        -9.576691690793325
      ],
      [
        "teagmhá",
        -9.57746980984967
      ],
      [
        "raon",
        -9.578288693232334
      ],
      [
        "Stiúrthóireacht",
        -9.578476872529764
      ],
      [
        "ceapt",
        -9.579798364090985
      ],
      [
        "sraith",
        -9.582682901870253
      ],
      [
        "éil",
        -9.585547101201062
      ],
      [
        "árachais",
        -9.586203884984904
      ],
      [
        "Caibidil",
        -9.586511287417665
      ],
      [
        "scéime",
        -9.587188712903616
      ],
      [
        "Clár",
        -9.587452862534157
      ],
      [
        "rún",
        -9.587575901552311
      ],
      [
        "treala",
        -9.588540595852995
      ],
      [
        "onn",
        -9.589375499650597
      ],
      [
        "bosca",
        -9.590086629301869
      ],
      [
        "cheist",
        -9.590695330093581
      ],
      [
        "mheas",
        -9.595504599673239
      ],
      [
        "w",
        -9.5958521881055
      ],
      [
        "scoileanna",
        -9.596393627177164
      ],
      [
        "chomhaont",
        -9.596572890588186
      ],
      [
        "deis",
        -9.597301885356364
      ],
      [
        "iascaireacht",
        -9.599910969166903
      ],
      [
        "bhreise",
        -9.601565071330494
      ],
      [
        "Bhaile",
        -9.60168345318332
      ],
      [
        "socrú",
        -9.602259205319015
      ],
      [
        "gclár",
        -9.60414922231464
      ],
      [
        "achtachá",
        -9.604518078945771
      ],
      [
        "teorann",
        -9.605012096389295
      ],
      [
        "LE",
        -9.605029917910546
      ],
      [
        "éard",
        -9.60544886108463
      ],
      [
        "ngach",
        -9.607307529471793
      ],
      [
        "slándá",
        -9.608754564448095
      ],
      [
        "ire",
        -9.609124476322789
      ],
      [
        "35",
        -9.609133774827665
      ],
      [
        "Cuid",
        -9.60993137465587
      ],
      [
        "creidmheasa",
        -9.610795121770243
      ],
      [
        "scoile",
        -9.610811890977395
      ],
      [
        "tionscna",
        -9.611889098885392
      ],
      [
        "cosc",
        -9.613664540459835
      ],
      [
        "arb",
        -9.614173712806252
      ],
      [
        "leictreonach",
        -9.614289094670067
      ],
      [
        "volta",
        -9.614496636176593
      ],
      [
        "óirí",
        -9.61557929717323
      ],
      [
        "thagairt",
        -9.615929367988716
      ],
      [
        "Déan",
        -9.616069067763704
      ],
      [
        "inmheánach",
        -9.61705088117725
      ],
      [
        "Ag",
        -9.618128135365929
      ],
      [
        "dearg",
        -9.618207767581065
      ],
      [
        "othair",
        -9.618264087141247
      ],
      [
        "x",
        -9.620128368603323
      ],
      [
        "teicniú",
        -9.620226596333515
      ],
      [
        "duithe",
        -9.620362171704425
      ],
      [
        "tharraingt",
        -9.621481810511803
      ],
      [
        "dar",
        -9.623916672956103
      ],
      [
        "etc",
        -9.62490716833116
      ],
      [
        "liúntais",
        -9.625156261978555
      ],
      [
        "fanacht",
        -9.625358729976668
      ],
      [
        "Deirea",
        -9.625618187390465
      ],
      [
        "tíre",
        -9.626052190482895
      ],
      [
        "álainn",
        -9.626638699790323
      ],
      [
        "balla",
        -9.62983106639167
      ],
      [
        "dleathach",
        -9.62990496407716
      ],
      [
        "oscailte",
        -9.63030898862337
      ],
      [
        "scéal",
        -9.630358090633095
      ],
      [
        "méadú",
        -9.631663669115227
      ],
      [
        "feist",
        -9.634429957313046
      ],
      [
        "aimseartha",
        -9.634736445683913
      ],
      [
        "iasc",
        -9.63559402311779
      ],
      [
        "ois",
        -9.637523388400774
      ],
      [
        "bhe",
        -9.63801753409023
      ],
      [
        "ac",
        -9.63831767080453
      ],
      [
        "oideachas",
        -9.639905409188223
      ],
      [
        "thos",
        -9.640743769294916
      ],
      [
        "foirm",
        -9.643351892530902
      ],
      [
        "plandáil",
        -9.643446664523584
      ],
      [
        "mion",
        -9.644124253912189
      ],
      [
        "oinneáil",
        -9.645363903116273
      ],
      [
        "uirlis",
        -9.645774118298224
      ],
      [
        "infheistíochta",
        -9.646211859845204
      ],
      [
        "eacht",
        -9.647441264306387
      ],
      [
        "Ollscoil",
        -9.647740180784073
      ],
      [
        "parlaiminteach",
        -9.650281821404185
      ],
      [
        "Meitheam",
        -9.65234048724009
      ],
      [
        "inniúi",
        -9.65253067707227
      ],
      [
        "dearbhú",
        -9.65524385420406
      ],
      [
        "chuntasaíocht",
        -9.658186364607289
      ],
      [
        "chothabháil",
        -9.658933819686705
      ],
      [
        "SC",
        -9.65935784117732
      ],
      [
        "os",
        -9.659391712756126
      ],
      [
        "cúraim",
        -9.659472278371474
      ],
      [
        "oirceallá",
        -9.659854125910758
      ],
      [
        "bail",
        -9.664577998033641
      ],
      [
        "ordaithe",
        -9.664627163769342
      ],
      [
        "*",
        -9.665012951547698
      ],
      [
        "inniúla",
        -9.665950713612782
      ],
      [
        "táille",
        -9.667164831264955
      ],
      [
        "Tiarna",
        -9.667795802245635
      ],
      [
        "tacú",
        -9.669639692863305
      ],
      [
        "bhaile",
        -9.6700857090559
      ],
      [
        "úinn",
        -9.671183915094328
      ],
      [
        "tráchtál",
        -9.671461751313554
      ],
      [
        "Déanta",
        -9.671830936929446
      ],
      [
        "meaisín",
        -9.67216110044813
      ],
      [
        "ndáir",
        -9.672266357339083
      ],
      [
        "IV",
        -9.672915996241745
      ],
      [
        "thréimhse",
        -9.674811901321194
      ],
      [
        "cosú",
        -9.675342048868202
      ],
      [
        "thaga",
        -9.676748897354887
      ],
      [
        "hoireann",
        -9.676952134475947
      ],
      [
        "chosc",
        -9.67792693893131
      ],
      [
        "treoir",
        -9.678990311804974
      ],
      [
        "oilse",
        -9.68117043633129
      ],
      [
        "bogearra",
        -9.681465911944754
      ],
      [
        "mhodh",
        -9.68174395799013
      ],
      [
        "dlite",
        -9.681832695662344
      ],
      [
        "Teach",
        -9.682404895273677
      ],
      [
        "íochta",
        -9.682640708087682
      ],
      [
        "Foins",
        -9.682996393656964
      ],
      [
        "EIDEA",
        -9.684005204649543
      ],
      [
        "gheobhaid",
        -9.684916348452372
      ],
      [
        "gCuid",
        -9.68578187560666
      ],
      [
        "deonta",
        -9.686772923003307
      ],
      [
        "teannta",
        -9.686964805881155
      ],
      [
        "thaispeáin",
        -9.687190431145353
      ],
      [
        "Bealtaine",
        -9.688157010063271
      ],
      [
        "fhoirm",
        -9.688428058709203
      ],
      [
        "eachta",
        -9.689034873693743
      ],
      [
        "onnmhaireoir",
        -9.689160321832539
      ],
      [
        "hearra",
        -9.68970355845262
      ],
      [
        "oibríochta",
        -9.690917675236268
      ],
      [
        "thíos",
        -9.691873293538402
      ],
      [
        "caite",
        -9.693344195683022
      ],
      [
        "éag",
        -9.693699393430501
      ],
      [
        "dochtúir",
        -9.693736331965727
      ],
      [
        "MS",
        -9.694256042876834
      ],
      [
        "ochta",
        -9.695078868295203
      ],
      [
        "réasúnta",
        -9.695732142946248
      ],
      [
        "pointe",
        -9.696122855333751
      ],
      [
        "Rogh",
        -9.696403305555481
      ],
      [
        "cruinni",
        -9.696444412003203
      ],
      [
        "tory",
        -9.697388998685236
      ],
      [
        "corpraithe",
        -9.69810377942629
      ],
      [
        "fhorála",
        -9.698291147275558
      ],
      [
        "reacht",
        -9.701861047161156
      ],
      [
        "Déanfai",
        -9.701995283576942
      ],
      [
        "Áth",
        -9.702335945787265
      ],
      [
        "iona",
        -9.703375107344723
      ],
      [
        "ly",
        -9.703443295541257
      ],
      [
        "tarmlig",
        -9.704188893074173
      ],
      [
        "reachtaíocht",
        -9.705030998700519
      ],
      [
        "Mura",
        -9.705103807832565
      ],
      [
        "fheabhsú",
        -9.70510710319304
      ],
      [
        "rá",
        -9.705249817322969
      ],
      [
        "Guan",
        -9.705790318880371
      ],
      [
        "talmhaíocht",
        -9.705896539505877
      ],
      [
        "tré",
        -9.70717666900697
      ],
      [
        "lár",
        -9.707964661644123
      ],
      [
        "60",
        -9.708417727997166
      ],
      [
        "ceist",
        -9.708987715128828
      ],
      [
        "oscailt",
        -9.70945957510255
      ],
      [
        "molta",
        -9.710457708309294
      ],
      [
        "ngair",
        -9.7108030150174
      ],
      [
        "Moncler",
        -9.7115247092892
      ],
      [
        "32",
        -9.711572095096209
      ],
      [
        "réidh",
        -9.713095483014246
      ],
      [
        "faire",
        -9.71315997179697
      ],
      [
        "sláintíocht",
        -9.713983391714129
      ],
      [
        "2007",
        -9.714490442608017
      ],
      [
        "folaío",
        -9.715226720312685
      ],
      [
        "onaid",
        -9.715469204291091
      ],
      [
        "cárta",
        -9.717018366410425
      ],
      [
        "baile",
        -9.71704311042254
      ],
      [
        "gcur",
        -9.718107874062454
      ],
      [
        "fheidhm",
        -9.718749315721535
      ],
      [
        "bhailiú",
        -9.71911590598815
      ],
      [
        "clárú",
        -9.719449371454655
      ],
      [
        "gheimhr",
        -9.719602497587012
      ],
      [
        "malairt",
        -9.720099770063248
      ],
      [
        "Feabhra",
        -9.720431109039808
      ],
      [
        "earnáil",
        -9.721674315905938
      ],
      [
        "aitheanta",
        -9.723900239948804
      ],
      [
        "Chonra",
        -9.72435125244101
      ],
      [
        "éisteachta",
        -9.725541696962036
      ],
      [
        "chríoch",
        -9.726554395342928
      ],
      [
        "easúnú",
        -9.72656983699002
      ],
      [
        "iontu",
        -9.726588754387254
      ],
      [
        "Iarnró",
        -9.728004900888362
      ],
      [
        "léireofa",
        -9.72832608850328
      ],
      [
        "stát",
        -9.728559683641226
      ],
      [
        "fiche",
        -9.728828481463445
      ],
      [
        "treorach",
        -9.729690711897206
      ],
      [
        "che",
        -9.729904788495997
      ],
      [
        "chontae",
        -9.730000998475152
      ],
      [
        "ba",
        -9.731315945992524
      ],
      [
        "tsuim",
        -9.731474255569161
      ],
      [
        "ireann",
        -9.73226602038007
      ],
      [
        "thionscna",
        -9.732617057615382
      ],
      [
        "Í",
        -9.734274688459397
      ],
      [
        "sampla",
        -9.734501880507995
      ],
      [
        "bhíthin",
        -9.735421820214416
      ],
      [
        "chóras",
        -9.73631056388528
      ],
      [
        "thora",
        -9.73650513562665
      ],
      [
        "gcomhair",
        -9.737267040453418
      ],
      [
        "phost",
        -9.738711663437815
      ],
      [
        "cruinn",
        -9.74025904307467
      ],
      [
        "Óg",
        -9.740399530615846
      ],
      [
        "Cur",
        -9.740532521584743
      ],
      [
        "adhmai",
        -9.74086256622562
      ],
      [
        "Uachtarán",
        -9.741745101113445
      ],
      [
        "36",
        -9.74185657829777
      ],
      [
        "dhiai",
        -9.742398178941993
      ],
      [
        "nách",
        -9.743109971103987
      ],
      [
        "contae",
        -9.743687352569019
      ],
      [
        "deich",
        -9.744130103386318
      ],
      [
        "leighis",
        -9.745505131330116
      ],
      [
        "eagraíocht",
        -9.745848379523878
      ],
      [
        "AMH",
        -9.745958811624526
      ],
      [
        "Ríocht",
        -9.746047814550671
      ],
      [
        "ugann",
        -9.748256167214159
      ],
      [
        "laeth",
        -9.748549817509653
      ],
      [
        "lacadh",
        -9.748692726125284
      ],
      [
        "SOLAS",
        -9.750549880016116
      ],
      [
        "long",
        -9.750579526444556
      ],
      [
        "fuarth",
        -9.75121554355935
      ],
      [
        "tAir",
        -9.751558985913817
      ],
      [
        "mbainfid",
        -9.754190457860542
      ],
      [
        "K",
        -9.754491850683811
      ],
      [
        "stiúi",
        -9.755269494057504
      ],
      [
        "irt",
        -9.75800587271203
      ],
      [
        "gCoimisinéir",
        -9.758184941508693
      ],
      [
        "cíos",
        -9.758224915923137
      ],
      [
        "churtha",
        -9.758397489399176
      ],
      [
        "maoine",
        -9.759598414280742
      ],
      [
        "breathn",
        -9.760803751184051
      ],
      [
        "straitéis",
        -9.761354964609847
      ],
      [
        "Porn",
        -9.763528929683314
      ],
      [
        "33",
        -9.763667083631383
      ],
      [
        "tionsca",
        -9.76478184000473
      ],
      [
        "chéim",
        -9.764866732887437
      ],
      [
        "oirí",
        -9.765613204390188
      ],
      [
        "socruithe",
        -9.765920399651131
      ],
      [
        "45",
        -9.766914604062984
      ],
      [
        "frith",
        -9.768212291799728
      ],
      [
        "ugtha",
        -9.769692262071676
      ],
      [
        "scrios",
        -9.770853738316351
      ],
      [
        "phróiseáil",
        -9.771412439307257
      ],
      [
        "isce",
        -9.772349960977497
      ],
      [
        "Londa",
        -9.77293564018961
      ],
      [
        "Airgid",
        -9.773721853079337
      ],
      [
        "brath",
        -9.773744438658387
      ],
      [
        "thóg",
        -9.774338903221519
      ],
      [
        "Cuarda",
        -9.77481574964752
      ],
      [
        "chion",
        -9.775356854202077
      ],
      [
        "dúin",
        -9.777128577402905
      ],
      [
        "coitianta",
        -9.778077284828246
      ],
      [
        "siopa",
        -9.779000135781633
      ],
      [
        "sealadach",
        -9.779033892136441
      ],
      [
        "Dá",
        -9.779040853776037
      ],
      [
        "UM",
        -9.780102031284045
      ],
      [
        "díospóireacht",
        -9.784747788106309
      ],
      [
        "cuntas",
        -9.785027027762332
      ],
      [
        "pictiúir",
        -9.785254869742452
      ],
      [
        "chomhlacht",
        -9.78565320809718
      ],
      [
        "bhain",
        -9.786195229109094
      ],
      [
        "measún",
        -9.788418582387152
      ],
      [
        "oifigiú",
        -9.789191428045632
      ],
      [
        "cóir",
        -9.789423373256
      ],
      [
        "táill",
        -9.791806910422316
      ],
      [
        "stíl",
        -9.79189081981388
      ],
      [
        "dong",
        -9.791939883298433
      ],
      [
        "Bainistíocht",
        -9.794000872240435
      ],
      [
        "mórdhíol",
        -9.794558397200179
      ],
      [
        "bhliantú",
        -9.795152131801244
      ],
      [
        "taifead",
        -9.79586641755333
      ],
      [
        "ment",
        -9.797158318104755
      ],
      [
        "ái",
        -9.797995962785635
      ],
      [
        "ollaig",
        -9.798008652532154
      ],
      [
        "tuismitheoir",
        -9.79998768425284
      ],
      [
        "tabharfa",
        -9.80038662231956
      ],
      [
        "Fómh",
        -9.802286960532015
      ],
      [
        "Tuirc",
        -9.802698934154158
      ],
      [
        "glas",
        -9.803198535171191
      ],
      [
        "oiread",
        -9.806171786421988
      ],
      [
        "bhearta",
        -9.806181583881465
      ],
      [
        "mhaithe",
        -9.806713834932783
      ],
      [
        "brabú",
        -9.806747429348015
      ],
      [
        "Chuir",
        -9.807206035838938
      ],
      [
        "íre",
        -9.81053525581163
      ],
      [
        "dom",
        -9.810590881925354
      ],
      [
        "asbhaint",
        -9.812120667553998
      ],
      [
        "gairdín",
        -9.812688223511067
      ],
      [
        "Naisc",
        -9.812913246793471
      ],
      [
        "Scoil",
        -9.814032929341597
      ],
      [
        "freagra",
        -9.814131775068532
      ],
      [
        "íomhá",
        -9.81417676656839
      ],
      [
        "Síochá",
        -9.814335805268222
      ],
      [
        "luaidhte",
        -9.814698367068534
      ],
      [
        "iontaobha",
        -9.816683044073445
      ],
      [
        "fadhb",
        -9.818431625289453
      ],
      [
        "Gnótha",
        -9.818947890545752
      ],
      [
        "soláthraí",
        -9.819174114410188
      ],
      [
        "imscrúdú",
        -9.820592789345218
      ],
      [
        "soláthair",
        -9.820609583680007
      ],
      [
        "Dlí",
        -9.823001063360485
      ],
      [
        "scor",
        -9.82743746655715
      ],
      [
        "chaiteacha",
        -9.827938592816729
      ],
      [
        "múinteoir",
        -9.828527830182976
      ],
      [
        "Bh",
        -9.828570690546035
      ],
      [
        "cáilithe",
        -9.829352141048386
      ],
      [
        "milliú",
        -9.83005610718876
      ],
      [
        "ionadaí",
        -9.830913005701431
      ],
      [
        "cuma",
        -9.832214269535415
      ],
      [
        "éirí",
        -9.832844995316261
      ],
      [
        "óga",
        -9.833732610490244
      ],
      [
        "fostaí",
        -9.835971234662816
      ],
      [
        "déag",
        -9.83851626254059
      ],
      [
        "aithint",
        -9.838646167303843
      ],
      [
        "Chomhphoba",
        -9.838697656812911
      ],
      [
        "Chuideachta",
        -9.83893408687895
      ],
      [
        "speic",
        -9.839593637195101
      ],
      [
        "ghinearálta",
        -9.839984451814345
      ],
      [
        "tháirgeadh",
        -9.840029422065918
      ],
      [
        "Éisteachta",
        -9.841089075750627
      ],
      [
        "ghrúpa",
        -9.841391193201183
      ],
      [
        "bheala",
        -9.841679706108984
      ],
      [
        "34",
        -9.842620569176711
      ],
      [
        "Féadf",
        -9.843009404826514
      ],
      [
        "bhreis",
        -9.84424455143688
      ],
      [
        "fada",
        -9.844258499244543
      ],
      [
        "ileanna",
        -9.846485098108998
      ],
      [
        "tóir",
        -9.84668102672915
      ],
      [
        "ruithe",
        -9.846748237377724
      ],
      [
        "árú",
        -9.847489101665321
      ],
      [
        "oidh",
        -9.847664159514995
      ],
      [
        "cumhachta",
        -9.848279489661643
      ],
      [
        "Ciste",
        -9.848652952366862
      ],
      [
        "sheol",
        -9.849506600163421
      ],
      [
        "Banc",
        -9.849779218163466
      ],
      [
        "monarcha",
        -9.850276409038788
      ],
      [
        "dualgais",
        -9.851798449613423
      ],
      [
        "cuairt",
        -9.852126572822243
      ],
      [
        "stáisiú",
        -9.852268892361508
      ],
      [
        "cúna",
        -9.852354799424596
      ],
      [
        "eacnamaíoch",
        -9.852736466556863
      ],
      [
        "leictreach",
        -9.853518912243057
      ],
      [
        "Poiblí",
        -9.855185648146843
      ],
      [
        "mo",
        -9.856159360087116
      ],
      [
        "ainmh",
        -9.856244905008563
      ],
      [
        "Ionc",
        -9.859628797830423
      ],
      [
        "Trí",
        -9.860728087536991
      ],
      [
        "X",
        -9.8619412458715
      ],
      [
        "deir",
        -9.86310094682861
      ],
      [
        "com",
        -9.863580485070113
      ],
      [
        "réamh",
        -9.864114696232054
      ],
      [
        "Talmhan",
        -9.864121091034178
      ],
      [
        "sóisial",
        -9.864135982626621
      ],
      [
        "cúpl",
        -9.86427746170015
      ],
      [
        "dhliteana",
        -9.864555404105484
      ],
      [
        "phobal",
        -9.86470914809265
      ],
      [
        "Gharda",
        -9.864902899714751
      ],
      [
        "plaisteach",
        -9.865004369160765
      ],
      [
        "oíche",
        -9.865053221432984
      ],
      [
        "conartha",
        -9.865597040250957
      ],
      [
        "ha",
        -9.865629714853155
      ],
      [
        "achomair",
        -9.866664374269057
      ],
      [
        "brú",
        -9.869254744481406
      ],
      [
        "ionstraimí",
        -9.869725685298306
      ],
      [
        "thógá",
        -9.870634644764193
      ],
      [
        "siar",
        -9.871104211737649
      ],
      [
        "lach",
        -9.871741814333209
      ],
      [
        "aghad",
        -9.873512014047833
      ],
      [
        "500",
        -9.8740608236803
      ],
      [
        "Ghaeilge",
        -9.874104594976256
      ],
      [
        "dheimhniú",
        -9.874163419961626
      ],
      [
        "líonra",
        -9.875838920660847
      ],
      [
        "istí",
        -9.876310389017362
      ],
      [
        "dócha",
        -9.876687119487752
      ],
      [
        "ity",
        -9.878187455120583
      ],
      [
        "faireachá",
        -9.878595459582982
      ],
      [
        "imeacht",
        -9.878938948359403
      ],
      [
        "dlífea",
        -9.879030902142235
      ],
      [
        "foirn",
        -9.88107331886631
      ],
      [
        "éimse",
        -9.881240935706789
      ],
      [
        "teoranta",
        -9.884855004463148
      ],
      [
        "fostóir",
        -9.88519569754784
      ],
      [
        "thuas",
        -9.885735755674421
      ],
      [
        "tithíocht",
        -9.885774524583429
      ],
      [
        "chóireáil",
        -9.886352575499409
      ],
      [
        "roghanna",
        -9.88791691800761
      ],
      [
        "fhoilsi",
        -9.888188470493741
      ],
      [
        "Córa",
        -9.890909325905284
      ],
      [
        "thoil",
        -9.891143906378623
      ],
      [
        "Oideacha",
        -9.891393717768036
      ],
      [
        "modhann",
        -9.892049161605211
      ],
      [
        "gcuirfea",
        -9.892157131444698
      ],
      [
        "Eora",
        -9.89377517492183
      ],
      [
        "IN",
        -9.894208093283737
      ],
      [
        "Dara",
        -9.895866855952052
      ],
      [
        "chomhlachta",
        -9.896155444469871
      ],
      [
        "land",
        -9.89693511325519
      ],
      [
        "cumas",
        -9.89730610739654
      ],
      [
        "seachtrach",
        -9.897650476829934
      ],
      [
        "Sóisial",
        -9.899082028413844
      ],
      [
        "íreanna",
        -9.89971132693153
      ],
      [
        "cheangla",
        -9.90006254938119
      ],
      [
        "aim",
        -9.901123397683396
      ],
      [
        "Coinbhinsiú",
        -9.90139087385376
      ],
      [
        "tiocfaid",
        -9.901425504400486
      ],
      [
        "mheasúnachta",
        -9.902966987226389
      ],
      [
        "crua",
        -9.902972036087547
      ],
      [
        "oibrithe",
        -9.90300838031848
      ],
      [
        "shuíomh",
        -9.903226749206357
      ],
      [
        "Cruach",
        -9.904117292999128
      ],
      [
        "chuirea",
        -9.90458412923359
      ],
      [
        "leithéid",
        -9.904876639319045
      ],
      [
        "trína",
        -9.905384345195426
      ],
      [
        "shealbh",
        -9.90580309601349
      ],
      [
        "chleachta",
        -9.906680376972776
      ],
      [
        "cionta",
        -9.90675567252137
      ],
      [
        "Dáta",
        -9.906861827196124
      ],
      [
        "shláint",
        -9.907166114415798
      ],
      [
        "Idirnáisiún",
        -9.908985906643496
      ],
      [
        "iniúcha",
        -9.909718322463256
      ],
      [
        "cinntí",
        -9.910460854154255
      ],
      [
        "inneall",
        -9.911015319126415
      ],
      [
        "EORPA",
        -9.911464211241363
      ],
      [
        "tuairisceá",
        -9.911723096423469
      ],
      [
        "chomhairle",
        -9.91182706001267
      ],
      [
        "#",
        -9.912022468004356
      ],
      [
        "cheannas",
        -9.912367862929948
      ],
      [
        "himeachta",
        -9.912754816573575
      ],
      [
        "Bain",
        -9.912802318935473
      ],
      [
        "stair",
        -9.913883190315538
      ],
      [
        "chui",
        -9.91473556702945
      ],
      [
        "bhf",
        -9.91644198113621
      ],
      [
        "ceadúnais",
        -9.917023526349606
      ],
      [
        "39",
        -9.917267333020686
      ],
      [
        "Oideachas",
        -9.918238037561995
      ],
      [
        "tairbhe",
        -9.918282478299774
      ],
      [
        "phoba",
        -9.918605288971689
      ],
      [
        "bPríomh",
        -9.918659224872755
      ],
      [
        "oibreoir",
        -9.919331083714015
      ],
      [
        "tabharfaid",
        -9.9208669284583
      ],
      [
        "déanmha",
        -9.921686673682071
      ],
      [
        "neart",
        -9.922191102639635
      ],
      [
        "Scéim",
        -9.922336213345137
      ],
      [
        "oiliúna",
        -9.922497175696135
      ],
      [
        "Sraith",
        -9.923388834683099
      ],
      [
        "gceart",
        -9.925149050679565
      ],
      [
        "suntasach",
        -9.925481434732738
      ],
      [
        "agartha",
        -9.925631402417148
      ],
      [
        "gloin",
        -9.928745574132604
      ],
      [
        "maid",
        -9.92899271304641
      ],
      [
        "chruinni",
        -9.929091860671203
      ],
      [
        "Na",
        -9.929415862562418
      ],
      [
        "oireann",
        -9.929813855774682
      ],
      [
        "agtha",
        -9.930658814218106
      ],
      [
        "cheanta",
        -9.931024436607082
      ],
      [
        "éagsúlacht",
        -9.931511404319
      ],
      [
        "•",
        -9.931535127437058
      ],
      [
        "gléas",
        -9.931781239963616
      ],
      [
        "réigiúnach",
        -9.932017055274667
      ],
      [
        "Hot",
        -9.932204901448575
      ],
      [
        "dromchla",
        -9.932637324119227
      ],
      [
        "crité",
        -9.933175875073282
      ],
      [
        "sábháilte",
        -9.934053210026857
      ],
      [
        "Plean",
        -9.935129138148547
      ],
      [
        "aoi",
        -9.93551039079296
      ],
      [
        "chinnf",
        -9.935590629993058
      ],
      [
        "ham",
        -9.936039331007994
      ],
      [
        "míle",
        -9.937263651547633
      ],
      [
        "déileáil",
        -9.937754159140791
      ],
      [
        "chóra",
        -9.939023245800117
      ],
      [
        "ceapad",
        -9.94112539552712
      ],
      [
        "cúirte",
        -9.941292895027505
      ],
      [
        "diúité",
        -9.942296539926172
      ],
      [
        "eal",
        -9.94323231564667
      ],
      [
        "Load",
        -9.944103052448671
      ],
      [
        "thalamh",
        -9.944388560182695
      ],
      [
        "éanann",
        -9.944737361097479
      ],
      [
        "caighdeáin",
        -9.945702571351646
      ],
      [
        "heannta",
        -9.946424696166414
      ],
      [
        "grianghra",
        -9.946897284108566
      ],
      [
        "gnócha",
        -9.947127866340704
      ],
      [
        "Commit",
        -9.947767742622425
      ],
      [
        "Fear",
        -9.948285886737967
      ],
      [
        "cumarsáid",
        -9.948477465811667
      ],
      [
        "soláthróir",
        -9.948566000228887
      ],
      [
        "meán",
        -9.950009387846514
      ],
      [
        "scála",
        -9.950461081495142
      ],
      [
        "tv",
        -9.9515966326347
      ],
      [
        "gCúirt",
        -9.95188752645748
      ],
      [
        "athaoirleach",
        -9.95203354370027
      ],
      [
        "ionadaithe",
        -9.95216123585443
      ],
      [
        "dhéan",
        -9.952167159486063
      ],
      [
        "éimeanna",
        -9.952821211853099
      ],
      [
        "tástáil",
        -9.953337863231676
      ],
      [
        "teocht",
        -9.953461650421904
      ],
      [
        "fhág",
        -9.95414367875128
      ],
      [
        "dhearbh",
        -9.954327401702812
      ],
      [
        "Uisce",
        -9.95445174709457
      ],
      [
        "chó",
        -9.95478353726553
      ],
      [
        "lei",
        -9.95529313770913
      ],
      [
        "luas",
        -9.955454809690773
      ],
      [
        "únaer",
        -9.955499012426046
      ],
      [
        "ex",
        -9.959065836756915
      ],
      [
        "thiocfa",
        -9.959508061986464
      ],
      [
        "caiteachais",
        -9.96135780871861
      ],
      [
        "sheirbheáil",
        -9.962061707128136
      ],
      [
        "chean",
        -9.962395001168762
      ],
      [
        "cuntasaíocht",
        -9.96278801221029
      ],
      [
        "tuiscint",
        -9.963725467755395
      ],
      [
        "réigiún",
        -9.964055113698649
      ],
      [
        "ardchaighdeá",
        -9.96618402098405
      ],
      [
        "gluaiseacht",
        -9.966758939650378
      ],
      [
        "leathn",
        -9.966937782341532
      ],
      [
        "BliainDaon",
        -9.967035288029255
      ],
      [
        "diúlt",
        -9.968267889814133
      ],
      [
        "irí",
        -9.968607415558758
      ],
      [
        "Cuirf",
        -9.969093558382745
      ],
      [
        "traidisiún",
        -9.96965194203184
      ],
      [
        "chláir",
        -9.969835479862272
      ],
      [
        "chuirfid",
        -9.97071056582558
      ],
      [
        "Coda",
        -9.970780856643108
      ],
      [
        "00",
        -9.971446681689269
      ],
      [
        "spás",
        -9.971693565523704
      ],
      [
        "70",
        -9.972085069651065
      ],
      [
        "sc",
        -9.9728068400032
      ],
      [
        "urrús",
        -9.972852818384986
      ],
      [
        "príobháideach",
        -9.975880531095008
      ],
      [
        "bhord",
        -9.976577719446858
      ],
      [
        "leasuithe",
        -9.977780184798938
      ],
      [
        "Hel",
        -9.97865098952913
      ],
      [
        "uathoibríoch",
        -9.978919896149769
      ],
      [
        "leordhóthanach",
        -9.97901185256893
      ],
      [
        "Dia",
        -9.97909383830839
      ],
      [
        "ngairm",
        -9.980542230553315
      ],
      [
        "chuirfea",
        -9.980941926068187
      ],
      [
        "iceáil",
        -9.981483673832397
      ],
      [
        "ghearr",
        -9.981757245723932
      ],
      [
        "Príomh",
        -9.982342905952029
      ],
      [
        "tiomána",
        -9.982385386210112
      ],
      [
        "Porno",
        -9.982628893043575
      ],
      [
        "taifid",
        -9.985223610079506
      ],
      [
        "Screen",
        -9.985223725686335
      ],
      [
        "tseirbhís",
        -9.985680985849818
      ],
      [
        "suite",
        -9.985810313923963
      ],
      [
        "bhainfid",
        -9.986178191595446
      ],
      [
        "taispeáint",
        -9.986431437604686
      ],
      [
        "comhionann",
        -9.988117631946688
      ],
      [
        "Gaeltachta",
        -9.990091360331366
      ],
      [
        "ghlac",
        -9.99014485272484
      ],
      [
        "áirgeadh",
        -9.9905168181851
      ],
      [
        "tréimhs",
        -9.991049833694646
      ],
      [
        "mhargadh",
        -9.99152381009186
      ],
      [
        "gadh",
        -9.99308942743216
      ],
      [
        "chánach",
        -9.993411065315033
      ],
      [
        "bunúsach",
        -9.994369053995966
      ],
      [
        "stóráil",
        -9.995424642796483
      ],
      [
        "ce",
        -9.996510130618235
      ],
      [
        "ean",
        -9.996729867413926
      ],
      [
        "EU",
        -9.9970431479958
      ],
      [
        "tor",
        -9.997088922629054
      ],
      [
        "pinsin",
        -9.997874705688586
      ],
      [
        "fhomhír",
        -9.998053138244858
      ],
      [
        "gcuir",
        -9.999429131582914
      ],
      [
        "leigheas",
        -9.999453748747268
      ],
      [
        "ail",
        -9.99965418143637
      ],
      [
        "struchtúr",
        -10.000297935923111
      ],
      [
        "Institiúid",
        -10.000640762775294
      ],
      [
        "díolúin",
        -10.002035668386934
      ],
      [
        "Split",
        -10.003696798272859
      ],
      [
        "mbun",
        -10.003785165689056
      ],
      [
        "chead",
        -10.003884970627192
      ],
      [
        "téacs",
        -10.004470257023979
      ],
      [
        "38",
        -10.004999576108148
      ],
      [
        "gcuirf",
        -10.00505731174009
      ],
      [
        "fuinni",
        -10.00593222020787
      ],
      [
        "táscair",
        -10.006564516757061
      ],
      [
        "Cuirfi",
        -10.007080316370995
      ],
      [
        "difriú",
        -10.007220498230616
      ],
      [
        "fhorál",
        -10.007327571197232
      ],
      [
        "smaoin",
        -10.009453846844593
      ],
      [
        "comhshao",
        -10.010241802201593
      ],
      [
        "buan",
        -10.010518479844404
      ],
      [
        "sean",
        -10.011175796643325
      ],
      [
        "eacair",
        -10.011583216818938
      ],
      [
        "aice",
        -10.011625216942303
      ],
      [
        "bpoint",
        -10.01293909647108
      ],
      [
        "ua",
        -10.013410763802685
      ],
      [
        "Ansin",
        -10.014634105438867
      ],
      [
        "teilifíse",
        -10.014831563742568
      ],
      [
        "Saor",
        -10.01505627919083
      ],
      [
        "anta",
        -10.017337964958557
      ],
      [
        "leibhé",
        -10.017340915882953
      ],
      [
        "theicniú",
        -10.01753613016953
      ],
      [
        "ama",
        -10.020203137801525
      ],
      [
        "ráitis",
        -10.021208663057335
      ],
      [
        "AR",
        -10.023156787752436
      ],
      [
        "Stair",
        -10.02440854093017
      ],
      [
        "líomatáist",
        -10.024728985069096
      ],
      [
        "pionós",
        -10.025317204095252
      ],
      [
        "For",
        -10.025831187533228
      ],
      [
        "Speisialt",
        -10.025923528202584
      ],
      [
        "páipéar",
        -10.02699941949054
      ],
      [
        "ceadú",
        -10.02787808287653
      ],
      [
        "saoráid",
        -10.029416748424584
      ],
      [
        "at",
        -10.029561680370934
      ],
      [
        "en",
        -10.030035851856647
      ],
      [
        "Airteaga",
        -10.03165338840605
      ],
      [
        "PH",
        -10.031831264823094
      ],
      [
        "bhreith",
        -10.032132400509596
      ],
      [
        "druga",
        -10.033474331095666
      ],
      [
        "Gan",
        -10.034049574207655
      ],
      [
        "bpost",
        -10.034060083479018
      ],
      [
        "Bosca",
        -10.034283842122889
      ],
      [
        "Barcelon",
        -10.035556407274392
      ],
      [
        "tóg",
        -10.035750698096038
      ],
      [
        "thuillea",
        -10.035970484168931
      ],
      [
        "Allah",
        -10.036423958217778
      ],
      [
        "clip",
        -10.036469721976724
      ],
      [
        "bainisteoir",
        -10.03749833517349
      ],
      [
        "leanúna",
        -10.038208565186146
      ],
      [
        "théarma",
        -10.038221135075528
      ],
      [
        "teaghla",
        -10.038579033638417
      ],
      [
        "maoirseacht",
        -10.03965314013152
      ],
      [
        "inar",
        -10.039733698379793
      ],
      [
        "leictreacha",
        -10.040172767086297
      ],
      [
        "dhiúlt",
        -10.040797732044908
      ],
      [
        "Soláthra",
        -10.041651674625626
      ],
      [
        "ndi",
        -10.041798481298205
      ],
      [
        "réim",
        -10.04212359974116
      ],
      [
        "he",
        -10.042702254414298
      ],
      [
        "len",
        -10.043001318077021
      ],
      [
        "airdín",
        -10.043288470413112
      ],
      [
        "catagóir",
        -10.043314549616749
      ],
      [
        "Fógra",
        -10.043911285697515
      ],
      [
        "Mórdhíol",
        -10.045687343234636
      ],
      [
        "be",
        -10.046836818746474
      ],
      [
        "illiún",
        -10.047311476827538
      ],
      [
        "bunaidh",
        -10.048194938167825
      ],
      [
        "Togra",
        -10.049861199756892
      ],
      [
        "sheachada",
        -10.050604816269093
      ],
      [
        "Z",
        -10.052485474345222
      ],
      [
        "bás",
        -10.052724819862256
      ],
      [
        "Eola",
        -10.05346664652801
      ],
      [
        "shonró",
        -10.054095814392355
      ],
      [
        "phointe",
        -10.054621159839641
      ],
      [
        "baol",
        -10.055266958890021
      ],
      [
        "dt",
        -10.0556177936924
      ],
      [
        "shonr",
        -10.05563607295828
      ],
      [
        "ne",
        -10.05632926171089
      ],
      [
        "chláraithe",
        -10.056533564142093
      ],
      [
        "feithicl",
        -10.057891427760406
      ],
      [
        "thairiscint",
        -10.058079576202653
      ],
      [
        "ordóid",
        -10.058736402327884
      ],
      [
        "bhainisti",
        -10.060350816223345
      ],
      [
        "shonra",
        -10.060518532409183
      ],
      [
        "feabhas",
        -10.06100226252596
      ],
      [
        "seasamh",
        -10.061808092501604
      ],
      [
        "Iompai",
        -10.061820715555365
      ],
      [
        "nochta",
        -10.061937754853137
      ],
      [
        "Déanann",
        -10.06311021643393
      ],
      [
        "lámha",
        -10.063186784746264
      ],
      [
        "saineola",
        -10.063545278696818
      ],
      [
        "ry",
        -10.063848848684604
      ],
      [
        "nmhuirear",
        -10.064144673214175
      ],
      [
        "Th",
        -10.064382670233734
      ],
      [
        "orbartha",
        -10.064637195780467
      ],
      [
        "gcomhar",
        -10.064783803745357
      ],
      [
        "neamhspleách",
        -10.064908663612922
      ],
      [
        "staidéar",
        -10.065868170447056
      ],
      [
        "comparáid",
        -10.066638093485665
      ],
      [
        "agóid",
        -10.067128201372302
      ],
      [
        "46",
        -10.067212477262114
      ],
      [
        "rianchlo",
        -10.06817929501707
      ],
      [
        "sreang",
        -10.068832621677313
      ],
      [
        "shár",
        -10.069565608435832
      ],
      [
        "thor",
        -10.069810644737037
      ],
      [
        "Be",
        -10.06993877840684
      ],
      [
        "phríomh",
        -10.070058740787443
      ],
      [
        "Dúi",
        -10.071096071283076
      ],
      [
        "údara",
        -10.071521401327065
      ],
      [
        "ile",
        -10.073689908567212
      ],
      [
        "iomláin",
        -10.074389197586955
      ],
      [
        "dréacht",
        -10.075481069342292
      ],
      [
        "lacha",
        -10.076892636565184
      ],
      [
        "chiste",
        -10.078407711316302
      ],
      [
        "aerártha",
        -10.078770552812955
      ],
      [
        "zh",
        -10.078783216226409
      ],
      [
        "comha",
        -10.080111889631816
      ],
      [
        "Monaróir",
        -10.080504291908342
      ],
      [
        "bréagach",
        -10.080542278721655
      ],
      [
        "ollmhór",
        -10.081358281984867
      ],
      [
        "Europ",
        -10.082527606491954
      ],
      [
        "urrú",
        -10.082885339948096
      ],
      [
        "gearr",
        -10.083587924139788
      ],
      [
        "fola",
        -10.083775287205523
      ],
      [
        "olas",
        -10.084027949747403
      ],
      [
        "90",
        -10.08590791051926
      ],
      [
        "cumann",
        -10.086617903130222
      ],
      [
        "dlíns",
        -10.087613682008378
      ],
      [
        "bunú",
        -10.087769780657943
      ],
      [
        "fheidhmeanna",
        -10.088340550488288
      ],
      [
        "gCuideachta",
        -10.088597706295676
      ],
      [
        "gníomha",
        -10.089169647858634
      ],
      [
        "Leis",
        -10.090621002288358
      ],
      [
        "phragha",
        -10.0907792562306
      ],
      [
        "Catagóir",
        -10.09156888585328
      ],
      [
        "tacaíochta",
        -10.092349087317533
      ],
      [
        "samhail",
        -10.092974367804295
      ],
      [
        "todhchaí",
        -10.093546321617243
      ],
      [
        "shábháil",
        -10.09378199466861
      ],
      [
        "Páirt",
        -10.094019110843643
      ],
      [
        "Tabhair",
        -10.09570714509076
      ],
      [
        "ao",
        -10.09587922162224
      ],
      [
        "Ábhar",
        -10.097259159695945
      ],
      [
        "teas",
        -10.098223506211005
      ],
      [
        "chónaithe",
        -10.098788189557194
      ],
      [
        "Airgead",
        -10.100656202780046
      ],
      [
        "Tionsca",
        -10.100990981183294
      ],
      [
        "fuaime",
        -10.101695580684348
      ],
      [
        "Ceannai",
        -10.103634729007302
      ],
      [
        "48",
        -10.107449739584826
      ],
      [
        "Chontae",
        -10.107874701802837
      ],
      [
        "lua",
        -10.108733944712377
      ],
      [
        "bunaío",
        -10.109284774772188
      ],
      [
        "VI",
        -10.109432698881509
      ],
      [
        "snáithe",
        -10.109521576923658
      ],
      [
        "lí",
        -10.110295682732339
      ],
      [
        "chúlghairm",
        -10.11032989096796
      ],
      [
        "gnótha",
        -10.112413641237996
      ],
      [
        "árta",
        -10.112558204570126
      ],
      [
        "iniúchta",
        -10.112837581718548
      ],
      [
        "uigh",
        -10.113900547817687
      ],
      [
        "othar",
        -10.1140333061116
      ],
      [
        "próiseála",
        -10.114866424983934
      ],
      [
        "Next",
        -10.115956991390238
      ],
      [
        "Wat",
        -10.116072545387224
      ],
      [
        "éile",
        -10.117231507913285
      ],
      [
        "shuiteáil",
        -10.117348251591709
      ],
      [
        "75",
        -10.118568970348626
      ],
      [
        "léin",
        -10.118630825895025
      ],
      [
        "ála",
        -10.118646553335068
      ],
      [
        "eolai",
        -10.119967232776325
      ],
      [
        "Theas",
        -10.120220639465877
      ],
      [
        "ghníomhaíochta",
        -10.120542150704024
      ],
      [
        "pe",
        -10.121103630366608
      ],
      [
        "agam",
        -10.122793838756884
      ],
      [
        "ghníomh",
        -10.124248906587285
      ],
      [
        "blia",
        -10.124599815317787
      ],
      [
        "mhéad",
        -10.125479515483526
      ],
      [
        "aonad",
        -10.125741565612078
      ],
      [
        "oibríocht",
        -10.12732848012531
      ],
      [
        "spraoi",
        -10.127930978998094
      ],
      [
        "imthosca",
        -10.128301272852521
      ],
      [
        "ghníomhaíocht",
        -10.128540614410424
      ],
      [
        "Y",
        -10.129327078043698
      ],
      [
        "ualach",
        -10.129763368858967
      ],
      [
        "iarsma",
        -10.130429926149677
      ],
      [
        "Tionscada",
        -10.130443050823233
      ],
      [
        "dheasca",
        -10.13135973986862
      ],
      [
        "grá",
        -10.131426277412727
      ],
      [
        "teicneolaíocht",
        -10.131634563808161
      ],
      [
        "intinn",
        -10.133235806808983
      ],
      [
        "Tuille",
        -10.133425169547523
      ],
      [
        "Tabharfa",
        -10.13431184020088
      ],
      [
        "tirim",
        -10.135511830250977
      ],
      [
        "Samhai",
        -10.135714038078333
      ],
      [
        "eastái",
        -10.136292657438624
      ],
      [
        "Post",
        -10.136443883291818
      ],
      [
        "Ainm",
        -10.136827197763997
      ],
      [
        "iv",
        -10.136850994414747
      ],
      [
        "íolta",
        -10.137795548728267
      ],
      [
        "ARLAIMINT",
        -10.138225033296372
      ],
      [
        "teagmhála",
        -10.139082154886388
      ],
      [
        "ochar",
        -10.139334633024855
      ],
      [
        "Bláth",
        -10.13958996903337
      ],
      [
        "riachtana",
        -10.139684433271054
      ],
      [
        "thógaint",
        -10.140006329243047
      ],
      [
        "Leas",
        -10.140708707439607
      ],
      [
        "coda",
        -10.14074314804823
      ],
      [
        "ibh",
        -10.140804563463345
      ],
      [
        "Leanaí",
        -10.14225577625933
      ],
      [
        "íosta",
        -10.142440989828769
      ],
      [
        "olais",
        -10.14299095078649
      ],
      [
        "tionónta",
        -10.144156131881594
      ],
      [
        "37",
        -10.14424405489914
      ],
      [
        "dhíreach",
        -10.144475079382358
      ],
      [
        "comhai",
        -10.144559549221704
      ],
      [
        "bheart",
        -10.144986414041782
      ],
      [
        "onas",
        -10.146656296146679
      ],
      [
        "choinneá",
        -10.147235506752747
      ],
      [
        "Iris",
        -10.148212664246842
      ],
      [
        "2000",
        -10.148827026433604
      ],
      [
        "fheiceá",
        -10.14959605404328
      ],
      [
        "tháirgí",
        -10.149605772779601
      ],
      [
        "42",
        -10.150725176033403
      ],
      [
        "Choinbhinsiú",
        -10.150998640375626
      ],
      [
        "friotaíocht",
        -10.151089820707078
      ],
      [
        "Fostaíocht",
        -10.15141545095359
      ],
      [
        "taisti",
        -10.15185524149191
      ],
      [
        "ainne",
        -10.152336463643342
      ],
      [
        "héann",
        -10.15373703780362
      ],
      [
        "uaire",
        -10.154870980742444
      ],
      [
        "Pland",
        -10.15531414734341
      ],
      [
        "fhéadfaid",
        -10.155353769233525
      ],
      [
        "gcomhalta",
        -10.1555613923395
      ],
      [
        "titim",
        -10.155671755029086
      ],
      [
        "deireanach",
        -10.156128487146557
      ],
      [
        "bronntana",
        -10.157086247889358
      ],
      [
        "European",
        -10.157890147222343
      ],
      [
        "chuntas",
        -10.157964072223889
      ],
      [
        "Ionad",
        -10.158227018302421
      ],
      [
        "teaghlach",
        -10.158413319741571
      ],
      [
        "cathrach",
        -10.161943241632834
      ],
      [
        "measúnachta",
        -10.16257855710905
      ],
      [
        "Gaillimh",
        -10.163341207905539
      ],
      [
        "Connect",
        -10.163381736010159
      ],
      [
        "raitheann",
        -10.16347907026053
      ],
      [
        "Talmhaíocht",
        -10.163661310857774
      ],
      [
        "Gníomhaireacht",
        -10.163779912069426
      ],
      [
        "chaithea",
        -10.164440442004276
      ],
      [
        "bhail",
        -10.16569419489361
      ],
      [
        "comhréireacht",
        -10.166309513884709
      ],
      [
        "difríocht",
        -10.167221992348246
      ],
      [
        "con",
        -10.168441375097704
      ],
      [
        "tos",
        -10.168755814890643
      ],
      [
        "Níor",
        -10.1699607600769
      ],
      [
        "ceangla",
        -10.170125115818813
      ],
      [
        "fuar",
        -10.170162984063012
      ],
      [
        "ardú",
        -10.17138381326929
      ],
      [
        "maoiniú",
        -10.173237788316737
      ],
      [
        "scoirf",
        -10.17325070090168
      ],
      [
        "mbeart",
        -10.1757761474672
      ],
      [
        "úinéireacht",
        -10.17593089849587
      ],
      [
        "custaiméir",
        -10.176271892107135
      ],
      [
        "cónaí",
        -10.176357435165393
      ],
      [
        "Ire",
        -10.176499064169077
      ],
      [
        "seacht",
        -10.177562442742794
      ],
      [
        "stáit",
        -10.179220346080863
      ],
      [
        "meácha",
        -10.179343912756597
      ],
      [
        "comhlíona",
        -10.179361048795748
      ],
      [
        "nuashonr",
        -10.179593412957209
      ],
      [
        "Imeachta",
        -10.180648062657554
      ],
      [
        "gníomhaíocht",
        -10.181138980045137
      ],
      [
        "Rinne",
        -10.181298728723952
      ],
      [
        "ite",
        -10.182520370501097
      ],
      [
        "praghs",
        -10.183414371609931
      ],
      [
        "branda",
        -10.183451960539392
      ],
      [
        "bhreithniú",
        -10.185395604598959
      ],
      [
        "gceann",
        -10.185456878852476
      ],
      [
        "foirgn",
        -10.186198331226313
      ],
      [
        "breis",
        -10.186760667076038
      ],
      [
        "oist",
        -10.188097888341574
      ],
      [
        "dheirea",
        -10.188424983980592
      ],
      [
        "foirfe",
        -10.18860022188444
      ],
      [
        "tromchúiseach",
        -10.19024004745062
      ],
      [
        "shan",
        -10.191219548147155
      ],
      [
        "Fac",
        -10.191509225513474
      ],
      [
        "Cuideachta",
        -10.191510106222406
      ],
      [
        "oir",
        -10.191872162444664
      ],
      [
        "Faisnéise",
        -10.1923355035513
      ],
      [
        "wash",
        -10.192776252060774
      ],
      [
        "pháirtí",
        -10.193777870800993
      ],
      [
        "toghachá",
        -10.194058334488627
      ],
      [
        "ascach",
        -10.194095774411817
      ],
      [
        "orainn",
        -10.195152245825003
      ],
      [
        "choinne",
        -10.196432580033388
      ],
      [
        "bhall",
        -10.19664957198696
      ],
      [
        "Éireannach",
        -10.197124803329917
      ],
      [
        "stoic",
        -10.197856241042317
      ],
      [
        "éadaí",
        -10.197992624162767
      ],
      [
        "dúrad",
        -10.199037590046718
      ],
      [
        "oirceannadh",
        -10.19975890539812
      ],
      [
        "dualga",
        -10.200380825593697
      ],
      [
        "Monarcha",
        -10.200403239642114
      ],
      [
        "teaghais",
        -10.200611859065475
      ],
      [
        "dhéag",
        -10.200924835619865
      ],
      [
        "tarraingt",
        -10.201131746893363
      ],
      [
        "riail",
        -10.20156661462235
      ],
      [
        "phearsanta",
        -10.202141385273258
      ],
      [
        "triail",
        -10.202407016354718
      ],
      [
        "CDD",
        -10.203172500028458
      ],
      [
        "mórdhíoltóir",
        -10.203293485967887
      ],
      [
        "anailís",
        -10.203903648417255
      ],
      [
        "chaoi",
        -10.204188907095865
      ],
      [
        "athnuachan",
        -10.205164946496083
      ],
      [
        "níomhú",
        -10.20552595899439
      ],
      [
        "ill",
        -10.20640160214478
      ],
      [
        "gcuntas",
        -10.208586647941999
      ],
      [
        "cathaoirleach",
        -10.211421519544553
      ],
      [
        "scriosa",
        -10.211427820626678
      ],
      [
        "án",
        -10.211711218623934
      ],
      [
        "Gníomhaíochta",
        -10.212456296994109
      ],
      [
        "comharthaí",
        -10.212637423217213
      ],
      [
        "othabháil",
        -10.213045610436474
      ],
      [
        "taitneamh",
        -10.213806174593541
      ],
      [
        "er",
        -10.214146442960697
      ],
      [
        "Ilghnéitheach",
        -10.214350754973655
      ],
      [
        "Cumarsáid",
        -10.214505955810315
      ],
      [
        "áititheoir",
        -10.214736672514817
      ],
      [
        "fach",
        -10.215093877815587
      ],
      [
        "cóireáil",
        -10.215613036764346
      ],
      [
        "ainmneach",
        -10.216362483209613
      ],
      [
        "éascú",
        -10.216889208374816
      ],
      [
        "suí",
        -10.217433966349756
      ],
      [
        "roinn",
        -10.217693560053808
      ],
      [
        "srianta",
        -10.218881189627101
      ],
      [
        "léiríonn",
        -10.219147004073902
      ],
      [
        "ghearra",
        -10.220377028119234
      ],
      [
        "nglacfa",
        -10.220650322985563
      ],
      [
        "ru",
        -10.221282966046651
      ],
      [
        "paisinéir",
        -10.222295132028595
      ],
      [
        "65",
        -10.222376653419598
      ],
      [
        "ainmniúchá",
        -10.223484235910636
      ],
      [
        "éiríonn",
        -10.223905782061879
      ],
      [
        "amhras",
        -10.224215933872053
      ],
      [
        "sua",
        -10.224749002002714
      ],
      [
        "dear",
        -10.225620701842285
      ],
      [
        "ceanta",
        -10.226380108933267
      ],
      [
        "inbh",
        -10.226743546630221
      ],
      [
        "Chearta",
        -10.226901918084277
      ],
      [
        "Mór",
        -10.22708752130167
      ],
      [
        "cigire",
        -10.227196823641755
      ],
      [
        "críochnaithe",
        -10.227585143227362
      ],
      [
        "Cathrach",
        -10.227961689639654
      ],
      [
        "mhuirear",
        -10.228091344798077
      ],
      [
        "threoir",
        -10.229374542196465
      ],
      [
        "eagraíochta",
        -10.230333781852678
      ],
      [
        "réigiú",
        -10.23056353272672
      ],
      [
        "incháilithe",
        -10.232579184982034
      ],
      [
        "roichead",
        -10.23401757354302
      ],
      [
        "ásann",
        -10.234148507285505
      ],
      [
        "aghas",
        -10.234961466953836
      ],
      [
        "uairean",
        -10.23679300878931
      ],
      [
        "Euro",
        -10.237379170975931
      ],
      [
        "sibhialta",
        -10.238133126734299
      ],
      [
        "liti",
        -10.238172996859351
      ],
      [
        "gorm",
        -10.238521436527298
      ],
      [
        "vóta",
        -10.23867023194991
      ],
      [
        "chinn",
        -10.238944525602367
      ],
      [
        "dhlí",
        -10.238974771209847
      ],
      [
        "réit",
        -10.239529262908647
      ],
      [
        "blas",
        -10.239970139093115
      ],
      [
        "tiúil",
        -10.240179933014433
      ],
      [
        "Outlook",
        -10.240801085466124
      ],
      [
        "leanála",
        -10.24088774793113
      ],
      [
        "mhaolú",
        -10.241391788677728
      ],
      [
        "Gairdín",
        -10.241437028469555
      ],
      [
        "fiosrúchá",
        -10.241469727280613
      ],
      [
        "iontaofa",
        -10.241479708424265
      ],
      [
        "digiteach",
        -10.242363080494819
      ],
      [
        "cleachta",
        -10.243639132389223
      ],
      [
        "tomhaltóir",
        -10.243722781902711
      ],
      [
        "Úsáid",
        -10.244212714874005
      ],
      [
        "fhostaí",
        -10.244729467232332
      ],
      [
        "lárnach",
        -10.245362728298849
      ],
      [
        "gcomhlacht",
        -10.246642253676672
      ],
      [
        "49",
        -10.246648330979204
      ],
      [
        "j",
        -10.246888017980597
      ],
      [
        "cónaithe",
        -10.247088829367263
      ],
      [
        "re",
        -10.24729786269485
      ],
      [
        "iste",
        -10.248423428859233
      ],
      [
        "shóisial",
        -10.248839066205717
      ],
      [
        "deontais",
        -10.249923336295861
      ],
      [
        "buntáist",
        -10.250781002291761
      ],
      [
        "bonn",
        -10.251811008638214
      ],
      [
        "lea",
        -10.252230863088222
      ],
      [
        "Seirbhíse",
        -10.252405206765209
      ],
      [
        "fhorléir",
        -10.252430045405214
      ],
      [
        "tógála",
        -10.25270634418101
      ],
      [
        "eol",
        -10.254164472056281
      ],
      [
        "ea",
        -10.254663747579079
      ],
      [
        "Comhaont",
        -10.255457788151675
      ],
      [
        "méada",
        -10.255717131086206
      ],
      [
        "mheasúnú",
        -10.256041879546654
      ],
      [
        "dtiocfa",
        -10.258164695362355
      ],
      [
        "rialaitheoir",
        -10.258171414377667
      ],
      [
        "Ealaíon",
        -10.258508452306675
      ],
      [
        "eitilt",
        -10.258859926979603
      ],
      [
        "toghchán",
        -10.259106915875806
      ],
      [
        "Tuarascá",
        -10.260227144606844
      ],
      [
        "diúscairt",
        -10.260288376107258
      ],
      [
        "iniúchóir",
        -10.260380498535351
      ],
      [
        "stáda",
        -10.260950126991947
      ],
      [
        "choinníollach",
        -10.261236614450688
      ],
      [
        "comhairliúchá",
        -10.261752462023512
      ],
      [
        "comhpháirt",
        -10.262841739902383
      ],
      [
        "creat",
        -10.263444546555254
      ],
      [
        "Iosta",
        -10.263634656087198
      ],
      [
        "fhor",
        -10.26366771481544
      ],
      [
        "55",
        -10.263832498398052
      ],
      [
        "oiliúi",
        -10.264339478435296
      ],
      [
        "cábla",
        -10.265026385203832
      ],
      [
        "st",
        -10.265424662269623
      ],
      [
        "cultúr",
        -10.265984647970864
      ],
      [
        "É",
        -10.266527922102018
      ],
      [
        "aibí",
        -10.26690950004145
      ],
      [
        "mheán",
        -10.267087363859202
      ],
      [
        "Cuirtea",
        -10.267581588451606
      ],
      [
        "iarr",
        -10.26846219505721
      ],
      [
        "cail",
        -10.270075112697413
      ],
      [
        "hábhair",
        -10.270312647898255
      ],
      [
        "ph",
        -10.270907839576445
      ],
      [
        "bheal",
        -10.270998154346628
      ],
      [
        "mBan",
        -10.271183944063548
      ],
      [
        "IS",
        -10.271442284064317
      ],
      [
        "thosa",
        -10.271754576759557
      ],
      [
        "gníomhach",
        -10.273308689587607
      ],
      [
        "ról",
        -10.274164898523097
      ],
      [
        "satailít",
        -10.274681191742769
      ],
      [
        "Ráta",
        -10.276079523817472
      ],
      [
        "Cineál",
        -10.277085672209088
      ],
      [
        "comhar",
        -10.277426652213347
      ],
      [
        "beatha",
        -10.278764534939434
      ],
      [
        "lámh",
        -10.2791325300773
      ],
      [
        "Lún",
        -10.279155662667064
      ],
      [
        "úis",
        -10.279529204913981
      ],
      [
        "míniú",
        -10.279735760578617
      ],
      [
        "áis",
        -10.279741972175659
      ],
      [
        "híocaíochta",
        -10.280837145487446
      ],
      [
        "iontaobhais",
        -10.281369880005574
      ],
      [
        "IL",
        -10.281499657787373
      ],
      [
        "éigeandála",
        -10.282127542174717
      ],
      [
        "pháipéir",
        -10.283036928796355
      ],
      [
        "dhíon",
        -10.283147876061864
      ],
      [
        "iasachtaí",
        -10.283699004372394
      ],
      [
        "dtreo",
        -10.284316344113932
      ],
      [
        "fhad",
        -10.284581123853386
      ],
      [
        "thuiscint",
        -10.285100278007043
      ],
      [
        "gruaig",
        -10.285339692150268
      ],
      [
        "áireofa",
        -10.285370863571913
      ],
      [
        "taisteal",
        -10.285377930104389
      ],
      [
        "oibrí",
        -10.285382212850891
      ],
      [
        "phinsin",
        -10.286643439106516
      ],
      [
        "sheachtain",
        -10.287257965759446
      ],
      [
        "gléasra",
        -10.28742007093009
      ],
      [
        "2002",
        -10.287790853046491
      ],
      [
        "osú",
        -10.288865987659932
      ],
      [
        "treoirlín",
        -10.28904274080616
      ],
      [
        "ínte",
        -10.290421063757247
      ],
      [
        "infheistíocht",
        -10.29100128444557
      ],
      [
        "eithicil",
        -10.292079631078295
      ],
      [
        "aptha",
        -10.29218402360937
      ],
      [
        "min",
        -10.292921106461476
      ],
      [
        "lactha",
        -10.294661301002797
      ],
      [
        "ocal",
        -10.29505957209839
      ],
      [
        "ordachá",
        -10.295074962605293
      ],
      [
        "fostaíocht",
        -10.29558382074223
      ],
      [
        "hong",
        -10.295877431989638
      ],
      [
        "DHÉAN",
        -10.29598103000933
      ],
      [
        "crann",
        -10.29599296514751
      ],
      [
        "dhó",
        -10.296108410749163
      ],
      [
        "fhadhb",
        -10.29618279175168
      ],
      [
        "Forbairt",
        -10.296720006934454
      ],
      [
        "mhíniú",
        -10.297045598431195
      ],
      [
        "breithiúna",
        -10.297651504297274
      ],
      [
        "iúcháin",
        -10.298156688127557
      ],
      [
        "suimean",
        -10.29829805249258
      ],
      [
        "Local",
        -10.298336436121458
      ],
      [
        "faighte",
        -10.298731109594591
      ],
      [
        "chigire",
        -10.299049664886272
      ],
      [
        "2003",
        -10.299482823992125
      ],
      [
        "timpeall",
        -10.299518589380364
      ],
      [
        "rolla",
        -10.299653450140017
      ],
      [
        "fionraí",
        -10.300158346465649
      ],
      [
        "aigheann",
        -10.300295916262186
      ],
      [
        "labhairt",
        -10.302230094304107
      ],
      [
        "díls",
        -10.302918650196519
      ],
      [
        "Ceann",
        -10.302946017396625
      ],
      [
        "chluich",
        -10.306009418121278
      ],
      [
        "turas",
        -10.30730354250828
      ],
      [
        "rang",
        -10.308175474911959
      ],
      [
        "aith",
        -10.308295232684584
      ],
      [
        "Már",
        -10.31031856961712
      ],
      [
        "dhochtúir",
        -10.311728221860257
      ],
      [
        "chostas",
        -10.312398872809581
      ],
      [
        "fhás",
        -10.313229381760571
      ],
      [
        "scanná",
        -10.314076063761693
      ],
      [
        "croí",
        -10.314223386408008
      ],
      [
        "aimsire",
        -10.314281296090094
      ],
      [
        "táirgthe",
        -10.314530651285182
      ],
      [
        "shaol",
        -10.315214528287223
      ],
      [
        "Cumhacht",
        -10.315633654978086
      ],
      [
        "fost",
        -10.31572610489101
      ],
      [
        "Taispeáin",
        -10.315964842366448
      ],
      [
        "bainisti",
        -10.316292749072561
      ],
      [
        "híoc",
        -10.317960952949516
      ],
      [
        "beo",
        -10.318151917643146
      ],
      [
        "oibríochtú",
        -10.318223382378845
      ],
      [
        "tosaíochta",
        -10.319684919527555
      ],
      [
        "ip",
        -10.320300280318003
      ],
      [
        "conra",
        -10.320825425353373
      ],
      [
        "cúrsaí",
        -10.321135946441533
      ],
      [
        "deire",
        -10.321151019429939
      ],
      [
        "deirid",
        -10.323409097852
      ],
      [
        "Nuacht",
        -10.32373181270624
      ],
      [
        "Gluaiseacht",
        -10.324960255894656
      ],
      [
        "gcóir",
        -10.325765842510926
      ],
      [
        "thuairim",
        -10.325776170607398
      ],
      [
        "chorp",
        -10.325866129892987
      ],
      [
        "meas",
        -10.32621349453138
      ],
      [
        "gcomhlíon",
        -10.326458024380514
      ],
      [
        "pacáist",
        -10.326690691959453
      ],
      [
        "athúil",
        -10.327014470201332
      ],
      [
        "chonra",
        -10.327792186126427
      ],
      [
        "Foirm",
        -10.328448041755673
      ],
      [
        "ghrian",
        -10.328522767961502
      ],
      [
        "spreaga",
        -10.32853503070669
      ],
      [
        "imreoir",
        -10.328657962869194
      ],
      [
        "New",
        -10.328756724256758
      ],
      [
        "pearsan",
        -10.329955040863378
      ],
      [
        "míleata",
        -10.329962687185208
      ],
      [
        "sceideal",
        -10.329968710647499
      ],
      [
        "uiscí",
        -10.330202357563833
      ],
      [
        "thrí",
        -10.331188262991539
      ],
      [
        "ceap",
        -10.332123316653707
      ],
      [
        "phróisea",
        -10.332127088911722
      ],
      [
        "feithicle",
        -10.33298849853898
      ],
      [
        "Iarrata",
        -10.333070967373914
      ],
      [
        "dlíthiúil",
        -10.333213494822687
      ],
      [
        "féilir",
        -10.333422608317347
      ],
      [
        "Chúirte",
        -10.334024342065806
      ],
      [
        "phlean",
        -10.334270965303364
      ],
      [
        "páipéir",
        -10.334331750394181
      ],
      [
        "41",
        -10.334990804345228
      ],
      [
        "ol",
        -10.335684203395122
      ],
      [
        "úla",
        -10.335709046523306
      ],
      [
        "scoir",
        -10.336151629878902
      ],
      [
        "J",
        -10.336776308543595
      ],
      [
        "DH",
        -10.337500932449565
      ],
      [
        "obac",
        -10.337599882327371
      ],
      [
        "ness",
        -10.340173760387536
      ],
      [
        "AGU",
        -10.340639442585736
      ],
      [
        "cúite",
        -10.3412302593119
      ],
      [
        "ósann",
        -10.341978532254394
      ],
      [
        "urscaoileadh",
        -10.342306599957585
      ],
      [
        "áitri",
        -10.342529702090417
      ],
      [
        "Por",
        -10.342560175969599
      ],
      [
        "riocht",
        -10.343192655371741
      ],
      [
        "ionc",
        -10.344094606471714
      ],
      [
        "Comh",
        -10.344453427700692
      ],
      [
        "aontú",
        -10.344584822253
      ],
      [
        "IO",
        -10.345703338954644
      ],
      [
        "tábhacht",
        -10.347161208421149
      ],
      [
        "óthair",
        -10.347659005484214
      ],
      [
        "athbhreithn",
        -10.347762632106262
      ],
      [
        "Idir",
        -10.348402141538624
      ],
      [
        "gcomhlíona",
        -10.348755513061953
      ],
      [
        "alúmana",
        -10.349389248220628
      ],
      [
        "dhul",
        -10.349450168301221
      ],
      [
        "gu",
        -10.349458067378741
      ],
      [
        "póirt",
        -10.349542040129553
      ],
      [
        "reidiúint",
        -10.350262882283412
      ],
      [
        "olex",
        -10.351137891320551
      ],
      [
        "Feidhm",
        -10.35191886604212
      ],
      [
        "chúram",
        -10.352254438366641
      ],
      [
        "Faigh",
        -10.35352266601715
      ],
      [
        "Gníomhaireachta",
        -10.354229579000005
      ],
      [
        "inse",
        -10.354249644958095
      ],
      [
        "staitistic",
        -10.35476269135965
      ],
      [
        "buiséad",
        -10.354928620902278
      ],
      [
        "eartú",
        -10.354981231706414
      ],
      [
        "tiomanta",
        -10.355112045211381
      ],
      [
        "ailte",
        -10.355316416828813
      ],
      [
        "iniúch",
        -10.35703283801917
      ],
      [
        "ionchúis",
        -10.357338821267284
      ],
      [
        "ga",
        -10.358724170819023
      ],
      [
        "gcruinni",
        -10.359218291978184
      ],
      [
        "Tuga",
        -10.359559128091998
      ],
      [
        "fhoghlaim",
        -10.360372566550089
      ],
      [
        "tair",
        -10.360687380956296
      ],
      [
        "Conrad",
        -10.361257477683376
      ],
      [
        "Barr",
        -10.362798588029026
      ],
      [
        "abhairt",
        -10.362903224133774
      ],
      [
        "gcionta",
        -10.36337777108289
      ],
      [
        "gcoinn",
        -10.36366441991002
      ],
      [
        "teachtaireacht",
        -10.363748862172613
      ],
      [
        "ANNA",
        -10.363760173964275
      ],
      [
        "scairea",
        -10.363772723889085
      ],
      [
        "glacfa",
        -10.364002424401592
      ],
      [
        "ithreach",
        -10.36646962086062
      ],
      [
        "cóireála",
        -10.367082820467997
      ],
      [
        "bhéarfaid",
        -10.367484739223123
      ],
      [
        "Daon",
        -10.367540344881526
      ],
      [
        "bpáirt",
        -10.368018473109487
      ],
      [
        "gc",
        -10.368361489341494
      ],
      [
        "hosaint",
        -10.36886999871134
      ],
      [
        "gcomhlíonfa",
        -10.369079601824442
      ],
      [
        "compordach",
        -10.37046744507498
      ],
      [
        "EUR",
        -10.370701988017952
      ],
      [
        "Iomlán",
        -10.370885881235465
      ],
      [
        "duilleog",
        -10.371325590653367
      ],
      [
        "toirt",
        -10.371538342188677
      ],
      [
        "meáchain",
        -10.372526981362949
      ],
      [
        "fhostóir",
        -10.372745527379955
      ],
      [
        "muiri",
        -10.37375653078781
      ],
      [
        "cáilíocht",
        -10.373794134715906
      ],
      [
        "eabhair",
        -10.373901493506406
      ],
      [
        "díoltóir",
        -10.374506436674718
      ],
      [
        "allraí",
        -10.374589923397185
      ],
      [
        "laist",
        -10.375479181899028
      ],
      [
        "aire",
        -10.376464873745023
      ],
      [
        "ospidé",
        -10.377089515815651
      ],
      [
        "bhótha",
        -10.377183109078963
      ],
      [
        "gCiste",
        -10.377251966670599
      ],
      [
        "odh",
        -10.377380650438106
      ],
      [
        "cheap",
        -10.377673876855237
      ],
      [
        "achta",
        -10.379255537578835
      ],
      [
        "pictiúr",
        -10.379362479203895
      ],
      [
        "giorra",
        -10.380325827422872
      ],
      [
        "díolachá",
        -10.380555875281438
      ],
      [
        "pian",
        -10.381213902586017
      ],
      [
        "caighdeánach",
        -10.381824707556163
      ],
      [
        "Bhain",
        -10.382196481099303
      ],
      [
        "shiúl",
        -10.382242541611465
      ],
      [
        "shealbhóir",
        -10.383441604052429
      ],
      [
        "idirbheart",
        -10.38456235800425
      ],
      [
        "glasra",
        -10.384729429304887
      ],
      [
        "Eilvéis",
        -10.384922742476085
      ],
      [
        "fórsa",
        -10.38498778164014
      ],
      [
        "Praghas",
        -10.385114457914991
      ],
      [
        "cháilithe",
        -10.385915225388802
      ],
      [
        "leanfaid",
        -10.386597617016035
      ],
      [
        "roghna",
        -10.387081527305359
      ],
      [
        "iniúchóireachta",
        -10.389803606505797
      ],
      [
        "chustaiméir",
        -10.389941685910573
      ],
      [
        "bailí",
        -10.390209018845486
      ],
      [
        "príosúnacht",
        -10.39083862684117
      ],
      [
        "toirmeasc",
        -10.391197188522622
      ],
      [
        "tógá",
        -10.392443836522002
      ],
      [
        "iontráil",
        -10.392552795147477
      ],
      [
        "clúdach",
        -10.392717348917262
      ],
      [
        "buí",
        -10.392992088053798
      ],
      [
        "gearán",
        -10.393098051352197
      ],
      [
        "mionsonra",
        -10.393479352860387
      ],
      [
        "gcríoch",
        -10.394396969825408
      ],
      [
        "hArd",
        -10.396798222280232
      ],
      [
        "Comhshao",
        -10.39699020533804
      ],
      [
        "coinníoll",
        -10.397381882140113
      ],
      [
        "phionós",
        -10.397859980549818
      ],
      [
        "sheachai",
        -10.398353145679552
      ],
      [
        "mblia",
        -10.398636542939464
      ],
      [
        "éi",
        -10.398896028390396
      ],
      [
        "eagla",
        -10.399425807579796
      ],
      [
        "teicneolaíochta",
        -10.399426513385922
      ],
      [
        "Uaireadóir",
        -10.400565657820394
      ],
      [
        "Chuarda",
        -10.400836717182846
      ],
      [
        "reáchtáil",
        -10.401688366310712
      ],
      [
        "Tábla",
        -10.401956971792195
      ],
      [
        "mheasta",
        -10.402562431000877
      ],
      [
        "soláthra",
        -10.403013066132807
      ],
      [
        "bhunaithe",
        -10.403446509135332
      ],
      [
        "cruthúna",
        -10.403571128556619
      ],
      [
        "eolaíoch",
        -10.403989358506255
      ],
      [
        "thuga",
        -10.404111541475817
      ],
      [
        "Léig",
        -10.404320332859811
      ],
      [
        "thíolaca",
        -10.40534194651351
      ],
      [
        "gairm",
        -10.405913369703924
      ],
      [
        "iteanna",
        -10.40599227866511
      ],
      [
        "dhaingniú",
        -10.406418938095632
      ],
      [
        "meastóireacht",
        -10.40670235123957
      ],
      [
        "nasctha",
        -10.406702874195545
      ],
      [
        "aidhm",
        -10.406764583722719
      ],
      [
        "66",
        -10.407002905540791
      ],
      [
        "áilte",
        -10.40731804344091
      ],
      [
        "tuarascála",
        -10.407739246380345
      ],
      [
        "toghchá",
        -10.40813571986379
      ],
      [
        "pobal",
        -10.409297133854082
      ],
      [
        "chuí",
        -10.409298962356367
      ],
      [
        "fhaigh",
        -10.409952214807976
      ],
      [
        "Forála",
        -10.410211925517286
      ],
      [
        "breithe",
        -10.414076602116175
      ],
      [
        "chostais",
        -10.414328282070997
      ],
      [
        "book",
        -10.415538416590937
      ],
      [
        "chta",
        -10.415801013023003
      ],
      [
        "iúla",
        -10.416188009735375
      ],
      [
        "mirt",
        -10.416450847058826
      ],
      [
        "liathróid",
        -10.416810677324431
      ],
      [
        "tírdhreach",
        -10.417216195509939
      ],
      [
        "Mheán",
        -10.418101126273708
      ],
      [
        "Dollar",
        -10.418155439610846
      ],
      [
        "Taighde",
        -10.41885866370431
      ],
      [
        "bheag",
        -10.419184603678625
      ],
      [
        "honraithe",
        -10.421513038196471
      ],
      [
        "allmhairiú",
        -10.422769853216575
      ],
      [
        "CEE",
        -10.423524555819807
      ],
      [
        "point",
        -10.423900598698552
      ],
      [
        "thair",
        -10.423934210055613
      ],
      [
        "únas",
        -10.424682553258075
      ],
      [
        "hráid",
        -10.424742551995667
      ],
      [
        "dhiaili",
        -10.426654402068529
      ],
      [
        "éinn",
        -10.427703428988965
      ],
      [
        "hoibleagáid",
        -10.429329713339788
      ],
      [
        "baránta",
        -10.429976081836479
      ],
      [
        "níl",
        -10.430008904067131
      ],
      [
        "hiúscairt",
        -10.43067329077854
      ],
      [
        "pháirt",
        -10.432005139867126
      ],
      [
        "Fhrainc",
        -10.432558392326229
      ],
      [
        "National",
        -10.432925634189935
      ],
      [
        "rapóirtéir",
        -10.433042186488468
      ],
      [
        "có",
        -10.433656681443644
      ],
      [
        "chaill",
        -10.434049786651512
      ],
      [
        "chríche",
        -10.434121607980202
      ],
      [
        "altaí",
        -10.434265653616212
      ],
      [
        "80",
        -10.434707793820674
      ],
      [
        "traenach",
        -10.434708284766385
      ],
      [
        "mhodhn",
        -10.43518723954914
      ],
      [
        "Déardao",
        -10.435196742746676
      ],
      [
        "reachtach",
        -10.43535156318682
      ],
      [
        "gaolmhar",
        -10.435450742329603
      ],
      [
        "01",
        -10.436745609977155
      ],
      [
        "eoil",
        -10.43678504720057
      ],
      [
        "díbhinn",
        -10.436835815376012
      ],
      [
        "ianaise",
        -10.437045598145906
      ],
      [
        "chaith",
        -10.43731362483824
      ],
      [
        "eochair",
        -10.437563528051335
      ],
      [
        "thiar",
        -10.437649750901105
      ],
      [
        "cúrsa",
        -10.43773309225906
      ],
      [
        "cuarda",
        -10.438176210907796
      ],
      [
        "inní",
        -10.43820104194161
      ],
      [
        "léigh",
        -10.439252076473384
      ],
      [
        "brabús",
        -10.43929532705896
      ],
      [
        "Teaghla",
        -10.439998681932497
      ],
      [
        "bain",
        -10.440112725200704
      ],
      [
        "ghlan",
        -10.440434175726915
      ],
      [
        "suimiú",
        -10.440822968252554
      ],
      [
        "shannta",
        -10.441717660524297
      ],
      [
        "bailiúchá",
        -10.443620229250033
      ],
      [
        "oibrío",
        -10.444296498403684
      ],
      [
        "Rialú",
        -10.444602713637252
      ],
      [
        "deartha",
        -10.44572830358798
      ],
      [
        "gainn",
        -10.446614429678203
      ],
      [
        "aineann",
        -10.446739887378165
      ],
      [
        "aíochta",
        -10.446888802661617
      ],
      [
        "fhorghníomh",
        -10.446994766289277
      ],
      [
        "009",
        -10.448042394757174
      ],
      [
        "mála",
        -10.448309394685948
      ],
      [
        "úsáideach",
        -10.4488799195987
      ],
      [
        "Uathoibríoch",
        -10.448959052272535
      ],
      [
        "vótáil",
        -10.449211089946239
      ],
      [
        "bog",
        -10.449245372781068
      ],
      [
        "ceachta",
        -10.449737504091953
      ],
      [
        "laghdaithe",
        -10.44984627833146
      ],
      [
        "Joint",
        -10.449941947288401
      ],
      [
        "coimeád",
        -10.450021295876251
      ],
      [
        "sainráite",
        -10.450308216654882
      ],
      [
        "gairmiú",
        -10.450539666388833
      ],
      [
        "olctha",
        -10.451467813853473
      ],
      [
        "Coláist",
        -10.451736374095097
      ],
      [
        "Cosant",
        -10.452296470008715
      ],
      [
        "Oifigiú",
        -10.452841672451115
      ],
      [
        "comhartha",
        -10.452906391387447
      ],
      [
        "inti",
        -10.453942148387856
      ],
      [
        "íocht",
        -10.454516733133872
      ],
      [
        "scáileá",
        -10.455019143448324
      ],
      [
        "chúrsa",
        -10.455972223648002
      ],
      [
        "189",
        -10.456007090348859
      ],
      [
        "68",
        -10.45725884010985
      ],
      [
        "58",
        -10.457304311656554
      ],
      [
        "polaitiú",
        -10.457413075692193
      ],
      [
        "dúbailt",
        -10.457848788145593
      ],
      [
        "eachtúla",
        -10.458305073194198
      ],
      [
        "cheapfaid",
        -10.458338869075465
      ],
      [
        "madra",
        -10.460339804482391
      ],
      [
        "to",
        -10.460828562835026
      ],
      [
        "staidé",
        -10.460879626329488
      ],
      [
        "taispeánta",
        -10.460912874220641
      ],
      [
        "Q",
        -10.461821012493903
      ],
      [
        "éifeachta",
        -10.462713959668905
      ],
      [
        "Lean",
        -10.463496198407663
      ],
      [
        "earrach",
        -10.463552987232699
      ],
      [
        "fáilte",
        -10.463868626070074
      ],
      [
        "meascá",
        -10.463984496426399
      ],
      [
        "trácht",
        -10.464352799021542
      ],
      [
        "polasa",
        -10.464410519675525
      ],
      [
        "Ráit",
        -10.465034295312096
      ],
      [
        "luaith",
        -10.465253518142381
      ],
      [
        "EASÚ",
        -10.465341257938821
      ],
      [
        "mid",
        -10.465450922128017
      ],
      [
        "ealaín",
        -10.465531824889378
      ],
      [
        "Ghearmáin",
        -10.46567966346684
      ],
      [
        "óspidé",
        -10.466306488591325
      ],
      [
        "agu",
        -10.466394419003876
      ],
      [
        "phlé",
        -10.466581066036113
      ],
      [
        "Áir",
        -10.466628717957995
      ],
      [
        "oi",
        -10.466903770894692
      ],
      [
        "ruda",
        -10.467020477904985
      ],
      [
        "measta",
        -10.467059494253798
      ],
      [
        "Oibre",
        -10.467339763346848
      ],
      [
        "ling",
        -10.467470357927297
      ],
      [
        "08",
        -10.46863730027851
      ],
      [
        "tuarasta",
        -10.468951924220015
      ],
      [
        "ghníomhaire",
        -10.4690038569868
      ],
      [
        "páist",
        -10.46984091709955
      ],
      [
        "éifeachtúlacht",
        -10.470406778867668
      ],
      [
        "ío",
        -10.471017474736684
      ],
      [
        "indéanta",
        -10.471694148520394
      ],
      [
        "scáth",
        -10.471717134867301
      ],
      [
        "Sín",
        -10.472036931415886
      ],
      [
        "Shóisial",
        -10.47223056194699
      ],
      [
        "iamh",
        -10.473941730457256
      ],
      [
        "cuibhe",
        -10.474189506778298
      ],
      [
        "Fheidhmiú",
        -10.474932984755842
      ],
      [
        "mhuirearú",
        -10.475221866830452
      ],
      [
        "ebate",
        -10.475340851514645
      ],
      [
        "Saoir",
        -10.475803898369078
      ],
      [
        "gceanta",
        -10.476105704851298
      ],
      [
        "foláir",
        -10.476272229275965
      ],
      [
        "rannpháirteach",
        -10.476446656792154
      ],
      [
        "fhostaithe",
        -10.476510812512878
      ],
      [
        "nload",
        -10.476828684531156
      ],
      [
        "ciste",
        -10.476902688421006
      ],
      [
        "chearta",
        -10.478018838410126
      ],
      [
        "Straitéis",
        -10.478506752078864
      ],
      [
        "díospóid",
        -10.478966459302082
      ],
      [
        "Eacnamaíoch",
        -10.481019098841884
      ],
      [
        "PS",
        -10.481237142186398
      ],
      [
        "chónaí",
        -10.481491170081087
      ],
      [
        "Cainteoir",
        -10.48261534301909
      ],
      [
        "víosa",
        -10.482898834866052
      ],
      [
        "Aois",
        -10.483030240021755
      ],
      [
        "Treorach",
        -10.483771324581603
      ],
      [
        "Comhphoba",
        -10.48409502473422
      ],
      [
        "himthosca",
        -10.484454119977919
      ],
      [
        "imní",
        -10.484507836659446
      ],
      [
        "coiriúla",
        -10.484981049212365
      ],
      [
        "Ria",
        -10.485000834435452
      ],
      [
        "treal",
        -10.485102684380806
      ],
      [
        "fios",
        -10.485266818249757
      ],
      [
        "iPhone",
        -10.485269654780415
      ],
      [
        "Cáin",
        -10.485609254762068
      ],
      [
        "carachta",
        -10.485727364119
      ],
      [
        "chomaoin",
        -10.486068762187152
      ],
      [
        "Comhalta",
        -10.486592117957922
      ],
      [
        "tráchta",
        -10.487066248087732
      ],
      [
        "caidr",
        -10.48717830491076
      ],
      [
        "réasún",
        -10.487938418448646
      ],
      [
        "ilbhliantú",
        -10.488018939652008
      ],
      [
        "Oifigeach",
        -10.489310155494717
      ],
      [
        "Clib",
        -10.489977089228105
      ],
      [
        "fuinneog",
        -10.48999019913093
      ],
      [
        "domhanda",
        -10.490109655787567
      ],
      [
        "ia",
        -10.490759472407
      ],
      [
        "bhforál",
        -10.490832633516483
      ],
      [
        "Déantóir",
        -10.49180814874748
      ],
      [
        "ladh",
        -10.493117377293718
      ],
      [
        "stórála",
        -10.493992848694901
      ],
      [
        "cód",
        -10.494899394364957
      ],
      [
        "tho",
        -10.49547400256105
      ],
      [
        "chlúdach",
        -10.49552095503319
      ],
      [
        "uachtar",
        -10.495681602656708
      ],
      [
        "vótála",
        -10.495841783159477
      ],
      [
        "thuairisc",
        -10.496880789597636
      ],
      [
        "cairde",
        -10.497378624857259
      ],
      [
        "aimsir",
        -10.497683806328638
      ],
      [
        "stop",
        -10.497770554111632
      ],
      [
        "lin",
        -10.497798863305048
      ],
      [
        "séala",
        -10.499798131847943
      ],
      [
        "Â",
        -10.499800420743336
      ],
      [
        "Super",
        -10.499879586877286
      ],
      [
        "uaireadóir",
        -10.499986490880632
      ],
      [
        "bhu",
        -10.500015673595705
      ],
      [
        "buidéal",
        -10.500636790850766
      ],
      [
        "CHU",
        -10.501279185433862
      ],
      [
        "Tugt",
        -10.501415703958326
      ],
      [
        "dearfach",
        -10.501579758399128
      ],
      [
        "COMHAIRLE",
        -10.501692953108252
      ],
      [
        "Tuairim",
        -10.501766296285819
      ],
      [
        "Tiocf",
        -10.5020483953509
      ],
      [
        "cóiríocht",
        -10.502346520529164
      ],
      [
        "caipitiú",
        -10.502489875338743
      ],
      [
        "bhéarfa",
        -10.503440592273591
      ],
      [
        "44",
        -10.504322845803294
      ],
      [
        "202",
        -10.504663635646207
      ],
      [
        "47",
        -10.504684154718191
      ],
      [
        "02",
        -10.504806126066317
      ],
      [
        "eagrú",
        -10.504830421393223
      ],
      [
        "Limisté",
        -10.505073230185943
      ],
      [
        "Dubh",
        -10.505605418557703
      ],
      [
        "ceangailte",
        -10.505789429382723
      ],
      [
        "toba",
        -10.50664968688297
      ],
      [
        "gcumas",
        -10.506940460211684
      ],
      [
        "chumann",
        -10.507374620952397
      ],
      [
        "ealaí",
        -10.508746937842073
      ],
      [
        "réalta",
        -10.508779877014756
      ],
      [
        "laethú",
        -10.509036033314313
      ],
      [
        "héifeachtach",
        -10.509671429535427
      ],
      [
        "tuigfea",
        -10.510869198014102
      ],
      [
        "fomhír",
        -10.510943351332934
      ],
      [
        "ástáil",
        -10.511551512622502
      ],
      [
        "State",
        -10.513280156912433
      ],
      [
        "cos",
        -10.513701952707873
      ],
      [
        "acht",
        -10.51424445969176
      ],
      [
        "dhualga",
        -10.514433567135267
      ],
      [
        "seolta",
        -10.515710331071887
      ],
      [
        "éagsú",
        -10.515921942971946
      ],
      [
        "píosa",
        -10.516090013196006
      ],
      [
        "dílseána",
        -10.51621902773833
      ],
      [
        "dteagmhá",
        -10.51721502021401
      ],
      [
        "»",
        -10.517344280392459
      ],
      [
        "Diamond",
        -10.517622178035772
      ],
      [
        "plé",
        -10.518458420684961
      ],
      [
        "óipeanna",
        -10.519229825091717
      ],
      [
        "Céim",
        -10.519284303821287
      ],
      [
        "aimsi",
        -10.520093793859239
      ],
      [
        "óige",
        -10.520394459154627
      ],
      [
        "oine",
        -10.52111393146331
      ],
      [
        "euro",
        -10.523215304894894
      ],
      [
        "ás",
        -10.523804552045888
      ],
      [
        "cháilíocht",
        -10.52397083353236
      ],
      [
        "rannpháirtíocht",
        -10.525434220893999
      ],
      [
        "gcúirt",
        -10.526723380849806
      ],
      [
        "creidiúna",
        -10.528254600543393
      ],
      [
        "Feabh",
        -10.528416593338346
      ],
      [
        "Ö",
        -10.528696701937502
      ],
      [
        "Roinne",
        -10.529167483949978
      ],
      [
        "easpa",
        -10.530359392550828
      ],
      [
        "Beal",
        -10.530721129344641
      ],
      [
        "ai",
        -10.530891374515017
      ],
      [
        "timpeallacht",
        -10.532039393588722
      ],
      [
        "cáiliú",
        -10.53267703349443
      ],
      [
        "Chaibid",
        -10.533563403382793
      ],
      [
        "thur",
        -10.53461900361377
      ],
      [
        "Éire",
        -10.534745616357805
      ],
      [
        "fol",
        -10.535464886106343
      ],
      [
        "los",
        -10.535959243783005
      ],
      [
        "fhógair",
        -10.536027511691582
      ],
      [
        "64",
        -10.53623657697894
      ],
      [
        "vótaí",
        -10.53633674558754
      ],
      [
        "Mheiriceá",
        -10.536349139492888
      ],
      [
        "spreag",
        -10.536748635043278
      ],
      [
        "fheithic",
        -10.53776541913091
      ],
      [
        "Cuardai",
        -10.538533938195393
      ],
      [
        "aradh",
        -10.539567895469496
      ],
      [
        "laisti",
        -10.540185359984992
      ],
      [
        "mhoill",
        -10.540196360129816
      ],
      [
        "dathanna",
        -10.540266192237391
      ],
      [
        "gluaisteá",
        -10.540647398721816
      ],
      [
        "fhíorú",
        -10.541376444227499
      ],
      [
        "cothromaíocht",
        -10.541702960023212
      ],
      [
        "bhféadfaid",
        -10.541885150306612
      ],
      [
        "CUI",
        -10.542073473229863
      ],
      [
        "bhfostaíocht",
        -10.543548635932574
      ],
      [
        "oiciméid",
        -10.543750058566442
      ],
      [
        "gáis",
        -10.543828976229353
      ],
      [
        "daonna",
        -10.544208804230369
      ],
      [
        "cruth",
        -10.544487846761642
      ],
      [
        "bhrú",
        -10.54476334609846
      ],
      [
        "56",
        -10.546494547194616
      ],
      [
        "láraitheoir",
        -10.546586728545405
      ],
      [
        "eanta",
        -10.546787352202863
      ],
      [
        "cleachtai",
        -10.54683592632886
      ],
      [
        "sonrófa",
        -10.546981245240353
      ],
      [
        "cheadúnais",
        -10.547031495381258
      ],
      [
        "próiseáil",
        -10.547054725570646
      ],
      [
        "ócáid",
        -10.547179610759844
      ],
      [
        "dtuairim",
        -10.547513555607399
      ],
      [
        "meastachá",
        -10.547546571046183
      ],
      [
        "hreoir",
        -10.54758653803911
      ],
      [
        "PC",
        -10.549526481468448
      ],
      [
        "fráma",
        -10.549677988605382
      ],
      [
        "ist",
        -10.550528497561588
      ],
      [
        "dhia",
        -10.550648034268994
      ],
      [
        "ÓN",
        -10.550746406862825
      ],
      [
        "bhfaigh",
        -10.550961645844104
      ],
      [
        "asta",
        -10.551457205402446
      ],
      [
        "Deir",
        -10.551853685568064
      ],
      [
        "Sainmhíni",
        -10.552175123076001
      ],
      [
        "bhei",
        -10.552393300127147
      ],
      [
        "bair",
        -10.552858904944515
      ],
      [
        "Google",
        -10.553387852027148
      ],
      [
        "Health",
        -10.5534100674837
      ],
      [
        "Leigh",
        -10.553573983559946
      ],
      [
        "sh",
        -10.553656594164856
      ],
      [
        "íniú",
        -10.553689350242472
      ],
      [
        "aeráid",
        -10.554662502487554
      ],
      [
        "infheisteoir",
        -10.554920834452258
      ],
      [
        "scilling",
        -10.5550920534019
      ],
      [
        "Chomhaont",
        -10.555839440868864
      ],
      [
        "tion",
        -10.556249729971164
      ],
      [
        "Eile",
        -10.55639795742643
      ],
      [
        "cúit",
        -10.55692039149055
      ],
      [
        "bainc",
        -10.557145765107654
      ],
      [
        "inarb",
        -10.557310094990909
      ],
      [
        "teagmhas",
        -10.558416488180697
      ],
      [
        "saigh",
        -10.558568695299005
      ],
      [
        "tseachtain",
        -10.558760892665344
      ],
      [
        "tarchur",
        -10.558978900256943
      ],
      [
        "comhlíon",
        -10.560269445087316
      ],
      [
        "díobhálach",
        -10.560712237463182
      ],
      [
        "mheasfa",
        -10.561682398461016
      ],
      [
        "mac",
        -10.56189467478179
      ],
      [
        "cáilitheach",
        -10.562665879992654
      ],
      [
        "siúcra",
        -10.56338363099021
      ],
      [
        "Soláthair",
        -10.563693243268062
      ],
      [
        "farraig",
        -10.564369978324567
      ],
      [
        "aoil",
        -10.564746154604162
      ],
      [
        "Thu",
        -10.566020370499045
      ],
      [
        "stáil",
        -10.56640206204046
      ],
      [
        "caoga",
        -10.566666982699202
      ],
      [
        "iarrfaid",
        -10.566705404785434
      ],
      [
        "Atha",
        -10.567130813486921
      ],
      [
        "Universit",
        -10.567485729397514
      ],
      [
        "59",
        -10.567911871056484
      ],
      [
        "hoifig",
        -10.568458113883882
      ],
      [
        "ation",
        -10.568625680742374
      ],
      [
        "Fo",
        -10.568737962071879
      ],
      [
        "ille",
        -10.568833525387479
      ],
      [
        "Teicneolaíocht",
        -10.569040221539188
      ],
      [
        "Mhaigh",
        -10.56925900380923
      ],
      [
        "fhreagra",
        -10.569273789841185
      ],
      [
        "aturnae",
        -10.569340626126209
      ],
      [
        "ithi",
        -10.569444875590984
      ],
      [
        "chuma",
        -10.569621348165606
      ],
      [
        "gComhphoba",
        -10.571720382864541
      ],
      [
        "·",
        -10.571901759949938
      ],
      [
        "Samh",
        -10.572412471697154
      ],
      [
        "corparáide",
        -10.57352856713709
      ],
      [
        "chuarda",
        -10.57354693104547
      ],
      [
        "fhorord",
        -10.574168404488365
      ],
      [
        "aistriúchá",
        -10.574453117014347
      ],
      [
        "faisean",
        -10.574528142751394
      ],
      [
        "Corparáide",
        -10.575017343298377
      ],
      [
        "Shan",
        -10.575611264142664
      ],
      [
        "dearmad",
        -10.575889126960387
      ],
      [
        "dóiteá",
        -10.576510738028773
      ],
      [
        "ré",
        -10.577111206922966
      ],
      [
        "43",
        -10.577249953577198
      ],
      [
        "allóid",
        -10.577291530111367
      ],
      [
        "bhainea",
        -10.577920483148581
      ],
      [
        "rialáil",
        -10.578189406956664
      ],
      [
        "Chlár",
        -10.57836723670371
      ],
      [
        "beaga",
        -10.57877414887259
      ],
      [
        "bháis",
        -10.579693973170318
      ],
      [
        "féideartha",
        -10.58055833765873
      ],
      [
        "meicniú",
        -10.580865908018977
      ],
      [
        "bróg",
        -10.582734165243558
      ],
      [
        "98",
        -10.582876300347204
      ],
      [
        "dtáirgí",
        -10.584792073874173
      ],
      [
        "cheadó",
        -10.584849054680314
      ],
      [
        "gairmiúla",
        -10.585013752441498
      ],
      [
        "ca",
        -10.585357693908481
      ],
      [
        "rialach",
        -10.585533774800686
      ],
      [
        "flash",
        -10.585852902184456
      ],
      [
        "patrú",
        -10.585877139547486
      ],
      [
        "breac",
        -10.586734755662889
      ],
      [
        "53",
        -10.587681778139487
      ],
      [
        "Síne",
        -10.587865475180083
      ],
      [
        "tábla",
        -10.588082040342814
      ],
      [
        "miotai",
        -10.588096503780697
      ],
      [
        "shonrach",
        -10.589551267723142
      ],
      [
        "deoch",
        -10.590421121976023
      ],
      [
        "mháil",
        -10.591299801396548
      ],
      [
        "Irish",
        -10.591449964958999
      ],
      [
        "leasmhar",
        -10.59164820433654
      ],
      [
        "video",
        -10.591650508799223
      ],
      [
        "per",
        -10.592408705291483
      ],
      [
        "thaifead",
        -10.592536228803567
      ],
      [
        "Breataine",
        -10.594018670294004
      ],
      [
        "Glacfa",
        -10.594247884150942
      ],
      [
        "1960",
        -10.594472281860412
      ],
      [
        "dóich",
        -10.594524488522975
      ],
      [
        "Iarratais",
        -10.595602157960183
      ],
      [
        "fhorchu",
        -10.596004615687308
      ],
      [
        "choigeartú",
        -10.596492823471273
      ],
      [
        "éireo",
        -10.597423988587483
      ],
      [
        "tabha",
        -10.598335118585442
      ],
      [
        "Infheistíochta",
        -10.598684061527223
      ],
      [
        "taise",
        -10.599294638721911
      ],
      [
        "namh",
        -10.599909429316762
      ],
      [
        "rúnaí",
        -10.600161590591041
      ],
      [
        "tube",
        -10.601106995282535
      ],
      [
        "lann",
        -10.601530204522815
      ],
      [
        "fholaío",
        -10.60182679559929
      ],
      [
        "Lá",
        -10.602010877953733
      ],
      [
        "chá",
        -10.602413833430848
      ],
      [
        "chuntais",
        -10.60382465243166
      ],
      [
        "árasá",
        -10.6043477146432
      ],
      [
        "méad",
        -10.604618627714272
      ],
      [
        "fhianai",
        -10.605617114500532
      ],
      [
        "slán",
        -10.60633265404932
      ],
      [
        "beirt",
        -10.606508945337376
      ],
      [
        "saothrú",
        -10.60685373728499
      ],
      [
        "phríobháideach",
        -10.607355621679105
      ],
      [
        "shaothr",
        -10.607742855866391
      ],
      [
        "Cumhachta",
        -10.6078110278288
      ],
      [
        "nuas",
        -10.608688723456982
      ],
      [
        "mic",
        -10.609313020801054
      ],
      [
        "Áiritheo",
        -10.609519293041254
      ],
      [
        "Digiteach",
        -10.610210084921345
      ],
      [
        "Trádála",
        -10.610541094046862
      ],
      [
        "fréamh",
        -10.610774508911348
      ],
      [
        "breosla",
        -10.611085749585012
      ],
      [
        "ráthaíocht",
        -10.612494246138679
      ],
      [
        "mheasann",
        -10.612670791997262
      ],
      [
        "arainn",
        -10.612770986018957
      ],
      [
        "cothabhála",
        -10.612788417791313
      ],
      [
        "nádúr",
        -10.613018413229877
      ],
      [
        "07",
        -10.613440180223723
      ],
      [
        "iompróir",
        -10.613742805197838
      ],
      [
        "gcaithea",
        -10.614758108325859
      ],
      [
        "fág",
        -10.616011924797094
      ],
      [
        "gréine",
        -10.616130065892293
      ],
      [
        "saincheist",
        -10.616443596814008
      ],
      [
        "athchomharc",
        -10.616524729757192
      ],
      [
        "52",
        -10.616548047131138
      ],
      [
        "irteagal",
        -10.6168816367075
      ],
      [
        "ies",
        -10.617313781367203
      ],
      [
        "eastá",
        -10.617700045333107
      ],
      [
        "Soláthr",
        -10.619470625045869
      ],
      [
        "fhaois",
        -10.62159808168563
      ],
      [
        "aisghabháil",
        -10.621836228288267
      ],
      [
        "fhostaíocht",
        -10.62265351838236
      ],
      [
        "píopa",
        -10.623529867784907
      ],
      [
        "tiarna",
        -10.623851595485311
      ],
      [
        "foins",
        -10.624786777196759
      ],
      [
        "leatha",
        -10.62491091124403
      ],
      [
        "sreabha",
        -10.625906774414469
      ],
      [
        "stampa",
        -10.626023421268918
      ],
      [
        "achmair",
        -10.626261133368214
      ],
      [
        "di",
        -10.626541383868384
      ],
      [
        "ghníomhach",
        -10.626688356749227
      ],
      [
        "mais",
        -10.627451119349313
      ],
      [
        "lonnaithe",
        -10.627489540206518
      ],
      [
        "nscne",
        -10.627708885325731
      ],
      [
        "náisiún",
        -10.62784631333793
      ],
      [
        "tine",
        -10.628067642092088
      ],
      [
        "Lucht",
        -10.628723329023934
      ],
      [
        "fóill",
        -10.629262594284471
      ],
      [
        "gealltana",
        -10.629429213868598
      ],
      [
        "vitimín",
        -10.629610668320353
      ],
      [
        "pionóis",
        -10.629823593467423
      ],
      [
        "monatóireacht",
        -10.629913064194135
      ],
      [
        "chaillteana",
        -10.631050553828894
      ],
      [
        "Cás",
        -10.631228491057943
      ],
      [
        "fochuideachta",
        -10.631252612732007
      ],
      [
        "bhosca",
        -10.631415718206906
      ],
      [
        "scairchaipit",
        -10.63151978299103
      ],
      [
        "eáin",
        -10.631691904308566
      ],
      [
        "Sula",
        -10.631932221619763
      ],
      [
        "1988",
        -10.632006044465454
      ],
      [
        "mp3",
        -10.633068766486545
      ],
      [
        "chríochnú",
        -10.633276017274452
      ],
      [
        "Measfa",
        -10.633747501509813
      ],
      [
        "chúna",
        -10.634490566896986
      ],
      [
        "uathúil",
        -10.63655723998841
      ],
      [
        "tháirg",
        -10.63661217823489
      ],
      [
        "mhíchumas",
        -10.636699266066145
      ],
      [
        "tsamhraidh",
        -10.636702792001746
      ],
      [
        "riala",
        -10.636704167333832
      ],
      [
        "cuain",
        -10.636996588181159
      ],
      [
        "leasaithe",
        -10.63728429528356
      ],
      [
        "crainn",
        -10.637763264289065
      ],
      [
        "sholáthróid",
        -10.638579455181613
      ],
      [
        "gníomhaire",
        -10.63895984070018
      ],
      [
        "gcomhthéacs",
        -10.640001943577122
      ],
      [
        "ineacht",
        -10.640562160505391
      ],
      [
        "tuig",
        -10.640571100558988
      ],
      [
        "litreach",
        -10.640979733170752
      ],
      [
        "Táim",
        -10.6415337701426
      ],
      [
        "raein",
        -10.642142424067607
      ],
      [
        "gann",
        -10.642394622961513
      ],
      [
        "scór",
        -10.642490553815808
      ],
      [
        "Faisnéis",
        -10.643065997392075
      ],
      [
        "mianra",
        -10.643147955903526
      ],
      [
        "saoirse",
        -10.643922928275092
      ],
      [
        "ceal",
        -10.643958394035282
      ],
      [
        "leithead",
        -10.644486915490493
      ],
      [
        "and",
        -10.644743107374126
      ],
      [
        "Pé",
        -10.644848790535852
      ],
      [
        "fógraí",
        -10.644987768874243
      ],
      [
        "67",
        -10.645658974598742
      ],
      [
        "aingea",
        -10.646078563943885
      ],
      [
        "comhiomlán",
        -10.646516277407734
      ],
      [
        "ceapachá",
        -10.647130297401807
      ],
      [
        "naigh",
        -10.647508384325086
      ],
      [
        "Réamh",
        -10.648148636643432
      ],
      [
        "phlanda",
        -10.649267398768062
      ],
      [
        "Úcráin",
        -10.649609598498603
      ],
      [
        "fororda",
        -10.649734158284577
      ],
      [
        "Afraic",
        -10.649745518633248
      ],
      [
        "chruth",
        -10.649841142800316
      ],
      [
        "Fórsa",
        -10.650365994147872
      ],
      [
        "cháil",
        -10.650602225962032
      ],
      [
        "lipéad",
        -10.650747516366987
      ],
      [
        "éifeachtacht",
        -10.651459493427675
      ],
      [
        "cheapfa",
        -10.651888063088633
      ],
      [
        "Nach",
        -10.651990173348235
      ],
      [
        "ceangal",
        -10.652510169918045
      ],
      [
        "teaghrá",
        -10.652821405125435
      ],
      [
        "gcúrsa",
        -10.653309840457785
      ],
      [
        "díola",
        -10.65375083841224
      ],
      [
        "insint",
        -10.654142111813165
      ],
      [
        "socraithe",
        -10.654749758998964
      ],
      [
        "suime",
        -10.655494683316276
      ],
      [
        "leanann",
        -10.655679330050113
      ],
      [
        "cúirt",
        -10.656380825977607
      ],
      [
        "Bei",
        -10.656725649988148
      ],
      [
        "chomhshao",
        -10.656799259432365
      ],
      [
        "ranníoc",
        -10.656869292969825
      ],
      [
        "RIALACHÁ",
        -10.657302251711025
      ],
      [
        "bean",
        -10.657659784669534
      ],
      [
        "Daonlatha",
        -10.657683480691599
      ],
      [
        "eintit",
        -10.658194243422509
      ],
      [
        "chumhda",
        -10.65871361391203
      ],
      [
        "Sin",
        -10.658751535115776
      ],
      [
        "tweet",
        -10.65896570320772
      ],
      [
        "ge",
        -10.659241279107745
      ],
      [
        "Líon",
        -10.659534815256709
      ],
      [
        "strap",
        -10.66029078384339
      ],
      [
        "cruinnea",
        -10.66064839903768
      ],
      [
        "múnla",
        -10.66071241889734
      ],
      [
        "aibh",
        -10.662002935559821
      ],
      [
        "seachtainiú",
        -10.663660278632875
      ],
      [
        "just",
        -10.663661808936324
      ],
      [
        "hraitheann",
        -10.664397977135334
      ],
      [
        "fíon",
        -10.665127335088446
      ],
      [
        "VII",
        -10.665884872552539
      ],
      [
        "casta",
        -10.666823304420287
      ],
      [
        "Iompa",
        -10.667086306049308
      ],
      [
        "míre",
        -10.667156461997042
      ],
      [
        "oibreoid",
        -10.66730871314191
      ],
      [
        "mhar",
        -10.667862119580056
      ],
      [
        "máil",
        -10.668054976852314
      ],
      [
        "Bardas",
        -10.668444841379335
      ],
      [
        "bhean",
        -10.668754667962123
      ],
      [
        "Domhand",
        -10.669459228247598
      ],
      [
        "Parliament",
        -10.67003581407425
      ],
      [
        "Ankara",
        -10.670283482133625
      ],
      [
        "Mo",
        -10.670650432443008
      ],
      [
        "Oiliún",
        -10.670674563095677
      ],
      [
        "current",
        -10.67082847083505
      ],
      [
        "freagairt",
        -10.670844108181262
      ],
      [
        "ineann",
        -10.670989617248903
      ],
      [
        "ionsaí",
        -10.671218818448015
      ],
      [
        "hloig",
        -10.671709831851912
      ],
      [
        "raí",
        -10.671922498099555
      ],
      [
        "soghluaiste",
        -10.671976284439985
      ],
      [
        "ve",
        -10.671986006501555
      ],
      [
        "dorcha",
        -10.672644016320294
      ],
      [
        "cheapt",
        -10.67288354403784
      ],
      [
        "feiste",
        -10.67332626739993
      ],
      [
        "sia",
        -10.67393799666127
      ],
      [
        "heagraíochta",
        -10.673952217597915
      ],
      [
        "chúig",
        -10.6740767612085
      ],
      [
        "chruinn",
        -10.674083905448171
      ],
      [
        "Cáilíochta",
        -10.674168763334144
      ],
      [
        "caithfi",
        -10.67438921435431
      ],
      [
        "Phoibl",
        -10.674604241532794
      ],
      [
        "ortha",
        -10.67572605279127
      ],
      [
        "by",
        -10.675952156574589
      ],
      [
        "dtaga",
        -10.676531833627122
      ],
      [
        "ranníocaíochta",
        -10.677310015502412
      ],
      [
        "alair",
        -10.678924140267757
      ],
      [
        "léirithe",
        -10.679083713144507
      ],
      [
        "tuairisciú",
        -10.679391652851995
      ],
      [
        "Limit",
        -10.67947342406061
      ],
      [
        "Slándá",
        -10.679513142754729
      ],
      [
        "morgáiste",
        -10.681147671046766
      ],
      [
        "maireachtá",
        -10.681589588709542
      ],
      [
        "eolaíochta",
        -10.68197946586194
      ],
      [
        "díobháil",
        -10.682307191302558
      ],
      [
        "bhfógra",
        -10.684096112870225
      ],
      [
        "ndéana",
        -10.684474394564202
      ],
      [
        "fáis",
        -10.684956975924655
      ],
      [
        "Oibreacha",
        -10.685108949028306
      ],
      [
        "Forál",
        -10.686474925339292
      ],
      [
        "úl",
        -10.686765307370814
      ],
      [
        "nótaí",
        -10.687902055105415
      ],
      [
        "pláta",
        -10.688524908683414
      ],
      [
        "rís",
        -10.688936089753081
      ],
      [
        "ceapfa",
        -10.689228610820807
      ],
      [
        "thriail",
        -10.690341537760128
      ],
      [
        "mheasúnacht",
        -10.690417405317351
      ],
      [
        "Oileá",
        -10.690446284495057
      ],
      [
        "Sheirbhís",
        -10.69117380151308
      ],
      [
        "híniú",
        -10.691986080741197
      ],
      [
        "trádmharc",
        -10.6925337909767
      ],
      [
        "dáileog",
        -10.692745049388895
      ],
      [
        "Cosaint",
        -10.693048731550402
      ],
      [
        "folamh",
        -10.693258733865806
      ],
      [
        "014",
        -10.693630979387411
      ],
      [
        "thrádála",
        -10.693787536435513
      ],
      [
        "57",
        -10.694061530837612
      ],
      [
        "onnmhairiú",
        -10.69415659539151
      ],
      [
        "teagaisc",
        -10.694485930410847
      ],
      [
        "uaisceart",
        -10.694617061984083
      ],
      [
        "ghné",
        -10.694885301283849
      ],
      [
        "Tóg",
        -10.695133734982784
      ],
      [
        "phearsa",
        -10.695223616551207
      ],
      [
        "Nós",
        -10.6952370851496
      ],
      [
        "bhfoca",
        -10.695245620180476
      ],
      [
        "Phoba",
        -10.695598608366135
      ],
      [
        "tug",
        -10.695854970622017
      ],
      [
        "grád",
        -10.695859627971462
      ],
      [
        "inneal",
        -10.696272550978852
      ],
      [
        "Acmhainn",
        -10.696362862968765
      ],
      [
        "gcomhaont",
        -10.696529701120863
      ],
      [
        "ig",
        -10.696697741307764
      ],
      [
        "bhuirg",
        -10.69735533770146
      ],
      [
        "iúint",
        -10.697444827779915
      ],
      [
        "fhoirceann",
        -10.697461394188597
      ],
      [
        "astáil",
        -10.698650368533094
      ],
      [
        "mblian",
        -10.699671717739987
      ],
      [
        "snámha",
        -10.700266273596712
      ],
      [
        "áistí",
        -10.700561528144423
      ],
      [
        "ionfhabht",
        -10.700746597275565
      ],
      [
        "fulaing",
        -10.700835333459874
      ],
      [
        "chomhlán",
        -10.70093230500996
      ],
      [
        "saoránach",
        -10.701095824680731
      ],
      [
        "bhuiséad",
        -10.70112221740508
      ],
      [
        "bac",
        -10.70113179397976
      ],
      [
        "95",
        -10.702713160596485
      ],
      [
        "mheasfaid",
        -10.70347458534416
      ],
      [
        "chuspóir",
        -10.705110509347362
      ],
      [
        "neamhní",
        -10.705778165157964
      ],
      [
        "gceangal",
        -10.705925887285433
      ],
      [
        "geal",
        -10.706306020054612
      ],
      [
        "cósta",
        -10.706369569036276
      ],
      [
        "Appl",
        -10.70637332326324
      ],
      [
        "scaipea",
        -10.707415162565322
      ],
      [
        "Tuarascála",
        -10.708077339142147
      ],
      [
        "eisiach",
        -10.708091018341653
      ],
      [
        "chonartha",
        -10.708743001863603
      ],
      [
        "CFA",
        -10.709498552788899
      ],
      [
        "fir",
        -10.710133061377636
      ],
      [
        "roghnaío",
        -10.711464329193106
      ],
      [
        "dui",
        -10.712029653874602
      ],
      [
        "Zhong",
        -10.712192463292183
      ],
      [
        "hroim",
        -10.712222520650505
      ],
      [
        "scoláir",
        -10.712400994385929
      ],
      [
        "SE",
        -10.712530146171487
      ],
      [
        "Public",
        -10.712530475335084
      ],
      [
        "gceangla",
        -10.712771748622771
      ],
      [
        "clasaiceach",
        -10.712903501671292
      ],
      [
        "orleathan",
        -10.713214374580986
      ],
      [
        "léarscáil",
        -10.71331203754762
      ],
      [
        "lotnaid",
        -10.71342043443901
      ],
      [
        "neamhdhleathach",
        -10.714010636422014
      ],
      [
        "dlúth",
        -10.71429422251176
      ],
      [
        "oiriún",
        -10.7146299430689
      ],
      [
        "géar",
        -10.714966462706986
      ],
      [
        "hoibreach",
        -10.715182027636127
      ],
      [
        "du",
        -10.715718494766515
      ],
      [
        "AS",
        -10.715834402343312
      ],
      [
        "Céad",
        -10.716086023515324
      ],
      [
        "dhear",
        -10.716637515592362
      ],
      [
        "cnaipe",
        -10.716849525588362
      ],
      [
        "bonneaga",
        -10.71723613161362
      ],
      [
        "féachan",
        -10.717413197375569
      ],
      [
        "dheisiú",
        -10.717949953137099
      ],
      [
        "nternational",
        -10.718055035202168
      ],
      [
        "slabhra",
        -10.71865204304389
      ],
      [
        "huathoibríoch",
        -10.718817612126381
      ],
      [
        "leagfa",
        -10.719269398882524
      ],
      [
        "China",
        -10.719522286564464
      ],
      [
        "tharmlig",
        -10.719600579694475
      ],
      [
        "omhdhéanta",
        -10.719722321820202
      ],
      [
        "lampa",
        -10.720259313503927
      ],
      [
        "bu",
        -10.720794067921444
      ],
      [
        "oibriúcháin",
        -10.720805279532186
      ],
      [
        "eiceálach",
        -10.722204388722337
      ],
      [
        "aoisliúnta",
        -10.72239350165923
      ],
      [
        "fhoins",
        -10.722540712725152
      ],
      [
        "63",
        -10.724841057057455
      ],
      [
        "Andro",
        -10.72484705183346
      ],
      [
        "aincheap",
        -10.7251622232067
      ],
      [
        "Dúin",
        -10.7254680794957
      ],
      [
        "loingseoireacht",
        -10.725607563842166
      ],
      [
        "DE",
        -10.725752082333397
      ],
      [
        "úsáidfea",
        -10.726102279166021
      ],
      [
        "oird",
        -10.726440216401885
      ],
      [
        "Rialacha",
        -10.727173477751247
      ],
      [
        "iarbh",
        -10.729029798673478
      ],
      [
        "bainte",
        -10.729211140493156
      ],
      [
        "nuacht",
        -10.729631146849957
      ],
      [
        "sláintiú",
        -10.72981259548394
      ],
      [
        "phlandáil",
        -10.730569369766233
      ],
      [
        "lae",
        -10.73294687181697
      ],
      [
        "Réigiún",
        -10.733329896840555
      ],
      [
        "fheidhmíocht",
        -10.73376267520965
      ],
      [
        "Fhorbairt",
        -10.733922844628975
      ],
      [
        "Eaglais",
        -10.734020041803337
      ],
      [
        "bainteach",
        -10.734296577993206
      ],
      [
        "fhaightea",
        -10.734669345251476
      ],
      [
        "ríomhaireachta",
        -10.73468244335331
      ],
      [
        "earráid",
        -10.734750359831573
      ],
      [
        "bheirt",
        -10.734817454455527
      ],
      [
        "feidhmíochta",
        -10.735336271733498
      ],
      [
        "smaointe",
        -10.735598748013116
      ],
      [
        "Sean",
        -10.735715927730347
      ],
      [
        "astu",
        -10.735850743791252
      ],
      [
        "1980",
        -10.735994152377025
      ],
      [
        "innealtóireacht",
        -10.736418514670087
      ],
      [
        "Charm",
        -10.736758714412705
      ],
      [
        "Costais",
        -10.737398106545024
      ],
      [
        "Caighdeán",
        -10.739629497561085
      ],
      [
        "deonaío",
        -10.740630863594088
      ],
      [
        "mhargai",
        -10.740694049665375
      ],
      [
        "Fhor",
        -10.74083555152791
      ],
      [
        "cruthaío",
        -10.741505966895458
      ],
      [
        "1977",
        -10.74152265358723
      ],
      [
        "dian",
        -10.74193584254623
      ],
      [
        "iomarcach",
        -10.742838855592211
      ],
      [
        "India",
        -10.742961191342765
      ],
      [
        "tithe",
        -10.743107231410702
      ],
      [
        "Con",
        -10.743147092015926
      ],
      [
        "hoist",
        -10.74370369658764
      ],
      [
        "áracha",
        -10.743758785478207
      ],
      [
        "déanach",
        -10.7439286015501
      ],
      [
        "bhainisteoir",
        -10.744665552611194
      ],
      [
        "leic",
        -10.744780064634186
      ],
      [
        "Méad",
        -10.745149593639121
      ],
      [
        "racha",
        -10.745243446133637
      ],
      [
        "eolaíocht",
        -10.745705529058842
      ],
      [
        "chúrsaí",
        -10.74573450704522
      ],
      [
        "pleaná",
        -10.745946527773466
      ],
      [
        "Idirlí",
        -10.746420466504658
      ],
      [
        "ious",
        -10.746668107668583
      ],
      [
        "Nóta",
        -10.746796392225916
      ],
      [
        "earr",
        -10.747313962357133
      ],
      [
        "chuga",
        -10.747962624025865
      ],
      [
        "chaillea",
        -10.748077750459611
      ],
      [
        "rimh",
        -10.748102361729734
      ],
      [
        "srian",
        -10.748570124386516
      ],
      [
        "abhartha",
        -10.749988589237024
      ],
      [
        "Gairmiú",
        -10.750600473007578
      ],
      [
        "léasa",
        -10.751272129524272
      ],
      [
        "minicíocht",
        -10.751954474698307
      ],
      [
        "Táirge",
        -10.752870310679898
      ],
      [
        "Áracha",
        -10.752984081598223
      ],
      [
        "forai",
        -10.753045947734947
      ],
      [
        "arrann",
        -10.753359008938158
      ],
      [
        "íche",
        -10.754429030067522
      ],
      [
        "Críostaí",
        -10.755142381478988
      ],
      [
        "sruth",
[...]
