{
  "version": "1.0",
  "truncation": null,
  "padding": null,
  "added_tokens": [
    {
      "id": 1,
      "content": "[UNK]",
      "single_word": false,
      "lstrip": false,
      "rstrip": false,
      "normalized": false,
      "special": true
    },
    {
      "id": 2,
      "content": "[CLS]",
      "single_word": false,
      "lstrip": false,
      "rstrip": false,
      "normalized": false,
      "special": true
    },
    {
      "id": 3,
      "content": "[SEP]",
      "single_word": false,
      "lstrip": false,
      "rstrip": false,
      "normalized": false,
      "special": true
    },
    {
      "id": 4,
      "content": "[PAD]",
      "single_word": false,
      "lstrip": false,
      "rstrip": false,
      "normalized": false,
      "special": true
    },
    {
      "id": 5,
      "content": "[MASK]",
      "single_word": false,
      "lstrip": false,
      "rstrip": false,
      "normalized": false,
      "special": true
    },
    {
      "id": 8000,
      "content": " ",
      "single_word": false,
      "lstrip": false,
      "rstrip": false,
      "normalized": true,
      "special": false
    }
  ],
  "normalizer": {
    "type": "NFKC"
  },
  "pre_tokenizer": {
    "type": "Whitespace"
  },
  "post_processor": null,
  "decoder": null,
  "model": {
    "type": "Unigram",
    "unk_id": 0,
    "vocab": [
      [
        "<unk>",
        0.0
      ],
      [
        "[UNK]",
        0.0
      ],
      [
        "[CLS]",
        0.0
      ],
      [
        "[SEP]",
        0.0
      ],
      [
        "[PAD]",
        0.0
      ],
      [
        "[MASK]",
        0.0
      ],
      [
        "a",
        -2.5963764587069615
      ],
      [
        "n",
        -3.2982602711660967
      ],
      [
        ",",
        -3.573819528685105
      ],
      [
        "an",
        -3.5805228987776108
      ],
      [
        "s",
        -3.84510651310964
      ],
      [
        ".",
        -3.877030481764845
      ],
      [
        "ar",
        -4.071381620236179
      ],
      [
        "i",
        -4.092075013305095
      ],
      [
        "agus",
        -4.158750247161718
      ],
      [
        "í",
        -4.197313843267414
      ],
      [
        "r",
        -4.29533294274116
      ],
      [
        "d",
        -4.370106763649385
      ],
      [
        "t",
        -4.392745283050038
      ],
      [
        ")",
        -4.488594055506949
      ],
      [
        "(",
        -4.490778792631739
      ],
      [
        "e",
        -4.518732945621336
      ],
      [
        "le",
        -4.568902453954186
      ],
      [
        "-",
        -4.69320821137827
      ],
      [
        "h",
        -4.730444778312801
      ],
      [
        "in",
        -4.771905655602522
      ],
      [
        "nó",
        -4.927383090513901
      ],
      [
        "is",
        -4.946917888270557
      ],
      [
        "go",
        -5.010973677066621
      ],
      [
        "dh",
        -5.012068333882912
      ],
      [
        "de",
        -5.176127346787085
      ],
      [
        "sin",
        -5.23474938001463
      ],
      [
        "l",
        -5.235306765628966
      ],
      [
        "o",
        -5.254139603978933
      ],
      [
        "do",
        -5.270438893295312
      ],
      [
        "ag",
        -5.303715922735751
      ],
      [
        "b",
        -5.330834069953882
      ],
      [
        "g",
        -5.347853237385689
      ],
      [
        "ú",
        -5.3758445082479955
      ],
      [
        "seo",
        -5.38978903842588
      ],
      [
        "c",
        -5.396575730319647
      ],
      [
        "ó",
        -5.491632940195679
      ],
      [
        "il",
        -5.4921270985097355
      ],
      [
        "é",
        -5.548115777688263
      ],
      [
        "m",
        -5.550919251533356
      ],
      [
        "chun",
        -5.579542838858217
      ],
      [
        "aon",
        -5.613597964836833
      ],
      [
        "leis",
        -5.619261948890319
      ],
      [
        "ithe",
        -5.669527692324465
      ],
      [
        "f",
        -5.673691672033733
      ],
      [
        "'",
        -5.719039462183009
      ],
      [
        ":",
        -5.790173942411961
      ],
      [
        "ach",
        -5.814980587035299
      ],
      [
        "den",
        -5.825232187006458
      ],
      [
        "alt",
        -5.836763786992016
      ],
      [
        "faoi",
        -5.8582140488200665
      ],
      [
        "sé",
        -5.8736898180996615
      ],
      [
        "idh",
        -5.910277947478836
      ],
      [
        "1",
        -6.003067306801656
      ],
      [
        "mar",
        -6.008167083124311
      ],
      [
        "ch",
        -6.015227254426792
      ],
      [
        "B",
        -6.024332673247052
      ],
      [
        "bhfuil",
        -6.047110738174178
      ],
      [
        ";",
        -6.112191120681572
      ],
      [
        "I",
        -6.16581488845889
      ],
      [
        "Acht",
        -6.168442230634614
      ],
      [
        "atá",
        -6.171980926956179
      ],
      [
        "2",
        -6.186381931869528
      ],
      [
        "A",
        -6.199354650267081
      ],
      [
        "S",
        -6.211307203331657
      ],
      [
        "uine",
        -6.226216663682454
      ],
      [
        "igh",
        -6.232574307111719
      ],
      [
        "chur",
        -6.275027601909203
      ],
      [
        "C",
        -6.298622435289593
      ],
      [
        "\"",
        -6.309155921695792
      ],
      [
        "eile",
        -6.309228530735682
      ],
      [
        "á",
        -6.319782781302143
      ],
      [
        "bheith",
        -6.334372804594066
      ],
      [
        "dá",
        -6.376840839017298
      ],
      [
        "dhéanamh",
        -6.410037607805917
      ],
      [
        "anna",
        -6.440574710133291
      ],
      [
        "3",
        -6.445144425697093
      ],
      [
        "maidi",
        -6.447204435012132
      ],
      [
        "T",
        -6.4536617437321375
      ],
      [
        "nach",
        -6.46952237314858
      ],
      [
        "—",
        -6.49051901487708
      ],
      [
        "Tá",
        -6.500477228227727
      ],
      [
        "ina",
        -6.51256582265572
      ],
      [
        "réir",
        -6.526802240290213
      ],
      [
        "tá",
        -6.534186849957543
      ],
      [
        "don",
        -6.5464593452052355
      ],
      [
        "An",
        -6.57063148141804
      ],
      [
        "L",
        -6.581786342060997
      ],
      [
        "D",
        -6.585268633793642
      ],
      [
        "ná",
        -6.589380203164491
      ],
      [
        "tear",
        -6.5972334147783736
      ],
      [
        "gach",
        -6.602011082894298
      ],
      [
        "p",
        -6.619022086769385
      ],
      [
        "íos",
        -6.6192353919757485
      ],
      [
        "4",
        -6.650196962402678
      ],
      [
        "lena",
        -6.656855706550476
      ],
      [
        "bh",
        -6.660346779636741
      ],
      [
        "Is",
        -6.662508622090366
      ],
      [
        "eidh",
        -6.680468072525481
      ],
      [
        "mh",
        -6.6925304696863295
      ],
      [
        "eanna",
        -6.712720172716842
      ],
      [
        "san",
        -6.714097163385365
      ],
      [
        "/",
        -6.722361153958053
      ],
      [
        "éidir",
        -6.7494395374715275
      ],
      [
        "ir",
        -6.768230776020444
      ],
      [
        "bheid",
        -6.788622418027541
      ],
      [
        "tha",
        -6.791404952791667
      ],
      [
        "Aire",
        -6.801113061224594
      ],
      [
        "5",
        -6.8021070883836385
      ],
      [
        "gcás",
        -6.874555685107292
      ],
      [
        "tú",
        -6.887168570943857
      ],
      [
        "um",
        -6.888548033977512
      ],
      [
        "íonn",
        -6.900245143725295
      ],
      [
        "G",
        -6.903784257452685
      ],
      [
        "trí",
        -6.905001697291269
      ],
      [
        "N",
        -6.916601145166885
      ],
      [
        "tar",
        -6.92491343811811
      ],
      [
        "éis",
        -6.927470092573864
      ],
      [
        "mó",
        -6.928102076920942
      ],
      [
        "faoin",
        -6.932810242073305
      ],
      [
        "M",
        -6.938990255550829
      ],
      [
        "u",
        -6.939880242367113
      ],
      [
        "iad",
        -6.969541890302211
      ],
      [
        "”",
        -6.980639746354429
      ],
      [
        "6",
        -6.981639777285696
      ],
      [
        "lá",
        -6.982529446406081
      ],
      [
        "leith",
        -7.013279324245061
      ],
      [
        "haghaidh",
        -7.017745514979435
      ],
      [
        "gur",
        -7.0193984161598
      ],
      [
        "F",
        -7.022900189735893
      ],
      [
        "P",
        -7.025044531946642
      ],
      [
        "“",
        -7.034833781437909
      ],
      [
        "chuid",
        -7.038464390194465
      ],
      [
        "cha",
        -7.0402893479202815
      ],
      [
        "aoine",
        -7.056893552680729
      ],
      [
        "mháin",
        -7.066169569608296
      ],
      [
        "úsáid",
        -7.070322244056912
      ],
      [
        "thabhair",
        -7.107296872472622
      ],
      [
        "idir",
        -7.108546291497513
      ],
      [
        "ítear",
        -7.109988023650649
      ],
      [
        "Airteagal",
        -7.113706756367108
      ],
      [
        "te",
        -7.123405766954174
      ],
      [
        "y",
        -7.141328935469291
      ],
      [
        "roimh",
        -7.171022733328966
      ],
      [
        "air",
        -7.18861478401498
      ],
      [
        "E",
        -7.192283417285679
      ],
      [
        "im",
        -7.216398370492986
      ],
      [
        "méid",
        -7.217211584360165
      ],
      [
        "isteach",
        -7.219983301229884
      ],
      [
        "mbeid",
        -7.221287680861868
      ],
      [
        "adh",
        -7.23062597929387
      ],
      [
        "amach",
        -7.237443937159413
      ],
      [
        "]",
        -7.241711407836275
      ],
      [
        "[",
        -7.245670502273432
      ],
      [
        "R",
        -7.248153904924868
      ],
      [
        "Ní",
        -7.271973462166512
      ],
      [
        "siad",
        -7.280101584068452
      ],
      [
        "chuig",
        -7.286324854218544
      ],
      [
        "8",
        -7.299258796898443
      ],
      [
        "7",
        -7.312864340072588
      ],
      [
        "9",
        -7.316874034491525
      ],
      [
        "fáil",
        -7.329675389210411
      ],
      [
        "má",
        -7.3356879778753
      ],
      [
        "leana",
        -7.338874322452702
      ],
      [
        "rud",
        -7.340029658157475
      ],
      [
        "’",
        -7.34352937786327
      ],
      [
        "eamh",
        -7.352404120903401
      ],
      [
        "imh",
        -7.356409303573352
      ],
      [
        "arna",
        -7.35735313003461
      ],
      [
        "gan",
        -7.358903335896376
      ],
      [
        "chomh",
        -7.362339056392913
      ],
      [
        "áirithe",
        -7.364092669693229
      ],
      [
        "tréimhse",
        -7.365900057905312
      ],
      [
        "uair",
        -7.370944116828452
      ],
      [
        "aithe",
        -7.374753241486778
      ],
      [
        "féin",
        -7.389925127968761
      ],
      [
        "iú",
        -7.391636580586204
      ],
      [
        "fho",
        -7.391871716811218
      ],
      [
        "nua",
        -7.400125448804911
      ],
      [
        "acu",
        -7.410650363992948
      ],
      [
        "far",
        -7.425076584319543
      ],
      [
        "Rialachá",
        -7.4382933217276594
      ],
      [
        "gá",
        -7.43836651340321
      ],
      [
        "áit",
        -7.447107282821584
      ],
      [
        "mór",
        -7.466008050693526
      ],
      [
        "saor",
        -7.467033060159467
      ],
      [
        "íoc",
        -7.474138490208343
      ],
      [
        "ordú",
        -7.487697738504816
      ],
      [
        "fháil",
        -7.487834424596274
      ],
      [
        "20",
        -7.500169439265697
      ],
      [
        "bhí",
        -7.500346667836938
      ],
      [
        "cur",
        -7.506074078112791
      ],
      [
        "Má",
        -7.507895271746181
      ],
      [
        "fé",
        -7.514359611035258
      ],
      [
        "aigh",
        -7.518517251701244
      ],
      [
        "EN",
        -7.518696555031257
      ],
      [
        "maith",
        -7.531222252649269
      ],
      [
        "údarás",
        -7.539442462476225
      ],
      [
        "Ar",
        -7.546780072334329
      ],
      [
        "10",
        -7.55848957972409
      ],
      [
        "ceann",
        -7.569513080856612
      ],
      [
        "aghaidh",
        -7.575933459948894
      ],
      [
        "sórt",
        -7.579266780919967
      ],
      [
        "uithe",
        -7.583424152602003
      ],
      [
        "bhainean",
        -7.596164961936767
      ],
      [
        "ibé",
        -7.60266670737841
      ],
      [
        "k",
        -7.604474731734374
      ],
      [
        "aisce",
        -7.612179861091709
      ],
      [
        "sonraí",
        -7.61479895504155
      ],
      [
        "?",
        -7.625516174272641
      ],
      [
        "O",
        -7.6267951265835
      ],
      [
        "&",
        -7.628420338720133
      ],
      [
        "aige",
        -7.631829184981314
      ],
      [
        "fh",
        -7.640174034202441
      ],
      [
        "the",
        -7.640587584545188
      ],
      [
        "linn",
        -7.64103252709865
      ],
      [
        "gh",
        -7.642543377221172
      ],
      [
        "leat",
        -7.654890332433701
      ],
      [
        "dtí",
        -7.665706836602463
      ],
      [
        "raibh",
        -7.668212279669865
      ],
      [
        "th",
        -7.694171171360923
      ],
      [
        "déanfa",
        -7.695125028419886
      ],
      [
        "sna",
        -7.698128260940569
      ],
      [
        "cheart",
        -7.698259877349204
      ],
      [
        "bhfeidhm",
        -7.709958233414336
      ],
      [
        "más",
        -7.712760189034361
      ],
      [
        "thar",
        -7.7231800491205504
      ],
      [
        "200",
        -7.725395450099568
      ],
      [
        "ing",
        -7.731521467826344
      ],
      [
        "líne",
        -7.742437857255206
      ],
      [
        "Le",
        -7.743349599204063
      ],
      [
        "dul",
        -7.744129345219668
      ],
      [
        "fear",
        -7.750839815761623
      ],
      [
        "Uimh",
        -7.755722552587248
      ],
      [
        "istigh",
        -7.766599061674593
      ],
      [
        "fo",
        -7.768130639764801
      ],
      [
        "nuair",
        -7.769601142921435
      ],
      [
        "porn",
        -7.771051733242844
      ],
      [
        "ábhar",
        -7.777607181197631
      ],
      [
        "dáta",
        -7.778107449639365
      ],
      [
        "cháin",
        -7.79165799513014
      ],
      [
        "bhliain",
        -7.791925980819098
      ],
      [
        "ionad",
        -7.794144723483044
      ],
      [
        "seirbhís",
        -7.794699800323773
      ],
      [
        "freisi",
        -7.798127109480658
      ],
      [
        "íodh",
        -7.799717392855595
      ],
      [
        "U",
        -7.814629125280877
      ],
      [
        "iomlán",
        -7.816170341914849
      ],
      [
        "baineann",
        -7.816800233699697
      ],
      [
        "iarratas",
        -7.817127362255362
      ],
      [
        "uas",
        -7.819245080797899
      ],
      [
        "ár",
        -7.819885284342395
      ],
      [
        "imeachta",
        -7.8202254514642515
      ],
      [
        "mé",
        -7.823697387100728
      ],
      [
        "náisiúnta",
        -7.824122948326335
      ],
      [
        "ciallaíon",
        -7.828891629282872
      ],
      [
        "ndáil",
        -7.833783133543841
      ],
      [
        "19",
        -7.83750117479953
      ],
      [
        "neamh",
        -7.837563948556387
      ],
      [
        "ailt",
        -7.838008077144492
      ],
      [
        "inneadh",
        -7.845515490557337
      ],
      [
        "on",
        -7.849882379862177
      ],
      [
        "chéad",
        -7.850406744781426
      ],
      [
        "léir",
        -7.853276310584302
      ],
      [
        "0",
        -7.858794333778189
      ],
      [
        "cheann",
        -7.859198552599573
      ],
      [
        "dó",
        -7.864368747991956
      ],
      [
        "tráth",
        -7.875053656272254
      ],
      [
        "roinnt",
        -7.881549692521534
      ],
      [
        "amhlaid",
        -7.883235179802143
      ],
      [
        "dtagraí",
        -7.893261777839345
      ],
      [
        "eann",
        -7.898324147565428
      ],
      [
        "H",
        -7.898645005047024
      ],
      [
        "iomchu",
        -7.901787398791486
      ],
      [
        "fearr",
        -7.9168249389835665
      ],
      [
        "ath",
        -7.9245409207739055
      ],
      [
        "bliana",
        -7.931180477662608
      ],
      [
        "bhfo",
        -7.9318075010438465
      ],
      [
        "críocha",
        -7.933924651631047
      ],
      [
        "féadfaid",
        -7.934494364655277
      ],
      [
        "feidhm",
        -7.939071779261316
      ],
      [
        "deimhnithe",
        -7.946487476421262
      ],
      [
        "mír",
        -7.952176393597191
      ],
      [
        "bearta",
        -7.952485607590495
      ],
      [
        "feidhme",
        -7.954932406741259
      ],
      [
        "Ballstá",
        -7.961582724477853
      ],
      [
        "tiúir",
        -7.971133755972579
      ],
      [
        "mo",
        -7.97456919818233
      ],
      [
        "áiríte",
        -7.976352178560424
      ],
      [
        "bith",
        -7.980210584517526
      ],
      [
        "bhaint",
        -7.983736826293942
      ],
      [
        "Coimisiún",
        -7.986040388472298
      ],
      [
        "Eorpach",
        -7.989381362264681
      ],
      [
        "cuideachta",
        -7.989631889599592
      ],
      [
        "éifeacht",
        -7.9913772635806275
      ],
      [
        "hEorpa",
        -7.994880702621759
      ],
      [
        "mhéid",
        -8.01316217172944
      ],
      [
        "díreach",
        -8.019764775224916
      ],
      [
        "AE",
        -8.020191459291947
      ],
      [
        "bhun",
        -8.026286227762224
      ],
      [
        "15",
        -8.027455923986476
      ],
      [
        "forála",
        -8.031375488606157
      ],
      [
        "fógra",
        -8.03834219030443
      ],
      [
        "feadh",
        -8.03921891537685
      ],
      [
        "luach",
        -8.039364280420461
      ],
      [
        "Cuntas",
        -8.053218300963227
      ],
      [
        "Aonta",
        -8.053248144475395
      ],
      [
        "Aontais",
        -8.053315964533585
      ],
      [
        "chéile",
        -8.053481063730276
      ],
      [
        "Mar",
        -8.053889027641118
      ],
      [
        "amp",
        -8.058519621484066
      ],
      [
        "eas",
        -8.062841675579078
      ],
      [
        "gcomhréi",
        -8.068082484419001
      ],
      [
        "12",
        -8.068557645674328
      ],
      [
        "ion",
        -8.075865454353938
      ],
      [
        "for",
        -8.077243538589371
      ],
      [
        "duit",
        -8.079389553223999
      ],
      [
        "áireamh",
        -8.083027331762162
      ],
      [
        "líon",
        -8.085648688990409
      ],
      [
        "céanna",
        -8.089298711739755
      ],
      [
        "eadh",
        -8.09168989748815
      ],
      [
        "Féadfai",
        -8.092331120301756
      ],
      [
        "AN",
        -8.093446504106112
      ],
      [
        "ndéanfa",
        -8.095178370814804
      ],
      [
        "CE",
        -8.097985220037852
      ],
      [
        "z",
        -8.11182244896954
      ],
      [
        "Déanfa",
        -8.111943088681079
      ],
      [
        "comh",
        -8.112923581757109
      ],
      [
        "@",
        -8.114352319741261
      ],
      [
        "láthair",
        -8.117707213695358
      ],
      [
        "oifig",
        -8.120629631083013
      ],
      [
        "eideal",
        -8.12592490133395
      ],
      [
        "leo",
        -8.127457032695421
      ],
      [
        "rialachá",
        -8.137240432573801
      ],
      [
        "lú",
        -8.141352604194644
      ],
      [
        "dlí",
        -8.149366934006803
      ],
      [
        "mhí",
        -8.152039350194478
      ],
      [
        "uisce",
        -8.153060336732485
      ],
      [
        "ála",
        -8.153494042272843
      ],
      [
        "áil",
        -8.155172654709078
      ],
      [
        "w",
        -8.17240248016684
      ],
      [
        "chuir",
        -8.178528464514802
      ],
      [
        "v",
        -8.178662659649218
      ],
      [
        "K",
        -8.181005739189974
      ],
      [
        "úil",
        -8.181442820978965
      ],
      [
        "iarraid",
        -8.182716820794756
      ],
      [
        "cuid",
        -8.183237821177958
      ],
      [
        "Bord",
        -8.184717750830192
      ],
      [
        "leor",
        -8.187148019041064
      ],
      [
        "dhá",
        -8.189137959061126
      ],
      [
        "déanta",
        -8.193299954170605
      ],
      [
        "airgead",
        -8.194095920450339
      ],
      [
        "Agus",
        -8.194887295361255
      ],
      [
        "Chun",
        -8.195866523964156
      ],
      [
        "haon",
        -8.196021810483291
      ],
      [
        "V",
        -8.197991378810912
      ],
      [
        "Stát",
        -8.198284137178195
      ],
      [
        "éarla",
        -8.203458144624532
      ],
      [
        "ainm",
        -8.204623806189261
      ],
      [
        "síos",
        -8.205410814804633
      ],
      [
        "cinn",
        -8.207109363933643
      ],
      [
        "Ch",
        -8.213174342636698
      ],
      [
        "gníomh",
        -8.217468798229358
      ],
      [
        "teacht",
        -8.23122860510828
      ],
      [
        "mhír",
        -8.237167851115618
      ],
      [
        "Ard",
        -8.238354128756436
      ],
      [
        "chóir",
        -8.239931801575835
      ],
      [
        "eachas",
        -8.245018432083153
      ],
      [
        "mbea",
        -8.247552755475544
      ],
      [
        "coinníollach",
        -8.248440207101169
      ],
      [
        "oifigeach",
        -8.249366363674664
      ],
      [
        "obair",
        -8.254062449029302
      ],
      [
        "mb",
        -8.25457750568884
      ],
      [
        "eacha",
        -8.255332711431164
      ],
      [
        "ceart",
        -8.260721815253197
      ],
      [
        "éagsúla",
        -8.267041812662605
      ],
      [
        "of",
        -8.267493020715051
      ],
      [
        "18",
        -8.268009111212084
      ],
      [
        "mura",
        -8.2696415958046
      ],
      [
        "30",
        -8.270792567056676
      ],
      [
        "!",
        -8.271001483401708
      ],
      [
        "gheall",
        -8.272649890301182
      ],
      [
        "gComhairle",
        -8.287536451866302
      ],
      [
        "De",
        -8.28865438077622
      ],
      [
        "–",
        -8.289606665865415
      ],
      [
        "Éireann",
        -8.290151194230301
      ],
      [
        "dtaobh",
        -8.296582123816059
      ],
      [
        "aíonn",
        -8.299616531836389
      ],
      [
        "éanann",
        -8.299727563399728
      ],
      [
        "bhrí",
        -8.301437403113924
      ],
      [
        "14",
        -8.302159109086837
      ],
      [
        "11",
        -8.302407863100495
      ],
      [
        "ghlacadh",
        -8.303186230075337
      ],
      [
        "comhalta",
        -8.304126348276355
      ],
      [
        "Airgeada",
        -8.30578957443084
      ],
      [
        "rialacha",
        -8.306890155596477
      ],
      [
        "iúil",
        -8.310370454825865
      ],
      [
        "earra",
        -8.313355648705903
      ],
      [
        "áitiú",
        -8.314482522486319
      ],
      [
        "leas",
        -8.320003737178192
      ],
      [
        "fad",
        -8.322006913974938
      ],
      [
        "eolas",
        -8.334077150747028
      ],
      [
        "dóibh",
        -8.340495787091724
      ],
      [
        "airgeadai",
        -8.34279992118365
      ],
      [
        "beag",
        -8.345257526984977
      ],
      [
        "niú",
        -8.352740781133729
      ],
      [
        "ráta",
        -8.357636580062017
      ],
      [
        "Faoi",
        -8.360218164576224
      ],
      [
        "fén",
        -8.360440920858698
      ],
      [
        "Seo",
        -8.363635320174268
      ],
      [
        "W",
        -8.366666130856252
      ],
      [
        "ionca",
        -8.378360662642319
      ],
      [
        "each",
        -8.379401124894692
      ],
      [
        "talamh",
        -8.379461328465794
      ],
      [
        "féadfa",
        -8.381830861975631
      ],
      [
        "Údará",
        -8.382414697795245
      ],
      [
        "cion",
        -8.385451991491854
      ],
      [
        "cuí",
        -8.386090733046242
      ],
      [
        "Chomhairle",
        -8.392367888169591
      ],
      [
        "Ceist",
        -8.402852648617023
      ],
      [
        "Fuaim",
        -8.411352868971413
      ],
      [
        "pé",
        -8.412849389959272
      ],
      [
        "rith",
        -8.417105305561734
      ],
      [
        "scéim",
        -8.417579302466521
      ],
      [
        "táirgí",
        -8.418345698776868
      ],
      [
        "éanamh",
        -8.419244219865552
      ],
      [
        "áin",
        -8.42580479877225
      ],
      [
        "ip",
        -8.431648843314168
      ],
      [
        "Ach",
        -8.436585291067185
      ],
      [
        "Tuillea",
        -8.43705384484193
      ],
      [
        "liain",
        -8.443358930591966
      ],
      [
        "cht",
        -8.444594015076138
      ],
      [
        "ph",
        -8.444978692942037
      ],
      [
        "faidh",
        -8.447216658031603
      ],
      [
        "chuideachta",
        -8.448801920021527
      ],
      [
        "bhíonn",
        -8.449107966632077
      ],
      [
        "201",
        -8.452643189005537
      ],
      [
        "imid",
        -8.456442709735882
      ],
      [
        "dhéanfa",
        -8.458525491503417
      ],
      [
        "16",
        -8.459702701686378
      ],
      [
        "uile",
        -8.460242525460618
      ],
      [
        "físeá",
        -8.463578707638975
      ],
      [
        "199",
        -8.465135870405515
      ],
      [
        "Coimisinéir",
        -8.470052383412275
      ],
      [
        "leibhéal",
        -8.476250685221096
      ],
      [
        "Aon",
        -8.479295607335384
      ],
      [
        "iníoc",
        -8.482520692697005
      ],
      [
        "Co",
        -8.490630087418124
      ],
      [
        "cé",
        -8.494131154527967
      ],
      [
        "Cé",
        -8.494139617756389
      ],
      [
        "Ag",
        -8.494587056681585
      ],
      [
        "tríd",
        -8.501479254366888
      ],
      [
        "Ó",
        -8.505416316822485
      ],
      [
        "Sceideal",
        -8.506991845777277
      ],
      [
        "chlár",
        -8.509316772431823
      ],
      [
        "beid",
        -8.512452163748678
      ],
      [
        "clár",
        -8.515022062808628
      ],
      [
        "aois",
        -8.518125004756076
      ],
      [
        "%",
        -8.518635963982735
      ],
      [
        "193",
        -8.522095451469667
      ],
      [
        "deirea",
        -8.524245378198293
      ],
      [
        "tagairt",
        -8.526571087187609
      ],
      [
        "ama",
        -8.535544270172103
      ],
      [
        "fu",
        -8.538035973786759
      ],
      [
        "deara",
        -8.540496133803503
      ],
      [
        "óir",
        -8.54223183811099
      ],
      [
        "13",
        -8.548326759254843
      ],
      [
        "fó",
        -8.55563182084154
      ],
      [
        "orthu",
        -8.557170255454807
      ],
      [
        "mí",
        -8.557381571941377
      ],
      [
        "suim",
        -8.56073475021311
      ],
      [
        "scríbhinn",
        -8.562025781285517
      ],
      [
        "Comhairle",
        -8.562335608552047
      ],
      [
        "co",
        -8.564470111708971
      ],
      [
        "Á",
        -8.564506630798125
      ],
      [
        "réims",
        -8.568432306353337
      ],
      [
        "gcuid",
        -8.568788939525717
      ],
      [
        "athrú",
        -8.570177732889663
      ],
      [
        "us",
        -8.57130924540932
      ],
      [
        "000",
        -8.572767283874505
      ],
      [
        "gréasá",
        -8.576975732449863
      ],
      [
        "cuirea",
        -8.577420671685337
      ],
      [
        "baint",
        -8.57949028423646
      ],
      [
        "Ã",
        -8.580285762582255
      ],
      [
        "Pharlaimint",
        -8.584513404283452
      ],
      [
        "chomhalta",
        -8.585251066841991
      ],
      [
        "fianaise",
        -8.587401483722683
      ],
      [
        "ill",
        -8.588096313813459
      ],
      [
        "Chúirt",
        -8.590052121145876
      ],
      [
        "déana",
        -8.59232505197141
      ],
      [
        "agtha",
        -8.594272165799577
      ],
      [
        "artha",
        -8.596530333506262
      ],
      [
        "críche",
        -8.598495000358938
      ],
      [
        "fhéadfadh",
        -8.598815458672567
      ],
      [
        "slí",
        -8.599135367412977
      ],
      [
        "sholátha",
        -8.60452696607353
      ],
      [
        "aistriú",
        -8.604565641383648
      ],
      [
        "leasú",
        -8.60573671417001
      ],
      [
        "cead",
        -8.6094260913315
      ],
      [
        "chloi",
        -8.609917862648086
      ],
      [
        "limisté",
        -8.615245706269075
      ],
      [
        "ACHT",
        -8.619930665497709
      ],
      [
        "deimhniú",
        -8.622534229859168
      ],
      [
        "speisialta",
        -8.623141306766126
      ],
      [
        "oir",
        -8.624629199446288
      ],
      [
        "monaróir",
        -8.628344190917174
      ],
      [
        "agat",
        -8.630087229856409
      ],
      [
        "oiriúnach",
        -8.631400243693768
      ],
      [
        "liosta",
        -8.632918505723524
      ],
      [
        "bunaithe",
        -8.633419491429418
      ],
      [
        "tSín",
        -8.633914563906265
      ],
      [
        "abhair",
        -8.6418927984721
      ],
      [
        "cánach",
        -8.644357160739249
      ],
      [
        "taobh",
        -8.646784453545642
      ],
      [
        "pe",
        -8.649749592583635
      ],
      [
        "24",
        -8.652707112022547
      ],
      [
        "páirt",
        -8.653638402355627
      ],
      [
        "Th",
        -8.654508768593846
      ],
      [
        "chomhlíona",
        -8.656092756777303
      ],
      [
        "planda",
        -8.657804643742947
      ],
      [
        "dhíol",
        -8.661571297683604
      ],
      [
        "196",
        -8.661765014216705
      ],
      [
        "iúl",
        -8.664867581211826
      ],
      [
        "mhaith",
        -8.667668891793179
      ],
      [
        "bhféadfa",
        -8.669209207946933
      ],
      [
        "ceadúna",
        -8.669310135828628
      ],
      [
        "192",
        -8.671369151298371
      ],
      [
        "Stáit",
        -8.671497546311834
      ],
      [
        "oibre",
        -8.674068580702349
      ],
      [
        "all",
        -8.674162065921486
      ],
      [
        "Choimisiú",
        -8.674164921516121
      ],
      [
        "téarma",
        -8.674729597977088
      ],
      [
        "25",
        -8.67496329148781
      ],
      [
        "thug",
        -8.677753428397246
      ],
      [
        "NA",
        -8.679456882903512
      ],
      [
        "Chéad",
        -8.679831712635808
      ],
      [
        "íochta",
        -8.683934239132917
      ],
      [
        "léi",
        -8.687684993413603
      ],
      [
        "áitreabh",
        -8.688054072256019
      ],
      [
        "éachaint",
        -8.689322434043607
      ],
      [
        "197",
        -8.693037486453955
      ],
      [
        "pearsanta",
        -8.693904450892296
      ],
      [
        "láithreá",
        -8.696561286608096
      ],
      [
        "17",
        -8.69684973924193
      ],
      [
        "orthaí",
        -8.698472825873598
      ],
      [
        "hiomlán",
        -8.703640491878295
      ],
      [
        "foca",
        -8.705464860068787
      ],
      [
        "táirge",
        -8.707566102478971
      ],
      [
        "Eorpaigh",
        -8.708868284073333
      ],
      [
        "tras",
        -8.710567508071513
      ],
      [
        "Ionca",
        -8.710744349030836
      ],
      [
        "chás",
        -8.71506940842956
      ],
      [
        "UID",
        -8.719535562764605
      ],
      [
        "gcéad",
        -8.722056100978556
      ],
      [
        "Roimh",
        -8.722442141350339
      ],
      [
        "éil",
        -8.72343269916169
      ],
      [
        "údará",
        -8.723729043892359
      ],
      [
        "rogha",
        -8.730840530995064
      ],
      [
        "suíomh",
        -8.730921558293002
      ],
      [
        "álta",
        -8.733509555022273
      ],
      [
        "fiú",
        -8.736337612390216
      ],
      [
        "faisnéis",
        -8.738821075943228
      ],
      [
        "HD",
        -8.739631193334931
      ],
      [
        "ríomh",
        -8.742295197564818
      ],
      [
        "ábhartha",
        -8.742819630902915
      ],
      [
        "íocaíocht",
        -8.74569074901354
      ],
      [
        "seirbhíse",
        -8.747865976346171
      ],
      [
        "súil",
        -8.74807600304108
      ],
      [
        "ndia",
        -8.749641916941105
      ],
      [
        "amhail",
        -8.752986514511253
      ],
      [
        "che",
        -8.753916915265144
      ],
      [
        "bun",
        -8.757096568292457
      ],
      [
        "cad",
        -8.757990330070905
      ],
      [
        "mian",
        -8.759721867474902
      ],
      [
        "gníomhaíochta",
        -8.761802975512232
      ],
      [
        "fás",
        -8.762402884767202
      ],
      [
        "eal",
        -8.763708586575572
      ],
      [
        "Treoir",
        -8.76662048075137
      ],
      [
        "‘",
        -8.769612972674079
      ],
      [
        "iúla",
        -8.770772688816521
      ],
      [
        "Bhí",
        -8.771851902097492
      ],
      [
        "Oifig",
        -8.77312628672069
      ],
      [
        "Go",
        -8.775220612030704
      ],
      [
        "cu",
        -8.778520298666168
      ],
      [
        "2017",
        -8.7864736441996
      ],
      [
        "scríobh",
        -8.78931841568911
      ],
      [
        "ur",
        -8.792185580360695
      ],
      [
        "inearálta",
        -8.79369268738638
      ],
      [
        "iompar",
        -8.794192079798929
      ],
      [
        "shonraí",
        -8.796207884665563
      ],
      [
        "nár",
        -8.7963001306264
      ],
      [
        "poiblí",
        -8.797307039175784
      ],
      [
        "muid",
        -8.797312276392926
      ],
      [
        "huaire",
        -8.798036177160743
      ],
      [
        "nois",
        -8.799768344152838
      ],
      [
        "leagan",
        -8.800128984620983
      ],
      [
        "bia",
        -8.801157218651028
      ],
      [
        "fhonn",
        -8.80333546178168
      ],
      [
        "gnó",
        -8.80665207566266
      ],
      [
        "hAcht",
        -8.80861329692851
      ],
      [
        "The",
        -8.810348842799074
      ],
      [
        "comhlacht",
        -8.810450599844684
      ],
      [
        "ite",
        -8.810515496418208
      ],
      [
        "dháta",
        -8.811185099777486
      ],
      [
        "2016",
        -8.812233422592467
      ],
      [
        "cluich",
        -8.815529010548397
      ],
      [
        "ndearna",
        -8.81726799499814
      ],
      [
        "rinne",
        -8.819504592129444
      ],
      [
        "bhea",
        -8.822128218619621
      ],
      [
        "fhaisnéis",
        -8.82285730276443
      ],
      [
        "cineál",
        -8.82542055180598
      ],
      [
        "áirithi",
        -8.825522768903795
      ],
      [
        "rialú",
        -8.825834539664497
      ],
      [
        "dhéanta",
        -8.827611331940362
      ],
      [
        "cluichí",
        -8.832931776378087
      ],
      [
        "ghnáth",
        -8.835796552950331
      ],
      [
        "ith",
        -8.837322989228733
      ],
      [
        "ola",
        -8.83901757364804
      ],
      [
        "chosaint",
        -8.839775773585437
      ],
      [
        "laghdú",
        -8.842596071861966
      ],
      [
        "lagha",
        -8.845526469687758
      ],
      [
        "Comh",
        -8.846426644338267
      ],
      [
        "measfa",
        -8.846874846532732
      ],
      [
        "dóigh",
        -8.848008388507512
      ],
      [
        "togra",
        -8.849211597989754
      ],
      [
        "26",
        -8.850031133588978
      ],
      [
        "Féadfa",
        -8.85101768420512
      ],
      [
        "cúram",
        -8.851874372317889
      ],
      [
        "dochar",
        -8.853167966728085
      ],
      [
        "fíor",
        -8.85504888302249
      ],
      [
        "II",
        -8.857322634815741
      ],
      [
        "choimeád",
        -8.858419277512326
      ],
      [
        "óra",
        -8.8592711951637
      ],
      [
        "bhunú",
        -8.8598564370314
      ],
      [
        "gurb",
        -8.860901255807311
      ],
      [
        "gceist",
        -8.861097786565267
      ],
      [
        "chineál",
        -8.861532907477883
      ],
      [
        "trádála",
        -8.861788843531258
      ],
      [
        "50",
        -8.862161040978526
      ],
      [
        "sláinte",
        -8.867679379475117
      ],
      [
        "oilsiú",
        -8.8683529579109
      ],
      [
        "fásta",
        -8.868394083729918
      ],
      [
        "dhiai",
        -8.868474719272026
      ],
      [
        "ghaidh",
        -8.868557695208384
      ],
      [
        "córas",
        -8.86901024667264
      ],
      [
        "2018",
        -8.87047804015928
      ],
      [
        "onraithe",
        -8.870872065689628
      ],
      [
        "ocht",
        -8.871034345921652
      ],
      [
        "Bh",
        -8.871041339192264
      ],
      [
        "ochair",
        -8.872428087875644
      ],
      [
        "onair",
        -8.873046535573545
      ],
      [
        "chaighdeán",
        -8.873385825389724
      ],
      [
        "Ú",
        -8.873549647553206
      ],
      [
        "gcónaí",
        -8.876414367543305
      ],
      [
        "sheola",
        -8.877602717008152
      ],
      [
        "có",
        -8.877958683737905
      ],
      [
        "gcoinne",
        -8.87900209515594
      ],
      [
        "toiliú",
        -8.880027364905828
      ],
      [
        "ceap",
        -8.880088271351369
      ],
      [
        "ileamh",
        -8.88032010760067
      ],
      [
        "cúis",
        -8.881768543360465
      ],
      [
        "ionann",
        -8.882767724173682
      ],
      [
        "Phríomh",
        -8.886422257124465
      ],
      [
        "oirí",
        -8.888046650314127
      ],
      [
        "shin",
        -8.888111563436285
      ],
      [
        "lán",
        -8.891340277498546
      ],
      [
        "oibriú",
        -8.895091477045863
      ],
      [
        "Chuid",
        -8.895488786881923
      ],
      [
        "Gaeilge",
        -8.895590590827378
      ],
      [
        "chinneadh",
        -8.895846583234821
      ],
      [
        "cás",
        -8.897060658238825
      ],
      [
        "éasca",
        -8.898065633122407
      ],
      [
        "Cuir",
        -8.899415550141512
      ],
      [
        "reatha",
        -8.899758629640914
      ],
      [
        "x",
        -8.900720449224977
      ],
      [
        "seach",
        -8.90522320309654
      ],
      [
        "Roinn",
        -8.906928320777013
      ],
      [
        "cheana",
        -8.90919313739638
      ],
      [
        "ru",
        -8.909618129726766
      ],
      [
        "IN",
        -8.91092896811562
      ],
      [
        "údara",
        -8.91226706393617
      ],
      [
        "aird",
        -8.912981161846433
      ],
      [
        "Do",
        -8.915359006660461
      ],
      [
        "Maidir",
        -8.916894727607033
      ],
      [
        "mheas",
        -8.91772599390012
      ],
      [
        "21",
        -8.917741018840221
      ],
      [
        "cosú",
        -8.91938019975004
      ],
      [
        "Twitter",
        -8.923510639121101
      ],
      [
        "dúin",
        -8.92395962266492
      ],
      [
        "láithreach",
        -8.92450876073131
      ],
      [
        "cúig",
        -8.927125339983398
      ],
      [
        "Fómha",
        -8.929219421733432
      ],
      [
        "fhorbairt",
        -8.93061596428422
      ],
      [
        "cuir",
        -8.932724654895862
      ],
      [
        "oisc",
        -8.932997332661568
      ],
      [
        "28",
        -8.937514454048017
      ],
      [
        "tor",
        -8.93909936415978
      ],
      [
        "íocaíochta",
        -8.939138495851102
      ],
      [
        "téarmaí",
        -8.94063175398347
      ],
      [
        "ort",
        -8.944021923595873
      ],
      [
        "barr",
        -8.94416931628142
      ],
      [
        "bhonn",
        -8.94613305551026
      ],
      [
        "leathan",
        -8.946284076415447
      ],
      [
        "22",
        -8.947399242928753
      ],
      [
        "ainneoi",
        -8.947936894051473
      ],
      [
        "mhór",
        -8.950072217950932
      ],
      [
        "2013",
        -8.9503764026551
      ],
      [
        "Baile",
        -8.95269957657591
      ],
      [
        "cóip",
        -8.956197699389376
      ],
      [
        "dheon",
        -8.956317349606131
      ],
      [
        "31",
        -8.956332707448334
      ],
      [
        "tuarascá",
        -8.95652485144289
      ],
      [
        "Leasú",
        -8.957401487037142
      ],
      [
        "bhrái",
        -8.959614950485431
      ],
      [
        "100",
        -8.962459940354233
      ],
      [
        "ráitea",
        -8.962741206991453
      ],
      [
        "Níl",
        -8.963210243193625
      ],
      [
        "cáin",
        -8.965501006092886
      ],
      [
        "gcomhairle",
        -8.966372649066887
      ],
      [
        "Cad",
        -8.96778465723486
      ],
      [
        "Be",
        -8.972451181967674
      ],
      [
        "doiciméad",
        -8.974340017062373
      ],
      [
        "athair",
        -8.975132972764158
      ],
      [
        "riachtanach",
        -8.975967348180792
      ],
      [
        "príomh",
        -8.977562026651784
      ],
      [
        "cláraithe",
        -8.980384767914611
      ],
      [
        "leath",
        -8.981219525604832
      ],
      [
        "costais",
        -8.985599604443415
      ],
      [
        "comhaont",
        -8.985736773545508
      ],
      [
        "liom",
        -8.986449552897188
      ],
      [
        "forbairt",
        -8.989361495020866
      ],
      [
        "ghabha",
        -8.993229201140785
      ],
      [
        "Náisiúnta",
        -8.993329704297906
      ],
      [
        "Dé",
        -8.994158337739481
      ],
      [
        "cuirfid",
        -8.994639523366217
      ],
      [
        "gcion",
        -8.99718127302479
      ],
      [
        "Í",
        -8.998159779415698
      ],
      [
        "thaobh",
        -8.99836183195152
      ],
      [
        "bhua",
        -9.000239374920938
      ],
      [
        "fhógra",
        -9.000757924585734
      ],
      [
        "chúis",
        -9.003947820925863
      ],
      [
        "cabhr",
        -9.004126045161069
      ],
      [
        "airde",
        -9.004285815773322
      ],
      [
        "fheidhmiú",
        -9.005244260484005
      ],
      [
        "‐",
        -9.008432389039465
      ],
      [
        "ve",
        -9.00986475964729
      ],
      [
        "Seirbhís",
        -9.010144493167791
      ],
      [
        "chumhacht",
        -9.01173521488581
      ],
      [
        "bláth",
        -9.012315889464723
      ],
      [
        "Idir",
        -9.012612807879028
      ],
      [
        "luaite",
        -9.013170506609931
      ],
      [
        "LE",
        -9.016848737943626
      ],
      [
        "iasacht",
        -9.0169625811501
      ],
      [
        "lann",
        -9.02023679500971
      ],
      [
        "rochtain",
        -9.022335842801423
      ],
      [
        "eachta",
        -9.02286736144254
      ],
      [
        "ly",
        -9.02379035278366
      ],
      [
        "comhair",
        -9.025529100437131
      ],
      [
        "2012",
        -9.025808987230388
      ],
      [
        "GUS",
        -9.025930763936389
      ],
      [
        "teach",
        -9.02806054144596
      ],
      [
        "achomharc",
        -9.028158048700796
      ],
      [
        "Coiste",
        -9.02938698072346
      ],
      [
        "óirí",
        -9.03009673773909
      ],
      [
        "194",
        -9.03132512599225
      ],
      [
        "Leasa",
        -9.031805710046276
      ],
      [
        "lu",
        -9.03194665099844
      ],
      [
        "dtugta",
        -9.0343285789594
      ],
      [
        "Nua",
        -9.036618168088149
      ],
      [
        "Sh",
        -9.037099957153927
      ],
      [
        "23",
        -9.037135042202571
      ],
      [
        "195",
        -9.038225375935472
      ],
      [
        "Léim",
        -9.039783373834428
      ],
      [
        "céim",
        -9.041039314654276
      ],
      [
        "dara",
        -9.041897180830338
      ],
      [
        "tuga",
        -9.04306588797328
      ],
      [
        "rátaí",
        -9.04338974719823
      ],
      [
        "measún",
        -9.047136296689777
      ],
      [
        "caighdeán",
        -9.047666366570349
      ],
      [
        "Cluich",
        -9.047732218095309
      ],
      [
        "thora",
        -9.0481282035636
      ],
      [
        "iasc",
        -9.048838705331024
      ],
      [
        "soláthar",
        -9.05174685218686
      ],
      [
        "ex",
        -9.05181578968334
      ],
      [
        "chéanna",
        -9.051874795086924
      ],
      [
        "27",
        -9.052845435693246
      ],
      [
        "scaire",
        -9.05625519278895
      ],
      [
        "leasa",
        -9.056356622312109
      ],
      [
        "measc",
        -9.060805353476834
      ],
      [
        "irgid",
        -9.061952903202531
      ],
      [
        "fhor",
        -9.062237383871176
      ],
      [
        "sásta",
        -9.063227210747169
      ],
      [
        "freagrach",
        -9.06340578623112
      ],
      [
        "tuairim",
        -9.063459295381154
      ],
      [
        "shampla",
        -9.063892488156942
      ],
      [
        "ordu",
        -9.06833853030123
      ],
      [
        "Uimhir",
        -9.069079273498453
      ],
      [
        "achta",
        -9.070947728827726
      ],
      [
        "tacaíocht",
        -9.07142408445737
      ],
      [
        "leanbh",
        -9.071577133966626
      ],
      [
        "cheangal",
        -9.072076807418192
      ],
      [
        "tharla",
        -9.078194817563404
      ],
      [
        "praghas",
        -9.078457503542523
      ],
      [
        "Re",
        -9.078547988680103
      ],
      [
        "againn",
        -9.079609709140358
      ],
      [
        "faisnéise",
        -9.07973682457493
      ],
      [
        "scoth",
        -9.08038134522748
      ],
      [
        "dath",
        -9.081123618561056
      ],
      [
        "chlárú",
        -9.08164144143889
      ],
      [
        "Act",
        -9.08178110640177
      ],
      [
        "tos",
        -9.0844347195037
      ],
      [
        "íoslódáil",
        -9.084468918542008
      ],
      [
        "ation",
        -9.08505431676118
      ],
      [
        "scrío",
        -9.086858287419629
      ],
      [
        "X",
        -9.08833014142676
      ],
      [
        "iompai",
        -9.08872161709768
      ],
      [
        "uíonn",
        -9.09028462574851
      ],
      [
        "For",
        -9.09188233975246
      ],
      [
        "29",
        -9.092880058661386
      ],
      [
        "tír",
        -9.092881985358702
      ],
      [
        "breise",
        -9.095451992571174
      ],
      [
        "Mh",
        -9.0957527006605
      ],
      [
        "díol",
        -9.097048801003568
      ],
      [
        "cruach",
        -9.097445438302966
      ],
      [
        "cuirfe",
        -9.099119031025577
      ],
      [
        "íortha",
        -9.09919562083076
      ],
      [
        "fhios",
        -9.101186970519093
      ],
      [
        "Aibreá",
        -9.10124985782538
      ],
      [
        "hord",
        -9.104097011343104
      ],
      [
        "inne",
        -9.10421289967924
      ],
      [
        "ghairm",
        -9.105187559306964
      ],
      [
        "aothair",
        -9.105276732243905
      ],
      [
        "éigin",
        -9.105821116090784
      ],
      [
        "tionscada",
        -9.1061677258559
      ],
      [
        "sula",
        -9.108364145579548
      ],
      [
        "bheala",
        -9.109028331733946
      ],
      [
        "cheannach",
        -9.10916702473134
      ],
      [
        "áir",
        -9.10983092197445
      ],
      [
        "grúpa",
        -9.111822575923204
      ],
      [
        "inni",
        -9.111988317748573
      ],
      [
        "oll",
        -9.11230000471728
      ],
      [
        "eiridh",
        -9.112537133390576
      ],
      [
        "fhéadfa",
        -9.11263188592284
      ],
      [
        "lae",
        -9.112833393118942
      ],
      [
        "lucht",
        -9.113702839258789
      ],
      [
        "leagt",
        -9.113951449867354
      ],
      [
        "roghnú",
        -9.114025485304692
      ],
      [
        "faid",
        -9.11661989165894
      ],
      [
        "insean",
        -9.11746102705525
      ],
      [
        "úsáide",
        -9.118969633350147
      ],
      [
        "iontach",
        -9.120351324662469
      ],
      [
        "oinneáil",
        -9.121915179213952
      ],
      [
        "cothrom",
        -9.12213192588182
      ],
      [
        "eisiúint",
        -9.122629579314562
      ],
      [
        "fhorála",
        -9.123009843137051
      ],
      [
        "abairt",
        -9.123108527108151
      ],
      [
        "chiont",
        -9.124558692581754
      ],
      [
        "liúnta",
        -9.124734577478783
      ],
      [
        "bán",
        -9.125541172446894
      ],
      [
        "lua",
        -9.126297904450348
      ],
      [
        "mba",
        -9.128704694125478
      ],
      [
        "Z",
        -9.130820474978368
      ],
      [
        "seilbh",
        -9.131297721147137
      ],
      [
        "uaithe",
        -9.1315620830422
      ],
      [
        "mhonarcha",
        -9.131605065091753
      ],
      [
        "stiúrthóir",
        -9.132141389015036
      ],
      [
        "siúl",
        -9.132226917991806
      ],
      [
        "modh",
        -9.132246015355552
      ],
      [
        "Cona",
        -9.13236901560584
      ],
      [
        "ment",
        -9.133664076947294
      ],
      [
        "saol",
        -9.13460472562581
      ],
      [
        "tioncha",
        -9.13504033960048
      ],
      [
        "lasmui",
        -9.135661601520242
      ],
      [
        "sanna",
        -9.136680063702247
      ],
      [
        "mhaoin",
        -9.13738816852016
      ],
      [
        "Oireachta",
        -9.14003999085195
      ],
      [
        "uimhir",
        -9.1400471346178
      ],
      [
        "cosanta",
        -9.144502984882408
      ],
      [
        "margadh",
        -9.14458338754234
      ],
      [
        "hosm",
        -9.146521377562223
      ],
      [
        "gnáth",
        -9.146649538117474
      ],
      [
        "fola",
        -9.149774995057186
      ],
      [
        "É",
        -9.15015516319023
      ],
      [
        "imir",
        -9.151701472335294
      ],
      [
        "úinéir",
        -9.15331181887432
      ],
      [
        "cheapad",
        -9.15359516459527
      ],
      [
        "láimh",
        -9.156084682402508
      ],
      [
        "éinn",
        -9.15627397708577
      ],
      [
        "damáist",
        -9.15786616726879
      ],
      [
        "nádúrtha",
        -9.15806011061424
      ],
      [
        "Chomh",
        -9.160532743093984
      ],
      [
        "eiceáil",
        -9.161702482713295
      ],
      [
        "kar",
        -9.162031304880452
      ],
      [
        "chruthú",
        -9.16452632661963
      ],
      [
        "óga",
        -9.16463446217562
      ],
      [
        "domhain",
        -9.164842453712826
      ],
      [
        "úsáideoir",
        -9.165613672417935
      ],
      [
        "nasc",
        -9.167830873703291
      ],
      [
        "sócmhainn",
        -9.168668150393191
      ],
      [
        "tu",
        -9.168761274313106
      ],
      [
        "chúirt",
        -9.168897724120727
      ],
      [
        "ciontach",
        -9.168987477365036
      ],
      [
        "anta",
        -9.169187128943465
      ],
      [
        "cona",
        -9.16943142911602
      ],
      [
        "minic",
        -9.170902261991971
      ],
      [
        "léas",
        -9.170927420401512
      ],
      [
        "AR",
        -9.172055788672466
      ],
      [
        "iarratais",
        -9.172471670647685
      ],
      [
        "íneáil",
        -9.173660575162708
      ],
      [
        "siú",
        -9.17579059973183
      ],
      [
        "oidh",
        -9.176230153801338
      ],
      [
        "con",
        -9.176434790543755
      ],
      [
        "teorainn",
        -9.178412730478616
      ],
      [
        "hlí",
        -9.179200240954229
      ],
      [
        "bhéal",
        -9.1803065432133
      ],
      [
        "talún",
        -9.180507060247072
      ],
      [
        "tús",
        -9.180902042104222
      ],
      [
        "bu",
        -9.180931799151864
      ],
      [
        "aistrithe",
        -9.184204616395188
      ],
      [
        "éir",
        -9.184238918927708
      ],
      [
        "Parlaimint",
        -9.184595980090414
      ],
      [
        "ionstraim",
        -9.185765875811276
      ],
      [
        "grianghraf",
        -9.18680690726517
      ],
      [
        "luath",
        -9.187338653176342
      ],
      [
        "onn",
        -9.187660101789334
      ],
      [
        "po",
        -9.18848582738934
      ],
      [
        "úsáidte",
        -9.18914992895944
      ],
      [
        "Author",
        -9.189598288094832
      ],
      [
        "eacht",
        -9.189902242276164
      ],
      [
        "vi",
        -9.190616085867486
      ],
      [
        "choiste",
        -9.194495396865936
      ],
      [
        "cúna",
        -9.19604793124413
      ],
      [
        "SC",
        -9.197481103624732
      ],
      [
        "scoil",
        -9.198036280569053
      ],
      [
        "chó",
        -9.198761217195283
      ],
      [
        "Tweet",
        -9.198879194886356
      ],
      [
        "pointe",
        -9.19957133007564
      ],
      [
        "sonrach",
        -9.200160882603218
      ],
      [
        "riachtanais",
        -9.202045156438349
      ],
      [
        "leanúint",
        -9.203553619999866
      ],
      [
        "cuntais",
        -9.204185325775882
      ],
      [
        "bliantú",
        -9.204404947019963
      ],
      [
        "rún",
        -9.205544563400322
      ],
      [
        "2011",
        -9.206036146427708
      ],
      [
        "Bu",
        -9.206941366373382
      ],
      [
        "gCoimisiú",
        -9.207625249210086
      ],
      [
        "iméad",
        -9.208956253058624
      ],
      [
        "bheadh",
        -9.213250622571454
      ],
      [
        "dleacht",
        -9.215210989532329
      ],
      [
        "cinnte",
        -9.215759537906216
      ],
      [
        "shocr",
        -9.217453238419
      ],
      [
        "Chiste",
        -9.217797959138654
      ],
      [
        "chéim",
        -9.217869093386096
      ],
      [
        "deimh",
        -9.217971388482471
      ],
      [
        "tabhairt",
        -9.218021872470342
      ],
      [
        "aici",
        -9.218314056925248
      ],
      [
        "léiriú",
        -9.21969087772584
      ],
      [
        "tuairisc",
        -9.220200519458176
      ],
      [
        "III",
        -9.221370080391107
      ],
      [
        "Corporat",
        -9.222145108192164
      ],
      [
        "riarachá",
        -9.22472879350088
      ],
      [
        "mhéadú",
        -9.225548704789563
      ],
      [
        "Y",
        -9.225562397462548
      ],
      [
        "bhf",
        -9.225922125670207
      ],
      [
        "maoin",
        -9.225975268913365
      ],
      [
        "tair",
        -9.22637440363646
      ],
      [
        "Eanáir",
        -9.22727702956923
      ],
      [
        "Soláthra",
        -9.232057428436338
      ],
      [
        "DO",
        -9.232218347236774
      ],
      [
        "cearta",
        -9.235626060338909
      ],
      [
        "breith",
        -9.23608006732476
      ],
      [
        "ábhair",
        -9.23875575062435
      ],
      [
        "bharr",
        -9.240170175706757
      ],
      [
        "ullmhú",
        -9.243634645470763
      ],
      [
        "glan",
        -9.246177099048428
      ],
      [
        "ul",
        -9.2462109783925
      ],
      [
        "réasúnach",
        -9.248021557442009
      ],
      [
        "réamh",
        -9.248125365742393
      ],
      [
        "scair",
        -9.248502765426204
      ],
      [
        "IS",
        -9.251169612805109
      ],
      [
        "iarnró",
        -9.251876719598592
      ],
      [
        "Áitiú",
        -9.252075913374508
      ],
      [
        "cuspóir",
        -9.256651732943604
      ],
      [
        "mion",
        -9.256898492232873
      ],
      [
        "rialta",
        -9.258521116526149
      ],
      [
        "aire",
        -9.25925309944126
      ],
      [
        "céad",
        -9.259953719159384
      ],
      [
        "scrúdú",
        -9.26007455041472
      ],
      [
        "hoird",
        -9.260552789653726
      ],
      [
        "costas",
        -9.261435656470685
      ],
      [
        "feidhmeanna",
        -9.261509561568332
      ],
      [
        "substaint",
        -9.264926224101846
      ],
      [
        "fhoráil",
        -9.26684404226869
      ],
      [
        "treala",
        -9.267987552906405
      ],
      [
        "tábhachtach",
        -9.268262548217136
      ],
      [
        "tóg",
        -9.26967316945391
      ],
      [
        "Cánach",
        -9.271433224934526
      ],
      [
        "aill",
        -9.271588098569543
      ],
      [
        "ealach",
        -9.271654580987764
      ],
      [
        "gné",
        -9.273293143599204
      ],
      [
        "chu",
        -9.273682303392492
      ],
      [
        "cumhacht",
        -9.275039841574266
      ],
      [
        "bhearta",
        -9.277902069012022
      ],
      [
        "bhfoirm",
        -9.27912003265288
      ],
      [
        "hordú",
        -9.282792912457689
      ],
      [
        "dtabharfa",
        -9.283287268058755
      ],
      [
        "gcrích",
        -9.284038000759686
      ],
      [
        "198",
        -9.288232884896438
      ],
      [
        "feidhmiú",
        -9.288651073258778
      ],
      [
        "ollaig",
        -9.288964196649204
      ],
      [
        "seachtain",
        -9.289090752386407
      ],
      [
        "ire",
        -9.2891673263637
      ],
      [
        "tháinig",
        -9.28917846927147
      ],
      [
        "foirgn",
        -9.290332199110267
      ],
      [
        "ord",
        -9.291504890100176
      ],
      [
        "Bill",
        -9.291834910135584
      ],
      [
        "acmhainn",
        -9.292478485603688
      ],
      [
        "ibh",
        -9.294328922127464
      ],
      [
        "Ord",
        -9.294955399359823
      ],
      [
        "íoch",
        -9.295386393200411
      ],
      [
        "tic",
        -9.295510470155634
      ],
      [
        "íseal",
        -9.297304798273936
      ],
      [
        "úirt",
        -9.297427660677034
      ],
      [
        "úla",
        -9.298560634337615
      ],
      [
        "taighde",
        -9.298734320429592
      ],
      [
        "cáilíochta",
        -9.30058541885473
      ],
      [
        "Féach",
        -9.302005840595914
      ],
      [
        "ham",
        -9.303449167022718
      ],
      [
        "ladh",
        -9.3036880319903
      ],
      [
        "chumas",
        -9.30514902960136
      ],
      [
        "íocht",
        -9.306535958457513
      ],
      [
        "dubh",
        -9.309480254064136
      ],
      [
        "údarú",
        -9.3096188252508
      ],
      [
        "tuillea",
        -9.310452923028825
      ],
      [
        "dtaca",
        -9.31075981300064
      ],
      [
        "bord",
        -9.310938961089205
      ],
      [
        "mhalairt",
        -9.312306300668595
      ],
      [
        "etc",
        -9.313291007595437
      ],
      [
        "J",
        -9.315124590091632
      ],
      [
        "doiciméid",
        -9.316557412930084
      ],
      [
        "cosaint",
        -9.31754226507108
      ],
      [
        "Tar",
        -9.31790679100201
      ],
      [
        "Iarscríbhinn",
        -9.319332692015616
      ],
      [
        "40",
        -9.321227632826282
      ],
      [
        "mBallstá",
        -9.322046944160736
      ],
      [
        "abháil",
        -9.322057025654727
      ],
      [
        "Fh",
        -9.322438537601409
      ],
      [
        "scaoileadh",
        -9.322632910595091
      ],
      [
        "éadrom",
        -9.322800014064295
      ],
      [
        "comhairle",
        -9.323212951519835
      ],
      [
        "páirtí",
        -9.323679136597724
      ],
      [
        "able",
        -9.325665305841664
      ],
      [
        "riosca",
        -9.328090626332202
      ],
      [
        "Bhallstá",
        -9.32812856677424
      ],
      [
        "ghníomh",
        -9.328399108825764
      ],
      [
        "infheidhme",
        -9.329998038865678
      ],
      [
        "theacht",
        -9.33009242041364
      ],
      [
        "freastal",
        -9.333409685492434
      ],
      [
        "éirí",
        -9.334120869627348
      ],
      [
        "tapa",
        -9.3372812069403
      ],
      [
        "foirm",
        -9.338748218559306
      ],
      [
        "iarrthóir",
        -9.339367647109272
      ],
      [
        "soiléir",
        -9.342278191847036
      ],
      [
        "córa",
        -9.3426321333333
      ],
      [
        "tástála",
        -9.344142087554015
      ],
      [
        "ithre",
        -9.345055959095813
      ],
      [
        "lorg",
        -9.34560125446178
      ],
      [
        "gcuideachta",
        -9.346387887778471
      ],
      [
        "iona",
        -9.346661842316568
      ],
      [
        "bainistíocht",
        -9.349674942909056
      ],
      [
        "ainmnithe",
        -9.349949250640533
      ],
      [
        "60",
        -9.350782471194863
      ],
      [
        "aitheanta",
        -9.351364594965878
      ],
      [
        "Tag",
        -9.352711399765012
      ],
      [
        "éiteach",
        -9.353731561806784
      ],
      [
        "aisíoc",
        -9.35405681276676
      ],
      [
        "Porn",
        -9.355501300270657
      ],
      [
        "MS",
        -9.356846987152132
      ],
      [
        "laigh",
        -9.356975644480162
      ],
      [
        "eir",
        -9.357043851681087
      ],
      [
        "díobh",
        -9.360513784218153
      ],
      [
        "nochta",
        -9.361189934973003
      ],
      [
        "ice",
        -9.36459587722479
      ],
      [
        "comhlachta",
        -9.366082755596585
      ],
      [
        "iv",
        -9.367198931744747
      ],
      [
        "feist",
        -9.36729640849855
      ],
      [
        "rádáil",
        -9.367302300760086
      ],
      [
        "dhéanfaid",
        -9.367715462174166
      ],
      [
        "Dá",
        -9.368126684588672
      ],
      [
        "tóir",
        -9.368669938641348
      ],
      [
        "Leictreon",
        -9.371457654793764
      ],
      [
        "per",
        -9.371599975823816
      ],
      [
        "siar",
        -9.37394077802082
      ],
      [
        "hong",
        -9.374579866144291
      ],
      [
        "AS",
        -9.375827553421058
      ],
      [
        "eithre",
        -9.3759207157903
      ],
      [
        "íocfa",
        -9.37608220329924
      ],
      [
        "Product",
        -9.37701321616391
      ],
      [
        "Cliath",
        -9.3773741505108
      ],
      [
        "páirteach",
        -9.37766422213154
      ],
      [
        "oibreacha",
        -9.378897355069604
      ],
      [
        "taithí",
        -9.37904270883383
      ],
      [
        "mhuirear",
        -9.381715684403328
      ],
      [
        "Éirinn",
        -9.382600388597918
      ],
      [
        "Cuarda",
        -9.38338486434735
      ],
      [
        "glacad",
        -9.38344036777519
      ],
      [
        "airgeadra",
        -9.387103501499574
      ],
      [
        "ies",
        -9.387801191989732
      ],
      [
        "plean",
        -9.388153840076196
      ],
      [
        "Rialtais",
        -9.388218168528116
      ],
      [
        "thabharfa",
        -9.38845602824606
      ],
      [
        "áis",
        -9.388550101253768
      ],
      [
        "leabhar",
        -9.388901766138469
      ],
      [
        "com",
        -9.390056030383498
      ],
      [
        "gnótha",
        -9.390521554355468
      ],
      [
        "oibleagáid",
        -9.39060451917256
      ],
      [
        "oideachais",
        -9.391917760422269
      ],
      [
        "ow",
        -9.393561008530114
      ],
      [
        "Meán",
        -9.39421680986791
      ],
      [
        "ndéanta",
        -9.39433232566519
      ],
      [
        "scéal",
        -9.394554753688872
      ],
      [
        "húdará",
        -9.395555099477455
      ],
      [
        "forbartha",
        -9.396096637184511
      ],
      [
        "ligean",
        -9.399885415899911
      ],
      [
        "gal",
        -9.401386255566166
      ],
      [
        "Deirea",
        -9.401452543943575
      ],
      [
        "rialaithe",
        -9.40171035634811
      ],
      [
        "stoc",
        -9.40212319027901
      ],
      [
        "iarratasóir",
        -9.402367323311106
      ],
      [
        "bhfad",
        -9.40342804053925
      ],
      [
        "tionscna",
        -9.405265238612436
      ],
      [
        "ngair",
        -9.405842763033585
      ],
      [
        "phoiblí",
        -9.405970876148338
      ],
      [
        "ball",
        -9.408262074976635
      ],
      [
        "ke",
        -9.4084445286751
      ],
      [
        "críoch",
        -9.41015642275395
      ],
      [
        "roghna",
        -9.411152026791164
      ],
      [
        "iniúcha",
        -9.411173163167266
      ],
      [
        "athbhreithniú",
        -9.411560474767048
      ],
      [
        "ghabháil",
        -9.41234543450922
      ],
      [
        "bhforáil",
        -9.412536116362816
      ],
      [
        "déantóir",
        -9.412622529940382
      ],
      [
        "ITHE",
        -9.414535373482932
      ],
      [
        "oifige",
        -9.414755024531951
      ],
      [
        "tionsca",
        -9.415961213777528
      ],
      [
        "sprioc",
        -9.41663924085763
      ],
      [
        "thógá",
        -9.416651310266428
      ],
      [
        "seomra",
        -9.417108768437732
      ],
      [
        "ceist",
        -9.418111196346402
      ],
      [
        "teanga",
        -9.41914340499197
      ],
      [
        "ghnóth",
        -9.421714539780517
      ],
      [
        "ghabh",
        -9.42171751350293
      ],
      [
        "muirear",
        -9.422442903881391
      ],
      [
        "Sláinte",
        -9.422831007902928
      ],
      [
        "Líne",
        -9.424092388902784
      ],
      [
        "gceannas",
        -9.424726512496534
      ],
      [
        "ngníomh",
        -9.426890133937285
      ],
      [
        "Contae",
        -9.42846024073647
      ],
      [
        "cineálach",
        -9.429970598859748
      ],
      [
        "Cl",
        -9.430736218369669
      ],
      [
        "racha",
        -9.433085946647072
      ],
      [
        "thos",
        -9.43355609097432
      ],
      [
        "simplí",
        -9.434338336174203
      ],
      [
        "TV",
        -9.43434334351534
      ],
      [
        "léamh",
        -9.4343599515417
      ],
      [
        "próiseas",
        -9.434372393846868
      ],
      [
        "phost",
        -9.434407935325858
      ],
      [
        "fáth",
        -9.434470999159418
      ],
      [
        "choinníoll",
        -9.434894196912886
      ],
      [
        "sealbhóir",
        -9.436013398266862
      ],
      [
        "níl",
        -9.43630954387766
      ],
      [
        "gnéas",
        -9.43871872072025
      ],
      [
        "sheirbhís",
        -9.439222667849718
      ],
      [
        "fuair",
        -9.439496704988404
      ],
      [
        "gcuir",
        -9.439962942911968
      ],
      [
        "Rialtas",
        -9.440253249222826
      ],
      [
        "fuinn",
        -9.440419159526916
      ],
      [
        "cheist",
        -9.440486199318316
      ],
      [
        "Ph",
        -9.441632476795268
      ],
      [
        "scoileanna",
        -9.441737089584317
      ],
      [
        "sraith",
        -9.442658051596318
      ],
      [
        "cruinn",
        -9.442787384556665
      ],
      [
        "cuma",
        -9.445660888210329
      ],
      [
        "cumhachtaí",
        -9.446084233207952
      ],
      [
        "Físeá",
        -9.446207344969938
      ],
      [
        "íre",
        -9.446255835001269
      ],
      [
        "éisteacht",
        -9.447425563354551
      ],
      [
        "Alt",
        -9.448183042597712
      ],
      [
        "institiúid",
        -9.44820570299308
      ],
      [
        "éal",
        -9.451324634739166
      ],
      [
        "foráil",
        -9.45213748099722
      ],
      [
        "uirthi",
        -9.45219591489857
      ],
      [
        "cúit",
        -9.452321428725394
      ],
      [
        "caillteana",
        -9.452640543860577
      ],
      [
        "réit",
        -9.453385951364332
      ],
      [
        "leanúnach",
        -9.454297703339996
      ],
      [
        "chion",
        -9.455273600189829
      ],
      [
        "land",
        -9.455751172392278
      ],
      [
        "San",
        -9.456456149349826
      ],
      [
        "reacht",
        -9.45666877223442
      ],
      [
        "cheadú",
        -9.45790052116492
      ],
      [
        "iamh",
        -9.458169538504317
      ],
      [
        "ainne",
        -9.458205442867278
      ],
      [
        "tairiscint",
        -9.458216999703067
      ],
      [
        "List",
        -9.460464351172645
      ],
      [
        "aíochta",
        -9.46143796171596
      ],
      [
        "uaidh",
        -9.46168969701813
      ],
      [
        "ainmniú",
        -9.461877261772909
      ],
      [
        "cheap",
        -9.462659139886728
      ],
      [
        "Táirg",
        -9.462876424698344
      ],
      [
        "Cho",
        -9.464471246643914
      ],
      [
        "caiteacha",
        -9.464512005158069
      ],
      [
        "So",
        -9.464608829200372
      ],
      [
        "aicm",
        -9.464918137924023
      ],
      [
        "ghnó",
        -9.468131063375257
      ],
      [
        "ers",
        -9.469657576795631
      ],
      [
        "bliant",
        -9.470457839976564
      ],
      [
        "húsáid",
        -9.470981876879856
      ],
      [
        "ciall",
        -9.472300910732596
      ],
      [
        "saintréith",
        -9.472370484728646
      ],
      [
        "thosa",
        -9.47311694094916
      ],
      [
        "onaid",
        -9.473278550669283
      ],
      [
        "min",
        -9.474164273251144
      ],
      [
        "oilse",
        -9.474476099313256
      ],
      [
        "iarracht",
        -9.47495291608281
      ],
      [
        "cleachta",
        -9.475883350981237
      ],
      [
        "thart",
        -9.47644911640814
      ],
      [
        "thuras",
        -9.477309190811656
      ],
      [
        "Scoil",
        -9.478091922801744
      ],
      [
        "ceanglai",
        -9.4815912774544
      ],
      [
        "Grúpa",
        -9.48268305266932
      ],
      [
        "bosca",
        -9.482688941292164
      ],
      [
        "ry",
        -9.483377246253102
      ],
      [
        "lach",
        -9.485420846790262
      ],
      [
        "Mo",
        -9.486198060894177
      ],
      [
        "Már",
        -9.486605014415035
      ],
      [
        "sean",
        -9.487476864825158
      ],
      [
        "ster",
        -9.488627809732964
      ],
      [
        "tabharfa",
        -9.48869561178098
      ],
      [
        "Cur",
        -9.48970125642489
      ],
      [
        "cláir",
        -9.490152191169772
      ],
      [
        "CH",
        -9.49057223087108
      ],
      [
        "dliteana",
        -9.491253681592504
      ],
      [
        "éag",
        -9.49359549781984
      ],
      [
        "gclár",
        -9.494857946579623
      ],
      [
        "aimseartha",
        -9.495144226693371
      ],
      [
        "uirlis",
        -9.495157314533872
      ],
      [
        "thaga",
        -9.495646466671772
      ],
      [
        "volta",
        -9.496062631613858
      ],
      [
        "éifeachtach",
        -9.4964689435255
      ],
      [
        "domhan",
        -9.497074249358704
      ],
      [
        "eora",
        -9.499262488524652
      ],
      [
        "adhmai",
        -9.500236278226817
      ],
      [
        "shan",
        -9.501138088972938
      ],
      [
        "fostaíochta",
        -9.501202609305292
      ],
      [
        "Clár",
        -9.501838224659496
      ],
      [
        "infheistíochta",
        -9.503649008926953
      ],
      [
        "stát",
        -9.504509808107468
      ],
      [
        "fhoirm",
        -9.505197371113294
      ],
      [
        "Rogh",
        -9.50662904528031
      ],
      [
        "saoire",
        -9.508255591588616
      ],
      [
        "deis",
        -9.508526100030863
      ],
      [
        "thréimhse",
        -9.509959506716704
      ],
      [
        "Cuirea",
        -9.51012216902533
      ],
      [
        "ling",
        -9.511423037841272
      ],
      [
        "tré",
        -9.511749560880242
      ],
      [
        "pro",
        -9.512366982981828
      ],
      [
        "post",
        -9.514109277307682
      ],
      [
        "Ollscoil",
        -9.515201782214252
      ],
      [
        "IV",
        -9.515377813765168
      ],
      [
        "fada",
        -9.515550580365089
      ],
      [
        "chinnti",
        -9.515937445039189
      ],
      [
        "scoile",
        -9.516000664777511
      ],
      [
        "ríomhaire",
        -9.516706009638368
      ],
      [
        "fheidhm",
        -9.516828508633449
      ],
      [
        "thionscna",
        -9.520542262802127
      ],
      [
        "Féadf",
        -9.5206636907854
      ],
      [
        "ainmh",
        -9.521647158158032
      ],
      [
        "eol",
        -9.52238884342955
      ],
      [
        "cheadúna",
        -9.524151385922316
      ],
      [
        "únas",
        -9.52419137671198
      ],
      [
        "féach",
        -9.524469431364247
      ],
      [
        "Cuirfi",
        -9.52496756640622
      ],
      [
        "45",
        -9.527491674765011
      ],
      [
        "sábháilteacht",
        -9.527597121897555
      ],
      [
        "teagmhá",
        -9.530475764493865
      ],
      [
        "scannán",
        -9.530836254658976
      ],
      [
        "coiste",
        -9.532865873987172
      ],
      [
        "mbliana",
        -9.532915944643715
      ],
      [
        "aithint",
        -9.533551355168546
      ],
      [
        "aigheann",
        -9.534516601655008
      ],
      [
        "chríoch",
        -9.53627204964742
      ],
      [
        "Cúirte",
        -9.53700116865176
      ],
      [
        "éard",
        -9.53714682980756
      ],
      [
        "35",
        -9.53959705197459
      ],
      [
        "bhreith",
        -9.539747567142507
      ],
      [
        "Stiúrthóir",
        -9.540350439260514
      ],
      [
        "shealbh",
        -9.542630669516209
      ],
      [
        "Clárú",
        -9.542867348721716
      ],
      [
        "cailín",
        -9.543191547279251
      ],
      [
        "cíos",
        -9.544123059399016
      ],
      [
        "Lawn",
        -9.54661731876142
      ],
      [
        "punt",
        -9.54775646450773
      ],
      [
        "lár",
        -9.548852922992822
      ],
      [
        "laeth",
        -9.550091494606152
      ],
      [
        "ithi",
        -9.551331601292617
      ],
      [
        "Gh",
        -9.552028421034748
      ],
      [
        "chta",
        -9.552517753141087
      ],
      [
        "milliú",
        -9.552538950640272
      ],
      [
        "údar",
        -9.553797016581523
      ],
      [
        "00",
        -9.554504338206446
      ],
      [
        "omhairc",
        -9.554659240955498
      ],
      [
        "tharraingt",
        -9.554906004877743
      ],
      [
        "Cuid",
        -9.555189623167616
      ],
      [
        "Teach",
        -9.556081632059382
      ],
      [
        "36",
        -9.557411478207673
      ],
      [
        "ity",
        -9.558748790429403
      ],
      [
        "hníomhaireacht",
        -9.558773684626864
      ],
      [
        "prionsaba",
        -9.55989145723915
      ],
      [
        "dearg",
        -9.560180612608772
      ],
      [
        "ordaithe",
        -9.560299327370515
      ],
      [
        "ghlac",
        -9.56320859162568
      ],
      [
        "gearr",
        -9.563453861079958
      ],
      [
        "frith",
        -9.56457478686132
      ],
      [
        "Déan",
        -9.5652161374469
      ],
      [
        "irt",
        -9.565481701038218
      ],
      [
        "teorann",
        -9.566641379529464
      ],
      [
        "cóir",
        -9.567628270822738
      ],
      [
        "hearra",
        -9.568419453154522
      ],
      [
        "cosc",
        -9.57111310210534
      ],
      [
        "chtaí",
        -9.572338988639231
      ],
      [
        "Sonraí",
        -9.573027498148708
      ],
      [
        "EIDEA",
        -9.573113204761498
      ],
      [
        "long",
        -9.573894219850736
      ],
      [
        "balla",
        -9.574004667393098
      ],
      [
        "AMH",
        -9.576629576443729
      ],
      [
        "árachais",
        -9.576741163351732
      ],
      [
        "treoir",
        -9.577389161653423
      ],
      [
        "beart",
        -9.579180603747096
      ],
      [
        "34",
        -9.579712414504511
      ],
      [
        "socrú",
        -9.58016296886607
      ],
      [
        "oideachas",
        -9.580439406072554
      ],
      [
        "Choiste",
        -9.580694608876808
      ],
      [
        "33",
        -9.581912609582776
      ],
      [
        "scriosa",
        -9.582514022257389
      ],
      [
        "chomhaont",
        -9.583756308165745
      ],
      [
        "méad",
        -9.585186502837516
      ],
      [
        "Bhaile",
        -9.58704988879816
      ],
      [
        "iascaireacht",
        -9.587104031734867
      ],
      [
        "halt",
        -9.589516905448916
      ],
      [
        "scéime",
        -9.589821291353555
      ],
      [
        "bhreise",
        -9.590784022316765
      ],
      [
        "oibr",
        -9.593247262798352
      ],
      [
        "grá",
        -9.593882880572597
      ],
      [
        "Stiúrthóireacht",
        -9.594030199091096
      ],
      [
        "tíre",
        -9.595043865608837
      ],
      [
        "sain",
        -9.595435442083431
      ],
      [
        "Soils",
        -9.59579259680734
      ],
      [
        "baile",
        -9.59703526995447
      ],
      [
        "luas",
        -9.597554229546107
      ],
      [
        "ochar",
        -9.600687028282358
      ],
      [
        "slándá",
        -9.600905790509144
      ],
      [
        "Caibidil",
        -9.60128108538228
      ],
      [
        "ostaithe",
        -9.601863303186969
      ],
      [
        "daoin",
        -9.605708417534604
      ],
      [
        "achtachá",
        -9.605842359939466
      ],
      [
        "ki",
        -9.605885827318538
      ],
      [
        "Síochá",
        -9.60785688894927
      ],
      [
        "UM",
        -9.612744960444514
      ],
      [
        "stair",
        -9.614225278007652
      ],
      [
        "oibrithe",
        -9.614892454478582
      ],
      [
        "teicniú",
        -9.614900248662082
      ],
      [
        "cheangla",
        -9.614928583427034
      ],
      [
        "Tiarna",
        -9.61515723248397
      ],
      [
        "Déanta",
        -9.616857107379056
      ],
      [
        "glas",
        -9.617322386657293
      ],
      [
        "éad",
        -9.620929732071351
      ],
      [
        "Sp",
        -9.621649204076792
      ],
      [
        "IR",
        -9.622409383758283
      ],
      [
        "iom",
        -9.62400876174143
      ],
      [
        "ndáir",
        -9.624320193548836
      ],
      [
        "bhei",
        -9.6268707851371
      ],
      [
        "bhaile",
        -9.62814307339406
      ],
      [
        "díospóireacht",
        -9.62912298067025
      ],
      [
        "leictreonach",
        -9.629123016609562
      ],
      [
        "thagairt",
        -9.62933386724383
      ],
      [
        "siopa",
        -9.629515017115176
      ],
      [
        "fanacht",
        -9.63017317809341
      ],
      [
        "inmheánach",
        -9.630346519965208
      ],
      [
        "IL",
        -9.631226440565737
      ],
      [
        "táille",
        -9.63339306997229
      ],
      [
        "tuig",
        -9.633859539602728
      ],
      [
        "thugta",
        -9.634861042534627
      ],
      [
        "oscailte",
        -9.635182933591764
      ],
      [
        "Bain",
        -9.638835605084974
      ],
      [
        "álainn",
        -9.639445581807642
      ],
      [
        "oibríochta",
        -9.64079524896133
      ],
      [
        "asta",
        -9.642753467082294
      ],
      [
        "Lá",
        -9.643048716837184
      ],
      [
        "monarcha",
        -9.64357233154142
      ],
      [
        "dleathach",
        -9.643687891823488
      ],
      [
        "deonta",
        -9.64499881473473
      ],
      [
        "mhodh",
        -9.645190081455551
      ],
      [
        "tory",
        -9.645198642083756
      ],
      [
        "neart",
        -9.648194939258886
      ],
      [
        "méadú",
        -9.648559753940642
      ],
      [
        "scor",
        -9.648647166647972
      ],
      [
        "osach",
        -9.64955031057798
      ],
      [
        "rang",
        -9.650800494729165
      ],
      [
        "32",
        -9.651106245874011
      ],
      [
        "SE",
        -9.651899863775826
      ],
      [
        "breathn",
        -9.652492042170795
      ],
      [
        "eoir",
        -9.65360275674843
      ],
      [
        "oirceallá",
        -9.65821667298118
      ],
      [
        "meaisín",
        -9.658216980412146
      ],
      [
        "plandáil",
        -9.658220666216527
      ],
      [
        "dearbhú",
        -9.6582296314391
      ],
      [
        "thuillea",
        -9.65823976149921
      ],
      [
        "bogearra",
        -9.660445206924644
      ],
      [
        "freagra",
        -9.660830170441812
      ],
      [
        "taifead",
        -9.661066711022102
      ],
      [
        "éisteachta",
        -9.661597080396932
      ],
      [
        "los",
        -9.661813396697363
      ],
      [
        "liúntais",
        -9.662060033494168
      ],
      [
        "eanta",
        -9.662453014266823
      ],
      [
        "léireofa",
        -9.662492313384565
      ],
      [
        "inniúla",
        -9.664226265405189
      ],
      [
        "Óg",
        -9.66574115715506
      ],
      [
        "parlaiminteach",
        -9.66582552434562
      ],
      [
        "tacú",
        -9.66602376102097
      ],
      [
        "Guan",
        -9.666096615098194
      ],
      [
        "meán",
        -9.667140083051716
      ],
      [
        "óid",
        -9.667457557308836
      ],
      [
        "shonró",
        -9.668455364340192
      ],
      [
        "gcur",
        -9.669225165657402
      ],
      [
        "cúraim",
        -9.67308621710009
      ],
      [
        "pá",
        -9.673272412266886
      ],
      [
        "dong",
        -9.673648212885574
      ],
      [
        "Forála",
        -9.673762590677434
      ],
      [
        "caite",
        -9.673847459224898
      ],
      [
        "chuntasaíocht",
        -9.673897630741596
      ],
      [
        "Mura",
        -9.674144401080248
      ],
      [
        "chothabháil",
        -9.674635399621137
      ],
      [
        "Meitheam",
        -9.67598034590883
      ],
      [
        "scil",
        -9.676226227067849
      ],
      [
        "chosc",
        -9.676353725932929
      ],
      [
        "seolad",
        -9.676407504721588
      ],
      [
        "othair",
        -9.677175551104783
      ],
      [
        "oscailt",
        -9.67823852789722
      ],
      [
        "gcomh",
        -9.679082448131648
      ],
      [
        "fost",
        -9.679631748431186
      ],
      [
        "*",
        -9.68060469166566
      ],
      [
        "dochtúir",
        -9.680609163219431
      ],
      [
        "teannta",
        -9.680710980517992
      ],
      [
        "iontaobha",
        -9.680757751569397
      ],
      [
        "sampla",
        -9.680890967026482
      ],
      [
        "tuismitheoir",
        -9.68120689264846
      ],
      [
        "príobháideach",
        -9.681781261872976
      ],
      [
        "tráchtál",
        -9.682778955958767
      ],
      [
        "inniúi",
        -9.683212310436986
      ],
      [
        "fuarth",
        -9.684024671734438
      ],
      [
        "beo",
        -9.684676433801584
      ],
      [
        "thíos",
        -9.684736621164586
      ],
      [
        "dlite",
        -9.685508952362865
      ],
      [
        "creidmheasa",
        -9.686803559403884
      ],
      [
        "thaispeáin",
        -9.68818045543964
      ],
      [
        "Tabharfa",
        -9.68822704292131
      ],
      [
        "chaiteacha",
        -9.688251618605609
      ],
      [
        "tosa",
        -9.688409870590911
      ],
      [
        "molta",
        -9.68865104184146
      ],
      [
        "dír",
        -9.691744711304144
      ],
      [
        "eolai",
        -9.692516140529454
      ],
      [
        "gCuid",
        -9.693398045863812
      ],
      [
        "dom",
        -9.694671678866746
      ],
      [
        "cárta",
        -9.69584301138754
      ],
      [
        "Foins",
        -9.701607341690224
      ],
      [
        "nách",
        -9.702295491297155
      ],
      [
        "oist",
        -9.703490715632483
      ],
      [
        "onnmhaireoir",
        -9.703553498260078
      ],
      [
        "Bealtaine",
        -9.703959161587456
      ],
      [
        "Chonra",
        -9.703993550221252
      ],
      [
        "réasúnta",
        -9.704041982577778
      ],
      [
        "phríomh",
        -9.704091973887763
      ],
      [
        "astáil",
        -9.704941180248024
      ],
      [
        "réidh",
        -9.705680542619902
      ],
      [
        "staid",
        -9.705847778764102
      ],
      [
        "amu",
        -9.706975523369431
      ],
      [
        "struchtúr",
        -9.70939109356756
      ],
      [
        "39",
        -9.709457152346893
      ],
      [
        "iontu",
        -9.710920838778351
      ],
      [
        "chontae",
        -9.711262548388556
      ],
      [
        "earnáil",
        -9.711311452324566
      ],
      [
        "Áth",
        -9.711396748161269
      ],
      [
        "chomhair",
        -9.711866707828566
      ],
      [
        "fheabhsú",
        -9.71187817842824
      ],
      [
        "corpraithe",
        -9.71283364220838
      ],
      [
        "gheobhaid",
        -9.712865871799943
      ],
      [
        "tarmlig",
        -9.714367712537358
      ],
      [
        "ent",
        -9.714949264459747
      ],
      [
        "faire",
        -9.716078930294788
      ],
      [
        "Córa",
        -9.716203050741573
      ],
      [
        "cuntas",
        -9.71699859547534
      ],
      [
        "asbhaint",
        -9.717019106291412
      ],
      [
        "straitéis",
        -9.717705994024689
      ],
      [
        "shár",
        -9.71783692605212
      ],
      [
        "Oideacha",
        -9.718063017444369
      ],
      [
        "chóras",
        -9.718572414966127
      ],
      [
        "déan",
        -9.71877559424737
      ],
      [
        "malairt",
        -9.719299046573658
      ],
      [
        "reachtaíocht",
        -9.719473922148868
      ],
      [
        "talmhaíocht",
        -9.719553808723283
      ],
      [
        "glaca",
        -9.719829545227084
      ],
      [
        "ghrúpa",
        -9.720330935608631
      ],
      [
        "inse",
        -9.720530215200233
      ],
      [
        "clárú",
        -9.720750795348875
      ],
      [
        "fadhb",
        -9.721637787636965
      ],
      [
        "contae",
        -9.722183569183535
      ],
      [
        "ceadú",
        -9.722513801362144
      ],
      [
        "treorach",
        -9.723985172547238
      ],
      [
        "ochta",
        -9.725060672746388
      ],
      [
        "sláintíocht",
        -9.726950236613884
      ],
      [
        "Londa",
        -9.726960486431718
      ],
      [
        "gcomhair",
        -9.726965298510144
      ],
      [
        "Iarnró",
        -9.727014353424668
      ],
      [
        "Moncler",
        -9.727131200327529
      ],
      [
        "Gnótha",
        -9.727200616908572
      ],
      [
        "íomhá",
        -9.727366845376991
      ],
      [
        "ireann",
        -9.72779835847704
      ],
      [
        "stíl",
        -9.728334930584914
      ],
      [
        "ze",
        -9.728383611962911
      ],
      [
        "táill",
        -9.729421608467472
      ],
      [
        "leathn",
        -9.729591970067077
      ],
      [
        "isce",
        -9.730282106266236
      ],
      [
        "eagraíocht",
        -9.73166810436256
      ],
      [
        "Uachtarán",
        -9.731708285032187
      ],
      [
        "2007",
        -9.73221579399396
      ],
      [
        "bhailiú",
        -9.733036705926365
      ],
      [
        "cionta",
        -9.734401210457404
      ],
      [
        "gheimhr",
        -9.734882184145595
      ],
      [
        "pu",
        -9.735409924023996
      ],
      [
        "Feabhra",
        -9.735476832341742
      ],
      [
        "gCoimisinéir",
        -9.735544126433952
      ],
      [
        "ugtha",
        -9.73716509998915
      ],
      [
        "Dia",
        -9.737493629911135
      ],
      [
        "fach",
        -9.738980796056657
      ],
      [
        "mhaithe",
        -9.739104780118469
      ],
      [
        "eoil",
        -9.741971105268934
      ],
      [
        "diúlt",
        -9.742604201276803
      ],
      [
        "Su",
        -9.74318652807364
      ],
      [
        "Chuir",
        -9.744539430321955
      ],
      [
        "crua",
        -9.744889380371555
      ],
      [
        "chaithea",
        -9.746393050557067
      ],
      [
        "fiche",
        -9.746779722195626
      ],
      [
        "tsuim",
        -9.748727587496344
      ],
      [
        "rac",
        -9.7493665304848
      ],
      [
        "churtha",
        -9.750303643546305
      ],
      [
        "bail",
        -9.750337407986857
      ],
      [
        "mhéad",
        -9.750916819728769
      ],
      [
        "bhíthin",
        -9.75099475788831
      ],
      [
        "dréacht",
        -9.751024792666056
      ],
      [
        "90",
        -9.75294401202576
      ],
      [
        "hoireann",
        -9.752944704661278
      ],
      [
        "cheanta",
        -9.754339835290676
      ],
      [
        "brath",
        -9.75475677195171
      ],
      [
        "deir",
        -9.755248912955937
      ],
      [
        "Fear",
        -9.755548485755805
      ],
      [
        "we",
        -9.757636682410574
      ],
      [
        "j",
        -9.757890778438949
      ],
      [
        "lacha",
        -9.758942295939956
      ],
      [
        "neamhspleách",
        -9.759075903902046
      ],
      [
        "phróiseáil",
        -9.759076889146332
      ],
      [
        "SOLAS",
        -9.759079188711382
      ],
      [
        "37",
        -9.759459869862283
      ],
      [
        "Eora",
        -9.759967277316957
      ],
      [
        "mbainfid",
        -9.760098713660096
      ],
      [
        "déag",
        -9.760372967916586
      ],
      [
        "raon",
        -9.761183493065944
      ],
      [
        "leighis",
        -9.761834144556907
      ],
      [
        "46",
        -9.762719956910107
      ],
      [
        "deich",
        -9.763332085897018
      ],
      [
        "Trí",
        -9.764628996334384
      ],
      [
        "Ríocht",
        -9.764905823981309
      ],
      [
        "dócha",
        -9.76717530638446
      ],
      [
        "brú",
        -9.767270316817363
      ],
      [
        "dhearbh",
        -9.768257940202725
      ],
      [
        "fostaí",
        -9.77014375645664
      ],
      [
        "Fo",
        -9.770236778044952
      ],
      [
        "comhlíona",
        -9.77111399052513
      ],
      [
        "gceart",
        -9.772583532648854
      ],
      [
        "chónaithe",
        -9.773423832197295
      ],
      [
        "seamh",
        -9.774084647985406
      ],
      [
        "socruithe",
        -9.77553715360851
      ],
      [
        "sóisial",
        -9.775578713569258
      ],
      [
        "sheachada",
        -9.775588314068944
      ],
      [
        "réim",
        -9.777655328881488
      ],
      [
        "bhliantú",
        -9.779479029523126
      ],
      [
        "bhall",
        -9.780907402956544
      ],
      [
        "maoine",
        -9.781147470810565
      ],
      [
        "dualgais",
        -9.781354307803287
      ],
      [
        "aice",
        -9.781636536792266
      ],
      [
        "teocht",
        -9.78192516842319
      ],
      [
        "500",
        -9.78234438639088
      ],
      [
        "múinteoir",
        -9.783870579857595
      ],
      [
        "chomhairle",
        -9.784311236407046
      ],
      [
        "conartha",
        -9.784371319315897
      ],
      [
        "istí",
        -9.785791276380133
      ],
      [
        "mbun",
        -9.788017061390502
      ],
      [
        "Airgid",
        -9.788067197785832
      ],
      [
        "ghearra",
        -9.788096035291735
      ],
      [
        "foirn",
        -9.788680799810084
      ],
      [
        "fol",
        -9.791034836849873
      ],
      [
        "inneall",
        -9.791505960458426
      ],
      [
        "anailís",
        -9.791714023873592
      ],
      [
        "gluaiseacht",
        -9.792275362693085
      ],
      [
        "sealadach",
        -9.792279973123406
      ],
      [
        "Dlí",
        -9.79232067313663
      ],
      [
        "oiread",
        -9.792810300219651
      ],
      [
        "coitianta",
        -9.792886008872092
      ],
      [
        "cuairt",
        -9.792980976106817
      ],
      [
        "éagsúlacht",
        -9.793830552514226
      ],
      [
        "Scéim",
        -9.79653168585284
      ],
      [
        "Fómh",
        -9.797778389252707
      ],
      [
        "70",
        -9.799297546207915
      ],
      [
        "mórdhíol",
        -9.800337310373486
      ],
      [
        "pictiúir",
        -9.800881109078349
      ],
      [
        "luaidhte",
        -9.801442689863393
      ],
      [
        "úcháin",
        -9.802503962700603
      ],
      [
        "gcuirf",
        -9.803168497681408
      ],
      [
        "gairdín",
        -9.804771491338204
      ],
      [
        "eacnamaíoch",
        -9.805299096397588
      ],
      [
        "Euro",
        -9.805383286034116
      ],
      [
        "TA",
        -9.80583110204842
      ],
      [
        "seacht",
        -9.80590822285926
      ],
      [
        "árú",
        -9.806381261892136
      ],
      [
        "chóra",
        -9.806572292892286
      ],
      [
        "ionadaithe",
        -9.807270915853136
      ],
      [
        "RE",
        -9.80852716717742
      ],
      [
        "thiocfa",
        -9.809295623657093
      ],
      [
        "Bainistíocht",
        -9.809427123299384
      ],
      [
        "sholáthra",
        -9.810016854240844
      ],
      [
        "cumas",
        -9.81016358014821
      ],
      [
        "Ina",
        -9.810533341387504
      ],
      [
        "SA",
        -9.812227349501086
      ],
      [
        "48",
        -9.813073259029526
      ],
      [
        "brabú",
        -9.813692645991308
      ],
      [
        "Ceann",
        -9.81396784193537
      ],
      [
        "fir",
        -9.814198477450182
      ],
      [
        "ionadaí",
        -9.81486551236388
      ],
      [
        "olas",
        -9.81509035303527
      ],
      [
        "Fógra",
        -9.817634179531428
      ],
      [
        "crité",
        -9.817930833959078
      ],
      [
        "Tuirc",
        -9.81794603945365
      ],
      [
        "ver",
        -9.819316980403336
      ],
      [
        "cumhachta",
        -9.821350223862748
      ],
      [
        "thuas",
        -9.823175222949526
      ],
      [
        "tréimhs",
        -9.823664838183538
      ],
      [
        "Áir",
        -9.825278317407143
      ],
      [
        "bás",
        -9.826466595880454
      ],
      [
        "Naisc",
        -9.82707478606171
      ],
      [
        "aptha",
        -9.827206876834666
      ],
      [
        "soláthair",
        -9.827235304365146
      ],
      [
        "bhreis",
        -9.82733662983036
      ],
      [
        "log",
        -9.829700130498448
      ],
      [
        "imscrúdú",
        -9.830824675361864
      ],
      [
        "thoil",
        -9.83094766770536
      ],
      [
        "chomhlacht",
        -9.83132587169336
      ],
      [
        "líonra",
        -9.831342691037207
      ],
      [
        "tv",
        -9.831658882938822
      ],
      [
        "mná",
        -9.832513008042682
      ],
      [
        "Príomh",
        -9.83313409913936
      ],
      [
        "chleachta",
        -9.83366976692559
      ],
      [
        "dhiúlt",
        -9.833849962578086
      ],
      [
        "híoc",
        -9.834369510100414
      ],
      [
        "Poiblí",
        -9.835383674189291
      ],
      [
        "Saor",
        -9.836028807872983
      ],
      [
        "dtiocfa",
        -9.837015553744076
      ],
      [
        "eofa",
        -9.83716946361936
      ],
      [
        "dhó",
        -9.83741587271605
      ],
      [
        "leithl",
        -9.837659233609074
      ],
      [
        "cáilithe",
        -9.83954443692186
      ],
      [
        "riala",
        -9.840654246992449
      ],
      [
        "Éisteachta",
        -9.841880548651048
      ],
      [
        "ionstraimí",
        -9.842736325890275
      ],
      [
        "saineola",
        -9.843166117243316
      ],
      [
        "cúpl",
        -9.84423652348423
      ],
      [
        "achomair",
        -9.844239935599452
      ],
      [
        "speic",
        -9.844246923883226
      ],
      [
        "dheimhniú",
        -9.844347294687026
      ],
      [
        "Úsáid",
        -9.844836466842771
      ],
      [
        "chuga",
        -9.844863040653864
      ],
      [
        "VI",
        -9.845470082922391
      ],
      [
        "gcuirfea",
        -9.847425972568535
      ],
      [
        "athaoirleach",
        -9.847772131635368
      ],
      [
        "chuirfid",
        -9.850701567817566
      ],
      [
        "iarr",
        -9.850823530780191
      ],
      [
        "clip",
        -9.850988682936652
      ],
      [
        "PH",
        -9.851025266095398
      ],
      [
        "ber",
        -9.851266077913191
      ],
      [
        "port",
        -9.852828789930228
      ],
      [
        "fhad",
        -9.85296432946739
      ],
      [
        "Institiúid",
        -9.85316176804182
      ],
      [
        "EORPA",
        -9.85316178475958
      ],
      [
        "spreaga",
        -9.853181643084344
      ],
      [
        "Chuideachta",
        -9.853508732491155
      ],
      [
        "imeacht",
        -9.85407070611774
      ],
      [
        "tháirgeadh",
        -9.854176170091646
      ],
      [
        "déileáil",
        -9.854370218363734
      ],
      [
        "ghinearálta",
        -9.85467808797327
      ],
      [
        "fheiceá",
        -9.8547460215653
      ],
      [
        "agam",
        -9.855602471954567
      ],
      [
        "ome",
        -9.856642407705891
      ],
      [
        "oifigiú",
        -9.857873448181149
      ],
      [
        "Chomhphoba",
        -9.859021439677894
      ],
      [
        "imp",
        -9.859427733753872
      ],
      [
        "phobal",
        -9.859458318844052
      ],
      [
        "Dara",
        -9.859647204378344
      ],
      [
        "déanf",
        -9.860929677103483
      ],
      [
        "radh",
        -9.86102310451328
      ],
      [
        "ige",
        -9.861363243986569
      ],
      [
        "stáisiú",
        -9.862316391551415
      ],
      [
        "chláir",
        -9.86305432318677
      ],
      [
        "únaer",
        -9.86315835608814
      ],
      [
        "BH",
        -9.864142565519666
      ],
      [
        "roinn",
        -9.864492851546355
      ],
      [
        "cheada",
        -9.86484537447583
      ],
      [
        "Ciste",
        -9.86772319382834
      ],
      [
        "oíche",
        -9.86894861007226
      ],
      [
        "dhliteana",
        -9.871262029385882
      ],
      [
        "Talmhan",
        -9.871262237786723
      ],
      [
        "rianchlo",
        -9.871274740012636
      ],
      [
        "tho",
        -9.871974085981778
      ],
      [
        "spás",
        -9.872258884574768
      ],
      [
        "oiliúna",
        -9.87245675456063
      ],
      [
        "faireachá",
        -9.87270885233454
      ],
      [
        "aireacht",
        -9.87329708129674
      ],
      [
        "ty",
        -9.874037601704025
      ],
      [
        "cheannas",
        -9.875454239338785
      ],
      [
        "chomhlachta",
        -9.87599020408888
      ],
      [
        "himeachta",
        -9.876953220107245
      ],
      [
        "fheidhmeanna",
        -9.8774282277391
      ],
      [
        "Eola",
        -9.877998538833818
      ],
      [
        "Banc",
        -9.87811383202342
      ],
      [
        "buan",
        -9.879519748370416
      ],
      [
        "coimeád",
        -9.880136442163415
      ],
      [
        "plaisteach",
        -9.88044360073906
      ],
      [
        "cinntí",
        -9.880462738317554
      ],
      [
        "Gharda",
        -9.880496304747863
      ],
      [
        "déanmha",
        -9.88139750605744
      ],
      [
        "trína",
        -9.88223738376236
      ],
      [
        "heannta",
        -9.882478391194748
      ],
      [
        "Ainm",
        -9.882794904923152
      ],
      [
        "38",
        -9.883027012059475
      ],
      [
        "mais",
        -9.883875759079462
      ],
      [
        "oiliúi",
        -9.884330537369433
      ],
      [
        "Con",
        -9.886896045154325
      ],
      [
        "athru",
        -9.887661284276628
      ],
      [
        "gceann",
        -9.88836915674226
      ],
      [
        "ianaise",
        -9.888423115636256
      ],
      [
        "gléas",
        -9.889601636835176
      ],
      [
        "teoranta",
        -9.88969604751549
      ],
      [
        "Ghaeilge",
        -9.88969632739606
      ],
      [
        "théarma",
        -9.8897292359504
      ],
      [
        "cuarda",
        -9.8901967967517
      ],
      [
        "pinsin",
        -9.891280061780918
      ],
      [
        "mic",
        -9.891334624805776
      ],
      [
        "shláint",
        -9.89241399792918
      ],
      [
        "leacht",
        -9.892636022752534
      ],
      [
        "mheasúnachta",
        -9.892947630078911
      ],
      [
        "phoba",
        -9.893833425736
      ],
      [
        "aoil",
        -9.894054623780889
      ],
      [
        "intinn",
        -9.89436668240958
      ],
      [
        "tairbhe",
        -9.894482237053566
      ],
      [
        "Cuideachta",
        -9.89457480152924
      ],
      [
        "65",
        -9.895612787054372
      ],
      [
        "fhág",
        -9.896166013324986
      ],
      [
        "uaire",
        -9.896349048558973
      ],
      [
        "oireann",
        -9.896771019050794
      ],
      [
        "gnócha",
        -9.89729035756087
      ],
      [
        "bog",
        -9.89763436935015
      ],
      [
        "cumarsáid",
        -9.899041101207754
      ],
      [
        "chóireáil",
        -9.899078953756243
      ],
      [
        "tithíocht",
        -9.899109428313432
      ],
      [
        "roghanna",
        -9.899369192709129
      ],
      [
        "ive",
        -9.899903670841748
      ],
      [
        "mac",
        -9.899947781041568
      ],
      [
        "fostóir",
        -9.900337676451542
      ],
      [
        "soláthraí",
        -9.900928227274814
      ],
      [
        "ceangla",
        -9.901365004256943
      ],
      [
        "Sraith",
        -9.901766742330778
      ],
      [
        "aonad",
        -9.90197562483483
      ],
      [
        "díls",
        -9.902737114479972
      ],
      [
        "DE",
        -9.903120825964429
      ],
      [
        "chán",
        -9.903487366469497
      ],
      [
        "leic",
        -9.904409938154805
      ],
      [
        "clo",
        -9.90580488350743
      ],
      [
        "léin",
        -9.907415650468632
      ],
      [
        "Coinbhinsiú",
        -9.90847501424787
      ],
      [
        "iomláin",
        -9.908487912570797
      ],
      [
        "conra",
        -9.909689692888836
      ],
      [
        "leictreacha",
        -9.909957652062896
      ],
      [
        "Dáta",
        -9.910112909966752
      ],
      [
        "ime",
        -9.910667762212174
      ],
      [
        "chánach",
        -9.91076693401331
      ],
      [
        "Hot",
        -9.91082042442611
      ],
      [
        "seachtrach",
        -9.910865031881956
      ],
      [
        "agóid",
        -9.911423288928056
      ],
      [
        "cruinni",
        -9.91205233828324
      ],
      [
        "oibreoir",
        -9.91289730797736
      ],
      [
        "comhpháirt",
        -9.91299291677778
      ],
      [
        "pacáist",
        -9.91343739161092
      ],
      [
        "oid",
        -9.913489340553774
      ],
      [
        "smaoin",
        -9.913981918350776
      ],
      [
        "chiste",
        -9.914992236188574
      ],
      [
        "teaghla",
        -9.915457784048364
      ],
      [
        "Hel",
        -9.915875896445993
      ],
      [
        "mheán",
        -9.915929952443486
      ],
      [
        "idirbheart",
        -9.916517269697875
      ],
      [
        "bainisteoir",
        -9.917059013154532
      ],
      [
        "ithreach",
        -9.91739199613876
      ],
      [
        "shuíomh",
        -9.91800598341489
      ],
      [
        "leithéid",
        -9.91803165226967
      ],
      [
        "gloin",
        -9.919040845441614
      ],
      [
        "tuairisceá",
        -9.91936178970438
      ],
      [
        "cist",
        -9.919564110645808
      ],
      [
        "Cruach",
        -9.919789318444767
      ],
      [
        "shaol",
        -9.92080493212246
      ],
      [
        "tre",
        -9.922874520981829
      ],
      [
        "soláthra",
        -9.923266134451248
      ],
      [
        "ranníoc",
        -9.924004669723969
      ],
      [
        "suí",
        -9.925026183511829
      ],
      [
        "CO",
        -9.925208895998926
      ],
      [
        "chinnf",
        -9.925673632011028
      ],
      [
        "áid",
        -9.926585527763704
      ],
      [
        "#",
        -9.927614208122318
      ],
      [
        "creidiúna",
        -9.927614210852637
      ],
      [
        "mhargadh",
        -9.92762196059298
      ],
      [
        "íolta",
        -9.92786184890553
      ],
      [
        "pháirt",
        -9.927999170480636
      ],
      [
        "scála",
        -9.928427602400356
      ],
      [
        "Sc",
        -9.92847841970871
      ],
      [
        "tee",
        -9.92923790912236
      ],
      [
        "EU",
        -9.929510507989663
      ],
      [
        "difríocht",
        -9.929672113800349
      ],
      [
        "ghnótha",
        -9.931292514814638
      ],
      [
        "ceacht",
        -9.931727172372188
      ],
      [
        "fág",
        -9.932271436702436
      ],
      [
        "bPríomh",
        -9.932982023967837
      ],
      [
        "shábháil",
        -9.934273354396757
      ],
      [
        "ngairm",
        -9.935019315335598
      ],
      [
        "dhlí",
        -9.935691672106188
      ],
      [
        "75",
        -9.936262912709932
      ],
      [
        "lámha",
        -9.936758795183636
      ],
      [
        "bheart",
        -9.936956305245184
      ],
      [
        "suntasach",
        -9.937323022155306
      ],
      [
        "ugann",
        -9.940007531701877
      ],
      [
        "modhann",
        -9.940381622902516
      ],
      [
        "leasuithe",
        -9.940429045371417
      ],
      [
        "réigiúnach",
        -9.942030221957957
      ],
      [
        "Noll",
        -9.943647801596589
      ],
      [
        "ceadúnais",
        -9.944549724583386
      ],
      [
        "ance",
        -9.944912500657203
      ],
      [
        "pháirtí",
        -9.944923363941264
      ],
      [
        "urrús",
        -9.94513538356437
      ],
      [
        "eolaíoch",
        -9.945566365126728
      ],
      [
        "sábháilte",
        -9.946300174026783
      ],
      [
        "shain",
        -9.946900787776563
      ],
      [
        "•",
        -9.94712686755502
      ],
      [
        "dromchla",
        -9.947126867625364
      ],
      [
        "leordhóthanach",
        -9.94712686858239
      ],
      [
        "Páirt",
        -9.947221878625026
      ],
      [
        "aerártha",
        -9.947721215496822
      ],
      [
        "Oideachas",
        -9.948395670508631
      ],
      [
        "cal",
        -9.948827659107105
      ],
      [
        "Pro",
        -9.948828808712213
      ],
      [
        "ual",
        -9.949934147289497
      ],
      [
        "réigiún",
        -9.950588562417288
      ],
      [
        "Gaeltachta",
        -9.951205369444155
      ],
      [
        "rolla",
        -9.953865695652032
      ],
      [
        "chorp",
        -9.954101767042372
      ],
      [
        "Q",
        -9.954484338616377
      ],
      [
        "íon",
        -9.955922461844509
      ],
      [
        "our",
        -9.955930722122895
      ],
      [
        "cúirte",
        -9.956048516983708
      ],
      [
        "baol",
        -9.956159797051878
      ],
      [
        "soláthróir",
        -9.957027857763528
      ],
      [
        "diúité",
        -9.957028000981548
      ],
      [
        "Commit",
        -9.957028528704884
      ],
      [
        "Load",
        -9.957329675620676
      ],
      [
        "thalamh",
        -9.957375521722987
      ],
      [
        "caighdeáin",
        -9.95774068350094
      ],
      [
        "tástáil",
        -9.958266679799909
      ],
      [
        "DH",
        -9.95849917423
      ],
      [
        "Sta",
        -9.959007837022677
      ],
      [
        "gCúirt",
        -9.959103801838664
      ],
      [
        "tion",
        -9.960319627359222
      ],
      [
        "eacair",
        -9.960915194996408
      ],
      [
        "traidisiún",
        -9.961878042649428
      ],
      [
        "grianghra",
        -9.963067666476205
      ],
      [
        "eolaíocht",
        -9.964501641174728
      ],
      [
        "Sóisial",
        -9.965095992512108
      ],
      [
        "Coda",
        -9.96536613250377
      ],
      [
        "sealbh",
        -9.966137134806674
      ],
      [
        "comhai",
        -9.966333042348744
      ],
      [
        "caipit",
        -9.966817851970312
      ],
      [
        "leibhé",
        -9.96701923948364
      ],
      [
        "tiomána",
        -9.96702803815742
      ],
      [
        "catagóir",
        -9.96703015566165
      ],
      [
        "hiúscairt",
        -9.967039511655807
      ],
      [
        "dheirea",
        -9.96753952058192
      ],
      [
        "Uisce",
        -9.96754856878314
      ],
      [
        "Ria",
        -9.96894759884992
      ],
      [
        "aidhm",
        -9.96907307458113
      ],
      [
        "ardchaighdeá",
        -9.970220379642049
      ],
      [
        "tais",
        -9.970445356700818
      ],
      [
        "chuirfea",
        -9.970668675186076
      ],
      [
        "suite",
        -9.971479588356152
      ],
      [
        "Airteaga",
        -9.971802868702817
      ],
      [
        "tógá",
        -9.972198085031865
      ],
      [
        "oirceannadh",
        -9.975353479810488
      ],
      [
        "42",
        -9.975503963560294
      ],
      [
        "ER",
        -9.976040712797309
      ],
      [
        "airdín",
        -9.97665572383352
      ],
      [
        "Speisialt",
        -9.977128884563164
      ],
      [
        "sheirbheáil",
        -9.977131931534338
      ],
      [
        "BliainDaon",
        -9.977148131072768
      ],
      [
        "TE",
        -9.977581380433374
      ],
      [
        "sainche",
        -9.977915894712265
      ],
      [
        "reachtú",
        -9.978013318948578
      ],
      [
        "tuiscint",
        -9.978096580708392
      ],
      [
        "load",
        -9.978141799191269
      ],
      [
        "cuntasaíocht",
        -9.978644836553872
      ],
      [
        "shonr",
        -9.97932157626075
      ],
      [
        "CF",
        -9.979391228010552
      ],
      [
        "druga",
        -9.981848916546657
      ],
      [
        "míle",
        -9.982714932453874
      ],
      [
        "caiteachais",
        -9.98333229507977
      ],
      [
        "blas",
        -9.983773877010169
      ],
      [
        "hreoir",
        -9.98411514822302
      ],
      [
        "ceal",
        -9.984570765255292
      ],
      [
        "mhair",
        -9.985665948454187
      ],
      [
        "Porno",
        -9.986882800129674
      ],
      [
        "IO",
        -9.987188778833923
      ],
      [
        "póirt",
        -9.988022799716555
      ],
      [
        "crann",
        -9.988853725832048
      ],
      [
        "phointe",
        -9.98912222506886
      ],
      [
        "tseirbhís",
        -9.989676493550869
      ],
      [
        "fhomhír",
        -9.991028471120126
      ],
      [
        "PS",
        -9.99145982451477
      ],
      [
        "breithiúna",
        -9.992784414438898
      ],
      [
        "bhord",
        -9.992799766589084
      ],
      [
        "tine",
        -9.993209078247038
      ],
      [
        "qu",
        -9.996816248387107
      ],
      [
        "stóráil",
        -9.99692184729817
      ],
      [
        "49",
        -9.997003369347611
      ],
      [
        "taispeáint",
        -9.997642228357886
      ],
      [
        "Screen",
        -9.997642960179904
      ],
      [
        "sreang",
        -9.997695620489532
      ],
      [
        "buntáist",
        -9.998179472091095
      ],
      [
        "ainmneach",
        -9.998479262209932
      ],
      [
        "bhainfid",
        -9.998723063776772
      ],
      [
        "uathoibríoch",
        -9.999086893055022
      ],
      [
        "teilifíse",
        -10.000437506510671
      ],
      [
        "taifid",
        -10.00106635626184
      ],
      [
        "bhainisti",
        -10.002726965270218
      ],
      [
        "chuí",
        -10.004226425375036
      ],
      [
        "feithicl",
        -10.00628352898639
      ],
      [
        "leictreach",
        -10.007054418599376
      ],
      [
        "Tionsca",
        -10.00711622239826
      ],
      [
        "téacs",
        -10.00807058413388
      ],
      [
        "difriú",
        -10.00809821518397
      ],
      [
        "díolúin",
        -10.008164188635844
      ],
      [
        "leigheas",
        -10.0082674414074
      ],
      [
        "iniúchta",
        -10.0083110494418
      ],
      [
        "comparáid",
        -10.008372164063372
      ],
      [
        "chinn",
        -10.00891542172631
      ],
      [
        "héann",
        -10.009226718866042
      ],
      [
        "tur",
        -10.009494219631556
      ],
      [
        "Ionad",
        -10.009499011610425
      ],
      [
        "bunúsach",
        -10.00958762489823
      ],
      [
        "leanála",
        -10.010478056930772
      ],
      [
        "80",
        -10.012339686104468
      ],
      [
        "dlíns",
        -10.01317707870468
      ],
      [
        "teas",
        -10.013397129065917
      ],
      [
        "ról",
        -10.013664874101032
      ],
      [
        "bhain",
        -10.01366917044592
      ],
      [
        "aineann",
        -10.014071179849209
      ],
      [
        "liti",
        -10.014746310675957
      ],
      [
        "chruinn",
        -10.015662241869371
      ],
      [
        "ardú",
        -10.016057223520924
      ],
      [
        "bpost",
        -10.01607134855357
      ],
      [
        "Ealaíon",
        -10.018585237936254
      ],
      [
        "páipéar",
        -10.018585343278168
      ],
      [
        "theicniú",
        -10.018591149285433
      ],
      [
        "Split",
        -10.01859251321746
      ],
      [
        "dlífea",
        -10.019031976290684
      ],
      [
        "saoráid",
        -10.019221528576576
      ],
      [
        "ráitis",
        -10.02143488464668
      ],
      [
        "uain",
        -10.021896192798955
      ],
      [
        "chláraithe",
        -10.022508937944608
      ],
      [
        "cónaithe",
        -10.023113151437965
      ],
      [
        "irí",
        -10.026899792793742
      ],
      [
        "ineacht",
        -10.027778890174869
      ],
      [
        "Po",
        -10.027883413001067
      ],
      [
        "orbartha",
        -10.028330944699444
      ],
      [
        "áirgeadh",
        -10.028626373029564
      ],
      [
        "RA",
        -10.029047382309994
      ],
      [
        "Trácht",
        -10.029325257368924
      ],
      [
        "maoirseacht",
        -10.029475661354716
      ],
      [
        "bunú",
        -10.029765303926249
      ],
      [
        "fhoilsi",
        -10.030423286790365
      ],
      [
        "dualga",
        -10.03245322880985
      ],
      [
        "mhar",
        -10.032673327764185
      ],
      [
        "lig",
        -10.033188473021006
      ],
      [
        "Léir",
        -10.035086681131029
      ],
      [
        "comhionann",
        -10.035211797556222
      ],
      [
        "Stair",
        -10.036509382552511
      ],
      [
        "US",
        -10.036844098333033
      ],
      [
        "cod",
        -10.03702339568174
      ],
      [
        "líomatáist",
        -10.039976196860293
      ],
      [
        "pionós",
        -10.039977628928856
      ],
      [
        "Bosca",
        -10.039978481523685
      ],
      [
        "Mórdhíol",
        -10.040138297880157
      ],
      [
        "nscne",
        -10.041071037960544
      ],
      [
        "srianta",
        -10.04135307465615
      ],
      [
        "Cum",
        -10.0423995985072
      ],
      [
        "timpeallacht",
        -10.042518682616798
      ],
      [
        "ceanta",
        -10.042870976856657
      ],
      [
        "eolaíochta",
        -10.043826711505467
      ],
      [
        "íní",
        -10.04456150831746
      ],
      [
        "thóg",
        -10.045079716965336
      ],
      [
        "Ábhar",
        -10.04542672099988
      ],
      [
        "leanúna",
        -10.046674615287364
      ],
      [
        "geall",
        -10.04702013775718
      ],
      [
        "Cor",
        -10.048302774708734
      ],
      [
        "obac",
        -10.0486941590601
      ],
      [
        "athbhreithn",
        -10.05017543046556
      ],
      [
        "shuim",
        -10.05084045459968
      ],
      [
        "Barcelon",
        -10.050845761647402
      ],
      [
        "phragha",
        -10.050967344711308
      ],
      [
        "Allah",
        -10.051199211606086
      ],
      [
        "stáit",
        -10.052169049009407
      ],
      [
        "tacaíochta",
        -10.05328813620385
      ],
      [
        "bhail",
        -10.053712475984632
      ],
      [
        "bunaío",
        -10.054979047203016
      ],
      [
        "taisti",
        -10.055313083941025
      ],
      [
        "breis",
        -10.05773776093714
      ],
      [
        "Ire",
        -10.058052065945336
      ],
      [
        "eagra",
        -10.059133638080002
      ],
      [
        "urrú",
        -10.059757180977826
      ],
      [
        "aontú",
        -10.05997735992656
      ],
      [
        "cigire",
        -10.060557384567542
      ],
      [
        "riachtana",
        -10.060567246169551
      ],
      [
        "dtaga",
        -10.061808329929791
      ],
      [
        "ARLAIMINT",
        -10.061834772445314
      ],
      [
        "Togra",
        -10.061835768975357
      ],
      [
        "gcomhar",
        -10.06250466707652
      ],
      [
        "bunaidh",
        -10.062646822745346
      ],
      [
        "55",
        -10.06341008656763
      ],
      [
        "ghníomhaíochta",
        -10.064885023951106
      ],
      [
        "pobal",
        -10.064889352278724
      ],
      [
        "caithea",
        -10.065320084365151
      ],
      [
        "roth",
        -10.066102248288804
      ],
      [
        "Fac",
        -10.066402243648376
      ],
      [
        "fororda",
        -10.069317779615773
      ],
      [
        "plé",
        -10.069343759632837
      ],
      [
        "Ro",
        -10.069381177318387
      ],
      [
        "othar",
        -10.069627804152024
      ],
      [
        "mhíniú",
        -10.070398390638516
      ],
      [
        "vóta",
        -10.070794717640023
      ],
      [
        "mB",
        -10.072492668977358
      ],
      [
        "thairiscint",
        -10.07294588688439
      ],
      [
        "feabhas",
        -10.072946048951843
      ],
      [
        "próiseála",
        -10.07294657198164
      ],
      [
        "seasamh",
        -10.072961291967363
      ],
      [
        "Dúi",
        -10.073091524143925
      ],
      [
        "CB",
        -10.07338648732691
      ],
      [
        "fhás",
        -10.073533379842084
      ],
      [
        "Theas",
        -10.07387496469658
      ],
      [
        "gníomhach",
        -10.075795906560847
      ],
      [
        "gcríoch",
        -10.076560100398192
      ],
      [
        "cumann",
        -10.076889315378844
      ],
      [
        "chreid",
        -10.07728317988915
      ],
      [
        "thu",
        -10.077424885921932
      ],
      [
        "inbh",
        -10.078941430193908
      ],
      [
        "ailte",
        -10.07925758413692
      ],
      [
        "iasachtaí",
        -10.082230209065337
      ],
      [
        "Déanann",
        -10.083140381320703
      ],
      [
        "fhoirgn",
        -10.083480381774432
      ],
      [
        "paisinéir",
        -10.084184540442337
      ],
      [
        "shuiteáil",
        -10.08420662305717
      ],
      [
        "chúit",
        -10.084355127793351
      ],
      [
        "fios",
        -10.08473970285716
      ],
      [
        "croí",
        -10.085597018166816
      ],
      [
        "Plean",
        -10.08611678380761
      ],
      [
        "mála",
        -10.086659365001136
      ],
      [
        "phlé",
        -10.087150981281836
      ],
      [
        "aghas",
        -10.087205067475162
      ],
      [
        "staidéar",
        -10.088579093189193
      ],
      [
        "gCuideachta",
        -10.09009155105159
      ],
      [
        "Tabhair",
        -10.090843045632448
      ],
      [
        "cruth",
        -10.09188696146052
      ],
      [
        "Iris",
        -10.09189542749996
      ],
      [
        "samhail",
        -10.0939238926242
      ],
      [
        "agartha",
        -10.095438744153295
      ],
      [
        "bréagach",
        -10.095546599047566
      ],
      [
        "Teaghla",
        -10.095548823659534
      ],
      [
        "Monaróir",
        -10.095554969941851
      ],
      [
        "dheasca",
        -10.095563262103614
      ],
      [
        "ollmhór",
        -10.095883335833271
      ],
      [
        "bair",
        -10.095987798641485
      ],
      [
        "chuntas",
        -10.096118498897408
      ],
      [
        "inti",
        -10.096155185645811
      ],
      [
        "Leis",
        -10.096536703613154
      ],
      [
        "allraí",
        -10.098394946327964
      ],
      [
        "fuaime",
        -10.099945605475307
      ],
      [
        "Tuga",
        -10.100014079168032
      ],
      [
        "dhear",
        -10.100534341059252
      ],
      [
        "01",
        -10.101554467505414
      ],
      [
        "up",
        -10.104377963799037
      ],
      [
        "Bre",
        -10.105396281055206
      ],
      [
        "Com",
        -10.106831433089198
      ],
      [
        "Straitéis",
        -10.107039772023048
      ],
      [
        "Catagóir",
        -10.107041119792388
      ],
      [
        "todhchaí",
        -10.107044048744454
      ],
      [
        "chaoi",
        -10.107772046862976
      ],
      [
        "Iompai",
        -10.107811790619222
      ],
      [
        "línt",
        -10.108128236458018
      ],
      [
        "praghs",
        -10.10874566124612
      ],
      [
        "úinéireacht",
        -10.109237646710495
      ],
      [
        "over",
        -10.109363773447894
      ],
      [
        "ionta",
        -10.109454685599635
      ],
      [
        "ici",
        -10.109554747041123
      ],
      [
        "gcomhalta",
        -10.112732680032396
      ],
      [
        "iche",
        -10.113217427516783
      ],
      [
        "éiríonn",
        -10.113253790564068
      ],
      [
        "Ceannai",
        -10.11394543510943
      ],
      [
        "slán",
        -10.114383290934711
      ],
      [
        "Mór",
        -10.11518566489742
      ],
      [
        "creat",
        -10.11521967510269
      ],
      [
        "páist",
        -10.115446363495174
      ],
      [
        "Post",
        -10.116639179081677
      ],
      [
        "47",
        -10.11736931847516
      ],
      [
        "dúrad",
        -10.11782086296294
      ],
      [
        "Wat",
        -10.118418344884624
      ],
      [
        "snáithe",
        -10.118621907682773
      ],
      [
        "Chontae",
        -10.118668382805325
      ],
      [
        "ullmha",
        -10.11878868344009
      ],
      [
        "meácha",
        -10.11942093180609
      ],
      [
        "óige",
        -10.1194898576986
      ],
      [
        "chúlghairm",
        -10.119587352765867
      ],
      [
        "áitri",
        -10.121634523017136
      ],
      [
        "ualach",
        -10.12258154710661
      ],
      [
        "Tu",
        -10.12471363350916
      ],
      [
        "cos",
        -10.124714018627822
      ],
      [
        "sheachai",
        -10.125581720066332
      ],
      [
        "namh",
        -10.126453277983355
      ],
      [
        "gníomhaíocht",
        -10.12791180864211
      ],
      [
        "dhíon",
        -10.12832698807297
      ],
      [
        "scoirf",
        -10.12948657721588
      ],
      [
        "cló",
        -10.129633216772596
      ],
      [
        "triail",
        -10.13041682501582
      ],
      [
        "_",
        -10.130432340708722
      ],
      [
        "Next",
        -10.130469064469864
      ],
      [
        "dhíreach",
        -10.13048625100593
      ],
      [
        "íosta",
        -10.131235880405264
      ],
      [
        "oladh",
        -10.131489345914538
      ],
      [
        "bac",
        -10.132720261221516
      ],
      [
        "teagmhála",
        -10.134580986617326
      ],
      [
        "céil",
        -10.135053492755992
      ],
      [
        "bainisti",
        -10.135285518480329
      ],
      [
        "tionónta",
        -10.13778087034266
      ],
      [
        "ı",
        -10.138402966648002
      ],
      [
        "roichead",
        -10.139506261893798
      ],
      [
        "gearán",
        -10.14085114609176
      ],
      [
        "tháirgí",
        -10.141207658593768
      ],
      [
        "meáchain",
        -10.141595749971708
      ],
      [
        "amhras",
        -10.141606330625518
      ],
      [
        "spraoi",
        -10.14233888357533
      ],
      [
        "foirfe",
        -10.142346820942125
      ],
      [
        "duilleog",
        -10.142348079674177
      ],
      [
        "iarsma",
        -10.142392968744794
      ],
      [
        "chúram",
        -10.142421877513884
      ],
      [
        "New",
        -10.142519362991536
      ],
      [
        "tirim",
        -10.142737823793556
      ],
      [
        "ráthaíocht",
        -10.14275483604008
      ],
      [
        "Tionscada",
        -10.143418228428256
      ],
      [
        "raitheann",
        -10.143489766137224
      ],
      [
        "maoiniú",
        -10.144626301754569
      ],
      [
        "aibí",
        -10.144797993008408
      ],
      [
        "imthosca",
        -10.145432455591154
      ],
      [
        "chruinni",
        -10.145672110415491
      ],
      [
        "Gan",
        -10.146502576320682
      ],
      [
        "Réamh",
        -10.147739296324708
      ],
      [
        "eachtúla",
        -10.14873146115401
      ],
      [
        "Có",
        -10.149245638799634
      ],
      [
        "Barr",
        -10.149702338236994
      ],
      [
        "tora",
        -10.150467801187045
      ],
      [
        "ANNA",
        -10.150834498977922
      ],
      [
        "nuashonr",
        -10.151762348388054
      ],
      [
        "Daon",
        -10.151934530545692
      ],
      [
        "ghala",
        -10.152363568900595
      ],
      [
        "dalta",
        -10.152433572836609
      ],
      [
        "eagraíochta",
        -10.153073512622171
      ],
      [
        "lainn",
        -10.15347951457747
      ],
      [
        "measúnachta",
        -10.15366958070764
      ],
      [
        "thógaint",
        -10.154401652895825
      ],
      [
        "Bláth",
        -10.154420818151676
      ],
      [
        "saincheist",
        -10.1549931039965
      ],
      [
        "tábla",
        -10.15512308822096
      ],
      [
        "No",
        -10.155476989610388
      ],
      [
        "Leanaí",
        -10.15576293454524
      ],
      [
        "orm",
        -10.156816136569756
      ],
      [
        "Pland",
        -10.157364030900656
      ],
      [
        "ID",
        -10.157434494047594
      ],
      [
        "mbeart",
        -10.157852211036923
      ],
      [
        "European",
        -10.15830306671874
      ],
      [
        "dian",
        -10.158700453263954
      ],
      [
        "chonra",
        -10.159222688769772
      ],
      [
        "ness",
        -10.15945318370382
      ],
      [
        "ous",
        -10.161696110619737
      ],
      [
        "eagla",
        -10.162583393766305
      ],
      [
        "aimsire",
        -10.163273851353829
      ],
      [
        "othabháil",
        -10.16418002236738
      ],
      [
        "Feidhmiú",
        -10.16518837598088
      ],
      [
        "teicneolaíocht",
        -10.165266012350052
      ],
      [
        "ure",
        -10.165371524628
      ],
      [
        "2000",
        -10.165437670401182
      ],
      [
        "ghníomhaíocht",
        -10.165570660064578
      ],
      [
        "bonn",
        -10.1656989523552
      ],
      [
        "Choinbhinsiú",
        -10.166580417460205
      ],
      [
        "friotaíocht",
        -10.166580417696093
      ],
      [
        "Fostaíocht",
        -10.166747844450184
      ],
      [
        "titim",
        -10.16676878802712
      ],
      [
        "Fu",
        -10.166803698706378
      ],
      [
        "cathrach",
        -10.16685482532129
      ],
      [
        "pri",
        -10.16726350057434
      ],
      [
        "áilte",
        -10.16729087622687
      ],
      [
        "bronntana",
        -10.167842272583515
      ],
      [
        "Níor",
        -10.167893226725749
      ],
      [
        "turas",
        -10.168458222760904
      ],
      [
        "Ru",
        -10.16901948020968
      ],
      [
        "teaghlach",
        -10.16996316166898
      ],
      [
        "orainn",
        -10.170755944382073
      ],
      [
        "achtaí",
        -10.171167100639943
      ],
      [
        "branda",
        -10.17122119746875
      ],
      [
        "comhréireacht",
        -10.171538580032088
      ],
      [
        "toghchán",
        -10.172518698462747
      ],
      [
        "cre",
        -10.173348719441409
      ],
      [
        "cód",
        -10.173517459799507
      ],
      [
        "éadaí",
        -10.173805649834428
      ],
      [
        "bhreithniú",
        -10.174151778190636
      ],
      [
        "pearsan",
        -10.17442682647682
      ],
      [
        "ainmniúchá",
        -10.175297779219292
      ],
      [
        "deireanach",
        -10.1753363566929
      ],
      [
        "comharthaí",
        -10.17606449153564
      ],
      [
        "Imeachta",
        -10.176082634002077
      ],
      [
        "lic",
        -10.1761859882256
      ],
      [
        "gcuntas",
        -10.178496143955584
      ],
      [
        "Talmhaíocht",
        -10.1789261215559
      ],
      [
        "shóisial",
        -10.178926501073736
      ],
      [
        "Connect",
        -10.17892669237203
      ],
      [
        "Gaillimh",
        -10.178928004376068
      ],
      [
        "Foirm",
        -10.178950607079814
      ],
      [
        "stáda",
        -10.179711152573358
      ],
      [
        "ture",
        -10.1811036950735
      ],
      [
        "ionchúis",
        -10.182320686676665
      ],
      [
        "cro",
        -10.182909136967892
      ],
      [
        "ghlana",
        -10.184036270122606
      ],
      [
        "ox",
        -10.185938450534636
      ],
      [
        "race",
        -10.186405812434732
      ],
      [
        "Cumhacht",
        -10.187285749829524
      ],
      [
        "chuma",
        -10.188405953776126
      ],
      [
        "chúna",
        -10.1886302356799
      ],
      [
        "02",
        -10.188754478108944
      ],
      [
        "ordóid",
        -10.190087718543186
      ],
      [
        "sibhialta",
        -10.191426560684592
      ],
      [
        "stoic",
        -10.19142887654495
      ],
      [
        "phinsin",
        -10.191726139237248
      ],
      [
        "cor",
        -10.192293212976384
      ],
      [
        "stop",
        -10.19240176452035
      ],
      [
        "ghníomhach",
        -10.194579348985492
      ],
      [
        "treo",
        -10.194743443370506
      ],
      [
        "thur",
        -10.194944547076028
      ],
      [
        "raí",
        -10.195406484619957
      ],
      [
        "ráid",
        -10.19627153143745
      ],
      [
        "thíolaca",
        -10.1966138720997
      ],
      [
        "Feidhm",
        -10.196662058706032
      ],
      [
        "tóirí",
        -10.19716551885664
      ],
      [
        "thrí",
        -10.1971877912371
      ],
      [
        "bpáirt",
        -10.197611481929352
      ],
      [
        "Ansin",
        -10.19778155438198
      ],
      [
        "fhostaithe",
        -10.198453587796866
      ],
      [
        "hábhair",
        -10.198577152403896
      ],
      [
        "IÚ",
        -10.198625483995436
      ],
      [
        "cónaí",
        -10.199563524812469
      ],
      [
        "reidiúint",
        -10.200388297061329
      ],
      [
        "vótála",
        -10.200907921042493
      ],
      [
        "Faisnéise",
        -10.20097426922178
      ],
      [
        "tiocfaid",
        -10.201732366535555
      ],
      [
        "bhforál",
        -10.20186676720261
      ],
      [
        "tuarascála",
        -10.201867979611524
      ],
      [
        "custaiméir",
        -10.202016515531437
      ],
      [
        "Samhai",
        -10.202542923715308
      ],
      [
        "óireacht",
        -10.20303252065892
      ],
      [
        "gcomhlacht",
        -10.20391056269673
      ],
      [
        "iliú",
        -10.2039561447113
      ],
      [
        "athnuachan",
        -10.204085064578384
      ],
      [
        "teaghais",
        -10.204085506783336
      ],
      [
        "Monarcha",
        -10.20408617605009
      ],
      [
        "Ráta",
        -10.20411607967698
      ],
      [
        "Gníomhaíochta",
        -10.204171973984426
      ],
      [
        "wash",
        -10.204190692352284
      ],
      [
        "deontais",
        -10.204494156526344
      ],
      [
        "tromchúiseach",
        -10.20467455998957
      ],
      [
        "níor",
        -10.205148126053114
      ],
      [
        "Leas",
        -10.205468701406597
      ],
      [
        "toghachá",
        -10.205731465667052
      ],
      [
        "chaith",
        -10.206099005849351
      ],
      [
        "Sean",
        -10.206113515849385
      ],
      [
        "cultúr",
        -10.20717553323141
      ],
      [
        "táscair",
        -10.207619179756207
      ],
      [
        "68",
        -10.208186342581936
      ],
      [
        "mer",
        -10.208677298756497
      ],
      [
        "tógála",
        -10.208771993918628
      ],
      [
        "ding",
        -10.208815674020052
      ],
      [
        "58",
        -10.209979004936637
      ],
      [
        "riail",
        -10.210010215507303
      ],
      [
        "éine",
        -10.2110389169007
      ],
      [
        "gcomhlíona",
        -10.214263739049128
      ],
      [
        "Rinne",
        -10.21433455801085
      ],
      [
        "Éireannach",
        -10.214395315725238
      ],
      [
        "mbunaí",
        -10.21446434772154
      ],
      [
        "dhéag",
        -10.214703906971746
      ],
      [
        "nglacfa",
        -10.215237766221817
      ],
      [
        "oibríocht",
        -10.215354045877556
      ],
      [
        "dáilea",
        -10.216645709193983
      ],
      [
        "eitilt",
        -10.216917043054002
      ],
      [
        "próiseáil",
        -10.216922694736564
      ],
      [
        "phearsanta",
        -10.216936367694997
      ],
      [
        "fíon",
        -10.217465360972035
      ],
      [
        "riocht",
        -10.218498260090229
      ],
      [
        "glacfa",
        -10.218588932808476
      ],
      [
        "éascú",
        -10.218774776191353
      ],
      [
        "CDD",
        -10.218999726438671
      ],
      [
        "Gníomhaireacht",
        -10.21975319374739
      ],
      [
        "mórdhíoltóir",
        -10.22032279954684
      ],
      [
        "cathaoirleach",
        -10.223578824248392
      ],
      [
        "léiríonn",
        -10.22383960194038
      ],
      [
        "Fhor",
        -10.224241757557037
      ],
      [
        "taitneamh",
        -10.224941970380424
      ],
      [
        "Bhain",
        -10.225199579039923
      ],
      [
        "scoir",
        -10.225485535908913
      ],
      [
        "brí",
        -10.226500444606897
      ],
      [
        "uachtar",
        -10.2265852721817
      ],
      [
        "eithicil",
        -10.226882519025366
      ],
      [
        "bean",
        -10.22757443464651
      ],
      [
        "mBan",
        -10.22822528382785
      ],
      [
        "iontaobhais",
        -10.229837136463097
      ],
      [
        "Ilghnéitheach",
        -10.229891850240517
      ],
      [
        "Cumarsáid",
        -10.22989189218691
      ],
      [
        "Chearta",
        -10.229924256193616
      ],
      [
        "thuiscint",
        -10.229946352305172
      ],
      [
        "cóireáil",
        -10.22997260691336
      ],
      [
        "áititheoir",
        -10.229982132583777
      ],
      [
        "iniúchóir",
        -10.23017752783914
      ],
      [
        "labhairt",
        -10.230215459606423
      ],
      [
        "áireofa",
        -10.230399126027278
      ],
      [
        "trácht",
        -10.230481009756708
      ],
      [
        "Iosta",
        -10.23152673642594
      ],
      [
        "díoltóir",
        -10.231546723318528
      ],
      [
        "gléasra",
        -10.231733370748806
      ],
      [
        "pol",
        -10.23230664425232
      ],
      [
        "cáil",
        -10.23239611684983
      ],
      [
        "threoir",
        -10.23254822401681
      ],
      [
        "inniúlacht",
        -10.234471740821125
      ],
      [
        "ghearr",
        -10.2348022278199
      ],
      [
        "Seirbhíse",
        -10.237187497701903
      ],
      [
        "oibrí",
        -10.237608997076451
      ],
      [
        "gorm",
        -10.237903047553605
      ],
      [
        "híocaíochta",
        -10.239267004680505
      ],
      [
        "ov",
        -10.24015407730753
      ],
      [
        "críochnaithe",
        -10.241179964076474
      ],
      [
        "bua",
        -10.2422327858586
      ],
      [
        "Cathrach",
        -10.243051835201678
      ],
      [
        "taisteal",
        -10.243059620183804
      ],
      [
        "ghrian",
        -10.243555953170793
      ],
      [
        "mheasúnú",
        -10.24362017008267
      ],
      [
        "bhfaighi",
        -10.243807017085544
      ],
      [
        "chead",
        -10.243895763828789
      ],
      [
        "Athr",
        -10.245577538116876
      ],
      [
        "olex",
        -10.24671881066032
      ],
      [
        "iarbh",
        -10.246901609123944
      ],
      [
        "fuar",
        -10.247163505201511
      ],
      [
        "ghné",
        -10.247196466337437
      ],
      [
        "Tra",
        -10.247269236046147
      ],
      [
        "08",
        -10.247863664844887
      ],
      [
        "míniú",
        -10.248268819206556
      ],
      [
        "incháilithe",
        -10.248614789637957
      ],
      [
        "foins",
        -10.248677301220134
      ],
      [
        "point",
        -10.248717040296004
      ],
      [
        "fhreagra",
        -10.249309876774827
      ],
      [
        "App",
        -10.24940546842793
      ],
      [
        "beala",
        -10.250319789646811
      ],
      [
        "fhostaí",
        -10.250811296794382
      ],
      [
        "lámh",
        -10.25143730159424
      ],
      [
        "fiosrúchá",
        -10.252747707472311
      ],
      [
        "chigire",
        -10.253509554765786
      ],
      [
        "41",
        -10.254612172215545
      ],
      [
        "staidé",
        -10.2554446598735
      ],
      [
        "choinníollach",
        -10.255451812834984
      ],
      [
        "carr",
        -10.255957786871004
      ],
      [
        "iontaofa",
        -10.25596892377057
      ],
      [
        "gcóra",
        -10.256067192704446
      ],
      [
        "Outlook",
        -10.2563830780911
      ],
      [
        "digiteach",
        -10.256383155830363
      ],
      [
        "comhairliúchá",
        -10.256384625352933
      ],
      [
        "mhaolú",
        -10.256387545038224
      ],
      [
        "Coláist",
        -10.256467024207437
      ],
      [
        "táirgthe",
        -10.256475028795542
      ],
      [
        "tomhaltóir",
        -10.256719059354506
      ],
      [
        "ordachá",
        -10.257112747899644
      ],
      [
        "thiar",
        -10.257521333495612
      ],
      [
        "Gairdín",
        -10.257720293786846
      ],
      [
        "line",
        -10.258233696588912
      ],
      [
        "out",
        -10.25834737651719
      ],
      [
        "LA",
        -10.25879219809056
      ],
      [
        "euro",
        -10.259384004678491
      ],
      [
        "lárnach",
        -10.25991506159572
      ],
      [
        "Ath",
        -10.260101381189912
      ],
      [
        "mhargai",
        -10.26187890328238
      ],
      [
        "tosaíochta",
        -10.261944876576088
      ],
      [
        "Iarrata",
        -10.26232978863582
      ],
      [
        "brabús",
        -10.26297031623611
      ],
      [
        "tarraing",
        -10.263308262413668
      ],
      [
        "huaigh",
        -10.263861291394123
      ],
      [
        "less",
        -10.2644056319329
      ],
      [
        "stóra",
        -10.264495948974378
      ],
      [
        "beatha",
        -10.26630434637714
      ],
      [
        "Feabh",
        -10.267313244173264
      ],
      [
        "crios",
        -10.267513905864504
      ],
      [
        "fréamh",
        -10.26799713243336
      ],
      [
        "cábla",
        -10.26816939018353
      ],
      [
        "oirne",
        -10.268561473671795
      ],
      [
        "itheora",
        -10.268859377876774
      ],
      [
        "ON",
        -10.268948051250174
      ],
      [
        "chaill",
        -10.26905535698634
      ],
      [
        "Gníomh",
        -10.269768710992164
      ],
      [
        "diúscairt",
        -10.26989696908549
      ],
      [
        "bhéarfa",
        -10.272047064402834
      ],
      [
        "réigiú",
        -10.272183287082632
      ],
      [
        "Pé",
        -10.274292065863488
      ],
      [
        "rialaitheoir",
        -10.275017542043074
      ],
      [
        "lactha",
        -10.276083138211304
      ],
      [
        "Bun",
        -10.27689177217043
      ],
      [
        "buí",
        -10.277861711307626
      ],
      [
        "réasún",
        -10.278702791876654
      ],
      [
        "dtreo",
        -10.280315574001676
      ],
      [
        "aimsi",
        -10.281252913798642
      ],
      [
        "éireo",
        -10.282704368965716
      ],
      [
        "teagmhas",
        -10.283595522486388
      ],
      [
        "uiscí",
        -10.283609865136132
      ],
      [
        "chumhda",
        -10.283636691223728
      ],
      [
        "eisia",
        -10.283646675916836
      ],
      [
        "Mheán",
        -10.28368590006026
      ],
      [
        "AC",
        -10.283921177391967
      ],
      [
        "meascá",
        -10.285244580645111
      ],
      [
        "ceangailte",
        -10.285571863835134
      ],
      [
        "Nuacht",
        -10.285599428568018
      ],
      [
        "bhrú",
        -10.286672295249762
      ],
      [
        "phróisea",
        -10.286716186320891
      ],
      [
        "satailít",
        -10.289212353828969
      ],
      [
        "bailiúchá",
        -10.290438805467096
      ],
      [
        "Cineál",
        -10.2933754710612
      ],
      [
        "athúil",
        -10.293514184195278
      ],
      [
        "oird",
        -10.293961376073357
      ],
      [
        "timpeall",
        -10.29420452295712
      ],
      [
        "hosaint",
        -10.294220785205804
      ],
      [
        "díolachá",
        -10.29434904518353
      ],
      [
        "ence",
        -10.294396747773272
      ],
      [
        "44",
        -10.295517900204093
      ],
      [
        "adóireacht",
        -10.29596130698508
      ],
      [
        "Oibre",
        -10.297179466998283
      ],
      [
        "éigeandála",
        -10.29756187433086
      ],
      [
        "ollscoil",
        -10.297654898594432
      ],
      [
        "pháipéir",
        -10.298271733088892
      ],
      [
        "fhostaíocht",
        -10.298333452350697
      ],
      [
        "gruaig",
        -10.29950253070164
      ],
      [
        "eagrú",
        -10.300239683401156
      ],
      [
        "Cás",
        -10.300297900757212
      ],
      [
        "fionraí",
        -10.300902823739204
      ],
      [
        "gcoinn",
        -10.301263598759304
      ],
      [
        "que",
        -10.301742841046629
      ],
      [
        "treoirlín",
        -10.30188003223768
      ],
      [
        "honraithe",
        -10.302006038792216
      ],
      [
        "Neamh",
        -10.302317652145682
      ],
      [
        "ealaíon",
        -10.30328149747614
      ],
      [
        "aonta",
        -10.30380750038948
      ],
      [
        "Léig",
        -10.304330249511075
      ],
      [
        "ste",
        -10.30450631350769
      ],
      [
        "66",
        -10.305073903802402
      ],
      [
        "gcomhlíonfa",
        -10.30600395021518
      ],
      [
        "comhshao",
        -10.306069258107724
      ],
      [
        "faighte",
        -10.306402027491965
      ],
      [
        "infheistíocht",
        -10.306630339791914
      ],
      [
        "cháilíocht",
        -10.30739692703088
      ],
      [
        "feithicle",
        -10.308150757171031
      ],
      [
        "lacht",
        -10.30908575378818
      ],
      [
        "Chúirte",
        -10.309721596271764
      ],
      [
        "by",
        -10.310057212778853
      ],
      [
        "éagsú",
        -10.310670984611637
      ],
      [
        "Lean",
        -10.310771547781023
      ],
      [
        "ping",
        -10.31079504503606
      ],
      [
        "2002",
        -10.311459344663824
      ],
      [
        "gcoit",
        -10.31148370480835
      ],
      [
        "09",
        -10.311517614637715
      ],
      [
        "DHÉAN",
        -10.311568665465137
      ],
      [
        "Forbairt",
        -10.311571212179617
      ],
      [
        "Local",
        -10.311579425020692
      ],
      [
        "cóireála",
        -10.311601405636935
      ],
      [
        "chostas",
        -10.311650438474691
      ],
      [
        "fhadhb",
        -10.311725154515198
      ],
      [
        "iniúchóireachta",
        -10.311874090973305
      ],
      [
        "fhorghníomh",
        -10.311882992450949
      ],
      [
        "gcruinni",
        -10.312181913310292
      ],
      [
        "59",
        -10.312256126993011
      ],
      [
        "56",
        -10.313227997509468
      ],
      [
        "hArd",
        -10.313367152105217
      ],
      [
        "chluich",
        -10.314651536112445
      ],
      [
        "pas",
        -10.315272289583556
      ],
      [
        "bhótha",
        -10.315532616223493
      ],
      [
        "pre",
        -10.31581611163926
      ],
      [
        "ghl",
        -10.316041595220852
      ],
      [
        "mheasfa",
        -10.316706252583934
      ],
      [
        "oibríochtú",
        -10.31671785218344
      ],
      [
        "seachada",
        -10.316808833967752
      ],
      [
        "measta",
        -10.317117475409006
      ],
      [
        "scanná",
        -10.317570455341343
      ],
      [
        "náisiún",
        -10.317747117824752
      ],
      [
        "phlean",
        -10.31922005197278
      ],
      [
        "comhar",
        -10.319282488860711
      ],
      [
        "gcóir",
        -10.320306933059245
      ],
      [
        "thuairisc",
        -10.321152114098489
      ],
      [
        "unt",
        -10.32115831380342
      ],
      [
        "choinne",
        -10.321452552983944
      ],
      [
        "bheag",
        -10.322519616418033
      ],
      [
        "Gníomhaireachta",
        -10.322740578425323
      ],
      [
        "UN",
        -10.323155112752346
      ],
      [
        "gcionta",
        -10.323680805703155
      ],
      [
        "2003",
        -10.32444557602778
      ],
      [
        "isceana",
        -10.325268104381143
      ],
      [
        "Sin",
        -10.325416976996452
      ],
      [
        "ker",
        -10.32544122255566
      ],
      [
        "Taispeáin",
        -10.325854333104257
      ],
      [
        "dhochtúir",
        -10.32585456335106
      ],
      [
        "páipéir",
        -10.325855205643876
      ],
      [
        "sreabha",
        -10.325857173206208
      ],
      [
        "sheachtain",
        -10.325873436064589
      ],
      [
        "múnla",
        -10.325877048952936
      ],
      [
        "chonartha",
        -10.326016847023984
      ],
      [
        "pian",
        -10.32656680313453
      ],
      [
        "67",
        -10.326850500758116
      ],
      [
        "muiri",
        -10.327587546861595
      ],
      [
        "cheal",
        -10.328588656366854
      ],
      [
        "leachta",
        -10.328848822797006
      ],
      [
        "rochta",
        -10.331687084420697
      ],
      [
        "Tuarascá",
        -10.33225066467861
      ],
      [
        "meas",
        -10.335649479913917
      ],
      [
        "cúrsaí",
        -10.335694520085784
      ],
      [
        "réad",
        -10.337362185510456
      ],
      [
        "caithfi",
        -10.337738107217586
      ],
      [
        "Ã3",
        -10.337847085659632
      ],
      [
        "malart",
        -10.337928351128868
      ],
      [
        "allóid",
        -10.338029773998166
      ],
      [
        "Conrad",
        -10.3384138665579
      ],
      [
        "Glac",
        -10.338860992000184
      ],
      [
        "fhoghlaim",
        -10.34034712994276
      ],
      [
        "Gluaiseacht",
        -10.340347281162078
      ],
      [
        "thuairim",
        -10.340357025094177
      ],
      [
        "imreoir",
        -10.340383316789609
      ],
      [
        "fórsa",
        -10.340496913726248
      ],
      [
        "dligh",
        -10.34053876547435
      ],
      [
        "míleata",
        -10.34082801498696
      ],
      [
        "polasa",
        -10.341069132688698
      ],
      [
        "fhiach",
        -10.3412592132031
      ],
      [
        "sceideal",
        -10.341261757274802
      ],
      [
        "féilir",
        -10.341329441260154
      ],
      [
        "teicneolaíochta",
        -10.341913284607632
      ],
      [
        "57",
        -10.342198178713083
      ],
      [
        "luais",
        -10.3431010237039
      ],
      [
        "CC",
        -10.34338396723382
      ],
      [
        "éigean",
        -10.345257571245508
      ],
      [
        "deona",
        -10.345929957073723
      ],
      [
        "Ráit",
        -10.34620504550573
      ],
      [
        "FC",
        -10.346475260554287
      ],
      [
        "dhul",
        -10.346661815413617
      ],
      [
        "dlíthiúil",
        -10.348172920893289
      ],
      [
        "Sín",
        -10.34830181270588
      ],
      [
        "98",
        -10.348425890440986
      ],
      [
        "gcumas",
        -10.348704008293948
      ],
      [
        "gairmiú",
        -10.350027082543733
      ],
      [
        "mhonar",
        -10.350455576518325
      ],
      [
        "iontair",
        -10.351377812556798
      ],
      [
        "mhodhn",
        -10.35316374931258
      ],
      [
        "fostaíocht",
        -10.353547690835864
      ],
      [
        "scaoilte",
        -10.35489193825016
      ],
      [
        "staitistic",
        -10.35505296800611
      ],
      [
        "pictiúr",
        -10.35505304326274
      ],
      [
        "alúmana",
        -10.355059513911415
      ],
      [
        "éifeachtúlacht",
        -10.355254803067565
      ],
      [
        "ealaín",
        -10.355264560886908
      ],
      [
        "urscaoileadh",
        -10.355521081898363
      ],
      [
        "AD",
        -10.356350818457711
      ],
      [
        "lasta",
        -10.35686453642706
      ],
      [
        "Samh",
        -10.357241932458692
      ],
      [
        "tail",
        -10.35780612473856
      ],
      [
        "Thu",
        -10.357947423338498
      ],
      [
        "mhola",
        -10.358156626461064
      ],
      [
        "meái",
        -10.358208945370745
      ],
      [
        "tháirg",
        -10.358257247554556
      ],
      [
        "PO",
        -10.358496704518693
      ],
      [
        "chíos",
        -10.359571565080827
      ],
      [
        "ebate",
        -10.359603969351696
      ],
      [
        "rannpháirteach",
        -10.360400251715683
      ],
      [
        "cruthúna",
        -10.360511854020729
      ],
      [
        "ceapad",
        -10.361440166277228
      ],
      [
        "craice",
        -10.361654875374368
      ],
      [
        "toghchá",
        -10.36279621391315
      ],
      [
        "iceáil",
        -10.362857078709457
      ],
      [
        "thú",
        -10.364750127773693
      ],
      [
        "géar",
        -10.365574295176138
      ],
      [
        "Oifigiú",
        -10.36561049889968
      ],
      [
        "buiséad",
        -10.366186114477774
      ],
      [
        "comhartha",
        -10.366662499205678
      ],
      [
        "eachtra",
        -10.36775528857207
      ],
      [
        "olais",
        -10.368259665174868
      ],
      [
        "light",
        -10.368339484429312
      ],
      [
        "eán",
        -10.369846191474426
      ],
      [
        "Ná",
        -10.36984652160856
      ],
      [
        "giorra",
        -10.369978549400932
      ],
      [
        "Daonlatha",
        -10.36998067610655
      ],
      [
        "tiomanta",
        -10.369982322426504
      ],
      [
        "caidr",
        -10.370009277767334
      ],
      [
        "ospidé",
        -10.370119014545615
      ],
      [
        "óiteá",
        -10.37277696203865
      ],
      [
        "clúda",
        -10.372955589990628
      ],
      [
        "MA",
        -10.373077581189246
      ],
      [
        "way",
        -10.373461971765114
      ],
      [
        "aiste",
        -10.373704861112405
      ],
      [
        "43",
        -10.375068564484302
      ],
      [
        "toirmeasc",
        -10.375564829521688
      ],
      [
        "gcomhaont",
        -10.375574471586704
      ],
      [
        "trá",
        -10.37589051361028
      ],
      [
        "toirt",
        -10.376646214680488
      ],
      [
        "oidhreacht",
        -10.37666454528131
      ],
      [
        "shealbhóir",
        -10.376672693485313
      ],
      [
        "gCiste",
        -10.377796595464217
      ],
      [
        "gairm",
        -10.378154933146952
      ],
      [
        "áracha",
        -10.378301612603147
      ],
      [
        "cainé",
        -10.378549786611837
      ],
      [
        "cheapfa",
        -10.37866179479236
      ],
      [
        "men",
        -10.379150888635529
      ],
      [
        "nasctha",
        -10.379247642455333
      ],
      [
        "07",
        -10.37946887472116
      ],
      [
        "geal",
        -10.379651054612529
      ],
      [
        "fhororda",
        -10.379728371216522
      ],
      [
        "alair",
        -10.38007454841696
      ],
      [
        "Mac",
        -10.384472194526174
      ],
      [
        "Iomlán",
        -10.385130092087588
      ],
      [
        "Tacaíocht",
        -10.3851395549479
      ],
      [
        "earráid",
        -10.385362866707554
      ],
      [
        "just",
        -10.385467111538508
      ],
      [
        "compordach",
        -10.385799138055628
      ],
      [
        "shiúl",
        -10.386298705746803
      ],
      [
        "Ciall",
        -10.386349137841467
      ],
      [
        "fhostóir",
        -10.387417692098182
      ],
      [
        "fomhír",
        -10.387736022659595
      ],
      [
        "eochair",
        -10.38841852400718
      ],
      [
        "Roghna",
        -10.388838435221626
      ],
      [
        "léigh",
        -10.388997052367568
      ],
      [
        "bailí",
        -10.389129363668705
      ],
      [
        "bhunaithe",
        -10.389129890140817
      ],
      [
        "ack",
        -10.389628166287157
      ],
      [
        "ascach",
        -10.389643606410669
      ],
      [
        "mblia",
        -10.390067532958106
      ],
      [
        "alamh",
        -10.390657589910656
      ],
      [
        "Faigh",
        -10.391112918137782
      ],
      [
        "comhréir",
        -10.39133324851148
      ],
      [
        "cháil",
        -10.391389398156372
      ],
      [
        "AIS",
        -10.391852007923486
      ],
      [
        "glasra",
        -10.392267869505073
      ],
      [
        "AG",
        -10.392358837160844
      ],
      [
        "53",
        -10.392804021241137
      ],
      [
        "soith",
        -10.393660991137468
      ],
      [
        "EM",
        -10.39451305903015
      ],
      [
        "chúrsa",
        -10.396198808048103
      ],
      [
        "cine",
        -10.396262869535365
      ],
      [
        "CHU",
        -10.396282313066788
      ],
      [
        "raein",
        -10.39658953221808
      ],
      [
        "CD",
        -10.396914942411913
      ],
      [
        "caighdeánach",
        -10.397924263593552
      ],
      [
        "bhá",
        -10.398748286202752
      ],
      [
        "Saoir",
        -10.398925977183186
      ],
      [
        "ortha",
        -10.39920618862515
      ],
      [
        "Ins",
        -10.39939158028513
      ],
      [
        "illiún",
        -10.399430749133124
      ],
      [
        "Cáin",
        -10.399430995910883
      ],
      [
        "Eilvéis",
        -10.400514502169184
      ],
      [
        "Praghas",
        -10.400530976655023
      ],
      [
        "iontráil",
        -10.40053169150407
      ],
      [
        "Air",
        -10.400703330745994
      ],
      [
        "Iasca",
        -10.401222782188242
      ],
      [
        "shás",
        -10.401770328511171
      ],
      [
        "Mhár",
        -10.402205585991268
      ],
      [
        "séala",
        -10.40228027236789
      ],
      [
        "ful",
        -10.402786988525452
      ],
      [
        "oiciméid",
        -10.403477454518908
      ],
      [
        "chustaiméir",
        -10.403781007449112
      ],
      [
        "mionsonra",
        -10.40449945592805
      ],
      [
        "príosúnacht",
        -10.40451727956978
      ],
      [
        "bótha",
        -10.405715095097683
      ],
      [
        "comha",
        -10.405799844339654
      ],
      [
        "Chlár",
        -10.406130496454514
      ],
      [
        "daonna",
        -10.40649149484653
      ],
      [
        "Céim",
        -10.407214231291563
      ],
      [
        "imirce",
        -10.407797226880334
      ],
      [
        "íniú",
        -10.408294200352058
      ],
      [
        "deartha",
        -10.40837144255691
      ],
      [
        "seolta",
        -10.409152515402472
      ],
      [
        "phionós",
        -10.40992448355495
      ],
      [
        "reachtach",
        -10.410221745320118
      ],
      [
        "olc",
        -10.411679798184569
      ],
      [
        "feiste",
        -10.41206698481519
      ],
      [
        "Ríomh",
        -10.41228474037074
      ],
      [
        "pota",
        -10.412391837627595
      ],
      [
        "tabharfaid",
        -10.41261178569872
      ],
      [
        "IT",
        -10.412642792977657
      ],
      [
        "hoifig",
        -10.41275584330761
      ],
      [
        "ME",
        -10.412777083719416
      ],
      [
        "marc",
        -10.41290933685112
      ],
      [
        "clúdach",
        -10.413369610166995
      ],
      [
        "scia",
        -10.413958382570527
      ],
      [
        "tabha",
        -10.414764295315038
      ],
      [
        "Eo",
        -10.415332074438933
      ],
      [
        "Aois",
        -10.415891591815278
      ],
      [
        "ghluaiste",
        -10.416088052700488
      ],
      [
        "Ö",
        -10.416139471587885
      ],
      [
        "Uaireadóir",
        -10.416139527950424
      ],
      [
        "reáchtáil",
        -10.416139551113954
      ],
      [
        "dhaingniú",
        -10.416141667749402
      ],
      [
        "National",
        -10.416144728707078
      ],
      [
        "Chuarda",
        -10.416154315387404
      ],
      [
        "rialáil",
        -10.416159594106496
      ],
      [
        "Freagra",
        -10.416164678878925
      ],
      [
        "chostais",
        -10.4162086015872
      ],
      [
        "Tábla",
        -10.41623644411248
      ],
      [
        "baránta",
        -10.416366459732838
      ],
      [
        "deacra",
        -10.41653026197334
      ],
      [
        "allmhairiú",
        -10.416549923896946
      ],
      [
        "Cu",
        -10.416633977014545
      ],
      [
        "tábhacht",
        -10.416773133663929
      ],
      [
        "eintit",
        -10.41784829121776
      ],
      [
        "Earra",
        -10.418512352590866
      ],
      [
        "book",
        -10.41928230781918
      ],
      [
        "ghá",
        -10.419961171045228
      ],
      [
        "ciste",
        -10.42019287350577
      ],
      [
        "arainn",
        -10.421201221182695
      ],
      [
        "cáilíocht",
        -10.42124362861422
      ],
      [
        "píosa",
        -10.422358530167008
      ],
      [
        "óthair",
        -10.42245750636515
      ],
      [
        "illte",
        -10.423195041540598
      ],
      [
        "charm",
        -10.423516761224397
      ],
      [
        "coinníoll",
        -10.423521980962231
      ],
      [
        "Ós",
        -10.423881041434637
      ],
      [
        "shannta",
        -10.424743293705191
      ],
      [
        "Hu",
        -10.424892366723798
      ],
      [
        "hoibleagáid",
        -10.425265168483069
      ],
      [
        "eartú",
        -10.425712630388563
      ],
      [
        "Fir",
        -10.426171344562835
      ],
      [
        "PE",
        -10.426560273661988
      ],
      [
        "cúrsa",
        -10.427213837398137
      ],
      [
        "SS",
        -10.428812989392378
      ],
      [
        "cairde",
        -10.429461092392598
      ],
      [
        "bhean",
        -10.429461441843523
      ],
      [
        "ócáid",
        -10.431303030373194
      ],
      [
        "52",
        -10.431478609025351
      ],
      [
        "taispeánta",
        -10.432012496848294
      ],
      [
        "tírdhreach",
        -10.432016222151136
      ],
      [
        "tuarasta",
        -10.432017502648709
      ],
      [
        "Tiocf",
        -10.4320324583941
      ],
      [
        "liathróid",
        -10.432037929926892
      ],
      [
        "EASÚ",
        -10.432046827335627
      ],
      [
        "Dollar",
        -10.43210567628675
      ],
      [
        "Taighde",
        -10.43222482316622
      ],
      [
        "beirt",
        -10.432980505624506
      ],
      [
        "theasta",
        -10.433201893612766
      ],
      [
        "gcomhlíon",
        -10.43545873212294
      ],
      [
        "IP",
        -10.435757756108126
      ],
      [
        "teasa",
        -10.437100987335002
      ],
      [
        "teachtaireacht",
        -10.43775572959964
      ],
      [
        "dhiaili",
        -10.438006613413627
      ],
      [
        "aistr",
        -10.438312172276037
      ],
      [
        "GE",
        -10.43841055205212
      ],
      [
        "chos",
        -10.4385036541535
      ],
      [
        "bainc",
        -10.43921185127506
      ],
      [
        "Mu",
        -10.439775503061776
      ],
      [
        "dtos",
        -10.440049979587194
      ],
      [
        "fís",
        -10.440066577720849
      ],
      [
        "We",
        -10.440829219874034
      ],
      [
        "adóir",
        -10.441968458876246
      ],
      [
        "CEE",
        -10.443348158783255
      ],
      [
        "99",
        -10.44344765661796
      ],
      [
        "aisghair",
        -10.4445939838356
      ],
      [
        "taise",
        -10.445939894661969
      ],
      [
        "astu",
        -10.446468369539147
      ],
      [
        "Áise",
        -10.446936661451923
      ],
      [
        "caith",
        -10.447032371489858
      ],
      [
        "Iompa",
        -10.447059058875102
      ],
      [
        "díola",
        -10.447187097004534
      ],
      [
        "Nach",
        -10.447473233822189
      ],
      [
        "Shóisiala",
        -10.448005531397978
      ],
      [
        "phearsa",
        -10.448125005972084
      ],
      [
        "Fhrainc",
        -10.44814165833768
      ],
      [
        "rapóirtéir",
        -10.448141841748685
      ],
      [
        "traenach",
        -10.448149439876213
      ],
      [
        "díbhinn",
        -10.44815592473007
      ],
      [
        "chríche",
        -10.448204783980962
      ],
      [
        "gaolmhar",
        -10.448290549101188
      ],
      [
        "madra",
        -10.448369784392224
      ],
      [
        "Cosant",
        -10.44863715215106
      ],
      [
        "Déardao",
        -10.44873790236798
      ],
      [
        "carachta",
        -10.449255142933684
      ],
      [
        "gúna",
        -10.450213776897511
      ],
      [
        "189",
        -10.450287005989988
      ],
      [
        "Síne",
        -10.450595950143466
      ],
      [
        "dteagmhá",
        -10.451074330091476
      ],
      [
        "Comhalta",
        -10.451380991099292
      ],
      [
        "deas",
        -10.451703371742813
      ],
      [
        "héifeachtach",
        -10.45210849856028
      ],
      [
        "máil",
        -10.452141929425135
      ],
      [
        "éifeachta",
        -10.45215789900888
      ],
      [
        "aimsir",
        -10.452567298938709
      ],
      [
        "olctha",
        -10.452594349130782
      ],
      [
        "ious",
        -10.453181812097275
      ],
      [
        "scaipea",
        -10.453548726158434
      ],
      [
        "Rialú",
        -10.453680204932477
      ],
      [
        "meastóireacht",
        -10.45481628888528
      ],
      [
        "03",
        -10.456185156481396
      ],
      [
        "IGH",
        -10.45647290931737
      ],
      [
        "89",
        -10.457521698156842
      ],
      [
        "fhorléir",
        -10.457651945076986
      ],
      [
        "eastá",
        -10.458391258194824
      ],
      [
        "stáil",
        -10.458669130733282
      ],
      [
        "aitheoir",
        -10.4602525537864
      ],
      [
        "réalta",
        -10.461483986616908
      ],
      [
        "cúl",
        -10.462266421072748
      ],
      [
        "gceangla",
        -10.46345379197022
      ],
      [
        "deoch",
        -10.464152290334912
      ],
      [
        "Arm",
        -10.464235232236396
      ],
      [
        "throm",
        -10.464295925419282
      ],
      [
        "riara",
        -10.464363269903044
      ],
      [
        "vótáil",
        -10.46453537363817
      ],
      [
        "polaitiú",
        -10.46454113412656
      ],
      [
        "chaomhn",
        -10.4645449203163
      ],
      [
        "scáileá",
        -10.464552132823943
      ],
      [
        "Uathoibríoch",
        -10.464564863588462
      ],
      [
        "Joint",
        -10.46463192104335
      ],
      [
        "fáilte",
        -10.464825995539922
      ],
      [
        "rannpháirtíocht",
        -10.464985513588944
      ],
      [
        "fheithic",
        -10.465078784393734
      ],
      [
        "laghdaithe",
        -10.46511158771553
      ],
      [
        "cuibhe",
        -10.465304183424667
      ],
      [
        "sainráite",
        -10.4653629483627
      ],
      [
        "sion",
        -10.466625485583668
      ],
      [
        "rian",
        -10.467767586030424
      ],
      [
        "Atha",
        -10.468436556671293
      ],
      [
        "69",
        -10.468788541328452
      ],
      [
        "earrach",
        -10.469696820619149
      ],
      [
        "dúbailt",
        -10.46997939604185
      ],
      [
        "arraige",
        -10.47069423063169
      ],
      [
        "gceanta",
        -10.471825554789628
      ],
      [
        "abhar",
        -10.47309721187224
      ],
      [
        "scáth",
        -10.473186345055666
      ],
      [
        "corparáide",
        -10.47346563581432
      ],
      [
        "76",
        -10.473473699475926
      ],
      [
        "imní",
        -10.47405347903224
      ],
      [
        "úsáideach",
        -10.474102179206438
      ],
      [
        "irc",
        -10.47413983527306
      ],
      [
        "OS",
        -10.474262015101091
      ],
      [
        "aithne",
        -10.474631844207355
      ],
      [
        "íche",
        -10.474688392682404
      ],
      [
        "roim",
        -10.475160326994535
      ],
      [
        "ghníomhaire",
        -10.475179676483702
      ],
      [
        "suime",
        -10.475864557850072
      ],
      [
        "ja",
        -10.476551656085585
      ],
      [
        "Tugt",
        -10.478860533928705
      ],
      [
        "inmhuir",
        -10.47936682460527
      ],
      [
        "thra",
        -10.480280477246994
      ],
      [
        "dháilea",
        -10.48042948193574
      ],
      [
        "Comhshao",
        -10.480765773784857
      ],
      [
        "bhu",
        -10.4809653664024
      ],
      [
        "foghlaim",
        -10.481062544254009
      ],
      [
        "COMHAIRLE",
        -10.48120163022691
      ],
      [
        "Ghearmáin",
        -10.481201632826645
      ],
      [
        "díospóid",
        -10.48120167968823
      ],
      [
        "Caighdeán",
        -10.481201714964389
      ],
      [
        "aturnae",
        -10.481205293097725
      ],
      [
        "óspidé",
        -10.48125382442866
      ],
      [
        "Rialacha",
        -10.481309088329304
      ],
      [
        "stórála",
        -10.481324711487598
      ],
      [
        "Super",
        -10.481394280234792
      ],
      [
        "bhuiséad",
        -10.481517796963743
      ],
      [
        "caipitiú",
        -10.481558242699954
      ],
      [
        "athraithe",
        -10.481892217153014
      ],
      [
        "rás",
        -10.48228683524983
      ],
      [
        "chrutha",
        -10.482547478547277
      ],
      [
        "Deara",
        -10.482727113222856
      ],
      [
        "pósta",
        -10.48274928623756
      ],
      [
        "mhuirearú",
        -10.482979188233571
      ],
      [
        "easpa",
        -10.48318851146398
      ],
      [
        "oiriún",
        -10.48321087604354
      ],
      [
        "domhanda",
        -10.483940740853814
      ],
      [
        "dlúth",
        -10.484049014130685
      ],
      [
        "06",
        -10.484438807793456
      ],
      [
        "aistriúchá",
        -10.48444802884232
      ],
      [
        "ACH",
        -10.48463291757498
      ],
      [
        "toir",
        -10.486163255477043
      ],
      [
        "Aib",
        -10.48629244970702
      ],
      [
        "EUR",
        -10.4864916900165
      ],
      [
        "gcúirt",
        -10.487026635383444
      ],
      [
        "foláir",
        -10.487408459408638
      ],
      [
        "shaothr",
        -10.487963327550268
      ],
      [
        "chlúdach",
        -10.488034427860246
      ],
      [
        "CAI",
        -10.488529153102904
      ],
      [
        "64",
        -10.489020148590711
      ],
      [
        "saoirse",
        -10.489388169865222
      ],
      [
        "Aer",
        -10.489908818690058
      ],
      [
        "taca",
        -10.49218096017563
      ],
      [
        "95",
        -10.492503571846314
      ],
      [
        "ceangal",
        -10.493425740777017
      ],
      [
        "himthosca",
        -10.493751786170751
      ],
      [
        "Ion",
        -10.49386447752826
      ],
      [
        "sruth",
        -10.494182161197934
      ],
      [
        "FÁ",
        -10.49589856601126
      ],
      [
        "gram",
        -10.496118635679116
      ],
      [
        "criosta",
        -10.497683462135877
      ],
      [
        "Cainteoir",
        -10.498150909345371
      ],
      [
        "iPhone",
        -10.49815111818068
      ],
      [
        "fuinneog",
        -10.49815156737745
      ],
      [
        "tweet",
        -10.498153667582612
      ],
      [
        "ciorca",
        -10.49819768131219
      ],
      [
        "chothrom",
        -10.498201242548184
      ],
      [
        "chomaoin",
        -10.498373103331003
      ],
      [
        "Clib",
        -10.49841900979634
      ],
      [
        "Líon",
        -10.499182677182484
      ],
      [
        "víosa",
        -10.49918731613378
      ],
      [
        "aeráid",
        -10.499226053975969
      ],
      [
        "Beal",
        -10.499368897064382
      ],
      [
        "margai",
        -10.499397409499384
      ],
      [
        "coiriúla",
        -10.50000193773873
      ],
      [
        "toil",
        -10.500006327264426
      ],
      [
        "chumann",
        -10.500495942724278
      ],
      [
        "Treorach",
        -10.50074408228578
      ],
      [
        "mheasta",
        -10.5008618253854
      ],
      [
        "Méad",
        -10.501060491695329
      ],
      [
        "míre",
        -10.501679084861
      ],
      [
        "coda",
        -10.502071082104523
      ],
      [
        "Eacnamaíoch",
        -10.50274926842111
      ],
      [
        "indéanta",
        -10.50318531242415
      ],
      [
        "Cumhachta",
        -10.503834426499097
      ],
      [
        "cheadó",
        -10.503862541765304
      ],
      [
        "Roinne",
        -10.504375764305884
      ],
      [
        "cliceá",
        -10.504576494664487
      ],
      [
        "Déantóir",
        -10.505035748317717
      ],
      [
        "Fheidhmiú",
        -10.505505153924888
      ],
      [
        "CHA",
        -10.505695724027987
      ],
      [
        "eiceálach",
        -10.505844823219352
      ],
      [
        "TH",
        -10.506224009385916
      ],
      [
        "aisíocaíocht",
        -10.506495067520875
      ],
      [
        "king",
        -10.506782002505664
      ],
      [
        "tuigfea",
        -10.506815505628529
      ],
      [
        "mheasann",
        -10.506841156923816
      ],
      [
        "Ceart",
        -10.507062422795888
      ],
      [
        "ionadaíocht",
        -10.507195217522629
      ],
      [
        "osta",
        -10.507222718247773
      ],
      [
        "ilbhliantú",
        -10.507304326214244
      ],
      [
        "comhlán",
        -10.508342226151145
      ],
      [
        "Dleacht",
        -10.508681246880446
      ],
      [
        "Oifigeach",
        -10.508698551703793
      ],
      [
        "ock",
        -10.508809671452784
      ],
      [
        "cail",
        -10.509430237289177
      ],
      [
        "scrios",
        -10.5105081443316
      ],
      [
        "ION",
        -10.511908255389296
      ],
      [
        "laethú",
        -10.513495001342353
      ],
      [
        "Dearbh",
        -10.514740356894904
      ],
      [
        "Â",
        -10.515392160861298
      ],
      [
        "Limisté",
        -10.515392254978051
      ],
      [
        "muinín",
        -10.515413093852608
      ],
      [
        "Tuairim",
        -10.515430075884336
      ],
      [
        "mhoill",
        -10.515441552571897
      ],
      [
        "uaireadóir",
        -10.515467984077194
      ],
      [
        "buidéal",
        -10.515482174535954
      ],
      [
        "tive",
        -10.515495565991516
      ],
      [
        "cumhda",
        -10.515507413491637
      ],
      [
        "dílseána",
        -10.51550784279592
      ],
      [
        "CP",
        -10.515668273431244
      ],
      [
        "dearfach",
        -10.515672595945976
      ],
      [
        "chúig",
        -10.515739751343148
      ],
      [
        "phríobháideach",
        -10.516542557421417
      ],
      [
        "chuarda",
        -10.516577578049636
      ],
      [
        "State",
        -10.517122453387556
      ],
      [
        "tarraingt",
        -10.517415809613968
      ],
      [
        "dtuairim",
        -10.51751841369306
      ],
      [
        "farraig",
        -10.51781262291212
      ],
      [
        "Ár",
        -10.517904737611437
      ],
      [
        "bhfol",
        -10.51828281293033
      ],
      [
        "Chaibid",
        -10.518313881528506
      ],
      [
        "chónaí",
        -10.518696130677045
      ],
      [
        "fhost",
        -10.518701650059228
      ],
      [
        "breac",
        -10.518863605366182
      ],
      [
        "saothar",
        -10.519089525629862
      ],
      [
        "rúnaí",
        -10.519243013250543
      ],
      [
        "cóiríocht",
        -10.519604346085028
      ],
      [
        "bain",
        -10.519715950180572
      ],
      [
        "minicíocht",
        -10.519738284441452
      ],
      [
        "Sola",
        -10.520200929982945
      ],
      [
        "Dubh",
        -10.52134612826982
      ],
      [
        "sona",
        -10.521675477784113
      ],
      [
        "Ceanta",
        -10.521824536848174
      ],
      [
        "ách",
        -10.522355772108996
      ],
      [
        "chúl",
        -10.523577316823696
      ],
      [
        "dhualga",
        -10.52533792659209
      ],
      [
        "India",
        -10.525601843751888
      ],
      [
        "fholaío",
        -10.525650939901862
      ],
      [
        "Comhphoba",
        -10.525827705594262
      ],
      [
        "ordó",
        -10.525873860485763
      ],
      [
        "63",
        -10.52750803906646
      ],
      [
        "ko",
        -10.52817770875443
      ],
      [
        "corp",
        -10.529178102200284
      ],
      [
        "fhear",
        -10.530041816711623
      ],
      [
        "fhágá",
        -10.53047997227121
      ],
      [
        "taisc",
        -10.531481191540747
      ],
      [
        "Éire",
        -10.53193759357632
      ],
      [
        "dtáirgí",
        -10.532465199093227
      ],
      [
        "»",
        -10.53293602051042
      ],
      [
        "Leictreach",
        -10.532936023087425
      ],
      [
        "lotnaid",
        -10.53293638053136
      ],
      [
        "Poblacht",
        -10.532936393468844
      ],
      [
        "Diamond",
        -10.533268885244532
      ],
      [
        "Sainmhíni",
        -10.533659872571665
      ],
      [
        "bhosca",
        -10.533857205157345
      ],
      [
        "dhlíthe",
        -10.533873426314448
      ],
      [
        "orgánach",
        -10.53403682915847
      ],
      [
        "líonta",
        -10.534161521359644
      ],
      [
        "Aireacht",
        -10.534708079240213
      ],
      [
        "val",
        -10.535364373599844
      ],
      [
        "reoite",
        -10.535590850175186
      ],
      [
        "fhoca",
        -10.53592973649462
      ],
      [
        "cheadúnais",
        -10.53597258617189
      ],
      [
        "Tre",
        -10.537201581674587
      ],
      [
        "bainte",
        -10.53791401461681
      ],
      [
        "saoránach",
        -10.538809579695354
      ],
      [
        "vótaí",
        -10.53916360195948
      ],
      [
        "mháil",
        -10.540066848438418
      ],
      [
        "údaru",
        -10.540219019282253
      ],
      [
        "gaire",
        -10.54037688941904
      ],
      [
        "gartha",
        -10.540450310556016
      ],
      [
        "bháis",
        -10.542024276772397
      ],
      [
        "Glacfa",
        -10.542477373874853
      ],
      [
        "Chomhaont",
        -10.542597981778858
      ],
      [
        "mhian",
        -10.543861782938906
      ],
      [
        "cuain",
        -10.544435231726132
      ],
      [
        "Fol",
        -10.544892354814731
      ],
      [
        "ártha",
        -10.545871765635166
      ],
      [
        "breiseá",
        -10.546012939113613
      ],
      [
        "morgáiste",
        -10.546698587075786
      ],
      [
        "cáilitheach",
        -10.547233198356013
      ],
      [
        "tráchta",
        -10.547806576722788
      ],
      [
        "Leigh",
        -10.548208049033825
      ],
      [
        "met",
        -10.548511922112072
      ],
      [
        "inarb",
        -10.548633152165689
      ],
      [
        "docht",
        -10.54873122094218
      ],
      [
        "Mheiriceá",
        -10.549088760278297
      ],
      [
        "eastái",
        -10.549196213230424
      ],
      [
        "bp",
        -10.55053288076445
      ],
      [
        "Universit",
        -10.550793165560076
      ],
      [
        "gluaisteá",
        -10.55079327995904
      ],
      [
        "meicniú",
        -10.550793716433606
      ],
      [
        "píopa",
        -10.550793762741147
      ],
      [
        "fráma",
        -10.550794949168608
      ],
      [
        "fhógair",
        -10.550805621602542
      ],
      [
        "caoga",
        -10.550816645343222
      ],
      [
        "Spáinn",
        -10.550830367367029
      ],
      [
        "Bardas",
        -10.550837577979632
      ],
      [
        "dathanna",
        -10.5513708301486
      ],
      [
        "tube",
        -10.551417000230416
      ],
      [
        "Gairm",
        -10.552902365826537
      ],
      [
        "cothromaíocht",
        -10.55300555543502
      ],
      [
        "bróg",
        -10.553901636330991
      ],
      [
        "bhfostaíocht",
        -10.554133556661435
      ],
      [
        "Poba",
        -10.554256451728028
      ],
      [
        "Sóisiala",
        -10.554273201100049
      ],
      [
        "chor",
        -10.556391985175043
      ],
      [
        "Eile",
        -10.557534197625142
      ],
      [
        "Gné",
        -10.557549320190564
      ],
      [
        "fhíorú",
        -10.55769384031304
      ],
      [
        "Comhaont",
        -10.558598991744075
      ],
      [
        "PC",
        -10.561043647495072
      ],
      [
        "sonrófa",
        -10.56138273785943
      ],
      [
        "ACHTA",
        -10.56164911510704
      ],
      [
        "litreach",
        -10.562402282489868
      ],
      [
        "tter",
        -10.563078449490831
      ],
      [
        "uacht",
        -10.564243965254107
      ],
      [
        "ÓN",
        -10.565743900484524
      ],
      [
        "dóiteá",
        -10.56617428048677
      ],
      [
        "meastachá",
        -10.567365621988014
      ],
      [
        "earc",
        -10.567852661823832
      ],
      [
        "mhainn",
        -10.568183603471432
      ],
      [
        "bhuail",
        -10.568421065914244
      ],
      [
        "Ão",
        -10.568683060386022
      ],
      [
        "loingseoireacht",
        -10.568974981583027
      ],
      [
        "breosla",
        -10.568974983733217
      ],
      [
        "toirmisc",
        -10.568976040698807
      ],
      [
        "Google",
        -10.568976584015989
      ],
      [
        "siúcra",
        -10.56900036805376
      ],
      [
        "Health",
        -10.569002418248632
      ],
      [
        "flash",
        -10.569008294572694
      ],
      [
        "infheisteoir",
        -10.569044138925884
      ],
      [
        "miotai",
        -10.569060368132112
      ],
      [
        "video",
        -10.569094655773757
      ],
      [
        "patrú",
        -10.569106292241235
      ],
      [
        "scilling",
        -10.569165786678369
      ],
      [
        "ríomhphoi",
        -10.569482582196889
      ],
      [
        "Liosta",
        -10.569626755352488
      ],
      [
        "othú",
        -10.569683120381807
      ],
      [
        "háite",
        -10.570352752717117
      ],
      [
        "Bia",
        -10.572123368719108
      ],
      [
        "Mhaigh",
        -10.57220069530497
      ],
      [
        "Soláthair",
        -10.572438406109807
      ],
      [
        "dhéana",
        -10.57339541619694
      ],
      [
        "cháilithe",
        -10.573776781096214
      ],
      [
        "uartha",
        -10.574379917347088
      ],
      [
        "tseachtain",
        -10.576921549852884
      ],
      [
        "HUN",
        -10.577363531280431
      ],
      [
        "Dún",
        -10.578265720752212
      ],
      [
        "díobhálach",
        -10.578691018387584
      ],
      [
        "sol",
        -10.580142692091687
      ],
      [
        "73",
        -10.580306033875578
      ],
      [
        "gComhphoba",
        -10.580825492239825
      ],
      [
        "Cead",
        -10.580906545063584
      ],
      [
        "shé",
        -10.580989858612538
      ],
      [
        "fáis",
        -10.58176151102261
      ],
      [
        "shu",
        -10.58210093143762
      ],
      [
        "VII",
        -10.583728578368074
      ],
      [
        "Tóg",
        -10.583970133227032
      ],
      [
        "Réigiún",
        -10.584022300744458
      ],
      [
        "hoibreach",
        -10.584507412851387
      ],
      [
        "Europ",
        -10.585167800358445
      ],
      [
        "dháil",
        -10.585405207455338
      ],
      [
        "nádúr",
        -10.586359525989392
      ],
      [
        "Corparáide",
        -10.586861748277354
      ],
      [
        "Teicneolaíocht",
        -10.587083671093808
      ],
      [
        "·",
        -10.5874935000679
      ],
      [
        "Frainc",
        -10.58749497315602
      ],
      [
        "phlanda",
        -10.58754934422958
      ],
      [
        "láimhseá",
        -10.587625096477316
      ],
      [
        "stampa",
        -10.587742371036397
      ],
      [
        "Áiritheo",
        -10.587778281973517
      ],
      [
        "ceol",
        -10.588629099666887
      ],
      [
        "ows",
        -10.588803680483096
      ],
      [
        "faisean",
        -10.58886320897583
      ],
      [
        "féideartha",
        -10.58888010608941
      ],
      [
        "ghairmiú",
        -10.58893069373514
      ],
      [
        "Chá",
        -10.589058530137764
      ],
      [
        "fhaightea",
        -10.589635296677717
      ],
      [
        "SO",
        -10.589673992194186
      ],
      [
        "ghrád",
        -10.58972059495008
      ],
      [
        "dearmad",
        -10.590034283600335
      ],
      [
        "rath",
        -10.590573304962676
      ],
      [
        "ineann",
        -10.59091155677626
      ],
      [
        "formheas",
        -10.591594486185532
      ],
      [
        "chon",
        -10.591838029406812
      ],
      [
        "saothrú",
        -10.592392819842988
      ],
      [
        "shonrach",
        -10.5946770403546
      ],
      [
        "gníomhaire",
        -10.595023547831207
      ],
      [
        "éifeachtacht",
        -10.595125992266295
      ],
      [
        "Frith",
        -10.595501474563411
      ],
      [
        "TC",
        -10.595510122133826
      ],
      [
        "Athbhreithni",
        -10.595713525098343
      ],
      [
        "inneal",
        -10.596654577852863
      ],
      [
        "leagfa",
        -10.596905631033016
      ],
      [
        "Tuarascála",
        -10.597956949265928
      ],
      [
        "dícháil",
        -10.598750138168803
      ],
      [
        "Infheistíochta",
        -10.598939121378669
      ],
      [
        "toba",
        -10.599381462883542
      ],
      [
        "scar",
        -10.599802440075162
      ],
      [
        "ceapachá",
        -10.599820333905516
      ],
      [
        "ATH",
        -10.601231389233208
      ],
      [
        "GA",
        -10.60159241118654
      ],
      [
        "Bhea",
        -10.60224248469717
      ],
      [
        "Irish",
        -10.602333018056134
      ],
      [
        "uck",
        -10.60259627004982
      ],
      [
        "iúint",
        -10.602633319602116
      ],
      [
        "leanfa",
        -10.604090093524436
      ],
      [
        "idéal",
        -10.604366678417174
      ],
      [
        "hínithe",
        -10.605607781493086
      ],
      [
        "Thuai",
        -10.605683522755116
      ],
      [
        "Breataine",
        -10.60636143952391
      ],
      [
        "nuálaíocht",
        -10.606361821992094
      ],
      [
        "coigeart",
        -10.606364026546132
      ],
      [
        "Fórsa",
        -10.606364633535776
      ],
      [
        "inbhuanaithe",
        -10.606371967364751
      ],
      [
        "Commission",
        -10.6064561500788
      ],
      [
        "árasá",
        -10.606507126083908
      ],
      [
        "Bearta",
        -10.606585099177224
      ],
      [
        "Méid",
        -10.606589666900677
      ],
      [
        "bhrisea",
        -10.606741953481164
      ],
      [
        "ionnsca",
[...]
