<unk>	0
<s>	0
</s>	0
▁	-2.3528
▁a	-3.47178
,	-3.52962
▁an	-3.60657
▁.	-3.83801
▁agus	-4.117
▁ar	-4.28835
▁na	-4.42469
)	-4.4444
(	-4.44658
í	-4.52009
▁i	-4.60512
▁le	-4.63425
-	-4.68092
s	-4.823
▁nó	-4.91932
▁go	-4.97636
a	-4.99004
r	-5.01317
n	-5.11167
dh	-5.15687
e	-5.18372
▁sin	-5.2186
▁de	-5.25695
▁do	-5.26963
▁d	-5.28536
▁ag	-5.28853
▁seo	-5.40347
▁chun	-5.53724
▁leis	-5.56266
il	-5.56678
h	-5.59046
idh	-5.66234
'	-5.67529
ú	-5.69982
▁aon	-5.70455
▁is	-5.71142
in	-5.72785
▁den	-5.73547
▁in	-5.74015
:	-5.74598
▁é	-5.78544
▁t	-5.79568
▁sé	-5.81419
▁faoi	-5.85061
is	-5.88834
ir	-5.89502
ithe	-5.9089
▁sa	-5.97315
▁bhfuil	-6.00447
▁mar	-6.00695
▁b	-6.02386
;	-6.068
▁atá	-6.08748
▁n	-6.15376
▁ina	-6.15443
ar	-6.16469
▁1	-6.18127
t	-6.21191
▁c	-6.23656
"	-6.26496
▁eile	-6.27754
▁san	-6.2868
▁bheith	-6.29226
▁chur	-6.30313
▁duine	-6.30406
igh	-6.31528
▁ó	-6.31759
anna	-6.3477
▁alt	-6.3812
tear	-6.38477
▁2	-6.3887
▁dhéanamh	-6.39184
▁dá	-6.40195
adh	-6.40627
▁don	-6.41563
—	-6.44632
▁Tá	-6.47692
▁réir	-6.50923
▁An	-6.53883
▁nach	-6.55971
▁ná	-6.56276
nn	-6.56543
ch	-6.57384
▁Is	-6.597
▁lena	-6.60943
ach	-6.63474
▁maidi	-6.63556
▁Acht	-6.63908
▁tá	-6.65156
gach	-6.6706
/	-6.67817
alt	-6.68096
▁C	-6.71977
▁3	-6.72162
▁I	-6.74151
d	-6.78536
▁ní	-6.79038
▁no	-6.80058
▁gcás	-6.83132
▁A	-6.83943
eanna	-6.86757
l	-6.88786
▁trí	-6.91306
▁mó	-6.92158
▁faoin	-6.92607
▁f	-6.92783
”	-6.93644
▁éis	-6.94195
eidh	-6.94302
▁tú	-6.94389
▁iad	-6.95892
▁g	-6.9691
▁haghaidh	-6.96997
aithe	-6.97422
▁B	-6.98581
▁leith	-6.98763
“	-6.99064
▁gur	-6.99276
ann	-7.01063
▁ón	-7.02481
▁féid	-7.02495
▁as	-7.02584
aí	-7.02752
▁chuid	-7.0298
▁ach	-7.05067
as	-7.06797
▁amháin	-7.07426
▁4	-7.08583
▁lá	-7.09392
far	-7.11009
▁roimh	-7.11347
▁nío	-7.1225
▁thabhair	-7.13185
▁5	-7.13552
▁so	-7.14561
tha	-7.15079
aoine	-7.15819
▁um	-7.15917
▁úsáid	-7.1612
ta	-7.16256
la	-7.16594
▁gan	-7.19351
▁á	-7.19368
▁méid	-7.19671
]	-7.19752
▁m	-7.1977
▁Ní	-7.199
[	-7.20147
ítear	-7.20238
▁tar	-7.20347
isteach	-7.20491
íonn	-7.20588
▁amach	-7.21131
▁siad	-7.21272
mh	-7.21736
iú	-7.21925
▁chuig	-7.24944
▁s	-7.25028
na	-7.25381
▁D	-7.25782
▁bh	-7.28379
▁ann	-7.29568
’	-7.29933
▁fáil	-7.30146
▁rud	-7.32085
▁má	-7.32413
▁Airteagal	-7.33602
▁nua	-7.34186
▁T	-7.35781
▁acu	-7.36478
▁tréimhse	-7.36594
▁féin	-7.37717
▁Rialachá	-7.40658
▁L	-7.43382
acha	-7.44446
▁saor	-7.44542
▁fho	-7.45608
▁bheid	-7.45989
▁Má	-7.46034
▁gá	-7.46652
▁bhí	-7.48049
▁6	-7.49724
cha	-7.49881
▁maith	-7.50165
▁S	-7.50872
uithe	-7.51333
Acht	-7.52001
▁mór	-7.52609
▁Aire	-7.53347
▁fé	-7.53891
aigh	-7.54895
i	-7.54977
▁EN	-7.55045
▁fháil	-7.56074
▁sna	-7.5633
id	-7.5664
▁idir	-7.56683
▁sonraí	-7.57029
?	-7.58132
&	-7.58422
the	-7.59197
▁Ar	-7.60597
▁aige	-7.61061
▁linn	-7.61263
▁dtí	-7.6152
▁G	-7.62406
▁leat	-7.63082
▁chomh	-7.63166
imh	-7.63668
▁ceann	-7.64101
raibh	-7.64133
▁más	-7.64361
ra	-7.64414
▁mbeid	-7.65658
▁aghaidh	-7.66751
ibé	-7.6694
eamh	-7.68015
▁bhfeidhm	-7.68086
▁áit	-7.69153
▁bhainean	-7.7073
▁leana	-7.70778
▁Uimh	-7.71285
▁dul	-7.73133
eadh	-7.73763
▁áirithe	-7.7437
▁dáta	-7.75038
nuair	-7.75439
▁freisi	-7.75551
▁bhliain	-7.76963
▁porn	-7.77181
▁tAir	-7.77831
▁líne	-7.78365
aisce	-7.78464
▁seirbhís	-7.78701
▁19	-7.79013
▁h	-7.79814
▁cur	-7.79861
▁7	-7.80168
▁ordú	-7.80414
▁mé	-7.80466
eann	-7.80485
it	-7.80505
▁ciallaíon	-7.80575
▁dó	-7.80699
▁ndáil	-7.81249
íos	-7.81901
▁chéad	-7.82497
im	-7.82713
▁fo	-7.83146
arna	-7.83834
aon	-7.84015
▁ionad	-7.84091
▁amhlaid	-7.84313
▁F	-7.84879
▁dtagraí	-7.85078
▁imeachta	-7.85127
▁iomchu	-7.8541
▁fearr	-7.86004
▁bhfo	-7.86144
▁íoc	-7.87702
▁feidhm	-7.87777
▁sórt	-7.883
▁críocha	-7.88525
▁uair	-7.88926
▁sí	-7.89151
▁léir	-7.89481
▁údarás	-7.89606
▁bliana	-7.90496
▁deimhnithe	-7.9098
▁10	-7.91245
aíonn	-7.91365
▁feidhme	-7.91434
▁tráth	-7.92021
▁Ballstá	-7.92489
▁iomlán	-7.9293
▁Le	-7.93014
▁ba	-7.9366
▁mír	-7.93877
▁8	-7.94371
amh	-7.94481
▁hEorpa	-7.94879
▁cheart	-7.94951
▁P	-7.95084
▁stiúir	-7.9515
▁bhei	-7.95256
▁Eorpach	-7.95685
faidh	-7.95771
▁bhaint	-7.95901
▁am	-7.96349
▁ch	-7.96582
▁bith	-7.97054
cháin	-7.97737
▁cuideachta	-7.97829
▁air	-7.98144
▁roinnt	-7.98193
▁mb	-7.98319
an	-7.99166
ing	-7.99329
g	-7.99576
m	-7.99891
▁fógra	-8.00006
▁thar	-8.00516
▁cheann	-8.0055
▁Aontais	-8.01324
▁díreach	-8.02057
▁bearta	-8.03027
tar	-8.03162
▁ábhar	-8.03278
▁duit	-8.03879
▁Cuntas	-8.03963
▁ár	-8.04758
▁leo	-8.05423
▁feadh	-8.05508
▁haon	-8.06647
@	-8.07016
ais	-8.0708
▁síos	-8.07117
láthair	-8.07607
▁gcomhréi	-8.07923
▁laist	-8.08111
▁Coimisiún	-8.08149
éidir	-8.08765
▁dlí	-8.09323
▁éifeacht	-8.09374
fear	-8.09433
c	-8.10024
▁chéile	-8.1016
▁déanfa	-8.10648
te	-8.10898
▁0	-8.11899
▁M	-8.11912
▁iarratas	-8.12014
▁cinn	-8.12252
▁bhun	-8.12726
▁AE	-8.1274
íodh	-8.128
▁dhá	-8.1286
▁rialachá	-8.13391
eideal	-8.14056
▁mhéid	-8.14147
▁Ba	-8.15125
▁Agus	-8.15234
al	-8.15656
▁leor	-8.15666
▁Chun	-8.15674
▁cuid	-8.15937
▁bhe	-8.17518
áil	-8.17968
gh	-8.18894
▁suas	-8.19167
▁beid	-8.19169
ear	-8.19492
y	-8.19605
▁Stát	-8.19785
▁Mar	-8.19835
▁féadfaid	-8.20392
▁mhí	-8.21001
▁12	-8.21628
▁Féadfa	-8.21633
▁luach	-8.2181
▁déanta	-8.22197
air	-8.22333
!	-8.22681
▁éagsúla	-8.22797
▁Achta	-8.22962
▁gComhairle	-8.24134
▁gt	-8.24419
▁dtaobh	-8.24524
–	-8.24541
▁fén	-8.2471
3	-8.2506
▁mhír	-8.25187
▁gheall	-8.25393
▁9	-8.25619
▁áitiú	-8.25833
▁mura	-8.26023
▁beag	-8.26441
▁ghlacadh	-8.26706
▁comhalta	-8.26925
▁bhrí	-8.27125
án	-8.27291
▁maid	-8.27958
▁CE	-8.28675
▁chóir	-8.28684
obair	-8.28991
áin	-8.29124
▁ailt	-8.2917
▁áireamh	-8.29245
A	-8.29584
▁dóibh	-8.29707
▁céanna	-8.29758
▁teacht	-8.29917
▁coinníollach	-8.30121
▁Ard	-8.30253
áiríte	-8.31619
▁ndéanfa	-8.31673
▁oifig	-8.32048
▁ceart	-8.32166
▁Béarla	-8.32269
▁uisce	-8.32556
▁airgead	-8.33003
iúil	-8.33131
▁amp	-8.33546
niú	-8.34177
▁Faoi	-8.34734
▁cuí	-8.3479
▁Nua	-8.35167
o	-8.35241
▁líon	-8.35392
inneadh	-8.35648
▁rialacha	-8.36148
▁Seo	-8.36294
▁mo	-8.36319
▁mbe	-8.36333
▁Airgeada	-8.3658
▁Ceist	-8.36961
▁AN	-8.38352
▁Aonta	-8.38363
▁ard	-8.38566
▁15	-8.38567
▁fad	-8.38871
aidh	-8.38893
▁táirgí	-8.38956
▁talamh	-8.39004
▁pé	-8.39662
▁féadfa	-8.40008
▁p	-8.40264
▁Ach	-8.40325
▁bhíonn	-8.40607
▁tríd	-8.40666
▁ráta	-8.41309
▁Chomhairle	-8.41622
▁scéim	-8.42009
nna	-8.42522
▁rith	-8.42796
▁Coimisinéir	-8.4376
▁Ag	-8.44456
▁rinne	-8.45026
▁R	-8.45065
▁iníoc	-8.45522
▁Déanfa	-8.45705
▁Sceideal	-8.46417
▁leas	-8.46937
▁th	-8.46949
▁chuideachta	-8.47092
▁cé	-8.47165
▁l	-8.47245
▁gníomh	-8.47352
%	-8.47444
▁Fuaim	-8.47749
▁18	-8.48005
▁náisiúnta	-8.48259
▁dt	-8.48578
▁neamh	-8.48977
▁tagairt	-8.49298
idir	-8.49756
▁forála	-8.50134
▁ainm	-8.50392
▁11	-8.51256
orthu	-8.51366
▁30	-8.51469
▁Na	-8.51773
▁Féadfai	-8.52367
Aire	-8.52436
▁Tuillea	-8.52511
▁gcuid	-8.52735
náisiúnta	-8.528
▁Sa	-8.52809
▁Aon	-8.52978
▁ii	-8.53047
▁chuir	-8.53334
▁rá	-8.5361
▁eolas	-8.54032
▁Pharlaimint	-8.54201
▁of	-8.5444
▁airgeadai	-8.54709
▁uile	-8.55105
fhéadfadh	-8.55479
▁críche	-8.55752
▁for	-8.55758
▁leibhéal	-8.56143
ed	-8.56151
▁E	-8.56357
íoc	-8.56409
▁leasú	-8.56536
▁réims	-8.5693
2	-8.57097
é	-8.57118
▁deimhniú	-8.57597
int	-8.57623
▁Comhairle	-8.57907
▁baint	-8.58729
▁tSín	-8.58829
▁Bord	-8.58911
▁monaróir	-8.59325
▁clár	-8.59374
úil	-8.59514
▁speisialta	-8.59596
▁mí	-8.59783
▁bunaithe	-8.60719
▁táirge	-8.60729
anas	-8.61081
▁suim	-8.61139
▁chomhalta	-8.61404
▁oifigeach	-8.61409
imid	-8.62059
1	-8.62304
▁comhlacht	-8.62644
▁háirith	-8.62673
▁gréasá	-8.62756
▁scríbhinn	-8.63014
▁20	-8.63218
▁nós	-8.63243
▁Cé	-8.6333
▁Stáit	-8.63464
▁Chéad	-8.63693
▁hiomlán	-8.64129
on	-8.64194
▁Choimisiú	-8.64605
údarás	-8.64671
▁Ch	-8.64986
▁deara	-8.65138
▁gnó	-8.65227
▁di	-8.66461
▁earra	-8.66519
▁mbainea	-8.67033
▁láithreá	-8.6727
▁Fómhair	-8.6765
▁chás	-8.67747
▁Eorpaigh	-8.67755
▁Roimh	-8.68017
▁pearsanta	-8.6808
▁cuirea	-8.68099
▁gcéad	-8.68191
▁déan	-8.68329
▁gc	-8.68961
▁athrú	-8.69131
▁seacha	-8.69296
▁cánach	-8.69384
▁mian	-8.69495
eacha	-8.7021
▁fiú	-8.70312
▁faisnéis	-8.70332
▁oiriúnach	-8.7037
UID	-8.70441
eas	-8.70568
éanamh	-8.70608
S	-8.70685
▁HD	-8.70709
le	-8.70941
▁16	-8.7133
▁téarma	-8.71536
▁Bei	-8.71831
each	-8.72206
▁suíomh	-8.72245
▁rogha	-8.72257
▁ceadúna	-8.72266
▁iarra	-8.72419
▁páirt	-8.72558
▁dhéanfa	-8.72643
▁taobh	-8.72666
▁oibre	-8.73229
▁liosta	-8.73274
▁000	-8.73285
▁Bhí	-8.74117
▁hÉireann	-8.74212
▁ábhartha	-8.74903
▁14	-8.75097
▁gurb	-8.75163
▁13	-8.75214
▁lú	-8.75432
▁muid	-8.75453
▁huaire	-8.75554
Ã	-8.75605
fa	-8.75843
▁chineál	-8.7606
ó	-8.76145
▁Údará	-8.76156
slí	-8.76256
▁poiblí	-8.76259
▁planda	-8.76426
▁N	-8.76592
▁os	-8.76922
sórt	-8.77116
▁fó	-8.77326
▁ndearna	-8.7746
▁Go	-8.77566
▁seirbhíse	-8.77832
▁dháta	-8.77923
iúl	-8.78017
▁fás	-8.78118
baineann	-8.78203
▁cuir	-8.78223
▁cead	-8.78278
▁thug	-8.78371
▁leagan	-8.78408
▁2017	-8.79076
▁cluichí	-8.79174
ne	-8.79322
▁fhaisnéis	-8.79402
4	-8.79519
▁In	-8.79646
L	-8.79809
▁dochar	-8.80439
▁íocaíocht	-8.80481
▁2016	-8.80587
▁rialú	-8.80628
▁tras	-8.80987
▁193	-8.81082
os	-8.814
ad	-8.81487
▁gceist	-8.81563
▁údará	-8.81579
▁Ionca	-8.81823
▁cosúil	-8.82292
ine	-8.82307
agtha	-8.82627
chosaint	-8.82712
▁De	-8.82912
▁deirea	-8.82998
▁bhféadfa	-8.83071
▁mhaith	-8.83155
▁chomhlíona	-8.83163
▁Chúirt	-8.83172
amhail	-8.83352
▁toiliú	-8.8372
▁cad	-8.84006
▁gcónaí	-8.84006
us	-8.84022
sin	-8.84314
agat	-8.84379
▁O	-8.84431
▁forál	-8.84505
▁dhéan	-8.84506
▁gcoinne	-8.84895
▁togra	-8.84962
▁Treoir	-8.85114
▁Chuid	-8.85282
▁ghnáth	-8.85369
▁II	-8.85507
▁cluiche	-8.85536
▁í	-8.85612
▁2018	-8.85732
▁measfa	-8.85797
▁ndia	-8.85843
▁Phríomh	-8.85973
▁Ó	-8.86022
▁laghdú	-8.86515
ghaidh	-8.86552
irt	-8.86596
▁dar	-8.86993
▁cheana	-8.87058
Airteagal	-8.87247
▁aistriú	-8.87366
▁Maidir	-8.87429
▁físeáin	-8.87523
ordú	-8.87575
▁trádála	-8.87729
▁cineál	-8.87748
▁cion	-8.87881
▁Twitter	-8.88064
▁hAcht	-8.88111
▁cúram	-8.88417
isce	-8.88437
haoine	-8.88525
fásta	-8.88777
▁Roinn	-8.88791
▁17	-8.88827
▁foca	-8.89003
éachaint	-8.8914
▁chinneadh	-8.8931
▁bia	-8.89378
▁tuarascá	-8.89912
▁mbea	-8.89986
▁Níl	-8.9021
▁chu	-8.9034
▁Cuir	-8.90385
▁gcomhairle	-8.9043
am	-8.90433
▁mbei	-8.90648
▁bhonn	-8.90899
▁cás	-8.90917
▁24	-8.91112
▁leasa	-8.91116
▁reatha	-8.91355
▁Leasú	-8.91426
▁dara	-8.91532
▁nár	-8.91558
▁Cad	-8.91714
▁fíor	-8.9175
inne	-8.91784
▁léi	-8.91924
▁limistéar	-8.91926
▁sláinte	-8.9197
▁déana	-8.92286
▁curtha	-8.92376
▁Oifig	-8.92973
▁sholátha	-8.92984
▁aird	-8.93116
▁modh	-8.93151
abhair	-8.93568
▁shin	-8.93569
er	-8.93701
▁bhunú	-8.94129
▁ama	-8.9424
▁25	-8.94344
▁measc	-8.9442
▁Gaeilge	-8.94614
ailt	-8.95006
▁áitreabh	-8.95055
▁cúig	-8.95125
fhonn	-8.95145
artha	-8.95168
▁ríomh	-8.952
▁cláraithe	-8.95339
▁gníomhaíochta	-8.95361
▁2013	-8.95568
b	-8.9562
ean	-8.95771
fianaise	-8.95834
▁comh	-8.95931
▁blia	-8.95991
▁dhíol	-8.96213
▁liom	-8.96289
▁údar	-8.96558
aineann	-8.96574
▁Be	-8.97165
p	-8.97262
▁bláth	-8.97368
▁Bh	-8.9763
▁fh	-8.97674
▁The	-8.98002
▁NA	-8.98324
u	-8.98545
▁gcion	-8.98999
▁faoina	-8.99331
istigh	-8.99335
▁San	-8.99455
íochta	-8.99525
ireann	-8.9967
▁Léim	-8.99699
▁Náisiúnta	-8.99849
▁dtugta	-8.99977
rochtain	-9.00112
▁costais	-9.00118
▁fhorbairt	-9.00405
▁ceangla	-9.00439
▁31	-9.00469
▁thaobh	-9.00536
▁caighdeán	-9.00577
hloig	-9.00635
scríobh	-9.0102
▁chéanna	-9.01068
▁breise	-9.01125
▁2012	-9.01483
▁chaighdeán	-9.01606
6	-9.0164
▁lae	-9.01655
▁lean	-9.01854
▁gCoimisiú	-9.01916
▁dh	-9.02137
▁choimeád	-9.02269
▁Dé	-9.02577
▁shonraí	-9.02663
▁shampla	-9.02768
úsáid	-9.02777
▁21	-9.02793
bh	-9.02851
▁faisnéise	-9.02889
▁192	-9.02898
▁soláthar	-9.03144
▁leagt	-9.03382
seo	-9.03572
▁comhaont	-9.03612
irgid	-9.03737
▁againn	-9.03834
▁tuairim	-9.0385
▁leanbh	-9.03915
▁100	-9.03989
▁ghabha	-9.04159
íoslódáil	-9.04237
▁sheola	-9.04246
▁Act	-9.04458
▁ráite	-9.04717
▁Uimhir	-9.04823
▁Baile	-9.05133
▁cruach	-9.05154
▁sh	-9.05161
▁be	-9.05285
ois	-9.05515
▁siúl	-9.05577
▁mba	-9.05869
▁doiciméad	-9.05911
▁sásta	-9.05931
▁2009	-9.05957
▁2014	-9.06029
▁fhógra	-9.06223
▁choinneáil	-9.06282
▁2019	-9.06357
huine	-9.06743
▁cúis	-9.06748
▁forbairt	-9.06813
GUS	-9.06889
▁fu	-9.06972
▁comhair	-9.07016
▁cheannach	-9.07113
▁riachtanach	-9.07182
▁chumhacht	-9.07293
▁lán	-9.07533
inearálta	-9.07578
▁chlár	-9.07681
▁bhua	-9.07697
▁Tar	-9.08512
▁bun	-9.0857
▁córas	-9.08614
sanna	-9.08808
lacha	-9.08959
▁saol	-9.09101
▁sula	-9.09105
▁chlárú	-9.09361
▁2015	-9.09497
▁Cluich	-9.09551
▁seilbh	-9.09765
▁tacaíocht	-9.09897
▁úsáide	-9.09982
▁V	-9.10014
▁fhios	-9.10342
▁mhonarcha	-9.10354
▁seach	-9.10476
▁u	-9.10729
▁scoth	-9.11106
onn	-9.11247
▁láithreach	-9.11275
▁téarmaí	-9.11314
▁dhéana	-9.11441
▁cosanta	-9.11499
▁íocaíochta	-9.11591
C	-9.1175
▁súil	-9.11908
▁ciontach	-9.12125
▁éigin	-9.12168
▁roghnú	-9.12205
▁cearta	-9.12504
▁cheangal	-9.12521
othair	-9.12533
▁tioncha	-9.12576
oirí	-9.12603
▁praghas	-9.12764
▁26	-9.13573
ileamh	-9.13713
▁talún	-9.1377
▁ionann	-9.13824
▁tharla	-9.1387
▁airde	-9.13935
á	-9.13965
▁iarrai	-9.14038
▁dath	-9.14051
▁ioncam	-9.14147
▁damáist	-9.14292
▁tionscada	-9.14311
úinn	-9.14399
▁stiúrthóir	-9.14679
ála	-9.14976
▁Author	-9.1507
▁chruthú	-9.15178
▁22	-9.15182
▁bliantú	-9.15245
▁arb	-9.15249
▁tír	-9.15261
▁feidhmiú	-9.15455
▁nádúrtha	-9.1552
▁Tweet	-9.1559
▁barr	-9.15738
▁iarratais	-9.15849
▁domhain	-9.15938
▁kar	-9.15948
▁dóigh	-9.16016
▁dhosmálta	-9.16097
▁iontach	-9.16129
▁bhéal	-9.16676
uíonn	-9.16742
nach	-9.16765
▁bheadh	-9.16811
D	-9.16887
▁liúnta	-9.16891
leanúint	-9.16898
▁minic	-9.17134
▁dhiai	-9.17182
f	-9.17271
▁abairt	-9.1762
▁lagha	-9.1784
▁grúpa	-9.17873
hong	-9.1822
▁margadh	-9.18221
▁H	-9.18535
▁hordú	-9.18674
▁28	-9.1891
áir	-9.18934
▁2011	-9.19405
▁195	-9.19529
▁thora	-9.19639
▁lucht	-9.19682
▁Coiste	-9.19726
▁freagrach	-9.19727
▁riarachá	-9.19769
▁Áitiú	-9.19786
cht	-9.20089
▁cuntais	-9.20419
▁teorainn	-9.20455
▁leath	-9.2058
▁díol	-9.2073
▁lasmuigh	-9.20874
▁riachtanais	-9.20963
▁Corporat	-9.21028
oilsiú	-9.21134
▁Do	-9.21246
▁inar	-9.21294
▁Éireann	-9.21576
▁Seirbhís	-9.21611
▁feidhmeanna	-9.21765
▁grianghraf	-9.21896
▁cuspóir	-9.22143
▁lua	-9.22418
▁iompar	-9.22418
▁bhf	-9.22483
▁sonrach	-9.22716
B	-9.22758
nithe	-9.22824
▁luath	-9.22914
▁chúis	-9.22932
▁Parlaimint	-9.22967
óirí	-9.23112
rtha	-9.23177
▁faid	-9.23298
Bord	-9.23609
▁Co	-9.23683
▁gcrích	-9.24046
▁50	-9.24335
▁tháinig	-9.24419
ainneoi	-9.24438
íortha	-9.24616
anta	-9.24662
orthaí	-9.24665
5	-9.24762
▁comhairle	-9.24914
▁leathan	-9.24918
▁fhoráil	-9.25202
▁III	-9.25331
▁fear	-9.25445
▁achomharc	-9.25458
irí	-9.25494
▁ngníomh	-9.2556
inn	-9.25779
iméad	-9.25893
uine	-9.25897
▁deis	-9.25932
▁dtaca	-9.26041
▁dheon	-9.2621
▁deir	-9.26311
▁taighde	-9.2632
onas	-9.26418
▁cáin	-9.26468
mhéadú	-9.26524
▁mBallstá	-9.26563
▁bhfoirm	-9.26601
oisc	-9.26709
▁cáilíochta	-9.26796
▁Féach	-9.26827
▁mhalairt	-9.26938
▁dtabharfa	-9.26984
▁23	-9.27079
▁tabhairt	-9.27101
▁uimhir	-9.27379
▁etc	-9.27455
▁cumhacht	-9.27671
E	-9.27746
▁tuga	-9.27768
iarratas	-9.2791
▁fada	-9.28015
▁ma	-9.28409
▁chiont	-9.28621
▁rialta	-9.28649
▁Bhallstá	-9.28693
▁gcuideachta	-9.28709
ca	-9.28785
▁siar	-9.28788
▁cóip	-9.28801
▁maoin	-9.2895
▁mhaoin	-9.29335
▁cothrom	-9.29378
▁réasúnach	-9.29434
▁íseal	-9.29534
▁infheidhme	-9.29637
▁halt	-9.29649
ithre	-9.29828
▁ghairm	-9.2983
ire	-9.30039
aois	-9.30121
▁DO	-9.30161
eachta	-9.30168
▁páirtí	-9.30264
▁cosaint	-9.30296
▁Tag	-9.30316
▁doiciméid	-9.30497
▁Bill	-9.3054
anseo	-9.30606
▁Nolla	-9.30713
▁seachtain	-9.30794
▁díobh	-9.30925
▁fíneáil	-9.31229
▁húdará	-9.31321
▁húsáid	-9.31343
▁27	-9.31555
▁chúirt	-9.31612
▁ghabh	-9.31683
▁bei	-9.3177
▁láimh	-9.31914
▁scaire	-9.32134
▁cinnte	-9.3215
ig	-9.32241
ha	-9.32277
▁rún	-9.32293
▁deimh	-9.32296
▁Cánach	-9.32607
▁ais	-9.32977
▁oibriú	-9.32991
▁choinníoll	-9.33288
▁ceap	-9.33336
▁measún	-9.33374
▁Cliath	-9.33403
▁Product	-9.33406
▁páirteach	-9.33636
▁luaite	-9.33668
▁r	-9.33688
▁ndéan	-9.33967
▁sócmhainn	-9.34369
eal	-9.34381
▁scrúdú	-9.34398
▁iarnró	-9.34427
▁Rialtais	-9.346
▁bharr	-9.34627
▁tapa	-9.34861
▁ábhair	-9.3491
▁29	-9.34922
▁iasacht	-9.35127
▁ordu	-9.3543
óir	-9.35552
▁Márta	-9.3566
▁soiléir	-9.35687
▁ainmnithe	-9.35824
nar	-9.35845
úcháin	-9.36022
oideachais	-9.36086
▁Leasa	-9.36158
▁riosca	-9.36176
▁phoiblí	-9.36287
▁bhfad	-9.36309
▁forbartha	-9.36334
▁céim	-9.36338
▁scrío	-9.36349
▁bainistíocht	-9.36587
▁fheidhmiú	-9.36669
▁Iúil	-9.36706
able	-9.36787
▁freastal	-9.36826
▁tos	-9.36844
▁bhforáil	-9.36856
▁Meán	-9.36873
nniu	-9.36926
oifigeach	-9.37141
▁treala	-9.37187
ite	-9.37218
▁sonra	-9.37345
▁ola	-9.37359
▁éasca	-9.3738
▁oifige	-9.37567
▁tábhachtach	-9.37772
▁thart	-9.37885
▁plean	-9.37953
úirt	-9.38014
▁Sláinte	-9.3806
▁ullmhú	-9.38089
▁níl	-9.38115
ábhar	-9.38153
liain	-9.38303
▁iii	-9.38505
▁ionstraim	-9.3861
▁Líne	-9.38665
▁Eanáir	-9.38807
scaoileadh	-9.38939
▁léas	-9.38989
▁aois	-9.39081
▁dleacht	-9.39126
▁léamh	-9.39144
athair	-9.39201
▁raon	-9.39255
▁nasc	-9.39275
heidh	-9.39421
▁z	-9.39459
insean	-9.39674
▁costas	-9.39803
▁ghnó	-9.39817
hoird	-9.39825
▁déantóir	-9.40234
▁Dá	-9.4028
▁gceannas	-9.40308
▁tástála	-9.40346
▁taithí	-9.40386
um	-9.40408
ansin	-9.40435
▁gnéas	-9.4048
▁rialaithe	-9.40485
ion	-9.4059
▁Cona	-9.40607
▁ath	-9.40827
▁Soils	-9.40868
chlár	-9.40925
▁cruinn	-9.40947
▁2008	-9.40988
▁Físeá	-9.41027
shan	-9.41236
▁o	-9.4124
▁foráil	-9.41335
▁ionca	-9.41438
uirthi	-9.41488
▁and	-9.41605
▁Chomh	-9.41654
▁Leictreon	-9.41718
▁ligean	-9.41776
▁eisiúint	-9.41849
▁ciall	-9.41989
List	-9.42081
▁córa	-9.42094
▁áirithi	-9.42115
ist	-9.42231
▁chumas	-9.42263
▁lorg	-9.42687
▁Déan	-9.427
▁ham	-9.427
▁ort	-9.42888
Rialtas	-9.42888
▁fáth	-9.42936
▁Oireachta	-9.43012
9	-9.43033
▁sheirbhís	-9.43216
▁fostaíochta	-9.43255
▁choiste	-9.43321
▁bán	-9.43912
7	-9.43929
óga	-9.43944
▁dubh	-9.44054
▁beart	-9.4407
▁caiteacha	-9.44723
▁Th	-9.44838
▁tús	-9.45087
▁gnáth	-9.45159
▁ghnóth	-9.45292
▁nd	-9.45317
▁Éirinn	-9.45364
▁saintréith	-9.45393
Údará	-9.45475
rt	-9.455
▁dhéanta	-9.45562
▁cuirfea	-9.45722
▁ACHT	-9.45927
▁féach	-9.4605
▁mbliana	-9.46247
▁Iarscríbhinn	-9.46282
▁Contae	-9.46311
▁tuairisc	-9.4646
▁fuair	-9.4648
▁teach	-9.46619
▁theacht	-9.46628
▁tairiscint	-9.46656
éard	-9.46696
▁déanfaid	-9.46835
▁ré	-9.47144
▁nochta	-9.47263
▁físeá	-9.47339
▁mheas	-9.47557
▁glan	-9.47644
▁ball	-9.47652
▁cuirfid	-9.47743
if	-9.47755
▁thugta	-9.47765
▁scair	-9.47785
▁mhór	-9.47917
▁breith	-9.4795
laigh	-9.47966
▁caillteana	-9.48292
▁tosa	-9.48506
▁tuillea	-9.48957
▁Grúpa	-9.49063
▁balla	-9.49111
▁thuras	-9.49166
▁chaitheamh	-9.49167
▁soils	-9.49225
▁Cúirte	-9.49275
▁aistrithe	-9.49295
achta	-9.49323
ACHT	-9.49327
aid	-9.49329
▁thosa	-9.4941
▁scannán	-9.4952
▁bord	-9.49579
ce	-9.49743
▁simplí	-9.49787
▁thaga	-9.49903
▁tabharfa	-9.49983
▁feist	-9.50016
ITHE	-9.50037
▁sraith	-9.50187
▁príomh	-9.50305
▁scéime	-9.50346
▁iasc	-9.50514
▁Clárú	-9.50594
▁cailín	-9.5062
▁Porn	-9.50685
▁ríomhaire	-9.50887
▁léiriú	-9.51056
▁cláir	-9.51242
▁cheist	-9.51372
▁Sonraí	-9.51379
▁neart	-9.51403
▁domhan	-9.51526
▁sprioc	-9.51541
íre	-9.51545
ealach	-9.51548
▁TV	-9.51559
▁Idir	-9.51709
▁chinnt	-9.51807
▁sábháilteacht	-9.5191
▁údarú	-9.52102
▁cheap	-9.52245
▁úsáideoir	-9.52258
▁shocrú	-9.52486
uair	-9.52576
▁seomra	-9.52669
hord	-9.52714
▁saoire	-9.52804
▁stoc	-9.53116
▁2006	-9.53126
st	-9.53161
es	-9.5319
dong	-9.53211
▁Táirg	-9.53736
▁gclár	-9.53879
▁tionscna	-9.5427
▁gh	-9.54364
ge	-9.54406
▁thabharfa	-9.54415
▁iarracht	-9.54492
▁muirear	-9.54631
▁críoch	-9.54664
▁teagmhá	-9.54834
eachas	-9.5505
8	-9.55213
▁Choiste	-9.55276
omhairc	-9.55292
▁Clár	-9.55303
▁dhó	-9.55553
▁ndéanta	-9.55632
▁ion	-9.55731
▁to	-9.5581
▁bosca	-9.55818
▁teanga	-9.55977
▁bhreise	-9.5606
▁foirm	-9.56062
namh	-9.56156
▁Cuid	-9.56296
▁dom	-9.56298
▁leanúnach	-9.56341
▁Deirea	-9.56351
raí	-9.56486
▁socrú	-9.56661
▁oibleagáid	-9.56776
▁scoile	-9.56812
▁cumhachta	-9.56878
ord	-9.56933
▁Lawn	-9.57148
▁Bhaile	-9.57203
▁cosc	-9.57262
▁hearra	-9.57347
▁scoil	-9.57541
▁tortha	-9.57688
▁glacad	-9.577
▁éifeachtach	-9.57715
▁e	-9.57809
▁cineálach	-9.58051
▁sealbhóir	-9.58102
▁déanf	-9.5811
▁cúna	-9.58128
▁léinn	-9.58176
▁Gan	-9.58281
▁gcur	-9.58323
▁slándá	-9.58333
▁institiúid	-9.58364
▁cm	-9.58366
▁post	-9.58379
▁punt	-9.58541
▁athbhreithniú	-9.58597
ibh	-9.58701
▁creidmheasa	-9.5871
▁rátaí	-9.58713
▁leictreonach	-9.58752
▁ndáir	-9.58767
úla	-9.58856
▁volta	-9.58918
▁bliant	-9.59037
aidir	-9.5913
▁tré	-9.59147
▁áirith	-9.59192
▁laeth	-9.59202
▁dliteana	-9.59251
de	-9.5934
▁céad	-9.59384
▁milliún	-9.59434
▁ísle	-9.59451
▁Alt	-9.59517
▁thagairt	-9.59607
▁mion	-9.59684
▁árachais	-9.59691
▁ró	-9.59708
lach	-9.59757
▁Cuarda	-9.60031
▁iarr	-9.60144
▁teicniú	-9.60294
▁tharraingt	-9.60361
▁Stiúrthóir	-9.60657
ngach	-9.61036
▁éisteachta	-9.6113
▁fhéadfa	-9.61155
▁fanacht	-9.61497
▁Cuirf	-9.61715
▁bhain	-9.61775
land	-9.61928
▁féadfai	-9.61942
▁min	-9.62235
méadú	-9.62331
▁teast	-9.62346
scoileanna	-9.62376
▁parlaiminteach	-9.62391
▁dleathach	-9.62495
▁40	-9.62552
▁foirgn	-9.62595
N	-9.62632
▁chothabháil	-9.63043
▁tacú	-9.63076
▁inmheánach	-9.63095
aimseartha	-9.63116
▁chó	-9.63159
▁Féadf	-9.63176
▁cheapad	-9.63178
▁siú	-9.63205
▁iascaireacht	-9.63268
▁plandáil	-9.6327
cumhachtaí	-9.63316
▁thíos	-9.6335
▁Cuirea	-9.63388
▁dearbhú	-9.63419
▁substaint	-9.6349
▁chuntasaíocht	-9.63506
ly	-9.63667
▁Cur	-9.6368
th	-9.63794
▁dhéanfaid	-9.63805
▁gCuid	-9.64018
▁meaisín	-9.6405
Stiúrthóireacht	-9.64052
▁freagra	-9.64175
▁inniúla	-9.64307
▁LE	-9.64326
▁cheadú	-9.64415
istí	-9.64492
▁dlite	-9.64532
▁thógá	-9.64542
R	-9.64599
▁éadrom	-9.64602
ordaithe	-9.64673
▁Ollscoil	-9.64768
▁Meitheamh	-9.64775
▁bhearta	-9.64961
fháil	-9.65101
onair	-9.65108
▁caite	-9.65288
Ú	-9.65333
▁Teach	-9.6546
thréimhse	-9.65679
▁tráchtál	-9.6569
che	-9.65791
▁faire	-9.6581
▁oscailte	-9.66045
▁gné	-9.66046
▁có	-9.66383
▁fola	-9.66435
bogearra	-9.66441
▁baile	-9.6646
oirceallá	-9.66528
▁Chonra	-9.66542
▁Mura	-9.66607
▁clárú	-9.66617
▁corpraithe	-9.66903
▁liúntais	-9.66946
▁gcomhair	-9.66957
aici	-9.66961
▁gcuir	-9.66976
ll	-9.6707
eithre	-9.67127
▁Síochá	-9.67179
ol	-9.67191
▁tsuim	-9.67261
▁éag	-9.67372
▁Rogh	-9.67385
ís	-9.67511
▁coiste	-9.67563
▁bhailiú	-9.67591
▁gCoimisinéir	-9.67641
▁Aibreá	-9.67672
▁úinéir	-9.67677
▁cona	-9.67765
▁reachtaíocht	-9.67806
ill	-9.67825
seamh	-9.67854
▁inniú	-9.67864
▁tug	-9.67897
▁éisteacht	-9.67934
▁Foins	-9.68008
ladh	-9.68266
▁cabhr	-9.68365
▁tarmlig	-9.68419
▁sampla	-9.68466
▁IV	-9.68519
▁cheadúna	-9.68531
▁déag	-9.68535
▁staid	-9.68573
tory	-9.68577
▁fost	-9.68586
▁leabhar	-9.68638
▁hAirteaga	-9.68642
▁chosc	-9.68656
re	-9.68659
▁Guan	-9.68762
▁fhoirm	-9.68793
▁cionn	-9.68817
AMH	-9.68874
▁shonra	-9.68886
▁sláintíocht	-9.68912
he	-9.68941
▁reachtú	-9.69054
▁contae	-9.69186
▁comhlachta	-9.69188
▁cárta	-9.69218
▁thionscna	-9.69226
▁malairt	-9.69233
▁fiche	-9.69324
▁Soláthra	-9.69374
▁Bealtaine	-9.69514
▁Tiarna	-9.69536
▁díospóireacht	-9.69755
táille	-9.6978
▁Londa	-9.69798
▁bhea	-9.69842
▁aisíoc	-9.69905
▁achtachá	-9.6992
▁thaispeáin	-9.69926
teannta	-9.69985
▁talmhaíocht	-9.70001
▁iontu	-9.70055
▁32	-9.70089
hníomhaireacht	-9.70201
▁prionsaba	-9.70201
abhrú	-9.70392
▁réidh	-9.7052
▁Ina	-9.70586
▁uirlis	-9.70677
▁bhíthin	-9.70789
acht	-9.70802
▁molta	-9.70892
▁Feabhra	-9.7097
▁chomhaont	-9.71103
▁éil	-9.71122
▁réasúnta	-9.71201
▁dír	-9.71427
▁deich	-9.71708
▁rinnea	-9.71842
▁gheimhr	-9.71845
▁dochtúir	-9.7193
k	-9.72007
▁onnmhaireoir	-9.72058
ráid	-9.72123
▁aer	-9.72162
▁Áth	-9.72173
▁treoir	-9.72312
▁ghlac	-9.72653
▁long	-9.72741
▁álainn	-9.72762
▁glas	-9.72814
mirt	-9.72866
▁Ríocht	-9.72918
▁ceist	-9.72939
▁eagraíocht	-9.72964
radh	-9.7303
▁frith	-9.73204
ontas	-9.73607
▁gcuirf	-9.73735
▁mhodh	-9.73816
▁35	-9.73824
▁brath	-9.73891
▁infheistíochta	-9.739
se	-9.74016
▁ngair	-9.74168
▁Airgid	-9.74197
▁iarrthóir	-9.7441
▁thos	-9.74478
▁scor	-9.74545
▁socha	-9.74801
▁U	-9.74902
▁breathn	-9.7495
▁coitianta	-9.74953
▁phróiseáil	-9.74996
▁fheabhsú	-9.75059
▁cíos	-9.75067
▁socruithe	-9.75124
mná	-9.75139
▁ghearradh	-9.75319
inse	-9.75464
ici	-9.75538
▁crua	-9.75574
oiread	-9.75605
▁straitéis	-9.7565
▁hAchta	-9.75759
▁SOLAS	-9.75763
▁fhorála	-9.75832
▁chontae	-9.75837
▁2007	-9.7587
▁cuntas	-9.75888
▁sealadach	-9.75899
▁bheala	-9.75918
▁lár	-9.75941
ide	-9.75973
▁treorach	-9.76149
▁cuma	-9.76182
▁leighis	-9.76313
iúla	-9.76313
▁Iarnró	-9.76394
▁shonró	-9.76505
▁deontas	-9.76555
▁ainmniú	-9.76656
fach	-9.76679
▁pictiúir	-9.76706
▁2010	-9.76727
▁aicm	-9.76902
▁Chuir	-9.76907
▁earnáil	-9.77207
▁stair	-9.77371
▁Dlí	-9.77595
▁chaiteacha	-9.77745
▁Dara	-9.77825
ity	-9.77882
▁próiseas	-9.77899
▁cionta	-9.77993
▁60	-9.78039
▁aitheanta	-9.78132
▁Déanta	-9.78234
▁cáilithe	-9.78256
▁fadhb	-9.78386
▁Naisc	-9.78401
MS	-9.78411
▁Tuirc	-9.78471
▁taifead	-9.78508
▁Éisteachta	-9.78555
▁eacnamaíoch	-9.78576
fho	-9.78633
▁comha	-9.78671
▁com	-9.78765
uaidh	-9.78812
▁mórdhíol	-9.78813
▁múinteoir	-9.78897
muigh	-9.78988
chta	-9.79022
▁Moncler	-9.79407
▁bhaile	-9.7955
▁oifigiú	-9.79942
▁chóras	-9.8001
▁sóisial	-9.80067
▁ga	-9.80183
▁2001	-9.80206
▁fuarth	-9.80218
▁cóir	-9.8023
▁Sóisial	-9.80307
▁stíl	-9.80332
▁brabú	-9.80463
▁siopa	-9.80609
▁bhreis	-9.80797
▁trína	-9.80857
▁Trí	-9.80871
▁beo	-9.80918
▁Bainistíocht	-9.80948
▁Chuideachta	-9.81123
▁chomhlacht	-9.81231
ainne	-9.81245
▁chríoch	-9.81403
▁Gnótha	-9.81493
▁fianaise	-9.81531
▁Scoil	-9.81614
▁agam	-9.81683
▁fostaí	-9.81991
▁iona	-9.82044
▁féadf	-9.82046
▁ghinearálta	-9.82053
▁Poiblí	-9.82086
▁adhmai	-9.82132
▁cúraim	-9.82142
▁líonra	-9.82291
éile	-9.82368
▁chinnf	-9.8242
▁brú	-9.82438
▁Talmhan	-9.82875
▁scriosa	-9.82887
abháil	-9.82912
iompar	-9.82949
▁cuairt	-9.82949
at	-9.82997
▁Lúnasa	-9.82998
▁sholáth	-9.83009
▁bpoint	-9.83032
▁Ciste	-9.83141
▁Chomhphoba	-9.83149
▁chion	-9.83273
▁cumas	-9.83438
▁suí	-9.83447
hráid	-9.83555
▁asbhaint	-9.83561
▁Dia	-9.83591
▁conartha	-9.83631
▁fhaigh	-9.83641
nta	-9.83692
▁Gharda	-9.8373
▁oscailt	-9.83767
▁te	-9.83782
ainm	-9.83831
▁himeachta	-9.83831
▁chomhlachta	-9.83896
chur	-9.83966
▁thuas	-9.83972
▁dhliteana	-9.83989
▁speic	-9.84022
▁cheannas	-9.8403
▁thuillea	-9.84054
▁monarcha	-9.84085
Chiste	-9.84143
Aibreá	-9.84156
▁soláthraí	-9.84358
▁scéal	-9.84373
▁pe	-9.84485
oidh	-9.84543
▁leithligh	-9.84679
oibreacha	-9.84701
tv	-9.84722
▁plaisteach	-9.84775
▁luaidhte	-9.84818
▁réamh	-9.8484
▁chéim	-9.85094
aitheamh	-9.85107
óra	-9.85295
▁mheasúnachta	-9.85328
ment	-9.85348
▁eol	-9.85383
▁phobal	-9.85425
ies	-9.85463
▁gceart	-9.85532
▁bhliantú	-9.85548
▁Eola	-9.8556
▁tithíocht	-9.85677
▁seachtrach	-9.85811
▁dócha	-9.85883
▁mhaithe	-9.85985
or	-9.86043
Í	-9.86125
▁tháirgeadh	-9.86128
eacht	-9.86164
▁Oideacha	-9.86212
▁fostóir	-9.86304
chóireáil	-9.86433
▁meán	-9.86437
▁cúpla	-9.86578
▁foirn	-9.8673
▁gléas	-9.86742
▁dualgais	-9.86785
▁ngairm	-9.86798
▁smaoin	-9.86798
iúcháin	-9.86845
▁gníomha	-9.86865
▁Dáta	-9.86892
▁tuismitheoir	-9.86932
▁faireachá	-9.87019
▁íomhá	-9.87219
▁gnótha	-9.87221
I	-9.87534
▁cib	-9.87564
▁leithéid	-9.87587
▁thiocfa	-9.87624
▁mbainfid	-9.87645
▁solas	-9.8768
▁chomhairle	-9.8784
▁phoba	-9.87963
▁táill	-9.87984
▁crité	-9.88023
▁réit	-9.88091
▁Bain	-9.88131
▁réigiún	-9.88162
airgead	-9.8819
▁ceadúnais	-9.8823
▁míle	-9.88289
▁bPríomh	-9.88455
▁For	-9.88465
éasca	-9.88525
▁Cruach	-9.88599
eolas	-9.88834
▁stáisiú	-9.88871
▁roghanna	-9.88887
▁dtiocfa	-9.88936
▁Fear	-9.88976
▁500	-9.89166
▁bás	-9.89219
▁Hot	-9.89436
▁sábháilte	-9.89524
▁Gaeltachta	-9.89536
▁Scéim	-9.89595
▁45	-9.89605
▁ph	-9.89606
▁SC	-9.89657
▁Chiste	-9.89814
▁leathn	-9.89872
▁UM	-9.89892
▁tairbhe	-9.89997
▁gceann	-9.90114
aptha	-9.90179
▁chinn	-9.90263
▁déanmha	-9.90272
▁cinntí	-9.90367
▁dromchla	-9.90401
▁cúirte	-9.90403
onraithe	-9.90526
▁conra	-9.90542
▁gairdín	-9.90548
▁1999	-9.90581
▁W	-9.90586
▁Á	-9.90711
▁Saor	-9.90714
▁sheachada	-9.90734
▁gcomh	-9.90747
▁thoil	-9.90791
▁Coda	-9.90996
ail	-9.91005
▁teoranta	-9.91017
aontú	-9.91076
iste	-9.91175
▁tacaíochta	-9.913
▁gCúirt	-9.91397
churtha	-9.91454
athaoirleach	-9.91548
▁oibríochta	-9.91572
árú	-9.91579
▁luaith	-9.91603
▁limisté	-9.91742
▁luas	-9.91978
▁ord	-9.92058
▁34	-9.92062
▁tA	-9.92327
▁comhionann	-9.92349
▁gcomhlíon	-9.92357
▁gcóra	-9.92379
▁2005	-9.9249
▁Commit	-9.92503
▁caighdeáin	-9.92507
▁thalamh	-9.92515
▁soláthróir	-9.92753
ochair	-9.92761
▁tuairisceá	-9.92868
▁diúlt	-9.93164
▁grá	-9.93277
▁33	-9.93282
▁iompai	-9.93403
▁sheirbheáil	-9.93406
▁cumarsáid	-9.93429
▁Porno	-9.93473
Load	-9.93564
▁diúité	-9.93578
▁BliainDaon	-9.93602
▁shealbh	-9.93685
▁ghrúpa	-9.93696
▁grianghra	-9.93716
▁fheidhm	-9.93722
▁caiteachais	-9.9388
▁spás	-9.93964
▁aice	-9.94065
▁shonr	-9.94075
aip	-9.94108
EORPA	-9.94156
x	-9.94224
▁tseirbhís	-9.94332
▁dheimhniú	-9.94376
▁gnócha	-9.94417
▁oibreacha	-9.94433
▁gloine	-9.94545
▁cuntasaíocht	-9.94586
rátaí	-9.94694
▁leasuithe	-9.94868
▁toradh	-9.94878
▁oideachas	-9.95076
▁suntasach	-9.95077
▁Príomh	-9.95193
▁ndéanf	-9.95298
▁oíche	-9.95349
tee	-9.95355
▁Screen	-9.95446
▁leordhóthanach	-9.95494
▁stóráil	-9.95514
▁shl	-9.95515
▁cheangla	-9.95834
▁cleachta	-9.95899
▁tiomána	-9.96072
▁leictreach	-9.96117
ille	-9.96117
▁bainisteoir	-9.96124
▁teilifíse	-9.96192
▁Ansin	-9.96234
▁chearta	-9.96257
ry	-9.96363
▁clip	-9.9639
▁mara	-9.9644
déileáil	-9.96445
▁leigheas	-9.966
▁taispeáint	-9.96637
▁Hel	-9.96727
▁Caibidil	-9.96758
▁tuiscint	-9.96785
▁iarbh	-9.96791
▁príobháideach	-9.9684
Chúirt	-9.96941
▁údara	-9.96945
▁00	-9.97006
▁éagsúlacht	-9.97088
▁Déanfai	-9.97106
▁Threo	-9.9711
▁sheol	-9.97216
eiceáil	-9.97299
airdín	-9.97329
▁seolad	-9.97361
ag	-9.97474
▁Split	-9.97555
▁pinsin	-9.9757
▁2004	-9.97592
▁bhainea	-9.97659
24	-9.97705
▁traidisiún	-9.97715
▁uathoibríoch	-9.97741
▁híoc	-9.97799
▁ria	-9.97897
▁gluaiseacht	-9.97905
▁leibhé	-9.97973
▁chomhlíon	-9.97987
ud	-9.98027
▁bunúsach	-9.98053
tí	-9.98131
▁gheobhaid	-9.98164
▁fuaime	-9.98197
▁theicniú	-9.98382
ic	-9.98399
▁Córa	-9.98442
tú	-9.98519
..	-9.98589
▁scrios	-9.98683
▁tíre	-9.98695
▁comhlíona	-9.98752
▁tréimhs	-9.98802
▁dearg	-9.98854
▁Fógra	-9.99092
▁Stair	-9.99204
▁Oideachas	-9.99239
maoine	-9.9925
los	-9.99263
▁chóra	-9.99332
▁shuíomh	-9.99353
▁struchtúr	-9.99368
▁ús	-9.99485
▁mhéad	-9.99486
▁Sraith	-9.99494
▁the	-9.99659
áireamh	-9.9972
▁dT	-9.9981
▁Iompair	-9.99813
▁seacht	-9.99851
▁Leis	-9.99869
▁iontaobha	-9.99871
▁maoirseacht	-9.99888
oird	-9.99944
▁téacs	-10.0004
▁suite	-10.0006
▁199	-10.0019
▁airgeadra	-10.0021
▁Rinne	-10.0027
▁gcomhar	-10.0034
▁folaío	-10.0052
▁leictreacha	-10.0054
▁Uisce	-10.0055
▁tástáil	-10.0057
▁Banc	-10.0059
ofa	-10.0071
▁1976	-10.0077
▁leanúna	-10.0077
▁Allah	-10.0081
▁ghabháil	-10.0084
phointe	-10.0085
▁imscrúdú	-10.0089
M	-10.0095
▁chónaithe	-10.0095
▁36	-10.0096
▁oiliúna	-10.0102
P	-10.0118
▁taifid	-10.0121
▁dhiúlt	-10.013
▁díolúin	-10.0135
áit	-10.014
▁Speisialt	-10.0141
▁taist	-10.0141
▁Eor	-10.0142
▁ghníomhaíocht	-10.0142
aistriú	-10.0145
▁ceadú	-10.0146
▁bpost	-10.0153
▁Togra	-10.019
▁Bosca	-10.0215
▁Institiúid	-10.0224
▁saoráid	-10.0226
aíochta	-10.023
▁nAcht	-10.024
▁cheapa	-10.025
▁bunaío	-10.0251
▁buan	-10.0256
▁dhéanf	-10.0256
iarratasóir	-10.0272
ling	-10.0273
▁se	-10.0274
▁Dúi	-10.0275
lann	-10.0275
▁seasamh	-10.0301
▁catagóir	-10.0301
▁eolai	-10.0305
▁Déanann	-10.0321
go	-10.0324
▁mbun	-10.0324
▁fhomhír	-10.0326
sa	-10.0328
▁réim	-10.0329
▁pionós	-10.033
▁meas	-10.0335
▁bunaidh	-10.0335
▁ról	-10.0337
▁fir	-10.0337
▁saineola	-10.0337
uas	-10.0339
▁dhearbh	-10.0341
▁PH	-10.0347
uaire	-10.0348
▁gC	-10.0352
▁mhargadh	-10.0362
▁réigiúnach	-10.0369
▁bhrái	-10.0378
cmhainní	-10.038
▁lámha	-10.0396
▁AR	-10.0398
▁chomhair	-10.04
▁bó	-10.0423
▁druga	-10.0424
mhór	-10.0425
▁feabhas	-10.0425
▁staidéar	-10.0443
▁neamhspleách	-10.0456
▁Úsáid	-10.0456
▁glac	-10.0457
▁táscair	-10.0458
▁pointe	-10.046
rianchlo	-10.0474
U	-10.0475
rdú	-10.048
▁Tionsca	-10.0482
▁gCuideachta	-10.0485
▁chláir	-10.0487
▁K	-10.0491
raitheann	-10.0501
dóigh	-10.0504
▁gcomhalta	-10.0511
▁trádá	-10.0522
▁Ord	-10.0532
▁bréagach	-10.0534
▁Plean	-10.0541
▁shábháil	-10.0544
▁bhord	-10.0551
▁thóg	-10.0554
hlí	-10.0563
▁Monaróir	-10.0574
V	-10.0574
isc	-10.0574
▁ce	-10.0578
▁ardchaighdeá	-10.0582
▁dheasca	-10.0597
▁aithint	-10.0608
nas	-10.0615
▁réite	-10.0629
▁Airgead	-10.063
▁Ire	-10.0634
▁Catagóir	-10.0639
▁oiliú	-10.0647
▁ollmhór	-10.065
▁cháin	-10.0654
lí	-10.0656
▁Tabhair	-10.0665
▁théarma	-10.0681
▁mBan	-10.0689
▁Páirt	-10.0689
▁teaghlaigh	-10.0695
▁difriú	-10.0704
▁Wat	-10.0716
eana	-10.0721
▁Theas	-10.0721
▁feithicl	-10.0721
▁ríomhpho	-10.0722
▁v	-10.0723
▁cuirf	-10.0736
▁gearr	-10.0745
fheidhmeanna	-10.0746
lú	-10.075
▁co	-10.0752
▁bunú	-10.0757
▁próiseála	-10.0757
▁iarratasóir	-10.0765
▁Chontae	-10.0779
▁fhianaise	-10.0792
▁íosta	-10.0797
▁Airteaga	-10.0797
▁sreang	-10.0801
fh	-10.0806
▁pleaná	-10.0822
▁dhia	-10.0827
ain	-10.083
▁dea	-10.0831
▁líomatáist	-10.0837
▁gníomhaíocht	-10.0852
▁difríocht	-10.087
▁coda	-10.0871
▁Next	-10.0872
▁chugainn	-10.0873
▁Comh	-10.0879
▁tobac	-10.0887
▁inneall	-10.0888
▁teocht	-10.0897
IL	-10.0915
▁tionónta	-10.093
▁Pland	-10.0938
eiridh	-10.0943
▁mac	-10.0945
▁mbain	-10.0945
shuiteáil	-10.0955
▁measúnachta	-10.0969
AE	-10.0971
▁imeacht	-10.0976
▁snáithe	-10.098
▁gcuirfea	-10.0987
▁agóid	-10.0988
▁spraoi	-10.0991
▁urrú	-10.0992
▁tirim	-10.0993
▁scoirf	-10.0993
▁Ainm	-10.1003
▁tógáil	-10.1003
▁cruinni	-10.1005
▁mh	-10.102
oibriú	-10.1028
▁chaoi	-10.1031
▁thairiscint	-10.1039
▁tí	-10.104
chtaí	-10.104
▁baill	-10.1044
▁Déanf	-10.1049
▁Barcelona	-10.1052
▁cheanta	-10.1058
▁shár	-10.106
EIDEA	-10.1063
nois	-10.1066
▁Tabharfa	-10.1074
▁chúlghairm	-10.1081
▁Post	-10.1085
elet	-10.1088
▁oibríocht	-10.1094
ARLAIMINT	-10.1098
rna	-10.1098
iarsma	-10.1099
éal	-10.1112
▁sean	-10.1114
▁fuar	-10.1118
▁fuinni	-10.1118
▁Tuarascá	-10.1122
▁ionadaí	-10.1135
▁42	-10.1136
▁Leanaí	-10.1137
ompair	-10.1147
heannta	-10.1154
▁1963	-10.1155
▁im	-10.1155
▁Ábhar	-10.1163
áilte	-10.117
▁meácha	-10.1196
▁mbeart	-10.1197
▁39	-10.1202
oifig	-10.1212
agartha	-10.1217
▁Iris	-10.1219
▁láidir	-10.1223
▁VI	-10.1224
▁bhainfid	-10.1225
▁Choinbhinsiú	-10.1234
▁friotaíocht	-10.1235
▁Bláth	-10.1241
ige	-10.1244
▁deireanach	-10.1247
▁breithiúna	-10.1253
▁chead	-10.1256
▁gcomhlacht	-10.126
▁gcuntas	-10.1264
▁Forála	-10.1272
▁blas	-10.1275
▁Níor	-10.1281
▁teorann	-10.1282
▁dlíns	-10.1296
▁Fac	-10.1309
▁móra	-10.1322
▁aerártha	-10.1335
▁on	-10.1338
▁ghníomh	-10.1339
▁Connect	-10.1357
▁leag	-10.1359
▁gala	-10.1362
▁bonn	-10.1366
céanna	-10.1369
▁titim	-10.1373
▁Talmhaíocht	-10.1378
▁fág	-10.1382
▁éinn	-10.1383
bhreithniú	-10.1388
údar	-10.1389
▁Ghaeilge	-10.1413
ers	-10.1415
▁rang	-10.142
▁iniúcha	-10.1421
▁nuashonr	-10.1431
▁tionsca	-10.1437
▁phríomh	-10.1452
▁todhchaí	-10.1453
▁dhéag	-10.1488
▁foirfe	-10.1491
ocht	-10.1505
▁maoiniú	-10.1505
▁athr	-10.1527
▁teagmhála	-10.1529
▁European	-10.1531
▁ráitis	-10.1531
áitreabh	-10.1537
stoic	-10.154
▁Faisnéise	-10.1544
▁dheirea	-10.1544
▁Tionscada	-10.1546
▁Fostaíocht	-10.1547
▁bhéarfa	-10.1552
▁branda	-10.1563
▁2000	-10.1565
ga	-10.159
▁fhorléir	-10.16
rís	-10.1613
ná	-10.1618
▁EU	-10.1621
▁riachtana	-10.1625
oir	-10.1627
▁gcoinníoll	-10.1647
▁38	-10.1648
▁Leasaí	-10.1653
▁nglacfa	-10.1656
▁bhreith	-10.1666
sc	-10.1668
▁urrús	-10.1673
▁tóir	-10.1676
aghaidh	-10.1677
▁srianta	-10.1696
▁custaiméir	-10.1697
hábhair	-10.1705
▁spreaga	-10.172
▁breis	-10.1722
▁Cl	-10.1732
CDD	-10.1734
▁Mo	-10.1737
▁Seirbhíse	-10.1742
▁Mórdhíola	-10.1751
▁Imeachta	-10.1752
▁Gníomhaíochta	-10.1753
▁cathaoirleach	-10.176
▁teicneolaíocht	-10.1763
▁praghs	-10.1773
▁iniúchta	-10.1788
cónaí	-10.1791
▁tromchúiseach	-10.1793
▁thógaint	-10.1803
▁léiríonn	-10.1804
léireofa	-10.1805
▁bronntana	-10.1811
▁ainmh	-10.1812
▁anailís	-10.1812
▁cónaithe	-10.1813
pháirtí	-10.1816
▁soláthair	-10.1816
▁wash	-10.1819
▁Óg	-10.1819
▁Monarcha	-10.182
▁mórdhíoltóir	-10.1842
▁Uachtarán	-10.1844
roichead	-10.1857
▁con	-10.186
▁Ilghnéitheach	-10.1867
▁Lá	-10.1869
▁teaghais	-10.187
▁Cineál	-10.1878
T	-10.1878
▁dhlí	-10.1879
▁labhairt	-10.189
onaid	-10.1894
▁Coinbhinsiú	-10.1906
mar	-10.1911
ia	-10.1912
▁staidé	-10.1914
dhéanamh	-10.1918
w	-10.1919
▁comhpháirt	-10.192
oireann	-10.1927
HUN	-10.1929
▁comhréireacht	-10.1941
éascú	-10.1942
▁taitneamh	-10.1944
▁inti	-10.1954
▁gcríoch	-10.1956
▁scála	-10.1965
▁imir	-10.1965
thar	-10.1972
▁dtreo	-10.1979
en	-10.1993
▁Chearta	-10.1994
▁dréacht	-10.1994
▁cathrach	-10.2004
ara	-10.2007
▁Cathrach	-10.2008
fheidhmiú	-10.2008
▁Cumarsáid	-10.2009
▁Lean	-10.201
uisce	-10.2012
▁fhor	-10.2013
▁rachai	-10.2015
agus	-10.2016
▁sibhialta	-10.2025
▁Leas	-10.2029
▁2020	-10.2036
▁athnuachan	-10.2051
▁paisinéir	-10.2052
oladh	-10.2054
▁híocaíochta	-10.2061
▁70	-10.2072
▁cigire	-10.2073
▁gorm	-10.2074
▁críochnaithe	-10.2091
ath	-10.2094
▁phragha	-10.2096
▁iar	-10.2096
▁mála	-10.2097
▁imthosca	-10.2108
ailte	-10.2118
▁méad	-10.212
▁Fo	-10.2124
▁inmhuir	-10.2129
▁Outlook	-10.2131
▁Iostanbúl	-10.2131
éiríonn	-10.2136
▁Ceann	-10.2138
▁196	-10.2141
▁Euro	-10.2143
aghas	-10.2146
▁aonad	-10.2148
▁Anois	-10.2183
▁reacht	-10.2192
▁dhíon	-10.22
comhréir	-10.2232
▁dualga	-10.2242
▁Gníomhaireachta	-10.2246
▁sainche	-10.2247
▁míniú	-10.2258
póirt	-10.2269
orbartha	-10.2269
▁phost	-10.2274
▁46	-10.2279
▁Gairdín	-10.228
▁mhaolú	-10.228
▁digiteach	-10.2281
abhairt	-10.2285
ness	-10.2297
▁Cuirfi	-10.2301
▁bhfaigh	-10.2301
▁Pé	-10.2305
íocht	-10.2305
▁díls	-10.2316
íní	-10.2317
▁tuig	-10.2326
▁cábla	-10.2326
▁tionscal	-10.2338
▁Aont	-10.2343
▁Ráta	-10.2352
▁scoir	-10.2353
▁coimeád	-10.2358
▁rialaitheoir	-10.2362
dhéanta	-10.2363
▁mheán	-10.2368
▁eastá	-10.2368
▁Tuga	-10.2371
▁Cuideachta	-10.2376
▁bac	-10.2378
mheasúnú	-10.2394
▁gcóir	-10.24
▁37	-10.24
▁buntáist	-10.2402
▁bog	-10.2404
▁roghna	-10.2404
▁thrí	-10.2417
▁200	-10.2418
▁triail	-10.2421
▁stáda	-10.2422
▁páipéar	-10.2438
▁eola	-10.244
▁bhean	-10.2442
▁chaill	-10.2447
▁chuirfea	-10.2453
▁aibí	-10.2457
▁hArd	-10.2463
▁chuirfid	-10.2465
▁sc	-10.2473
▁phearsanta	-10.2475
▁Mór	-10.2486
▁threoir	-10.2491
▁sochai	-10.2502
▁taisteal	-10.2515
stát	-10.2525
▁chorp	-10.253
áis	-10.2531
▁tógála	-10.2539
▁2002	-10.2547
▁fheiceá	-10.2549
▁teachtaireacht	-10.2551
ostaithe	-10.2553
▁aidhm	-10.2556
▁duilleog	-10.2563
alach	-10.2564
arraí	-10.2573
▁Foirm	-10.2574
▁crann	-10.2575
▁Feidhm	-10.2576
▁réigiú	-10.2579
▁chláraithe	-10.2582
▁Faigh	-10.2587
2003	-10.2599
▁chruinni	-10.2601
▁comharthaí	-10.2603
▁beatha	-10.2605
▁ndéana	-10.2608
▁incháilithe	-10.2645
nár	-10.2647
▁son	-10.265
▁chuntas	-10.2666
▁comhar	-10.2667
rac	-10.2672
ocal	-10.2681
▁faighte	-10.2684
F	-10.2694
▁tábhacht	-10.2705
▁timpeall	-10.2706
▁iomláin	-10.274
▁55	-10.2748
▁sheachtain	-10.2758
▁lárnach	-10.2761
▁feithicle	-10.2771
▁Atha	-10.2776
▁cumann	-10.2784
▁chloi	-10.2791
▁Éireannach	-10.2798
▁gcionta	-10.2801
altaí	-10.2805
▁acmhainn	-10.2811
▁Europ	-10.2813
▁Cumhacht	-10.2823
▁deontais	-10.283
▁fiosrúchá	-10.2835
▁dhul	-10.2835
▁pacáist	-10.2837
▁fhadhb	-10.2839
▁tháirgí	-10.2842
▁Forbairt	-10.2842
▁ea	-10.2846
▁riail	-10.2849
▁dúi	-10.2853
▁turas	-10.2856
▁cúite	-10.2857
tas	-10.2865
▁chonra	-10.2866
▁Ná	-10.2869
comparáid	-10.2904
▁Sin	-10.2909
▁coinníoll	-10.2913
▁tomhaltóir	-10.2921
▁airgeada	-10.2921
ruithe	-10.2925
éifeacht	-10.2929
mm	-10.2929
aíochtaí	-10.293
airgeadra	-10.2931
▁Taispeáin	-10.2952
▁ghrian	-10.2966
▁cód	-10.2967
▁dlíthiúil	-10.2982
▁teasa	-10.2986
▁Nuacht	-10.2989
rádáil	-10.2992
▁bain	-10.2993
▁thíolaca	-10.2995
▁DHÉAN	-10.2996
▁Local	-10.3007
éil	-10.3008
▁gléasra	-10.301
▁dár	-10.3023
▁cúrsaí	-10.3026
▁diúscairt	-10.3028
iceáil	-10.3034
▁cóireáil	-10.3039
▁Ionad	-10.3043
▁bpáirt	-10.3055
▁níor	-10.3064
ineacht	-10.3077
▁modhann	-10.3077
▁buí	-10.3082
97	-10.3084
▁díola	-10.3099
▁Mh	-10.31
▁éadaí	-10.3102
▁Trácht	-10.3107
▁75	-10.3114
▁shláint	-10.3117
▁alúmana	-10.3117
▁páist	-10.312
urscaoileadh	-10.3122
▁teaghlach	-10.3124
▁míleata	-10.3128
▁tiocfaid	-10.3129
osanta	-10.3129
▁thuairim	-10.3131
▁Gluaiseacht	-10.3135
▁chuí	-10.3138
▁gruaig	-10.3139
▁míre	-10.3149
▁fororda	-10.315
▁iontaofa	-10.315
▁scríobh	-10.3158
▁séala	-10.3162
▁ceapt	-10.3169
olex	-10.3169
▁breithe	-10.3172
▁ainmniúchá	-10.3174
▁beala	-10.3176
▁cuarda	-10.3188
load	-10.3197
▁Nach	-10.3204
eacair	-10.3208
▁shóisial	-10.3216
▁pearsan	-10.323
▁croí	-10.324
óide	-10.3242
dhroim	-10.3245
▁fionraí	-10.3257
▁slán	-10.3265
eoil	-10.3266
▁tiomanta	-10.3267
▁gearán	-10.3268
▁féilir	-10.3268
▁gCiste	-10.3269
ma	-10.3276
▁cóireála	-10.3277
▁indéanta	-10.3279
aim	-10.3286
▁scanná	-10.3293
▁mhíniú	-10.3294
▁sceideal	-10.3296
▁gníomhach	-10.3297
▁thag	-10.3312
▁65	-10.3314
▁la	-10.3316
▁EUR	-10.3317
▁Barr	-10.3319
▁toirt	-10.3327
▁Ealaíon	-10.3331
▁úinéireacht	-10.3333
▁thuiscint	-10.3333
▁So	-10.3337
inbh	-10.3347
▁oibrithe	-10.3347
▁hoifig	-10.3353
iontaobhais	-10.3355
ip	-10.3361
▁Oifigiú	-10.3369
▁iv	-10.3381
eisiúint	-10.3386
▁pian	-10.3386
▁comhairliúchá	-10.3395
iasachtaí	-10.3412
▁oibríochtú	-10.3412
▁soláthra	-10.3418
▁compordach	-10.3426
Chúirte	-10.3428
áirithe	-10.3429
▁bailí	-10.3457
▁tosaíochta	-10.3459
▁iniúchóireachta	-10.3464
▁Ph	-10.3476
ochta	-10.3479
▁Ciall	-10.3488
▁athbhreithn	-10.3489
▁tráchta	-10.3515
▁gabhá	-10.3537
▁pá	-10.3538
▁vóta	-10.3539
ea	-10.3541
▁amhras	-10.3547
▁meáchain	-10.3551
earadh	-10.3554
aothair	-10.3562
Eilvéis	-10.3569
▁chuma	-10.3576
▁bean	-10.3577
▁hoibleagáid	-10.3579
▁tu	-10.3579
▁sain	-10.358
▁48	-10.3581
▁éagsú	-10.3585
▁Iomlán	-10.3587
0	-10.3593
▁craiceann	-10.3598
▁Fh	-10.36
▁fórsa	-10.3602
▁úsáidte	-10.3604
▁giorra	-10.3605
néithe	-10.3623
▁nea	-10.3633
▁cúit	-10.3633
oil	-10.3636
▁chleachta	-10.3638
íolta	-10.3641
DH	-10.3649
▁gairmiú	-10.365
▁ng	-10.3651
▁dhochtúir	-10.3652
iúint	-10.367
▁éigeandála	-10.3672
▁fá	-10.3676
rí	-10.3681
▁Eo	-10.3682
ANNA	-10.3683
▁mionsonra	-10.3684
▁úis	-10.3688
Oireachta	-10.3692
▁príosúnacht	-10.3695
▁pháirt	-10.3697
reidiúint	-10.3704
▁cultúr	-10.3705
▁suime	-10.3708
▁gcoinn	-10.3712
▁riocht	-10.3714
▁Ráit	-10.3724
▁Chuarda	-10.3728
▁reáchtáil	-10.3729
ineann	-10.373
▁staitisticí	-10.3733
▁foláir	-10.3738
▁Po	-10.374
▁toirmeasc	-10.3743
▁Praghas	-10.3745
▁dhaingniú	-10.3763
▁phionós	-10.3764
iseán	-10.3769
▁toghchán	-10.3771
▁fostaíocht	-10.3778
taí	-10.3779
▁ciste	-10.3781
aigheann	-10.3783
▁intinn	-10.3786
▁fosta	-10.3794
▁chúram	-10.38
thair	-10.3803
▁dif	-10.3804
▁caighdeánach	-10.3826
▁New	-10.3828
▁cainé	-10.3831
▁IO	-10.3834
▁únaer	-10.3836
25	-10.3838
mid	-10.3863
▁thiar	-10.3865
▁Mheán	-10.3866
▁táirgthe	-10.387
▁liathróid	-10.3887
▁Taighde	-10.3887
▁ealaín	-10.3891
▁glaca	-10.3892
▁páipéir	-10.3894
▁Noll	-10.3894
▁ocht	-10.3896
▁CEE	-10.3917
hosaint	-10.3918
▁creidiúna	-10.3922
▁fhág	-10.3923
▁pictiúr	-10.3925
▁chustaiméir	-10.3928
▁eochair	-10.3932
ation	-10.3936
▁teicneolaíochta	-10.3938
▁iasca	-10.3947
teach	-10.3947
▁sár	-10.3953
▁dtáirgí	-10.3955
▁farraige	-10.3965
éir	-10.3974
▁ri	-10.3993
▁mhodhn	-10.3995
▁eitilt	-10.4004
▁ex	-10.4012
▁Sh	-10.4025
▁treoirlín	-10.4038
▁caipit	-10.4038
▁41	-10.4041
▁Tí	-10.4041
▁k	-10.4047
▁Fhrainc	-10.4048
▁teas	-10.4048
▁comhartha	-10.405
▁chríche	-10.4053
▁Déardao	-10.4054
shaol	-10.4054
▁ceanta	-10.4058
▁éirí	-10.4064
omhshaoil	-10.4064
▁Tiocf	-10.4064
raithe	-10.4068
▁cúrsa	-10.4074
67	-10.4075
aimsire	-10.4075
▁Uaireadóir	-10.408
▁gaolmhar	-10.4082
▁Rialú	-10.4083
book	-10.4086
▁thur	-10.4093
óige	-10.4095
▁infheistíocht	-10.4095
▁lag	-10.4114
▁mblia	-10.4119
▁Ceannai	-10.4126
▁dian	-10.4129
mhaith	-10.4141
Á	-10.4153
▁ghnótha	-10.4154
▁gúna	-10.4156
▁Samhai	-10.4161
▁chostas	-10.4166
▁Cáin	-10.4175
cu	-10.4185
▁imní	-10.4193
▁bhforál	-10.4196
▁lámh	-10.4197
▁meastóireacht	-10.4204
▁deartha	-10.4205
▁ghlana	-10.4207
▁dteagmhá	-10.4207
▁Joint	-10.4212
▁chigire	-10.4213
▁sainráite	-10.4213
▁vótáil	-10.4213
▁dtuairim	-10.4216
▁eolaíoch	-10.4219
▁cuibhe	-10.4224
▁or	-10.4228
ugann	-10.4233
▁Fheidhmiú	-10.4243
▁ordachá	-10.4244
ras	-10.4246
▁madra	-10.4248
▁Dollar	-10.4248
▁roinn	-10.4252
▁reachtach	-10.4264
▁inni	-10.4273
▁shiúl	-10.4286
▁CF	-10.4294
▁phróisea	-10.4295
▁90	-10.4308
▁Roinne	-10.4317
nse	-10.4322
▁bailiúchá	-10.4324
▁polaitiú	-10.4326
▁fios	-10.4329
easúnú	-10.433
osach	-10.4334
▁ionchúis	-10.4343
▁fheithic	-10.4345
▁cruthúna	-10.4358
▁té	-10.4359
▁tairisc	-10.436
▁bhainisti	-10.4362
▁fhostaí	-10.4366
▁As	-10.4369
▁gcomhlíonfa	-10.4374
▁Ghearmáin	-10.4379
▁Eacnamaíoch	-10.438
▁himthosca	-10.438
▁rannpháirtíocht	-10.4385
▁fáilte	-10.4386
▁shaol	-10.4386
▁gceanta	-10.4387
▁Riail	-10.4389
▁polasa	-10.4392
▁scáileá	-10.4393
ortha	-10.4393
▁eagla	-10.4405
▁domhanda	-10.4405
▁Gh	-10.4417
G	-10.4418
▁uairean	-10.4422
teorann	-10.4432
▁chruinn	-10.4436
Coimisiún	-10.4438
▁oibrí	-10.4441
EASÚ	-10.4448
▁tugt	-10.4452
▁mhuirearú	-10.4464
do	-10.4464
IS	-10.4466
IN	-10.4468
▁fuinn	-10.4471
racha	-10.4473
▁héifeachtach	-10.4474
v	-10.4491
lacadh	-10.4501
▁corparáide	-10.4503
▁ghníomhaire	-10.4507
▁hionstraim	-10.4508
▁point	-10.4509
▁caipitiú	-10.4515
▁stát	-10.4534
▁bháis	-10.4536
▁bheart	-10.4539
▁Straitéis	-10.4545
▁Síne	-10.4546
▁víosa	-10.4548
▁iPhone	-10.4549
ur	-10.4549
▁ilbhliantú	-10.4549
▁coiriúla	-10.4556
▁Dearadh	-10.4561
ard	-10.4562
▁taise	-10.4562
▁Clib	-10.4564
▁gcúirt	-10.4567
▁gcumas	-10.457
▁La	-10.4571
▁SCE	-10.458
▁Uathoibríoch	-10.4582
▁laghdaithe	-10.4588
▁National	-10.46
▁toghachá	-10.4603
▁muir	-10.4606
▁Oibre	-10.4618
▁cáilíocht	-10.4621
▁Céad	-10.4631
▁Mhár	-10.4634
▁cu	-10.464
▁Tábla	-10.464
éimeanna	-10.4641
san	-10.4653
▁shannt	-10.4655
▁hoibre	-10.4656
▁gairm	-10.4657
loig	-10.4658
▁saotha	-10.466
▁fhorál	-10.4666
éadrom	-10.4667
▁mbunaí	-10.4678
▁príomha	-10.4681
▁earrach	-10.4683
▁náisiún	-10.4696
▁j	-10.4696
ith	-10.4702
▁féideartha	-10.4707
▁rolla	-10.4708
▁inarb	-10.4711
▁choinne	-10.4711
▁glasra	-10.4714
▁Tuairim	-10.4722
▁buidéal	-10.4724
▁Cainteoir	-10.4735
▁Dubh	-10.4738
▁ghníomhaíochta	-10.4739
▁49	-10.4753
▁Comhphoba	-10.4754
ng	-10.4765
illiún	-10.477
▁dílseána	-10.4772
▁carr	-10.4775
héann	-10.4781
▁íocfa	-10.4809
▁cairde	-10.4812
▁ghá	-10.4817
O	-10.4818
▁tabha	-10.4824
▁ionstraimí	-10.4828
▁deire	-10.4831
▁daonna	-10.4848
▁fíon	-10.485
▁gcruinni	-10.4857
▁Tuille	-10.4858
▁léigh	-10.4872
K	-10.4872
anaí	-10.4878
▁plé	-10.4881
▁díolachá	-10.4881
▁Diamond	-10.4897
▁tseachtain	-10.4897
▁tarraingt	-10.4898
▁cliceá	-10.4911
ioncam	-10.4911
▁Super	-10.4913
▁uaireadóir	-10.4913
▁fhad	-10.4927
▁rannpháirteach	-10.4928
▁toghchá	-10.493
▁Beal	-10.4932
▁Shóisial	-10.4933
▁dhiaili	-10.4935
▁díbhinn	-10.4935
▁fhoghlaim	-10.4937
▁fomhír	-10.4937
▁traenach	-10.4942
▁stórála	-10.4951
▁State	-10.4963
▁allmhairiú	-10.4967
▁satailít	-10.4974
▁tábla	-10.4977
▁po	-10.498
▁Ga	-10.4988
▁fhoirgn	-10.499
athrú	-10.5
▁soilsi	-10.5
▁bainc	-10.501
▁chomaoin	-10.5011
samhail	-10.5027
aghad	-10.5036
▁bhféadf	-10.5036
▁ndéanfaid	-10.5039
▁tarchur	-10.5043
▁fhás	-10.5051
▁Treorach	-10.5051
▁58	-10.5057
▁scáth	-10.5061
▁Rialacha	-10.5065
▁44	-10.5076
▁Éire	-10.5076
Óg	-10.5079
▁Eile	-10.5082
irteagal	-10.5084
▁vótála	-10.5086
▁aimsir	-10.5096
▁Mheiriceá	-10.5098
▁píosa	-10.5106
▁ionadaithe	-10.5107
▁Leigh	-10.5107
▁fhonn	-10.511
ÓN	-10.5111
▁Déantóir	-10.5113
▁ualach	-10.5114
▁díospóid	-10.5115
▁uachtar	-10.5124
▁mhoill	-10.5124
▁riala	-10.5143
▁tuarasta	-10.5147
▁Ós	-10.5153
▁cheadó	-10.5154
oist	-10.5159
▁bhfostaíocht	-10.516
arainn	-10.5169
▁comhshocraíocht	-10.517
▁meascá	-10.5171
▁ceangailte	-10.5173
▁li	-10.5173
odh	-10.5175
▁chostais	-10.5178
▁measta	-10.5179
éann	-10.5181
▁fhreagra	-10.5186
▁Feabh	-10.519
▁cheada	-10.5195
▁próiseáil	-10.5207
ki	-10.5212
rd	-10.5213
nó	-10.522
▁tuigf	-10.5228
▁cruth	-10.5253
▁Google	-10.5255
▁scilling	-10.5257
▁héifeacht	-10.5257
▁réasún	-10.526
▁dhualga	-10.526
▁cáiliú	-10.5264
▁díoltóir	-10.527
▁gComhphoba	-10.5275
▁Saoir	-10.528
oine	-10.5289
▁Corparáide	-10.5291
▁fráma	-10.5293
▁Comhalta	-10.5301
▁beirt	-10.5302
íochtaí	-10.5308
láraitheoir	-10.5311
▁laethú	-10.5314
iúd	-10.5317
IDEA	-10.532
▁tsl	-10.5335
▁meastachá	-10.5342
▁vótaí	-10.5372
hiúscairt	-10.5378
▁sonrófa	-10.538
▁aimsi	-10.5389
▁shealbhóir	-10.5391
▁leathana	-10.54
▁Iarrata	-10.541
▁áitri	-10.5423
▁tháirg	-10.5425
▁Chaibid	-10.5427
ac	-10.5431
▁Céim	-10.5434
▁Cás	-10.5436
eáin	-10.5436
▁1994	-10.5445
▁dúbailte	-10.5449
ínte	-10.5456
▁meicniú	-10.5457
▁gcomhlíona	-10.5457
▁Health	-10.5458
▁iniúchóir	-10.5462
▁Feidhmiú	-10.5464
▁bheag	-10.5466
▁cothromaíocht	-10.5466
uaisceart	-10.5476
▁ngníomhaíocht	-10.5486
▁easpa	-10.5489
▁teagmhas	-10.5489
▁mB	-10.5494
▁cod	-10.5497
▁ceal	-10.5509
▁caoga	-10.5509
▁cáilitheach	-10.5511
▁olc	-10.5512
▁fhíorú	-10.5517
▁dearfach	-10.5519
▁scile	-10.5519
▁creat	-10.5522
▁Áiritheo	-10.5525
▁Deir	-10.5527
▁194	-10.5532
▁chlúdach	-10.5533
▁Tugt	-10.5533
▁Coláist	-10.5546
naigh	-10.5547
▁óspidé	-10.5551
nách	-10.5552
▁mhola	-10.5553
▁gco	-10.5558
▁rialáil	-10.556
▁Mhaigh	-10.556
93	-10.5561
▁euro	-10.5566
▁Glacfa	-10.5575
éirí	-10.558
iarr	-10.5585
▁mic	-10.5586
▁léasa	-10.5586
▁bhall	-10.5595
eolaíochta	-10.5609
▁Bia	-10.5616
▁ordóid	-10.563
▁1960	-10.563
▁dóich	-10.5633
▁Breataine	-10.5634
▁cóiríocht	-10.5637
▁cheapfa	-10.564
▁feiste	-10.564
▁patrú	-10.5641
▁baol	-10.5641
▁aeráid	-10.5642
achaint	-10.5647
mhairc	-10.5652
▁deoch	-10.5662
▁bhfu	-10.5669
▁faisean	-10.5671
▁Tóg	-10.5672
iomlán	-10.5674
othabháil	-10.5684
H	-10.5686
▁taispeánta	-10.5687
▁leasmhar	-10.5689
fhéadfa	-10.5697
▁casta	-10.5703
ír	-10.5703
▁Limisté	-10.5704
▁Universit	-10.5706
saothrú	-10.5713
tube	-10.5717
▁orainn	-10.5722
▁breac	-10.5727
▁gcúrsa	-10.5729
úsáideoir	-10.5737
▁thuairisc	-10.574
inní	-10.5743
▁timpeallacht	-10.5747
eitheamh	-10.5747
▁trácht	-10.5757
▁ngairt	-10.5757
less	-10.5761
▁bhótha	-10.5763
bhunaithe	-10.5766
▁liti	-10.5768
▁ócáid	-10.5774
▁áireofa	-10.5774
▁dathanna	-10.5779
▁chumhda	-10.5783
▁Nós	-10.5797
leic	-10.5801
▁óg	-10.5808
chaighdeán	-10.5816
▁nádúr	-10.582
▁Trádála	-10.5822
▁1972	-10.5822
▁gréine	-10.5822
▁baránta	-10.5822
▁maireachtá	-10.5824
▁miotail	-10.5825
▁taisce	-10.5826
▁fógraí	-10.5834
▁gairmiúla	-10.5835
▁Daon	-10.5835
▁cothabhála	-10.5836
▁Iarratais	-10.5841
▁fóill	-10.5844
▁Thuaidh	-10.5845
nmhuirear	-10.5848
▁Sc	-10.5848
▁Sula	-10.5854
▁ceachta	-10.5859
▁breosla	-10.586
amháin	-10.5862
▁dearmad	-10.5863
▁Táirge	-10.5875
▁scór	-10.5876
▁achmair	-10.5881
ora	-10.5898
▁dé	-10.5899
▁Dh	-10.59
z	-10.5901
▁díobhálach	-10.5906
▁Sta	-10.5911
fhostaithe	-10.5916
▁chuarda	-10.5922
ugtha	-10.593
▁astu	-10.5935
▁mhín	-10.5942
▁IN	-10.5943
▁bp	-10.5949
▁cúirt	-10.5952
▁02	-10.5978
▁choinníollach	-10.5982
▁mp	-10.5986
▁cuirfe	-10.5987
▁scaipea	-10.599
▁stáit	-10.599
▁47	-10.6016
▁pionóis	-10.6017
▁monatóireacht	-10.6018
▁Sna	-10.6019
▁fochuideachta	-10.6022
▁1988	-10.6025
▁tiarna	-10.6026
▁mhíchumas	-10.6029
▁tsamhraidh	-10.603
▁chríochnú	-10.6032
▁Lucht	-10.6036
▁crainn	-10.604
▁Digiteach	-10.6044
achomharc	-10.6054
▁video	-10.6057
▁scil	-10.6064
▁ospidé	-10.6065
▁43	-10.6073
ste	-10.6075
ní	-10.6078
▁saoirse	-10.608
COMHAIRLE	-10.6092
▁choigeartú	-10.6093
▁rúnaí	-10.6094
▁Forál	-10.6097
▁siúcra	-10.6103
▁chiste	-10.6103
▁Chomhaont	-10.6108
▁ceangal	-10.6117
▁múnla	-10.612
▁Iar	-10.6134
▁marc	-10.6135
chéile	-10.6144
▁su	-10.6145
▁Léig	-10.6148
▁fáis	-10.6153
▁bhfógra	-10.6155
▁stampa	-10.6155
▁Ár	-10.6156
▁Faisnéis	-10.6159
gat	-10.6161
▁52	-10.6161
▁Chlár	-10.6162
▁stop	-10.6163
nt	-10.617
▁éifeachtúlacht	-10.6172
▁bróg	-10.6173
▁glacfa	-10.6173
▁aeir	-10.6179
▁phlean	-10.6194
ollaig	-10.6201
ús	-10.6206
▁uast	-10.6211
mheasann	-10.6216
▁tógtha	-10.6222
Afraic	-10.6229
▁chúig	-10.6231
Shan	-10.6232
▁Tr	-10.6232
▁uathúil	-10.6235
▁vitimín	-10.6236
▁píopa	-10.6238
▁iontráil	-10.6239
eaghlaigh	-10.6245
▁gcomhthéacs	-10.6248
▁bua	-10.6253
▁gluaisteá	-10.6253
▁mblian	-10.6272
▁chluich	-10.6273
▁1937	-10.6284
▁suimiú	-10.6288
▁ithreach	-10.6292
▁gníomhaire	-10.6295
▁eagrú	-10.6296
▁rochta	-10.6299
▁ts	-10.6299
▁deonaío	-10.6303
ious	-10.6304
▁aoisliúnta	-10.6308
▁áiríte	-10.631
▁53	-10.6311
thas	-10.6313
▁RIALACHÁ	-10.6317
▁ráthaíocht	-10.6319
osúil	-10.6325
▁Líon	-10.6325
▁snámha	-10.6331
▁deon	-10.6335
áiste	-10.6336
▁ceall	-10.6337
▁comhiomlán	-10.6356
ráite	-10.6363
▁heagraíochta	-10.6364
dir	-10.6364
▁Irish	-10.6364
TA	-10.6367
nscne	-10.6375
▁cinnea	-10.6383
isean	-10.6392
▁dtag	-10.6392
▁fhágá	-10.6393
▁feidhmíochta	-10.6393
▁Réigiún	-10.6395
▁soghluaiste	-10.6398
oin	-10.6405
▁géar	-10.6412
phost	-10.6421
▁1978	-10.6423
▁dorcha	-10.6429
▁Bearta	-10.643
▁shaothr	-10.643
mhéid	-10.6431
▁1961	-10.644
▁Tu	-10.6442
▁nótaí	-10.6443
den	-10.6444
▁pins	-10.6444
▁lampa	-10.6455
▁Bí	-10.6455
▁dhíreach	-10.6456
▁insint	-10.6464
▁phlanda	-10.6465
▁oibreoir	-10.6483
▁Có	-10.6485
▁Cumhachta	-10.6488
▁gceangal	-10.6495
▁socraithe	-10.6495
▁caidr	-10.65
▁poba	-10.6501
▁ghairmiú	-10.6503
▁mhuirear	-10.6506
IT	-10.6514
▁Domhna	-10.6518
all	-10.6519
▁Am	-10.6526
▁dí	-10.6527
▁ab	-10.6528
tor	-10.6529
▁fhorghníomh	-10.653
▁neamhní	-10.6532
▁Measfa	-10.6539
▁eisío	-10.6549
▁aturnae	-10.6552
▁fholaío	-10.6555
64	-10.6555
▁phríobháideach	-10.6562
lib	-10.6562
ty	-10.6566
▁srian	-10.6569
▁inár	-10.6571
▁Sean	-10.6571
▁fulaing	-10.6573
▁eagraíochta	-10.6576
▁Phoba	-10.6576
▁sreabha	-10.6583
▁ranníoc	-10.6584
▁80	-10.6585
▁Infheistíochta	-10.6592
▁brabús	-10.6599
aoin	-10.6601
▁Phoibl	-10.6603
próiseas	-10.6604
▁cheadúnais	-10.6611
▁ceapad	-10.6614
▁diaper	-10.6617
▁Domhand	-10.6623
▁bándearg	-10.6629
▁huathoibríoch	-10.6631
▁teagaisc	-10.6633
▁morgáiste	-10.6634
aistrithe	-10.6639
▁freagairt	-10.664
▁uiscí	-10.664
eachín	-10.6641
▁Cosaint	-10.6643
▁dóiteáin	-10.6648
▁grád	-10.6649
▁current	-10.6649
CP	-10.6651
▁hA	-10.6653
▁folamh	-10.6655
▁lig	-10.6659
▁chreid	-10.6659
eo	-10.6663
▁lipéad	-10.6664
▁strap	-10.6665
▁Slándá	-10.6668
▁saoránach	-10.6671
▁ceapachá	-10.6671
▁fhoilsi	-10.6677
heiceáil	-10.668
▁thabha	-10.6682
SE	-10.6685
▁tasc	-10.6687
▁bhosca	-10.6688
▁buiséad	-10.6689
▁Dúin	-10.6696
▁aca	-10.6697
ilte	-10.6702
▁ríomhaireachta	-10.6702
▁chaillteana	-10.6705
▁lonnaithe	-10.671
▁seachtainiú	-10.6712
▁hathru	-10.6722
▁Teicneolaíocht	-10.6723
▁áititheoir	-10.6733
tíre	-10.6733
▁méada	-10.6736
▁fuinneog	-10.6739
▁ceol	-10.6753
▁Con	-10.6755
▁éifeachtacht	-10.6758
▁bainte	-10.6777
▁mheasfa	-10.6783
▁cú	-10.6787
▁chruth	-10.6792
sta	-10.6796
▁ceadún	-10.6798
▁Appl	-10.6811
▁leaba	-10.6829
Fómh	-10.683
▁gcoit	-10.6835
íche	-10.6838
▁Public	-10.6841
▁clasaiceach	-10.6843
▁lotnaid	-10.6844
▁trádmharc	-10.6846
▁ghné	-10.6852
▁neamhdhleathach	-10.6853
▁Fad	-10.6853
▁clúdach	-10.6856
▁Fórsa	-10.6857
▁dhí	-10.6859
▁fol	-10.6868
ml	-10.6869
▁só	-10.6872
▁chuspóir	-10.6874
▁phearsa	-10.6876
chán	-10.6878
▁dheisiú	-10.688
tús	-10.6882
▁bhuiséad	-10.6885
▁198	-10.6891
▁IP	-10.6894
co	-10.6904
▁feithic	-10.6904
olctha	-10.6905
uaithe	-10.6905
▁chumann	-10.6908
choiste	-10.6909
▁Andro	-10.6916
ise	-10.6916
ontú	-10.6941
▁gairme	-10.6944
▁léirithe	-10.6949
▁seachada	-10.6959
▁smaointe	-10.6973
▁tharchu	-10.6974
▁pláta	-10.6975
▁gcomhaont	-10.6976
▁Dhia	-10.6978
▁fa	-10.6985
▁rathú	-10.6987
▁Teicneolaíochta	-10.699
íonna	-10.6991
▁charm	-10.7
▁Nóta	-10.7005
▁measa	-10.7008
leibhéal	-10.7009
▁úsáideach	-10.7012
▁Sonra	-10.7014
▁tO	-10.7018
▁leasaithe	-10.703
Gníomhaireacht	-10.7033
▁fhororda	-10.7034
▁chúna	-10.7041
▁óna	-10.7041
eachtar	-10.7042
▁Shóisiala	-10.7048
▁ghearr	-10.7058
▁PDF	-10.7058
nóna	-10.706
▁Gairmiú	-10.706
▁1980	-10.706
▁Charm	-10.7061
▁1977	-10.7067
▁gcaoi	-10.7067
▁oiriún	-10.7069
ary	-10.7071
▁sruth	-10.7076
▁riara	-10.7081
▁léarscáil	-10.7082
▁oibriúcháin	-10.7082
▁dúnta	-10.7095
▁mheasta	-10.7103
▁Méad	-10.7106
▁Sainmhíni	-10.7111
fheidhmíocht	-10.7115
▁tweet	-10.7116
▁cruinneas	-10.7116
▁bheirt	-10.7123
▁Ankara	-10.7125
▁Soláthair	-10.7126
ionad	-10.7127
▁Face	-10.7137
▁dúrad	-10.7137
▁shon	-10.7145
▁caithfi	-10.7147
▁malart	-10.7149
▁nuacht	-10.7151
da	-10.7155
aire	-10.7173
▁Oiliún	-10.7178
ogadh	-10.7184
▁scoláir	-10.7187
oirceannadh	-10.7187
▁bainist	-10.7189
▁ginearál	-10.719
▁muinín	-10.719
▁vótaíochta	-10.7191
▁Bardas	-10.7192
▁tuairisciú	-10.7194
▁66	-10.7201
▁dháilea	-10.7209
▁1990	-10.721
▁Áracha	-10.7211
▁díobháil	-10.7215
▁marga	-10.7217
▁clúda	-10.7217
sal	-10.7222
chuid	-10.7236
just	-10.7237
▁Li	-10.7239
▁chailín	-10.724
nternational	-10.7241
▁phinsin	-10.7249
▁cruthaío	-10.7251
▁geal	-10.7254
ionann	-10.7255
▁Rúise	-10.7261
▁árasá	-10.7266
oiciméid	-10.7268
▁hoibríochta	-10.7272
pháipéir	-10.7272
bhuirg	-10.7273
▁hachom	-10.728
▁sliocht	-10.7282
▁áir	-10.7283
▁measartha	-10.7287
▁Tairiscint	-10.729
▁phlandáil	-10.7295
▁tap	-10.7297
úint	-10.7299
▁51	-10.73
▁sneachta	-10.7301
▁Fhorbairt	-10.7303
iche	-10.7308
▁Ath	-10.731
▁Costais	-10.7311
▁gceadúna	-10.7313
▁ranníocaí	-10.7313
▁dlíthiúla	-10.7314
mharcáil	-10.7317
breá	-10.7318
▁Limit	-10.7321
▁fhoirceann	-10.7329
▁per	-10.7333
▁chuntais	-10.7337
▁iasachta	-10.734
▁bainteach	-10.7344
nú	-10.7354
▁shainmhín	-10.736
▁China	-10.7367
oideachas	-10.7368
eanta	-10.7372
▁slabhra	-10.7385
▁dainge	-10.739
▁chonartha	-10.7391
ird	-10.7396
▁Br	-10.7398
▁Fir	-10.74
▁brí	-10.7404
▁bradá	-10.7415
▁inneal	-10.7418
▁120	-10.7424
▁Fuai	-10.7425
▁chomhlán	-10.7425
▁01	-10.7428
ments	-10.7429
ireacht	-10.7431
▁miondíol	-10.7436
▁gealltana	-10.744
▁cúltaca	-10.7446
▁me	-10.7446
ionsaí	-10.7448
▁mhian	-10.7456
orleathan	-10.7459
téarmaí	-10.746
▁Féad	-10.7461
Uachtarán	-10.7465
▁iniúch	-10.7467
osú	-10.7468
abhartha	-10.748
▁rannpháirt	-10.7494
▁áis	-10.7494
▁Poba	-10.7506
▁dlítheanach	-10.751
▁1974	-10.7511
▁cearnach	-10.7514
▁thuismitheoir	-10.7517
▁Talún	-10.7518
▁geall	-10.7523
▁meastóireachta	-10.7523
▁Du	-10.7526
▁Náisiún	-10.7528
aisghabháil	-10.7538
▁chionta	-10.755
imeachta	-10.7554
▁Gné	-10.7558
▁bhéarfaid	-10.7559
▁sláintiú	-10.7561
▁fhostóir	-10.7564
▁DE	-10.7569
achtaí	-10.7569
ÁS	-10.757
▁phlé	-10.7573
▁foghlaim	-10.758
▁cháilíocht	-10.7587
▁déanach	-10.7587
▁aisling	-10.7588
▁iomarcach	-10.7588
▁innealtóireacht	-10.7588
▁Glac	-10.7593
▁iompa	-10.7594
▁fón	-10.7598
esistant	-10.7598
▁inghlactha	-10.7602
▁tharmlig	-10.7603
▁chúl	-10.7605
▁teaghrá	-10.7607
▁síológ	-10.7608
EANNA	-10.7608
▁Méid	-10.7614
cal	-10.7615
cuain	-10.7615
idirdhealú	-10.7622
▁Nó	-10.7625
eadhon	-10.7625
▁68	-10.7637
▁seola	-10.7637
▁docht	-10.7638
▁roth	-10.7641
▁shoot	-10.7642
ainn	-10.7642
▁Úcráin	-10.7645
▁litreach	-10.7645
▁ranníocaíochta	-10.7646
ST	-10.7649
▁saincheist	-10.7652
reamh	-10.7655
▁spreag	-10.7656
▁árachas	-10.7657
ebate	-10.7665
▁barra	-10.7668
▁Comhlacht	-10.7678
▁athchomharc	-10.7681
▁tarraing	-10.7681
68	-10.7681
▁loingseoireacht	-10.7685
▁Treal	-10.7686
▁ionadaíocht	-10.7687
▁chónaí	-10.7695
▁sonr	-10.7715
ous	-10.7725
▁aquarium	-10.7729
THE	-10.7731
Parliament	-10.774
▁dtarló	-10.7741
▁láimhseá	-10.7745
▁Pleanála	-10.775
▁tuarascála	-10.7765
uathu	-10.777
▁Críostaí	-10.777
▁dheona	-10.7771
▁chúrsaí	-10.778
▁Meaisín	-10.7781
▁bheatha	-10.7793
▁fhaillí	-10.7798
▁snasta	-10.7801
eartaithe	-10.7812
▁leanfa	-10.7814
▁gcomhpháirt	-10.7816
cheart	-10.7825
▁foilsiú	-10.7832
▁cá	-10.7835
▁ionfhabht	-10.7835
▁mionsonraí	-10.7836
ghabháil	-10.7844
▁toir	-10.7849
▁nuachtá	-10.7857
▁roghn	-10.7862
▁Fuinn	-10.7865
CHA	-10.7869
▁inbhuanaithe	-10.7874
tréimhse	-10.7878
logy	-10.788
▁custaim	-10.7882
▁Commission	-10.7885
98	-10.7886
▁cuirfi	-10.7886
▁trédhearcach	-10.7888
19	-10.7896
▁gcinnf	-10.7896
▁saothar	-10.7896
▁troid	-10.7899
▁idirbheart	-10.7901
▁dlúth	-10.7902
▁bhailíocht	-10.7907
11	-10.7909
▁thabhai	-10.7921
▁dhiúscair	-10.7925
▁déanfai	-10.7927
▁comhpháirteach	-10.7931
achomair	-10.7935
▁tóg	-10.7947
so	-10.7957
▁Cáilíochta	-10.7966
▁fhostaíocht	-10.7971
rú	-10.7973
▁Service	-10.7979
▁Suíomh	-10.7979
▁bóthar	-10.7981
▁sia	-10.7983
▁hinstitiúid	-10.7993
▁aerfo	-10.7996
▁pósta	-10.7996
▁cheithre	-10.7999
lt	-10.8006
▁riarthóir	-10.8008
▁Cháin	-10.8011
▁Réamh	-10.8014
▁Gaillimhe	-10.8015
▁snáithín	-10.8017
▁háite	-10.8028
▁nÃ	-10.8035
▁ha	-10.8035
▁mhol	-10.8039
▁línt	-10.8039
chánach	-10.804
▁achoimre	-10.8041
▁láidre	-10.8041
▁earráid	-10.8041
▁Liosta	-10.8043
be	-10.8049
▁Rialaithe	-10.8053
▁Chó	-10.8055
▁Caithf	-10.8059
27	-10.8065
▁Conrad	-10.8067
▁dtrí	-10.8068
▁gal	-10.8072
▁Ro	-10.8073
▁sheacha	-10.8077
23	-10.8079
oibreoir	-10.8079
rimh	-10.808
▁Aonair	-10.808
▁dhíth	-10.8082
▁more	-10.8091
▁feirme	-10.8093
ainmneach	-10.8094
▁othar	-10.8097
▁báis	-10.8105
aint	-10.8109
▁Coinníollach	-10.8114
▁foins	-10.8115
▁nóta	-10.8117
▁bhrú	-10.8125
▁dáilea	-10.8127
lá	-10.8146
▁PC	-10.8155
▁Cu	-10.8159
▁Art	-10.816
▁tairbhí	-10.8163
▁toirmisc	-10.8166
▁bhás	-10.8174
▁VII	-10.8176
▁thriail	-10.8178
▁ceiste	-10.8178
▁189	-10.8179
tion	-10.8181
▁rapóirtéir	-10.8183
▁lagh	-10.8189
▁Áirí	-10.8191
▁Pá	-10.8194
▁dho	-10.8194
scrío	-10.8196
illí	-10.8202
▁Áir	-10.8207
▁Re	-10.8209
ainmniú	-10.8212
▁modhn	-10.8217
▁shonrach	-10.8219
▁moill	-10.822
▁LEIS	-10.8223
aithí	-10.8223
▁Tug	-10.8229
▁Financ	-10.8238
▁raghaid	-10.824
stáil	-10.8241
▁Bliain	-10.8242
▁Molta	-10.8244
▁thomhas	-10.8249
▁onnmhairiú	-10.8249
▁Caighdeán	-10.825
▁59	-10.8261
▁taisc	-10.8262
▁arm	-10.8264
▁fiach	-10.8266
▁sheiceáil	-10.8273
▁soicind	-10.8273
▁mianra	-10.8275
▁puiblí	-10.8276
▁orm	-10.828
▁rialála	-10.828
▁pearsa	-10.8281
▁theasta	-10.8282
▁comhlíon	-10.8285
aig	-10.8287
▁hachtachá	-10.8289
▁leithdháilea	-10.8295
tigh	-10.8308
▁Eaglais	-10.8309
▁glao	-10.8309
▁Cum	-10.831
▁Bliana	-10.8314
háinig	-10.8315
▁thrádáil	-10.8321
▁cuimhne	-10.8324
▁fhormheas	-10.8324
▁cath	-10.8326
▁tois	-10.8326
▁Bainf	-10.8328
▁sona	-10.8329
▁chaillea	-10.833
▁250	-10.8333
▁bhfor	-10.8333
▁Earra	-10.8335
▁Tacaíocht	-10.8339
▁57	-10.834
ianaise	-10.8341
▁sciath	-10.8353
▁dlighf	-10.8371
leachta	-10.8372
▁pas	-10.8373
▁bhriseadh	-10.8377
▁macasamh	-10.8378
iam	-10.838
▁gceangla	-10.8384
▁forlíontach	-10.8397
▁comhla	-10.8398
▁cuimilteo	-10.8411
▁sástacht	-10.8426
▁crios	-10.8432
▁pland	-10.8435
phinsean	-10.8437
úinéir	-10.8438
▁gcúis	-10.8439
▁déileál	-10.844
▁luí	-10.8444
ate	-10.8445
▁chánach	-10.8446
dú	-10.8453
▁lu	-10.8456
▁haisc	-10.8456
▁comhachta	-10.8469
rainn	-10.8469
▁lógó	-10.8472
▁Leid	-10.8472
▁oiriúint	-10.8473
▁bhfomhír	-10.8475
▁huisce	-10.8476
▁fiáin	-10.8477
▁hiarratais	-10.8481
▁orgánach	-10.8486
▁fachtóir	-10.8487
líne	-10.8493
▁Iasc	-10.8493
úlra	-10.8493
▁sceimhlitheoir	-10.8498
▁comhlachais	-10.8498
▁thionscada	-10.85
▁foghlam	-10.8503
▁Foireann	-10.8508
▁tíolaca	-10.8513
▁Seapáin	-10.8517
▁Acmhainní	-10.8519
▁méadaithe	-10.8519
iad	-10.8519
▁É	-10.8523
▁poll	-10.8525
▁Ionc	-10.8525
▁seasta	-10.8526
▁thaifead	-10.8526
éine	-10.8526
▁fhorord	-10.8527
▁riar	-10.8528
▁hiarratas	-10.8528
▁carachta	-10.8531
▁praiticiú	-10.8531
▁98	-10.8532
▁rial	-10.8533
▁seol	-10.8535
▁bhuail	-10.8538
▁Lig	-10.8538
▁béil	-10.855
▁lascain	-10.8555
▁lea	-10.8556
Aois	-10.856
▁riaráist	-10.8561
▁ainneo	-10.8561
▁iomlána	-10.8569
▁dleachta	-10.857
▁toil	-10.8575
iarrthóir	-10.8576
▁bainis	-10.8582
▁bP	-10.8588
▁Freagra	-10.8591
ile	-10.8594
tais	-10.8596
▁1941	-10.8597
▁sásra	-10.8609
▁No	-10.8613
▁seans	-10.8615
▁bhainist	-10.8618
▁mhonar	-10.8621
▁ghlan	-10.8628
▁56	-10.8636
▁iarrthó	-10.8642
▁gcruthófa	-10.8643
▁béim	-10.8656
▁ghníomhach	-10.8657
▁chroí	-10.8659
ime	-10.8665
▁dáileog	-10.8668
▁lasta	-10.8677
▁gcúrsaí	-10.868
▁eintit	-10.8685
▁mheasúnacht	-10.869
▁pobal	-10.8693
▁dhe	-10.8707
▁Rochta	-10.8712
▁bhainistíocht	-10.8723
▁thuarascá	-10.8727
eisiúna	-10.8729
▁Deontais	-10.8729
▁bhfaisnéis	-10.8731
▁Bhainc	-10.8731
▁Stage	-10.8732
▁geografach	-10.8732
▁fiacha	-10.8733
chleachta	-10.8736
▁fhorordó	-10.8737
▁chúit	-10.8737
▁x	-10.874
▁Frith	-10.8747
▁Bursa	-10.8753
▁mhalartú	-10.8755
▁athchóiriú	-10.8755
▁1958	-10.8756
▁Ú	-10.8756
▁cobhsaíocht	-10.8759
▁Amach	-10.8759
.	-10.8763
▁Mac	-10.8771
▁gcaiteacha	-10.8771
▁mhic	-10.8776
▁ndéant	-10.8777
▁leithleach	-10.8783
▁Cóipeá	-10.8784
tair	-10.8785
▁bhail	-10.8786
▁Athr	-10.8786
oirne	-10.8787
fhéid	-10.8789
▁leithead	-10.879
ríche	-10.8793
▁rath	-10.8793
▁Áise	-10.8794
aisíoc	-10.8796
▁háit	-10.8799
▁63	-10.8807
▁bonneaga	-10.8807
Eanáir	-10.8818
▁cheal	-10.8821
▁sealbh	-10.8827
NA	-10.8832
▁gcolú	-10.8839
▁caol	-10.8841
▁diúltach	-10.8844
BL	-10.8858
▁73	-10.8865
▁comhordú	-10.8869
ghala	-10.8869
▁tr	-10.8882
▁ollscoil	-10.8903
▁tha	-10.8909
Oidhreachta	-10.8913
▁sholáthra	-10.8913
▁mm	-10.8921
▁Iasca	-10.8923
▁bhrabú	-10.8923
SIS	-10.8929
ice	-10.8931
▁fhiach	-10.8936
▁gníomhaireachta	-10.8937
▁infheidhm	-10.8938
▁Coiriú	-10.8943
▁sholáthraí	-10.8946
▁Ginearál	-10.8946
▁Athbhreithni	-10.8946
▁gClár	-10.8949
▁Neamh	-10.896
▁Frainc	-10.8961
▁bu	-10.8964
▁athraithe	-10.8965
▁colún	-10.897
▁minicíocht	-10.8971
▁Íocfa	-10.8972
▁chuirf	-10.8974
daonra	-10.8976
▁USB	-10.8987
▁Leasu	-10.8989
▁du	-10.899
▁shocró	-10.8993
▁1970	-10.8993
998	-10.8994
▁Tuairisc	-10.9
▁chólucht	-10.9
▁margaí	-10.9
▁cosantóir	-10.9002
▁nocht	-10.9004
▁próisis	-10.9005
achas	-10.9006
▁criostail	-10.9012
36	-10.9012
▁Mp	-10.9016
▁thoirmeasc	-10.9019
▁fhaois	-10.902
▁Pro	-10.9022
▁Sábháilteacht	-10.9024
▁Comhaont	-10.9027
▁chúrsa	-10.9027
▁fhreagairt	-10.9028
▁suiteáil	-10.9031
▁Big	-10.9034
tBank	-10.9036
▁leagfa	-10.9039
▁scairchaipit	-10.9039
▁iomaíocht	-10.9041
▁shaor	-10.9043
▁Breithiúna	-10.9049
▁tírdhreach	-10.905
▁1995	-10.906
▁Oba	-10.9062
óg	-10.9068
▁ranníoca	-10.9068
neacha	-10.9069
▁togh	-10.9074
▁Ma	-10.9076
▁Se	-10.9076
▁fiosrú	-10.9079
▁uirbeach	-10.908
IAS	-10.9081
▁Bhó	-10.909
▁TF	-10.9092
▁Maisiú	-10.9094
▁cumhrá	-10.9095
▁Iompa	-10.91
▁staidr	-10.9102
▁bunús	-10.9106
▁Lt	-10.9123
ón	-10.9124
▁Soláthr	-10.9125
▁cógas	-10.9134
▁séasúr	-10.9138
▁ET	-10.9141
▁Aib	-10.9141
▁Fáilt	-10.9142
▁imreoir	-10.9145
▁Gnéas	-10.9145
▁Parlaiminte	-10.9154
cail	-10.9159
▁seolta	-10.9159
▁trá	-10.9173
▁aistriúchá	-10.9178
▁Ioncu	-10.9182
▁shimpl	-10.9186
▁Aireacht	-10.9187
▁Ceanna	-10.9193
▁AG	-10.9203
un	-10.9205
33	-10.9209
▁Arm	-10.9209
▁féacha	-10.9212
▁uait	-10.9213
oinn	-10.9218
▁cho	-10.9224
▁95	-10.923
IR	-10.9233
▁eagr	-10.9242
▁Sheirbhís	-10.9251
íniú	-10.9256
▁countertop	-10.9262
▁tuirlingt	-10.9262
▁creidmheas	-10.9265
▁comhlán	-10.9265
▁tiomáint	-10.9267
▁eachtrach	-10.9269
▁Eachtracha	-10.9271
▁thuga	-10.9271
▁chú	-10.9271
▁ailtireacht	-10.9272
luach	-10.9273
▁Teanga	-10.9278
▁Cárta	-10.9278
▁gcoimeád	-10.9281
▁claochladá	-10.9283
▁shraith	-10.9283
▁Io	-10.9286
lainn	-10.9286
▁gheofa	-10.929
▁mhúinteoir	-10.9291
▁díolmh	-10.9295
▁Poblacht	-10.9299
▁bhia	-10.931
▁03	-10.9313
▁duille	-10.9314
▁chatagóir	-10.9315
▁cháis	-10.932
▁07	-10.9322
▁deona	-10.9322
▁Údar	-10.9326
▁téigh	-10.9328
▁deas	-10.9332
▁info	-10.9341
▁ardlua	-10.935
▁tomhais	-10.9352
▁iontrála	-10.9354
▁gar	-10.9359
leabhar	-10.9361
et	-10.9366
▁tSeana	-10.9368
▁bhfaighi	-10.937
▁thiomáint	-10.9373
▁breiseán	-10.9374
▁SEAS	-10.9377
▁Bun	-10.938
▁scagair	-10.9385
luais	-10.9388
▁tabharfai	-10.9391
▁coinne	-10.9395
▁gComh	-10.94
▁ionchur	-10.9401
▁bhfeidhmiú	-10.9403
▁measúnacht	-10.9405
hoireann	-10.9408
glaoch	-10.9411
aicm	-10.9422
▁Leagan	-10.9428
▁naoi	-10.943
▁fheiste	-10.9436
▁chor	-10.9438
▁mhainn	-10.9443
áistí	-10.9443
▁téama	-10.9455
▁ceannach	-10.9456
▁inniúlacht	-10.9457
▁chorparáide	-10.9458
▁CD	-10.9476
946	-10.9476
▁coigeart	-10.9483
chais	-10.9488
tóir	-10.9491
▁droch	-10.9502
▁saibh	-10.9507
▁tríocha	-10.9516
hibhialta	-10.9521
▁mothú	-10.953
▁1940	-10.9537
▁dealraitheach	-10.954
▁mheabhair	-10.9542
▁Seomra	-10.9543
▁cas	-10.9544
▁eiseo	-10.9546
oilse	-10.9547
▁shainaith	-10.9552
▁chúitea	-10.9554
fhírinne	-10.9556
▁phróisis	-10.9557
▁xxx	-10.9559
▁Réigiúnach	-10.9562
▁ceannaitheoir	-10.9563
mhar	-10.9563
óid	-10.9564
▁69	-10.9564
▁Dún	-10.9565
▁chonaic	-10.9565
▁oibrío	-10.9566
▁1962	-10.9571
▁fhorchu	-10.9574
nuas	-10.9575
fhuascailt	-10.9576
▁fréamh	-10.9576
▁sínithe	-10.9579
▁smacht	-10.9579
▁luachála	-10.958
ance	-10.9581
▁dhualgais	-10.9585
▁Gearmáin	-10.9587
▁Por	-10.9587
▁tsocha	-10.9591
▁Rúis	-10.9594
▁cháil	-10.9594
ícheart	-10.9598
Bailiúchá	-10.9613
▁Leabhar	-10.9619
▁táirgeoir	-10.962
10	-10.9621
▁caora	-10.9622
▁India	-10.9624
▁thabharf	-10.9627
mais	-10.9632
▁fírinne	-10.9633
ghluaiste	-10.9634
ainneo	-10.9638
▁hailt	-10.9638
éiteach	-10.9643
▁thomhaltóir	-10.9655
▁comhtháth	-10.9658
▁bhallóid	-10.9664
raiceann	-10.9669
▁Costa	-10.9669
▁thor	-10.968
▁racha	-10.9688
▁chiallaío	-10.9691
▁ranga	-10.9691
▁móide	-10.9691
ve	-10.9691
iniúcha	-10.9703
▁contrártha	-10.9709
dálaí	-10.9712
iarrachtaí	-10.9716
ás	-10.9718
mhail	-10.9718
▁hoifige	-10.9718
▁seiceála	-10.9721
ball	-10.9722
▁Ré	-10.9731
▁theaghla	-10.9735
▁fianá	-10.9736
▁72	-10.9746
fheicthe	-10.9748
▁Sonraíocht	-10.9759
▁Leictreach	-10.976
airm	-10.9762
únaer	-10.9765
▁Léir	-10.9781
▁Aer	-10.9781
▁gearrtha	-10.9784
earra	-10.9784
▁Pháirt	-10.9786
▁banc	-10.9786
▁úr	-10.9794
▁ngabh	-10.9795
tiú	-10.9795
▁1989	-10.9797
hósta	-10.98
▁nuálaíocht	-10.9803
▁Liúnta	-10.9806
▁cnaipe	-10.9809
▁with	-10.9817
rialacha	-10.9817
▁WHO	-10.982
▁Stíl	-10.9821
▁1949	-10.9823
▁300	-10.9824
▁400	-10.9825
▁Phrótaca	-10.9825
▁chólíona	-10.9825
▁gaineamh	-10.9825
▁Shábháilteacht	-10.9828
áthair	-10.9835
▁buille	-10.9835
sheilbh	-10.9837
▁fadtéarmach	-10.9838
el	-10.9839
▁tsraith	-10.984
▁Tuarascála	-10.9845
▁gnáthchóna	-10.9848
▁nasctha	-10.9852
sperm	-10.9854
▁bótha	-10.9855
▁1983	-10.9856
aibidil	-10.986
▁Cuardai	-10.9861
▁mban	-10.9861
▁Oifigeach	-10.9863
▁cúl	-10.9866
▁67	-10.9867
chomhshó	-10.9869
core	-10.9882
ár	-10.9883
▁mharga	-10.9886
▁Staitistic	-10.9886
lag	-10.9886
▁cócaireacht	-10.9887
▁thús	-10.9893
me	-10.9895
▁luibhe	-10.9896
▁uasghrád	-10.9896
▁margaíocht	-10.9902
▁próifíl	-10.9905
▁clocha	-10.9908
▁89	-10.9914
irm	-10.9921
Daonlatha	-10.9926
▁líomhna	-10.9931
56	-10.9932
▁Sola	-10.9939
ochairfhoca	-10.994
irmeacha	-10.994
▁mbonn	-10.9944
▁fómha	-10.9948
▁buiséadach	-10.9949
▁ndi	-10.9952
▁dhlíthiú	-10.9954
▁Ceanta	-10.9957
▁normal	-10.9959
▁triú	-10.9963
áirí	-10.9968
▁cháilitheach	-10.9968
▁painé	-10.997
▁Struchtúr	-10.9975
▁urlá	-10.9982
45	-10.9991
▁eadrána	-10.9991
▁62	-10.9995
ionadaithe	-10.9996
▁luai	-10.9996
ture	-10.9998
▁hOifige	-11
▁feidhmíocht	-11
▁táiblé	-11
13	-11.0006
▁Roghna	-11.0008
▁Breithe	-11.0009
▁háir	-11.0009
▁MAIDI	-11.0012
▁dífhostaíocht	-11.0016
▁AC	-11.0021
▁scaoilte	-11.0023
uimhir	-11.0033
▁cheiliúra	-11.0033
▁cos	-11.0052
▁bhfeidhmeanna	-11.0055
arraige	-11.0058
▁dhi	-11.0061
▁dtug	-11.0062
▁Gnó	-11.0066
▁Bhreithiúnai	-11.0069
ID	-11.0072
▁sao	-11.0087
▁fréamha	-11.0088
man	-11.009
▁pleanáil	-11.0093
díotáil	-11.0094
▁athraío	-11.0094
▁fhógair	-11.0102
▁Dearbh	-11.0105
tóirí	-11.0107
▁straitéiseach	-11.0112
lánta	-11.0112
▁Scoile	-11.0113
zine	-11.0113
▁Black	-11.0115
▁póca	-11.0115
▁Dearg	-11.0116
IGH	-11.0117
▁Tit	-11.0121
▁Teaghrán	-11.0121
icrosoft	-11.0121
▁SOCRÚ	-11.0121
▁céatadá	-11.0121
▁1975	-11.0124
urscaoilte	-11.0127
▁He	-11.0129
▁ghléasra	-11.0129
▁diosca	-11.0129
▁foriomlán	-11.013
▁rásaíocht	-11.0131
▁fhoins	-11.0131
▁dhiúltó	-11.0133
▁chionroinnt	-11.0133
▁neamhghnách	-11.0135
▁dáileoir	-11.0137
▁ghrád	-11.014
▁cuimsitheach	-11.0146
▁1950	-11.0151
▁luadh	-11.0153
▁neamhniú	-11.0156
▁Dleacht	-11.0157
▁Sínis	-11.0158
NCA	-11.016
▁fán	-11.016
▁tábhachta	-11.0163
▁muiri	-11.017
▁roghnaío	-11.017
▁trom	-11.0172
▁ceamara	-11.0172
▁Report	-11.0172
ACH	-11.0175
▁gcaithf	-11.0187
▁Riarachá	-11.0188
▁dheis	-11.0189
shláint	-11.0195
▁Bunúsach	-11.02
▁thion	-11.0206
caim	-11.0207
▁láithreacha	-11.0211
▁GO	-11.0213
oisghrúpa	-11.0213
▁cruthaithe	-11.0215
▁coiriú	-11.0219
▁pháist	-11.022
▁gcineál	-11.0222
SIN	-11.0236
ptha	-11.0237
▁fhorchuir	-11.024
▁marbh	-11.024
▁Múinteoir	-11.0246
▁feirmeoireacht	-11.025
▁choth	-11.0251
lacht	-11.0258
mhaid	-11.0262
daite	-11.0262
▁airleaca	-11.0264
▁Ion	-11.0266
▁bhainistí	-11.0268
▁Buan	-11.027
▁cine	-11.027
▁Láriona	-11.0271
▁Spáinn	-11.0274
▁Críost	-11.0275
▁príobháideacha	-11.0276
▁Dearbhu	-11.0278
acair	-11.028
▁freagracht	-11.0284
▁Reacht	-11.0284
▁dílseach	-11.0288
▁stad	-11.0293
▁Scil	-11.0295
▁Tuismitheoir	-11.0297
▁Bra	-11.0302
▁cíosa	-11.0305
▁chóip	-11.0305
▁Sóisiala	-11.031
▁Cuideachtan	-11.0315
idirlíon	-11.0321
▁Samh	-11.0324
▁fhómha	-11.0325
▁neamhspleácha	-11.0327
Sín	-11.0327
▁dhéanfai	-11.0328
Béarla	-11.0333
▁aire	-11.0337
▁díobhála	-11.0337
▁EP	-11.034
▁ráthaíochta	-11.0342
oibleagáid	-11.0347
▁ngnó	-11.0354
▁Ospidé	-11.0359
▁Il	-11.0363
▁uiscedhíonac	-11.0367
▁Hid	-11.0368
▁shain	-11.0371
▁125	-11.0372
▁áise	-11.0377
éis	-11.0378
▁mhion	-11.0378
últaca	-11.038
▁Corparáideach	-11.0384
ian	-11.0385
ou	-11.0385
luaite	-11.0393
▁Té	-11.04
▁locht	-11.0401
▁solúbtha	-11.0405
▁bhrath	-11.0408
▁saincheiste	-11.0409
▁08	-11.0409
▁Dúithch	-11.0418
▁ghréasá	-11.0419
▁codlata	-11.0419
▁nGall	-11.0419
▁1979	-11.042
▁bplean	-11.042
▁rithte	-11.0421
▁íoslucht	-11.0422
▁bhformáid	-11.0424
▁Samsun	-11.0425
▁Turasóireacht	-11.0425
▁cliste	-11.0426
▁Beo	-11.0427
▁ríthábhachtach	-11.0427
▁Tras	-11.043
▁spórt	-11.043
▁chaipit	-11.0435
▁sholáthróid	-11.0438
▁milis	-11.044
▁thaiscea	-11.0448
▁bhfreagra	-11.0448
▁comhlíonta	-11.045
ileanna	-11.0471
sliú	-11.0475
▁oibr	-11.0475
▁samhail	-11.0476
▁par	-11.0479
▁Roinnt	-11.0486
▁CO	-11.0501
▁barracha	-11.0502
▁caith	-11.0508
▁thrádála	-11.051
▁teachtaireachta	-11.0513
▁loinge	-11.0513
▁gCoist	-11.0515
aill	-11.0516
W	-11.0522
▁inslithe	-11.0523
▁ceimiceá	-11.0526
▁ghnéas	-11.0526
oibrithe	-11.0527
▁comhthá	-11.0531
▁bhfoca	-11.0536
rais	-11.0539
▁Glan	-11.0544
▁sráide	-11.0544
▁taifeadta	-11.0546
▁Oiliú	-11.0547
rl	-11.0547
▁Cuims	-11.055
▁w	-11.0553
▁críochnaitheach	-11.0554
▁pianbhreith	-11.0556
▁Áit	-11.0556
achán	-11.0558
Caibidil	-11.0558
▁Mara	-11.0559
chas	-11.0559
▁Fhorá	-11.056
▁Comment	-11.0561
▁hábhar	-11.0561
▁éile	-11.0574
▁réi	-11.058
CÁIL	-11.0587
▁Réamhrá	-11.0589
annán	-11.0592
ts	-11.0593
▁61	-11.0611
eur	-11.0611
▁Comhshao	-11.0619
aomhnú	-11.062
▁lítear	-11.0621
▁eisceachtú	-11.0621
lactha	-11.0622
▁dheir	-11.0622
▁cheapfaid	-11.0625
▁cláru	-11.0628
sach	-11.0633
▁Barbour	-11.0639
▁197	-11.064
▁rás	-11.0647
eartú	-11.0647
och	-11.0649
▁ranníocaíocht	-11.0656
dar	-11.0666
▁Oileá	-11.0673
26	-11.0676
▁breithiúnach	-11.0684
▁ghiniú	-11.0689
▁plátáil	-11.0691
▁gaile	-11.0693
▁fuck	-11.0698
iteach	-11.07
▁Taispeánta	-11.0708
RAS	-11.0715
▁Réit	-11.0726
▁Techno	-11.073
▁caipín	-11.073
▁raidió	-11.0731
▁gcuspóir	-11.0732
▁gearrthóg	-11.0733
▁Teilifíse	-11.0734
▁mhainneachtain	-11.0735
▁Dhún	-11.0736
▁ISO	-11.0736
▁Chláir	-11.0737
▁Scannán	-11.0738
dhílse	-11.0738
▁06	-11.0738
áilleacht	-11.0739
▁Talamh	-11.0739
▁Fásta	-11.0741
▁Amharc	-11.0743
▁tíotáiniam	-11.0746
▁bhfostóir	-11.0746
▁gaire	-11.0746
▁mainneachtain	-11.0747
▁Free	-11.0749
▁foilsío	-11.075
▁Beag	-11.0751
United	-11.0752
▁Eolaíochta	-11.0752
▁síol	-11.0755
▁theach	-11.0756
▁Liúntais	-11.0757
▁fhear	-11.0761
▁oidhreacht	-11.0762
choróin	-11.0765
▁Monatóireacht	-11.0772
▁beze	-11.078
▁Sráid	-11.0785
naithe	-11.079
mhlacha	-11.0796
▁Gréasá	-11.0798
▁inrát	-11.0803
▁ta	-11.0805
ai	-11.0809
▁Pacáist	-11.081
▁sheirbhíse	-11.081
ún	-11.0816
▁St	-11.0822
▁rannpháirtí	-11.0823
▁Office	-11.0823
▁ordó	-11.0823
J	-11.0825
▁foirmiú	-11.0826
▁Word	-11.0829
▁trátha	-11.0833
ally	-11.0834
▁dícháil	-11.084
▁foilsithe	-11.0843
ós	-11.0843
▁silt	-11.0843
▁haois	-11.0844
reithniú	-11.0852
▁05	-11.0854
▁Foilseachá	-11.0856
ted	-11.0858
comhthéacs	-11.0861
▁We	-11.0867
▁mbearta	-11.0868
▁Bhuan	-11.0871
athanna	-11.0875
▁Te	-11.0877
mhuireara	-11.0885
▁09	-11.0888
mhná	-11.0889
▁theorainn	-11.0893
▁lin	-11.0903
aisghairm	-11.0904
asta	-11.0906
ailse	-11.091
▁cógais	-11.0914
▁scam	-11.0915
▁Ábha	-11.0916
dán	-11.0923
▁Tabharfai	-11.093
▁cliniciú	-11.0932
▁ca	-11.0933
▁cógaisíocht	-11.0933
▁saorána	-11.0934
▁héigeanta	-11.0934
▁chaidr	-11.0937
▁fíorú	-11.0938
▁Buna	-11.0941
nload	-11.0942
▁To	-11.0942
▁Prótaca	-11.0951
imreoir	-11.0952
▁brac	-11.0957
itheach	-11.0959
iseal	-11.097
▁ceapa	-11.0971
▁coiteann	-11.0971
▁caillte	-11.0974
burg	-11.0978
▁tSeirbhí	-11.0978
▁deonach	-11.0986
▁infheisteoir	-11.0988
way	-11.0988
▁thaisbeá	-11.099
▁bhfoirgn	-11.0991
ogearra	-11.0998
▁máist	-11.0999
▁Táim	-11.1005
▁mhionn	-11.1014
▁coinn	-11.102
fhorbairt	-11.102
vision	-11.1023
▁parlaimint	-11.1034
▁Dhá	-11.1037
▁chiall	-11.1038
▁Mam	-11.1041
▁fhreagracht	-11.1042
▁togha	-11.1047
▁scriú	-11.1047
▁hard	-11.1048
▁shé	-11.1048
uasmhéid	-11.1049
▁aithne	-11.1052
▁Education	-11.1052
▁ndeár	-11.1053
▁gcustaiméir	-11.1053
▁chlinic	-11.1054
▁Traenach	-11.1054
▁drochuair	-11.1054
▁Dóiteáin	-11.1055
▁theip	-11.1056
▁1973	-11.1056
▁1985	-11.1057
▁tarrthála	-11.1057
▁chluas	-11.1059
▁thástá	-11.106
▁míthreorach	-11.1061
eis	-11.1062
▁gcuma	-11.1064
▁fireann	-11.1065
▁thabhó	-11.1066
ánaigh	-11.1066
▁eHouse	-11.1068
▁ÁIR	-11.1068
EES	-11.1069
quarium	-11.107
▁sráidbhail	-11.1073
▁idirlí	-11.1074
▁tharló	-11.108
▁64	-11.108
▁Casino	-11.1087
▁bronnta	-11.109
▁soiléire	-11.1091
▁ceapfa	-11.1098
▁Garda	-11.1103
▁Sláintíoch	-11.1104
▁Gearr	-11.1107
ógáil	-11.1107
▁turasóireacht	-11.1108
▁Tioncha	-11.111
▁aonfhoirmeach	-11.1121
▁dtú	-11.1122
▁Aisghair	-11.1128
▁réaltaí	-11.1133
▁thaifeada	-11.1133
▁mhúin	-11.1139
▁contúirteach	-11.1146
LA	-11.1155
▁Me	-11.1156
▁Foirgníocht	-11.1156
▁Tora	-11.1158
▁Seol	-11.1159
▁náisiúnach	-11.1164
▁77	-11.117
▁luadhfa	-11.1171
▁seiceáil	-11.1171
46	-11.1172
▁Gníomh	-11.1172
Pad	-11.1184
▁beann	-11.1188
▁ranníocóir	-11.119
▁cleachtai	-11.1196
om	-11.1196
▁Pins	-11.1197
▁pota	-11.1198
iasc	-11.1199
▁chuims	-11.12
fhorála	-11.12
▁siamsaíocht	-11.1202
▁eisithe	-11.1208
▁si	-11.1208
▁ruba	-11.1208
éid	-11.1208
io	-11.1213
▁oibreo	-11.1215
▁buirg	-11.1217
▁bhóthair	-11.1219
▁ceimiceach	-11.122
▁chlog	-11.1226
▁bainisti	-11.1226
▁Cúna	-11.1228
▁Caibidl	-11.1231
▁Tionól	-11.1238
▁hacmhainn	-11.1245
▁Cá	-11.1246
▁Mhuir	-11.1255
▁Seinn	-11.1255
▁Gaillimh	-11.1262
thú	-11.1262
▁iomaíoch	-11.1267
▁cheartú	-11.1271
▁chíos	-11.1274
▁hurrú	-11.1286
▁feasach	-11.1286
ful	-11.1289
▁alcó	-11.1294
▁tabharf	-11.1311
▁app	-11.1311
▁ainmneo	-11.1312
eanas	-11.1319
▁tionól	-11.1321
▁blianachta	-11.1321
▁máthair	-11.1322
▁treo	-11.1323
teangacha	-11.1323
daithe	-11.1326
▁ríomhair	-11.1331
▁rátála	-11.1343
aighdeáin	-11.1346
▁Domhan	-11.1346
▁tréithe	-11.1348
▁cleithiúna	-11.1351
▁Bó	-11.1352
▁uibhe	-11.1356
fheistiú	-11.1357
fhág	-11.1361
▁reoite	-11.1362
▁Léirío	-11.1367
▁cobhsaí	-11.1368
▁sás	-11.1373
▁suirbhé	-11.1373
dhíreach	-11.1374
▁trialach	-11.1383
▁comhchoiteann	-11.1386
maid	-11.1387
▁céadluaite	-11.1389
▁spriocdháta	-11.1391
▁chronograph	-11.1393
▁feirmeoir	-11.1394
▁shás	-11.1395
▁1920	-11.1396
▁féi	-11.1397
▁úsáideora	-11.1398
▁ceint	-11.1402
▁comhábhair	-11.1402
▁shubstaint	-11.1403
▁fiacla	-11.1404
íocann	-11.1405
▁cheanglaí	-11.1405
▁foir	-11.1408
▁cirt	-11.1408
oirmeasc	-11.1408
▁Dea	-11.1411
▁reifr	-11.1412
▁Gléas	-11.1412
icrile	-11.1414
35	-11.1418
▁English	-11.142
▁gheilleaga	-11.142
▁scian	-11.1422
▁musc	-11.1422
▁sorcóir	-11.1426
▁Mens	-11.1427
▁figiúir	-11.1432
ium	-11.1432
▁luaidhe	-11.1433
▁daor	-11.1434
▁J	-11.1437
ive	-11.1439
king	-11.1443
nsin	-11.1444
▁míchumas	-11.1444
▁mhaoirseacht	-11.1446
▁Mó	-11.1446
▁aisíocaíocht	-11.1449
▁choga	-11.145
hoblacht	-11.1452
▁fais	-11.1454
▁deartháir	-11.1456
▁Movie	-11.1457
▁Rúisis	-11.1459
omhdhéanta	-11.1463
▁bainistí	-11.1467
▁Thu	-11.1467
▁eagra	-11.1468
59	-11.1468
▁Adhma	-11.1474
▁scríb	-11.1482
éad	-11.1485
▁thit	-11.1487
▁ngnáth	-11.1488
▁Láithreá	-11.1492
árthach	-11.1493
▁Trá	-11.1493
▁Cho	-11.1493
▁chomhar	-11.1494
▁saill	-11.1497
ríonna	-11.1502
▁Chóra	-11.1509
▁aighneacht	-11.1509
▁phun	-11.1509
súil	-11.151
▁trád	-11.1512
▁chaomhn	-11.1513
▁caithea	-11.1515
▁gnólachta	-11.1517
▁Úsáidte	-11.1518
▁thogha	-11.1522
▁fuaim	-11.1523
08	-11.1524
SPC	-11.1524
30	-11.1526
▁oráist	-11.1535
▁thuairisciú	-11.1536
stáit	-11.1544
90	-11.1544
▁sp	-11.1544
Oifig	-11.1548
▁Teorainn	-11.155
óthair	-11.1557
ning	-11.1557
▁Rí	-11.1559
▁úll	-11.156
▁tromla	-11.1562
▁un	-11.1563
ATIO	-11.1564
ichead	-11.1567
▁Meith	-11.157
oi	-11.1572
▁Tos	-11.1573
ileadh	-11.1579
▁Sp	-11.158
▁Thrácht	-11.1582
▁seachadta	-11.1582
▁Ta	-11.1586
▁Íoc	-11.1586
aonad	-11.1599
▁187	-11.1602
▁monarchan	-11.1607
▁éileo	-11.1611
laí	-11.1611
▁feiceá	-11.1612
▁fe	-11.1612
luiche	-11.1613
▁mhargai	-11.162
rianta	-11.162
sp	-11.162
▁imscrúdaithe	-11.1622
▁throm	-11.1622
▁dlíthe	-11.1622
▁éireo	-11.163
áititheoir	-11.1638
▁gCoinbhinsi	-11.164
Chomhairle	-11.1642
▁láriona	-11.1645
pm	-11.1648
▁Staidr	-11.1654
hraitheann	-11.1665
▁míos	-11.1665
▁thábhachtach	-11.1667
hoist	-11.1669
▁meá	-11.1671
▁bhuan	-11.1673
pobal	-11.1674
▁géill	-11.1684
▁adhma	-11.1687
athnuaite	-11.169
▁kg	-11.1693
▁ionsú	-11.1693
▁bhainfea	-11.1694
▁Íocaíochta	-11.1701
▁rí	-11.1707
▁Feidhmeanna	-11.1709
óras	-11.1713
▁Cheap	-11.1717
▁contrár	-11.1723
▁scrúdu	-11.1725
áiri	-11.173
▁World	-11.173
▁Metro	-11.1731
▁Science	-11.1731
▁lugha	-11.1731
▁CAI	-11.1733
▁1947	-11.1734
éireo	-11.1734
▁fisiciú	-11.1735
▁Strap	-11.1735
itheantas	-11.1747
▁1993	-11.1748
▁mall	-11.1749
▁Coimirce	-11.1749
▁NÃ	-11.1753
▁fliuch	-11.1754
▁tArd	-11.1754
▁Meiriceá	-11.1754
▁ceardchuma	-11.1761
▁Port	-11.1763
▁mínithe	-11.1764
▁rotha	-11.1766
▁forá	-11.1772
▁beartai	-11.1774
▁ghaolmhar	-11.1779
▁600	-11.1783
▁Dath	-11.1784
▁choda	-11.1793
ilíní	-11.1794
▁comhréireach	-11.1799
▁bhfoilseofa	-11.1799
▁cum	-11.1802
fheidhm	-11.1807
▁iOS	-11.181
anam	-11.181
▁bailíocht	-11.1813
▁Deimhniú	-11.1815
srael	-11.1815
athbhreithniú	-11.1815
chuir	-11.1817
▁coirp	-11.1823
▁ghníomhaireacht	-11.183
▁héifeachta	-11.1831
▁dámhachtain	-11.1838
▁meicníocht	-11.1839
ul	-11.1839
▁dhear	-11.1842
▁bagú	-11.1845
▁mais	-11.1852
▁creidim	-11.1854
▁aistr	-11.1861
Éigipt	-11.1863
▁feistis	-11.1864
▁scuab	-11.1868
▁chaith	-11.1869
ionadaí	-11.1878
eachtaí	-11.1878
▁forghníomhú	-11.1879
zre	-11.1886
▁Déant	-11.1887
▁admhá	-11.1891
▁54	-11.1891
▁caidé	-11.1896
aireacht	-11.19
▁cupá	-11.1903
▁Glas	-11.1904
▁Mhór	-11.1919
▁Ceart	-11.192
▁99	-11.192
▁comhionanna	-11.1926
▁tsao	-11.1927
▁calaoise	-11.1934
▁gcontae	-11.1936
Seirbhís	-11.1938
▁flash	-11.1941
▁Dála	-11.1941
▁Bronntana	-11.1943
▁abhcóide	-11.1944
▁fhéadf	-11.1947
▁ghnócha	-11.1947
▁Freastal	-11.1948
▁150	-11.195
▁comhshao	-11.1953
▁Soláthraí	-11.1953
híniú	-11.196
▁Chríost	-11.1961
▁BTE	-11.1965
▁dhúna	-11.1965
▁Stiúrthó	-11.1966
léim	-11.1968
ábalta	-11.1969
▁cáblaí	-11.1978
osta	-11.1979
▁tS	-11.1982
▁toghthóir	-11.1982
▁Soláth	-11.1982
alair	-11.1991
▁Mí	-11.1992
▁Uairean	-11.1996
▁céannachta	-11.1999
▁Cúige	-11.2
▁uas	-11.2002
gration	-11.2006
▁chlé	-11.2019
aicmí	-11.2024
▁gcú	-11.2026
obháideacha	-11.2028
lón	-11.203
▁comhoiriúnach	-11.2035
▁meabhrá	-11.2038
hábháilteacht	-11.2038
▁tairbh	-11.2042
▁carn	-11.2046
▁samhra	-11.2049
▁Sion	-11.205
▁cló	-11.2052
▁tuille	-11.2053
▁toirte	-11.2053
▁fhaighte	-11.2056
▁fuil	-11.2061
▁dearbh	-11.2061
▁Oibreacha	-11.2063
gáiste	-11.2071
fhoills	-11.2076
ualach	-11.2077
▁Uirlis	-11.2088
mbudsma	-11.2088
▁roisín	-11.2088
▁Hard	-11.209
▁gcaighdeán	-11.2091
▁1987	-11.2091
▁Grand	-11.2091
▁Dealra	-11.2097
▁gná	-11.2097
eoir	-11.2098
▁1966	-11.2101
▁comhpháirtíocht	-11.2101
▁gcuimhne	-11.2101
▁tsráid	-11.2103
▁peitrilia	-11.2104
▁póilín	-11.2105
▁Ã	-11.2107
▁thuaidh	-11.2114
▁leithroinnt	-11.2115
CHÁIN	-11.2115
▁Shaorá	-11.2116
▁finné	-11.2118
▁sholáthraío	-11.2121
▁bagairt	-11.2122
▁liacht	-11.2124
íocfa	-11.2124
▁gealltanais	-11.2126
▁fiachais	-11.2127
▁Eora	-11.2128
▁Deontas	-11.2128
▁mhó	-11.2129
▁1965	-11.2129
▁Déag	-11.2132
▁Conartha	-11.2136
▁rothaí	-11.2136
▁bhainisteoir	-11.214
▁scíth	-11.2142
▁ceacht	-11.2143
▁rialtóir	-11.2146
▁cuard	-11.2147
▁By	-11.2149
mhuirear	-11.2154
sealbhóir	-11.2156
▁Fua	-11.2156
▁Rialáil	-11.2163
▁forchuir	-11.2167
oláiste	-11.2168
▁fáinn	-11.2169
▁Idirlí	-11.2172
tá	-11.2175
▁mhíle	-11.2175
▁eisia	-11.2181
ardú	-11.2185
▁Chustaimé	-11.2189
orpraithe	-11.2192
▁coig	-11.2192
▁scriosta	-11.2194
tábhachtach	-11.2194
▁taca	-11.2199
gáis	-11.2202
▁Mheiriceánach	-11.2203
▁lia	-11.2203
▁ionc	-11.2206
▁óstá	-11.2208
▁socró	-11.2209
▁Bo	-11.221
▁Luain	-11.2211
▁soláthraío	-11.2215
20	-11.2216
▁chaipitiú	-11.2222
▁Maga	-11.2224
▁conarthach	-11.2224
▁Gníomhaireacht	-11.2225
▁ainmhí	-11.2228
▁iarmhairt	-11.2236
▁calaois	-11.2237
▁trédhearcacht	-11.2237
▁fhoirmiú	-11.2239
▁phá	-11.2247
▁cosa	-11.2248
▁Príobháideacha	-11.2248
▁Sé	-11.2249
▁íoca	-11.2249
▁saighdiúir	-11.2251
ex	-11.2252
▁leasachá	-11.2255
▁cúise	-11.2255
▁Ionstraim	-11.226
Ghaeilge	-11.226
rúin	-11.2262
nce	-11.2265
▁Iniúchóir	-11.2267
▁treocht	-11.2278
▁rianú	-11.2279
▁airteaga	-11.2282
▁bpearsa	-11.2288
ÍOCHTA	-11.2298
▁Fuck	-11.2301
▁bhanna	-11.2303
dubh	-11.2304
91	-11.2321
▁mbainf	-11.2324
▁gcuirt	-11.233
óthar	-11.2335
▁tromchúis	-11.2336
chuí	-11.2339
igthe	-11.2346
▁Lár	-11.2352
Hz	-11.2356
▁dú	-11.2362
▁chuirea	-11.2365
▁mbuna	-11.2367
▁caithf	-11.2371
▁naimhde	-11.2371
▁ullmha	-11.2373
▁ghluaiseacht	-11.2374
HÉAD	-11.2376
▁bharánta	-11.2377
▁chionn	-11.2393
▁bailiú	-11.24
▁rite	-11.2402
OS	-11.241
▁Air	-11.2412
▁dlíf	-11.2414
ófa	-11.2414
908	-11.2423
▁km	-11.2427
▁Chorca	-11.2428
irc	-11.243
▁geará	-11.244
ooter	-11.2446
ré	-11.2446
▁cuntasach	-11.2447
chiste	-11.2449
▁hearnála	-11.2449
▁Coinn	-11.245
▁pacáil	-11.2454
▁lamháil	-11.2455
▁bád	-11.2455
allraí	-11.2456
▁erotic	-11.2458
▁Gorm	-11.2458
▁Classic	-11.2459
▁dtrácht	-11.2461
▁todóg	-11.2461
▁conabla	-11.2462
▁fís	-11.2462
▁Cóiré	-11.2463
▁CBS	-11.2464
▁shócmhainn	-11.2466
▁réalta	-11.2467
▁election	-11.2467
▁Tréimhse	-11.2468
▁hiarrthóir	-11.247
▁Leabharlann	-11.247
▁treal	-11.2472
▁lit	-11.2474
isiam	-11.2478
▁gairid	-11.2478
▁Modh	-11.2479
▁pháipé	-11.2479
▁tairseach	-11.2482
▁Tuarasta	-11.2484
▁Win	-11.2488
▁File	-11.249
easóid	-11.2492
▁dhír	-11.2493
fort	-11.2494
▁94	-11.2496
▁imréit	-11.2498
▁sheachtrach	-11.2501
▁dearthóir	-11.2502
▁Téarmaí	-11.2504
▁04	-11.2505
▁Corporation	-11.2507
▁cigireachta	-11.2507
▁calafo	-11.2512
▁beacht	-11.2512
▁dheireanach	-11.2513
▁fuascailte	-11.2513
▁Iodáil	-11.2516
▁salach	-11.2519
▁comhacht	-11.2521
▁che	-11.2523
▁Taobh	-11.2524
aoiseach	-11.2526
Bunreacht	-11.2527
▁cent	-11.2534
▁cáil	-11.2535
ndiúscar	-11.2537
▁Muirí	-11.2538
▁mheastóireacht	-11.254
bhainn	-11.254
▁forex	-11.2544
▁tairbhiú	-11.2546
▁gCon	-11.2549
▁bhalla	-11.255
day	-11.2551
▁Stáisiú	-11.2554
▁ndíol	-11.2556
▁American	-11.256
▁thacaíocht	-11.257
▁ghrá	-11.2571
▁léireofa	-11.2575
▁saotharlann	-11.2576
▁deiri	-11.2576
▁idirbhearta	-11.2578
▁éigeantach	-11.2581
▁ársa	-11.2586
ci	-11.259
▁easnamh	-11.259
▁bhfora	-11.2593
▁séip	-11.2593
▁árach	-11.2602
▁Ca	-11.2602
▁íogair	-11.2604
▁pháipéir	-11.2607
▁eip	-11.261
▁neamhch	-11.2613
SS	-11.2617
xy	-11.2622
▁ghníomha	-11.2623
▁by	-11.2626
▁ngeall	-11.263
▁Pay	-11.2632
éigean	-11.2633
ant	-11.2634
▁shéala	-11.2635
▁CH	-11.2636
▁bhfear	-11.2639
▁laighead	-11.2641
▁st	-11.2645
tithe	-11.2645
▁phleanál	-11.2646
▁déileála	-11.2651
▁mháthair	-11.2652
yst	-11.2657
▁gaol	-11.2664
▁comhsheasmhach	-11.2665
íocaíocht	-11.2666
▁Ghaeltacht	-11.2667
II	-11.2669
▁Súil	-11.2676
▁108	-11.2679
▁ciorca	-11.2682
Catal	-11.2693
▁láithr	-11.2693
▁Cumas	-11.2694
▁aithris	-11.2699
▁dligh	-11.27
▁teicníc	-11.2703
▁Cúig	-11.2703
▁gcumhacht	-11.2704
▁eu	-11.2707
▁fheice	-11.2708
▁Bu	-11.2713
▁eisiach	-11.2719
Inniu	-11.272
▁féachan	-11.2722
eofa	-11.2724
rialtas	-11.2725
▁teip	-11.2728
▁coimisiún	-11.273
▁gciste	-11.2731
▁dalta	-11.2731
ochtaí	-11.2733
córas	-11.2735
▁Eorpa	-11.274
no	-11.2749
▁bhó	-11.2758
▁forfheidhmi	-11.2759
▁ithi	-11.2766
▁caomhnóir	-11.2768
▁feast	-11.2768
▁Caipitiú	-11.2773
▁Ghlac	-11.2773
▁Oibrío	-11.2774
▁phacáist	-11.2779
▁muirí	-11.2785
▁chorpr	-11.2787
▁mholta	-11.2789
▁Cúirt	-11.2794
list	-11.2796
ola	-11.2805
▁Dréacht	-11.2807
airde	-11.2814
▁gcáil	-11.2817
▁thogra	-11.282
▁caing	-11.2823
▁romhai	-11.2824
▁gás	-11.2826
oilte	-11.2831
Sualainn	-11.2834
siceo	-11.2841
▁naipcín	-11.2843
▁Blonde	-11.2843
▁ciliméada	-11.2843
▁All	-11.2843
▁tSeapáin	-11.2843
▁Bhunreacht	-11.2843
▁Iarmhéid	-11.2843
▁Search	-11.2844
▁PhrÃ	-11.2844
▁gair	-11.2844
▁Amazon	-11.2845
▁huirlis	-11.2846
▁soladach	-11.2847
▁1984	-11.2847
▁1969	-11.2848
▁Order	-11.2852
▁litríocht	-11.2855
▁light	-11.2855
▁sútha	-11.2857
▁theastó	-11.2857
chomhshaoil	-11.2859
sonraíocht	-11.2863
▁leatha	-11.2864
▁chultúr	-11.2867
óipeanna	-11.2868
▁Tairisc	-11.2869
▁cruithneacht	-11.287
▁constaic	-11.2871
intear	-11.2871
íobla	-11.2872
▁neamhchomhlíon	-11.2874
mtha	-11.2876
▁úinéirí	-11.2877
▁fheic	-11.2879
▁Video	-11.2879
▁foinsí	-11.2882
dhlíthe	-11.2886
▁Cultú	-11.2886
▁scairshealbhóir	-11.2887
▁formáid	-11.2892
raon	-11.2894
▁Foghlaim	-11.2895
▁Inc	-11.2896
▁éarlais	-11.2899
▁bhuío	-11.2903
aigne	-11.2903
▁thír	-11.2904
▁tiús	-11.2906
▁fúth	-11.2911
▁Ghnótha	-11.2911
III	-11.2918
▁Union	-11.2919
▁doimhneacht	-11.292
Abrá	-11.292
▁Land	-11.292
▁chárta	-11.2924
éilithe	-11.2934
▁craicin	-11.2935
▁thabh	-11.294
▁ticéad	-11.294
pointe	-11.2942
▁gcó	-11.2942
▁muc	-11.2942
▁super	-11.2943
▁gunna	-11.2943
▁cheapachá	-11.2944
ósta	-11.2954
aisghair	-11.2956
▁conraitheoir	-11.2959
▁clárúchá	-11.296
▁réad	-11.2962
▁bhunó	-11.2962
▁mhara	-11.2963
▁chreat	-11.2968
▁Ardchaighdeá	-11.2975
▁inmheána	-11.2979
▁cánacha	-11.2982
▁cealla	-11.2987
▁mogal	-11.2989
▁ban	-11.2989
▁cnó	-11.299
▁fhuinneog	-11.2995
▁Bhain	-11.3001
▁Eagraíocht	-11.3007
▁Lena	-11.3013
▁coir	-11.3015
▁Staidé	-11.3017
▁eatramhach	-11.3018
ina	-11.3021
▁oibreoi	-11.3022
▁Leanúin	-11.3024
▁éifeachta	-11.3024
gann	-11.3025
othar	-11.3027
▁cólucht	-11.303
▁bpoba	-11.3032
▁Insc	-11.3034
ley	-11.3034
abhar	-11.3034
▁eilimint	-11.3035
34	-11.3038
▁Amplifier	-11.3045
▁ionta	-11.3048
▁rabha	-11.3052
▁tor	-11.3052
▁MP	-11.3053
one	-11.3062
▁stairiú	-11.3063
lu	-11.3063
▁Arna	-11.3063
▁chaing	-11.3065
▁sainchea	-11.3065
▁talmha	-11.3067
▁bhainc	-11.3073
▁Teorant	-11.3074
▁76	-11.3077
aoise	-11.3078
▁imeall	-11.3079
seog	-11.308
▁Tacaíochta	-11.3086
▁sciathá	-11.3088
▁sleamhná	-11.3089
▁imirce	-11.309
▁cumhra	-11.3091
▁Tarraing	-11.3092
substaint	-11.3095
prionsaba	-11.3101
nasctha	-11.3101
96	-11.3103
▁gnólacht	-11.3106
▁theorant	-11.3112
▁maidin	-11.3114
éag	-11.3115
▁shaorána	-11.3124
▁idirghabhála	-11.3126
▁Cinn	-11.3127
▁spéis	-11.3129
▁mhonaróir	-11.313
▁cumhda	-11.3134
▁dearbhu	-11.3137
▁stór	-11.314
▁ruga	-11.3142
▁Uachtar	-11.3144
tírdhreach	-11.3147
ska	-11.3149
▁Céada	-11.315
▁fhada	-11.3153
▁316	-11.3155
▁fhionna	-11.316
árachóir	-11.3162
▁ardleibhé	-11.3165
▁shuim	-11.3166
▁bheirte	-11.3174
▁cloch	-11.3183
▁2-3	-11.3184
▁sara	-11.3186
ighe	-11.3188
▁iompróir	-11.319
▁banda	-11.3194
▁Comharthaí	-11.3197
▁Da	-11.3199
▁71	-11.3201
▁uachta	-11.3207
aíocht	-11.321
▁ngnótha	-11.3211
▁toba	-11.3212
▁fhostó	-11.3213
▁leanfaid	-11.3216
tis	-11.3217
talamh	-11.322
▁Chú	-11.3223
▁Wind	-11.3223
▁cheangló	-11.3224
scartha	-11.3225
iompróir	-11.3226
▁Naom	-11.3231
▁lasmui	-11.3237
rua	-11.3238
tine	-11.3239
▁Srian	-11.324
▁FORÁLA	-11.3243
▁Omega	-11.3243
▁Incredi	-11.3243
▁cearrbhacha	-11.3243
▁Rannóg	-11.3243
údará	-11.3244
▁tréidlia	-11.3247
▁1948	-11.3248
▁tosaíocht	-11.3248
TAOBH	-11.3249
▁aiseola	-11.3249
inmheasún	-11.3251
ionnsca	-11.3251
▁ruda	-11.3251
▁gcaing	-11.3251
▁taoide	-11.3252
▁Stáda	-11.3252
▁1928	-11.3252
▁guy	-11.3255
▁Díreach	-11.3256
▁Cuspóir	-11.3257
eithicil	-11.3258
▁ceirde	-11.3258
▁gconra	-11.3259
▁dtosa	-11.3267
▁sho	-11.3268
▁bhrabús	-11.327
▁kb	-11.3272
▁marsanta	-11.3275
forbairt	-11.3276
▁Foilsithe	-11.3277
▁91	-11.3277
▁Danmhairg	-11.3282
ilse	-11.3285
▁oileán	-11.3286
▁coinneáil	-11.3291
▁oinniú	-11.3292
▁chartú	-11.3295
▁Tithíocht	-11.3295
▁aistreo	-11.3297
▁Cleachta	-11.3299
▁gabhálta	-11.3301
athar	-11.3306
fhéadf	-11.3307
▁deacrachta	-11.3312
ab	-11.3316
▁Páipéar	-11.3319
▁comhéada	-11.332
▁Maoine	-11.3322
oncler	-11.3324
▁sheachad	-11.3324
▁roinnte	-11.3324
itinne	-11.3326
▁phaitinn	-11.333
FC	-11.3331
▁péinteáil	-11.3332
▁airbheartó	-11.3332
▁strus	-11.3337
laithe	-11.3337
▁fai	-11.3338
thrú	-11.3353
ows	-11.3354
▁188	-11.3354
meabhrach	-11.336
▁Fe	-11.3362
▁Lu	-11.3362
▁ainmn	-11.3365
líonta	-11.3367
▁timthriall	-11.3368
▁fhochuideachta	-11.337
▁cairt	-11.3372
▁hé	-11.3373
▁bhunús	-11.3373
▁rialach	-11.3373
▁bhu	-11.3375
▁mbreith	-11.3379
▁feabhsú	-11.3379
▁inchinn	-11.3382
▁ós	-11.3384
▁86	-11.3386
ding	-11.339
lithe	-11.3392
▁cré	-11.3393
▁plú	-11.3396
▁Ón	-11.3396
▁fillea	-11.34
ionraí	-11.34
▁luachmhar	-11.3401
▁míochaine	-11.3404
▁ru	-11.3406
▁ceada	-11.3417
▁79	-11.3417
▁haicmí	-11.3418
oga	-11.3418
liú	-11.3426
▁iarmhar	-11.3432
▁SA	-11.3437
▁innéacs	-11.3443
▁tosaithe	-11.3448
▁agalla	-11.3449
▁iompró	-11.3457
▁scaip	-11.3466
▁dearca	-11.3467
soláthair	-11.3479
AL	-11.348
áite	-11.3483
▁choimirc	-11.3483
▁AGU	-11.3485
▁Nio	-11.349
▁85	-11.3498
▁eisc	-11.3503
Ão	-11.3505
▁Time	-11.3506
▁cumhachtach	-11.3515
Iúil	-11.3527
chúrsa	-11.3527
▁choinní	-11.3527
nseo	-11.353
▁dhéant	-11.3531
▁liost	-11.3531
ial	-11.3531
▁Dhei	-11.3537
sean	-11.3538
▁Thosa	-11.3539
▁Nu	-11.3543
▁ndear	-11.3547
▁suiteála	-11.3552
tógáil	-11.3552
seomra	-11.3554
leanann	-11.3569
ardaigh	-11.357
earbhú	-11.3577
▁nglac	-11.358
▁Or	-11.359
ro	-11.3591
▁cl	-11.3592
scála	-11.3593
▁uimhreach	-11.3594
Mail	-11.3599
▁190	-11.3603
TC	-11.3604
annaí	-11.3606
▁Léi	-11.3607
▁líníocht	-11.361
▁leacht	-11.3612
▁Óir	-11.3615
▁nglacad	-11.3616
▁lasc	-11.3617
▁ítim	-11.3617
▁cathaoir	-11.3618
▁Cultúr	-11.3618
▁choimisiún	-11.3626
TS	-11.3639
▁DC	-11.364
uxur	-11.3642
▁bainfid	-11.3651
▁eolaíocht	-11.3655
éanann	-11.3656
▁Dleachta	-11.3659
▁Fu	-11.3659
▁smartphone	-11.3659
▁CNC	-11.366
▁phuiblí	-11.366
▁Cuirte	-11.366
▁sapphire	-11.366
▁frithpháirteach	-11.3661
EILE	-11.3661
▁Nuashonr	-11.3661
▁smachtbhanna	-11.3663
uartha	-11.3663
▁ngrúpa	-11.3664
▁saille	-11.3667
▁Sea	-11.3667
▁Sceid	-11.3668
▁aonai	-11.3672
▁Ola	-11.3673
▁Srianta	-11.3673
áithre	-11.3674
▁tiubh	-11.3675
▁Gnáth	-11.3676
▁1918	-11.3676
▁acadúil	-11.3678
▁leithreasaí	-11.368
▁Samhna	-11.3681
▁radharc	-11.3681
▁cois	-11.3686
▁Ionaid	-11.369
▁Tai	-11.3691
▁tháirge	-11.3691
láinte	-11.3692
▁éanlaith	-11.3694
▁leithreas	-11.3694
▁theast	-11.3695
cheathrú	-11.3695
▁1982	-11.3696
▁Chonartha	-11.3698
▁chois	-11.37
▁fhíneá	-11.3704
▁tharraing	-11.3707
ádh	-11.371
▁Dub	-11.3711
nadh	-11.3711
▁Fionta	-11.3721
▁shealadach	-11.3721
▁gníomhaireacht	-11.3722
▁gcaithea	-11.3722
▁Maca	-11.3724
mainn	-11.3727
▁tAon	-11.3735
▁tionsclaíoch	-11.3742
▁Aoisliúnta	-11.3742
EM	-11.3743
▁seó	-11.3747
▁himeacht	-11.3749
▁VIS	-11.3751
▁seirbheála	-11.3752
▁thionól	-11.376
▁chuimsi	-11.3761
▁Jackets	-11.3763
▁ndlí	-11.3769
1957	-11.377
ja	-11.3772
▁ÁITIÚ	-11.3775
▁Fé	-11.3776
▁theanga	-11.3776
▁Seachtain	-11.3777
▁claon	-11.3777
cháilithe	-11.3779
▁sainiú	-11.3781
▁thoiliú	-11.3782
▁míchuma	-11.3793
choinneála	-11.3796
rely	-11.3803
ráthú	-11.3804
▁eagar	-11.3806
▁dinea	-11.3809
▁Ean	-11.381
▁hobair	-11.381
infheisteoir	-11.3811
ÁIL	-11.3811
▁biotáille	-11.3815
▁tuill	-11.3817
▁peata	-11.3823
▁coimeádán	-11.3828
▁casa	-11.3831
▁logáil	-11.3833
▁gheobhai	-11.3835
irigh	-11.3837
éadach	-11.3837
▁US	-11.3838
▁dídean	-11.3838
926	-11.3841
▁cúins	-11.3851
▁ghairme	-11.3851
▁inter	-11.3852
▁foilseo	-11.3855
▁aigéad	-11.3855
▁clog	-11.3855
aird	-11.3856
▁eisceacht	-11.3857
▁gabh	-11.3861
bail	-11.3861
▁chatha	-11.3862
▁ww	-11.3862
wan	-11.3863
▁feabhsúchá	-11.3867
ruailliú	-11.3867
▁sainmhín	-11.3868
▁comhdhéan	-11.3869
▁watch	-11.3873
▁sú	-11.3873
gan	-11.3875
▁tóga	-11.388
▁Access	-11.3886
▁ainmhi	-11.3889
▁Cáilíocht	-11.389
▁dteid	-11.3891
ách	-11.3894
▁oll	-11.3898
▁éagumas	-11.3899
▁chustaim	-11.3904
eolaíocht	-11.3907
▁74	-11.3908
▁infheistiú	-11.3912
▁Painé	-11.3914
▁chrutha	-11.3915
eithead	-11.3916
▁thioncha	-11.3921
▁trae	-11.3923
▁Ríomh	-11.3929
▁uai	-11.3931
▁faighteoir	-11.3934
▁Hua	-11.3936
sócmhainn	-11.3943
▁dhoiciméad	-11.3943
▁Man	-11.3948
▁laoch	-11.3959
scadh	-11.3961
íleata	-11.3963
▁alcól	-11.3964
▁astaíochta	-11.3971
▁morgáist	-11.3976
▁chreidmheasa	-11.3978
▁bródú	-11.3981
gus	-11.3981
df	-11.3988
tach	-11.3989
▁110	-11.4001
▁Ceadaío	-11.4015
936	-11.4019
▁Measta	-11.4019
▁gnóthaí	-11.4021
ártha	-11.4023
▁shín	-11.4024
▁bhliana	-11.4025
▁áisiú	-11.403
éim	-11.4031
li	-11.4032
iteamh	-11.4032
chreidte	-11.4033
▁foirgne	-11.4038
líon	-11.4041
▁dúshlán	-11.4046
▁Deire	-11.4046
ama	-11.4051
▁cháilíochta	-11.4061
▁Mont	-11.4062
ealtaine	-11.4064
▁Acad	-11.4066
▁fhost	-11.4067
iarratasóirí	-11.4068
▁féar	-11.4073
▁ngá	-11.4075
▁Al	-11.4075
▁dtagar	-11.4075
▁gníomhair	-11.4081
▁pós	-11.4082
▁Pleaná	-11.4084
▁folúnta	-11.4087
▁gnéasach	-11.4087
ollar	-11.4089
▁ranná	-11.4092
▁forord	-11.4093
ba	-11.4093
▁Affair	-11.4094
▁Téacs	-11.4094
▁School	-11.4094
▁fairsing	-11.4094
▁Power	-11.4094
Kommission	-11.4094
▁thrádmharc	-11.4095
▁laghdófa	-11.4097
▁bhabhta	-11.4098
▁stóras	-11.41
▁cluaise	-11.4101
▁White	-11.4102
▁tarraingteach	-11.4102
▁Bunó	-11.4104
▁Ce	-11.4105
▁tráthchoda	-11.4106
▁peann	-11.4107
▁mias	-11.4107
▁CRO	-11.4109
og	-11.4112
▁cógaiseoir	-11.4113
▁Invest	-11.4113
▁cún	-11.4114
raein	-11.4121
ating	-11.4122
92	-11.4126
▁neodrach	-11.4127
▁púda	-11.4128
haisnéis	-11.413
freagraí	-11.4133
▁Council	-11.4134
▁Express	-11.4135
▁wallpaper	-11.4135
▁bric	-11.4137
▁mBail	-11.4139
▁Choiriú	-11.414
▁Foráil	-11.414
▁gnóthai	-11.4143
▁gabhálais	-11.4144
▁léitheoir	-11.4146
▁chinnfea	-11.4147
▁labhair	-11.4149
▁lómhar	-11.4149
▁piobar	-11.4151
▁timpist	-11.4151
▁Pearsanta	-11.4153
Reachtair	-11.4154
39	-11.4154
▁lín	-11.4158
▁One	-11.4161
▁achainí	-11.4167
iomportá	-11.4169
▁bithicíd	-11.417
▁caint	-11.4171
▁shrian	-11.4172
AIS	-11.4173
▁chomhordú	-11.4173
▁tocsaineach	-11.4174
▁fisiceach	-11.4176
▁fhorlíona	-11.4178
▁Indiach	-11.418
▁comhshó	-11.4182
▁éin	-11.4182
▁soláthr	-11.4185
mháil	-11.4186
▁foraoise	-11.4187
TÉ	-11.4187
chair	-11.4188
▁gcuirfe	-11.4189
eora	-11.4189
isghabháil	-11.4194
▁bacainn	-11.4198
▁chumhachta	-11.4204
ngen	-11.4205
niu	-11.4208
▁Cionta	-11.4209
tighe	-11.4216
IREANN	-11.4217
▁cistine	-11.4218
▁díri	-11.4218
▁chomhpháirt	-11.4221
easta	-11.4221
▁Europe	-11.4224
▁gabhála	-11.4224
▁Siú	-11.4227
ency	-11.4228
▁ranna	-11.423
▁náisiúntacht	-11.4234
▁Gall	-11.4238
▁ORD	-11.4239
ilsiú	-11.4241
iteann	-11.4242
▁bhrá	-11.4243
▁gcruthó	-11.4246
Fhor	-11.425
▁Laghd	-11.4253
▁sonrú	-11.4255
▁ceiliúra	-11.4265
▁gcéim	-11.4268
▁Taist	-11.427
▁feasacht	-11.4275
▁dlús	-11.4287
age	-11.4287
▁Di	-11.4289
▁Conarthach	-11.4293
scéal	-11.4294
▁ceathrú	-11.4297
▁préimhe	-11.4301
▁sonraíochta	-11.4304
áchtála	-11.4306
▁chaighdeánach	-11.4307
▁Líonra	-11.4307
▁substainte	-11.4308
▁práinne	-11.4309
▁Rialtóir	-11.4309
cm	-11.4311
net	-11.4312
▁fónta	-11.4315
▁fhoils	-11.4317
▁fionta	-11.4317
ostú	-11.4319
▁Fhor	-11.432
▁dhíolta	-11.432
rs	-11.432
▁éili	-11.432
▁cheapf	-11.4321
▁ghlacfa	-11.4322
áid	-11.4329
▁Aerfo	-11.4335
di	-11.4336
▁Caipit	-11.4338
▁fearais	-11.4344
▁scaga	-11.4349
▁soithí	-11.4351
▁Fág	-11.4356
▁spóir	-11.4357
▁faillí	-11.4359
chleachtóir	-11.4363
▁bardas	-11.4363
▁cea	-11.4365
▁hiasachta	-11.4368
▁nimhiú	-11.4371
38	-11.4377
shlánú	-11.4378
alú	-11.4384
HT	-11.4387
▁dteanga	-11.4388
▁eachtraíocht	-11.4389
▁Cha	-11.4392
▁cruthú	-11.4393
12	-11.4394
Oifigeach	-11.4394
▁oiriúnaithe	-11.4395
▁Breit	-11.4401
ochar	-11.4409
▁Airm	-11.4414
▁Scair	-11.442
▁paitinn	-11.4422
▁amharc	-11.4423
▁fuin	-11.4424
▁mhuir	-11.4425
▁sannta	-11.4426
▁MAR	-11.4426
eir	-11.4426
aithint	-11.4427
▁tabhair	-11.4427
▁bhlianacht	-11.4429
tions	-11.4429
▁iarmhéid	-11.4432
▁iníon	-11.4432
glass	-11.4436
áirgeadh	-11.4437
AN	-11.4441
▁EURO	-11.4449
luichí	-11.4457
▁Chathai	-11.4458
▁teileafó	-11.4459
▁dífhost	-11.446
▁shuíf	-11.4462
gcomhpháirtíocht	-11.4472
▁suibscríobh	-11.4475
▁freagrachta	-11.4477
▁TAR	-11.4482
ria	-11.4487
▁dílse	-11.4489
▁custa	-11.4489
▁sl	-11.449
Fheabh	-11.4494
▁138	-11.4496
léiriú	-11.45
eisean	-11.4503
▁mhac	-11.4508
▁Eolaíocht	-11.4508
▁hordu	-11.4509
ithigh	-11.4511
▁Suirbhé	-11.4512
▁cloí	-11.4512
▁aisíocaíochta	-11.4517
▁comhairleoir	-11.452
▁torth	-11.4523
▁healaíon	-11.4528
▁Linn	-11.4536
▁Chá	-11.4537
▁Comhdhá	-11.4538
samhraidh	-11.4541
▁IW	-11.4544
▁83	-11.4548
▁Diúité	-11.4549
▁jewel	-11.4549
▁próitéin	-11.4549
▁Atweetáil	-11.4549
Ísiltír	-11.4549
▁ndiúltó	-11.4549
▁Mheithimh	-11.4549
▁Department	-11.4549
▁príosúntacht	-11.4549
line	-11.4549
▁geimhr	-11.4554
▁coileach	-11.4555
▁thaighde	-11.4556
ín	-11.4557
bhealaí	-11.4559
▁ceardlann	-11.4559
▁coireacht	-11.4559
BID	-11.456
▁tobhach	-11.4561
▁leachtaitheoir	-11.4562
▁hainm	-11.4563
▁TG	-11.4564
▁comhoibri	-11.4566
▁sháró	-11.4569
▁Socha	-11.4571
▁stiúra	-11.4572
▁1922	-11.4577
ói	-11.4578
▁coimisinéir	-11.458
▁ocsaigin	-11.4581
▁fiaclóireacht	-11.4581
▁tubaiste	-11.4584
▁Cheanna	-11.4584
▁Réalt	-11.4585
orainn	-11.4587
▁Polasa	-11.4588
ib	-11.4588
▁buntáiste	-11.4588
ie	-11.4589
▁liath	-11.459
▁fógraíocht	-11.4591
▁líomóid	-11.4594
▁foirmiúla	-11.4594
sh	-11.4596
▁feinimé	-11.4599
▁Nío	-11.4599
▁thuarasta	-11.46
▁trastomhas	-11.4601
riachtanach	-11.4609
▁allmhairí	-11.461
▁club	-11.461
▁gcáin	-11.4612
▁soghluaisteacht	-11.4615
▁tram	-11.4617
▁fhiacha	-11.462
▁marcáilte	-11.4624
▁aistrí	-11.4625
▁dhílsiú	-11.4627
▁El	-11.4627
▁rúndacht	-11.4628
▁Tráth	-11.4628
▁teoiric	-11.4629
▁teirmeach	-11.463
▁Cead	-11.4632
▁Bileog	-11.4632
▁cháilithe	-11.4633
ascach	-11.4635
▁phaisinéir	-11.4635
ullmhú	-11.4639
▁téip	-11.4641
▁182	-11.4646
RC	-11.4646
▁fhiosrúchá	-11.4647
▁polaitíocht	-11.465
▁Nádúrth	-11.4652
▁Mhúinteoireacht	-11.4652
feola	-11.4653
▁míchu	-11.4654
inoibritheacht	-11.4654
▁Sche	-11.4654
▁cainníocht	-11.4654
▁Chlárú	-11.4658
▁greannmha	-11.4661
feighil	-11.4662
inneall	-11.4665
nd	-11.4667
▁Cailín	-11.4667
15	-11.4668
ix	-11.4669
fhostóir	-11.4671
▁MT	-11.4671
▁chuaird	-11.4672
chuideachta	-11.4674
▁Volta	-11.4677
ure	-11.4677
▁théa	-11.4678
▁Op	-11.468
some	-11.4682
▁Astráil	-11.4685
▁forfheidhmiú	-11.4686
▁Leictreacha	-11.4691
▁rát	-11.4691
ism	-11.4697
▁paitinne	-11.47
shuim	-11.4705
▁comhthoil	-11.4706
▁Caithfi	-11.4707
▁malartach	-11.4709
▁gcé	-11.4712
▁fille	-11.4713
▁bpríosún	-11.4716
▁Minist	-11.4719
▁deacracht	-11.4721
▁cairdiú	-11.4721
95	-11.4726
▁lámhach	-11.4726
▁FAIR	-11.4727
▁Ordu	-11.4728
▁84	-11.4731
▁bhog	-11.4733
▁City	-11.4733
▁Ais	-11.4734
▁Straitéise	-11.4736
▁húinéir	-11.474
có	-11.4745
▁Chóir	-11.4748
eannach	-11.4749
▁áitre	-11.4749
▁thionscn	-11.4752
▁Margadh	-11.4753
▁pr	-11.4754
▁Teaghla	-11.4761
▁over	-11.4764
▁Fhora	-11.4765
▁baineann	-11.4766
▁Chumann	-11.4768
74	-11.4769
▁chúirte	-11.4776
▁Nasc	-11.4787
▁tionóntachta	-11.4794
▁lenar	-11.4799
▁gcleachta	-11.4802
ember	-11.4807
▁mhar	-11.481
▁Gairm	-11.4812
▁soch	-11.4817
▁And	-11.4817
▁físe	-11.4822
umann	-11.4824
▁speisial	-11.4827
▁shanna	-11.4828
by	-11.4831
▁vótaíocht	-11.4834
pi	-11.4842
institiúid	-11.4844
▁Ceangla	-11.4849
fhan	-11.4849
939	-11.4854
▁Áirithe	-11.4856
▁borr	-11.4856
01	-11.4858
ATT	-11.4858
▁Read	-11.4859
fhógair	-11.4859
▁Creidim	-11.4866
▁sci	-11.4867
▁Dáil	-11.4874
▁ealaíon	-11.4875
▁craolachá	-11.4878
▁Uí	-11.4878
▁Fheidhmeannach	-11.4879
shaoil	-11.4881
▁táim	-11.4885
▁armchúirt	-11.4887
▁féad	-11.4888
▁bhfás	-11.4894
comhpháirtíochta	-11.4895
scaire	-11.4895
▁Si	-11.4896
▁130	-11.49
▁bunó	-11.4906
Gaeilge	-11.4915
mhír	-11.4918
▁High	-11.4924
foundation	-11.4927
▁sceithea	-11.4929
▁phleanáil	-11.493
▁síochána	-11.4932
▁Ghnó	-11.4938
▁Chorparáid	-11.494
▁Jacket	-11.4952
siú	-11.496
▁fhorfheidhmiú	-11.4961
▁96	-11.4962
▁Imréit	-11.4966
huaisceart	-11.4969
▁guth	-11.497
▁mheasfaid	-11.4971
▁ghl	-11.4971
▁dheas	-11.4975
▁teagasc	-11.4975
▁Thairis	-11.4976
oibr	-11.4978
▁imscrúd	-11.4979
▁thráth	-11.4985
▁eacnamaíocht	-11.4989
▁luachá	-11.4992
▁Íocaíocht	-11.4996
Parlaimint	-11.5005
▁Bre	-11.5006
▁shriana	-11.5006
▁Chónaithe	-11.5007
▁Cruinn	-11.5008
▁uacht	-11.5008
▁rúnda	-11.5009
▁chuairte	-11.5018
▁véarsa	-11.5025
▁nítrigin	-11.5025
▁shuntasach	-11.5025
▁vaigín	-11.5025
▁Bhreatain	-11.5025
▁stylish	-11.5025
▁Toscaireacht	-11.5026
▁ua	-11.5026
▁fíonchaor	-11.5026
▁Hack	-11.5027
▁cinntitheach	-11.5027
▁dtimpeallacht	-11.5027
▁bhfabh	-11.5027
▁Gineadóir	-11.5028
▁Miontuairisc	-11.5029
▁leapacha	-11.5029
ontaithe	-11.5029
uestion	-11.5029
▁Fiontraíocht	-11.503
▁Taisteal	-11.5031
▁chabhró	-11.5031
▁conver	-11.5032
▁seánra	-11.5032
▁dúshlá	-11.5034
▁Creat	-11.5038
▁Lárchóra	-11.5039
▁gcinn	-11.504
▁scaipthe	-11.5041
▁foirceanna	-11.5044
▁coimhdeacht	-11.5045
▁luíod	-11.5045
▁coincheap	-11.5048
urrús	-11.5051
▁pribhléid	-11.5052
bhail	-11.5052
▁chuga	-11.5053
inneacha	-11.5054
▁bhfeithic	-11.5056
ilver	-11.5056
▁Thiarna	-11.5056
▁tarl	-11.5056
▁Luachála	-11.5059
phlean	-11.5059
▁eis	-11.5059
▁glúine	-11.506
▁achomair	-11.5061
▁spiorad	-11.5061
▁bhronntanas	-11.5063
▁cith	-11.5065
▁Last	-11.507
▁uachtarach	-11.507
▁bhuna	-11.5072
▁mhainneo	-11.5072
íochána	-11.5078
▁paraiméada	-11.5082
▁arbh	-11.5082
▁pro	-11.5086
rapóirtéir	-11.5092
▁náisiú	-11.5094
▁struchtú	-11.5096
▁gheobha	-11.5096
▁Marmara	-11.51
▁maolú	-11.5101
▁comhlach	-11.5102
▁comhréir	-11.5103
▁Fan	-11.5104
tom	-11.5106
▁Scoir	-11.5112
▁Coitiant	-11.5112
▁inghnóthaithe	-11.5113
ehir	-11.5114
▁iontaoibh	-11.5116
néal	-11.512
▁Mhic	-11.512
▁comhlucht	-11.512
▁tionscnóir	-11.5121
▁bréagá	-11.5121
▁thíolac	-11.5121
▁TÁ	-11.5122
▁fheidhmeo	-11.5122
▁Blue	-11.5123
▁leaga	-11.5126
▁dTreoir	-11.5133
▁Custaim	-11.5134
▁Leaba	-11.5138
▁mu	-11.5138
Rúnaí	-11.5138
▁Tionó	-11.514
▁Aicm	-11.5145
▁bileog	-11.5147
▁creidiúnaí	-11.5153
▁gcumhachtaí	-11.5156
pa	-11.5157
▁cosmaideach	-11.5158
▁comhairleach	-11.5163
ejian	-11.5176
▁fhritháir	-11.5177
▁truailliú	-11.5177
NN	-11.5193
▁Madra	-11.5194
▁cóimhiotal	-11.5195
▁urram	-11.5196
▁theorann	-11.5197
othú	-11.5199
schur	-11.5201
▁príomhfheidhm	-11.5206
▁Mheithea	-11.5212
▁coibhneas	-11.5215
▁mbunú	-11.5216
▁Teagmhá	-11.5217
▁fhinné	-11.5218
aibh	-11.5225
▁Aistriú	-11.5228
▁Just	-11.523
▁taibhs	-11.5231
▁teochta	-11.5231
▁Ame	-11.5234
▁Chur	-11.5236
22	-11.5237
Oibreacha	-11.524
▁Sín	-11.5241
▁81	-11.5242
▁leantóir	-11.5243
▁theas	-11.5246
▁hairgead	-11.5247
▁coisctheach	-11.5247
▁Aois	-11.5249
▁reiligiún	-11.5253
bhÃ	-11.5254
▁PO	-11.5257
▁ullmhúchá	-11.5259
▁Govern	-11.526
▁Home	-11.5265
▁neamhdh	-11.5266
▁mhaisiú	-11.5267
Gain	-11.527
aem	-11.5271
taisí	-11.5275
▁fillte	-11.5282
▁Com	-11.5282
▁ghléas	-11.5283
▁gceanglaí	-11.5284
▁maisiú	-11.5288
▁sheachtainiú	-11.529
uation	-11.5292
▁thoir	-11.5293
▁mball	-11.5303
ware	-11.5304
▁chíosa	-11.5308
▁fhéadfai	-11.531
▁fíochá	-11.5312
▁foirgni	-11.5312
▁átha	-11.5317
▁atmaisféar	-11.5318
léarga	-11.532
▁ól	-11.5322
▁fhoirgniú	-11.5325
▁97	-11.5325
▁thairis	-11.5326
▁Breith	-11.5327
▁sainmhíni	-11.533
86	-11.5331
▁snámh	-11.5331
▁tag	-11.5332
▁muireara	-11.5336
▁dhoirtea	-11.5337
▁forghéill	-11.5338
▁comhábha	-11.5339
▁comhai	-11.5342
lly	-11.5349
▁gluaisrotha	-11.535
hithe	-11.5352
▁gl	-11.5353
▁einsím	-11.5354
iarnró	-11.5355
▁brains	-11.5355
▁tuirse	-11.5355
▁tail	-11.5357
▁críochnú	-11.5358
▁Mosc	-11.5359
ny	-11.5362
▁140	-11.5366
▁Dar	-11.5366
thir	-11.5366
▁buíocha	-11.537
álta	-11.537
UM	-11.537
▁shoiléir	-11.5371
▁bhreithiúna	-11.5376
olaí	-11.5381
réige	-11.5385
▁aisíoca	-11.5386
▁cruthaitheach	-11.5389
▁fíneála	-11.5394
RÉ	-11.5395
aliforni	-11.5396
▁formheasa	-11.54
▁aisghair	-11.5403
▁íocf	-11.5404
▁Oscailt	-11.5406
óthach	-11.541
luacha	-11.5412
▁comhordaithe	-11.5412
▁Táscair	-11.5415
eidhmeannach	-11.5415
▁re	-11.5416
fhás	-11.542
eile	-11.5424
▁thaispeánta	-11.5424
▁Láir	-11.5424
ribh	-11.5429
▁Teachtaireacht	-11.543
▁PE	-11.5435
▁Cruth	-11.5436
▁Bainistí	-11.5442
▁bá	-11.5442
▁seachad	-11.5442
▁Saoirse	-11.5443
▁123	-11.5444
▁mbeala	-11.5446
▁luacha	-11.545
▁Bhuir	-11.5452
▁Aontai	-11.5454
▁Cúram	-11.5455
ery	-11.5463
▁iniompartha	-11.5465
ástáil	-11.5466
ithi	-11.5466
▁Mheic	-11.5474
▁Teo	-11.5479
▁Taois	-11.5481
▁thobhac	-11.5481
▁Cruinni	-11.5484
▁Cineálach	-11.5485
ghearrtha	-11.5488
▁Aibí	-11.5493
▁114	-11.5495
▁féichiúna	-11.5495
▁banna	-11.5499
▁82	-11.55
▁Éisteacht	-11.55
▁kid	-11.5504
▁Leagt	-11.5507
▁MS	-11.5509
▁Meácha	-11.5516
▁chónaío	-11.5523
▁taitneamhach	-11.5525
▁Marquette	-11.5525
▁cucumber	-11.5525
▁iargúlta	-11.5525
▁Ghréig	-11.5525
▁tipiciú	-11.5525
▁coga	-11.5525
▁Sliocht	-11.5525
▁choirp	-11.5525
▁Network	-11.5525
▁TRÍ	-11.5526
▁tuarasgabhá	-11.5526
▁Archive	-11.5526
▁Transport	-11.5526
▁Spiorad	-11.5526
▁Luimn	-11.5527
▁habairt	-11.5527
lowjob	-11.5528
▁príosún	-11.5528
▁Áireo	-11.5531
▁Leigheas	-11.5531
▁tionnsca	-11.5533
▁sciorta	-11.5534
▁siopadóireacht	-11.5535
▁dosage	-11.5535
▁earr	-11.5535
▁craobh	-11.5538
▁dhigiteach	-11.5539
▁Fíor	-11.5541
▁eml	-11.5542
▁Ghnócha	-11.5542
▁toiltean	-11.5543
uaithi	-11.5543
▁Fair	-11.5545
▁iarrfaid	-11.5547
íocaíochta	-11.5547
▁trócaire	-11.5548
roinn	-11.5548
▁bhanchéil	-11.5549
beaga	-11.5554
▁Comhlacha	-11.5558
▁tinn	-11.5563
▁searmana	-11.5564
ainmh	-11.5566
▁Chinn	-11.5567
eachtúla	-11.5569
▁Cábla	-11.5571
saorghluaiseacht	-11.5571
▁torrach	-11.5575
▁Life	-11.5575
oundation	-11.5578
▁thuig	-11.5578
▁Tástála	-11.5579
▁clúmhillte	-11.558
▁chleithiúna	-11.5581
▁TUA	-11.5582
▁chinntí	-11.5583
▁Road	-11.5584
▁fiontraíocht	-11.5584
▁ardvolta	-11.5593
▁Uathoibr	-11.5594
inmhianaithe	-11.5595
▁Ranná	-11.5596
▁Inter	-11.5598
▁trioma	-11.56
▁Féin	-11.56
▁MB	-11.5605
cóid	-11.5606
tail	-11.561
▁lámhleabha	-11.5611
▁Ho	-11.5616
▁Meiriceána	-11.5617
láraithe	-11.5617
▁grianchlo	-11.5617
aiscí	-11.5618
▁bpríomh	-11.5621
▁croílár	-11.5622
▁fíorai	-11.5623
▁grinnscrúdú	-11.5626
▁urghabhá	-11.5627
▁Gold	-11.5627
TP	-11.5628
▁teagmh	-11.5629
med	-11.5629
bhaile	-11.5633
▁fhreastal	-11.5636
TV	-11.5641
lte	-11.5645
▁Teacht	-11.5647
▁snáith	-11.5648
▁phriontáil	-11.5651
▁shlándá	-11.5655
ions	-11.5656
▁húsáideoir	-11.5659
▁Cuma	-11.566
▁Sampla	-11.5662
▁cara	-11.5664
▁laghd	-11.5666
iúró	-11.5669
▁Daid	-11.568
▁tásc	-11.568
▁impleacht	-11.568
▁dall	-11.5689
CE	-11.5692
▁ndein	-11.5692
faí	-11.5693
▁thaca	-11.5694
leanála	-11.5695
▁faois	-11.5695
▁bronn	-11.5696
▁hamhá	-11.5703
▁Fuaime	-11.5705
GE	-11.5709
canna	-11.5713
▁athbhreithni	-11.5716
▁ráill	-11.5717
▁taighdeoir	-11.5719
▁Taispeán	-11.5722
riseadh	-11.5728
iarmhéid	-11.5738
▁chod	-11.574
▁Mini	-11.5749
▁chlo	-11.5754
▁Digit	-11.5756
▁cigireacht	-11.5757
▁Choimisinéir	-11.577
tóireachta	-11.5775
aer	-11.5775
iv	-11.5777
▁cúlghairm	-11.5788
teileachumarsáid	-11.5789
▁seiceál	-11.5789
▁gcosta	-11.579
▁caillea	-11.579
▁ghlaca	-11.5791
▁Eacnamaíocht	-11.5792
▁bhunúsach	-11.5795
▁Gael	-11.5798
▁comhlacha	-11.58
ence	-11.5802
▁Cosc	-11.5809
▁ndeire	-11.5813
chun	-11.5816
idiam	-11.5822
aiteachais	-11.5835
arthu	-11.5836
▁oidhreachta	-11.5837
▁neamhrialta	-11.5837
úl	-11.5843
▁Cóip	-11.5844
▁timpeallachta	-11.5852
lac	-11.5854
▁ráit	-11.5854
▁monarú	-11.5855
▁onnmhair	-11.5861
ged	-11.5863
▁ghnólachta	-11.5867
▁Díol	-11.5869
chumhacht	-11.5872
▁88	-11.5872
▁Chuntas	-11.5873
65	-11.5878
▁mheasún	-11.5879
▁ollscoile	-11.5884
shaoire	-11.5888
▁gcroí	-11.5888
▁gluaiseachta	-11.5894
▁tionóisc	-11.5896
▁shainiú	-11.5897
fe	-11.5898
bheart	-11.5899
rbh	-11.5899
▁céime	-11.59
sé	-11.59
▁bhliant	-11.5903
▁bhfíri	-11.5914
mniú	-11.5915
▁fonn	-11.592
▁she	-11.5923
▁fillteá	-11.5923
EE	-11.5924
▁Long	-11.5927
▁speisialtóir	-11.5927
▁aims	-11.5928
▁thréig	-11.5928
▁tsaoi	-11.5933
▁Éil	-11.5934
▁haistriú	-11.5935
ona	-11.5938
▁Brú	-11.5938
▁Fola	-11.594
▁fíric	-11.5944
▁Leag	-11.5947
líochta	-11.5949
▁Iartha	-11.595
▁Rogha	-11.5951
▁dtos	-11.5952
léas	-11.5954
▁PV	-11.5954
▁thig	-11.5962
▁clára	-11.5963
éan	-11.597
íoch	-11.5971
▁gcearta	-11.5973
▁ceadó	-11.5983
▁org	-11.5984
cháil	-11.5992
buiséad	-11.5994
▁Luach	-11.5997
char	-11.6001
▁shása	-11.6002
táblaí	-11.6003
▁Cor	-11.6003
taigh	-11.6008
▁forlíonta	-11.601
▁bunuithe	-11.6013
▁Seanad	-11.6016
▁Ur	-11.6018
▁ndualga	-11.602
▁adhmad	-11.6021
léireof	-11.6026
▁iarrfa	-11.6029
dirlíon	-11.6039
nia	-11.6044
ltaí	-11.6049
▁seimineá	-11.6051
▁fluaraiseach	-11.6051
▁Pandora	-11.6051
▁phonc	-11.6051
▁massage	-11.6052
▁neamhchiontach	-11.6052
▁Dúbailte	-11.6052
▁gcaipit	-11.6052
▁Pholainn	-11.6053
▁Royal	-11.6053
▁foilseachá	-11.6054
▁ilghnéitheach	-11.6056
▁fionnu	-11.6056
▁comhraic	-11.6056
▁1916	-11.6057
▁pholasa	-11.6057
▁COMMI	-11.6057
mateur	-11.6057
▁stiall	-11.6058
▁míbhuntáist	-11.6058
▁ainsealach	-11.6059
▁Satailíte	-11.6059
▁éadroim	-11.6061
▁droich	-11.6061
▁Bharra	-11.6062
▁fhréamh	-11.6062
▁ríocht	-11.6064
▁píolóta	-11.6065
▁ndoiciméad	-11.6067
ineadóir	-11.6067
▁sainchomha	-11.6069
CPL	-11.6074
▁ROS	-11.6074
▁dtuismitheoir	-11.6074
▁shaincheist	-11.6075
▁comhréidh	-11.6076
▁Solátha	-11.6078
▁briste	-11.6079
▁eisi	-11.608
▁BHAINEA	-11.6081
▁bpragh	-11.6081
▁meánmhéid	-11.6081
▁ghabhálta	-11.6083
eoite	-11.6083
▁gairea	-11.6084
▁Food	-11.6086
eicníocht	-11.6086
duine	-11.6088
▁Her	-11.6089
▁1943	-11.6092
▁tiúbair	-11.6092
▁Cogadh	-11.6092
únt	-11.6092
▁Ghairm	-11.6094
▁comhchuibh	-11.6095
▁Saol	-11.6095
Éirinn	-11.6097
▁Cúntóir	-11.6097
▁braiteoir	-11.6099
mhíleata	-11.61
▁Select	-11.61
íreanna	-11.6102
▁Boy	-11.6103
▁déantúsaíocht	-11.6103
▁ochta	-11.6106
aingne	-11.6106
▁deisiú	-11.6107
Aighne	-11.6107
▁oiriúnaí	-11.611
▁eascra	-11.6112
▁Anailís	-11.6113
time	-11.6115
▁fabraic	-11.6116
intinn	-11.6129
▁Ioncam	-11.613
inneas	-11.6131
▁chomhtháth	-11.6132
liaint	-11.6137
▁gcu	-11.6137
▁fora	-11.6139
▁vii	-11.6142
52	-11.6143
eagtha	-11.6144
▁cumaisc	-11.6144
▁fhéidearthacht	-11.6144
▁éagóir	-11.6145
intreach	-11.6148
▁Lé	-11.615
▁Cong	-11.6151
▁Íos	-11.6152
▁láimhdeacha	-11.6152
ndment	-11.6153
▁cúlra	-11.6154
eagraíocht	-11.6155
▁sheas	-11.6159
▁cuairteoir	-11.6161
▁urlái	-11.6161
▁clainn	-11.6162
athúil	-11.6162
▁sínea	-11.6166
▁mhilliú	-11.6171
airt	-11.6172
eic	-11.6174
▁cleithiúnach	-11.6175
AP	-11.6177
▁bus	-11.6183
▁Chabh	-11.6184
dows	-11.6191
easportá	-11.6192
▁Socra	-11.6192
▁gceachta	-11.6199
▁UN	-11.6199
▁lamhálta	-11.6204
▁Cheann	-11.6204
▁ndéileálfa	-11.6204
éisteacht	-11.6204
▁bhfáil	-11.6205
▁íoslaghd	-11.6205
▁dhaltaí	-11.6206
▁éilithe	-11.6209
▁míosú	-11.6211
fhoir	-11.6219
▁dún	-11.6222
Imm	-11.6226
▁troscá	-11.6226
▁chomhionann	-11.6226
▁paist	-11.6233
LAF	-11.6235
▁Tabharf	-11.6237
héile	-11.6238
▁uain	-11.6239
íon	-11.624
▁Clas	-11.6249
▁hús	-11.6249
▁ceartaitheach	-11.625
▁sholáthró	-11.6254
idirbheart	-11.6255
ILL	-11.6258
cliant	-11.6263
▁FÁ	-11.6264
lia	-11.6264
▁Breise	-11.6266
▁Bail	-11.6266
▁Feist	-11.6272
▁feitheam	-11.6278
▁Gl	-11.6279
neadh	-11.6281
eibhéal	-11.6281
icí	-11.6282
▁tharl	-11.6284
threora	-11.6285
▁Cairt	-11.6288
▁híocfa	-11.6289
eáil	-11.6289
▁Stoc	-11.629
DA	-11.6294
▁cáis	-11.6297
raimí	-11.6299
gtha	-11.6301
▁thionónta	-11.6306
▁gráin	-11.6308
ghlactha	-11.6311
▁Cánacha	-11.6313
irg	-11.6313
▁Thre	-11.6314
▁scaird	-11.6315
óiste	-11.6315
▁shocha	-11.6315
▁gener	-11.632
▁cr	-11.6326
▁thuille	-11.6328
áire	-11.6331
▁ton	-11.6335
▁fara	-11.6339
▁óstach	-11.6344
▁pill	-11.6345
ats	-11.6348
raíochta	-11.635
▁bailío	-11.6351
▁115	-11.636
▁103	-11.6363
▁mai	-11.6366
▁caill	-11.6367
▁baictéir	-11.6369
▁hinfheistíochta	-11.6369
▁coil	-11.637
▁eachtra	-11.6373
▁cheachta	-11.6375
▁Seacha	-11.6379
archéime	-11.638
▁ghream	-11.638
tic	-11.6382
▁Féil	-11.6384
▁Léiriú	-11.6387
▁Fora	-11.639
infheistíochta	-11.6391
▁bríomha	-11.6396
29	-11.6401
▁Shaorstá	-11.6401
▁bolgá	-11.6404
iniúchóir	-11.6404
LS	-11.6407
14	-11.6411
heobhaid	-11.6413
úis	-11.6415
▁fhíor	-11.6416
▁thionsca	-11.6423
▁Comhdhlú	-11.6429
caife	-11.6435
UR	-11.6437
▁Creidmheasa	-11.6439
▁cultú	-11.644
▁suiteáilte	-11.6445
▁cúiti	-11.6445
heas	-11.6446
árachaithe	-11.6451
▁gram	-11.6451
▁forbraío	-11.6453
▁inneacha	-11.6454
▁fánaíocht	-11.6457
▁slat	-11.6458
50	-11.6458
phlé	-11.6459
iridh	-11.6462
aonra	-11.6467
▁sócmhainne	-11.6468
▁chreidiúna	-11.6469
ionstraimí	-11.6469
ór	-11.6469
▁dhlíthiúla	-11.6475
▁Ailt	-11.6479
▁Rúnaí	-11.6489
▁ingearach	-11.6489
MENT	-11.6493
inte	-11.6493
NR	-11.6501
▁tho	-11.6501
▁gceadó	-11.6505
ráta	-11.6505
21	-11.6513
▁fuinne	-11.6514
▁síntiús	-11.6515
TTE	-11.6516
▁Shamh	-11.6517
▁créachta	-11.652
réir	-11.6522
▁Ski	-11.653
oitianta	-11.6539
chéime	-11.654
▁Herm	-11.654
▁160	-11.6543
▁Teasta	-11.6545
▁ionchui	-11.6546
úsáidte	-11.6552
▁phionó	-11.6556
orex	-11.6556
cineál	-11.6557
CI	-11.6561
▁áiritheoi	-11.6562
▁dhleacht	-11.6564
▁crannchu	-11.6566
iarraid	-11.6567
cósta	-11.6568
gal	-11.6571
taobh	-11.6579
▁Nar	-11.6582
▁chothrom	-11.6583
▁Margaí	-11.6584
▁Mes	-11.6587
▁TUAIRIM	-11.6587
ianbhreith	-11.6589
▁rannchuidi	-11.659
▁reachta	-11.6591
▁cóimheas	-11.6594
▁sonnr	-11.6594
outh	-11.6596
chéim	-11.6599
hordó	-11.6601
draig	-11.6603
ster	-11.6604
▁carbó	-11.6604
▁Chu	-11.6605
ized	-11.6606
▁Environment	-11.6607
▁Cónaidhm	-11.6607
▁ngeilleaga	-11.6607
▁RIAL	-11.6607
▁orgasm	-11.6607
▁Reifr	-11.6607
▁Éadrom	-11.6607
▁Léarscáil	-11.6607
▁bioráin	-11.6607
▁Íoslódáil	-11.6607
▁hÁise	-11.6608
▁gcreat	-11.6608
▁hInstitiúid	-11.6609
▁Chumhacht	-11.6609
▁mbosca	-11.661
▁marg	-11.661
▁fiailí	-11.661
▁huimhreach	-11.6611
▁folláin	-11.6612
▁háireamh	-11.6612
▁Róimh	-11.6612
óibh	-11.6613
▁Náisiú	-11.6613
chárta	-11.6613
▁Sealadach	-11.6614
▁ghní	-11.6614
▁coinneála	-11.6615
▁lóisteáil	-11.6615
▁720	-11.6616
▁bairille	-11.6616
▁conclúid	-11.6616
▁Seice	-11.6617
▁372	-11.6618
▁toimhdeo	-11.6619
▁péint	-11.6619
ak	-11.662
▁comharba	-11.662
SO	-11.6623
ton	-11.6624
▁dtionscada	-11.6624
▁dramhaíola	-11.6624
▁Leathn	-11.6626
▁piorra	-11.6627
▁lánúin	-11.6627
▁dhámhachtain	-11.6628
▁comhrá	-11.6628
▁mionbhr	-11.6629
▁Nao	-11.663
▁vót	-11.6631
ndi	-11.6631
▁bhagú	-11.6631
▁Ardoideachais	-11.6634
▁thosó	-11.6635
▁Manufacturer	-11.6636
▁siombail	-11.6638
flashing	-11.6638
▁ghabháltais	-11.6639
▁rúis	-11.6639
suas	-11.6642
▁fál	-11.6643
▁elegan	-11.6644
▁cainte	-11.6646
ÉIS	-11.6647
▁staon	-11.6649
▁earnálach	-11.6652
▁House	-11.6653
▁scia	-11.6653
▁clasp	-11.6654
▁naked	-11.6654
▁dteacht	-11.6656
▁pacála	-11.6657
▁límistéir	-11.6658
▁nuálaíochta	-11.6659
▁péire	-11.6663
▁garraíodóir	-11.6667
▁Bonneaga	-11.6674
▁Star	-11.6675
▁shórt	-11.6679
▁stopa	-11.668
NBA	-11.6681
▁Ri	-11.6682
▁údarai	-11.6683
fhorchu	-11.6684
▁bha	-11.6685
mheabhrach	-11.6688
Coiste	-11.6689
eamara	-11.669
▁ya	-11.6694
▁marthanacht	-11.6695
chorraithe	-11.6696
Iarscríbhinn	-11.6698
inéiv	-11.6699
▁Bainisteoir	-11.6699
▁radaíocht	-11.6703
▁dtean	-11.6704
▁chomhlucht	-11.6706
nstruction	-11.6708
▁cist	-11.6708
sraon	-11.6711
▁Measún	-11.6711
▁Sit	-11.6712
▁sealúcha	-11.6713
▁freagarthach	-11.6714
▁Halla	-11.6716
▁héil	-11.6723
▁mhéadaithe	-11.6726
phinsin	-11.6728
▁thogh	-11.6729
▁botú	-11.6732
▁hairteaga	-11.6732
▁háitiú	-11.6732
▁Stop	-11.6734
▁shonróid	-11.6737
eaga	-11.6738
▁sonraíocht	-11.6739
▁Mol	-11.674
▁450	-11.6743
▁chustaimé	-11.6745
▁mbunófa	-11.6747
▁Fol	-11.6751
▁éagórach	-11.6753
GS	-11.6754
▁vi	-11.6754
ER	-11.6754
ork	-11.6762
▁seaicé	-11.6762
▁Puiblí	-11.6763
ilt	-11.6769
▁ndeach	-11.6769
liúnta	-11.677
▁Bárda	-11.6772
cheapann	-11.6773
ual	-11.6774
▁IAR	-11.6774
▁PS	-11.6775
▁mbrabú	-11.6775
▁ime	-11.6776
zhen	-11.6776
iontaobha	-11.6777
▁charms	-11.6777
▁Maoirseacht	-11.6778
▁Ve	-11.678
▁bhiotáille	-11.678
▁1944	-11.6781
▁Díolachá	-11.6781
▁toirchi	-11.6781
huaigh	-11.6784
▁Tionscna	-11.6792
▁Februar	-11.6793
▁corr	-11.6794
An	-11.6796
▁lúb	-11.6798
aoil	-11.6804
▁Su	-11.6806
▁chothabhála	-11.6806
▁dhíolmh	-11.6809
▁Thar	-11.6813
bhann	-11.6814
▁ionmhuir	-11.6819
▁Críoch	-11.6819
ompany	-11.6827
▁Bog	-11.6827
▁comhchosú	-11.6827
AR	-11.683
ON	-11.6832
▁sín	-11.6833
TE	-11.6836
▁Réims	-11.6838
▁threala	-11.6838
▁Mús	-11.6838
▁scríbhneoir	-11.6838
▁fálta	-11.6844
▁Caidr	-11.6846
▁roll	-11.6847
▁mol	-11.6848
of	-11.6851
▁oifigi	-11.6858
iar	-11.6858
▁huisc	-11.6859
▁Doirt	-11.686
▁thréimhs	-11.6861
85	-11.6861
bhainisteoir	-11.6878
▁Mhí	-11.6879
▁Ad	-11.6879
▁Breis	-11.6882
▁meaitseá	-11.6882
▁184	-11.6882
▁ghealltana	-11.6889
▁aistarraingt	-11.6889
▁shamhl	-11.689
▁deacra	-11.689
▁800	-11.6892
▁chumarsáid	-11.6895
▁ceannas	-11.6895
▁baincéir	-11.6897
▁you	-11.6897
▁gearra	-11.6899
▁lón	-11.6899
▁frithsheasmhach	-11.6902
Press	-11.6902
▁cáipéisí	-11.6903
▁mothúchá	-11.6909
▁díl	-11.6909
17	-11.691
▁héifeachtú	-11.6914
watch	-11.6914
▁abhar	-11.6917
▁éilío	-11.6918
oc	-11.6919
dúil	-11.6919
▁thriom	-11.6921
▁Freagraí	-11.6922
▁athsholátha	-11.6926
▁gineadó	-11.6926
▁chomhroinnt	-11.6928
▁shínea	-11.6929
▁Cearta	-11.693
íosparta	-11.693
intiúir	-11.6932
eachtas	-11.6937
asket	-11.6939
▁Ac	-11.6943
▁aschu	-11.6945
▁éi	-11.6947
CH	-11.6949
light	-11.6951
ves	-11.6952
▁220	-11.696
achais	-11.6966
huige	-11.697
▁chine	-11.6972
▁Teagmhála	-11.6973
gthe	-11.6976
léasóir	-11.6976
▁Gloin	-11.6977
▁allmhair	-11.6978
▁Translat	-11.698
▁ceangló	-11.698
quo	-11.6983
idéal	-11.6984
▁Mha	-11.6985
▁díortha	-11.6989
▁monar	-11.6989
cheann	-11.699
álainn	-11.6991
hug	-11.6992
▁sheach	-11.6992
▁Práinne	-11.6993
uan	-11.6994
▁92	-11.6997
rry	-11.6998
▁creid	-11.7
▁Cór	-11.7002
gu	-11.7004
▁from	-11.7005
▁carraig	-11.7005
asc	-11.7005
▁Foirgn	-11.7006
▁Iarr	-11.7008
▁haicm	-11.7009
▁luait	-11.7009
▁Don	-11.7011
▁Cúit	-11.7012
▁feadán	-11.7012
▁phrionsaba	-11.7015
▁tionóntacht	-11.702
▁cheant	-11.7021
▁chon	-11.7025
atellite	-11.7028
lips	-11.703
and	-11.7037
▁chos	-11.7038
áide	-11.7041
▁Bhearta	-11.7041
Astráil	-11.7042
▁ionstraime	-11.7043
▁dtéarma	-11.7046
isghairm	-11.7048
ri	-11.7054
mate	-11.7055
▁cistin	-11.7058
▁Custa	-11.7059
▁réasú	-11.7064
▁cealú	-11.7067
bhainte	-11.7067
▁Rang	-11.7068
táin	-11.707
▁réamhíoc	-11.7076
▁asbhainte	-11.7077
▁hiasachtaí	-11.7078
▁cósta	-11.7079
▁rian	-11.7085
GB	-11.7091
▁87	-11.7091
▁amhrán	-11.7094
▁ciont	-11.7095
▁dearbha	-11.7096
▁stiúr	-11.7097
▁thárla	-11.7102
▁grafa	-11.7105
▁Riachtana	-11.7105
árach	-11.7107
▁neamhchorpra	-11.7107
▁thiocf	-11.7108
▁threor	-11.7109
réimhe	-11.7109
▁húdar	-11.711
duithe	-11.7115
▁fágá	-11.7122
▁intui	-11.7125
▁loc	-11.7125
▁maisithe	-11.7132
▁cúnta	-11.7132
▁iomaíocha	-11.7134
▁inniúlachta	-11.7134
▁700	-11.7136
íotáiniam	-11.7137
▁díolta	-11.7142
▁Ionchúis	-11.7142
▁oblagáid	-11.7148
▁bunacha	-11.7153
rian	-11.7156
▁spá	-11.7158
hair	-11.7159
▁bhreithiúnach	-11.716
▁scratch	-11.716
▁mil	-11.7161
▁dob	-11.7162
▁Ghníomha	-11.7163
▁Fa	-11.7165
▁gheobhfa	-11.7165
▁chomhshao	-11.7165
RE	-11.7173
▁Thiar	-11.7174
bhair	-11.7174
zing	-11.7174
▁cór	-11.7175
▁bpacáist	-11.7177
aonar	-11.7187
▁theicneolaíocht	-11.7193
07	-11.7194
experience	-11.7195
▁Countertop	-11.7195
▁unbeliever	-11.7195
▁Iompórtáil	-11.7195
▁Consolidat	-11.7195
▁Íosluchtai	-11.7195
▁robot	-11.7195
▁spéacl	-11.7195
▁ultra	-11.7195
▁Stóráil	-11.7195
▁Independen	-11.7195
▁coiníoll	-11.7195
▁loighic	-11.7195
▁Pearl	-11.7195
▁réamheolair	-11.7196
▁pussy	-11.7196
▁míshásta	-11.7196
▁Maoirseoir	-11.7197
▁eorna	-11.7197
▁printíseachta	-11.7198
▁bhailecheannta	-11.7198
▁trucail	-11.7199
▁ornáideach	-11.72
EREC	-11.7201
▁flúirse	-11.7201
▁mheaitseá	-11.7203
eannta	-11.7204
▁luch	-11.7204
▁rannóg	-11.7206
▁príntíseach	-11.7206
▁Phort	-11.7207
▁meabhair	-11.7207
▁Plaisteach	-11.7208
DARA	-11.7209
▁mhionsonra	-11.7209
▁uathoibrithe	-11.721
▁Toir	-11.7211
▁teagmhasach	-11.7213
▁seisea	-11.7216
▁OF	-11.7217
fhorál	-11.7217
▁spéir	-11.7217
▁tonn	-11.7218
▁earráide	-11.7219
▁garbh	-11.7219
▁Díolúin	-11.722
▁Hand	-11.722
▁taispeána	-11.7221
▁sciúr	-11.7224
▁shíl	-11.7225
▁oidhreachtá	-11.7225
hange	-11.7227
▁SF	-11.7227
▁brón	-11.7227
▁Cross	-11.7227
▁figiúr	-11.7231
▁dteast	-11.7232
▁folúntais	-11.7234
▁glacadóir	-11.7234
▁bplanda	-11.7235
▁shaineola	-11.7235
▁lacáist	-11.7237
▁chomhall	-11.7237
mirce	-11.7238
▁Tuairisceá	-11.7241
▁leachtach	-11.7241
uc	-11.7243
▁póstae	-11.7244
▁mha	-11.7246
thain	-11.7247
▁truaillithe	-11.7249
▁Phen	-11.725
▁Comisi	-11.725
croílár	-11.7251
▁méide	-11.7252
praghas	-11.7252
▁uasteorainn	-11.7252
▁mhaoine	-11.7254
▁fhuil	-11.7256
▁Rud	-11.726
▁Soghluaisteacht	-11.7261
▁bhrabhsála	-11.7261
▁hullmhú	-11.7265
▁Play	-11.7266
mheas	-11.7268
▁bhuisé	-11.727
▁Rialaitheoir	-11.7271
▁ceangl	-11.7272
▁pháirc	-11.7273
dháil	-11.7273
▁chreidea	-11.7277
▁bpáipé	-11.7279
ter	-11.7279
▁cuideachtan	-11.7279
▁daingn	-11.7279
▁barúlach	-11.7281
▁mianadóireacht	-11.7285
▁ceant	-11.7286
rolla	-11.7287
ead	-11.7288
▁cónaitheach	-11.7289
▁nochtfa	-11.7293
chomhshocraíocht	-11.7293
▁coibhéiseach	-11.7295
▁lionsa	-11.7295
▁nuálach	-11.73
▁machnamh	-11.7301
▁scáthá	-11.7302
▁Aims	-11.7303
INMH	-11.7303
▁osclaío	-11.7304
▁Chicago	-11.7304
▁chomhacht	-11.7309
▁múnlaí	-11.731
▁hoibrithe	-11.7314
▁phósta	-11.7314
▁mbanc	-11.7316
▁cat	-11.7318
uk	-11.7319
MI	-11.7319
▁gao	-11.7324
▁ith	-11.7325
▁spraeá	-11.7329
anann	-11.7333
▁Ra	-11.7341
▁Nov	-11.7341
▁tairgeoir	-11.7344
▁ionchasach	-11.7346
logad	-11.7348
éara	-11.7348
▁dtáirge	-11.735
▁Tiomána	-11.7352
▁fóirst	-11.7353
SMA	-11.7358
roinnt	-11.736
▁príomhshuim	-11.7363
aothrú	-11.7364
▁Map	-11.7366
▁athchóir	-11.7367
éigh	-11.7369
▁mbarr	-11.7369
▁sochaí	-11.737
▁inléite	-11.737
▁Chorparáide	-11.7372
▁uachtarán	-11.7373
▁Auto	-11.7373
▁substainteach	-11.7374
ong	-11.7375
▁Stamp	-11.7375
▁comhaonta	-11.7377
▁Mi	-11.7379
▁gréasán	-11.7385
iontair	-11.7392
▁roghchlá	-11.7393
▁bpáirtí	-11.7395
▁ionadaitheach	-11.7395
▁Earná	-11.7396
alar	-11.7396
ógaiseoir	-11.7397
▁Cure	-11.7403
▁gnóthair	-11.7411
▁Son	-11.7415
▁bille	-11.7415
alaithe	-11.7416
simplí	-11.742
▁himscrúd	-11.742
▁Old	-11.7422
▁cuaill	-11.7423
▁chainníocht	-11.7429
▁bruit	-11.7429
▁choinbhleacht	-11.743
sion	-11.7431
▁thairbh	-11.7435
▁phríosúnacht	-11.7442
rm	-11.7442
reach	-11.7445
▁cartúi	-11.7447
▁cumais	-11.7451
▁nD	-11.7456
oscailt	-11.7456
bunscoile	-11.7459
▁Cabhr	-11.746
▁App	-11.7461
rá	-11.7464
tive	-11.7464
▁bhuachaill	-11.7467
▁My	-11.7468
▁Earr	-11.7471
chláraithe	-11.7472
▁hOllscoil	-11.7472
▁eadrá	-11.7474
▁bhainisteo	-11.7477
31	-11.7477
reann	-11.7478
▁lánaimsear	-11.7479
▁185	-11.7481
▁dheonófa	-11.7485
▁grúp	-11.7489
▁Réim	-11.749
▁shann	-11.7492
▁corparáid	-11.7493
▁phraiticiú	-11.7493
▁Eit	-11.7505
▁téad	-11.7507
▁fóin	-11.7519
▁ghnólacht	-11.752
éilitheoir	-11.7521
▁aontú	-11.7523
▁fhógrá	-11.7524
AS	-11.7525
▁UV	-11.7526
▁príosúnach	-11.7529
Chumann	-11.7538
▁bea	-11.7541
get	-11.7541
áisiúnta	-11.7541
▁bialann	-11.7545
▁Lae	-11.755
ings	-11.755
▁Europa	-11.7551
ímid	-11.7552
▁gha	-11.7554
▁murar	-11.7555
▁bhforála	-11.7556
▁chuirfe	-11.7556
áireofa	-11.7558
▁Seola	-11.7559
▁allmhaireoir	-11.7561
céad	-11.7562
oibrí	-11.7568
iliú	-11.7574
▁dtogh	-11.7579
▁Justi	-11.7581
▁Comhionanna	-11.7584
▁foirgnío	-11.7586
▁mhúnl	-11.7587
▁Cheanada	-11.7595
iarann	-11.7597
▁hath	-11.7597
arnar	-11.7599
cadh	-11.7604
▁sholáthr	-11.7604
▁dóchúla	-11.7607
▁deimhn	-11.7607
▁milliú	-11.7608
▁ceanna	-11.7608
▁Bhliantú	-11.7609
▁Cónaithe	-11.7612
▁Téarma	-11.7612
▁Iascai	-11.7613
dom	-11.7615
AIDH	-11.7618
gram	-11.7619
▁ullmh	-11.7621
99	-11.7621
▁creidea	-11.7623
▁GN	-11.7626
aw	-11.7628
rdán	-11.7628
▁Mé	-11.7628
▁RIALTA	-11.7633
▁iascai	-11.7643
olais	-11.7647
▁ailléirg	-11.765
▁Bainist	-11.7655
▁Diaper	-11.7661
easann	-11.7662
tuairiscí	-11.7662
▁cinnfid	-11.7667
▁faireacha	-11.7669
▁feo	-11.7678
▁SD	-11.7679
TFT	-11.7683
▁Franc	-11.7684
troigh	-11.7685
BE	-11.7686
imscrúdú	-11.7689
▁suimean	-11.769
▁Comhachta	-11.7696
WC	-11.7697
ries	-11.7698
▁Cinnf	-11.77
earradh	-11.7703
▁gcoimeádá	-11.7704
esearch	-11.7704
údarú	-11.771
▁mull	-11.7713
eán	-11.7713
▁congant	-11.7714
▁intleachtú	-11.7716
▁128	-11.7716
ntar	-11.7719
▁komis	-11.772
▁Luc	-11.7721
▁táirgeacht	-11.7726
ying	-11.7726
▁athair	-11.7729
▁shean	-11.774
neach	-11.7748
▁ragha	-11.775
▁Mala	-11.7751
▁fhiosrú	-11.7759
▁Treoirl	-11.776
▁Bhéar	-11.7761
▁Foir	-11.7762
▁Them	-11.7768
mhach	-11.7768
▁fála	-11.777
▁gcomhacht	-11.7771
dáilte	-11.7772
▁Luan	-11.7778
▁Expe	-11.7786
▁cruithneachta	-11.7786
▁gcead	-11.779
IV	-11.7793
▁áite	-11.7793
▁Comhthái	-11.7793
láimhs	-11.7796
▁Éilío	-11.7796
▁corp	-11.78
▁leabharlann	-11.7801
mas	-11.7802
▁roghnach	-11.7804
▁traidisiú	-11.7806
▁ragh	-11.7807
▁104	-11.781
▁tora	-11.7812
▁dhíscaoil	-11.7813
▁airíon	-11.7814
▁Fógraí	-11.7814
▁imdhíonach	-11.7817
Erasmus	-11.782
▁Friend	-11.782
▁Organization	-11.782
▁suaimhnea	-11.782
▁Euroopa	-11.782
▁Java	-11.782
▁ngnáthnós	-11.782
agairt	-11.782
▁Chomhbhearta	-11.7821
▁Agricultur	-11.7821
▁mháithreacha	-11.7821
▁coimhdeach	-11.7821
▁Fhuinn	-11.7821
▁éiceachóra	-11.7821
▁phíosa	-11.7821
▁priaca	-11.7821
▁FBM	-11.7822
▁Dochtúir	-11.7823
▁humidor	-11.7823
▁stuama	-11.7824
▁géiniteach	-11.7824
▁Reatha	-11.7824
▁ngl	-11.7824
▁tochailt	-11.7825
control	-11.7826
▁Turas	-11.7827
thúil	-11.7827
▁Teid	-11.7828
usiness	-11.7828
▁muirearófa	-11.7828
formation	-11.7829
▁macánta	-11.783
▁inrochta	-11.7831
▁buailte	-11.7833
▁Ceathrú	-11.7836
▁Miotal	-11.7836
▁Agalla	-11.7837
▁gnóthach	-11.7843
▁formheas	-11.7843
▁satellite	-11.7845
Brasaíl	-11.7846
rthaí	-11.7846
▁Tógála	-11.7846
▁Modhanna	-11.7848
ND	-11.7851
▁connra	-11.7851
údara	-11.7852
▁Cluas	-11.7853
▁sioc	-11.7854
ealaigh	-11.7856
▁Léireo	-11.7857
▁dócmhainneachta	-11.7858
théacs	-11.7859
▁COD	-11.7859
▁gé	-11.786
ealaí	-11.7862
▁leasu	-11.7864
WER	-11.7866
▁lása	-11.7866
Shéalainn	-11.7866
▁sceit	-11.7868
▁léacht	-11.7869
▁Simplí	-11.787
▁mhair	-11.7872
▁síntiúis	-11.7872
▁chrios	-11.7873
▁víreas	-11.7873
▁rátáil	-11.7873
▁Programme	-11.7874
▁corcra	-11.7875
▁fi	-11.7876
▁Cúrsa	-11.7878
itheoir	-11.7879
▁fuath	-11.7879
▁thimpeallacht	-11.7881
▁forghníomhaithe	-11.7883
▁sheachai	-11.7883
▁stóráilte	-11.7891
▁hIarái	-11.7894
▁Crua	-11.7895
▁Bhu	-11.7896
▁Éasca	-11.7896
▁Crutha	-11.7898
▁substaintiú	-11.7898
▁optú	-11.79
▁bhinse	-11.7901
▁Cuntais	-11.7903
▁Muirear	-11.7904
▁diagnóiseach	-11.7906
thbhreithniú	-11.7906
▁athúsáid	-11.7907
ghníomhú	-11.7907
▁Cinntí	-11.7908
▁Buntáist	-11.7908
▁Pionó	-11.7911
▁fhága	-11.7912
▁Neart	-11.7913
▁sách	-11.7915
▁Coimeád	-11.7917
lla	-11.792
▁uirb	-11.7922
▁cúisí	-11.7925
▁gcunta	-11.7926
▁Solad	-11.7932
▁aigéadacht	-11.7933
▁Rún	-11.7933
▁deontóir	-11.7933
ANCE	-11.7935
ealaíon	-11.7935
▁HTML	-11.7936
▁Smaoin	-11.7938
ata	-11.794
brainse	-11.794
▁Dí	-11.7946
▁cói	-11.795
▁geata	-11.7955
▁chuimsitheach	-11.7957
▁chúlra	-11.7958
thráchta	-11.7959
▁comhroinnt	-11.796
▁ro	-11.7961
que	-11.7961
▁caoi	-11.7961
PS	-11.7963
▁háise	-11.7965
▁chóiríocht	-11.7965
cheangal	-11.7968
Stiúrthóir	-11.7971
▁duais	-11.7972
▁bata	-11.7975
▁Oidhreacht	-11.7976
▁sm	-11.7981
▁comhréire	-11.7981
▁Right	-11.7985
▁fuaraithe	-11.7989
▁gheal	-11.7991
▁carachtar	-11.7992
▁chláraitheoir	-11.7993
illte	-11.7993
▁hionad	-11.7995
cadé	-11.8001
cheadú	-11.8005
▁dtaga	-11.8008
▁caipiti	-11.8013
▁dtuga	-11.8013
▁hidir	-11.8026
inscne	-11.8028
raigh	-11.8029
▁dheire	-11.8032
naí	-11.8034
▁cionroinnt	-11.8034
▁uaim	-11.8037
▁3-4	-11.8038
▁forbróir	-11.804
▁Raon	-11.8041
AA	-11.8054
▁Tharla	-11.8055
▁súl	-11.8056
▁intu	-11.8059
▁304	-11.8059
séasú	-11.8061
rialta	-11.8068
▁contúirt	-11.8069
earnóg	-11.8069
▁iomarcaíochta	-11.807
▁scar	-11.807
▁atráth	-11.8074
▁Innealtóireacht	-11.8075
▁Athair	-11.8076
nuithe	-11.8077
aille	-11.808
álaí	-11.8081
▁bloc	-11.8082
▁Eski	-11.8085
▁EC	-11.8091
▁Jer	-11.8093
▁bhainf	-11.8093
55	-11.8094
éamhráite	-11.81
▁CÚIRTE	-11.8108
lanna	-11.811
▁comhpháirte	-11.8113
▁bitheolaíoch	-11.8115
bhunscoile	-11.8115
sláinte	-11.8115
eform	-11.8118
▁mainneo	-11.812
▁Bhan	-11.8123
MÁ	-11.8125
idirthréimhseach	-11.8126
cóip	-11.813
▁cheird	-11.8133
▁rollaí	-11.8135
fhostaí	-11.8135
▁difríochta	-11.8138
earr	-11.8144
tter	-11.8148
▁Institut	-11.8149
▁Chomhalta	-11.815
▁sighn	-11.8153
▁Tír	-11.8156
tan	-11.8158
umha	-11.8158
▁fhoir	-11.8158
▁eaglais	-11.8159
▁fhoilsithe	-11.8161
▁chomhréir	-11.8163
imeacht	-11.8164
▁Oibr	-11.8165
▁Fund	-11.8165
▁daingniú	-11.8165
▁hIo	-11.817
tal	-11.8171
oite	-11.8171
▁dheimhn	-11.8174
▁garda	-11.8176
▁Seacht	-11.8178
▁pláiné	-11.8183
ey	-11.8185
▁Treora	-11.8185
aradh	-11.8186
▁Leagfa	-11.819
▁Game	-11.8192
istiú	-11.8192
git	-11.8197
▁May	-11.8205
▁chosant	-11.8208
▁sláin	-11.821
▁hairgeadra	-11.8211
▁aerach	-11.8211
▁Human	-11.8211
▁uaire	-11.8215
bate	-11.8216
▁gcigire	-11.8216
▁saothra	-11.8219
▁bhfolú	-11.8222
▁asraon	-11.8223
▁rabh	-11.8225
▁chiontó	-11.8225
▁It	-11.8226
▁gcod	-11.8232
aireachta	-11.8235
ms	-11.824
▁Éirí	-11.8244
▁Scéal	-11.8247
ily	-11.825
▁rásaí	-11.8251
▁reiligiúnach	-11.8255
▁breath	-11.8258
▁Log	-11.8262
fhoilsi	-11.8265
oigeartú	-11.8266
▁mhianra	-11.8268
▁scur	-11.827
▁fhoirgni	-11.8272
thairgthe	-11.8274
eola	-11.8274
ód	-11.8276
▁suck	-11.8279
bhall	-11.828
loic	-11.8281
ES	-11.8282
athach	-11.8284
▁bhac	-11.8284
▁inchána	-11.8284
uel	-11.8284
press	-11.8294
fhaibhr	-11.8295
▁ciúin	-11.8298
teaghlaigh	-11.8301
chomharc	-11.8303
▁gclá	-11.8306
thrádála	-11.8306
▁Ha	-11.8306
▁anailíse	-11.8307
▁Bho	-11.8307
▁106	-11.8309
▁luibh	-11.831
heathrú	-11.8311
▁shroich	-11.8311
▁eat	-11.8314
Ord	-11.8317
▁coimeádfa	-11.8319
reacha	-11.832
scríbhneoireacht	-11.8321
▁ceo	-11.8334
▁theorainne	-11.8335
▁ubh	-11.8336
▁charr	-11.8337
▁imtheorann	-11.8341
ullamh	-11.8345
▁market	-11.8348
▁News	-11.835
LISA	-11.8353
▁cólíona	-11.8359
scríbhinn	-11.8366
sam	-11.8372
naisc	-11.8373
▁buíoch	-11.8375
▁meáchaint	-11.8375
▁mheasúna	-11.8375
▁Adam	-11.8376
▁Aisghabhá	-11.8376
▁dhíl	-11.8377
▁mhais	-11.8377
ische	-11.8379
▁gCaibid	-11.8379
▁rann	-11.8388
▁Ceadúna	-11.8388
▁lamhálfa	-11.8389
▁Pa	-11.8399
▁scotha	-11.84
▁Teagasc	-11.8403
▁Mhara	-11.8412
▁Tomhaltó	-11.8415
▁ealaíontóir	-11.8416
▁leasaí	-11.8416
▁socraío	-11.8419
▁Sreabh	-11.8424
▁thu	-11.8424
▁Clúdaío	-11.8424
▁coigistíoch	-11.8426
▁177	-11.8428
▁chuimhne	-11.8431
▁iris	-11.8433
▁bpá	-11.8435
2020	-11.8439
▁Cú	-11.8442
▁minicíochta	-11.8446
▁Deis	-11.8447
▁gcrios	-11.8448
▁choinn	-11.8453
▁1000	-11.8453
▁mhorgáiste	-11.8459
bhar	-11.846
▁boilg	-11.8462
nraí	-11.8462
oibríochta	-11.8467
▁ghlas	-11.8469
▁Eura	-11.8476
▁shíni	-11.848
▁Ado	-11.848
HRÍ	-11.8482
▁dear	-11.8485
lectric	-11.8486
▁Alúmana	-11.8486
▁Cispheil	-11.8486
▁Dromchla	-11.8486
▁Oibleagáid	-11.8486
▁clársceideal	-11.8487
▁randamach	-11.8487
▁NFL	-11.8487
▁ndeimhneo	-11.8487
▁Píoló	-11.8487
▁tamaill	-11.8487
▁DVD	-11.8487
▁Coiscthe	-11.8487
▁Chúram	-11.8487
▁Development	-11.8487
▁Bhruiséil	-11.8488
▁seachadfa	-11.8488
▁aic	-11.8488
▁dobharshaothr	-11.8488
páis	-11.8489
▁Eurasia	-11.8489
Udarás	-11.8489
▁bhileog	-11.8489
▁fiabhra	-11.8489
▁bPrímh	-11.8489
▁tánaisteach	-11.8489
▁uilíoch	-11.8489
▁CHUID	-11.849
▁Aigéad	-11.849
▁Sibhialta	-11.849
▁Crown	-11.849
▁pléasctha	-11.8491
▁loam	-11.8491
▁dlisteanach	-11.8491
ISTE	-11.8492
▁caomhnaithe	-11.8492
▁consalachta	-11.8492
▁athlas	-11.8493
▁Meabhair	-11.8493
▁turgna	-11.8493
Impireacht	-11.8494
▁ghlao	-11.8495
▁SLÁINT	-11.8495
▁Stra	-11.8496
▁Dílean	-11.8496
chónaí	-11.8497
▁deirfiúr	-11.8497
▁anaithnid	-11.8497
▁hIarscríbhinn	-11.8498
▁Chomhdhá	-11.8499
▁Light	-11.8499
▁Inmheánach	-11.8502
▁cothrománach	-11.8503
▁Parad	-11.8504
▁incháilitheacht	-11.8504
ctha	-11.8505
▁hiarrachtaí	-11.8506
▁promha	-11.8516
▁cófra	-11.8522
▁Sócmhainn	-11.8524
mó	-11.8524
▁gcostais	-11.8525
▁méarlo	-11.8526
▁Éigeandála	-11.8526
▁ndualgais	-11.8533
▁cluas	-11.8533
maitéara	-11.8533
▁háitreabh	-11.8535
▁thé	-11.854
▁Ríomhpho	-11.8542
▁OIBRE	-11.8542
▁priontáil	-11.8544
▁bhr	-11.8545
▁próis	-11.8546
▁damhsa	-11.8549
ashington	-11.855
▁Oilimpeach	-11.8552
▁chairt	-11.8554
▁78	-11.8555
iomláin	-11.8557
▁Aerártha	-11.8558
▁Chorcaigh	-11.8559
bus	-11.856
rálta	-11.8561
▁aithnío	-11.8565
▁socraíochta	-11.8566
▁Coimeádfa	-11.8568
▁Fuar	-11.8568
▁suíochán	-11.8568
▁poi	-11.8569
▁home	-11.8569
▁deimhniúchá	-11.8569
▁hAer	-11.8569
▁feachtas	-11.857
▁Creidea	-11.8571
uaidhe	-11.8573
▁dhílseána	-11.8577
báiste	-11.8578
▁chomhréire	-11.8578
▁Bhú	-11.8579
oo	-11.8582
▁Thosai	-11.8585
▁iarchéime	-11.8585
▁teagla	-11.8591
aitheoir	-11.8592
▁chimeád	-11.8592
▁uillinn	-11.8593
▁eitleá	-11.8594
▁ghlaonn	-11.8597
▁rabhad	-11.8601
▁cothabhá	-11.8601
AC	-11.8602
▁like	-11.8602
▁gCeanta	-11.8606
▁thuairiscí	-11.8615
▁Tionsclaíocht	-11.8616
▁fágt	-11.8617
▁Míle	-11.8618
áirge	-11.8618
▁híocaíocht	-11.8618
▁chomhairliúchá	-11.862
▁stiúrthó	-11.8621
▁sine	-11.8622
obac	-11.8632
▁Forbraío	-11.8634
▁Ears	-11.8637
ampála	-11.8637
▁roghnó	-11.8637
▁réadach	-11.8638
▁aiste	-11.8639
athcheap	-11.864
▁Creid	-11.8642
▁Gnáthchónaithe	-11.8642
▁trasna	-11.8642
▁aisc	-11.8643
▁Mhíchuma	-11.8644
iniúch	-11.8644
Iodáile	-11.8649
▁da	-11.8656
▁Óstá	-11.8658
▁Rátáil	-11.8658
▁Inneal	-11.8664
▁Spa	-11.8666
▁Crois	-11.8666
baol	-11.8668
▁mbeal	-11.8669
▁Ko	-11.867
phacáil	-11.8673
▁cruinne	-11.8675
▁tomhas	-11.8678
▁ndéileáil	-11.8682
▁Brown	-11.8683
▁porno	-11.8693
mhaoin	-11.8697
irceannadh	-11.8701
▁Ciorclá	-11.8702
▁cuimhnea	-11.8708
neamh	-11.871
54	-11.871
▁chúraim	-11.8713
▁Comhar	-11.8717
naimh	-11.8719
▁Chiarra	-11.8719
▁Chaomhn	-11.8721
▁tur	-11.8725
▁gcruinn	-11.8728
▁Ealaín	-11.8731
aistreofa	-11.8731
▁new	-11.8732
▁Preas	-11.8733
▁ACHTA	-11.8733
amach	-11.8733
oradh	-11.8736
▁fabhar	-11.8739
▁Clá	-11.874
▁tiontair	-11.8742
▁Toghchá	-11.8744
▁Ru	-11.8746
▁gcruthaí	-11.8748
▁dheimhnithe	-11.8748
▁ponc	-11.8749
▁thairg	-11.8749
▁dhíobh	-11.875
▁mháistir	-11.8753
▁Rith	-11.8754
▁Real	-11.8756
▁tionóntá	-11.8756
▁earc	-11.8761
▁chultú	-11.8762
▁tosca	-11.8763
ife	-11.8765
▁Chong	-11.8769
amhábhar	-11.877
▁Daonlatha	-11.8771
▁raib	-11.8771
BLA	-11.8775
▁Tairis	-11.8783
▁GB	-11.8784
▁spreagú	-11.8785
irgeadh	-11.8786
▁suífea	-11.8786
NKO	-11.8786
▁FAOI	-11.8789
oimhráite	-11.8795
eart	-11.8797
66	-11.8798
▁luafa	-11.8802
▁Ghaeltachta	-11.8802
▁fhéachan	-11.8804
▁France	-11.8804
▁feabha	-11.8804
▁íosparta	-11.8807
▁seam	-11.8809
▁SM	-11.8812
▁thú	-11.8813
cair	-11.8814
▁seirbheáil	-11.8817
▁fhéil	-11.8819
▁Cabhra	-11.8822
▁cóipe	-11.8825
▁mionn	-11.8827
▁Chúna	-11.8834
ÉIL	-11.8835
ÓID	-11.8835
úchán	-11.8837
▁bunaíochta	-11.8837
uim	-11.884
▁sheasa	-11.8842
▁CUI	-11.8842
▁dramh	-11.8845
ndáil	-11.8846
▁Tacaíon	-11.8847
▁Gaelscoil	-11.8847
▁Soláthraío	-11.8851
▁Bheag	-11.8851
42	-11.8853
▁thi	-11.8856
ortaingéil	-11.8858
▁rátha	-11.8859
▁tiont	-11.886
▁Osclaío	-11.886
▁neamhchónaithe	-11.8862
▁ndéanfai	-11.8866
▁meái	-11.8869
▁scarda	-11.8869
▁bhF	-11.887
indíreach	-11.8871
▁uath	-11.8877
▁PET	-11.8877
▁lamhál	-11.888
íocha	-11.8882
▁Cuimsi	-11.8883
▁bra	-11.8887
▁mhille	-11.8887
eileachumarsáid	-11.8888
iúr	-11.889
▁fiunra	-11.8893
▁ndeonófa	-11.8893
▁gní	-11.8895
▁práinneach	-11.89
▁gnóthú	-11.8905
▁Peil	-11.8906
▁Sol	-11.8908
▁mhe	-11.8908
▁thaisc	-11.891
▁leanúnacha	-11.8912
ghabhála	-11.8912
▁Spás	-11.8912
▁sub	-11.8917
▁cheannta	-11.8917
▁Scríobh	-11.8921
▁ci	-11.8926
▁ionchu	-11.8927
ibhe	-11.8935
▁mam	-11.8936
▁bhronna	-11.8938
áras	-11.8938
▁tairis	-11.894
▁diana	-11.8944
▁sca	-11.8945
oras	-11.8949
▁Áras	-11.895
▁Fre	-11.895
ábhair	-11.8952
▁dtuig	-11.8956
▁bhfón	-11.8956
▁Páirc	-11.896
rling	-11.896
▁measúna	-11.8972
▁líona	-11.8973
▁Dramhaí	-11.8974
scéim	-11.8975
▁neamhghníomh	-11.8975
▁phríosún	-11.8981
▁Rúnaíocht	-11.8981
omhthéacs	-11.8981
shot	-11.8982
cheannaithe	-11.8982
Eabhra	-11.8983
▁chabhra	-11.8984
chumas	-11.8985
▁easna	-11.8985
▁blianacht	-11.8985
▁Tua	-11.8985
▁dick	-11.8986
curtha	-11.8988
▁iarrata	-11.899
▁Intern	-11.8991
▁sampl	-11.8991
▁Cairdi	-11.8992
▁Mom	-11.8993
aerártha	-11.8995
▁Athchóiri	-11.8999
alartú	-11.9004
aife	-11.9004
máil	-11.9006
irge	-11.9007
ospidé	-11.9008
▁hion	-11.9009
▁eitl	-11.9016
▁nglaca	-11.9021
▁Den	-11.9021
▁toillea	-11.9026
▁monaraíocht	-11.9028
▁jack	-11.9028
▁imoibriú	-11.903
▁cothaithe	-11.903
cheangailte	-11.9032
omh	-11.9032
▁chara	-11.9039
fhórsa	-11.9041
▁178	-11.9042
▁leictr	-11.9043
orpa	-11.9048
▁mi	-11.905
▁fhrith	-11.9051
▁coibhéis	-11.9052
▁Chom	-11.9053
▁Scéime	-11.9058
▁cóimh	-11.9058
teacht	-11.9063
ent	-11.9063
▁CAIN	-11.9064
▁freagartha	-11.9064
▁Ráth	-11.9067
▁Beatha	-11.9067
mhara	-11.9068
▁mbainisteoir	-11.9068
▁sonrúchá	-11.9069
▁mheall	-11.9074
▁Pr	-11.9077
▁thaisce	-11.9077
Ionad	-11.9077
▁Kora	-11.9078
eilg	-11.9079
léid	-11.908
▁Red	-11.908
láir	-11.9083
VA	-11.9084
▁ghearán	-11.9085
▁bainea	-11.9086
riú	-11.9087
fhéach	-11.9088
atalóg	-11.9094
aisc	-11.9095
▁dhíoth	-11.9095
▁comhr	-11.9098
▁brand	-11.9101
▁Cíosa	-11.9101
▁dhea	-11.9103
▁teilifís	-11.9105
sagart	-11.9105
▁Ioslam	-11.9105
léireach	-11.9109
▁Lua	-11.911
halair	-11.9111
▁Care	-11.9112
48	-11.9113
▁síocháin	-11.9113
▁deisiúchá	-11.9121
▁ngabhál	-11.9127
▁seasa	-11.9127
immer	-11.9127
▁foirml	-11.9129
▁tura	-11.9133
▁Coist	-11.9136
▁hiarra	-11.9136
▁neamhbhailí	-11.9136
▁bhféadfaid	-11.9138
níomhú	-11.9139
▁taitneamhachta	-11.9143
alamh	-11.9146
▁rince	-11.9146
▁ceartais	-11.9153
▁creim	-11.9156
▁Giúda	-11.9157
▁glúin	-11.9162
port	-11.917
▁mainneachta	-11.9176
▁chistí	-11.9178
▁dtuarascá	-11.9181
▁infhaighte	-11.9186
éin	-11.9187
▁deasc	-11.9192
▁fluor	-11.9195
▁Fáil	-11.9195
choda	-11.9195
iamond	-11.9199
▁Sábháil	-11.9199
▁grinnfhiosrúchá	-11.9201
▁CÉIM	-11.9201
▁masterpiece	-11.9201
▁TIONCHA	-11.9201
▁síochánta	-11.9201
▁taidhleoir	-11.9201
▁pimple	-11.9201
▁snáth	-11.9201
▁calma	-11.9201
▁twist	-11.9201
▁pléisiú	-11.9201
▁spúnóg	-11.9202
▁Téalainn	-11.9202
▁dhromchla	-11.9202
▁Mheánmhuir	-11.9202
▁fíniúna	-11.9202
esent	-11.9202
▁sicín	-11.9203
▁Electric	-11.9203
▁mhuirearófa	-11.9203
▁mhadra	-11.9204
▁Rómáin	-11.9204
▁mionnscríbhinn	-11.9204
▁bhfadhb	-11.9205
bourg	-11.9205
uilleoga	-11.9206
▁Doiciméad	-11.9206
▁cómhaoini	-11.9206
▁inmholta	-11.9207
▁heintit	-11.9207
▁liostaí	-11.9207
▁bhláth	-11.9207
▁Joy	-11.9208
▁gcríochnó	-11.9209
iomad	-11.9209
▁ceardaíocht	-11.9211
▁bhfol	-11.9211
▁Tríocha	-11.9211
▁Ceangal	-11.9212
▁stailc	-11.9213
▁thoghthóir	-11.9213
atá	-11.9214
▁Shibhialta	-11.9214
Dlúthpháirtíocht	-11.9215
lais	-11.9216
loíte	-11.9216
▁Lámhach	-11.9216
▁drochamhra	-11.9217
▁núicléach	-11.9217
▁5000	-11.9218
▁180	-11.9218
▁Prophet	-11.9219
dróm	-11.9219
▁cao	-11.922
▁ceannair	-11.922
▁chaitheann	-11.922
▁brat	-11.9221
▁ghlúin	-11.9223
out	-11.9225
▁Pionóis	-11.9225
quisit	-11.9225
▁tharrac	-11.9227
▁chéannacht	-11.9229
▁innealtóir	-11.923
▁Ceadúnais	-11.9232
tíní	-11.9236
▁Imleabha	-11.9237
▁350	-11.9239
▁Punt	-11.924
▁fabhrach	-11.924
▁réamhshocr	-11.9242
▁peaca	-11.9243
▁coláist	-11.9243
▁comparáid	-11.9243
▁Masturbate	-11.9244
▁Mu	-11.9244
▁choiriú	-11.9244
▁Buail	-11.9246
▁phictiúr	-11.9246
▁durable	-11.9246
▁diúltó	-11.9247
▁micrea	-11.9249
ráitis	-11.9252
▁heolaíochta	-11.9254
▁príomhchuspóir	-11.9256
▁Friotaíocht	-11.9261
▁ticéid	-11.9261
▁phian	-11.9263
ithí	-11.9263
▁Chaitliceach	-11.9264
▁chríocha	-11.9264
▁uaslódáil	-11.9265
▁Nod	-11.9266
▁aicmiú	-11.9267
▁bhréagach	-11.9267
▁Date	-11.9268
▁hasbhaint	-11.9271
▁scuirfid	-11.9272
▁Dhlí	-11.9274
▁Ghníomh	-11.9274
▁gamer	-11.9277
▁Dámh	-11.928
eisia	-11.9281
▁Spáinnis	-11.9282
asmuigh	-11.9282
eagra	-11.9283
ÁN	-11.9284
▁braite	-11.9285
▁Feicf	-11.9286
▁babhta	-11.9286
▁Lit	-11.9286
▁slite	-11.9288
▁dóthain	-11.9294
▁eagarthóireacht	-11.9294
▁Cartlann	-11.9295
▁lárchóra	-11.9296
▁cuóta	-11.9296
▁ciorcal	-11.9297
steach	-11.9297
IMH	-11.9297
▁Caillteana	-11.9299
▁bónas	-11.9302
▁grianghrafadóir	-11.9306
▁drámaíocht	-11.9307
▁Sci	-11.931
róga	-11.931
▁dífhosta	-11.9313
▁inné	-11.9313
▁dúich	-11.9313
ible	-11.9314
▁iarmhartach	-11.9315
▁réada	-11.9316
▁soláthrófa	-11.9316
aca	-11.9317
▁gas	-11.9317
▁áisiúla	-11.9319
▁foghlaimeoir	-11.9321
▁Luath	-11.9323
▁Tosa	-11.9323
▁Buirg	-11.9331
▁president	-11.9332
▁scartáil	-11.9333
▁Áis	-11.9334
▁OIREACHTA	-11.9334
00	-11.9335
ghrúpa	-11.9335
oiriúnach	-11.9338
▁Uachtaránacht	-11.9339
▁gComha	-11.934
osaithe	-11.9341
caillfid	-11.9342
▁raidis	-11.9345
▁ócáideach	-11.9345
▁Plé	-11.9345
▁réaltacht	-11.9345
▁plandála	-11.9346
▁éite	-11.9347
bian	-11.935
▁Bride	-11.9351
▁dtréimhs	-11.9353
▁romha	-11.9354
▁Cigireacht	-11.9356
▁bairr	-11.936
60	-11.9367
ines	-11.9368
zen	-11.937
▁Úsáideoir	-11.9372
▁iallach	-11.9375
▁dhréacht	-11.9378
EID	-11.938
leib	-11.9382
▁seasmhach	-11.9383
▁cheil	-11.9384
▁Bótha	-11.9384
hiontach	-11.9386
▁caomhnú	-11.9387
▁lipéid	-11.939
▁díleá	-11.9392
▁146	-11.9394
▁Bainea	-11.9395
▁eiseama	-11.9395
▁Sun	-11.9398
▁shaoirs	-11.9401
▁comhleanúnacha	-11.9403
▁IMI	-11.9403
▁dhún	-11.9403
leis	-11.9406
▁Fi	-11.941
izer	-11.9411
▁Cúis	-11.9411
▁géarchéime	-11.9412
▁Ins	-11.9416
▁clása	-11.9417
direct	-11.9419
▁criticiú	-11.942
▁ailléirgeach	-11.9421
▁Leab	-11.9423
▁Shín	-11.9423
▁sloinne	-11.9426
▁gcomórta	-11.9427
▁116	-11.9427
▁bhronn	-11.9433
mi	-11.9433
▁Caisleá	-11.9436
ealú	-11.9436
▁Phearsan	-11.9439
▁Roghnai	-11.944
▁tsean	-11.944
▁Ranna	-11.9443
idí	-11.9444
▁Polic	-11.9445
my	-11.9447
▁chomhlach	-11.9452
ÁC	-11.9455
▁comhfhreagra	-11.9457
▁hintinn	-11.9463
▁fást	-11.9465
nnel	-11.9468
▁pacáistí	-11.9469
ANTA	-11.9471
▁eachtraí	-11.9476
▁Seana	-11.9476
▁breacachá	-11.9479
▁Fraincis	-11.948
▁margai	-11.9482
▁dréachta	-11.9483
▁Sl	-11.9483
▁Mír	-11.9487
ireachta	-11.9492
▁mheabhr	-11.9497
raenála	-11.9497
▁Doicimé	-11.9499
▁cothaitheach	-11.9499
▁sonró	-11.9499
▁En	-11.9501
▁deonfa	-11.9509
▁gníomhacha	-11.9515
▁máithreacha	-11.9519
▁Réalta	-11.9519
78	-11.953
aiste	-11.9531
▁Caighdeánach	-11.9532
▁foc	-11.9534
atailíte	-11.9535
fhaois	-11.9537
▁grean	-11.955
▁tagarmharc	-11.9552
teaghlach	-11.9553
▁deighilt	-11.9554
▁gcoimeádfa	-11.9554
dath	-11.9557
▁168	-11.9557
ka	-11.9559
▁Meas	-11.9561
gartha	-11.9564
▁siúlóid	-11.9569
ocsaíd	-11.9571
▁nACHT	-11.9572
▁Count	-11.9576
▁Christi	-11.9578
▁Comhairleach	-11.958
▁147	-11.9581
▁Raidi	-11.9583
▁Great	-11.9585
▁dtiocf	-11.9586
cne	-11.9588
▁Hor	-11.959
SU	-11.959
▁bual	-11.959
lár	-11.9591
▁Izmi	-11.9591
▁107	-11.9596
SP	-11.9596
▁Cloí	-11.9598
▁scrúd	-11.9604
▁arbhar	-11.9608
lóige	-11.9614
▁Deimhn	-11.9614
ingne	-11.9615
onad	-11.9619
▁Bliantú	-11.9623
▁Dír	-11.9629
▁Lei	-11.963
iospói	-11.963
▁Media	-11.9631
eascair	-11.9632
▁Chuig	-11.9635
lamháilte	-11.9635
▁éilitheoir	-11.9635
79	-11.9637
▁chui	-11.9638
ever	-11.9641
oileán	-11.9643
áthar	-11.9644
orcaigh	-11.965
▁tomhalta	-11.9652
ullmha	-11.9653
ow	-11.9653
liosta	-11.9656
▁dheonó	-11.9658
▁Móra	-11.9659
▁fhíon	-11.9659
ck	-11.966
ana	-11.9661
AIRT	-11.9662
ala	-11.9665
▁Ceapfa	-11.9667
▁General	-11.9671
áthú	-11.9675
oibríocht	-11.9675
oireachta	-11.9678
▁210	-11.9681
ya	-11.9681
▁Ni	-11.9689
▁Tra	-11.9691
▁thagraí	-11.9695
kV	-11.9695
eoranta	-11.9698
zon	-11.97
aont	-11.9701
▁chosa	-11.9702
óin	-11.9704
▁vótál	-11.9709
76	-11.9712
▁coirn	-11.9713
thaí	-11.9716
▁inphins	-11.9718
made	-11.9719
Moncler	-11.972
Achta	-11.9723
▁pu	-11.9724
▁Thionsca	-11.9725
ble	-11.9728
fhoirgn	-11.9728
▁múinea	-11.9736
▁Achoimr	-11.9737
▁Wal	-11.9737
SI	-11.9739
▁bhraith	-11.9742
com	-11.9742
▁deireana	-11.9746
post	-11.975
▁taraif	-11.975
ov	-11.975
▁Roth	-11.975
ians	-11.9752
▁prá	-11.9752
▁struchtúrach	-11.9752
oz	-11.9757
▁comhleanúnach	-11.9757
▁aithní	-11.9763
▁athar	-11.9763
▁Leathan	-11.9764
▁nóim	-11.9765
▁amú	-11.9766
▁Resu	-11.9776
rance	-11.9777
▁dén	-11.9778
▁Muir	-11.9781
▁dílsi	-11.9783
▁mbaint	-11.9788
▁Beat	-11.9789
▁thionsc	-11.979
oíche	-11.9793
▁Faois	-11.9796
▁Sainmhín	-11.9796
▁mbia	-11.9798
uigh	-11.9798
▁bal	-11.9799
mhéide	-11.9802
▁pi	-11.9807
▁choigeart	-11.9808
ruaig	-11.9808
▁Pho	-11.9816
▁ceangailteach	-11.9817
▁Secon	-11.9818
fíric	-11.9821
scairchaipit	-11.9822
liabh	-11.9824
up	-11.9825
▁breoite	-11.9825
PA	-11.9829
Ó	-11.9829
ved	-11.9829
▁thionscnó	-11.9831
▁mín	-11.9833
▁iniúchóireacht	-11.9835
▁indíreach	-11.9836
▁príobháid	-11.9837
▁port	-11.984
▁lobha	-11.9841
▁Mórdhíol	-11.9844
▁Taifead	-11.9844
ceannasaí	-11.9844
▁ordói	-11.9845
Ghala	-11.9848
▁anti	-11.9849
▁hiomportál	-11.9851
▁taom	-11.9854
▁ghair	-11.986
▁Car	-11.986
▁Déanaim	-11.9862
ICI	-11.9865
cy	-11.9865
▁Buí	-11.9869
▁dhlíthe	-11.9871
▁céannacht	-11.9871
ilíoch	-11.9872
▁chomórta	-11.9873
▁dóchas	-11.9873
▁eisiata	-11.9875
▁buachaill	-11.9876
▁hoscailt	-11.9879
▁Dis	-11.9883
saí	-11.9886
▁Mhúinteoir	-11.9886
▁fóillíocht	-11.9892
▁aistrío	-11.9892
▁náir	-11.9893
▁phearsan	-11.9894
▁Prionsa	-11.9897
▁stampáil	-11.9897
▁230	-11.9897
AÍOCHTA	-11.99
ink	-11.9907
▁chomhartha	-11.9907
▁cistiú	-11.9908
▁dréachtch	-11.9909
▁phátrún	-11.9912
▁neamhfhoirmiú	-11.9914
feadh	-11.9914
▁ardaigh	-11.9914
tháirgí	-11.9916
▁fhaireach	-11.9917
▁Foilseo	-11.9918
▁phróiseála	-11.9918
▁tuairiscí	-11.9924
▁Breathnaío	-11.9926
▁bi	-11.9928
▁bhfíor	-11.9931
▁dtaifead	-11.9934
▁chomhad	-11.9941
▁fair	-11.9951
ournament	-11.9951
▁Hous	-11.9953
▁Inmheána	-11.9953
▁choiscf	-11.9954
IÚ	-11.9954
ities	-11.9955
▁bhfios	-11.996
back	-11.996
▁coigilt	-11.9961
▁luighe	-11.9962
ph	-11.9963
▁101	-11.9964
chuntas	-11.9965
▁scaradh	-11.9968
▁Grianghra	-11.9969
▁AIRGEAD	-11.997
▁Liotuáin	-11.997
▁bróicéir	-11.997
▁watermelon	-11.997
▁dteipf	-11.997
▁plague	-11.997
▁Brunette	-11.997
▁chronomet	-11.997
▁déthaobhach	-11.997
▁Chónaidhm	-11.997
▁Insteall	-11.997
▁thalmhaíocht	-11.997
▁cheardchuma	-11.997
▁maigné	-11.9971
▁gcosantóir	-11.9971
▁saighead	-11.9971
▁puzzle	-11.9971
▁fócas	-11.9971
▁Thaighde	-11.9971
▁dílleachta	-11.9971
dícheall	-11.9972
▁bpaisinéir	-11.9972
▁breithneo	-11.9972
▁Custom	-11.9972
▁buaiteoir	-11.9972
▁Cloch	-11.9973
▁West	-11.9974
▁seoltóir	-11.9975
▁idirthréimhse	-11.9975
áirse	-11.9975
▁gceathrú	-11.9976
▁nuachtlit	-11.9976
enter	-11.9976
▁híomhá	-11.9976
▁dhruga	-11.9976
▁Cuimhnigh	-11.9977
▁pa	-11.9977
isiún	-11.998
leog	-11.998
▁mhothúchá	-11.998
▁litera	-11.9981
▁240	-11.9984
▁seilf	-11.9985
▁Sonró	-11.9985
▁Point	-11.9985
▁Nuálaíocht	-11.9987
▁Déantús	-11.9987
▁Ról	-11.9987
▁Clúda	-11.9989
▁Scaird	-11.9989
▁SAM	-11.9992
▁dhaonra	-11.9994
▁tadhlach	-11.9995
▁idirghníomh	-11.9995
▁Priontáil	-11.9996
▁bhagairt	-11.9996
▁spíosra	-11.9997
▁Thionscada	-11.9997
▁Exc	-11.9998
▁hiarmhairt	-11.9999
chruth	-11.9999
▁Fráma	-12
aobh	-12.0001
comhthimpeallach	-12.0003
▁chéatadá	-12.0005
heilimint	-12.0007
▁Uachtara	-12.0008
▁daoibh	-12.001
▁Photo	-12.001
▁Claus	-12.001
▁theann	-12.0011
▁Breosla	-12.0014
▁Rómhánach	-12.0014
▁Forlíon	-12.0015
▁éagumasa	-12.0015
FRE	-12.0016
▁750	-12.0018
▁Dífhostaíocht	-12.0019
▁carthana	-12.0021
▁mola	-12.0021
field	-12.0023
▁thruailli	-12.0025
ráitea	-12.0027
▁tosaío	-12.0027
▁díon	-12.0028
▁John	-12.0029
▁arrow	-12.003
oiliúna	-12.0032
▁meascth	-12.0032
▁miracle	-12.0032
▁Cinnteoi	-12.0032
▁alcaileach	-12.0033
▁dhigit	-12.0033
▁IARSCRÍBHINN	-12.0033
▁featha	-12.0033
▁Industrie	-12.0033
▁BBC	-12.0034
▁bheartó	-12.0035
▁dhiúlta	-12.0035
▁cnuas	-12.0036
▁grada	-12.0037
▁huibhe	-12.0038
MU	-12.0039
▁chomóra	-12.004
arm	-12.004
▁TFC	-12.0041
▁Hi	-12.0041
antar	-12.005
▁tháill	-12.0051
▁grán	-12.0051
▁Thoghchá	-12.0051
▁paisean	-12.0052
▁mbeife	-12.0054
▁USD	-12.0055
▁prótaca	-12.0057
▁tiúchan	-12.0057
chríochnaitheach	-12.0058
▁sliotá	-12.0061
úd	-12.0061
Is	-12.0063
BAN	-12.0064
▁thr	-12.0064
▁seachtó	-12.0066
ppy	-12.0067
▁Eitilt	-12.0072
ella	-12.0073
▁phláiné	-12.0074
▁coincréit	-12.0074
▁Comhlíon	-12.0076
▁gcúins	-12.008
▁eiseachad	-12.0081
▁theagasc	-12.0082
▁Caiteacha	-12.0083
06	-12.0084
▁airbheart	-12.0084
▁imscar	-12.0085
▁Fógraíocht	-12.0087
town	-12.0092
▁Phlean	-12.0092
ardaithe	-12.0096
▁IOMPA	-12.0097
▁páirte	-12.0098
▁ndaingneo	-12.0099
▁ghéar	-12.0102
▁129	-12.0104
▁séadchomhartha	-12.0104
▁ghluaisteá	-12.0105
▁martha	-12.0105
▁cónasca	-12.0108
leanna	-12.0109
▁rub	-12.011
▁híoca	-12.011
utter	-12.0114
▁chl	-12.0115
▁Ceannasaí	-12.0116
▁séarach	-12.0117
▁Cust	-12.0118
teanna	-12.0118
▁cartlann	-12.0119
▁aithn	-12.012
▁Teachtaireachta	-12.0121
men	-12.0122
▁tob	-12.0124
▁urghabh	-12.0124
▁teileafón	-12.0128
eistí	-12.0131
▁EUROS	-12.0131
▁Teoran	-12.0138
HUR	-12.0138
▁molaim	-12.0139
íomhaoin	-12.0141
▁thiarna	-12.0147
▁ghéillea	-12.0147
▁chúise	-12.0148
ontent	-12.0149
▁bhfeidhmeo	-12.0151
▁teid	-12.0151
shocrú	-12.0151
formheasta	-12.0152
▁chabhr	-12.0153
▁neamhth	-12.0158
wood	-12.016
▁Soláthró	-12.0163
▁Liostaí	-12.0164
▁Marine	-12.017
▁cónaitheoir	-12.017
▁133	-12.017
▁thrasn	-12.0171
▁Trasfhoirmeo	-12.0172
▁Faireachá	-12.0174
Aireachta	-12.0179
chóras	-12.018
▁script	-12.0181
▁chirt	-12.0183
▁Díchoi	-12.0185
othabhála	-12.0185
▁Jes	-12.0186
▁preas	-12.0188
▁guí	-12.0191
▁1-2	-12.0192
▁bhfola	-12.0195
iorrú	-12.0197
▁turraing	-12.0201
▁extra	-12.0204
▁rothlach	-12.0206
▁Feisir	-12.0208
▁Uachtará	-12.0212
▁table	-12.0215
▁chrua	-12.0217
▁gceap	-12.0219
▁chrann	-12.0219
guisín	-12.022
▁chóipeá	-12.022
▁áitritheoir	-12.0222
▁Stampa	-12.0225
▁díospóireachta	-12.0228
▁plat	-12.0229
▁chomharba	-12.0231
▁Mag	-12.0238
▁triomach	-12.0238
ntas	-12.0239
▁greamaitheach	-12.0239
ham	-12.024
▁Medi	-12.0242
▁tiocfa	-12.0245
éilí	-12.0245
▁RF	-12.0246
IC	-12.0246
▁scratche	-12.0249
fhorléir	-12.025
ithreach	-12.0251
▁hi	-12.0251
▁Rinnea	-12.0252
▁greann	-12.0257
▁Aimsi	-12.026
▁meon	-12.0262
▁chumhd	-12.0262
▁aicíd	-12.0266
▁Ki	-12.0266
▁fan	-12.0268
▁laghda	-12.0271
ory	-12.0274
▁Feidhme	-12.0278
▁Ka	-12.0281
gadh	-12.0281
LO	-12.0289
▁deise	-12.0291
olrú	-12.0292
▁Ros	-12.0295
▁Rialach	-12.0298
chumann	-12.0301
▁Fho	-12.0303
▁muiníne	-12.0307
RÉIMH	-12.0308
▁Soch	-12.0308
▁Bhun	-12.0311
craiceann	-12.0311
▁fheithicl	-12.0312
▁léitheoireacht	-12.0312
▁Samha	-12.0315
▁MA	-12.0316
▁Oll	-12.0317
ogall	-12.0319
mb	-12.032
▁fáltai	-12.0321
▁Gabh	-12.0328
▁Print	-12.0331
▁iontaofacht	-12.0332
▁komisi	-12.0333
▁Cheat	-12.0335
▁dtógfa	-12.0339
▁Tosaío	-12.0344
UBLI	-12.0344
EAL	-12.0346
ipéid	-12.0347
Eagraíochta	-12.035
▁acmhainneacht	-12.0357
ess	-12.036
▁Oirthear	-12.0363
▁fhisiciú	-12.0366
▁Tois	-12.0371
▁LEANA	-12.0371
hold	-12.0374
▁bhreathn	-12.0374
▁meisc	-12.0375
▁Laeth	-12.0378
▁iostá	-12.0383
▁tiomna	-12.0383
▁hack	-12.0383
▁Theach	-12.0385
▁áireamhacht	-12.0386
▁stiúrth	-12.0387
úsáidfea	-12.0391
▁clárath	-12.0397
▁aireagá	-12.0397
▁diúltaío	-12.0398
▁maithe	-12.0404
NACH	-12.0407
▁Stiúrthóireacht	-12.0408
anáil	-12.0408
▁Tiontai	-12.0411
eum	-12.0415
▁Tre	-12.0416
▁Chomhar	-12.0417
osaint	-12.0418
▁gcailltea	-12.0429
▁buicé	-12.043
lorida	-12.0433
ti	-12.0434
▁Ceanada	-12.0437
▁chineá	-12.0438
▁hollscoile	-12.0446
▁tso	-12.0447
gar	-12.0448
▁FC	-12.0453
láithreacht	-12.0454
▁deo	-12.0455
rón	-12.0456
áistreás	-12.0461
eagrú	-12.0462
Ealaíona	-12.0463
OTI	-12.0465
úra	-12.0468
▁bhfeirm	-12.0471
▁STA	-12.0472
▁dhéanmha	-12.0474
▁tarchuir	-12.0474
▁Gníomhach	-12.0476
icéid	-12.0481
▁dearc	-12.0482
óipcheart	-12.0482
▁ndeir	-12.0486
▁bailithe	-12.0489
dach	-12.049
▁hiarrata	-12.049
▁Dhíol	-12.049
éifeachtach	-12.0491
▁gceapa	-12.0493
▁frithghníomh	-12.0495
ram	-12.0495
▁silic	-12.0497
▁Hon	-12.0497
▁scag	-12.0497
▁ceannai	-12.0499
▁Dú	-12.0506
▁Fire	-12.0509
▁Ligean	-12.0511
▁áiti	-12.0512
▁Bá	-12.0513
▁dáile	-12.0516
▁chlúda	-12.0518
▁Socr	-12.0518
▁foraois	-12.0522
▁chumai	-12.0523
ony	-12.0524
▁iarratasó	-12.0529
▁Plus	-12.053
ack	-12.0534
▁mótar	-12.0536
▁Fast	-12.0537
▁tua	-12.0537
▁trans	-12.0537
▁Sprioc	-12.0539
óil	-12.0539
▁forlíon	-12.0539
atáin	-12.054
▁ndeis	-12.0541
▁dhíchu	-12.0541
hronograph	-12.0543
▁Lárna	-12.0545
Oileá	-12.0549
▁al	-12.055
ualainn	-12.0553
aisghairt	-12.0553
▁poil	-12.0554
tréithe	-12.0554
▁dTeanga	-12.0556
▁Praghs	-12.0556
ED	-12.0562
▁Eco	-12.0564
▁spleácha	-12.057
▁easportála	-12.0572
▁ceartú	-12.0575
bo	-12.0576
▁tuismitheo	-12.058
lóga	-12.0589
▁stró	-12.0595
▁seirbheálfa	-12.0596
▁cheanna	-12.0603
▁dinimic	-12.0603
▁réalt	-12.0608
PAR	-12.0609
▁geallta	-12.061
bhanna	-12.0611
caire	-12.0616
phing	-12.0617
▁scraga	-12.0619
leamh	-12.0621
od	-12.0622
-30	-12.0623
▁Cláraithe	-12.0626
▁iarrt	-12.0629
nc	-12.0637
▁bhunacha	-12.0639
▁thacaío	-12.0643
▁stua	-12.0648
▁Work	-12.0651
▁186	-12.0658
▁LC	-12.0659
Daonlathai	-12.0662
▁tharchuir	-12.0662
AIGH	-12.0663
▁UNE	-12.0667
▁Fó	-12.0668
achar	-12.0668
▁Chaith	-12.067
▁shlán	-12.0672
▁tréigthe	-12.0678
mo	-12.068
▁barraí	-12.0682
▁Ceada	-12.0684
▁ngearr	-12.0686
▁alla	-12.0688
tage	-12.069
▁dtóg	-12.0698
▁saibhre	-12.07
zmir	-12.0702
▁frása	-12.0707
▁hOifig	-12.0707
▁oid	-12.0708
oic	-12.0709
j	-12.071
▁feabhs	-12.071
cheannta	-12.0711
▁Masturbati	-12.072
▁gcom	-12.0721
pc	-12.0722
▁Spy	-12.0722
▁fuascailt	-12.0722
▁cairé	-12.0731
deanna	-12.0731
▁Réad	-12.0732
rinnscrúdú	-12.0732
▁Sho	-12.0733
▁fhéad	-12.0737
airí	-12.0737
▁aontaithe	-12.0738
TUA	-12.0739
▁foirme	-12.074
▁gcomhaontó	-12.0742
▁LEAS	-12.0743
▁dúra	-12.0746
▁leictrea	-12.0747
▁America	-12.0748
bhliain	-12.0748
▁Fiber	-12.0748
phone	-12.0752
▁cleas	-12.0753
óiteáin	-12.0757
tapa	-12.076
▁Copernicus	-12.0761
▁dramhaí	-12.0762
▁alia	-12.0763
leithead	-12.0763
▁him	-12.0765
cháilíocht	-12.0765
▁éistf	-12.0768
▁méadófa	-12.0768
▁saotharla	-12.0768
▁Domha	-12.0769
▁cannaba	-12.0769
mhorgáiste	-12.0769
lín	-12.077
únas	-12.0774
▁nglact	-12.0779
▁barántúla	-12.078
dha	-12.078
éar	-12.078
▁vid	-12.0786
▁BIA	-12.0791
iontráil	-12.0793
▁Je	-12.0798
▁GA	-12.0801
▁bhfoghlaim	-12.0803
Oispidé	-12.0803
▁Séadchomhartha	-12.0803
▁language	-12.0803
▁prostitute	-12.0803
▁rómánsú	-12.0803
▁sreinge	-12.0803
▁Metropoli	-12.0803
▁Nigéir	-12.0803
▁SOLÁTHA	-12.0803
▁Thiobra	-12.0803
▁bhreosla	-12.0803
▁Messenger	-12.0803
▁Journ	-12.0804
▁SAOR	-12.0804
▁Anatolia	-12.0804
▁uala	-12.0804
▁Chonaic	-12.0804
▁céimshria	-12.0804
▁Airport	-12.0804
▁Traidisiú	-12.0804
▁dtráthchoda	-12.0804
▁feicfi	-12.0805
▁cúcama	-12.0805
▁nArm	-12.0805
▁amóinia	-12.0805
▁People	-12.0805
▁TEO	-12.0805
▁Comhairlitheach	-12.0806
mháin	-12.0806
▁Baincéireacht	-12.0806
▁bPoblacht	-12.0807
▁Magic	-12.0807
▁ciúb	-12.0807
▁Suiteáil	-12.0808
▁Araíonacht	-12.0808
▁Cásca	-12.0809
▁Críochnaío	-12.0809
▁Pláta	-12.0809
▁gCéad	-12.0809
oth	-12.0809
NUM	-12.0809
aoide	-12.0809
mbrí	-12.0809
▁theachtaireacht	-12.0809
▁Thoir	-12.0809
▁grill	-12.081
▁iomadúla	-12.0811
roim	-12.0813
▁Well	-12.0813
▁gconartha	-12.0813
▁chéadluaite	-12.0813
▁fhoilseo	-12.0813
▁Hry	-12.0814
fhoirgniú	-12.0815
▁Cóipcheart	-12.0816
▁gcliant	-12.0816
únant	-12.0817
▁PR	-12.0817
▁masc	-12.0819
▁tuillte	-12.0819
▁fiuch	-12.082
▁tógfa	-12.0821
▁Enact	-12.0822
stoc	-12.0823
▁Skill	-12.0823
▁bhranda	-12.0824
RP	-12.0824
▁Scáth	-12.0824
▁sceid	-12.0825
▁eitic	-12.0825
▁mhargaíocht	-12.0826
▁Athchomhair	-12.0827
▁Brúigh	-12.0827
▁Eisea	-12.0828
siombail	-12.0828
▁hiomlá	-12.0828
▁fhéimheach	-12.083
▁chomhiomlán	-12.0831
▁dTiarna	-12.0833
▁thromchúiseach	-12.0833
▁bhfeiste	-12.0833
▁idirmheánach	-12.0834
▁Comór	-12.0836
16	-12.0838
actus	-12.0838
imniú	-12.0841
fiber	-12.0842
▁chríochn	-12.0844
▁contaebhuirg	-12.0844
caí	-12.0847
▁fhéich	-12.0847
achtachá	-12.0848
bhanda	-12.0851
▁shaighdiúir	-12.0851
ooth	-12.0854
dia	-12.0855
▁Store	-12.0855
▁Vote	-12.0856
son	-12.0857
tán	-12.0858
▁hiodrálach	-12.0858
▁PAR	-12.086
▁Cothabháil	-12.0861
▁tíolactha	-12.0861
▁dtéa	-12.0861
▁102	-12.0863
▁comórta	-12.0864
▁dáilcheanta	-12.0865
▁Rialta	-12.0865
Bhunscoileanna	-12.0866
▁pop	-12.0868
▁Rannpháirtíocht	-12.0869
liste	-12.0869
▁ECRIS	-12.0869
▁145	-12.087
▁FEIDHMIÚ	-12.087
▁Dioplóma	-12.087
▁seana	-12.0872
83	-12.0874
▁clúd	-12.0877
raíocht	-12.0877
▁MEASÚN	-12.0877
▁Hood	-12.0878
▁Puls	-12.0879
ost	-12.0879
▁Fás	-12.088
ek	-12.0886
▁Shot	-12.0886
éascó	-12.0889
▁shúile	-12.089
▁healaíontóir	-12.0892
▁clói	-12.0892
fhor	-12.0893
▁Íomhá	-12.0895
▁gCríost	-12.0896
▁cheadún	-12.0896
▁ghaol	-12.0896
▁ardaitheoir	-12.0896
▁iontaoibhe	-12.0897
▁folu	-12.0898
▁bhfiach	-12.09
▁dintiúir	-12.09
▁Suck	-12.0902
▁cigir	-12.0902
▁112	-12.0905
leathan	-12.0908
▁príomháit	-12.091
▁Forlíontach	-12.0911
eanach	-12.0916
▁pacáistithe	-12.0916
▁bhradá	-12.0917
ól	-12.0919
▁Cam	-12.0919
▁Bhreithe	-12.0921
▁109	-12.0922
apór	-12.0924
▁Lún	-12.0928
▁ABC	-12.0929
▁buachaillí	-12.093
▁leaisteacha	-12.0931
▁Cíoch	-12.0931
▁liopa	-12.0934
▁105	-12.0936
íocháin	-12.0936
mp	-12.0938
iarrfa	-12.0939
ot	-12.094
reb	-12.0941
▁Modúl	-12.0943
▁Paint	-12.0945
▁Deartha	-12.0947
▁sult	-12.0949
▁fos	-12.0949
▁bhunaithe	-12.0949
treet	-12.0951
genda	-12.0951
▁eagna	-12.0952
boilgeog	-12.0953
88	-12.0954
▁Lascain	-12.0956
▁grafach	-12.0956
▁búcla	-12.0958
ásann	-12.096
thaigh	-12.096
▁bhonneaga	-12.096
▁ur	-12.096
▁dTeaghla	-12.096
▁breoiteacht	-12.0965
▁duillín	-12.0965
acmhainn	-12.0968
▁deif	-12.0969
treacha	-12.0969
▁potais	-12.0971
▁tonna	-12.0972
oise	-12.0974
úide	-12.0977
▁airnéis	-12.0979
▁Chomhlacha	-12.0984
ionsaithe	-12.0985
▁thaispeánfa	-12.0986
twork	-12.099
▁lomhá	-12.0991
▁Pas	-12.0997
isgint	-12.0997
lán	-12.0999
úin	-12.1
▁sea	-12.1001
▁Rose	-12.1002
▁phainé	-12.1002
▁Feithicl	-12.1004
▁Suim	-12.1008
▁leantach	-12.1013
▁net	-12.1017
ardchaighdeá	-12.1017
▁Breathn	-12.1019
▁faci	-12.1021
▁Státch	-12.1022
bhirt	-12.1024
▁comhnaithe	-12.1024
ical	-12.1024
▁alo	-12.1025
▁tent	-12.1025
▁insteall	-12.1029
▁Phreas	-12.1031
rán	-12.1032
▁uisc	-12.1032
▁paidr	-12.1032
▁thiomáin	-12.1032
FAR	-12.1035
▁Meta	-12.1036
▁Scrios	-12.1036
▁mharg	-12.1038
▁Bhean	-12.104
▁giúiré	-12.1041
▁chabh	-12.1041
amine	-12.1043
▁DH	-12.1043
▁iom	-12.1044
▁Pe	-12.1044
▁Support	-12.1045
▁Bhótha	-12.1045
úinéireacht	-12.1047
dá	-12.1054
orie	-12.1056
▁chaighdeá	-12.1057
▁breithiún	-12.1058
Baile	-12.1061
cúram	-12.1062
aifid	-12.1062
chini	-12.1063
próiseáilte	-12.1065
▁radha	-12.1066
▁fholúnta	-12.1067
páipéar	-12.107
-70	-12.1071
▁forai	-12.1072
ray	-12.1072
▁Leictreonach	-12.1073
reibh	-12.1073
▁iomp	-12.1074
▁Ul	-12.1079
▁gceadaí	-12.1079
▁athghairm	-12.1081
▁bratach	-12.1082
ration	-12.1083
▁Won	-12.1089
▁Athghairm	-12.1092
theangacha	-12.1095
▁Comórta	-12.1098
▁chumhrá	-12.1101
▁shaothar	-12.1106
▁cosá	-12.1109
▁trioblóid	-12.111
ney	-12.1112
▁gcoda	-12.1114
▁Tomhais	-12.1114
onta	-12.1114
▁Forba	-12.1115
áirgí	-12.1117
▁Iomp	-12.1119
▁cab	-12.1119
▁chomhchuibh	-12.1121
▁atreor	-12.1122
▁dtionscna	-12.1124
ONTAIS	-12.1127
dac	-12.1128
orbhreathn	-12.1128
▁Bhea	-12.1133
▁fhaid	-12.1135
▁bail	-12.1136
▁Tollá	-12.1137
▁phríomhoifig	-12.1139
oimeádán	-12.1143
CB	-12.1144
ainmheach	-12.1145
VI	-12.1145
▁Slán	-12.1146
▁mbeif	-12.1147
▁CAD	-12.115
70	-12.1152
▁gContae	-12.1153
hosmálta	-12.1154
▁Sub	-12.1155
orann	-12.1159
▁bearna	-12.1161
▁Aud	-12.1162
▁Garci	-12.1162
tuismitheo	-12.1164
▁ionadaíoch	-12.1166
▁díoltó	-12.1167
▁comhard	-12.1168
íteas	-12.1168
▁gColáist	-12.1174
▁scé	-12.1176
▁Atlanta	-12.1178
bhliana	-12.1181
▁comhpháirtí	-12.1185
▁maisiúchá	-12.1185
▁scrúdaithe	-12.1185
▁rothaíocht	-12.1186
fi	-12.1187
▁réiti	-12.1187
▁Iontaobha	-12.1189
▁mona	-12.1194
▁Ball	-12.1194
▁gual	-12.1196
▁bolg	-12.1198
healú	-12.1199
▁capaill	-12.12
bheag	-12.12
▁urraithe	-12.1202
ghal	-12.1204
▁Ves	-12.1204
▁iniúchó	-12.1205
Dún	-12.1207
▁ceirmeach	-12.1207
aontóid	-12.1209
▁lom	-12.1213
CC	-12.1215
ASH	-12.1216
rÃ	-12.1219
oimisiún	-12.1223
cnaipe	-12.1224
ties	-12.1227
▁TL	-12.1232
llraí	-12.1234
cum	-12.1234
▁Oibrithe	-12.1237
mon	-12.1239
insí	-12.124
▁pholl	-12.1243
▁pun	-12.1243
úir	-12.1246
lin	-12.1252
▁chonsalacht	-12.1255
gheall	-12.126
▁NUA	-12.1266
▁Tax	-12.1266
eagaisc	-12.1266
uidéal	-12.1269
▁císt	-12.1271
▁hais	-12.1274
▁áirithint	-12.1277
▁téamh	-12.1278
ideal	-12.128
itheann	-12.1283
▁uasmhéad	-12.1284
mhdhéanta	-12.1284
▁thuairisceá	-12.1286
▁críochnaío	-12.1289
-5	-12.1291
▁coiscthe	-12.1298
▁éilitheo	-12.1303
▁húsáide	-12.1307
das	-12.1307
▁ÁBHAR	-12.1309
▁thógála	-12.1311
dhaonna	-12.1312
▁críochn	-12.1316
faoi	-12.1317
hionann	-12.1324
ier	-12.133
▁Top	-12.1331
KB	-12.1331
▁cothú	-12.1333
streach	-12.1334
▁Sing	-12.1334
▁sreanga	-12.1337
oder	-12.1337
▁meath	-12.1338
▁iontaobh	-12.1338
▁Chuma	-12.1339
úr	-12.1342
▁ullmhóid	-12.1344
bair	-12.1344
▁tionsc	-12.1347
▁hainmh	-12.1351
chruinn	-12.1352
▁athchomhair	-12.1354
▁acmhainne	-12.1355
▁cheol	-12.1357
▁Imir	-12.1359
▁gcultú	-12.1359
▁saineolaí	-12.1362
▁Cló	-12.1366
▁pluma	-12.1367
iúchán	-12.1368
▁Ghla	-12.1377
▁altrana	-12.138
íscaoilte	-12.1382
▁cnámha	-12.1384
▁áiritheo	-12.1384
▁Shi	-12.1392
▁eoch	-12.1397
AT	-12.1397
▁hAlb	-12.1398
▁Par	-12.14
03	-12.1403
ainmhí	-12.1404
▁Caol	-12.1405
▁Mer	-12.1406
ming	-12.1416
ithní	-12.1416
▁bréag	-12.1418
EU	-12.1422
rith	-12.1429
leagan	-12.143
▁bhrat	-12.1432
▁laghdó	-12.1433
▁bhfarraig	-12.1434
▁Aracha	-12.1436
▁Río	-12.1438
▁Loch	-12.1438
▁Dr	-12.1439
▁Sinseara	-12.144
▁dúr	-12.1442
▁dtosaío	-12.1445
irte	-12.1453
▁Direct	-12.1453
▁iomarca	-12.1454
▁tais	-12.1456
▁oideas	-12.1456
▁Fiche	-12.1457
US	-12.1459
▁Seas	-12.1465
▁251	-12.1467
▁slait	-12.147
▁Cath	-12.1472
▁Breithiún	-12.1473
vni	-12.1477
▁hainmniú	-12.1477
▁foraoiseacht	-12.1478
▁deighleálfa	-12.1478
▁Green	-12.1482
▁chríochna	-12.1483
ghnéithe	-12.1483
-100	-12.1484
▁pic	-12.1487
▁Anti	-12.1488
▁hAon	-12.1489
▁ngearán	-12.1495
hinking	-12.1496
riachtanais	-12.1497
▁cadhn	-12.1499
▁Eochair	-12.151
ifríocht	-12.151
▁inimirce	-12.1517
iosta	-12.1517
▁Bitc	-12.1517
▁gcorp	-12.1517
▁Plann	-12.1517
▁mhéada	-12.152
▁Rannpháirt	-12.152
olas	-12.1523
▁chompord	-12.1524
▁feic	-12.1528
▁Airí	-12.1529
▁fhó	-12.1536
▁cineá	-12.1541
▁mharc	-12.1543
húdarás	-12.1543
▁misin	-12.1543
taithí	-12.1548
SPORTS	-12.1554
abraic	-12.1558
▁202	-12.156
▁2014-	-12.1567
tus	-12.1569
▁tarraingío	-12.1578
▁caorach	-12.1579
BS	-12.158
▁117	-12.1581
gairdín	-12.1581
ho	-12.1582
▁inacmhainne	-12.1586
nill	-12.1587
sásta	-12.1587
tógtha	-12.1588
Iaráin	-12.1589
▁arda	-12.159
▁spéise	-12.1591
ans	-12.1602
▁dúth	-12.1604
▁Pacáisti	-12.1605
foirt	-12.1605
MAT	-12.1608
▁úda	-12.1609
▁caoin	-12.1611
▁Maoin	-12.1613
▁labhraío	-12.1613
earmad	-12.1617
▁athshlánú	-12.1621
▁bharracha	-12.1622
▁ghlacfaid	-12.1622
cele	-12.1623
cóirí	-12.1623
▁Ioma	-12.1624
▁neamhréir	-12.1628
▁Páirceá	-12.163
▁chalaois	-12.1631
▁hainmne	-12.1633
fuirm	-12.1635
▁spot	-12.1637
▁Cruthú	-12.164
▁hidirbhearta	-12.1641
▁saoirs	-12.1644
ering	-12.1644
ks	-12.1646
▁rannpháirteacha	-12.1647
▁Sport	-12.1647
▁vacsaín	-12.165
▁Micro	-12.1652
▁Wa	-12.1652
▁Próise	-12.1656
▁he	-12.1659
▁ór	-12.166
▁cheadaí	-12.1661
▁Ocht	-12.1664
▁bhfostaí	-12.1664
▁phríobháid	-12.1669
▁Glao	-12.1671
Oideachas	-12.1672
▁Cruinne	-12.1674
holáiste	-12.1675
▁Eur	-12.1676
▁reilig	-12.1676
▁féinfhosta	-12.1679
▁nb	-12.1683
▁Í	-12.1685
▁dtaisc	-12.1687
▁Buisé	-12.1687
▁athraitheach	-12.1688
41	-12.1693
▁gcinnea	-12.17
▁teo	-12.1701
▁142	-12.1702
mplifier	-12.1702
▁Tuig	-12.1705
▁lóistí	-12.1706
▁bhronntana	-12.1709
▁dhíobhála	-12.1711
▁Org	-12.1711
mhiotal	-12.1711
MHEÁNACH	-12.1712
▁Cucumber	-12.1712
▁Próifíl	-12.1712
▁RÉIGIÚN	-12.1712
▁STIÚRTHÓIREACHT	-12.1712
▁bithmhéadrach	-12.1712
▁Muslim	-12.1712
▁fashion	-12.1712
▁splanc	-12.1712
▁finscéal	-12.1713
▁Shasana	-12.1713
▁flesh	-12.1713
▁hidreacarbó	-12.1713
▁Ceardlann	-12.1713
▁Louboutin	-12.1713
▁System	-12.1713
▁Tréidliacht	-12.1713
▁chló	-12.1713
▁Dliteana	-12.1713
▁wonder	-12.1713
RAITH	-12.1713
▁Dhubh	-12.1713
▁phréimh	-12.1713
▁Financial	-12.1713
▁neamhorgánach	-12.1713
▁nGarda	-12.1713
▁phríosúntacht	-12.1714
▁Rechargeable	-12.1714
▁Theicn	-12.1714
▁Oirth	-12.1714
▁ndealraí	-12.1714
▁sciála	-12.1715
▁Peter	-12.1715
▁maighdean	-12.1715
▁Gobharnóir	-12.1715
▁Grey	-12.1715
▁retro	-12.1716
▁comhuaineach	-12.1716
▁gcampa	-12.1716
▁ngnólacht	-12.1716
▁chonclúid	-12.1717
▁múirín	-12.1717
▁gallúnach	-12.1717
▁Share	-12.1717
manna	-12.1718
▁Léirmheas	-12.1718
▁teirminé	-12.1718
▁Cócaireacht	-12.1718
▁iomaitheoir	-12.1718
▁dlíodóir	-12.1719
▁hAoi	-12.1719
House	-12.1719
▁Sasana	-12.1719
▁capall	-12.172
▁hítim	-12.172
▁bídeach	-12.1722
▁bpróiseáil	-12.1723
▁Grád	-12.1723
▁Thalmhaíocht	-12.1724
▁PrÃ	-12.1724
▁calorie	-12.1725
▁inphionó	-12.1726
▁fhoriomlán	-12.1728
óigh	-12.1728
▁Séaracha	-12.1729
▁mionlach	-12.1729
▁mbaile	-12.1731
táil	-12.1731
▁fhiáin	-12.1732
Sheirbhís	-12.1732
▁Chánach	-12.1732
▁Pure	-12.1733
▁mheasca	-12.1734
▁staighr	-12.1734
▁léireo	-12.1735
▁Sonrú	-12.1735
▁Rásaíocht	-12.1735
▁gCairt	-12.1736
▁marcál	-12.1736
▁gceird	-12.1736
▁ndliteana	-12.1736
▁fóirdheonta	-12.1738
▁Dualgais	-12.1739
▁KB	-12.1739
▁Law	-12.1741
stóras	-12.1741
▁simpl	-12.1742
▁thrian	-12.1742
▁1909	-12.1744
TUAIRIM	-12.1744
▁IMEACHTA	-12.1745
▁Lámhleabha	-12.1749
▁Fisher	-12.1751
▁Sreang	-12.1753
▁cadá	-12.1754
▁Logainm	-12.1757
▁acadúla	-12.1757
▁teora	-12.1758
▁colaistéaró	-12.1759
▁Comhéada	-12.1761
▁Centre	-12.1762
▁will	-12.1763
▁seolfa	-12.1763
chtála	-12.1763
▁thrácht	-12.1763
▁oigh	-12.1763
▁CHOIMISIÚ	-12.1764
▁sléibhte	-12.1764
chaint	-12.1765
▁fhónta	-12.1766
▁éagobhsaí	-12.1766
▁Bainc	-12.1769
tub	-12.1771
ivas	-12.1771
▁Meastachá	-12.1772
▁aontacha	-12.1774
▁loigh	-12.1775
ctor	-12.1776
▁Reachtaíocht	-12.178
▁winter	-12.1782
cháilíochta	-12.1784
hlóga	-12.1784
▁earcaíocht	-12.1785
▁húsáidte	-12.1785
oblagáid	-12.1786
▁fhairsing	-12.1786
▁choimisinéir	-12.1786
nphrionsa	-12.1787
sm	-12.1788
▁gabháltais	-12.1789
▁pónair	-12.1789
artlann	-12.179
▁méadó	-12.1791
▁cliaint	-12.1791
loine	-12.1792
▁spraeála	-12.1792
eastá	-12.1792
▁taos	-12.1792
981	-12.1792
▁diaibéitea	-12.1793
▁baintreach	-12.1793
fhreagair	-12.1795
▁Smart	-12.1795
▁Dhe	-12.1797
rionglóid	-12.1797
▁cúntóir	-12.18
▁Nice	-12.18
▁col	-12.1801
▁mbreis	-12.1802
▁With	-12.1802
▁drámaí	-12.1803
▁Suas	-12.1803
▁256	-12.1804
leictreach	-12.1804
▁Comis	-12.1806
▁fabhraí	-12.1806
▁athmhúnl	-12.1808
▁Tith	-12.1809
▁Inneall	-12.181
róiseas	-12.1812
▁Ne	-12.1813
hrúpa	-12.1819
49	-12.1819
▁coimhlint	-12.1819
▁éabhlóid	-12.1822
▁éifeachtúla	-12.1823
▁bochtaineacht	-12.1823
▁páirtnéir	-12.1824
▁dtoil	-12.1826
▁Feidhmíocht	-12.1835
▁pc	-12.1835
▁choláiste	-12.1836
▁iarrthach	-12.1836
▁institiúideach	-12.1841
▁mbailiúchá	-12.1842
▁Chl	-12.1842
▁bailitheoir	-12.1842
▁Comhroinn	-12.1843
▁main	-12.1843
▁rialaitheo	-12.1844
rab	-12.1844
▁phláta	-12.1849
▁Teen	-12.1849
▁Póilíneacht	-12.185
▁SOCR	-12.1853
atharn	-12.1855
iúlacht	-12.1855
▁Ceirde	-12.1855
▁carthanú	-12.1855
▁Saincheap	-12.1856
gC	-12.1857
▁gu	-12.1857
fhoils	-12.186
▁Tús	-12.1861
áirmhí	-12.1861
ghabhálach	-12.1869
MÉAD	-12.1871
▁Breiseá	-12.1871
coin	-12.1875
ídiú	-12.1877
▁Bhárda	-12.1882
▁War	-12.1882
▁ndáilchean	-12.1883
▁Music	-12.1883
íonachta	-12.1885
range	-12.1885
▁doirtea	-12.1886
▁mhealla	-12.189
aught	-12.1891
▁clé	-12.1892
▁Seachtrach	-12.1892
▁coimirce	-12.1893
▁hachomhair	-12.1895
▁Roghn	-12.1897
▁néaróg	-12.1901
▁Imeacht	-12.1902
▁daoi	-12.1905
easa	-12.1908
ómhar	-12.1908
▁CBT	-12.1908
▁ullamh	-12.1913
▁threorach	-12.1914
Pal	-12.1918
ua	-12.192
tabhairt	-12.1922
thbhunú	-12.1923
▁Maoiniú	-12.1926
▁fheachta	-12.1926
▁buna	-12.1927
▁belo	-12.1929
▁Comhacht	-12.193
ze	-12.1933
▁LÉ	-12.1933
▁ionrach	-12.1933
astáil	-12.1939
igheann	-12.1945
laíochta	-12.1945
▁Mótarchá	-12.1947
▁Teaghlach	-12.1949
▁LG	-12.195
ssess	-12.1951
▁aimín	-12.1951
▁ardcháilíocht	-12.1954
▁Ju	-12.1958
▁dtrádála	-12.1959
dhlúit	-12.196
cáil	-12.196
don	-12.196
▁maighnéadach	-12.1963
▁tre	-12.1963
▁fhuaim	-12.1964
illeacht	-12.1969
▁Rev	-12.1971
bar	-12.1971
▁thárl	-12.1972
rtaithe	-12.1973
labhra	-12.1974
lfar	-12.1976
▁Tigh	-12.1976
Tá	-12.1977
▁leictreona	-12.198
▁aisti	-12.1982
dáin	-12.1983
▁Comha	-12.1985
▁tuar	-12.1986
sburg	-12.1989
▁spreagtha	-12.1989
▁heisia	-12.1992
▁Molaim	-12.1993
seach	-12.2002
ps	-12.2003
▁dinimiciú	-12.2004
▁náire	-12.2005
▁tuarasc	-12.2007
▁360	-12.2011
▁mhórbheala	-12.2011
▁RA	-12.2012
▁chuóta	-12.2014
vigation	-12.2016
▁teastas	-12.2019
aontu	-12.2021
▁ID	-12.2021
MA	-12.2023
▁idirghabhá	-12.2026
▁Jun	-12.2026
astáin	-12.2029
▁Togh	-12.2029
min	-12.203
▁geilleaga	-12.203
eintit	-12.2039
▁bocht	-12.2043
▁tearma	-12.2045
▁thionóntacht	-12.2045
▁páirceá	-12.2046
▁amh	-12.2047
▁expe	-12.2049
chain	-12.2055
▁filíocht	-12.2056
obháide	-12.2056
▁gceapfa	-12.2056
▁clamp	-12.206
▁iompórtáil	-12.2061
▁trian	-12.2067
hur	-12.2067
02	-12.207
▁Eagraío	-12.207
óiríocht	-12.2071
▁Lea	-12.2072
km	-12.2073
weight	-12.2073
▁ciontóir	-12.2074
▁tuaslagá	-12.2074
▁Éifeacht	-12.2078
▁féidearthacht	-12.2078
▁gCuma	-12.2081
▁tsealbhó	-12.2081
gp	-12.2081
▁íosmhéid	-12.2081
▁Cos	-12.2081
si	-12.2083
bed	-12.2085
▁Cíos	-12.2087
▁TIONSCA	-12.2088
▁Leabai	-12.2089
▁Príomhfh	-12.209
▁Nik	-12.2093
▁bhreithe	-12.2093
our	-12.2094
IDA	-12.2103
▁dhúshlá	-12.2109
▁Mín	-12.211
▁Jo	-12.211
▁time	-12.2111
▁giotá	-12.2112
▁urra	-12.2114
▁Ghnóth	-12.2114
▁ghrúp	-12.212
▁mheascá	-12.2124
▁Bonn	-12.2126
▁127	-12.2127
choinníollach	-12.2127
bhliantú	-12.2128
▁Ceimiceá	-12.2129
▁thuill	-12.2131
▁Anal	-12.2132
MC	-12.2133
▁lann	-12.2138
sí	-12.2139
NTA	-12.214
▁socraíocht	-12.2145
úbal	-12.215
▁CT	-12.2151
maí	-12.2159
▁Cean	-12.2162
▁gCo	-12.2163
▁Forala	-12.2164
▁Gaeltacht	-12.2165
ational	-12.2169
▁ml	-12.2172
▁MO	-12.2176
toghchán	-12.2176
▁bo	-12.2178
▁pholaitiú	-12.2178
bhord	-12.218
▁Oiriúnach	-12.2181
chead	-12.2185
▁Santa	-12.2187
▁fhuinn	-12.2192
▁cleacht	-12.2193
enerál	-12.2195
tae	-12.2195
▁TO	-12.2195
aster	-12.2196
▁thosaíochta	-12.2198
▁Campa	-12.22
155	-12.22
▁rós	-12.2203
fhada	-12.2204
hothú	-12.2207
80	-12.2208
ARD	-12.2208
aitsilé	-12.2208
▁oighi	-12.221
atom	-12.221
tarraingt	-12.2216
▁sex	-12.2216
asses	-12.2218
car	-12.2222
síocháin	-12.2223
▁gene	-12.2225
ough	-12.2225
mhuint	-12.2226
▁Tor	-12.2229
▁Chomhlachai	-12.223
ww	-12.223
▁CC	-12.2236
▁Buiséad	-12.2241
▁bintiú	-12.2243
▁cust	-12.2249
▁STÁ	-12.225
VC	-12.2251
omhdhlúthú	-12.2251
▁pháirtnéir	-12.2256
omhshó	-12.2258
dirdhealaitheach	-12.2258
threorach	-12.2258
▁fholu	-12.2261
▁NAS	-12.2261
▁Pac	-12.2263
reo	-12.2263
▁sáraithe	-12.2265
▁chum	-12.2268
▁cábá	-12.2269
▁Uile	-12.2276
▁Ste	-12.2277
▁gcaithfi	-12.2277
ct	-12.2278
▁This	-12.2279
▁vit	-12.2283
▁rothl	-12.2286
opta	-12.2287
▁ti	-12.2292
▁briath	-12.2292
bhairt	-12.2296
▁dté	-12.2298
gnéis	-12.2301
▁nu	-12.2302
▁Bi	-12.2303
▁sweet	-12.2314
▁Defen	-12.2319
▁NÓ	-12.232
▁coist	-12.232
arán	-12.232
méid	-12.2321
olta	-12.2321
ócó	-12.2321
Trádáil	-12.2322
con	-12.2322
uibheach	-12.2327
GC	-12.2327
▁Tógfa	-12.2328
▁morgáisteo	-12.2328
uatha	-12.2331
inicíocht	-12.2337
pping	-12.2339
▁mhuiri	-12.234
▁Gréig	-12.234
▁Seachada	-12.234
▁úsáidfea	-12.2344
VAS	-12.2346
quality	-12.2347
rach	-12.2352
▁córasach	-12.2354
▁br	-12.2355
▁cúlchist	-12.236
▁scéala	-12.2362
▁oighea	-12.2365
chóir	-12.237
▁DEN	-12.2371
▁Méar	-12.2371
▁thoghfa	-12.2371
▁Só	-12.2373
úinéirí	-12.2373
▁fhir	-12.2377
▁mhonaró	-12.2378
▁Laidine	-12.2387
onchur	-12.2387
▁féimheacht	-12.2389
NÚ	-12.2391
saigh	-12.2392
▁teagmhai	-12.2393
▁chór	-12.2399
▁Glaca	-12.2399
steroid	-12.24
PE	-12.2401
▁choigrí	-12.241
▁Lasmui	-12.2414
▁leachtaithe	-12.2416
▁Scríbhneoir	-12.2416
aol	-12.2419
éilea	-12.2425
▁dhein	-12.2425
▁Breathna	-12.2429
▁Náisiúntacht	-12.2432
▁ME	-12.2436
cial	-12.2437
▁Chríostaí	-12.244
▁chean	-12.244
-12	-12.2446
▁sreabh	-12.2446
▁ioml	-12.2447
▁éad	-12.2447
▁comhfhreagrach	-12.2449
▁shuí	-12.2452
cionn	-12.2452
átha	-12.2458
athló	-12.2459
▁neamhrialtachta	-12.2462
▁charachta	-12.2465
▁bhfuir	-12.2468
▁cóta	-12.2469
ics	-12.248
▁fógrá	-12.2482
oid	-12.2482
▁chlub	-12.2485
journ	-12.2486
▁loings	-12.2486
▁Éada	-12.2487
bhuíon	-12.2489
úna	-12.2496
dí	-12.2498
▁Mharga	-12.2499
chóiriú	-12.2505
to	-12.2505
dhleathach	-12.2508
▁Dhío	-12.2509
▁caibidlí	-12.2517
▁cosmaid	-12.2518
ipín	-12.2519
▁códú	-12.2523
ting	-12.2524
AD	-12.2527
▁feara	-12.2527
▁ster	-12.2529
nte	-12.253
▁comhairl	-12.2533
BM	-12.2537
ghníomhach	-12.2537
▁ceangail	-12.2539
aistriúchá	-12.254
SM	-12.2543
▁Sláint	-12.2546
▁chlui	-12.2546
fad	-12.2547
box	-12.2547
stiúrthóir	-12.2548
▁ionsaithe	-12.2548
▁Rain	-12.2549
versi	-12.2549
▁EIT	-12.2549
▁chruithneacht	-12.2551
▁modúl	-12.2555
▁bpai	-12.2555
amhras	-12.2557
▁Scaoil	-12.2558
chigire	-12.2567
ithreacha	-12.2567
contúirt	-12.2567
▁deifr	-12.2567
ostas	-12.2569
▁athró	-12.257
amharc	-12.2571
▁Deisc	-12.2575
▁143	-12.2582
▁Meá	-12.2582
uck	-12.2588
costas	-12.2589
aige	-12.2589
▁asbhain	-12.2589
▁logh	-12.2591
▁Choimisiné	-12.2591
▁at	-12.2592
▁anraith	-12.2593
▁chaird	-12.2595
▁phas	-12.2598
▁cháilith	-12.2599
-25	-12.26
TO	-12.2603
húdarú	-12.2604
▁test	-12.2609
▁Bunreacht	-12.2609
▁haistr	-12.261
▁COM	-12.2614
▁Ak	-12.2619
▁hoil	-12.2619
▁ON	-12.262
SCO	-12.2623
sú	-12.2624
▁toimhde	-12.2625
▁sá	-12.2625
▁laig	-12.2626
play	-12.2626
▁Ky	-12.2627
oicind	-12.263
▁bholg	-12.263
▁Brabú	-12.2632
▁Ster	-12.2633
▁sparán	-12.2633
▁Sm	-12.2634
▁cothaith	-12.2635
OTA	-12.2636
val	-12.2641
han	-12.2653
board	-12.2661
▁Smaointe	-12.2663
▁feithid	-12.267
▁cnaip	-12.267
Lawn	-12.2672
▁héilithe	-12.2676
▁drug	-12.2679
fheabhsú	-12.2679
▁Ge	-12.268
▁ullmhaío	-12.2681
▁Seans	-12.2681
▁Cabhla	-12.2681
▁EPA	-12.2685
▁Tú	-12.2686
ok	-12.2687
▁Die	-12.2689
cás	-12.269
▁doimhne	-12.2691
cted	-12.2691
▁Mark	-12.2692
▁Láithreach	-12.2695
hairc	-12.2696
aturnae	-12.2699
▁bpu	-12.27
▁éigeanta	-12.2704
▁forfheidhmiúchá	-12.2704
uirlis	-12.2709
▁beath	-12.2709
taithe	-12.2711
▁appetite	-12.2712
▁Jewel	-12.2712
▁Metatrader	-12.2712
▁Ottoman	-12.2712
▁dioplóma	-12.2712
▁meitibileach	-12.2712
▁cardashoithíoch	-12.2712
▁British	-12.2712
▁Weather	-12.2712
▁zombie	-12.2712
▁budget	-12.2713
▁Statistic	-12.2713
▁Railway	-12.2713
▁Íseal	-12.2713
▁Capital	-12.2713
▁gcimeád	-12.2713
▁Desert	-12.2713
▁meargánta	-12.2713
▁Gaolmhar	-12.2713
▁idirchaidr	-12.2713
▁Virgin	-12.2713
▁dhlúth	-12.2713
▁aersheirbhís	-12.2713
▁bronchi	-12.2713
▁Bloom	-12.2713
▁topaic	-12.2713
▁TEORA	-12.2713
▁Regulation	-12.2714
▁féileacá	-12.2714
▁cluaisín	-12.2714
▁Siopa	-12.2714
▁Corn	-12.2714
▁soláthrói	-12.2714
▁CNCM	-12.2714
▁dtoirmisc	-12.2714
▁coipthe	-12.2714
▁Diosca	-12.2714
▁miniature	-12.2714
INEARÁL	-12.2714
▁theaghais	-12.2714
▁súgartha	-12.2715
▁Banríon	-12.2715
tweetá	-12.2715
▁choinbhinsiú	-12.2715
▁dhamáist	-12.2715
▁seachvótála	-12.2715
▁réadmhaoin	-12.2715
▁gcatagóir	-12.2715
▁comhthreomhar	-12.2716
▁Curacla	-12.2716
▁scamall	-12.2716
aoire	-12.2716
▁thaispeán	-12.2716
▁Ghréasá	-12.2717
▁Philipp	-12.2717
▁Fadhb	-12.2717
▁ciorclach	-12.2717
LEATH	-12.2718
▁Gheall	-12.2718
▁Rialála	-12.2718
▁tráchtearra	-12.2718
▁Dragon	-12.2719
▁Mobile	-12.272
▁Club	-12.272
▁coróin	-12.272
aoi	-12.2722
▁milseog	-12.2722
▁hibrideach	-12.2722
▁nDáil	-12.2723
▁tionóntachá	-12.2723
▁Hip	-12.2723
▁dropper	-12.2723
▁deilbhín	-12.2726
tooth	-12.2727
▁Suite	-12.2727
▁nóimé	-12.2728
ING	-12.2728
▁líníochta	-12.2729
▁brusca	-12.2731
▁Clé	-12.2732
▁Víosa	-12.2732
thi	-12.2732
▁Day	-12.2733
▁dátheangach	-12.2733
▁foighne	-12.2733
▁nialas	-12.2734
▁ainmne	-12.2735
▁páirce	-12.2735
▁gceangló	-12.2735
▁Éifeachtach	-12.2736
▁trúpa	-12.2736
íbhuntáist	-12.2737
lotnaidicíd	-12.2739
uilig	-12.2741
tball	-12.2741
▁buisé	-12.2742
fuinneog	-12.2743
▁Úsáide	-12.2744
lena	-12.2745
▁áitr	-12.2752
▁inmharthana	-12.2752
▁oibiachtúla	-12.2753
▁Masturbat	-12.2753
pt	-12.2754
▁frost	-12.2759
▁anodiz	-12.2759
worth	-12.2759
▁eagarthóir	-12.276
▁dteach	-12.276
▁Flash	-12.2761
▁blian	-12.2762
▁sung	-12.2762
▁dtosó	-12.2762
▁Araibis	-12.2763
vé	-12.2763
▁Croí	-12.2763
▁margadhluach	-12.2764
▁mhícheart	-12.2765
▁mheánmhéid	-12.2765
▁gcuntais	-12.2766
▁ghló	-12.2766
▁tollán	-12.2766
▁mhairf	-12.2767
omparáid	-12.2768
▁corpra	-12.2768
fí	-12.2768
díoltóir	-12.2768
▁ciorcai	-12.277
▁mbío	-12.277
▁WW	-12.277
▁sáró	-12.277
ob	-12.2771
▁tuairisce	-12.2772
▁coinbhleacht	-12.2774
▁bhardas	-12.2774
óca	-12.2775
▁juic	-12.2776
FE	-12.2777
Ostair	-12.2778
▁uiscebheala	-12.2778
fhoghlaim	-12.2779
▁Bóthair	-12.2779
▁Rica	-12.2781
▁Comhtháth	-12.2782
▁iarscríbhinn	-12.2784
▁duánacht	-12.2784
▁Riachtanach	-12.2784
▁suaitheanta	-12.2785
agán	-12.2785
▁díom	-12.2787
▁píblín	-12.2787
▁polaiméir	-12.2787
▁Toghachá	-12.2788
▁hiniúchta	-12.2788
▁dhiúité	-12.2789
▁argóint	-12.279
▁toghairm	-12.279
▁CIS	-12.279
▁snáthaid	-12.2791
▁neamhíoc	-12.2792
húchán	-12.2793
ISCE	-12.2794
▁Rúi	-12.2794
alla	-12.28
▁inrochtaineacht	-12.28
▁fhoirgint	-12.2801
▁bPáirt	-12.2801
▁Cosú	-12.2801
▁uiríoll	-12.2802
▁Lán	-12.2802
▁Paitinn	-12.2803
▁Chomhshao	-12.2803
▁Ceol	-12.2806
▁Open	-12.2806
▁disciplín	-12.2809
▁thiomána	-12.281
▁bhfeic	-12.2811
▁speictrea	-12.2811
▁Bao	-12.2816
▁Scagair	-12.2816
▁trua	-12.2816
▁curacla	-12.2816
thchóiriú	-12.2818
íobhálach	-12.2819
▁delight	-12.2822
▁Iasacht	-12.2823
▁grámhar	-12.2829
▁Feidhmi	-12.2832
mens	-12.2834
▁cheimiceach	-12.2835
igue	-12.2836
▁infhaighteacht	-12.2836
▁fhorá	-12.2836
▁Coróin	-12.2837
▁máinliacht	-12.2838
irfid	-12.2838
▁Grianghraf	-12.2839
▁dumpáil	-12.2843
▁annamh	-12.2844
Imréit	-12.2845
▁Dheimhni	-12.2846
▁Gaile	-12.2847
▁111	-12.2848
CHOIM	-12.2849
▁Border	-12.2849
▁Béal	-12.285
▁Maol	-12.2851
▁LCD	-12.2853
teiripe	-12.2856
ao	-12.2857
▁chruach	-12.2858
GA	-12.2858
▁ndlíns	-12.2858
▁craoltóir	-12.2862
▁phlú	-12.2863
▁Tríd	-12.2863
▁eachtrannach	-12.2865
dul	-12.2869
▁cha	-12.287
▁Diúsca	-12.287
▁Massag	-12.2872
ors	-12.2874
orghníomhú	-12.2874
▁here	-12.2875
▁sáraío	-12.2876
▁Taga	-12.2876
▁aoibh	-12.2877
▁Oibríochta	-12.2877
▁Pháirc	-12.2878
▁bhaintreach	-12.2879
▁hoibr	-12.2881
▁4-6	-12.2883
▁q	-12.2884
▁Touris	-12.2888
▁Europei	-12.2889
cheadúna	-12.2892
▁Baku	-12.2892
▁fhéichiúna	-12.2892
▁Loing	-12.2894
▁luachan	-12.2899
réigiúnach	-12.2899
▁mótarfheithicl	-12.2907
▁Conra	-12.2908
sceana	-12.291
Dámhachtain	-12.291
▁PL	-12.291
▁Cion	-12.2915
▁575	-12.2917
unscoileanna	-12.2918
32	-12.2919
▁Deisiúchá	-12.2919
▁Gearrth	-12.2921
emia	-12.2922
▁fhormhuini	-12.2924
rithe	-12.2924
▁aclaíocht	-12.2925
▁chomhachta	-12.2925
▁príomhoid	-12.2925
rga	-12.2927
▁chóna	-12.2927
iona	-12.2928
fhad	-12.2928
▁han	-12.2928
▁Postáil	-12.2934
▁dtarraingeofa	-12.2935
▁Tástá	-12.2936
▁sholáthrói	-12.2938
▁fhoca	-12.2938
olún	-12.2938
▁seandálaíocht	-12.2942
▁píobá	-12.2942
va	-12.2945
▁scrúdui	-12.2947
▁fhórsa	-12.2949
▁bhá	-12.2949
▁Fiosrúchá	-12.2952
▁Mold	-12.2952
FI	-12.2954
thanna	-12.2955
ónais	-12.2956
▁Cairde	-12.2956
▁óráid	-12.2957
zel	-12.2957
chomh	-12.2958
▁athstruchtúr	-12.2959
▁corpr	-12.296
▁samhlaíocht	-12.2961
head	-12.2962
▁fhan	-12.2964
▁brící	-12.2967
leadh	-12.2967
aidhm	-12.297
ineál	-12.297
▁tempt	-12.2971
▁chea	-12.2973
oiliú	-12.2974
xit	-12.2975
▁tíolac	-12.2975
oirse	-12.2977
▁ballraíocht	-12.2978
scoil	-12.298
cheanna	-12.2982
NE	-12.2982
▁Bell	-12.2983
▁Fianá	-12.2984
Box	-12.2984
▁Comhlána	-12.2985
▁dhícháiliú	-12.2985
thernet	-12.2986
▁saorálach	-12.299
▁Mionsonra	-12.2992
▁your	-12.2993
▁bunaíocht	-12.2994
▁Communit	-12.2994
▁Bailiú	-12.2997
oiche	-12.2998
▁miotal	-12.2998
anagement	-12.3
TAIS	-12.3001
arratas	-12.3001
▁Bóna	-12.3002
▁bhreithiúnta	-12.3002
iscí	-12.3004
▁Trans	-12.3004
▁áiritheofa	-12.3008
work	-12.3008
▁Fold	-12.3012
bu	-12.3012
aistr	-12.3013
▁cuimhneachá	-12.3014
▁turasóir	-12.3014
▁Sóisialach	-12.3016
▁scan	-12.3016
Cheann	-12.3019
daigh	-12.3021
AISI	-12.3023
▁forchuirt	-12.3024
AINGNI	-12.3024
Ag	-12.3024
▁aighnea	-12.3025
bhuailte	-12.3026
▁fú	-12.3028
eagar	-12.3028
haraoh	-12.3029
▁TH	-12.3031
▁cheapt	-12.3032
aming	-12.3033
▁coimeáda	-12.3034
▁dhlítheana	-12.3034
Idirnáisiún	-12.3036
airdeall	-12.3037
▁Baba	-12.3037
▁Cheapach	-12.3047
saire	-12.3051
▁minim	-12.3051
▁Kars	-12.3052
bhaint	-12.3054
▁Teste	-12.3057
heilg	-12.3058
Doc	-12.3063
ingearach	-12.3066
▁gáinneá	-12.3069
Plean	-12.3074
▁tionóisce	-12.3075
▁sheirbheálfa	-12.3075
▁FA	-12.3076
18	-12.3076
▁comórtas	-12.3076
▁mata	-12.3079
▁gcúig	-12.308
▁deisce	-12.3088
▁Water	-12.309
▁áille	-12.309
▁Aitheanta	-12.309
haill	-12.3095
gra	-12.3095
hinse	-12.3096
India	-12.3099
▁urrann	-12.31
▁droim	-12.31
▁tuí	-12.3103
▁Cróit	-12.3104
▁coinneo	-12.3104
▁Rá	-12.3105
ument	-12.3107
▁Per	-12.3111
▁gcreid	-12.3111
▁cro	-12.3112
▁cáilith	-12.3113
▁gheará	-12.3115
▁Ai	-12.3118
thre	-12.3119
▁chua	-12.3122
▁Eas	-12.3122
▁Léas	-12.3123
▁cleachtóir	-12.3124
▁giú	-12.3126
TAR	-12.3127
▁pearsana	-12.3128
▁fána	-12.3131
ileata	-12.3134
wick	-12.3135
▁mheast	-12.3137
▁athdhíol	-12.3137
▁comhdh	-12.3138
▁faireach	-12.3144
▁Ceap	-12.3145
naimseartha	-12.3147
har	-12.3155
▁1990-	-12.3159
▁mbunacha	-12.3164
▁cláró	-12.3166
▁saoth	-12.3169
▁fhreasta	-12.3171
lock	-12.3173
▁cuan	-12.3173
▁aibíocht	-12.3173
master	-12.3174
▁fhágfa	-12.3175
Do	-12.3176
oma	-12.3176
ber	-12.3176
isin	-12.318
sky	-12.318
▁mear	-12.318
▁Natura	-12.3182
▁blast	-12.3184
▁Fr	-12.3188
▁cnapshuime	-12.319
eitilt	-12.3191
▁Safe	-12.3192
airtí	-12.3192
treoirlín	-12.3193
▁cúnai	-12.3195
▁ábharthacht	-12.3201
▁Branda	-12.3202
▁Vo	-12.3208
staithe	-12.3208
▁dhé	-12.321
irisí	-12.3211
▁WA	-12.3213
▁forchur	-12.3214
dies	-12.3216
onnta	-12.3217
▁mBó	-12.3219
▁van	-12.322
▁NÁISIÚN	-12.3222
▁coinneoid	-12.3223
▁mea	-12.3226
▁bhfaighfe	-12.3226
▁grace	-12.3227
sia	-12.3229
▁Tom	-12.3231
▁rialáilte	-12.3234
chomhalta	-12.3235
▁dícháili	-12.3238
iarmhar	-12.3241
▁úsáidf	-12.3248
▁tsolátha	-12.3249
VII	-12.3251
trí	-12.326
▁cumhd	-12.3261
shealbh	-12.3261
kes	-12.3261
▁gcógas	-12.3263
▁suidh	-12.3264
SPN	-12.3267
▁Easpa	-12.3268
▁tháirgeoir	-12.327
▁eispéir	-12.3272
▁trasn	-12.3272
▁hE	-12.3275
▁cuirid	-12.328
▁Dronuilleog	-12.3282
▁Geo	-12.3282
daoin	-12.3285
amall	-12.3287
▁Col	-12.3288
asfhoca	-12.3288
▁graf	-12.3289
fhulaing	-12.3293
iness	-12.3294
▁bhearna	-12.3295
▁Bul	-12.3304
▁béal	-12.3305
saor	-12.3306
▁luadhf	-12.3306
▁sainchomhairleo	-12.3309
dhlí	-12.3312
omharsanacht	-12.332
DC	-12.3321
▁bóna	-12.3324
▁cóipch	-12.3325
▁fhorghéill	-12.3327
hathrach	-12.3333
nne	-12.3335
oire	-12.3336
table	-12.3339
▁Pla	-12.3339
▁neamhshui	-12.334
▁bhunscoil	-12.334
▁Thos	-12.334
▁Dead	-12.3342
▁121	-12.3344
▁Lege	-12.3345
▁mhodha	-12.3347
▁tiarratas	-12.3349
eagraíochta	-12.3349
lúbthachta	-12.335
▁chomhairleoir	-12.3351
▁Malart	-12.3352
▁sta	-12.3354
▁Bhlia	-12.3355
▁Pad	-12.3356
search	-12.3361
▁craola	-12.3362
▁hoc	-12.3363
let	-12.3364
inbhuanaitheacht	-12.3367
▁chainé	-12.3369
▁pléasca	-12.3375
teocht	-12.3375
▁FTT	-12.3376
▁Táill	-12.3378
▁folc	-12.3382
▁míochain	-12.3385
iúin	-12.3386
▁bhfeachta	-12.3387
▁eascann	-12.339
punt	-12.3393
▁iarrtha	-12.3397
ACHA	-12.3397
oibrío	-12.34
▁ranníocach	-12.34
▁fodhlí	-12.3403
▁Príobháideach	-12.3412
▁mhéar	-12.3417
▁Bhuirg	-12.3417
▁IS	-12.3417
▁Lo	-12.342
itheora	-12.3427
IÚLA	-12.3427
▁chistiú	-12.343
shop	-12.3431
phrionsaba	-12.3431
chíos	-12.3434
▁ghnóthaí	-12.3438
▁gla	-12.3439
▁Fís	-12.3439
scaoilte	-12.344
▁slua	-12.3443
▁Uni	-12.3444
▁Chód	-12.3444
▁Leit	-12.3444
EACH	-12.3447
fhorfheidhmi	-12.345
▁chumais	-12.3451
LE	-12.3452
▁gcuirea	-12.3452
81	-12.3454
tes	-12.3454
▁cinnt	-12.3457
▁sulf	-12.3458
▁Oideach	-12.3459
▁eastósc	-12.346
adóireachta	-12.3461
fhir	-12.3463
airseach	-12.3464
▁éadan	-12.3464
amaí	-12.3465
▁Teicniú	-12.3468
▁funga	-12.3473
▁gCumhacht	-12.3475
nais	-12.3476
▁Machin	-12.3481
▁iasachtóir	-12.3483
lity	-12.3484
▁carnach	-12.3485
75	-12.3486
▁bhforchuir	-12.3487
▁ullmhó	-12.3488
▁Pósta	-12.349
nswer	-12.3491
shealbhóir	-12.3492
úsai	-12.3492
▁phríosúnach	-12.3495
▁ionadú	-12.3497
▁265	-12.3497
▁eagrúchá	-12.3506
fhógra	-12.3508
▁Tac	-12.351
ealaíontóir	-12.3512
▁Saoráid	-12.3513
▁cóimhiota	-12.3514
mber	-12.3514
▁134	-12.3516
▁Ada	-12.3517
▁Pen	-12.3521
▁Gao	-12.3522
▁tacaí	-12.3527
▁Ús	-12.3527
sheirbhís	-12.3527
for	-12.3533
per	-12.3533
▁coimisiú	-12.3535
dra	-12.3535
Oideacha	-12.3537
▁dhoch	-12.3539
▁Doc	-12.354
▁ngrá	-12.3543
▁294	-12.3543
▁pearsantacht	-12.3547
onic	-12.3547
▁greamaithe	-12.3547
▁170	-12.3551
▁táirg	-12.3551
▁séaracha	-12.3552
▁Cill	-12.3554
▁líneach	-12.3557
▁Idirn	-12.3561
▁SO	-12.3561
GO	-12.3562
▁mhaoini	-12.3564
▁eadar	-12.3567
▁Bréag	-12.3569
▁charbó	-12.357
▁sráid	-12.3571
isling	-12.3573
volta	-12.3574
▁Fón	-12.3579
▁congna	-12.3579
▁bhfág	-12.3581
▁ins	-12.3582
▁thigh	-12.3582
sk	-12.3583
▁bunreachtú	-12.3585
▁chomhchuibhi	-12.3585
▁pail	-12.3589
▁chonarthach	-12.3595
ríocha	-12.3595
mer	-12.3597
bord	-12.3598
▁UK	-12.3601
▁siamsa	-12.3602
▁fhulaing	-12.3607
▁Drug	-12.3607
▁Vis	-12.3609
ural	-12.361
▁mhúinteo	-12.361
▁Sant	-12.3612
▁Rad	-12.3615
▁lochtach	-12.3619
▁turgnamh	-12.362
▁fomhíre	-12.3624
▁sío	-12.3625
chenge	-12.3631
▁Litr	-12.3633
sio	-12.3637
▁Brun	-12.364
Alt	-12.3641
▁156	-12.3646
▁halla	-12.3647
scair	-12.3649
▁fertiliz	-12.365
ending	-12.3659
MSA	-12.366
▁ghnóthai	-12.366
shonraí	-12.3661
▁iontais	-12.3664
▁Crios	-12.3665
▁dámha	-12.3666
dhíola	-12.3667
▁maol	-12.3668
▁amhrá	-12.367
▁Póilín	-12.367
ru	-12.3671
chabhrach	-12.3677
bhalla	-12.3677
▁múch	-12.3678
▁Chathaoirl	-12.3682
CO	-12.3683
▁seal	-12.3684
▁idirghabhálach	-12.3685
▁gcuirfi	-12.3685
▁153	-12.3694
▁castacht	-12.3695
▁Chlé	-12.3697
▁Plan	-12.3697
acu	-12.3699
igiú	-12.3702
▁bhuí	-12.3702
ttle	-12.3704
unt	-12.3704
▁Tru	-12.3704
▁bharra	-12.3707
▁RS	-12.3709
▁Trade	-12.3712
scaradh	-12.3714
▁Oibriú	-12.3717
easú	-12.3718
ANN	-12.3721
▁Coig	-12.3726
bháil	-12.3726
▁Feidhmeannach	-12.3727
▁Manufactur	-12.3729
▁mhúnla	-12.3732
mharc	-12.3734
fhaibhri	-12.3739
EA	-12.3741
▁COMH	-12.3742
▁geo	-12.3742
chruinni	-12.3743
▁haoise	-12.3744
apa	-12.3746
uil	-12.3747
▁PRO	-12.3748
▁éiglí	-12.3748
▁pragh	-12.375
clúdach	-12.375
over	-12.3752
▁dream	-12.3753
nádúrtha	-12.3754
▁PP	-12.3755
ónta	-12.376
▁pátrú	-12.376
TR	-12.3761
▁tea	-12.3765
istic	-12.3768
▁Aistriúchá	-12.377
aisíocfa	-12.3771
irne	-12.3772
osmálta	-12.3773
▁Tuaisc	-12.3773
DM	-12.3774
▁Us	-12.3778
▁mheasc	-12.3779
eisiatach	-12.3779
▁réamhfhóg	-12.3779
▁fhaighteoir	-12.3783
adán	-12.3783
▁comhdhála	-12.3783
▁duill	-12.3785
▁chongant	-12.3786
lks	-12.3791
▁cheadaío	-12.3792
▁reo	-12.3794
▁glacf	-12.3799
illing	-12.38
▁cúr	-12.3804
▁Thóg	-12.3806
▁Bean	-12.3806
iarra	-12.3806
DT	-12.3814
▁Caill	-12.3818
▁Group	-12.382
▁comhchuibhi	-12.382
▁Commissi	-12.382
dheimhniú	-12.3822
▁Bhreis	-12.3822
▁TALMHA	-12.3824
▁outfit	-12.3824
▁Bleacher	-12.3824
▁Double	-12.3824
▁Language	-12.3824
▁SEALADACH	-12.3824
▁SEIRBHÍS	-12.3824
▁Toronto	-12.3824
▁comhfhogas	-12.3824
▁fínéaga	-12.3824
▁inflorescence	-12.3824
▁pumpkin	-12.3824
▁righteous	-12.3824
▁strainséir	-12.3824
▁wrinkle	-12.3824
Tbilisi	-12.3824
▁gemstone	-12.3824
▁VITIM	-12.3824
calyp	-12.3824
▁phriaca	-12.3824
▁CRÍCHE	-12.3824
▁haighneachta	-12.3824
▁heipit	-12.3824
▁shreang	-12.3824
▁hidrigin	-12.3824
▁mhuilneoir	-12.3824
▁iPod	-12.3824
▁Field	-12.3824
▁lúthchleasa	-12.3824
▁Jump	-12.3824
▁billiard	-12.3824
▁Athnuachan	-12.3824
▁Radio	-12.3824
▁mailíseach	-12.3824
▁Ric	-12.3824
▁meeting	-12.3824
▁radio	-12.3824
▁slaodacht	-12.3824
▁corrfholúnta	-12.3825
▁choimhthíoch	-12.3825
▁GLAS	-12.3825
▁gcalafo	-12.3825
▁policy	-12.3825
▁Columb	-12.3825
▁lúibín	-12.3826
▁gceannaitheoir	-12.3826
▁Button	-12.3826
▁Children	-12.3827
▁súilíneach	-12.3827
▁bpolasa	-12.3827
riminal	-12.3827
theileagraf	-12.3828
▁Syria	-12.3828
eamhthuillmheach	-12.3828
▁Deep	-12.3829
▁buaic	-12.3829
▁uchtála	-12.3829
▁seaicéad	-12.3829
▁lánaimsire	-12.3829
▁Cistine	-12.3829
▁léaráid	-12.383
▁Sky	-12.383
▁Building	-12.383
▁Socró	-12.383
▁coinbhinsiú	-12.383
▁DAINGNI	-12.383
▁micreafó	-12.383
wei	-12.383
▁Troid	-12.3831
athr	-12.3831
▁Altrana	-12.3831
▁meit	-12.3831
▁follas	-12.3831
▁dlúithe	-12.3832
▁dhroch	-12.3832
▁finger	-12.3832
▁Sceimhlitheoir	-12.3832
▁Rial	-12.3832
▁German	-12.3833
▁nerve	-12.3833
▁Ghearr	-12.3833
▁bhacainn	-12.3833
▁copair	-12.3834
▁Feirme	-12.3834
▁THABH	-12.3834
ourbillon	-12.3835
▁héifeachtúlacht	-12.3835
▁Cobhsaíocht	-12.3836
▁fionnuisce	-12.3836
▁Cóireála	-12.3836
▁Diúscairt	-12.3837
▁dtosnó	-12.3838
▁Neighbo	-12.3838
ches	-12.3839
▁first	-12.384
▁Déiríocht	-12.384
▁matá	-12.384
uff	-12.3841
▁bríc	-12.3842
oileach	-12.3842
▁Carranna	-12.3843
▁Ceant	-12.3843
ay	-12.3845
▁Of	-12.3845
▁Uirbeach	-12.3849
▁bíoma	-12.385
▁tarracóir	-12.385
▁clárui	-12.3852
▁Myster	-12.3853
▁Cuimhneachá	-12.3854
▁colscar	-12.3854
▁Thr	-12.3855
▁bhogearra	-12.3855
▁Ainmneo	-12.3855
▁shloinne	-12.3856
réasúnaíocht	-12.3856
▁531	-12.3856
▁inchomparáide	-12.3856
▁éasúint	-12.3857
fo	-12.3858
▁Societ	-12.3859
▁ngréasá	-12.386
▁stu	-12.3861
▁Prince	-12.3861
▁dlitean	-12.3861
▁ioncu	-12.3862
▁Maor	-12.3864
tseirbhís	-12.3866
NÉ	-12.3866
▁clúdai	-12.3867
▁sprinkle	-12.3867
▁Feabhsú	-12.3868
clábha	-12.3869
▁príomhchúi	-12.3869
Íoslainn	-12.387
aide	-12.387
▁inárachaithe	-12.3871
▁infheictheacht	-12.3874
lex	-12.3874
▁antaibheathach	-12.3875
▁Dualga	-12.3876
▁leabharlanna	-12.3876
▁súg	-12.3876
▁pragha	-12.388
▁foirgint	-12.388
▁caidéal	-12.3881
lay	-12.3881
▁Soci	-12.3881
▁mheasf	-12.3885
oll	-12.3886
▁bhfui	-12.3887
▁gcinnfea	-12.3888
▁Scrío	-12.3888
ctive	-12.3889
▁scriosfa	-12.3889
▁Iomarcaíocht	-12.389
▁líomhaint	-12.3891
garraíodóireacht	-12.3892
▁PIN	-12.3893
▁public	-12.3893
▁bhfiacha	-12.3894
▁Eurosta	-12.3896
▁ndíolfa	-12.3898
▁ngnócha	-12.3898
▁tráidir	-12.3899
▁bhflaith	-12.3899
▁dronuilleogach	-12.39
▁Chart	-12.39
▁MIL	-12.3903
reasure	-12.3904
▁Grada	-12.3905
AITHE	-12.3905
▁Míchuma	-12.3905
ups	-12.3905
▁Lin	-12.3906
▁Thionó	-12.3906
▁Téama	-12.3906
▁suirbhéireacht	-12.3907
▁chúisí	-12.3909
▁Women	-12.3909
▁Davi	-12.3909
▁garlic	-12.3909
▁coimhthíoch	-12.3909
▁aigéadach	-12.391
OVER	-12.391
▁Todhchaí	-12.391
haidh	-12.3912
▁HC	-12.3912
▁Foo	-12.3914
▁intuartha	-12.3914
▁Earth	-12.3915
▁About	-12.3915
▁tuáill	-12.3916
▁dheimhneo	-12.3916
▁músae	-12.3916
▁fhostaíochta	-12.3917
▁draein	-12.3918
▁trust	-12.3918
▁rópa	-12.3918
▁dhóiteá	-12.3919
▁London	-12.3919
▁141	-12.392
▁gníomhóid	-12.3921
athracha	-12.3924
function	-12.3925
▁chrité	-12.3925
▁ochtó	-12.3926
neacht	-12.3926
▁Eiseo	-12.3928
▁Eatramh	-12.393
theoir	-12.393
▁plot	-12.393
▁Soiscéal	-12.3931
OGG	-12.3932
▁service	-12.3932
▁poke	-12.3933
▁bhfoló	-12.3935
▁liostáil	-12.3935
▁Sloinn	-12.3938
▁ghníomhó	-12.3939
▁Colle	-12.3939
▁maoirseoir	-12.3942
▁cónasc	-12.3943
media	-12.3945
▁hoiliú	-12.3946
easca	-12.3947
▁165	-12.3951
osa	-12.3952
CA	-12.3952
▁micro	-12.3952
▁leathranna	-12.3954
▁cinnteoireacht	-12.3954
▁tionscn	-12.3958
▁fhadtéarmach	-12.3959
▁hearr	-12.3963
▁gComhlacht	-12.3963
▁toitín	-12.3964
▁Saint	-12.3964
INN	-12.3965
▁Teasa	-12.3965
atha	-12.3967
▁fhorlíontach	-12.3969
▁Arabach	-12.3971
▁cainteoir	-12.3973
tack	-12.3974
▁pingin	-12.3976
▁dío	-12.3976
▁Ioslamach	-12.3977
▁géarchéim	-12.3977
▁dtreoir	-12.3979
▁Ráthaíocht	-12.398
cket	-12.3981
▁car	-12.3982
dhíol	-12.3985
▁pléascach	-12.3985
mhas	-12.3986
▁dtabharfaid	-12.3986
sing	-12.3989
▁dhui	-12.3991
▁ndíolta	-12.3991
loud	-12.3996
ocha	-12.3998
▁sheasta	-12.3999
thing	-12.4
▁chiorca	-12.4004
▁fich	-12.4011
▁hiontaobha	-12.4012
position	-12.4012
▁freagróir	-12.4014
ístí	-12.4018
▁síceolaíocht	-12.402
▁Margaíocht	-12.4022
▁Comhordú	-12.4022
▁onnmhairí	-12.4023
▁calc	-12.4023
neart	-12.4025
▁státseirbhís	-12.4026
ghlacadóir	-12.4026
▁tuath	-12.4027
▁Pu	-12.4028
▁greamachá	-12.4029
▁baiste	-12.403
▁Vic	-12.403
▁seamla	-12.403
sléibhe	-12.4032
▁aeradró	-12.4033
▁ionsaitheach	-12.4033
▁heachtra	-12.4035
bhliant	-12.4038
ut	-12.4039
▁AND	-12.404
agra	-12.404
▁Liam	-12.4044
Rail	-12.4049
▁creata	-12.4049
▁seic	-12.4054
▁DI	-12.4058
▁suidhe	-12.4058
phosph	-12.406
héanamh	-12.4061
▁Fin	-12.4062
ITE	-12.4065
▁eire	-12.4065
▁andro	-12.4065
▁Bád	-12.4068
▁déarfa	-12.4068
▁camp	-12.4068
luas	-12.407
▁luing	-12.4073
▁chol	-12.4078
▁cheiliúr	-12.4079
IANNA	-12.4081
▁fhearchéil	-12.4081
▁Rua	-12.4081
-16	-12.4082
▁Band	-12.4083
▁leapa	-12.4084
Gaillimh	-12.4085
▁scaipe	-12.4087
▁Fly	-12.4088
▁FOR	-12.4088
▁How	-12.4088
PG	-12.4089
▁lóistíocht	-12.409
Samhail	-12.4093
▁Industr	-12.4096
▁cúil	-12.4096
▁searbh	-12.4097
chlub	-12.4103
▁cabhrói	-12.4104
gáil	-12.4104
▁dearga	-12.4106
▁FÉ	-12.4106
porno	-12.4106
habhair	-12.4108
▁boga	-12.411
▁cuimilteoir	-12.411
▁driog	-12.4111
▁foth	-12.4116
seirbhís	-12.412
▁Mec	-12.4121
▁Che	-12.4122
▁fhógraí	-12.4122
▁billí	-12.4122
▁cora	-12.4123
ompensat	-12.4124
NIÚ	-12.4125
▁chleacht	-12.4126
▁adeir	-12.4127
▁log	-12.4129
iff	-12.4129
▁fhál	-12.4134
▁sha	-12.4135
choigeart	-12.4137
▁flower	-12.4138
leamhná	-12.4139
▁rúnaíochta	-12.414
▁eascró	-12.4141
▁mheicn	-12.4141
haifid	-12.4142
dúrad	-12.4143
▁CON	-12.4144
▁word	-12.4144
dáileog	-12.4145
phort	-12.4149
▁shroichea	-12.415
▁gcoist	-12.4152
fid	-12.4154
▁marcaíocht	-12.4154
Ordu	-12.4155
chostas	-12.4156
lasta	-12.4157
▁Ghinearál	-12.4157
ios	-12.4157
▁uaillmhian	-12.4158
▁viv	-12.4159
▁Corpoideacha	-12.4159
▁cithfholc	-12.4159
▁dteora	-12.4159
thanta	-12.4163
▁Gheo	-12.4163
▁sconna	-12.4163
▁armchúirte	-12.4164
tones	-12.4166
▁Aid	-12.4169
íomh	-12.417
▁leasó	-12.4171
plátáil	-12.4173
rival	-12.4175
▁blastá	-12.4177
oimhneacht	-12.4177
athchomharc	-12.4177
▁taga	-12.4178
kg	-12.418
▁chomhfhreagrach	-12.4182
▁Rolla	-12.4185
▁idirnasc	-12.4187
gging	-12.4188
Comhpháirtíochta	-12.4189
▁cuimilte	-12.4197
▁Athchóir	-12.4198
lctha	-12.42
NS	-12.4201
▁fhéin	-12.4203
sed	-12.4203
▁chineálchead	-12.4207
▁chomhlacha	-12.4211
▁bpáip	-12.4212
ordó	-12.4214
pad	-12.4215
▁mise	-12.4219
▁LOC	-12.422
▁Wood	-12.4221
SRI	-12.4223
pe	-12.4228
▁gcumhda	-12.4228
asal	-12.4229
▁páigh	-12.4231
▁Ceapa	-12.4231
MB	-12.4232
▁tomhaltó	-12.4233
ten	-12.4236
Prótaca	-12.4236
ambú	-12.4239
yes	-12.4241
▁sreafa	-12.4244
eichniúr	-12.4245
▁dhaingn	-12.4246
▁chreidmheas	-12.4252
▁gCór	-12.4252
fhíoraithe	-12.4254
▁phíolóta	-12.4256
▁coimeádta	-12.4256
▁fionn	-12.426
▁Leathana	-12.4261
eire	-12.4261
▁cnámh	-12.4261
▁Trae	-12.4262
▁thras	-12.4266
▁Cal	-12.4266
▁rithf	-12.4267
▁fhillea	-12.4267
táinig	-12.4268
▁pre	-12.4269
▁worm	-12.4269
▁Van	-12.4269
bainistíocht	-12.427
▁Tháirg	-12.4273
▁ATH	-12.4278
▁bhFora	-12.428
▁gcoinneof	-12.4282
ping	-12.4283
fheirmeoir	-12.4284
▁bhforálfa	-12.4285
▁cool	-12.4286
▁Spáinne	-12.4286
ver	-12.4288
▁Champa	-12.4289
▁luaíocht	-12.4289
▁Wi	-12.429
▁whiten	-12.429
▁Foraoise	-12.4293
-15	-12.4293
▁CL	-12.4298
▁Rú	-12.4298
▁bitheolaíocht	-12.4298
▁Stat	-12.4301
▁Creidmheas	-12.4305
▁sibh	-12.4305
▁Chon	-12.4306
▁saineolai	-12.431
▁thy	-12.4313
lover	-12.4315
▁muinc	-12.4317
▁ciontaithe	-12.4321
ULA	-12.4322
▁bhFór	-12.4323
▁dosa	-12.4328
▁maighnéad	-12.433
▁dhíochur	-12.4333
▁dreasachta	-12.4343
▁dÃ	-12.4348
▁cheannaitheoir	-12.4349
100	-12.4353
▁sos	-12.4357
▁MIAN	-12.4358
▁Os	-12.4367
▁thréimhsiú	-12.4368
▁Main	-12.4368
▁haitheanta	-12.4371
▁Alla	-12.4373
▁dao	-12.4373
▁Dhír	-12.4376
onnartha	-12.4377
stam	-12.4377
▁Inimirc	-12.4378
▁Chomhlachta	-12.438
eilge	-12.4382
▁creatha	-12.4382
fás	-12.4384
▁ionduchtú	-12.4387
read	-12.4388
▁comhcheangail	-12.4389
▁uathúla	-12.4389
bha	-12.4389
Ceanada	-12.4396
ichiú	-12.4397
éifeachtúlacht	-12.4399
▁dathú	-12.4403
▁mheáchan	-12.4405
▁chún	-12.4405
Sraith	-12.4406
▁imirceach	-12.4407
▁folaithe	-12.4409
▁sheacht	-12.441
▁statach	-12.4413
éalaithe	-12.4414
CD	-12.4415
▁Bhéarfa	-12.4416
▁catha	-12.4419
▁aeriompróir	-12.4421
▁chúins	-12.4421
▁athphland	-12.4421
▁fundúireacht	-12.4422
▁sealbhaire	-12.4422
▁toghlach	-12.4423
▁fhá	-12.4427
▁183	-12.4427
▁shíor	-12.4431
▁offici	-12.4433
▁208	-12.4437
▁oileá	-12.4439
▁ndint	-12.4441
▁175	-12.4442
▁athchúrsáil	-12.4444
vy	-12.4445
HEAD	-12.4446
▁oscail	-12.4446
▁nigh	-12.4448
▁chobhsaí	-12.445
▁PA	-12.4453
▁Dhí	-12.4455
▁heisío	-12.4456
mír	-12.4459
ionchúis	-12.4459
itting	-12.4462
▁ra	-12.4463
▁fhian	-12.4465
▁Leatha	-12.4466
▁síor	-12.4467
▁guaise	-12.4469
▁gleo	-12.4473
▁Salm	-12.4473
▁Ciorca	-12.4481
▁bunriachtana	-12.4485
íomhá	-12.4487
▁fhorchuirf	-12.4488
▁fhol	-12.4488
roime	-12.4488
UME	-12.4489
BP	-12.4489
▁Corp	-12.4491
▁éifeachtú	-12.4492
ving	-12.4494
eorpa	-12.4494
▁gceadú	-12.4495
▁cniog	-12.4496
▁céir	-12.4496
berg	-12.4496
▁Spreag	-12.4509
éadaí	-12.4509
▁iarchur	-12.4509
▁Feir	-12.4511
▁Daonáir	-12.4511
▁phea	-12.4511
ailme	-12.4511
nós	-12.4512
▁tuile	-12.4514
ship	-12.4515
▁deora	-12.4516
▁Press	-12.4518
▁gcreidea	-12.4523
teolaí	-12.4527
laoch	-12.4533
ette	-12.4533
ons	-12.4536
▁Ama	-12.4536
OD	-12.4539
▁hAo	-12.454
óidí	-12.4542
▁Mail	-12.4543
ascadh	-12.4546
▁bheo	-12.455
▁triom	-12.4551
une	-12.4553
▁Sár	-12.4557
▁Feidhmeannacht	-12.4558
Corparáid	-12.4559
▁nga	-12.4559
▁mbanna	-12.4561
▁Ceanncheathrú	-12.4563
▁Cat	-12.4564
▁Suí	-12.4566
▁gCó	-12.4567
íochaine	-12.4567
taire	-12.4568
▁haer	-12.4569
tepe	-12.457
pol	-12.4574
▁Caomhnóir	-12.4576
anúint	-12.4578
▁Castle	-12.4579
▁láimhseála	-12.4582
▁Ass	-12.4589
▁Stiúrth	-12.4589
▁Mor	-12.4592
amhraidh	-12.4592
pple	-12.4595
▁úiné	-12.4597
uro	-12.4597
IBH	-12.4597
IM	-12.4597
▁intri	-12.4599
BO	-12.4601
▁Méide	-12.4604
iris	-12.4604
mg	-12.4606
▁cor	-12.4608
▁gcúl	-12.4609
▁Roghnú	-12.461
▁Rub	-12.4611
▁sol	-12.4615
▁Infheistíocht	-12.4615
▁dhíolúin	-12.4616
40	-12.4616
▁AS	-12.4618
▁Luas	-12.4621
▁Sco	-12.4623
agre	-12.4625
▁Tuigf	-12.4628
▁fhálta	-12.4629
uin	-12.463
▁Bro	-12.463
loingseoireacht	-12.463
▁CU	-12.4631
▁airbhearta	-12.4634
▁comhlíonfa	-12.4634
▁sealbhó	-12.4636
▁easláin	-12.4637
ement	-12.4637
▁Cas	-12.4639
▁NÍ	-12.4644
▁Jul	-12.4644
▁Cr	-12.4645
▁Aithea	-12.4646
lúthchuideachta	-12.4649
▁cóiriú	-12.465
náthchónaitheoir	-12.465
▁bhféad	-12.4652
▁Lú	-12.4653
▁Cheanta	-12.4654
bhrais	-12.4655
cre	-12.4665
▁fhionn	-12.4665
OP	-12.4666
▁Ti	-12.4668
uter	-12.4668
▁héinn	-12.4669
▁príosúna	-12.4678
▁Chatha	-12.4679
▁Sep	-12.4682
háil	-12.4683
▁Saoránach	-12.4685
▁Dó	-12.4686
▁gCúig	-12.4687
▁Chreidmheasa	-12.4687
▁Bith	-12.4688
▁Ele	-12.469
ráis	-12.4693
▁Dec	-12.4695
orimealla	-12.4696
▁comharsanacht	-12.4697
▁Bhoi	-12.4697
▁TUI	-12.4698
fy	-12.4699
est	-12.4701
▁leanfai	-12.4703
pho	-12.4704
▁white	-12.4706
▁291	-12.4711
ji	-12.4717
53	-12.4719
▁scoilbhlia	-12.4725
▁fíora	-12.4725
úlacht	-12.4726
▁bear	-12.4728
cin	-12.473
▁stain	-12.4733
▁chosantó	-12.4739
▁Socrú	-12.4741
▁forcoimeád	-12.4742
▁TM	-12.4744
▁gníomhaí	-12.4745
▁Sain	-12.4746
▁Chór	-12.4747
teoir	-12.4753
ACA	-12.4754
áidí	-12.4756
▁Ether	-12.4756
▁scamhóg	-12.4756
fast	-12.4757
darás	-12.476
▁HB	-12.4761
coiste	-12.4765
▁eascraí	-12.4769
▁tairs	-12.4773
q	-12.4775
▁coimircí	-12.4775
▁leachtacht	-12.478
▁bod	-12.4782
▁athscrúd	-12.4783
▁Bhr	-12.4785
▁phróis	-12.4786
▁Pia	-12.4788
úpla	-12.4792
▁Sib	-12.4793
ips	-12.4796
oibre	-12.48
▁vein	-12.48
irgí	-12.4801
▁leochaileach	-12.4802
comaoin	-12.4804
▁dhíobháil	-12.4806
ithead	-12.4811
▁Confe	-12.4812
araí	-12.4816
AOINE	-12.4822
raenáil	-12.4823
▁Socru	-12.4825
olláin	-12.4829
uafás	-12.483
scail	-12.4838
réasúnach	-12.4839
▁Dao	-12.484
▁gcló	-12.484
ríochnaithe	-12.4845
craft	-12.485
▁dhomhand	-12.4853
▁Eis	-12.4858
RI	-12.4858
uímh	-12.4861
comharsanacht	-12.4863
amatach	-12.4868
▁fearai	-12.4869
lb	-12.487
▁Taisc	-12.4871
eochra	-12.4872
nchoigeart	-12.4872
▁dtabh	-12.4873
INNE	-12.4874
shuíomh	-12.4874
asbhainte	-12.4875
▁Bat	-12.4875
▁Gnóthacha	-12.4877
bainisteoireacht	-12.4882
▁Orda	-12.4883
▁Oil	-12.4884
▁samhla	-12.4886
▁phr	-12.4886
RIU	-12.4891
▁chúlghair	-12.4895
▁míl	-12.4895
▁Rach	-12.4896
ideachta	-12.4898
▁Abair	-12.4898
IFE	-12.4902
domhain	-12.4903
▁Gearrtha	-12.4905
▁fhreagair	-12.4906
iúiré	-12.4907
▁chumhdaí	-12.4907
▁reáchtála	-12.4907
▁chigireacht	-12.4909
▁tíl	-12.4909
[...]
