<unk>	0
<s>	0
</s>	0
▁	-2.32918
▁a	-3.49481
,	-3.56075
▁an	-3.63721
▁.	-3.86825
▁agus	-4.14661
▁ar	-4.3323
í	-4.39219
▁na	-4.44769
)	-4.47552
(	-4.47771
s	-4.52597
▁i	-4.59792
r	-4.6518
▁le	-4.67016
-	-4.6968
dh	-4.70486
a	-4.81469
e	-4.85708
n	-4.89552
▁nó	-4.94326
▁go	-5.00523
▁sin	-5.24227
▁de	-5.27485
▁d	-5.28592
▁do	-5.29481
▁ag	-5.32237
idh	-5.36108
il	-5.40391
▁seo	-5.41404
ú	-5.44712
▁chun	-5.56673
in	-5.57884
▁leis	-5.59462
is	-5.66998
ithe	-5.68734
'	-5.70597
ir	-5.72505
▁aon	-5.75824
▁den	-5.7682
▁in	-5.77313
:	-5.7771
▁is	-5.79144
▁t	-5.79398
▁é	-5.7966
▁sé	-5.84402
▁faoi	-5.8757
t	-5.89457
▁sa	-5.95481
▁mar	-6.03004
▁bhfuil	-6.03409
igh	-6.09892
;	-6.09912
▁atá	-6.11858
▁1	-6.14951
▁c	-6.1504
▁ina	-6.17681
anna	-6.27154
▁b	-6.27533
nn	-6.29131
"	-6.29608
▁eile	-6.30686
▁san	-6.31841
▁bheith	-6.32196
▁ó	-6.32814
▁chur	-6.33023
▁duine	-6.33351
ch	-6.35702
tear	-6.37262
▁2	-6.37512
▁alt	-6.41526
▁dhéanamh	-6.42177
▁maidi	-6.42354
▁dá	-6.42728
▁don	-6.44752
—	-6.47745
d	-6.47995
l	-6.48702
▁Tá	-6.49778
▁réir	-6.53687
▁An	-6.55712
▁bhei	-6.56543
▁n	-6.56995
▁nach	-6.584
▁ná	-6.58947
▁C	-6.62107
▁lena	-6.62494
▁Is	-6.62705
gach	-6.64531
▁tá	-6.6708
▁féid	-6.67482
▁Acht	-6.67658
ar	-6.68726
alt	-6.68944
h	-6.70028
▁I	-6.70469
/	-6.70929
ach	-6.71609
▁3	-6.72538
la	-6.73707
eanna	-6.7556
▁A	-6.7662
▁nío	-6.77352
▁no	-6.82407
▁ní	-6.85042
adh	-6.85413
▁gcás	-6.86087
íonn	-6.8924
ta	-6.9228
▁mó	-6.93878
▁trí	-6.94105
▁faoin	-6.96277
”	-6.96757
▁tú	-6.97213
▁éis	-6.97501
▁ach	-6.98251
▁iad	-6.98746
▁haghaidh	-6.99955
mh	-7.00105
tha	-7.01166
▁leith	-7.01271
▁gur	-7.01736
▁h	-7.02117
“	-7.02176
▁chuid	-7.06072
▁ón	-7.06226
▁4	-7.07331
cha	-7.07747
▁D	-7.08354
▁thabhair	-7.09492
▁amháin	-7.10109
▁B	-7.11917
▁5	-7.12507
▁lá	-7.12762
▁roimh	-7.13265
ítear	-7.13268
▁úsáid	-7.13459
▁mbei	-7.13808
▁as	-7.14465
▁so	-7.14503
aoine	-7.14795
▁bei	-7.17123
▁á	-7.1826
▁um	-7.18826
▁Ní	-7.20628
isteach	-7.21005
aithe	-7.21119
▁méid	-7.215
▁gan	-7.21538
iú	-7.21975
]	-7.22864
[	-7.2326
▁amach	-7.23953
▁siad	-7.24197
▁tar	-7.24259
▁S	-7.24629
▁L	-7.26626
▁T	-7.2701
▁chuig	-7.27321
im	-7.28411
imh	-7.32373
▁fáil	-7.33026
’	-7.33046
▁rud	-7.33202
far	-7.34209
▁má	-7.34995
▁G	-7.35228
arna	-7.35264
ra	-7.36372
▁19	-7.36902
▁Airteagal	-7.37313
▁leana	-7.38149
▁nua	-7.38154
▁ann	-7.38778
▁féin	-7.39061
▁acu	-7.39484
▁tréimhse	-7.39512
▁Rialachá	-7.42896
eamh	-7.42922
▁gá	-7.4428
▁féadfa	-7.44533
aí	-7.4503
uithe	-7.45412
▁fho	-7.45693
▁tAir	-7.47291
it	-7.47435
▁saor	-7.475
▁Má	-7.47542
▁6	-7.48953
▁bhí	-7.49825
▁idir	-7.49964
ann	-7.5017
acha	-7.50367
as	-7.51679
▁maith	-7.51693
Acht	-7.52161
▁Aire	-7.53249
id	-7.53993
▁g	-7.54032
▁mór	-7.55233
▁F	-7.55318
▁f	-7.55966
m	-7.57398
▁chomh	-7.57573
▁sna	-7.57821
▁EN	-7.57998
▁Féadfa	-7.58088
ibé	-7.58955
▁fháil	-7.59114
▁bhainean	-7.59808
eann	-7.60862
?	-7.61244
▁sonraí	-7.6141
&	-7.61535
▁ceann	-7.62881
▁Ar	-7.63262
▁déanfa	-7.63373
▁áit	-7.63516
▁aige	-7.63643
▁P	-7.63734
y	-7.6378
aisce	-7.6383
cháin	-7.64021
▁linn	-7.64105
▁dtí	-7.65071
raibh	-7.65532
▁leat	-7.66135
▁más	-7.67792
▁aghaidh	-7.68456
g	-7.69519
▁bhfeidhm	-7.70583
fear	-7.7163
the	-7.72905
i	-7.73082
▁Uimh	-7.7414
nuair	-7.75045
▁dul	-7.76246
te	-7.76718
▁fo	-7.76747
▁áirithe	-7.7688
▁dáta	-7.77753
c	-7.77759
▁7	-7.77759
aigh	-7.7814
▁freisi	-7.78505
▁porn	-7.78918
▁Bei	-7.79179
▁íoc	-7.79458
▁bhliain	-7.79902
▁líne	-7.79931
aon	-7.80851
▁seirbhís	-7.81325
▁cur	-7.81549
ing	-7.81958
▁dó	-7.82001
▁ciallaíon	-7.82733
▁bh	-7.82893
▁mé	-7.83122
▁ordú	-7.83571
▁bhfo	-7.83708
▁ndáil	-7.83818
▁chéad	-7.85403
▁ionad	-7.85447
▁mbainea	-7.86125
▁sí	-7.86513
▁imeachta	-7.87072
▁amhlaid	-7.87186
▁dtagraí	-7.88019
▁iomchu	-7.88314
p	-7.88684
▁fearr	-7.89072
▁fé	-7.89304
▁m	-7.89733
▁ba	-7.90009
▁uair	-7.90309
▁10	-7.90391
▁Le	-7.90731
▁críocha	-7.91354
al	-7.91409
▁léir	-7.91851
▁8	-7.92034
▁sórt	-7.92217
▁M	-7.92681
▁feidhm	-7.92827
A	-7.93044
tar	-7.93126
▁údarás	-7.9331
▁tráth	-7.93499
▁bearta	-7.93598
▁deimhnithe	-7.93876
▁feidhme	-7.93967
▁bliana	-7.94176
▁mír	-7.95145
▁Ballstá	-7.95242
▁iomlán	-7.95864
▁air	-7.96096
▁cheann	-7.97055
▁hEorpa	-7.97836
▁am	-7.97906
▁stiúir	-7.98117
▁cuideachta	-7.98284
▁Eorpach	-7.98657
▁cheart	-7.99254
▁bhaint	-7.99323
▁bith	-7.99479
▁gcomhréi	-8.00377
▁R	-8.0055
▁laist	-8.00849
íodh	-8.00868
▁roinnt	-8.00953
▁p	-8.02127
▁fógra	-8.02128
▁ndéanfa	-8.02558
áil	-8.03361
▁thar	-8.04186
▁Aontais	-8.04381
▁díreach	-8.04928
▁leo	-8.06372
▁ábhar	-8.06395
▁Cuntas	-8.06473
án	-8.06482
▁duit	-8.06724
▁éifeacht	-8.07157
▁dlí	-8.07206
▁feadh	-8.07393
▁ár	-8.07904
eadh	-8.08068
▁Ba	-8.08203
inneadh	-8.08261
▁haon	-8.09259
▁Coimisiún	-8.095
▁Déanfa	-8.09534
▁síos	-8.09707
láthair	-8.10031
@	-8.10128
▁0	-8.1028
na	-8.10776
▁dhéanfa	-8.11237
eideal	-8.11644
▁dhá	-8.13002
▁chéile	-8.13179
f	-8.13316
▁iarratas	-8.1335
▁rialachá	-8.13639
▁mbea	-8.13787
▁Mar	-8.13799
▁AE	-8.15771
▁cinn	-8.16039
▁forála	-8.1641
3	-8.16503
▁bhun	-8.17172
▁mhéid	-8.17232
o	-8.17793
▁Chun	-8.1811
▁Agus	-8.1818
▁cuid	-8.18282
▁áitiú	-8.18502
▁leor	-8.19043
b	-8.19452
ó	-8.19753
▁9	-8.19938
niú	-8.20254
▁Stát	-8.20584
▁Aonta	-8.20982
▁luach	-8.21413
▁E	-8.21441
▁suas	-8.21865
ed	-8.22989
▁mhí	-8.23425
▁déanta	-8.23517
▁12	-8.23855
▁Achta	-8.25478
▁gníomh	-8.25601
▁mura	-8.25632
▁gt	-8.25748
!	-8.25793
▁éagsúla	-8.25852
▁CE	-8.25928
▁gComhairle	-8.27092
▁fén	-8.27279
▁mhír	-8.27281
▁dtaobh	-8.27479
▁seacha	-8.27597
–	-8.27654
▁neamh	-8.27813
int	-8.28181
▁gheall	-8.28226
▁Airgeada	-8.29124
▁bhrí	-8.2957
▁ghlacadh	-8.2958
▁comhalta	-8.29583
▁Nua	-8.3008
▁18	-8.30234
▁Ard	-8.30769
obair	-8.30789
▁mo	-8.30945
▁teacht	-8.3107
▁chóir	-8.31477
▁céanna	-8.31809
▁Sa	-8.32088
▁áireamh	-8.32091
▁airgeadai	-8.32611
▁coinníollach	-8.3263
▁dóibh	-8.3269
▁ailt	-8.32861
▁uisce	-8.32978
▁beag	-8.33399
▁ceart	-8.33566
u	-8.33786
▁líon	-8.34612
▁Faoi	-8.34876
▁ard	-8.34966
▁Béarla	-8.35296
aíonn	-8.35329
▁amp	-8.35641
▁dt	-8.36251
▁chuir	-8.37149
▁cuí	-8.37596
▁15	-8.38171
▁rialacha	-8.3885
▁Seo	-8.39126
le	-8.39393
▁oifig	-8.39549
▁Ceist	-8.39609
▁iarrai	-8.39913
▁AN	-8.40056
▁rinne	-8.40166
▁fad	-8.40218
L	-8.41682
▁táirgí	-8.41778
▁Ach	-8.41923
▁talamh	-8.4208
▁pé	-8.42114
▁Tuillea	-8.42398
▁rith	-8.43168
▁déana	-8.43245
▁bhíonn	-8.43493
▁Fuaim	-8.43622
▁tríd	-8.43741
▁ráta	-8.43748
▁for	-8.4391
▁Chomhairle	-8.4412
▁scéim	-8.44184
▁mí	-8.44331
▁airgead	-8.44416
▁leas	-8.45547
áiríte	-8.45654
▁cé	-8.45905
▁Coimisinéir	-8.46169
imid	-8.46184
am	-8.46321
náisiúnta	-8.46797
▁Na	-8.46869
each	-8.47542
▁Ag	-8.47856
▁dhéana	-8.47908
▁clár	-8.48022
▁iníoc	-8.48053
▁ii	-8.48595
▁30	-8.49168
eacha	-8.49385
▁Sceideal	-8.49387
▁Ch	-8.494
▁di	-8.49402
er	-8.49755
▁O	-8.49921
▁chuideachta	-8.50195
%	-8.50556
▁11	-8.50801
fa	-8.51292
▁deara	-8.51626
▁háirith	-8.51852
Ã	-8.51883
▁tagairt	-8.52245
2	-8.52977
▁th	-8.53083
ansin	-8.53494
áin	-8.53525
orthu	-8.54489
▁gcuid	-8.54872
▁ainm	-8.54969
faidh	-8.55253
▁ch	-8.55451
▁náisiúnta	-8.55715
ad	-8.55926
ig	-8.55974
▁eolas	-8.56431
▁uile	-8.56629
▁of	-8.56928
ála	-8.57043
▁Pharlaimint	-8.57144
▁Aon	-8.57322
▁rá	-8.57329
or	-8.57764
▁réims	-8.57906
▁cuirea	-8.57951
agtha	-8.58133
áir	-8.58157
▁críche	-8.58689
slí	-8.59055
▁H	-8.59069
▁táirge	-8.59097
▁Comhairle	-8.59115
▁leasú	-8.59292
▁deimhniú	-8.59336
fhéadfadh	-8.59349
▁leibhéal	-8.59373
agat	-8.59566
▁20	-8.59793
on	-8.60018
ic	-8.6018
ca	-8.60429
artha	-8.60472
▁sholátha	-8.60664
▁baint	-8.61523
▁mb	-8.61776
▁tSín	-8.61821
▁monaróir	-8.6183
▁speisialta	-8.61868
th	-8.62157
▁ghabha	-8.62218
hloig	-8.62343
▁earra	-8.62462
▁Cé	-8.62707
▁Bord	-8.628
▁blia	-8.62878
ois	-8.63315
▁bunaithe	-8.63415
ais	-8.63497
▁gréasá	-8.63695
▁suim	-8.63763
▁chomhalta	-8.6411
anseo	-8.64807
▁deirea	-8.6504
▁bhféadfa	-8.65263
▁oifigeach	-8.65365
údarás	-8.65785
gh	-8.66318
▁scríbhinn	-8.66363
▁Stáit	-8.66387
▁thug	-8.66389
▁In	-8.66457
▁chomhlíona	-8.66502
▁Chéad	-8.66666
▁Choimisiú	-8.66712
us	-8.66828
▁hiomlán	-8.66976
▁ceadúna	-8.67061
▁N	-8.67219
B	-8.67419
othair	-8.67462
ol	-8.67633
▁páirt	-8.68053
▁gc	-8.68168
íoc	-8.68297
▁liosta	-8.68343
▁gnó	-8.68346
▁pearsanta	-8.68367
eas	-8.68988
1	-8.69183
▁láithreá	-8.69283
▁16	-8.69739
▁ceap	-8.69822
▁planda	-8.69926
S	-8.69947
▁os	-8.69989
UID	-8.70465
iúil	-8.70567
▁Fómhair	-8.70624
▁chás	-8.70678
▁gcéad	-8.70697
▁Eorpaigh	-8.70719
▁Roimh	-8.70924
▁foca	-8.71113
▁cead	-8.71634
▁athrú	-8.71914
▁fiú	-8.72032
éachaint	-8.72042
▁14	-8.72098
▁fó	-8.72316
▁oiriúnach	-8.72619
▁13	-8.72953
▁faisnéis	-8.72955
k	-8.73162
▁De	-8.73234
nna	-8.73271
▁HD	-8.73363
▁mian	-8.73637
▁cánach	-8.73684
▁lú	-8.7371
ite	-8.73932
Airteagal	-8.74323
▁téarma	-8.7434
▁rogha	-8.74738
4	-8.74925
▁taobh	-8.75112
▁Ionca	-8.753
▁suíomh	-8.7539
▁hAcht	-8.75947
▁Cuir	-8.76186
▁oibre	-8.76224
huine	-8.76482
éanamh	-8.76489
▁sonra	-8.76539
▁modh	-8.76772
▁fu	-8.76796
▁Go	-8.76989
▁hÉireann	-8.77184
▁000	-8.77204
sórt	-8.77326
iúl	-8.77394
íochta	-8.77456
inearálta	-8.7779
▁ndia	-8.77841
▁ábhartha	-8.77909
▁Bhí	-8.77992
onair	-8.78088
▁bhea	-8.78118
amhail	-8.78123
▁muid	-8.7843
▁huaire	-8.78459
bh	-8.7849
▁chineál	-8.7892
▁poiblí	-8.79072
▁tras	-8.79318
▁Údará	-8.79561
E	-8.79858
é	-8.80203
▁nós	-8.803
▁ndearna	-8.80314
▁fás	-8.80369
▁dháta	-8.80831
▁leagan	-8.80955
onas	-8.81089
▁údará	-8.81162
▁gurb	-8.81174
▁cluichí	-8.81593
▁seirbhíse	-8.81713
▁2017	-8.81757
▁dar	-8.8186
ion	-8.8198
▁rialú	-8.82056
▁V	-8.82059
▁fhaisnéis	-8.82245
▁2016	-8.82566
an	-8.82875
chosaint	-8.83096
▁dhiai	-8.83244
▁dochar	-8.83252
▁measfa	-8.83431
▁comh	-8.8345
os	-8.83533
▁lagha	-8.8355
▁comhlacht	-8.83688
▁ríomh	-8.84141
▁gceist	-8.84535
fianaise	-8.84869
▁cosúil	-8.8525
▁Chúirt	-8.85552
▁mhaith	-8.85741
D	-8.85784
▁17	-8.85796
hráid	-8.85983
▁ghnáth	-8.86481
▁gCoimisiú	-8.86545
fásta	-8.86556
▁toiliú	-8.86599
ireann	-8.86696
▁sheola	-8.8671
ean	-8.8687
▁áirithi	-8.86992
▁leasa	-8.87157
ladh	-8.87342
▁Ó	-8.87371
▁lán	-8.87451
▁cion	-8.87471
▁gcoinne	-8.87693
abhair	-8.87721
▁gcónaí	-8.87742
▁gníomhaíochta	-8.8775
ghaidh	-8.8785
▁togra	-8.87852
úinn	-8.87929
▁Treoir	-8.88057
▁2018	-8.88107
▁bia	-8.8817
▁Chuid	-8.88233
▁cluiche	-8.88251
▁cineál	-8.88261
▁Phríomh	-8.88345
▁II	-8.88365
á	-8.88437
▁cad	-8.8864
ailt	-8.88657
▁cúram	-8.88666
if	-8.88885
▁bhonn	-8.88971
▁cúis	-8.88997
▁laghdú	-8.89318
▁be	-8.89539
▁cheana	-8.89652
▁24	-8.89671
▁aistriú	-8.90295
▁Maidir	-8.9034
▁físeáin	-8.90549
ordú	-8.9057
▁trádála	-8.90584
▁Roinn	-8.90737
▁Twitter	-8.91044
▁cás	-8.91286
▁deir	-8.91524
acht	-8.9154
▁íocaíocht	-8.91607
▁léi	-8.91766
▁cuirf	-8.91797
▁chinneadh	-8.91848
▁The	-8.92726
▁Th	-8.92987
▁gcomhairle	-8.93202
▁Níl	-8.93334
▁measc	-8.93933
R	-8.93942
eachta	-8.94032
▁glaca	-8.94058
▁dara	-8.94249
▁reatha	-8.94284
▁Leasú	-8.94414
ainneoi	-8.94574
▁gh	-8.94686
▁limistéar	-8.94697
▁aird	-8.94703
úsáid	-8.94896
▁Cad	-8.94909
▁shin	-8.94924
▁curtha	-8.94929
▁mba	-8.94937
▁cúig	-8.95026
▁cuir	-8.9519
▁tuga	-8.95402
▁25	-8.95432
▁shonraí	-8.95584
fhonn	-8.95692
▁sláinte	-8.95842
▁Bh	-8.95932
▁ráite	-8.96038
I	-8.96176
ear	-8.96321
▁NA	-8.96326
▁ceangla	-8.965
▁fíor	-8.96506
oisc	-8.96732
▁bhunú	-8.96775
ce	-8.96794
▁comhaont	-8.97205
eal	-8.97228
▁San	-8.9728
▁ama	-8.97627
▁2013	-8.97692
cht	-8.97872
▁dhíol	-8.97992
▁Gaeilge	-8.9821
▁áitreabh	-8.98283
ileamh	-8.98363
▁cláraithe	-8.98396
▁sh	-8.98493
▁Oifig	-8.98897
▁tuarascá	-8.99002
▁liom	-8.99157
inne	-8.99407
▁gcion	-8.99435
▁faoina	-8.99479
oirí	-8.99648
▁leathan	-9.00032
▁cheapa	-9.00227
▁bláth	-9.0031
scríobh	-9.0068
GUS	-9.00822
▁bhua	-9.00993
▁nár	-9.01341
rochtain	-9.01574
▁choimeád	-9.01805
anta	-9.01846
▁dtugta	-9.01876
▁bun	-9.02308
▁Léim	-9.0268
▁31	-9.02731
▁fola	-9.02751
▁Náisiúnta	-9.02785
▁21	-9.02873
▁costais	-9.03069
▁thora	-9.03098
▁caighdeán	-9.03262
z	-9.03355
▁fhorbairt	-9.03454
▁thaobh	-9.03469
▁breise	-9.03479
▁íocaíochta	-9.03707
▁Cluich	-9.03868
▁2012	-9.0387
▁Dé	-9.03986
▁chéanna	-9.04218
▁2014	-9.04278
▁chaighdeán	-9.04282
▁údara	-9.04323
▁feidhmiú	-9.04524
irgid	-9.04975
▁100	-9.05165
▁fhógra	-9.05445
▁shampla	-9.05498
▁measún	-9.05792
▁soláthar	-9.059
▁faisnéise	-9.06319
▁doiciméad	-9.06382
▁againn	-9.06567
▁nd	-9.06672
▁tuairim	-9.06725
▁leanbh	-9.06733
▁Co	-9.06889
íoslódáil	-9.0717
▁Baile	-9.07208
▁tortha	-9.07242
▁Tar	-9.07323
▁u	-9.07599
▁Act	-9.07814
▁cruach	-9.08091
▁Uimhir	-9.08126
▁siúl	-9.0816
▁thosa	-9.08345
▁lae	-9.0861
▁céim	-9.08635
▁dath	-9.08747
▁2009	-9.0882
▁2019	-9.08822
w	-9.08825
athair	-9.09067
úil	-9.09087
▁cóip	-9.09163
▁choinneáil	-9.09248
▁sásta	-9.09304
▁cabhr	-9.09361
▁tharla	-9.09406
haoine	-9.09675
▁chlár	-9.09678
▁cheannach	-9.09711
▁chlárú	-9.09822
▁comhair	-9.09892
▁W	-9.09925
▁Nolla	-9.09937
▁córas	-9.10284
eacht	-9.10302
▁riachtanach	-9.10479
▁forbairt	-9.10556
▁roghnú	-9.10954
insean	-9.10967
▁sula	-9.11004
▁saol	-9.11444
▁Do	-9.11735
▁2015	-9.11826
▁leagt	-9.11906
amh	-9.11907
▁kar	-9.12021
um	-9.12111
óir	-9.12329
▁soilsi	-9.12406
▁faid	-9.12472
▁súil	-9.12605
▁seilbh	-9.12702
▁fhios	-9.12839
▁téarmaí	-9.13154
▁cosanta	-9.13211
nar	-9.13256
▁mhonarcha	-9.13273
ompair	-9.1355
óirí	-9.1369
▁cearta	-9.13715
▁chúis	-9.13848
▁bliantú	-9.13933
N	-9.13934
▁scoth	-9.1408
▁tír	-9.14103
▁tacaíocht	-9.14321
▁chumhacht	-9.14517
▁príomh	-9.1458
▁siú	-9.14897
irt	-9.14911
▁éigin	-9.1492
▁breith	-9.15004
▁28	-9.15056
▁ciontach	-9.15074
▁26	-9.15136
íortha	-9.15341
▁cheangal	-9.15474
lach	-9.15553
nach	-9.15632
▁praghas	-9.15681
▁tioncha	-9.15736
mirt	-9.15793
▁22	-9.15935
▁tosa	-9.1599
▁láithreach	-9.16003
▁stiúrthóir	-9.16302
▁tabharfa	-9.16442
▁airde	-9.16524
▁ordu	-9.16555
▁thaga	-9.16578
▁talún	-9.16734
▁ionann	-9.16802
▁shl	-9.17019
achta	-9.1714
▁damáist	-9.17194
▁lua	-9.17337
▁tionscada	-9.17383
C	-9.17498
▁ioncam	-9.175
▁Author	-9.17653
▁scaire	-9.17841
nniu	-9.17942
▁grianghraf	-9.18129
O	-9.18137
▁arb	-9.18142
▁barr	-9.18195
Í	-9.18266
▁ndéana	-9.18282
▁cuirfea	-9.18406
▁nádúrtha	-9.18514
▁Tweet	-9.18583
▁minic	-9.18605
hong	-9.18634
▁iontach	-9.18639
▁iarratais	-9.18788
▁domhain	-9.18959
leanúint	-9.19065
▁bhéal	-9.19074
▁dhosmálta	-9.19079
▁luaite	-9.19174
ill	-9.19194
▁dhéanta	-9.192
ist	-9.19344
▁úsáide	-9.19495
▁chruthú	-9.1972
▁luath	-9.19945
▁bheadh	-9.20071
▁grúpa	-9.2017
▁Áitiú	-9.20252
▁liúnta	-9.20418
▁abairt	-9.20464
▁dóigh	-9.20473
▁leath	-9.20546
▁Corporat	-9.20917
nithe	-9.21058
able	-9.21099
▁margadh	-9.21197
▁Be	-9.21212
▁2011	-9.21427
▁hordú	-9.21597
aois	-9.21716
▁húsáid	-9.21802
▁Coiste	-9.22028
▁lucht	-9.22116
iméad	-9.22451
▁Seirbhís	-9.22455
ge	-9.22754
▁ionca	-9.22825
▁teorainn	-9.22976
▁cuntais	-9.23391
▁Tag	-9.23732
▁Éireann	-9.23816
▁lasmuigh	-9.23849
▁riachtanais	-9.23992
uas	-9.24314
▁dtabharfa	-9.24338
▁riarachá	-9.24448
ur	-9.24567
uíonn	-9.24642
▁freagrach	-9.24687
▁cuspóir	-9.24839
▁U	-9.24916
▁feidhmeanna	-9.25015
U	-9.25035
▁50	-9.25255
iarratas	-9.25471
▁ath	-9.25471
▁iompar	-9.25657
ne	-9.25692
▁Parlaimint	-9.2579
▁Bill	-9.25921
▁cothrom	-9.25974
ma	-9.26281
air	-9.26285
úirt	-9.26359
istigh	-9.26482
▁ngníomh	-9.26497
▁Cona	-9.26501
▁mhaoin	-9.26664
▁díol	-9.26817
▁gcrích	-9.2684
▁dtaca	-9.27028
che	-9.27101
ath	-9.27372
▁bhfoirm	-9.27388
▁tháinig	-9.27416
▁achomharc	-9.27472
▁deis	-9.27824
▁foirgn	-9.27856
▁treala	-9.27919
▁húdará	-9.27936
▁comhairle	-9.27955
▁sonrach	-9.2801
▁cáin	-9.28095
▁fhoráil	-9.28117
hoird	-9.28141
mhéadú	-9.2838
▁chiont	-9.28458
▁ndéanta	-9.28609
▁cáilíochta	-9.28842
▁III	-9.28868
▁Féach	-9.28895
▁23	-9.29026
▁ola	-9.29184
hord	-9.29265
▁siar	-9.29326
▁mBallstá	-9.29402
▁inar	-9.29595
aici	-9.2963
▁mhalairt	-9.29923
▁taighde	-9.29977
chlár	-9.30148
onn	-9.30202
▁rialta	-9.30245
▁tabhairt	-9.3042
▁etc	-9.30448
íos	-9.30474
▁uimhir	-9.30642
▁fada	-9.30725
▁cúna	-9.3076
Bord	-9.30783
▁comhlachta	-9.31316
▁infheidhme	-9.31498
▁Bhallstá	-9.31502
▁gcuideachta	-9.31568
óga	-9.31806
▁maoin	-9.31833
▁halt	-9.31835
▁DO	-9.31853
▁o	-9.31854
▁cumhacht	-9.32091
▁réasúnach	-9.32395
▁íseal	-9.32409
▁chúirt	-9.3255
▁deimh	-9.32572
▁cinnte	-9.32635
rac	-9.3283
▁scrío	-9.32843
▁bharr	-9.33079
▁cosaint	-9.3311
▁doiciméid	-9.33303
▁nochta	-9.33338
▁fhéadfa	-9.33368
ithre	-9.33403
▁rún	-9.33483
▁Soláthra	-9.33576
ly	-9.33633
▁scrúdú	-9.33741
ip	-9.33821
oifigeach	-9.33895
▁láimh	-9.33966
T	-9.34046
▁díobh	-9.34081
▁páirtí	-9.34127
▁fíneáil	-9.3419
▁Soils	-9.34508
▁córa	-9.34635
▁tuillea	-9.34636
▁Porn	-9.34712
▁Idir	-9.34949
▁Chomh	-9.35128
▁27	-9.35289
▁iarnró	-9.35346
óra	-9.35449
▁choinníoll	-9.35706
sanna	-9.35879
▁soiléir	-9.35971
▁rialaithe	-9.3608
ACHT	-9.36276
▁Cliath	-9.36394
▁Product	-9.36394
▁Cánach	-9.36399
▁páirteach	-9.36472
▁oibriú	-9.36532
▁gnáth	-9.36548
ord	-9.36649
▁sócmhainn	-9.36657
▁gabhá	-9.36869
▁Cuarda	-9.36983
▁fheidhmiú	-9.36984
▁gné	-9.37156
▁ghnó	-9.37232
▁tapa	-9.37343
▁Rialtais	-9.37529
▁thabharfa	-9.37823
▁ábhair	-9.37893
▁seachtain	-9.38049
▁soils	-9.38075
▁tuairisc	-9.38367
▁ghairm	-9.38374
oideachais	-9.38545
▁ainmnithe	-9.38552
▁éasca	-9.38576
▁Márta	-9.38654
▁riosca	-9.38786
▁aer	-9.38853
▁seach	-9.38883
lann	-9.39051
▁chinnt	-9.39077
▁bainistíocht	-9.3911
▁feist	-9.39142
▁bhfad	-9.39233
▁forbartha	-9.39249
▁neart	-9.39257
▁phoiblí	-9.3929
▁Meán	-9.39332
ide	-9.39475
▁Iúil	-9.396
▁29	-9.39635
▁iasacht	-9.39739
▁ngair	-9.39743
▁bhforáil	-9.398
▁tástála	-9.39827
▁raon	-9.40065
▁z	-9.40298
ire	-9.40372
land	-9.40417
▁ullmhú	-9.40494
▁gcuir	-9.40597
▁dleacht	-9.40598
▁ionstraim	-9.40648
▁plean	-9.40729
▁freastal	-9.40899
▁tábhachtach	-9.40956
▁Sláinte	-9.40984
▁gceannas	-9.41145
▁Deirea	-9.41179
▁thart	-9.41191
▁níl	-9.41237
▁oifige	-9.41255
▁fhaigh	-9.41445
▁iii	-9.41449
▁costas	-9.4154
▁Líne	-9.41543
shan	-9.41566
▁dheon	-9.41667
▁Eanáir	-9.4197
raí	-9.41985
▁léamh	-9.42127
▁déantóir	-9.42195
▁Táirg	-9.42258
▁nasc	-9.4231
▁glan	-9.42337
ábhar	-9.42351
▁bán	-9.42407
▁Cuirf	-9.42505
▁eolai	-9.42573
▁chumas	-9.4263
▁teast	-9.42938
▁193	-9.43024
▁fhorála	-9.4313
Údará	-9.43137
▁Dá	-9.43148
Rialtas	-9.43198
▁2008	-9.43318
▁Físeá	-9.43326
▁taithí	-9.4336
▁gnéas	-9.43415
P	-9.43526
Ú	-9.43526
▁ham	-9.43614
▁bheala	-9.43699
▁lorg	-9.43744
K	-9.43748
uirthi	-9.43912
▁fáth	-9.43943
▁foráil	-9.44003
▁ort	-9.44075
scaoileadh	-9.4409
▁SC	-9.44272
▁ligean	-9.44325
v	-9.44374
▁Leasa	-9.44382
▁ceist	-9.44522
ul	-9.44573
List	-9.44639
▁dubh	-9.45017
▁dhó	-9.45098
▁sár	-9.4514
ia	-9.45261
▁fuinn	-9.45292
▁eisiúint	-9.4545
▁ball	-9.45613
▁teach	-9.45689
H	-9.457
anas	-9.45737
▁saintréith	-9.45768
▁Leictreon	-9.45832
▁gclár	-9.45947
▁fh	-9.46022
▁fostaíochta	-9.46112
▁sheirbhís	-9.4618
▁choiste	-9.46182
▁údarú	-9.46277
▁thógá	-9.46283
F	-9.46358
M	-9.46504
▁Oireachta	-9.46543
▁cona	-9.4659
▁caiteacha	-9.46668
inn	-9.46876
▁inniú	-9.46927
ine	-9.4698
▁aois	-9.47083
▁sraith	-9.47547
íre	-9.47782
▁theacht	-9.4787
▁ghnóth	-9.4802
V	-9.48184
▁tionscna	-9.48207
oir	-9.48256
▁mbliana	-9.48299
▁mion	-9.48368
▁fuair	-9.48368
aimseartha	-9.4838
ITHE	-9.48427
ealach	-9.48457
▁socha	-9.48679
▁Éirinn	-9.48768
▁Contae	-9.48837
▁cúit	-9.48982
▁ríomhaire	-9.49119
el	-9.4917
▁céad	-9.49195
▁bhearta	-9.49235
▁and	-9.49242
▁Iarscríbhinn	-9.49265
▁K	-9.49378
éil	-9.49382
▁tairiscint	-9.4948
▁thugta	-9.49527
▁ACHT	-9.49597
▁físeá	-9.49628
▁Cuirea	-9.49916
laigh	-9.49919
▁féach	-9.49954
onaid	-9.50032
▁sprioc	-9.50054
▁ré	-9.50156
▁léas	-9.50177
▁dír	-9.50183
éard	-9.50366
▁mhór	-9.50389
▁balla	-9.50538
Á	-9.50633
▁caillteana	-9.50864
fho	-9.50872
ers	-9.51023
▁chó	-9.51108
▁bord	-9.51529
▁cheist	-9.51529
▁aistrithe	-9.51646
▁ciall	-9.51826
▁tús	-9.51851
▁cruinn	-9.52009
▁Grúpa	-9.52042
▁chaitheamh	-9.52075
▁min	-9.52178
▁Cúirte	-9.52259
▁luaith	-9.52349
▁scannán	-9.52376
▁léiriú	-9.52555
ibh	-9.52664
▁thionscna	-9.52717
▁Clárú	-9.52739
▁teagmhá	-9.52748
▁tré	-9.52754
▁có	-9.53081
▁simplí	-9.53096
▁críoch	-9.53178
▁thuras	-9.5324
▁oifigiú	-9.53319
▁éil	-9.53329
▁cailín	-9.53368
▁hearra	-9.53437
▁ró	-9.53627
▁stoc	-9.53842
▁foirm	-9.53917
▁cláir	-9.54017
ngach	-9.54058
ment	-9.5421
hníomhaireacht	-9.54232
▁domhan	-9.54377
oil	-9.54606
▁TV	-9.54621
▁sábháilteacht	-9.54756
▁scoil	-9.54824
▁gC	-9.54868
▁úsáideoir	-9.54917
scoileanna	-9.5499
▁reachtú	-9.55056
▁dliteana	-9.55066
▁fear	-9.55077
▁scéime	-9.55125
▁shocrú	-9.55414
▁Déanta	-9.55555
▁seomra	-9.55611
IS	-9.55712
EIDEA	-9.55752
▁Clár	-9.55761
▁saoire	-9.55876
▁Cuid	-9.55971
▁2006	-9.56017
dong	-9.56035
▁Sonraí	-9.56097
omhairc	-9.56108
▁scriosa	-9.56235
oidh	-9.56545
ling	-9.56614
G	-9.56749
▁cumhachta	-9.56764
MS	-9.56855
▁cosc	-9.56978
▁adhmai	-9.57298
▁éinn	-9.57307
▁iarracht	-9.57477
▁Bhaile	-9.58024
▁Choiste	-9.5811
▁institiúid	-9.58146
Stiúrthóireacht	-9.58197
▁chomhaont	-9.58323
▁dom	-9.5842
▁frith	-9.58533
▁bhreise	-9.58755
▁teanga	-9.58769
▁bosca	-9.58778
▁muirear	-9.58948
▁cm	-9.59023
▁gala	-9.59181
ga	-9.59421
▁oibleagáid	-9.59614
▁volta	-9.59621
▁tuig	-9.59686
▁scoile	-9.59709
▁gcur	-9.59711
▁Gan	-9.5976
▁iarra	-9.59788
ian	-9.59807
▁socrú	-9.59929
▁réamh	-9.60055
▁Alt	-9.60081
24	-9.60142
▁Lawn	-9.60181
▁to	-9.6023
x	-9.60268
▁cleachta	-9.60275
▁chu	-9.60414
AMH	-9.60456
▁gheobha	-9.60529
▁post	-9.60529
éir	-9.60569
ru	-9.606
▁athbhreithniú	-9.60613
▁éifeachtach	-9.60774
▁leanúnach	-9.60875
▁slándá	-9.60902
▁bliant	-9.61027
áit	-9.61077
▁laeth	-9.611
ard	-9.61133
ll	-9.61227
▁léinn	-9.61275
▁cineálach	-9.61447
▁sealbhóir	-9.61546
▁teicniú	-9.61605
▁ndáir	-9.61637
▁tharraingt	-9.61667
▁punt	-9.61709
▁leictreonach	-9.61789
▁fosta	-9.61917
▁40	-9.62038
▁ísle	-9.62329
▁árachais	-9.6233
▁ghlac	-9.62335
▁fanacht	-9.62336
▁thagairt	-9.62348
▁roghna	-9.62426
▁milliún	-9.62438
▁forál	-9.62686
eithre	-9.62966
▁Cur	-9.63086
▁v	-9.63302
▁Stiúrthóir	-9.63336
he	-9.63451
thréimhse	-9.63519
▁bhfaigh	-9.63521
▁cheadúna	-9.63698
▁éisteachta	-9.63879
▁LE	-9.64072
méadú	-9.64432
ity	-9.64486
ag	-9.64491
oirceallá	-9.64514
seamh	-9.6452
▁Tuga	-9.64532
▁beart	-9.64603
▁clárú	-9.64651
▁creidmheasa	-9.64715
▁meaisín	-9.64732
▁fheiceá	-9.6487
▁Rogh	-9.6487
▁cheangla	-9.64955
io	-9.65071
▁dleathach	-9.65256
▁Guan	-9.65303
▁shonró	-9.65333
▁parlaiminteach	-9.65351
▁baile	-9.65367
bogearra	-9.65394
▁Déan	-9.65496
ontas	-9.65523
▁Ollscoil	-9.65612
▁leabhar	-9.65627
fach	-9.65719
íocht	-9.65827
ófa	-9.65883
▁dearbhú	-9.66001
▁tacú	-9.66003
▁leathn	-9.66008
▁plandáil	-9.66011
▁chothabháil	-9.66019
▁thíos	-9.66034
táille	-9.66114
▁inmheánach	-9.66273
▁iascaireacht	-9.66368
▁chuntasaíocht	-9.66432
cumhachtaí	-9.66701
chta	-9.66745
▁sampla	-9.66943
▁mbainf	-9.66985
teannta	-9.67025
▁rátaí	-9.67035
▁cheadú	-9.672
▁gCuid	-9.67371
▁Bain	-9.67439
▁dT	-9.67456
▁thaispeáin	-9.67511
▁bpoint	-9.67511
▁molta	-9.67516
▁bhf	-9.67536
▁Meitheamh	-9.67536
▁réit	-9.67548
▁inniúla	-9.67592
▁Tabharfa	-9.67634
▁gcóra	-9.67649
▁freagra	-9.67685
▁gnótha	-9.67699
tory	-9.6774
▁tráchtál	-9.67762
isce	-9.6784
▁dlite	-9.67843
ordaithe	-9.67935
inse	-9.67942
▁Úsáid	-9.67972
▁éadrom	-9.68028
6	-9.68044
▁Teach	-9.68105
aip	-9.68369
éal	-9.68497
fháil	-9.68639
lú	-9.68702
▁oscailte	-9.68791
▁caite	-9.69025
▁tsuim	-9.69043
▁Chonra	-9.69097
▁thuillea	-9.69191
▁mheas	-9.69198
▁Ph	-9.69199
▁Mura	-9.69219
ba	-9.69323
▁aisíoc	-9.69579
▁liúntais	-9.69616
nta	-9.69755
▁IV	-9.69788
▁corpraithe	-9.69869
▁Foins	-9.70281
▁cuma	-9.70319
▁ph	-9.70463
▁gCoimisinéir	-9.706
▁32	-9.70603
▁faire	-9.70679
▁reachtaíocht	-9.70738
▁foirn	-9.70745
▁bhailiú	-9.70755
▁long	-9.70932
▁éag	-9.71005
oist	-9.71029
▁Aibreá	-9.71118
rís	-9.71178
▁úinéir	-9.71191
ry	-9.71223
▁scair	-9.71257
aíochta	-9.71313
ib	-9.71378
▁contae	-9.71386
▁Londa	-9.71387
▁sláintíocht	-9.71388
▁tarmlig	-9.7139
mná	-9.71397
▁mhodh	-9.71399
▁breathn	-9.71431
▁gcomhair	-9.71448
▁on	-9.71496
▁coiste	-9.71503
▁déag	-9.71546
▁substaint	-9.71745
▁talmhaíocht	-9.71778
ro	-9.71925
▁chosc	-9.71955
▁malairt	-9.72181
▁cárta	-9.72181
▁Bealtaine	-9.72199
▁éisteacht	-9.72212
▁fiche	-9.72258
▁cionn	-9.72284
ies	-9.72294
▁deich	-9.72299
▁tos	-9.72312
ugtha	-9.72372
íochána	-9.72387
▁Tiarna	-9.72486
▁cionta	-9.72609
▁leanfa	-9.72651
▁chaiteacha	-9.72706
▁réidh	-9.72809
▁Ina	-9.72922
ainne	-9.72931
▁iontu	-9.72981
ainm	-9.73072
▁scor	-9.73159
▁aitheanta	-9.73252
ofa	-9.73297
▁achtachá	-9.73309
▁prionsaba	-9.73337
los	-9.73447
▁fhoirm	-9.73501
earra	-9.73543
▁dochtúir	-9.73636
▁treoir	-9.73701
▁uirlis	-9.73724
▁bhíthin	-9.73788
▁straitéis	-9.73806
▁Feabhra	-9.73821
uaidh	-9.73838
▁Comh	-9.7392
▁meán	-9.73963
úla	-9.74141
▁réasúnta	-9.74164
▁onnmhaireoir	-9.74271
▁shealbh	-9.74277
IN	-9.74486
▁crua	-9.74641
▁Chuir	-9.74665
▁infheistíochta	-9.74722
▁gheimhr	-9.74823
▁scéal	-9.74824
▁35	-9.74902
▁pe	-9.7499
tí	-9.75214
▁brú	-9.75556
▁fost	-9.75565
▁brath	-9.75732
▁cíos	-9.75864
▁chontae	-9.76002
▁álainn	-9.76031
▁glas	-9.76071
67	-9.76205
▁comhlíona	-9.76249
▁sóisial	-9.76346
▁Ríocht	-9.76361
▁sean	-9.76375
tú	-9.76402
▁Á	-9.7646
▁ainmniú	-9.76686
▁Áth	-9.76717
oibreacha	-9.76752
oiread	-9.76835
all	-9.76855
▁sholáthra	-9.76883
▁2007	-9.77089
fhéid	-9.77089
▁sheachada	-9.77097
iompar	-9.77125
▁iarrthóir	-9.7716
▁Dlí	-9.77197
▁cheap	-9.77218
▁dócha	-9.77226
▁195	-9.77256
▁Airgid	-9.77326
▁cuntas	-9.77359
▁aicm	-9.77392
▁sc	-9.77486
▁gcuirf	-9.77646
▁phróiseáil	-9.77765
▁fheabhsú	-9.77855
▁socruithe	-9.77948
▁beo	-9.77949
▁coitianta	-9.77954
▁ghearradh	-9.77977
▁Eor	-9.78106
▁treorach	-9.78112
▁Forála	-9.78331
co	-9.7857
▁suí	-9.78601
▁Iarnró	-9.78608
▁stíl	-9.78609
▁cumas	-9.7861
▁rachai	-9.7871
▁Dia	-9.78717
▁2010	-9.78759
▁gcomh	-9.78765
▁SOLAS	-9.78768
▁Scéim	-9.78768
▁sealadach	-9.78821
25	-9.79014
▁mórdhíol	-9.79147
aire	-9.79152
▁com	-9.79171
▁oibríochta	-9.79172
▁leighis	-9.79331
▁deontas	-9.79467
▁pictiúir	-9.79624
▁thiocfa	-9.7969
ocht	-9.7976
▁lár	-9.79783
97	-9.79915
▁60	-9.79979
aptha	-9.80041
▁staid	-9.80061
▁Oideacha	-9.80107
▁Eola	-9.80146
▁earnáil	-9.80191
▁údar	-9.80235
▁iniúcha	-9.80247
▁himeachta	-9.80272
▁Dara	-9.80369
▁cuairt	-9.80477
▁dtiocfa	-9.80485
▁dhearbh	-9.80534
▁eacnamaíoch	-9.80665
▁Dh	-9.8081
lu	-9.81036
▁Córa	-9.81081
▁For	-9.8109
▁phríomh	-9.81093
▁cóir	-9.81231
▁taifead	-9.8125
▁fadhb	-9.81354
▁Tuirc	-9.81356
▁cáilithe	-9.81363
▁Naisc	-9.81382
▁Éisteachta	-9.81509
▁bhéarfa	-9.81516
heannta	-9.81547
▁múinteoir	-9.81704
li	-9.81723
▁Scoil	-9.81816
▁shonra	-9.8182
aontú	-9.81874
▁trína	-9.81929
8	-9.82017
▁lean	-9.82106
▁Gnótha	-9.82173
uine	-9.82201
▁líonra	-9.8226
éar	-9.82349
muigh	-9.82372
ant	-9.82399
▁Moncler	-9.82456
▁próiseas	-9.82578
▁bhain	-9.82627
▁stair	-9.82725
▁déan	-9.82757
▁siopa	-9.8276
mhuireara	-9.82795
▁Poiblí	-9.82799
▁brabú	-9.82828
rátaí	-9.8284
▁bhaile	-9.83006
st	-9.83038
▁gcuirfea	-9.83055
achomair	-9.8312
▁2001	-9.8315
fh	-9.83214
▁bhreis	-9.8326
▁chomhlachta	-9.8346
▁Bainistíocht	-9.83528
cu	-9.8357
▁chóras	-9.83788
▁diúlt	-9.83802
▁Trí	-9.83812
▁Re	-9.83838
lacha	-9.83952
▁Chuideachta	-9.84056
éasca	-9.84146
▁athr	-9.84172
▁agam	-9.84199
▁saineola	-9.84242
▁bp	-9.84315
▁díospóireacht	-9.84361
▁chion	-9.84485
sc	-9.84528
▁gceann	-9.84561
▁Gh	-9.84623
tv	-9.84665
▁luaidhte	-9.84737
▁clip	-9.84911
▁cúraim	-9.8492
▁ghinearálta	-9.84953
uaire	-9.85007
▁sochai	-9.85136
nách	-9.85189
▁cheapfa	-9.85224
▁Cl	-9.85352
▁conartha	-9.85788
▁speic	-9.85813
▁Talmhan	-9.85819
▁Lúnasa	-9.85825
▁Ciste	-9.85882
▁Chomhphoba	-9.8597
▁chéim	-9.86057
▁bhliantú	-9.86088
Chiste	-9.86123
Aibreá	-9.86132
▁conra	-9.86183
▁cheannas	-9.86248
▁Saor	-9.86271
▁asbhaint	-9.86297
▁buan	-9.8667
▁smaoin	-9.86691
airgead	-9.86725
maoine	-9.86733
▁Gharda	-9.86737
▁dhliteana	-9.8675
▁thuas	-9.86787
▁chríoch	-9.86862
▁gcé	-9.86864
▁oscailt	-9.86889
▁fostaí	-9.86918
▁chuirf	-9.86954
eana	-9.87065
▁fuarth	-9.87151
▁táill	-9.8723
▁iasc	-9.87294
▁chomhlacht	-9.87604
▁leithligh	-9.87668
▁plaisteach	-9.87681
▁faireachá	-9.87712
▁ngairm	-9.87761
▁déanmha	-9.87775
▁phobal	-9.87814
▁Fear	-9.8786
ation	-9.87942
▁mheasúnachta	-9.88008
▁ainmh	-9.88291
▁leictreacha	-9.88441
ime	-9.88449
athaoirleach	-9.8846
▁gléas	-9.8849
▁tithíocht	-9.88604
▁tuismitheoir	-9.88606
chóireáil	-9.88623
▁monarcha	-9.88646
▁Hot	-9.88673
▁seachtrach	-9.88744
▁mhaithe	-9.88785
▁La	-9.88835
▁fostóir	-9.88836
▁gceart	-9.88861
iúla	-9.89044
▁tháirgeadh	-9.891
ora	-9.89168
IL	-9.89173
▁Ord	-9.89214
pa	-9.89217
▁phoba	-9.89392
▁híoc	-9.89441
▁cúpla	-9.8954
▁chomhairle	-9.89592
▁cuarda	-9.89604
inbh	-9.89647
▁Dáta	-9.89703
▁dualgais	-9.89783
▁bás	-9.89897
▁Threo	-9.89955
tee	-9.90016
ki	-9.90017
▁íomhá	-9.90314
▁crité	-9.90506
▁leithéid	-9.90521
▁réigiún	-9.9053
10	-9.90572
▁míle	-9.90602
▁solas	-9.90771
▁iontaobha	-9.90782
▁fheidhm	-9.90796
▁tacaíochta	-9.90839
▁comhpháirt	-9.90845
▁chinnf	-9.90953
▁cheanta	-9.90955
▁45	-9.91327
▁Príomh	-9.91336
EORPA	-9.9136
▁shár	-9.91432
▁bPríomh	-9.91454
▁500	-9.91508
▁Cruach	-9.91509
▁roghanna	-9.91512
eolas	-9.91532
▁cinntí	-9.9154
▁ragha	-9.91625
▁ceadúnais	-9.91696
▁luas	-9.91722
▁00	-9.91886
▁mB	-9.92133
▁stáisiú	-9.92137
91	-9.92225
▁chóra	-9.92351
▁seacht	-9.92407
▁Gaeltachta	-9.92439
▁dearg	-9.9245
ty	-9.92532
port	-9.92538
▁Hel	-9.92586
▁Fh	-9.92611
▁sábháilte	-9.9269
▁Coda	-9.92798
▁tairbhe	-9.92878
▁chearta	-9.93043
▁fág	-9.93084
isc	-9.93216
agartha	-9.9323
▁thoil	-9.93249
▁soláthraí	-9.93261
▁bhreith	-9.93306
de	-9.93378
▁dromchla	-9.93406
▁1999	-9.93422
▁teoranta	-9.93474
ti	-9.93603
▁cúirte	-9.93636
▁tuairisceá	-9.93778
▁gairdín	-9.93939
▁34	-9.94022
▁trádá	-9.94118
▁Chiste	-9.94179
▁spás	-9.94181
aid	-9.94211
elet	-9.94297
ac	-9.94302
▁eol	-9.94312
▁spreaga	-9.94354
Load	-9.94396
▁gCúirt	-9.9441
7	-9.94446
airdín	-9.94491
▁eagraíocht	-9.9451
▁cheada	-9.94529
▁soláthróir	-9.94564
▁grá	-9.94583
mhór	-9.94613
ST	-9.94643
orthaí	-9.94807
▁UM	-9.94826
▁pleaná	-9.9485
▁cruinni	-9.94886
▁limisté	-9.94906
churtha	-9.94915
asc	-9.94947
▁mheasfa	-9.94954
eacair	-9.95014
léireofa	-9.95369
▁fuaime	-9.95389
▁leordhóthanach	-9.954
▁Commit	-9.95402
▁2005	-9.95403
▁thalamh	-9.95451
▁caighdeáin	-9.95465
hiúscairt	-9.95467
ate	-9.95492
▁réite	-9.95529
▁fhoilsi	-9.9563
▁leasuithe	-9.95835
aíocht	-9.95913
▁Fógra	-9.95974
▁oideachas	-9.96021
▁traidisiún	-9.96062
load	-9.9627
▁sainche	-9.96318
▁grianghra	-9.96377
ive	-9.96384
▁BliainDaon	-9.96406
▁cumarsáid	-9.96406
▁diúité	-9.96406
▁sheirbheáil	-9.96406
▁tiomána	-9.96406
▁Caibidil	-9.96421
▁Porno	-9.96458
▁ghrúpa	-9.96525
▁gcomhlíona	-9.96571
▁gnócha	-9.96716
oifig	-9.96725
▁Speisialt	-9.96797
▁Mh	-9.96813
▁ordó	-9.96824
▁caiteachais	-9.96978
▁mbun	-9.97009
▁aice	-9.9704
▁stóráil	-9.97097
▁cuntasaíocht	-9.9727
▁dheimhniú	-9.97272
▁Sraith	-9.97332
▁ng	-9.97381
▁mara	-9.97387
▁gloine	-9.97483
póirt	-9.97515
▁toradh	-9.97621
▁fir	-9.97735
▁fianaise	-9.97837
▁tseirbhís	-9.97841
áilte	-9.97863
▁suntasach	-9.97928
DH	-9.98048
déileáil	-9.98237
▁Screen	-9.98457
▁sreang	-9.98459
ab	-9.98513
▁Post	-9.98539
▁Te	-9.98563
namh	-9.98576
▁Ansin	-9.98584
▁iarbh	-9.98607
▁teilifíse	-9.98624
▁dheirea	-9.98691
▁gcomhar	-9.98769
▁oíche	-9.98822
om	-9.98895
tor	-9.98924
ribh	-9.99047
lá	-9.99089
oibriú	-9.99107
▁iasca	-9.9916
áis	-9.99174
▁éagsúlacht	-9.99178
▁gearr	-9.99321
lacht	-9.99389
▁AR	-9.99409
orbartha	-9.99459
▁taispeáint	-9.99503
▁leigheas	-9.99507
▁tuiscint	-9.99553
Chúirt	-9.99562
▁33	-9.99621
▁bhainfid	-9.99627
▁príobháideach	-9.99686
▁Mo	-9.99786
▁shonr	-9.99915
▁bainisteoir	-9.99928
▁tréimhs	-10.0005
iamh	-10.0012
▁ús	-10.002
omhaid	-10.004
ri	-10.004
▁Sh	-10.0041
▁pinsin	-10.0042
▁leibhé	-10.0054
▁theicniú	-10.0055
▁Split	-10.0055
▁uathoibríoch	-10.0055
▁soláthra	-10.0056
▁2004	-10.0056
▁feiceá	-10.0057
éile	-10.0068
▁saoráid	-10.0072
eoil	-10.008
▁bunúsach	-10.0088
▁mac	-10.009
▁bhainisti	-10.01
▁méada	-10.0116
iarratasóir	-10.0117
phointe	-10.0118
▁oibreacha	-10.0136
ice	-10.0148
▁chomhair	-10.0151
▁chónaithe	-10.0152
dóigh	-10.0155
27	-10.0157
▁maoirseacht	-10.0174
▁struchtúr	-10.0184
▁chinn	-10.0186
W	-10.0188
osach	-10.0195
▁Stair	-10.0202
▁fororda	-10.0204
ie	-10.0205
▁táscair	-10.0226
▁shuíomh	-10.0229
▁Trácht	-10.0236
▁oiliú	-10.0246
IT	-10.0251
▁Leasaí	-10.0252
ná	-10.0257
▁suite	-10.0265
▁mBan	-10.0266
▁druga	-10.0269
▁Banc	-10.0272
▁taist	-10.0273
▁Sóisial	-10.0286
▁bó	-10.0287
ve	-10.0291
▁téacs	-10.0299
man	-10.0308
▁Oideachas	-10.0311
▁airgeadra	-10.0314
▁imscrúdú	-10.0317
▁Iompair	-10.0318
▁fhomhír	-10.0324
▁36	-10.0324
▁blas	-10.0325
héann	-10.0326
▁leanúna	-10.0345
▁oiliúna	-10.0346
▁Leis	-10.0346
▁Uisce	-10.0347
▁tástáil	-10.0357
ailte	-10.0364
▁ghabháil	-10.0368
▁bunaío	-10.0377
▁pointe	-10.0379
▁Allah	-10.0379
▁1976	-10.0379
▁PH	-10.0381
▁taifid	-10.0384
▁réim	-10.0399
▁lámha	-10.04
▁Tionsca	-10.0412
▁díolúin	-10.0415
▁nAcht	-10.0426
▁sp	-10.0454
aistriú	-10.0455
▁ghníomh	-10.0455
fort	-10.0459
ráid	-10.0476
▁Togra	-10.0488
▁Bosca	-10.0488
▁Páirt	-10.0488
▁bhforál	-10.0489
▁breithiúna	-10.0491
▁beala	-10.0499
da	-10.05
▁w	-10.0503
▁bpost	-10.0508
fheidhmeanna	-10.0509
cheart	-10.051
▁ea	-10.0517
▁Institiúid	-10.0518
▁comhionann	-10.0523
▁Theas	-10.0533
▁gluaiseacht	-10.0536
▁tíre	-10.0546
AE	-10.0553
5	-10.0571
rianchlo	-10.0593
▁catagóir	-10.0599
▁bunaidh	-10.06
▁seasamh	-10.0602
ud	-10.0604
▁Déanann	-10.0607
▁uairean	-10.0609
▁pionós	-10.0629
▁ról	-10.063
íní	-10.063
▁So	-10.0651
▁mhargadh	-10.0664
▁192	-10.0669
thar	-10.0673
▁réigiúnach	-10.0678
▁ghnótha	-10.0697
▁agóid	-10.0704
istí	-10.0707
shuiteáil	-10.0711
▁ceachta	-10.0712
op	-10.0715
▁gcomhalta	-10.0722
▁staidéar	-10.0724
▁Céad	-10.073
comparáid	-10.073
▁feabhas	-10.0732
▁gCuideachta	-10.0732
▁Tabhair	-10.0735
íocfa	-10.0736
oird	-10.0741
▁Ábhar	-10.0753
cal	-10.0781
▁Rinne	-10.0781
ineacht	-10.0786
23	-10.0788
ochta	-10.0788
▁difriú	-10.0792
▁feithicl	-10.0798
▁ceadú	-10.0806
▁glac	-10.081
▁dtreo	-10.0817
▁aithint	-10.0817
▁chláir	-10.0821
aghas	-10.0823
▁Monaróir	-10.0825
▁dheasca	-10.0827
▁bréagach	-10.083
▁su	-10.0842
▁Ire	-10.0847
11	-10.0856
▁ardchaighdeá	-10.0865
▁bhord	-10.0874
áireamh	-10.0881
éirí	-10.09
ras	-10.0906
▁chua	-10.0908
▁iarratasóir	-10.0911
▁shábháil	-10.0913
▁théarma	-10.0918
▁Catagóir	-10.094
▁ollmhór	-10.094
▁fuar	-10.0965
▁ceall	-10.0969
thir	-10.099
▁bunú	-10.0993
phost	-10.1004
aitheamh	-10.1004
▁acmhainn	-10.1013
▁Wat	-10.1016
▁teaghlaigh	-10.1019
nár	-10.1019
▁É	-10.1021
TA	-10.1027
sp	-10.1041
▁hAirteaga	-10.1048
20	-10.1053
▁próiseála	-10.1056
▁Chontae	-10.1056
▁fhianaise	-10.1056
▁íosta	-10.1065
▁Airteaga	-10.1085
▁ga	-10.1087
▁tA	-10.1095
▁Dúi	-10.1104
▁chuirfea	-10.1109
▁meácha	-10.1128
▁measúnachta	-10.1132
▁líomatáist	-10.1139
▁sheacha	-10.1147
ph	-10.1153
▁Se	-10.1153
▁athbhreithn	-10.1162
och	-10.1171
▁Next	-10.1174
▁chugainn	-10.1174
ug	-10.1177
▁urrú	-10.1178
▁Sin	-10.1182
▁Pland	-10.1184
▁tobac	-10.1184
HUN	-10.12
▁anailís	-10.1216
▁fhorléir	-10.1221
▁chúit	-10.1231
▁snáithe	-10.1233
ot	-10.1238
▁inneall	-10.124
▁tionónta	-10.1245
▁mbunaí	-10.1252
▁rang	-10.1255
íonna	-10.1263
▁mála	-10.1273
▁cod	-10.1274
▁díls	-10.1287
▁mheán	-10.1288
▁foirfe	-10.1293
iarsma	-10.1293
▁chúlghairm	-10.1293
▁spraoi	-10.1293
▁1963	-10.1294
▁nuashonr	-10.1294
▁tirim	-10.1295
▁comha	-10.1296
dhéanamh	-10.1297
▁European	-10.1298
▁chaoi	-10.1305
▁Oifigiú	-10.1314
▁tógáil	-10.1315
▁baill	-10.132
▁Fac	-10.1326
▁ma	-10.1344
▁Li	-10.1347
▁Barcelona	-10.1354
▁thairiscint	-10.1364
ith	-10.1369
mar	-10.1369
ré	-10.1373
▁dlíns	-10.138
bhreithniú	-10.1388
▁maoiniú	-10.139
▁teagmhála	-10.1403
ARLAIMINT	-10.1408
▁láidir	-10.1413
▁neamhspleách	-10.1416
▁Leanaí	-10.1422
▁duilleog	-10.1427
▁Ceann	-10.1429
▁scile	-10.1436
▁Ainm	-10.1442
▁ionadaí	-10.1473
▁42	-10.1488
▁Có	-10.1494
▁mhola	-10.1494
▁tionsca	-10.1511
64	-10.1534
▁Bláth	-10.1535
▁Choinbhinsiú	-10.1535
▁friotaíocht	-10.1535
▁praghs	-10.1535
▁gcomhlacht	-10.1536
▁Iris	-10.1541
▁todhchaí	-10.1541
▁bronntana	-10.1543
▁deireanach	-10.1551
▁gcuntas	-10.1556
rá	-10.1556
▁se	-10.1568
▁Níor	-10.1571
▁aibí	-10.1574
▁leictreach	-10.1574
ob	-10.1577
▁bonn	-10.1578
▁pearsan	-10.1584
AL	-10.1587
▁bac	-10.1603
▁teorann	-10.1604
úcháin	-10.1605
▁Feidhmiú	-10.1607
uisce	-10.1608
▁thíolaca	-10.162
mm	-10.1627
▁aerártha	-10.165
▁eastá	-10.1651
▁urrús	-10.1656
▁Talmhaíocht	-10.1659
▁Connect	-10.1659
▁titim	-10.1664
▁dhlí	-10.1671
▁teocht	-10.1683
▁Lean	-10.1694
▁dréacht	-10.1695
▁scoirf	-10.1705
▁móra	-10.1718
▁Ghaeilge	-10.1741
▁soláthair	-10.1746
go	-10.1746
▁Bainea	-10.1753
shaol	-10.1756
▁dhiúlt	-10.1771
▁phragha	-10.1778
▁srianta	-10.1785
▁branda	-10.1787
▁dhéag	-10.1788
▁mbeart	-10.1792
stoic	-10.1792
▁46	-10.1793
▁Plean	-10.1793
▁ceanta	-10.1794
▁VI	-10.1795
áitreabh	-10.1807
▁Fostaíocht	-10.181
▁Imeachta	-10.1816
éan	-10.182
▁breis	-10.1826
▁ráitis	-10.1827
roichead	-10.1846
▁mhéad	-10.1856
▁Faisnéise	-10.1858
pháirtí	-10.1858
▁Tionscada	-10.187
▁cód	-10.1881
▁riachtana	-10.1886
▁dtú	-10.1896
óide	-10.1896
▁nglacfa	-10.1897
cónaí	-10.1906
SE	-10.1907
▁ghníomhaíochta	-10.1907
▁Monarcha	-10.191
▁gcoinníoll	-10.191
▁sibhialta	-10.191
▁Ráta	-10.1913
▁pacáist	-10.1914
éifeacht	-10.192
éara	-10.1922
▁custaiméir	-10.1925
▁Euro	-10.1932
▁Gníomhaíochta	-10.1933
▁38	-10.1942
▁chuí	-10.1949
ak	-10.195
▁staidé	-10.195
IR	-10.1964
▁dáilea	-10.1973
▁híocaíochta	-10.1976
ráite	-10.1979
▁37	-10.1988
▁iniúchta	-10.2001
▁39	-10.2009
▁comhréireacht	-10.201
▁2000	-10.2013
▁tóir	-10.2023
▁slán	-10.2032
▁wash	-10.2038
CDD	-10.2039
eofa	-10.2041
▁thógaint	-10.2043
hábhair	-10.2043
▁Mórdhíola	-10.2053
▁EU	-10.2055
▁creidiúna	-10.2059
▁mórdhíoltóir	-10.2067
▁cathaoirleach	-10.2069
▁tromchúiseach	-10.2079
ness	-10.2092
▁aonad	-10.2094
ige	-10.2095
▁Cineál	-10.2103
▁2020	-10.2106
▁cónaithe	-10.2113
aoin	-10.2128
▁léiríonn	-10.2141
▁Seirbhíse	-10.2148
nscne	-10.2158
▁Foirm	-10.2159
▁gcríoch	-10.2165
fheidhmiú	-10.2166
▁Coinbhinsiú	-10.2168
▁Ilghnéitheach	-10.2168
▁teaghais	-10.2168
▁Chearta	-10.2168
▁ghlana	-10.217
éascú	-10.217
iom	-10.2171
▁labhairt	-10.2176
▁liti	-10.2181
▁ex	-10.2184
▁re	-10.2191
up	-10.2201
▁oibríochtú	-10.2204
▁inti	-10.2204
59	-10.2226
▁imeacht	-10.2235
33	-10.2253
oll	-10.2255
▁Su	-10.2265
▁scála	-10.2272
▁taitneamh	-10.2279
▁Pé	-10.2281
ial	-10.2283
▁cathrach	-10.2296
▁Óg	-10.2296
▁Faigh	-10.2297
ici	-10.2297
▁Cumarsáid	-10.23
▁athnuachan	-10.23
▁tógála	-10.23
▁Uachtarán	-10.2301
▁paisinéir	-10.2302
olex	-10.2303
tine	-10.2303
▁Cathrach	-10.2309
▁gorm	-10.2312
▁Leas	-10.2314
▁Lá	-10.2324
▁scoir	-10.2325
▁míniú	-10.2326
reidiúint	-10.2335
itheoir	-10.2335
▁bainisti	-10.2341
▁con	-10.2341
▁páist	-10.2355
mheasúnú	-10.2355
▁nglac	-10.2366
▁Gníomhaireachta	-10.2372
▁difríocht	-10.2378
▁críochnaithe	-10.2384
dhéanta	-10.2398
▁imthosca	-10.2399
▁mblia	-10.24
▁Fo	-10.2422
▁bog	-10.2429
▁Iostanbúl	-10.2433
▁Outlook	-10.2433
▁dhíon	-10.2434
▁chuntas	-10.2435
▁cigire	-10.2436
▁séala	-10.2437
▁caipit	-10.2451
▁70	-10.2458
▁teicneolaíocht	-10.2481
ou	-10.2498
▁Anois	-10.2506
68	-10.2507
▁Sta	-10.2512
▁Sp	-10.2512
▁shóisial	-10.2514
ochair	-10.2518
▁Feidhm	-10.2531
▁dualga	-10.2534
▁Té	-10.2538
athar	-10.2554
▁mhaolú	-10.2568
▁digiteach	-10.2568
▁páipéar	-10.2568
▁uachtar	-10.2571
▁Gairdín	-10.2577
▁cábla	-10.2578
▁coimeád	-10.2596
▁gcóir	-10.2596
one	-10.2598
▁tháirg	-10.26
▁hoifig	-10.2603
osanta	-10.2606
▁rialaitheoir	-10.2623
ent	-10.2625
▁threoir	-10.2629
hosaint	-10.2632
▁Cuideachta	-10.2634
▁Ionad	-10.264
éiríonn	-10.264
▁Daon	-10.2642
ual	-10.2643
▁200	-10.2649
ng	-10.266
▁buntáist	-10.2664
▁ocht	-10.2664
iceáil	-10.2665
▁léasa	-10.2668
▁To	-10.2673
less	-10.2678
mhéid	-10.2681
▁55	-10.2682
▁thrí	-10.2686
▁gcomhlíonfa	-10.2688
▁tionscal	-10.2697
▁chumhda	-10.2705
▁satailít	-10.2705
▁stáda	-10.2705
▁triail	-10.2705
▁taisteal	-10.2707
▁phearsanta	-10.2708
▁Samhai	-10.2711
be	-10.2721
sal	-10.2724
▁mhín	-10.2727
ille	-10.274
▁Nuacht	-10.2747
▁aidhm	-10.2752
▁fhoirgn	-10.2764
▁sholáthró	-10.2771
▁Ná	-10.2782
▁bhean	-10.2807
▁Atha	-10.2812
▁díola	-10.2822
▁chúna	-10.2823
iontaobhais	-10.2828
▁beatha	-10.283
▁Mór	-10.2832
▁éagsú	-10.2838
▁timpeall	-10.2838
▁hArd	-10.2844
▁gcruinni	-10.2845
▁gruaig	-10.2845
▁2002	-10.2847
▁un	-10.2852
▁hAchta	-10.287
▁gcoit	-10.287
45	-10.2871
ER	-10.2878
2003	-10.2881
▁réigiú	-10.2884
▁iomláin	-10.2888
▁feithicle	-10.2892
▁ghníomhaíocht	-10.2895
▁Ealaíon	-10.2899
▁incháilithe	-10.2907
▁comharthaí	-10.2924
▁Athr	-10.2927
▁Iasca	-10.2934
▁faighte	-10.2938
▁thóg	-10.294
▁crann	-10.2955
ow	-10.2956
óige	-10.2961
▁tiocfa	-10.2967
tic	-10.2973
uair	-10.2976
Chúirte	-10.2976
▁amhras	-10.2977
raitheann	-10.2977
▁té	-10.2978
▁deontais	-10.299
oi	-10.2999
▁comhar	-10.3006
▁lárnach	-10.3014
▁bpáirt	-10.3017
▁gcionta	-10.3023
▁cumann	-10.3023
▁chleachta	-10.3026
ton	-10.3032
▁Léig	-10.3037
▁riail	-10.3039
▁gearán	-10.3042
▁Po	-10.3043
▁nea	-10.305
▁phost	-10.3055
▁chláraithe	-10.3058
▁glacfa	-10.3067
oiciméid	-10.3075
ainmneach	-10.3089
▁Éireannach	-10.3093
úint	-10.3094
▁J	-10.3099
▁shláint	-10.3108
nse	-10.3114
56	-10.3118
rádáil	-10.3121
▁únaer	-10.3122
▁Forbairt	-10.3128
▁Taispeáin	-10.3128
▁fhadhb	-10.3128
▁fréamh	-10.3128
▁chonra	-10.3128
▁tomhaltóir	-10.3132
▁gairmiú	-10.3134
lib	-10.3135
▁fiosrúchá	-10.3143
▁intinn	-10.3143
tair	-10.3145
ardú	-10.3146
▁dhul	-10.3149
▁fhág	-10.3152
▁línt	-10.3153
airgeadra	-10.3164
▁chruinni	-10.317
▁croí	-10.3172
998	-10.3175
▁dhear	-10.3183
▁buí	-10.3186
▁phróisea	-10.3195
aill	-10.3196
▁aimsi	-10.3197
▁eagraíochta	-10.3206
chán	-10.3223
▁teasa	-10.3224
▁turas	-10.323
▁ghá	-10.3238
▁tuarascála	-10.3239
▁chaill	-10.3241
▁Shóisiala	-10.3263
▁Local	-10.3273
▁dlíthiúil	-10.3273
▁cóireála	-10.3273
▁ghrian	-10.3274
▁cóireáil	-10.3274
▁Aer	-10.3274
▁caithfi	-10.3274
▁pháirt	-10.3277
mhar	-10.328
▁Sean	-10.3286
▁gléasra	-10.3295
▁DHÉAN	-10.3297
▁gníomhach	-10.3298
▁chluich	-10.3299
▁tháirgí	-10.33
▁cúrsaí	-10.332
▁diúscairt	-10.3345
aimsire	-10.3346
▁scanná	-10.3346
▁náisiún	-10.3359
▁ria	-10.3363
▁Barr	-10.337
▁tosaíochta	-10.337
19	-10.3371
va	-10.3376
est	-10.3377
▁Roghna	-10.3383
▁j	-10.339
ik	-10.3405
óg	-10.3407
ut	-10.3407
airí	-10.342
▁thuairim	-10.342
▁alúmana	-10.342
▁Gluaiseacht	-10.3421
▁míleata	-10.3422
▁ríomhpho	-10.3422
▁fionraí	-10.3423
urscaoileadh	-10.3423
▁measta	-10.3424
▁EUR	-10.3426
▁féilir	-10.3427
▁úis	-10.3427
▁pian	-10.3432
▁rathú	-10.3434
▁éadaí	-10.3441
▁coinníoll	-10.3442
dhroim	-10.3447
▁marga	-10.345
▁mhíniú	-10.3456
▁Nach	-10.3456
iam	-10.3457
▁mhodhn	-10.3459
▁teaghlach	-10.3473
▁cultúr	-10.3473
▁malart	-10.3478
▁reacht	-10.3486
ous	-10.3488
eisiúint	-10.3491
▁cheal	-10.35
teorann	-10.3524
me	-10.3531
▁iontaofa	-10.3538
▁gcoinn	-10.3547
▁cist	-10.3549
lainn	-10.3558
▁hamhá	-10.3565
▁tiomanta	-10.3569
Daonlatha	-10.3569
▁Mheán	-10.3569
▁Rialú	-10.3569
▁oibrithe	-10.3569
▁thuiscint	-10.357
▁gCiste	-10.357
mhaith	-10.357
▁toirt	-10.3572
▁indéanta	-10.3572
▁sceideal	-10.3575
eolaíochta	-10.3576
▁dligh	-10.3576
raein	-10.3576
éad	-10.3581
▁75	-10.3585
▁comhairliúchá	-10.3591
▁thuairisc	-10.3591
▁scríobh	-10.3598
rea	-10.3605
J	-10.3605
▁bhail	-10.3614
▁mola	-10.3615
cmhainní	-10.3618
san	-10.3624
▁65	-10.3627
iasachtaí	-10.3628
▁sheachtain	-10.3639
▁úinéireacht	-10.3655
▁Ráit	-10.3655
▁Europ	-10.3659
ure	-10.3659
do	-10.3662
▁teicneolaíochta	-10.3667
▁roinn	-10.3668
▁mhargai	-10.3675
▁bhfu	-10.3678
eolaíocht	-10.3696
▁bean	-10.3699
▁caipitiú	-10.37
iúint	-10.3703
▁Tuarascá	-10.3715
▁ainmniúchá	-10.3715
ÁS	-10.3715
AN	-10.3718
▁fomhír	-10.3723
▁foláir	-10.3724
▁comhshao	-10.3725
▁fhoirceann	-10.3726
▁Ciall	-10.3726
▁Breith	-10.3729
▁compordach	-10.3729
▁k	-10.3734
▁laethú	-10.3736
▁craiceann	-10.3736
▁clúda	-10.3738
▁iniúchóireachta	-10.3741
▁gco	-10.3744
▁dheona	-10.3752
to	-10.3758
35	-10.3772
▁CF	-10.3776
▁chrutha	-10.378
▁bótha	-10.3791
▁tráchta	-10.3796
▁iarrfa	-10.3801
▁héifeachtach	-10.3803
oc	-10.381
othabháil	-10.3812
▁Pro	-10.3815
osúil	-10.3816
▁St	-10.3819
▁As	-10.3821
▁Léir	-10.3826
Oireachta	-10.3826
ghala	-10.3828
▁marc	-10.3832
▁dtaga	-10.3832
▁thur	-10.3834
▁bailí	-10.3848
▁Síne	-10.3852
▁suimiú	-10.3858
▁bua	-10.3867
▁pá	-10.387
ANNA	-10.3871
ance	-10.3874
Eilvéis	-10.3874
▁Iomlán	-10.3874
▁fórsa	-10.3875
▁Mhár	-10.3875
▁cainé	-10.3877
▁riocht	-10.3877
▁hoibleagáid	-10.388
▁fíon	-10.3881
▁dhochtúir	-10.3881
▁giorra	-10.3885
▁plé	-10.3887
▁Tr	-10.3893
▁meáchain	-10.3912
▁suime	-10.3916
▁pictiúr	-10.3917
fhostaithe	-10.3926
radh	-10.3932
▁mionsonra	-10.3933
▁fhás	-10.3934
▁Eo	-10.3943
arainn	-10.3954
éiteach	-10.3955
iseán	-10.3961
▁chruinn	-10.3967
▁inmhuir	-10.3969
▁éigeandála	-10.3986
▁príosúnacht	-10.3988
▁coda	-10.4005
chánach	-10.4007
bhunaithe	-10.4008
▁feithic	-10.4013
▁fhororda	-10.4017
▁fheithic	-10.402
▁Am	-10.4021
▁míre	-10.4023
▁Saoir	-10.4024
Ó	-10.403
▁Chuarda	-10.4031
▁dteagmhá	-10.4031
▁reáchtáil	-10.4031
▁staitisticí	-10.4031
▁ealaín	-10.4031
▁Praghas	-10.4031
book	-10.4036
▁eochair	-10.404
▁dhaingniú	-10.404
▁cruthúna	-10.404
▁mheasta	-10.4042
36	-10.4045
▁carr	-10.4048
▁toirmeasc	-10.4049
▁chustaiméir	-10.4049
▁pro	-10.4054
▁phionós	-10.4062
íoch	-10.4069
ov	-10.4074
▁ion	-10.4076
tas	-10.4078
▁New	-10.4079
▁me	-10.4089
▁taise	-10.4091
30	-10.4092
▁riala	-10.4095
▁chúram	-10.4096
▁ciste	-10.4099
▁fostaíocht	-10.41
▁measa	-10.4103
fhéadfa	-10.4107
▁caighdeánach	-10.4111
▁riara	-10.4119
net	-10.4128
▁gcumas	-10.4129
▁éirí	-10.4132
92	-10.4148
▁ord	-10.4173
▁IO	-10.4179
▁thiar	-10.4185
▁tairisc	-10.4188
▁Taighde	-10.4189
▁liathróid	-10.4189
▁dian	-10.419
▁páipéir	-10.419
tóir	-10.4191
▁theasta	-10.4197
▁farraige	-10.4198
▁imní	-10.4198
▁CEE	-10.4209
▁toghchán	-10.421
▁vótála	-10.421
▁táirgthe	-10.4222
▁cúrsa	-10.4223
▁Ú	-10.4232
oibr	-10.4233
iarr	-10.4249
▁chorp	-10.4252
▁bhuna	-10.4254
▁st	-10.4254
▁bheag	-10.4272
▁dtáirgí	-10.4278
▁muiri	-10.4282
láraitheoir	-10.4289
▁Teaghla	-10.4296
▁Cáin	-10.4298
▁stáit	-10.43
▁comhartha	-10.4303
iu	-10.4314
▁ordachá	-10.4326
▁fhorghníomh	-10.4331
▁Cumhacht	-10.4337
▁dúrad	-10.4337
▁fáilte	-10.4341
leic	-10.4342
▁treoirlín	-10.4342
▁Fhrainc	-10.4351
▁Uaireadóir	-10.4351
▁cuibhe	-10.4351
olctha	-10.4351
▁Déardao	-10.4351
▁stát	-10.4352
▁chríche	-10.4353
▁gaolmhar	-10.4354
▁gúna	-10.4355
▁Coláist	-10.4357
▁meascá	-10.4357
▁scaipea	-10.4359
▁Tiocf	-10.4362
▁shannt	-10.4364
▁ionchúis	-10.4365
▁Earra	-10.437
▁seachada	-10.4373
▁iv	-10.4376
▁Neamh	-10.4379
▁gníomhaíocht	-10.4392
bu	-10.4392
gar	-10.4393
EASÚ	-10.4399
stát	-10.441
▁Fheidhmiú	-10.4411
▁Céim	-10.4413
ON	-10.4423
ria	-10.443
▁eitilt	-10.4432
▁reachtach	-10.4433
▁géar	-10.4435
▁cruth	-10.4435
▁Áirí	-10.4444
line	-10.4446
íolta	-10.4454
▁ghairmiú	-10.4459
▁cáiliú	-10.4484
▁hionstraim	-10.4484
▁chostas	-10.4502
ex	-10.4508
▁dtuairim	-10.4515
▁polaitiú	-10.4515
▁madra	-10.4515
▁gceanta	-10.4515
▁sainráite	-10.4515
▁vótáil	-10.4516
▁Joint	-10.4517
▁deartha	-10.4517
▁Dollar	-10.4521
▁corparáide	-10.4529
▁rannpháirtíocht	-10.4536
éine	-10.4537
▁eolaíoch	-10.4542
athrú	-10.4542
▁Iarrata	-10.4546
▁choth	-10.4546
▁90	-10.4558
▁teas	-10.456
end	-10.4563
▁fhostaí	-10.4568
▁Ro	-10.4577
▁bailiúchá	-10.4578
▁Eacnamaíoch	-10.4581
mo	-10.4582
▁47	-10.4588
▁lámh	-10.4589
▁48	-10.4595
oma	-10.4602
▁shiúl	-10.4603
▁chaomhn	-10.4615
▁chigire	-10.4617
▁sreabha	-10.4626
▁fhreagra	-10.4638
▁deona	-10.4642
▁tabha	-10.4649
leachta	-10.4654
▁58	-10.4661
OS	-10.4662
▁glasra	-10.4664
oth	-10.4669
▁taisce	-10.467
▁fhor	-10.4679
▁Ghearmáin	-10.4681
▁Riail	-10.4681
▁sruth	-10.4681
▁point	-10.4682
▁scáileá	-10.4682
▁himthosca	-10.4683
▁Rialacha	-10.4683
▁Tugt	-10.4684
CHA	-10.4684
▁polasa	-10.4685
ebate	-10.4686
▁domhanda	-10.4687
▁gcúirt	-10.4688
▁dhiaili	-10.4694
▁leagfa	-10.4694
93	-10.4698
mhairc	-10.4699
▁dtosa	-10.471
▁tharchu	-10.4716
Óg	-10.4719
▁Ceannai	-10.4727
▁mhuirearú	-10.4728
▁Ka	-10.4731
▁Glacfa	-10.4735
tach	-10.474
▁41	-10.4742
▁lag	-10.475
▁Cumhachta	-10.4754
▁Bia	-10.4764
▁Chaibid	-10.4766
▁tábhacht	-10.4766
▁toghchá	-10.4769
oo	-10.478
▁Roinne	-10.4789
▁iarr	-10.4795
▁Straitéis	-10.4796
▁Oibre	-10.4799
ortha	-10.4799
▁dalta	-10.4799
▁tu	-10.4809
▁par	-10.4811
▁Il	-10.4812
▁Sonra	-10.4819
▁Con	-10.4823
samhail	-10.4823
aithí	-10.4829
▁ghníomhaire	-10.4832
▁fhoghlaim	-10.4838
iche	-10.484
COMHAIRLE	-10.4841
▁só	-10.4844
▁chead	-10.4849
▁iPhone	-10.4851
▁víosa	-10.4851
▁Super	-10.4851
▁Dearadh	-10.4851
▁ilbhliantú	-10.4852
▁coiriúla	-10.4859
▁cliceá	-10.486
▁Méad	-10.486
▁Clib	-10.4868
▁laghdaithe	-10.4871
▁eagla	-10.4876
▁Uathoibríoch	-10.4879
▁Beal	-10.4881
▁dháilea	-10.4888
▁son	-10.4889
▁sain	-10.4891
ird	-10.4891
▁ngníomhaíocht	-10.4893
▁Déantóir	-10.4899
éadrom	-10.4912
▁réasún	-10.4914
ious	-10.4917
iv	-10.4917
▁Tábla	-10.4935
▁National	-10.4935
▁44	-10.4946
▁infheistíocht	-10.4948
▁Sna	-10.496
▁meastóireacht	-10.4962
▁IN	-10.4963
ola	-10.4965
▁geall	-10.4965
▁earrach	-10.4967
▁tábla	-10.4973
AS	-10.4977
so	-10.498
▁rolla	-10.4985
scoil	-10.4986
og	-10.4997
▁fholaío	-10.5013
▁ghearr	-10.5017
▁daonna	-10.5017
▁teachtaireacht	-10.5022
▁Cainteoir	-10.5023
▁Comhphoba	-10.5023
▁Tuairim	-10.5023
▁fhad	-10.5025
▁allmhairiú	-10.5025
▁buidéal	-10.5028
thas	-10.5028
CP	-10.5028
▁Dubh	-10.5029
▁cairde	-10.5029
▁dílseána	-10.5029
▁léigh	-10.5033
▁cheadó	-10.5038
▁Comhalta	-10.5039
RE	-10.5043
▁chreid	-10.5054
▁chúig	-10.5058
▁fhágá	-10.5071
▁mp	-10.5072
▁inarb	-10.5072
▁deoch	-10.5076
illiún	-10.5077
▁áise	-10.508
▁ionstraimí	-10.5086
vo	-10.5096
ioncam	-10.51
▁iar	-10.5116
▁gairm	-10.5121
▁cló	-10.5124
▁príomha	-10.5128
airm	-10.5134
▁Comhshao	-10.5135
81	-10.5136
po	-10.5138
▁ab	-10.5164
adóir	-10.5168
▁Feabh	-10.5168
▁Chlár	-10.5174
chur	-10.5191
▁Sainmhíni	-10.5199
▁seiceála	-10.5199
▁traenach	-10.5199
▁tseachtain	-10.5199
▁uaireadóir	-10.5199
▁Diamond	-10.5201
▁chomaoin	-10.5202
▁Ár	-10.5204
▁gar	-10.5206
▁taispeánta	-10.5207
▁State	-10.521
▁díbhinn	-10.5211
▁cáilíocht	-10.5214
▁cuimhne	-10.5215
▁gComh	-10.5222
▁stórála	-10.5229
▁trácht	-10.5242
eoir	-10.5245
▁bhótha	-10.525
▁fios	-10.526
▁oibrí	-10.5263
FC	-10.5274
▁choinne	-10.5275
▁sl	-10.5281
▁co	-10.5284
cuain	-10.5285
▁creat	-10.5285
9	-10.5293
aisghair	-10.5297
▁49	-10.5299
▁dár	-10.5314
▁oibríocht	-10.5314
▁Sola	-10.5319
52	-10.5321
▁meas	-10.5331
▁Leigh	-10.5334
▁oibrío	-10.5334
▁shaol	-10.5343
▁Éire	-10.5363
▁rannpháirteach	-10.5372
▁díospóid	-10.5377
▁mhoill	-10.5377
▁tSeirbhí	-10.5377
isean	-10.5377
▁píosa	-10.5378
▁Mheiriceá	-10.5378
▁bainc	-10.5379
▁bhfostaíocht	-10.538
▁modhn	-10.5384
▁vóta	-10.5385
▁Eile	-10.5385
ture	-10.5385
▁Treorach	-10.5388
▁seachtainiú	-10.5389
▁breac	-10.5392
ló	-10.5401
▁aca	-10.5405
▁meicniú	-10.5417
▁phríobháideach	-10.542
ary	-10.5429
and	-10.5429
ÓN	-10.5435
▁Ha	-10.5441
ful	-10.5442
tube	-10.545
próiseas	-10.5454
baineann	-10.5455
▁chorpr	-10.5463
▁Chomhaont	-10.547
our	-10.5474
▁Universit	-10.5475
pobal	-10.5484
▁oibreo	-10.5485
ás	-10.5488
▁Tí	-10.5494
▁uast	-10.5497
▁bháis	-10.5498
▁tuarasta	-10.5506
▁toghachá	-10.5511
▁próiseáil	-10.5512
ya	-10.5513
▁aimsir	-10.5521
▁dhualga	-10.5524
▁baránta	-10.5525
▁chostais	-10.5526
▁sonrófa	-10.5529
▁tS	-10.5531
Shan	-10.5545
▁Sc	-10.5546
▁Iar	-10.5553
▁ualach	-10.5555
éis	-10.5555
▁ceangailte	-10.5556
▁Google	-10.5559
▁fráma	-10.5559
▁gComhphoba	-10.5559
▁díolachá	-10.5559
▁scilling	-10.556
▁caoga	-10.556
▁1990	-10.5565
itheach	-10.5566
▁díoltóir	-10.5575
▁Ós	-10.5579
uaithe	-10.5579
q	-10.5582
▁ionadaithe	-10.5585
▁beirt	-10.5586
▁Ma	-10.559
▁scáth	-10.5591
▁tarraing	-10.5591
▁Caithf	-10.5592
▁mic	-10.5592
▁shealbhóir	-10.5596
▁Corparáide	-10.5596
NA	-10.5602
▁Gné	-10.5602
irteagal	-10.5603
▁cáilitheach	-10.5604
tais	-10.5608
uaisceart	-10.561
▁Limisté	-10.5614
▁Conra	-10.5615
luach	-10.5615
▁brabús	-10.5619
▁chuarda	-10.5623
▁Cho	-10.5624
oga	-10.5625
▁bróg	-10.5627
ck	-10.563
▁seolta	-10.563
▁chúl	-10.5631
▁Al	-10.5639
▁Tóg	-10.5653
▁Cás	-10.5664
eachín	-10.567
▁cothromaíocht	-10.5671
ACH	-10.5677
iomlán	-10.568
▁No	-10.568
▁vótaí	-10.5691
▁bain	-10.5694
▁hoibre	-10.5695
▁DE	-10.5696
▁tarchur	-10.5703
eáin	-10.5708
eora	-10.5713
29	-10.5722
▁eisío	-10.573
tíre	-10.5739
▁meái	-10.574
▁teagmhas	-10.5743
▁ithreach	-10.5743
▁Health	-10.5744
▁phlanda	-10.5744
▁easpa	-10.5745
▁1994	-10.5745
▁dtuga	-10.5745
▁fhíorú	-10.5746
▁olc	-10.5748
fe	-10.5748
tre	-10.5751
tóirí	-10.5753
▁ceal	-10.5754
▁dúbailte	-10.5754
▁baol	-10.5771
saothrú	-10.5777
▁ócáid	-10.5778
▁rialáil	-10.5784
▁urlá	-10.5787
▁lig	-10.5793
▁iniúchóir	-10.5794
▁phlé	-10.5797
aisghabháil	-10.5798
▁Áiritheo	-10.58
▁meastachá	-10.5805
lag	-10.5807
▁féideartha	-10.5808
▁aeráid	-10.5808
▁dearfach	-10.5816
▁Sóisiala	-10.582
▁bP	-10.5825
▁Gairmiú	-10.5834
▁43	-10.5846
▁chuma	-10.585
age	-10.5853
ows	-10.5854
▁óspidé	-10.5857
▁fáis	-10.587
▁ceangal	-10.5877
ong	-10.588
apa	-10.5885
▁chlúdach	-10.5886
▁mhian	-10.5892
ártha	-10.5896
34	-10.5899
úsáideoir	-10.59
▁cóiríocht	-10.5911
▁shaothr	-10.5912
▁scoláir	-10.5918
▁fheic	-10.5927
chaighdeán	-10.593
▁euro	-10.5932
▁patrú	-10.5933
bhuirg	-10.5933
▁achmair	-10.5934
▁Breataine	-10.5934
▁dóich	-10.5936
▁faisean	-10.5936
▁1960	-10.5937
▁Nós	-10.5944
▁Br	-10.5944
▁bhainea	-10.5946
▁breithe	-10.5947
▁Commission	-10.5948
▁Bearta	-10.5959
MA	-10.5959
aistrithe	-10.5962
▁gcúrsa	-10.5966
TE	-10.599
▁fá	-10.5992
90	-10.5999
▁leasmhar	-10.6008
▁foirceanna	-10.6011
▁Faisnéis	-10.6011
tiú	-10.602
ár	-10.6028
▁Deir	-10.6034
▁Appl	-10.6038
▁Car	-10.6041
▁thos	-10.605
oid	-10.6055
den	-10.6066
▁tsao	-10.6067
▁casta	-10.6068
▁dathanna	-10.6068
▁múnla	-10.6071
▁53	-10.6074
▁mblian	-10.6081
▁síol	-10.6085
lón	-10.6087
seo	-10.6095
▁Táirge	-10.6098
chuid	-10.6104
IC	-10.6104
▁bhfora	-10.6104
▁áireofa	-10.6109
▁chor	-10.6111
Uachtarán	-10.6116
▁nádúr	-10.6116
▁Trádála	-10.6125
▁breosla	-10.6125
▁Frainc	-10.6125
▁scór	-10.6125
▁maireachtá	-10.6126
▁thion	-10.6126
▁1972	-10.6127
▁Domhna	-10.6127
▁Lucht	-10.6127
▁gréine	-10.6128
▁heagraíochta	-10.6128
▁Thuaidh	-10.6129
▁miotail	-10.613
▁Tuarascála	-10.6133
▁Méid	-10.6134
▁cothabhála	-10.6136
87	-10.6138
▁dearmad	-10.6138
orleathan	-10.6138
▁gairmiúla	-10.6142
▁pas	-10.6142
▁dtéarma	-10.6143
▁Sula	-10.6144
fíric	-10.6151
74	-10.6152
▁fóill	-10.6157
▁astu	-10.6164
▁cúirt	-10.6165
▁Iarratais	-10.6167
ascach	-10.6173
▁crios	-10.618
▁níor	-10.6182
▁bheart	-10.6191
▁ghabh	-10.6193
▁rúnaí	-10.6199
un	-10.6199
▁Bardas	-10.6201
ara	-10.6204
óin	-10.6211
▁saoirse	-10.6224
mheasann	-10.6224
▁orainn	-10.6228
▁Líon	-10.6236
▁óna	-10.6246
▁aeir	-10.6257
42	-10.6257
ID	-10.6261
just	-10.6262
chéile	-10.6267
foirt	-10.6271
▁Gu	-10.6274
946	-10.6276
hraitheann	-10.6279
tal	-10.628
▁ha	-10.6293
▁bhall	-10.6296
AT	-10.6301
▁oibreoir	-10.6302
▁02	-10.6303
▁díobhálach	-10.6311
fhorála	-10.6314
▁fhostaíocht	-10.6317
álta	-10.6317
▁timpeallacht	-10.6318
abhartha	-10.6319
▁tóga	-10.6319
▁Mhaigh	-10.632
▁bhfógra	-10.6321
▁pionóis	-10.6321
▁stampa	-10.6321
▁video	-10.6321
▁Phoba	-10.6321
▁monatóireacht	-10.6322
▁chríochnú	-10.6322
▁tiarna	-10.6323
▁nótaí	-10.6323
▁choigeartú	-10.6324
▁fochuideachta	-10.6324
▁1988	-10.6324
▁gCoist	-10.633
▁Digiteach	-10.633
▁eagra	-10.6335
▁tsamhraidh	-10.6335
▁poba	-10.6336
▁crainn	-10.6337
▁caidr	-10.6338
▁mhíchumas	-10.6339
ionad	-10.6346
13	-10.6347
▁staidr	-10.6348
no	-10.6355
oinn	-10.6359
▁ranníocaíochta	-10.6364
per	-10.6367
EC	-10.6369
▁Athbhreithni	-10.6385
▁Iompa	-10.6386
▁ullmha	-10.6387
▁ghlacfa	-10.6387
▁óg	-10.639
50	-10.639
SS	-10.6392
▁chaillea	-10.6393
▁fais	-10.6394
▁siúcra	-10.6397
▁rotha	-10.6413
CH	-10.6415
ey	-10.6415
▁Ath	-10.6416
78	-10.6432
▁Oiliún	-10.6436
hósta	-10.6436
▁ospidé	-10.6437
▁mhuirear	-10.644
▁feiste	-10.644
EANNA	-10.6453
▁gluaisteá	-10.6454
▁Ríomh	-10.6475
▁éifeachtúlacht	-10.6488
que	-10.6493
úinéir	-10.6507
▁tugt	-10.6508
íche	-10.6508
▁tógtha	-10.651
▁gcomhaont	-10.6515
▁teaghrá	-10.6521
▁uathúil	-10.6521
▁vitimín	-10.6521
▁píopa	-10.6521
▁diaper	-10.6521
▁RIALACHÁ	-10.6521
▁aoisliúnta	-10.6522
▁haisc	-10.6522
▁comhiomlán	-10.6523
▁gcomhthéacs	-10.6525
▁1937	-10.6526
Afraic	-10.6532
▁hathru	-10.6532
▁ranníoc	-10.6539
Ch	-10.654
▁athraithe	-10.6543
▁Dearbh	-10.655
▁glao	-10.6556
▁chiste	-10.6556
▁ceapachá	-10.6564
▁rochta	-10.6567
luais	-10.657
▁Pa	-10.6574
▁iontráil	-10.6577
▁Bo	-10.658
▁Thosa	-10.6581
▁snámha	-10.6599
ghluaiste	-10.6606
▁phlean	-10.6607
▁Cúna	-10.661
▁feidhmíochta	-10.6614
▁Measfa	-10.6617
▁Irish	-10.662
▁Ceanna	-10.6622
▁choinníollach	-10.6627
rtha	-10.663
▁oiriún	-10.6634
ci	-10.6636
▁strap	-10.6639
▁shíni	-10.664
có	-10.6644
▁deonaío	-10.6648
od	-10.665
▁tasc	-10.6654
▁Fir	-10.6654
▁gairme	-10.6662
É	-10.6666
shuim	-10.6686
omhdhéanta	-10.669
▁Soláthair	-10.6698
▁soghluaiste	-10.6709
▁srian	-10.6711
burg	-10.6714
fuirm	-10.6721
achomharc	-10.6722
Parliament	-10.6725
▁Phoibl	-10.6725
▁gceangal	-10.6725
▁1961	-10.6725
▁fulaing	-10.6725
▁socraithe	-10.6726
▁Limit	-10.6726
nternational	-10.6726
▁sláintiú	-10.6726
▁lampa	-10.6727
PS	-10.6728
▁chomhlán	-10.6728
táin	-10.6729
▁uiscí	-10.6729
▁insint	-10.6732
▁1978	-10.6732
▁aturnae	-10.6733
▁dho	-10.6743
▁dorcha	-10.6743
▁áiríte	-10.6747
▁eagrú	-10.6747
igthe	-10.675
ics	-10.6762
▁gníomhaire	-10.6768
iniúcha	-10.6775
▁grád	-10.678
▁togha	-10.6781
leibhéal	-10.6781
pi	-10.6793
ja	-10.6796
nas	-10.6801
rua	-10.6815
chtaí	-10.6826
▁cheadúnais	-10.6826
▁féachan	-10.683
choiste	-10.684
▁dícháil	-10.6842
▁mianra	-10.6852
▁Infheistíochta	-10.6852
▁Domhand	-10.6859
▁neamhní	-10.6868
▁scrios	-10.6873
▁inár	-10.6885
▁cruthaío	-10.6892
▁fhonn	-10.6893
chais	-10.6893
▁dheir	-10.6895
scrío	-10.6905
ier	-10.6913
ml	-10.6915
hoist	-10.692
926	-10.6924
▁Tras	-10.6925
▁uain	-10.6926
▁foghlaim	-10.6933
▁bándearg	-10.6934
▁freagairt	-10.6934
▁lipéad	-10.6934
▁Cosaint	-10.6934
▁current	-10.6934
▁lonnaithe	-10.6934
▁huathoibríoch	-10.6934
▁Slándá	-10.6934
▁ceol	-10.6936
▁fhaillí	-10.6938
▁bhosca	-10.6938
▁hoibríochta	-10.6938
ram	-10.6939
▁dainge	-10.6939
▁gceadúna	-10.6939
▁52	-10.694
▁Cuma	-10.6941
▁mhic	-10.6941
▁teagaisc	-10.6942
▁ríomhaireachta	-10.6944
▁saoránach	-10.6953
▁dóiteáin	-10.6954
▁phinsin	-10.6956
▁geal	-10.6964
fheidhmíocht	-10.6972
ailse	-10.6975
▁mbearta	-10.6976
▁Dúin	-10.6976
▁nuacht	-10.698
anaí	-10.6983
▁folamh	-10.6983
ól	-10.6983
▁Fad	-10.6985
oideachas	-10.6987
ireacht	-10.6988
▁chaillteana	-10.6992
▁rannpháirt	-10.6992
▁leaba	-10.6993
▁Scil	-10.6994
▁fógraí	-10.7011
Gníomhaireacht	-10.7013
▁brí	-10.702
ón	-10.7026
naigh	-10.7028
sliú	-10.7035
ínte	-10.7037
áthair	-10.7041
óiste	-10.7042
▁Teicneolaíocht	-10.7045
▁gra	-10.7048
▁éifeachtacht	-10.7049
imeachta	-10.7068
▁Leasu	-10.7078
▁01	-10.708
ions	-10.7085
IGH	-10.7089
dálaí	-10.7098
▁taisc	-10.7104
▁buiséad	-10.7113
▁smaointe	-10.7116
▁morgáiste	-10.7121
▁clúdach	-10.7122
▁bhuiséad	-10.7124
▁custaim	-10.7124
raiceann	-10.7125
▁áititheoir	-10.7125
athanna	-10.7127
▁Freagra	-10.7134
▁iasachta	-10.7137
Fómh	-10.7145
▁lotnaid	-10.7146
▁Public	-10.7146
▁tíolaca	-10.7146
▁pláta	-10.7146
▁Aisghair	-10.7146
▁Fórsa	-10.7146
▁trádmharc	-10.7147
▁foins	-10.7147
▁Jo	-10.7147
▁clasaiceach	-10.7148
▁Dhia	-10.7148
▁Ioncu	-10.7149
▁Andro	-10.715
▁chuspóir	-10.715
▁teachtaireachta	-10.7153
ek	-10.7154
▁Oba	-10.7155
nóna	-10.7156
▁coigeart	-10.7156
▁Nóta	-10.7156
▁dheisiú	-10.7157
▁Bu	-10.7157
▁neamhdhleathach	-10.716
dhlíthe	-10.7173
▁fuinneog	-10.7178
iste	-10.7179
▁saincheist	-10.7187
▁úsáideach	-10.7188
26	-10.7203
▁moill	-10.7213
▁chumai	-10.7219
▁meastóireachta	-10.7224
▁Tu	-10.7224
▁chumann	-10.7225
GE	-10.7239
▁léirithe	-10.7244
aireacht	-10.7249
▁Teicneolaíochta	-10.7249
▁51	-10.7254
▁charm	-10.7255
▁Du	-10.7255
ionann	-10.7256
86	-10.7256
eachtaí	-10.7266
esistant	-10.7268
▁80	-10.7275
▁ráthaíocht	-10.7294
▁ghné	-10.7295
▁sona	-10.7297
▁Poba	-10.7297
▁bainte	-10.7302
▁dhíreach	-10.7316
RA	-10.7329
ionsaí	-10.7329
ball	-10.7334
▁Cha	-10.7336
▁rabha	-10.7347
▁chionta	-10.735
▁miondíol	-10.7351
breá	-10.7353
way	-10.7356
▁sealbh	-10.736
▁du	-10.7361
▁léarscáil	-10.7364
▁troid	-10.7365
▁PDF	-10.7365
▁chailín	-10.7365
▁Charm	-10.7365
▁gcaithf	-10.7366
▁1977	-10.7366
▁Ankara	-10.7367
▁tweet	-10.7368
▁Treal	-10.7368
▁1980	-10.7369
▁dúnta	-10.7371
▁cruinneas	-10.7372
▁gcaoi	-10.7372
▁Áracha	-10.7373
▁oibriúcháin	-10.7384
▁CH	-10.7386
racha	-10.739
▁Cheanna	-10.7392
▁pota	-10.7397
▁gcúis	-10.7397
▁gCaibid	-10.7401
Ão	-10.7402
▁leasaithe	-10.7407
▁tuairisciú	-10.742
▁vótaíochta	-10.7423
beaga	-10.7429
▁díobháil	-10.7437
▁gcaithea	-10.7439
bo	-10.7445
▁tábhachta	-10.7456
▁phearsa	-10.7459
▁dé	-10.7463
Aire	-10.747
pháipéir	-10.7487
oirne	-10.7489
▁tarraingt	-10.749
▁láimhseá	-10.7494
▁Face	-10.7509
ium	-10.7511
▁deas	-10.7513
▁árasá	-10.7523
▁béil	-10.7524
nc	-10.7531
48	-10.7537
gal	-10.7538
TH	-10.7539
▁Éil	-10.7542
▁inneal	-10.7545
▁dlúth	-10.7552
ster	-10.7554
iliú	-10.7565
vi	-10.7576
▁gníomhaireachta	-10.758
▁Rúise	-10.7584
▁toirmisc	-10.7586
▁Fhorbairt	-10.7586
▁phlandáil	-10.7586
▁sliocht	-10.7586
▁dlíthiúla	-10.7586
▁Inter	-10.7586
▁sneachta	-10.7587
▁Tairiscint	-10.7588
sion	-10.7588
▁measartha	-10.7589
▁Fuinn	-10.7589
▁China	-10.759
▁slabhra	-10.759
ect	-10.7596
chas	-10.7598
▁IP	-10.7602
ick	-10.7603
▁chonartha	-10.7603
mharcáil	-10.7606
▁66	-10.7606
ix	-10.7607
939	-10.7609
▁Náisiún	-10.761
uc	-10.7613
▁bradá	-10.7614
▁Costais	-10.7618
▁máist	-10.7619
▁chuntais	-10.7634
▁bheirt	-10.7637
▁muinín	-10.7637
▁ionadaíocht	-10.7639
▁theaghla	-10.7642
▁bainteach	-10.7649
▁tsocha	-10.7651
▁shoot	-10.7654
▁Réigiún	-10.7668
údar	-10.7672
▁thriail	-10.7673
out	-10.7676
▁cath	-10.768
▁gealltana	-10.7683
▁ranníocaí	-10.7697
▁docht	-10.7699
▁Tuairisc	-10.7703
▁shainmhín	-10.7711
líne	-10.7713
cair	-10.7713
iteach	-10.7713
mais	-10.7727
▁Solátha	-10.7734
39	-10.7744
ments	-10.7752
▁shé	-10.7753
▁shaor	-10.7769
BL	-10.7775
ber	-10.7786
Bailiúchá	-10.779
chleachta	-10.7796
▁Par	-10.7805
▁shain	-10.781
▁li	-10.7813
▁120	-10.7813
▁comhlán	-10.7813
fheicthe	-10.7813
▁Poblacht	-10.7813
▁dlítheanach	-10.7813
▁Talún	-10.7813
▁foilsiú	-10.7815
▁Comhlacht	-10.7815
▁gcolú	-10.7817
▁thuismitheoir	-10.7817
▁Leaba	-10.7817
▁cearnach	-10.7818
▁tharmlig	-10.7819
▁árachas	-10.7819
nill	-10.782
▁tap	-10.7821
▁1974	-10.7822
▁bhailíocht	-10.7828
▁inghlactha	-10.7835
eadhon	-10.7842
aíochtaí	-10.7843
mb	-10.7845
▁déanach	-10.7846
inte	-10.7846
▁Áise	-10.785
idirdhealú	-10.7851
▁shon	-10.7853
leas	-10.7855
▁nuachtá	-10.7856
▁innealtóireacht	-10.7858
▁háit	-10.7862
ollar	-10.7877
▁fhostóir	-10.7878
▁fhormheas	-10.7879
▁aisling	-10.7879
EM	-10.7886
▁iomarcach	-10.7887
▁Dhei	-10.7891
▁eisia	-10.7898
▁mm	-10.7898
orm	-10.7906
▁mhonar	-10.7908
▁caol	-10.7923
▁idirbheart	-10.7929
▁síológ	-10.7939
▁thaifeada	-10.7946
ollaig	-10.7951
▁Úcráin	-10.7952
▁taca	-10.7957
ímid	-10.7962
▁scrúdu	-10.7964
▁cine	-10.7968
▁thaiscea	-10.797
▁Údar	-10.7984
▁gceangla	-10.7991
▁fhorchuir	-10.7998
▁athchomharc	-10.8003
▁Crutha	-10.8016
▁Críostaí	-10.8018
▁saothar	-10.8019
Pad	-10.8025
▁litreach	-10.803
▁láidre	-10.8033
▁aquarium	-10.8036
▁bhfoca	-10.8045
▁Meaisín	-10.8046
▁dtarló	-10.8046
▁leithdháilea	-10.8046
uathu	-10.8046
▁ionfhabht	-10.8046
▁Wind	-10.8046
▁cógas	-10.8047
▁Fhorá	-10.8048
▁snasta	-10.8049
▁98	-10.8054
▁barra	-10.8055
▁dhlíthiú	-10.8057
▁Pleanála	-10.8058
▁sínea	-10.8065
▁Fáilt	-10.8065
▁chúrsaí	-10.8073
▁Nó	-10.8073
▁loingseoireacht	-10.808
PA	-10.8086
eitheamh	-10.8087
▁sia	-10.8087
▁toir	-10.8101
ste	-10.8104
▁Comhaont	-10.811
▁bheatha	-10.8115
▁méad	-10.8115
áid	-10.8117
▁Cáilíochta	-10.8117
▁Dún	-10.8124
tBank	-10.8133
▁Ceanta	-10.8135
▁chomhar	-10.8137
liain	-10.8139
riot	-10.8145
▁Pá	-10.8145
65	-10.8146
▁thástá	-10.8148
▁Buna	-10.8149
▁trédhearcach	-10.8153
▁Liosta	-10.8165
▁57	-10.8166
▁coga	-10.8168
▁Leid	-10.8168
▁comhpháirteach	-10.8179
ogadh	-10.8188
SP	-10.8189
▁mionsonraí	-10.8193
▁inbhuanaithe	-10.8193
▁Port	-10.8194
▁bóthar	-10.8204
02	-10.8204
▁fón	-10.8205
rom	-10.8211
logy	-10.8211
ten	-10.8213
úna	-10.8217
▁cúltaca	-10.822
▁gcú	-10.8221
▁fíorú	-10.8222
▁earráid	-10.8229
▁onnmhairiú	-10.8231
▁feirme	-10.8235
▁dinea	-10.8241
▁saorána	-10.8242
▁tarl	-10.8243
tion	-10.8251
háinig	-10.8254
▁nÃ	-10.8261
ithigh	-10.8264
▁gcomhpháirt	-10.8266
▁sm	-10.8268
▁CO	-10.8268
údara	-10.8273
áiste	-10.8277
▁gcomhlíon	-10.8283
▁Service	-10.8284
▁achoimre	-10.8284
▁líomhna	-10.8284
▁Suíomh	-10.8284
80	-10.8285
▁ionchur	-10.8286
▁riarthóir	-10.8286
▁tríocha	-10.8289
▁hinstitiúid	-10.829
▁séasúr	-10.8291
úlra	-10.8291
▁snáithín	-10.8292
▁Rialaithe	-10.8292
▁more	-10.8294
-1	-10.8296
▁fómha	-10.8296
▁cheithre	-10.8297
▁pósta	-10.8297
▁dtrí	-10.8299
▁Breithiúna	-10.8303
IAS	-10.8312
cósta	-10.8315
▁háite	-10.8317
▁bhrú	-10.8317
EA	-10.8326
▁comhshocraíocht	-10.8327
▁luí	-10.8331
▁Or	-10.8332
▁úr	-10.834
▁Gaillimhe	-10.8342
▁PC	-10.8346
▁bhás	-10.8348
oibreoir	-10.8349
▁pu	-10.835
▁sonraíochta	-10.8352
ding	-10.8361
▁barracha	-10.8362
BH	-10.8371
▁Art	-10.8373
▁Coinníollach	-10.8376
▁EP	-10.838
IM	-10.8381
▁óstá	-10.8383
▁toil	-10.8386
38	-10.8389
▁Aonair	-10.839
▁Molta	-10.8395
aille	-10.8399
áide	-10.8399
▁naoi	-10.8403
▁Coinn	-10.8409
▁arm	-10.8428
21	-10.8428
▁Íocfa	-10.8432
osta	-10.8438
▁báis	-10.844
▁Frith	-10.8451
MI	-10.8454
easportá	-10.8454
▁Ur	-10.8456
▁dhíth	-10.8459
▁ET	-10.846
fhan	-10.8461
▁creidmheas	-10.8461
ndi	-10.8468
IÚ	-10.8469
▁Tosa	-10.8471
▁tairbhí	-10.8473
▁chóip	-10.8477
▁Ré	-10.8478
Aois	-10.848
Oidhreachta	-10.848
▁cháil	-10.8482
ainmniú	-10.8491
▁sástacht	-10.8498
sach	-10.8503
▁stop	-10.8508
gram	-10.8509
▁fiacha	-10.851
AP	-10.8511
▁chiallaío	-10.8516
THE	-10.8517
chiste	-10.8523
▁puiblí	-10.8528
iomportá	-10.8528
▁chroí	-10.8528
Bunreacht	-10.853
▁rialála	-10.853
▁LEIS	-10.853
▁soicind	-10.8531
▁lasta	-10.8531
▁thrádáil	-10.8532
▁Cóipeá	-10.8532
▁rapóirtéir	-10.8533
▁sheiceáil	-10.8534
▁Beag	-10.8535
▁Rochta	-10.8537
▁Coiriú	-10.8538
aisghairm	-10.8538
▁Financ	-10.8538
▁aire	-10.8539
▁hachtachá	-10.8539
▁Bliain	-10.8539
únaer	-10.8541
▁VII	-10.8541
▁thomhas	-10.8543
▁x	-10.8543
RC	-10.8544
▁Caighdeán	-10.8547
▁shonrach	-10.8547
▁haois	-10.8556
▁luadhfa	-10.8557
▁chú	-10.8557
▁fhai	-10.856
▁63	-10.856
▁Arm	-10.8561
▁Gnó	-10.8562
phinsean	-10.8565
▁cúl	-10.8566
éilithe	-10.857
▁bhuail	-10.8574
ES	-10.8574
▁cas	-10.8578
Ord	-10.8579
000	-10.8583
ME	-10.8584
▁huisce	-10.8585
▁Cháin	-10.8586
▁díolmh	-10.8589
nia	-10.859
▁admhá	-10.8592
tter	-10.8594
▁thuarascá	-10.8596
▁leaga	-10.8613
tom	-10.8623
▁gcruthófa	-10.8631
▁56	-10.8639
▁mhair	-10.864
▁lascain	-10.8644
▁Mu	-10.8645
▁othar	-10.8648
▁Eaglais	-10.865
▁pearsa	-10.8654
bhar	-10.8659
▁hé	-10.8662
óid	-10.8669
ko	-10.8671
▁Réamh	-10.868
▁bhia	-10.8683
▁Man	-10.8686
▁cuimilteo	-10.8686
▁Bun	-10.8687
▁bhriseadh	-10.8695
▁Sé	-10.8696
▁250	-10.8698
▁India	-10.8701
ghabháil	-10.8702
▁thabha	-10.8708
▁iarrthó	-10.8716
▁héifeachta	-10.8721
▁ghníomhach	-10.8723
tóra	-10.8726
▁macasamh	-10.8734
▁ngabh	-10.8736
EN	-10.8738
▁forlíontach	-10.8743
▁chustaim	-10.8748
lín	-10.8748
tán	-10.8753
eisiúna	-10.8754
▁Costa	-10.876
▁bainis	-10.8761
by	-10.8763
▁Bliana	-10.8765
▁comhlacha	-10.8773
31	-10.8773
reibh	-10.8776
▁po	-10.8777
▁mhainn	-10.8777
▁Seapáin	-10.8778
▁cumhda	-10.8778
▁foghlam	-10.8778
▁praiticiú	-10.8778
▁sceimhlitheoir	-10.8778
▁fiáin	-10.8778
▁sásra	-10.8778
▁oiriúint	-10.8778
▁lógó	-10.8778
▁seasta	-10.8779
▁orgánach	-10.8779
▁tSeana	-10.8779
▁bhfomhír	-10.8781
▁fachtóir	-10.8782
▁1941	-10.8783
▁Foireann	-10.8786
▁athchóiriú	-10.8787
▁poll	-10.8788
daonra	-10.8788
▁liacht	-10.8789
▁hiarratais	-10.879
▁béim	-10.8793
▁riaráist	-10.8794
▁eisc	-10.88
▁marbh	-10.8802
irc	-10.8803
iarrthóir	-10.8807
▁vi	-10.8808
▁thionscada	-10.8809
▁comhachta	-10.8812
▁comhlachais	-10.8813
▁cu	-10.8817
iseal	-10.8824
▁Acmhainní	-10.8826
▁hiarratas	-10.883
▁carachta	-10.8831
▁Airgead	-10.8836
▁Tua	-10.8838
▁fíorai	-10.884
▁per	-10.8844
list	-10.8844
naisc	-10.8845
936	-10.8847
ior	-10.8848
▁uirbeach	-10.8849
▁fhorchu	-10.886
▁Mac	-10.886
▁Dhá	-10.8864
18	-10.8874
▁saibh	-10.8875
ally	-10.8878
▁méadaithe	-10.8881
▁comhla	-10.8881
fheidhm	-10.8882
aoiseach	-10.8883
ox	-10.8886
▁shainaith	-10.8893
dar	-10.8894
▁68	-10.8897
▁Áit	-10.89
▁iomlána	-10.8911
▁sciath	-10.8913
▁fáinn	-10.892
▁bhainistíocht	-10.8927
oireann	-10.8933
ionadaithe	-10.8935
▁Lig	-10.8936
▁Io	-10.8945
▁mhion	-10.895
▁72	-10.8954
▁Socha	-10.8961
▁púda	-10.8963
▁caithea	-10.8964
▁casa	-10.897
▁Aib	-10.897
▁dáileog	-10.8992
▁cháilíocht	-10.8998
▁chumhachta	-10.8999
▁Fe	-10.9002
▁03	-10.9002
▁droch	-10.9007
▁cos	-10.9013
▁bhainistí	-10.9017
ka	-10.9017
▁We	-10.9018
▁tomhais	-10.9025
stáil	-10.9028
▁neamhspleácha	-10.9028
aisíoc	-10.9029
▁fiach	-10.9031
▁Deontais	-10.9034
▁bhfaisnéis	-10.9034
▁gcaiteacha	-10.9034
▁geografach	-10.9034
▁cumhrá	-10.9034
▁colún	-10.9034
▁Bursa	-10.9034
▁forchuir	-10.9036
NCA	-10.9036
▁1958	-10.9036
▁theip	-10.9036
▁Teanga	-10.9038
▁SEAS	-10.9038
▁Bhainc	-10.9039
▁Stage	-10.9039
▁73	-10.9041
▁fhorordó	-10.9041
aicm	-10.9041
▁Gnéas	-10.9043
▁bonneaga	-10.9044
▁eintit	-10.9045
▁téama	-10.9045
▁comhordú	-10.9045
▁cobhsaíocht	-10.9047
▁leithleach	-10.9047
▁mhalartú	-10.9047
rian	-10.905
▁Amach	-10.9055
▁thogha	-10.9061
▁Críost	-10.9065
▁Tacaíocht	-10.9067
▁ardlua	-10.907
▁Sonraíocht	-10.907
▁bhuan	-10.9072
▁infheidhm	-10.9075
▁rí	-10.9075
▁leithead	-10.9077
glaoch	-10.9078
oisghrúpa	-10.908
▁gClár	-10.9088
▁hAoi	-10.909
Oifig	-10.9092
▁Fuai	-10.9095
▁mheasúnacht	-10.9097
▁Chá	-10.9097
▁ceannach	-10.9098
▁gcúrsaí	-10.9099
dhíreach	-10.91
dhílse	-10.91
▁gcinnf	-10.9103
▁197	-10.9105
Eanáir	-10.9105
▁ollscoil	-10.9106
▁mhúinteoir	-10.9115
▁TF	-10.9121
▁gcuma	-10.9137
▁Bhain	-10.9142
▁athraío	-10.9145
▁seans	-10.915
últaca	-10.9153
▁fhoins	-10.9162
▁aistrí	-10.9162
can	-10.9172
GA	-10.9172
▁coinn	-10.9172
bheart	-10.9176
▁sho	-10.9177
▁iontrála	-10.9178
▁gcinnea	-10.9179
14	-10.9181
▁bhrabú	-10.9186
▁Bainf	-10.9192
▁diúltach	-10.9196
▁Gníomh	-10.9202
▁bunús	-10.9204
▁cheiliúra	-10.9212
▁Big	-10.9215
▁comhionanna	-10.9215
use	-10.922
▁comhoibri	-10.922
mhná	-10.9222
▁hailt	-10.9222
mhlacha	-10.9222
▁mhea	-10.9225
▁nóta	-10.9226
▁Aireacht	-10.9235
▁toba	-10.9239
▁AG	-10.9243
irigh	-10.9247
mheas	-10.9251
schur	-10.9253
▁hA	-10.9254
▁Oibrío	-10.9262
▁trom	-10.9269
▁Bí	-10.927
▁feast	-10.9275
LA	-10.928
tan	-10.928
▁ciorca	-10.9282
éag	-10.9288
▁Ad	-10.9288
SIS	-10.9289
▁shocró	-10.9297
▁cosantóir	-10.9297
hoblacht	-10.9298
▁Sábháilteacht	-10.9298
▁criostail	-10.9298
▁uait	-10.9298
vision	-10.9298
ábalta	-10.9298
▁fionta	-10.9298
▁fhreagairt	-10.9299
▁USB	-10.9299
▁thoirmeasc	-10.93
▁EURO	-10.93
▁Maisiú	-10.93
▁fianá	-10.9301
▁lia	-10.9301
▁1970	-10.9302
▁1995	-10.9302
▁fiosrú	-10.9304
TC	-10.9305
▁app	-10.9307
▁chólucht	-10.9308
▁Struchtúr	-10.9309
gu	-10.931
▁ruba	-10.9311
▁próisis	-10.9312
▁info	-10.9313
▁Gearr	-10.9314
nó	-10.9315
▁chatha	-10.9318
▁gearrtha	-10.9322
léim	-10.9322
dán	-10.9325
sonraíocht	-10.9329
altaí	-10.933
▁shimpl	-10.9334
▁cheachta	-10.9337
▁blianachta	-10.934
illte	-10.934
lithe	-10.9343
▁hábhar	-10.9343
▁Mara	-10.9351
▁suiteáil	-10.9353
▁ailtireacht	-10.9354
▁Lt	-10.9356
▁orm	-10.936
▁gheofa	-10.9365
▁scairchaipit	-10.9367
▁scagair	-10.9372
▁Hid	-10.9373
55	-10.9375
▁Mp	-10.9377
ator	-10.9379
▁uiscedhíonac	-10.9381
▁fhaois	-10.9382
▁minicíocht	-10.9383
▁Reacht	-10.9384
thain	-10.9394
shláint	-10.9402
▁bainf	-10.9404
▁Leagan	-10.9406
▁trá	-10.9414
oin	-10.9415
iar	-10.9417
▁tírdhreach	-10.9421
dirlíon	-10.9424
ok	-10.943
▁mothú	-10.9431
ainmh	-10.9446
▁Ru	-10.9452
▁ngnáth	-10.9455
▁ranníoca	-10.9467
▁over	-10.9468
▁eachtrach	-10.9471
▁margaí	-10.948
▁héifeacht	-10.9482
iarrachtaí	-10.9487
▁cho	-10.9488
▁Ta	-10.9488
▁táirgeoir	-10.9492
▁shraith	-10.9493
dúil	-10.9494
▁Dleacht	-10.9499
▁scia	-10.9508
ism	-10.9516
iad	-10.9524
▁chónaí	-10.9527
▁chúrsa	-10.9533
▁Bhó	-10.9541
ama	-10.9549
▁dleachta	-10.9549
07	-10.955
rais	-10.9558
▁Mhuir	-10.9559
hibhialta	-10.956
15	-10.9561
▁aistriúchá	-10.9561
stra	-10.9561
▁comhthá	-10.9563
icrosoft	-10.9568
▁countertop	-10.9568
▁tiomáint	-10.9568
▁fheiste	-10.9568
▁tuirlingt	-10.9568
▁Cárta	-10.9568
▁Pháirt	-10.9568
▁uibhe	-10.957
▁1989	-10.957
▁pianbhreith	-10.957
▁claochladá	-10.9571
árach	-10.9571
▁Eachtracha	-10.9571
sheilbh	-10.9571
▁Socra	-10.9572
▁contrártha	-10.9575
▁stiúra	-10.9578
▁Sheirbhís	-10.9579
17	-10.9586
ochairfhoca	-10.9588
▁breiseán	-10.959
iasc	-10.959
▁Parlaiminte	-10.959
omha	-10.959
▁cháis	-10.959
rianta	-10.9591
lanna	-10.9592
daite	-10.9593
▁banc	-10.9596
▁Naom	-10.9598
▁luachála	-10.9598
▁imreoir	-10.96
zine	-10.9601
▁locht	-10.9603
▁triú	-10.9609
SIN	-10.9612
▁téigh	-10.9613
OR	-10.9614
▁Tora	-10.9625
▁Chóra	-10.9627
day	-10.9629
rainn	-10.9633
iúlacht	-10.964
▁coinne	-10.9641
▁chatagóir	-10.9643
isiam	-10.9654
▁duille	-10.9655
▁ráthaíochta	-10.9657
▁CD	-10.9658
thóir	-10.9663
ríche	-10.968
▁Seacha	-10.9686
pol	-10.9689
▁bhfeidhmiú	-10.9692
aw	-10.9703
▁luibhe	-10.9703
▁fhear	-10.9707
men	-10.9709
core	-10.9713
▁mu	-10.9715
▁shanna	-10.9719
leabhar	-10.9725
▁Tit	-10.9725
pt	-10.9729
▁éagumas	-10.9739
asta	-10.9743
▁Sláintíoch	-10.9744
▁airleaca	-10.9751
▁déileála	-10.9754
▁chorparáide	-10.9758
▁fírinne	-10.976
▁onnmhair	-10.9771
▁scil	-10.9778
orainn	-10.978
▁95	-10.9781
lic	-10.979
ich	-10.9796
▁sínithe	-10.9802
▁fhiach	-10.9816
▁Air	-10.9836
▁príobháideacha	-10.9837
▁Leanúin	-10.9844
fhuascailt	-10.9846
▁Gearmáin	-10.9846
▁dealraitheach	-10.9846
▁1962	-10.9846
▁chonaic	-10.9846
▁eisceachtú	-10.9846
▁mheabhair	-10.9846
▁xxx	-10.9846
▁Seomra	-10.9846
▁léitheoir	-10.9847
fhírinne	-10.9849
▁ceannaitheoir	-10.9849
▁1940	-10.985
▁comhtháth	-10.9851
▁phróisis	-10.9852
▁sráide	-10.9853
▁fán	-10.9856
▁parlaimint	-10.9856
▁mbonn	-10.9856
▁300	-10.9858
chomhshó	-10.9859
press	-10.9859
▁dhúna	-10.9859
rúin	-10.9859
▁chónaío	-10.9861
▁thomhaltóir	-10.9864
lánta	-10.9864
▁smacht	-10.9869
▁08	-10.9879
▁Réigiúnach	-10.9881
▁Rúis	-10.9886
▁Leabhar	-10.9889
íocann	-10.989
áistí	-10.9891
▁dhualgais	-10.99
TR	-10.9902
eur	-10.9905
▁fuil	-10.9905
osa	-10.9907
▁59	-10.9908
▁móide	-10.9909
▁bhallóid	-10.9917
▁inniúlacht	-10.9918
▁Laghd	-10.9922
▁with	-10.9924
▁bhainfea	-10.9935
▁pháist	-10.9945
orann	-10.9946
ost	-10.9952
éigean	-10.9964
▁Mó	-10.9967
othar	-10.9967
yst	-10.9968
maid	-10.9976
60	-10.9977
▁measúnacht	-10.9977
▁pobal	-10.9984
▁uasghrád	-10.9985
UM	-10.9988
CC	-10.999
AD	-10.9992
▁thiomáint	-10.9992
éin	-10.9999
gen	-11.0001
▁07	-11.0002
j	-11.0012
▁gcod	-11.0019
sperm	-11.0019
▁caora	-11.0024
mharc	-11.0031
mhuir	-11.0031
roinn	-11.0041
ionraí	-11.0041
ock	-11.005
▁mban	-11.0054
AIS	-11.0054
▁Cor	-11.0061
oibrithe	-11.0061
chruth	-11.0062
▁gCon	-11.0069
ze	-11.007
▁mais	-11.0083
tá	-11.0083
▁fillea	-11.0086
oirmeasc	-11.0096
▁Liúnta	-11.0096
fheistiú	-11.0106
▁Scoile	-11.0111
uimhir	-11.0112
▁pleanáil	-11.0115
▁thaca	-11.0115
▁silt	-11.0115
▁Buan	-11.0119
▁ranga	-11.0119
▁chomhpháirt	-11.0124
▁400	-11.013
▁Caibidl	-11.0131
▁Staitistic	-11.0131
▁WHO	-11.0131
▁fadtéarmach	-11.0131
▁gaineamh	-11.0131
▁eascra	-11.0131
▁normal	-11.0131
▁Bhreithiúnai	-11.0131
▁bhfoirgn	-11.0131
▁dearbhu	-11.0131
▁cócaireacht	-11.0131
▁scriú	-11.0132
▁táiblé	-11.0132
▁chólíona	-11.0132
▁Stíl	-11.0132
▁Phrótaca	-11.0132
▁1983	-11.0132
▁comhlíonta	-11.0133
▁fhómha	-11.0133
▁painé	-11.0133
aoise	-11.0133
▁gnáthchóna	-11.0134
choróin	-11.0135
▁1949	-11.0135
▁ghiniú	-11.0137
▁tsraith	-11.0138
mhaid	-11.0138
▁Shábháilteacht	-11.0138
uan	-11.0139
▁buille	-11.0142
▁bhfabh	-11.0143
éid	-11.0143
▁hard	-11.0144
▁tairbhiú	-11.0147
▁Sráid	-11.0151
79	-11.0152
eithead	-11.0153
▁Comhdhá	-11.0158
RI	-11.0159
▁margaíocht	-11.0159
▁scam	-11.0163
▁nD	-11.0166
▁Féadf	-11.0167
▁choga	-11.018
▁coir	-11.0185
▁clocha	-11.019
▁cnaipe	-11.0197
▁imirce	-11.02
▁Réamhrá	-11.02
▁MAIDI	-11.0202
▁lítear	-11.0206
▁thús	-11.0207
▁coiriú	-11.021
▁suirbhé	-11.0211
▁próifíl	-11.0211
▁scaoilte	-11.0212
▁buiséadach	-11.0213
▁fhógair	-11.0215
king	-11.0217
▁Taispeánta	-11.0218
díotáil	-11.0227
▁mhionn	-11.0235
ound	-11.0237
▁Oifigeach	-11.0255
▁cá	-11.0256
▁cháilitheach	-11.0259
cy	-11.0264
▁bainea	-11.0264
▁mhar	-11.0266
▁nuálaíocht	-11.027
▁Glan	-11.0275
▁mBail	-11.0276
▁dífhostaíocht	-11.0279
▁chinnfea	-11.0281
chéim	-11.0283
▁phun	-11.0289
▁69	-11.0297
▁rath	-11.0298
908	-11.0299
▁Chú	-11.0302
rialacha	-11.0306
▁Gairm	-11.0316
▁Mí	-11.0318
scadh	-11.0318
ven	-11.0326
▁62	-11.0331
▁eadrána	-11.0336
▁feidhmíocht	-11.0339
▁Beo	-11.0345
▁Fora	-11.0346
▁nasctha	-11.0349
outh	-11.0357
cóid	-11.0358
▁hOifige	-11.0378
▁rial	-11.0384
▁ngnó	-11.039
▁intu	-11.0394
▁Feist	-11.0397
▁gnólachta	-11.0399
▁El	-11.04
Sín	-11.0403
▁shocha	-11.0405
áirithe	-11.0406
▁Glaca	-11.0409
ole	-11.0412
▁theach	-11.0414
rbh	-11.0416
mhach	-11.0417
▁straitéiseach	-11.0418
16	-11.0421
▁chothrom	-11.0422
▁61	-11.0422
▁foirmiú	-11.0425
▁Múinteoir	-11.0425
▁Teaghrán	-11.0425
▁diosca	-11.0425
▁neamhghnách	-11.0425
▁céatadá	-11.0425
▁Black	-11.0425
▁dáileoir	-11.0426
▁SOCRÚ	-11.0426
▁chionroinnt	-11.0426
▁Dearg	-11.0426
▁Report	-11.0427
▁scuab	-11.0427
▁dheis	-11.0427
▁Uachtara	-11.0427
▁Bunúsach	-11.0428
uasmhéid	-11.0428
éann	-11.0428
▁póca	-11.0428
urscaoilte	-11.0428
▁foriomlán	-11.0429
▁ww	-11.0429
▁gcineál	-11.0429
tail	-11.0431
▁fuck	-11.0432
▁ghléasra	-11.0432
▁CAI	-11.0432
▁solúbtha	-11.0434
▁dhiúltó	-11.0434
▁1975	-11.0435
▁1950	-11.0435
▁rásaíocht	-11.0436
▁ceamara	-11.0438
▁láithreacha	-11.0442
▁chiall	-11.0443
▁treo	-11.0445
▁Shóisial	-11.0446
▁cuimsitheach	-11.045
▁caith	-11.045
▁iomaíocht	-11.0455
Sualainn	-11.0456
▁Sínis	-11.0458
▁gcáil	-11.046
▁Cu	-11.0464
▁bhfeidhmeanna	-11.0466
▁neamhniú	-11.0472
▁díobhála	-11.0472
áilleacht	-11.0475
ionadaí	-11.0478
Fhor	-11.0485
threora	-11.0487
huaigh	-11.0495
▁ceimiceá	-11.0508
▁ochta	-11.0513
ating	-11.0517
NS	-11.0518
▁All	-11.052
▁déileál	-11.0524
▁Láriona	-11.0525
▁bhrath	-11.0529
AR	-11.0534
▁Roinnt	-11.0535
▁Tuismitheoir	-11.0541
▁feirmeoireacht	-11.0541
▁cruthaithe	-11.0542
22	-11.0544
▁Spáinn	-11.055
▁Íocaíochta	-11.0551
odh	-11.0553
▁rás	-11.0555
▁chaipit	-11.0565
▁Eolaíochta	-11.0596
▁Riarachá	-11.0598
▁thit	-11.0606
▁ceapfa	-11.0613
▁freagrachta	-11.0615
▁Cuideachtan	-11.0616
ence	-11.062
mer	-11.0621
▁héil	-11.0634
scéal	-11.0635
uk	-11.0637
▁gair	-11.0639
▁áisiú	-11.0645
ubh	-11.0657
▁gcoimeád	-11.0657
oibleagáid	-11.0659
96	-11.0661
ithi	-11.0668
qui	-11.0671
▁dílseach	-11.0671
▁Corparáideach	-11.0672
▁Ospidé	-11.0674
▁plátáil	-11.0674
Béarla	-11.0677
▁ghrá	-11.0679
▁íogair	-11.0683
aobh	-11.0685
abhrú	-11.0686
▁Ábha	-11.0687
tréimhse	-11.0688
ionnsca	-11.0695
▁hair	-11.0697
▁cíosa	-11.0697
▁Uairean	-11.0698
▁Samh	-11.0706
ósta	-11.071
bhainn	-11.0713
▁eiseo	-11.0718
▁Dearbhu	-11.0724
fhoir	-11.0724
▁ghréasá	-11.0728
▁Freastal	-11.0728
quo	-11.0728
▁Samsun	-11.0728
▁Barbour	-11.0728
▁codlata	-11.0728
▁ríthábhachtach	-11.0728
▁Dúithch	-11.0728
▁Turasóireacht	-11.0728
▁Clúda	-11.0728
▁íoslucht	-11.0729
▁nGall	-11.0729
▁bplean	-11.0729
▁foilsío	-11.0729
▁inslithe	-11.0729
▁gaile	-11.073
▁bhformáid	-11.073
▁spórt	-11.0732
▁stad	-11.0732
▁hacmhainn	-11.0732
ndiúscar	-11.0733
▁reoite	-11.0735
▁1979	-11.0735
▁banna	-11.0736
comhthéacs	-11.0736
▁cliste	-11.0737
nce	-11.0737
CÁIL	-11.0738
▁ghnéas	-11.0738
▁bhanna	-11.0739
▁mbreith	-11.0739
▁leithroinnt	-11.0743
▁lasc	-11.0745
▁Comment	-11.0747
▁mall	-11.075
tro	-11.0753
▁milis	-11.0758
ÁIL	-11.0761
neach	-11.0762
▁taifeadta	-11.0765
▁inmheána	-11.0767
▁Réit	-11.0773
▁rithte	-11.0775
scartha	-11.0775
▁gearra	-11.0777
▁loinge	-11.0777
éisteacht	-11.0777
▁mi	-11.0786
▁áiritheoi	-11.0789
▁hoifige	-11.0794
▁tionól	-11.0795
▁125	-11.0798
▁míos	-11.0807
dia	-11.0812
▁Fhora	-11.0819
fhoils	-11.0831
▁breithiúnach	-11.0836
ichead	-11.0838
▁eagar	-11.0841
85	-11.0845
▁críochnaitheach	-11.0845
▁cógais	-11.085
luaite	-11.085
▁bhfear	-11.0858
SO	-11.0862
time	-11.0863
▁ndíol	-11.0866
▁AC	-11.0868
bha	-11.0868
▁thrádála	-11.0877
▁chánach	-11.0892
get	-11.0893
▁eisithe	-11.0901
▁ghrád	-11.0914
▁sainiú	-11.0916
líonta	-11.092
54	-11.0922
▁romhai	-11.0922
▁Adhma	-11.0925
▁mhó	-11.0928
ning	-11.0931
▁theorainn	-11.094
▁Chó	-11.0946
▁89	-11.0948
chuideachta	-11.0973
▁chaith	-11.0974
▁Áir	-11.0979
iúcháin	-11.0981
▁imscrúdaithe	-11.0983
aonad	-11.0985
▁láithr	-11.0985
rl	-11.0987
▁Dea	-11.0991
aighdeáin	-11.0993
▁dearca	-11.0994
▁throm	-11.1001
imreoir	-11.1004
phinsin	-11.1007
Mail	-11.1008
RAS	-11.1009
46	-11.101
éilitheoir	-11.1014
▁luadh	-11.1015
forbairt	-11.1016
▁mhéada	-11.1018
▁Chathai	-11.1018
▁Cá	-11.1018
▁06	-11.102
▁trád	-11.1023
onchur	-11.1031
75	-11.1032
uel	-11.1037
▁Teilifíse	-11.1041
▁gcuspóir	-11.1041
▁raidió	-11.1041
▁thaisbeá	-11.1041
▁thogra	-11.1041
▁mhainneachtain	-11.1041
▁socró	-11.1041
▁Techno	-11.1041
▁gearrthóg	-11.1041
▁Talamh	-11.1041
▁Monatóireacht	-11.1041
▁shu	-11.1041
▁héigeanta	-11.1041
▁Office	-11.1041
▁creidim	-11.1041
▁caipín	-11.1041
▁gineadó	-11.1041
United	-11.1042
▁Fionta	-11.1042
▁Dhún	-11.1042
▁Bhuan	-11.1043
▁Chláir	-11.1043
▁mhúin	-11.1043
▁géill	-11.1043
▁bhfostóir	-11.1044
▁chaidr	-11.1045
▁coirp	-11.1045
▁aonfhoirmeach	-11.1046
SI	-11.1047
▁Scannán	-11.1047
▁Word	-11.1047
▁Tionó	-11.1047
▁Gléas	-11.1051
▁Amharc	-11.1053
▁ISO	-11.1054
▁Fásta	-11.1055
▁mainneachtain	-11.1057
▁dhein	-11.106
▁tíotáiniam	-11.1061
▁Meith	-11.1063
íosparta	-11.1063
▁dhiúlta	-11.1065
arm	-11.1072
▁bhfreagra	-11.1073
▁thacaíocht	-11.1076
▁He	-11.1078
▁bra	-11.1079
▁Liúntais	-11.108
▁99	-11.1084
▁ionchui	-11.1085
▁daor	-11.1087
▁cum	-11.1092
▁Free	-11.1093
41	-11.1095
bail	-11.1096
▁samhail	-11.1096
▁cliniciú	-11.1102
hábháilteacht	-11.1104
▁gener	-11.1104
▁Cum	-11.1117
ines	-11.112
▁fhreagracht	-11.1124
▁GO	-11.1129
▁ríomhair	-11.1135
▁trialach	-11.1135
▁inrát	-11.1148
aint	-11.115
▁Chríost	-11.1151
▁foilsithe	-11.1153
fhoills	-11.1154
ves	-11.1156
▁Gréasá	-11.1164
▁Foilseachá	-11.1164
12	-11.1174
med	-11.1176
▁beze	-11.1186
▁Mam	-11.1191
let	-11.1193
achtaí	-11.1194
▁Sche	-11.1196
ngen	-11.1201
alú	-11.1202
▁sheirbhíse	-11.1204
éim	-11.1214
▁Op	-11.1214
▁Lu	-11.1217
▁cirt	-11.122
▁05	-11.1222
ACHA	-11.1223
▁rannpháirtí	-11.1225
ogearra	-11.123
íocaíochta	-11.1234
▁cógaisíocht	-11.1238
▁Measta	-11.1238
▁Mont	-11.125
ithne	-11.1257
léas	-11.1268
ats	-11.1268
EE	-11.128
▁Measún	-11.128
▁eis	-11.1289
▁tag	-11.129
800	-11.1292
▁Lua	-11.1295
▁Pleaná	-11.1299
▁caillte	-11.1305
▁Mi	-11.1309
lia	-11.1312
▁fireann	-11.1319
▁deacrachta	-11.1319
athach	-11.1322
▁deonach	-11.1325
▁gcosta	-11.1331
áthú	-11.1332
▁beann	-11.1333
light	-11.1333
▁Ve	-11.1353
intear	-11.1353
▁monarchan	-11.1355
▁bhF	-11.1355
▁aithne	-11.1358
tuismitheo	-11.136
▁phá	-11.136
▁Cuims	-11.1361
ATIO	-11.1362
▁Education	-11.1363
▁Traenach	-11.1363
▁gcustaiméir	-11.1363
▁Casino	-11.1363
▁Tarraing	-11.1363
▁chlinic	-11.1363
▁gcontae	-11.1363
▁ndeár	-11.1363
▁sráidbhail	-11.1363
▁chluas	-11.1364
▁Tioncha	-11.1364
▁tarrthála	-11.1364
▁Shaorá	-11.1364
▁creidea	-11.1364
▁Garda	-11.1364
gáiste	-11.1364
▁míthreorach	-11.1365
▁rátála	-11.1365
▁buirg	-11.1365
▁dhéanf	-11.1365
idirlíon	-11.1366
▁eHouse	-11.1366
▁fuaim	-11.1366
▁drochuair	-11.1366
▁Seinn	-11.1367
▁Thrácht	-11.1367
▁Dóiteáin	-11.1367
▁ruga	-11.1367
▁1973	-11.1367
▁thabhó	-11.1367
▁tharló	-11.137
▁1985	-11.137
▁ceimiceach	-11.1372
▁seiceáil	-11.1373
chumhacht	-11.1373
▁Oileá	-11.1374
bhliant	-11.1375
▁gaol	-11.1375
▁dearbha	-11.1376
▁comhsheasmhach	-11.1377
quarium	-11.1377
▁meabhrá	-11.138
fhorbairt	-11.1382
▁imeall	-11.1388
▁alcó	-11.1391
▁ÁIR	-11.1396
▁oráist	-11.1397
▁ranná	-11.1406
▁turasóireacht	-11.1406
▁ranníocóir	-11.1407
▁siamsaíocht	-11.1412
▁hurrú	-11.1412
▁soiléire	-11.1413
▁Prótaca	-11.1414
▁gníomhair	-11.1414
agus	-11.1422
aireachta	-11.1422
GB	-11.1424
▁bhóthair	-11.1427
bhail	-11.1428
▁aighneacht	-11.1432
EES	-11.1432
▁contúirteach	-11.1434
seog	-11.1435
▁náisiúnach	-11.1438
▁sex	-11.1439
▁chuimsi	-11.1447
uartha	-11.1453
▁fhionna	-11.1454
▁oidhreacht	-11.1454
▁tromla	-11.1459
▁Foirgníocht	-11.1461
▁fhost	-11.1464
▁brac	-11.1478
▁réaltaí	-11.1479
haisnéis	-11.148
▁chaipitiú	-11.1481
▁infheisteoir	-11.1482
annán	-11.1492
▁cleithiúna	-11.1493
▁iompró	-11.1494
teangacha	-11.1497
ED	-11.1499
únt	-11.1501
▁PR	-11.1507
▁aistreo	-11.1511
▁laghda	-11.1522
DA	-11.1526
▁talmha	-11.1531
fhó	-11.1535
▁comhr	-11.1542
▁cairt	-11.1542
scríbhinn	-11.1543
▁bronnta	-11.1545
▁chlog	-11.1548
▁imréit	-11.155
▁cánacha	-11.155
▁Gaillimh	-11.1556
NE	-11.1559
09	-11.1561
▁léireofa	-11.1562
dal	-11.1563
árthach	-11.1567
ualach	-11.1568
▁ainmneo	-11.1569
▁stairiú	-11.157
▁ban	-11.1572
▁feasach	-11.1574
▁cheartú	-11.1586
▁réad	-11.1588
choda	-11.1597
▁riar	-11.1598
rap	-11.16
▁comhréir	-11.1605
aghaidh	-11.161
▁chíos	-11.1611
▁Seas	-11.1615
rialtas	-11.1622
oilte	-11.1628
▁uachta	-11.1633
ped	-11.1634
▁beacht	-11.1645
▁spéis	-11.1649
min	-11.1656
▁bainistí	-11.166
▁UN	-11.1661
comhpháirtíochta	-11.1662
▁idirlí	-11.1669
▁Oiliú	-11.1669
▁feirmeoir	-11.1671
ocsaíd	-11.1676
▁Domhan	-11.1678
théacs	-11.1682
▁scríb	-11.1684
▁cobhsaí	-11.1684
▁tréithe	-11.1686
▁éileo	-11.1686
▁máthair	-11.1686
▁shocra	-11.1695
srael	-11.1696
ska	-11.1696
▁English	-11.1697
▁armchúirt	-11.1697
▁gCoinbhinsi	-11.1697
▁bpearsa	-11.1697
▁fiacla	-11.1697
▁figiúir	-11.1697
▁fisiciú	-11.1697
▁Movie	-11.1697
▁reifr	-11.1697
▁Grand	-11.1697
▁Mhór	-11.1697
▁Staidr	-11.1697
▁gheilleaga	-11.1697
▁shubstaint	-11.1697
athnuaite	-11.1698
▁céadluaite	-11.1698
icrile	-11.1698
▁sorcóir	-11.1698
▁comhchoiteann	-11.1698
▁Teorainn	-11.1698
▁seachadta	-11.1699
▁mhaoirseacht	-11.1699
▁spriocdháta	-11.17
▁gcó	-11.17
▁Mens	-11.17
▁luaidhe	-11.17
▁ionsú	-11.1701
▁Láithreá	-11.1702
▁ceint	-11.1702
▁trátha	-11.1702
▁09	-11.1703
▁fhreastal	-11.1705
▁1965	-11.1705
CI	-11.1706
▁chronograph	-11.1706
feighil	-11.1708
tho	-11.1711
bar	-11.1712
▁1920	-11.1715
▁úsáideora	-11.1716
▁musc	-11.172
éireo	-11.1728
▁comhábhair	-11.1728
play	-11.1732
▁úll	-11.1734
▁leide	-11.1738
▁Rúisis	-11.1739
▁eip	-11.1749
▁bhog	-11.1751
▁tásc	-11.1753
bheala	-11.1753
▁deartháir	-11.1754
▁muir	-11.1755
▁thuairisciú	-11.1766
cheap	-11.1768
head	-11.1771
▁rite	-11.1779
▁Cheap	-11.178
▁carn	-11.1784
▁míchumas	-11.1791
lte	-11.1791
osú	-11.1794
▁Maga	-11.1796
▁dlíthe	-11.1797
▁Fair	-11.1799
▁Siú	-11.1799
▁scian	-11.1801
▁oileán	-11.1804
▁maisiú	-11.1804
pm	-11.1813
ust	-11.1815
40	-11.1818
▁Aisghabhá	-11.1829
▁Ghnótha	-11.1832
TS	-11.1832
▁Ne	-11.1837
▁láriona	-11.1838
áititheoir	-11.1842
Imm	-11.1844
liú	-11.1844
▁saincheiste	-11.1846
▁fíochá	-11.1853
▁04	-11.1872
▁Leictreacha	-11.188
of	-11.1884
▁Cinn	-11.1888
ome	-11.1897
▁samhra	-11.1898
▁geará	-11.1905
▁hordu	-11.1912
ond	-11.1914
irg	-11.1915
▁cigireachta	-11.1915
▁hainm	-11.1916
▁scaga	-11.1916
lon	-11.1922
▁US	-11.1926
SPC	-11.1932
▁cólucht	-11.1936
▁scriosta	-11.1942
Reachtair	-11.1944
▁Deimhniú	-11.1947
▁cois	-11.1953
illí	-11.1957
▁calaoise	-11.196
ÍOCHTA	-11.1965
▁coiteann	-11.1969
▁thábhachtach	-11.197
▁Aims	-11.1971
▁Gnáth	-11.1972
▁dún	-11.1975
III	-11.1977
▁Modh	-11.1981
▁Feidhmeanna	-11.1988
cre	-11.1989
intiúir	-11.199
▁leacht	-11.1995
aibh	-11.1998
idí	-11.1998
▁stopa	-11.2001
▁éireo	-11.2015
met	-11.2018
SD	-11.2019
▁Cal	-11.202
eagra	-11.2024
eannach	-11.2024
▁féar	-11.2027
mhas	-11.2027
▁fhorord	-11.2028
▁caidé	-11.2029
▁kg	-11.2031
▁contrár	-11.2032
▁chlé	-11.2033
ray	-11.2033
▁77	-11.2034
ghabhála	-11.2034
lé	-11.2034
chomh	-11.2035
mas	-11.2037
Éigipt	-11.2042
▁1947	-11.2042
▁Coimirce	-11.2042
▁World	-11.2042
▁bhfoilseofa	-11.2042
▁fliuch	-11.2042
▁abhcóide	-11.2042
▁bharánta	-11.2042
▁ceangló	-11.2042
▁coincheap	-11.2042
▁lugha	-11.2042
▁phaitinn	-11.2042
▁laighead	-11.2042
▁Science	-11.2042
Abrá	-11.2042
▁Chuig	-11.2042
▁Metro	-11.2042
▁600	-11.2042
▁bagú	-11.2043
▁thionsca	-11.2043
▁mháthair	-11.2043
▁Bronntana	-11.2043
▁forghníomhú	-11.2043
sealbhóir	-11.2044
▁ghaolmhar	-11.2044
▁cupá	-11.2045
▁ceardchuma	-11.2045
▁super	-11.2045
bhuntáist	-11.2046
obháideacha	-11.2046
▁meicníocht	-11.2047
▁Cionta	-11.2048
▁Strap	-11.2048
▁Trá	-11.2049
▁tArd	-11.2049
bhealaí	-11.205
▁Caipitiú	-11.205
▁forex	-11.205
▁Hard	-11.2052
Catal	-11.2053
▁Stiúrthó	-11.2054
íomh	-11.2054
▁Glas	-11.2055
▁Dála	-11.2055
▁1993	-11.2056
tus	-11.2057
ink	-11.2063
vel	-11.2064
▁toghthóir	-11.2065
ghníomh	-11.2072
aigne	-11.2072
▁NÃ	-11.2072
shealbh	-11.2075
▁cara	-11.2076
ithreach	-11.2077
TO	-11.208
▁mínithe	-11.2084
icí	-11.2092
▁ghnócha	-11.2096
▁saill	-11.2102
▁agalla	-11.2107
95	-11.2114
▁SA	-11.2118
▁céannachta	-11.2126
▁Príobháideacha	-11.2127
▁fhoirmiú	-11.2127
Chomhairle	-11.2129
LE	-11.2129
▁mogal	-11.213
▁Breathna	-11.2132
AC	-11.2133
▁allmhairí	-11.2135
▁Conartha	-11.2136
▁Iniúchóir	-11.2139
scála	-11.2142
▁bus	-11.2143
▁dámhachtain	-11.2147
ted	-11.2147
▁shriana	-11.2153
zre	-11.2157
▁iarmhar	-11.2161
▁freagracht	-11.2163
▁Íoc	-11.2164
ley	-11.2165
Hz	-11.2173
▁flash	-11.2179
▁coimisiún	-11.2179
▁rátha	-11.2182
ema	-11.2188
chúrsa	-11.2189
NN	-11.22
▁Dath	-11.2201
gi	-11.2203
agairt	-11.2203
▁cuntasach	-11.2207
▁chríochna	-11.2213
aidrea	-11.2215
▁fhorlíona	-11.2217
▁Cúige	-11.2225
▁Ceart	-11.2232
▁séip	-11.2233
99	-11.2234
▁Caill	-11.2237
cháilithe	-11.2242
70	-11.225
▁mholta	-11.2256
▁comhoiriúnach	-11.2257
▁iOS	-11.2259
▁feistis	-11.2259
▁shása	-11.2263
▁Chur	-11.2273
chuir	-11.2275
▁loc	-11.2287
▁tromchúis	-11.2291
▁idirbhearta	-11.2292
igiú	-11.2293
▁Sín	-11.2293
mtha	-11.2294
aiscí	-11.2296
▁eisiach	-11.2298
▁Féad	-11.2299
▁muireara	-11.2308
▁Lena	-11.2313
▁bhainisteoir	-11.2315
EACHTA	-11.2317
▁fe	-11.2339
anam	-11.2342
ew	-11.2344
▁By	-11.2346
▁ghníomhaireacht	-11.2347
arraige	-11.2347
▁ghluaiseacht	-11.2351
▁Gl	-11.2366
iúró	-11.2367
fhiosrú	-11.2367
▁alcól	-11.237
▁gairea	-11.2371
▁Ais	-11.2379
▁soláthraío	-11.238
▁94	-11.2381
▁sciathá	-11.2382
ACHTA	-11.2383
▁Sion	-11.2383
▁aiseola	-11.2384
▁Bó	-11.2384
▁Com	-11.2395
fhaibhr	-11.2397
aer	-11.2397
mbudsma	-11.2399
▁Ionstraim	-11.2399
▁Uirlis	-11.2399
▁gcaighdeán	-11.2399
▁gcuimhne	-11.2399
▁saighdiúir	-11.2399
▁phacáist	-11.2399
▁póilín	-11.2399
▁Rialáil	-11.2399
▁Dréacht	-11.2399
▁roisín	-11.2399
indíreach	-11.2399
▁árach	-11.2399
▁Dealra	-11.2399
▁peitrilia	-11.24
▁finné	-11.24
▁tsráid	-11.24
ho	-11.2402
▁Custaim	-11.2403
▁Fuck	-11.2403
▁teip	-11.2403
▁Access	-11.2404
▁scur	-11.2405
▁chuga	-11.2406
▁rialtóir	-11.2407
▁Deontas	-11.2407
▁caillea	-11.2408
▁scíth	-11.2409
▁bhreithiúna	-11.2409
▁1966	-11.2409
▁thuaidh	-11.2409
▁airteaga	-11.241
my	-11.241
▁chultúr	-11.241
▁dhír	-11.241
▁1987	-11.241
réine	-11.2411
▁Déag	-11.2417
▁sheasa	-11.2418
▁bagairt	-11.2419
▁Gorm	-11.2419
▁pacáil	-11.2422
▁Oibreacha	-11.2424
inmheasún	-11.2425
uth	-11.2427
HÉAD	-11.2427
▁comhchuibh	-11.2428
▁Creat	-11.243
▁War	-11.243
cheannta	-11.2432
▁cáblaí	-11.2433
▁hearnála	-11.2434
chomhshaoil	-11.2435
▁bhó	-11.2437
▁BTE	-11.2439
▁mhíle	-11.2447
▁Fan	-11.2448
▁lamháil	-11.245
▁toirte	-11.2451
▁Fu	-11.2451
▁mam	-11.2452
▁chreat	-11.2453
▁fiachais	-11.2454
▁gealltanais	-11.2456
▁54	-11.2459
▁comhréireach	-11.2467
mhír	-11.2469
▁stór	-11.2472
▁phola	-11.2472
▁Súil	-11.2473
ádh	-11.2482
▁gcoist	-11.2484
▁Gael	-11.2487
luacha	-11.2495
iompróir	-11.2497
▁Nio	-11.2499
▁fhíneá	-11.25
▁Mheiriceánach	-11.2503
ogha	-11.2503
▁rianú	-11.2503
cheathrú	-11.2505
▁calaois	-11.2505
▁150	-11.251
▁bpríomh	-11.2511
▁MAR	-11.2516
▁Téarmaí	-11.2516
▁iarmhairt	-11.2516
▁Fola	-11.252
Ghaeilge	-11.2524
ách	-11.2527
tábhachtach	-11.2529
substaint	-11.2535
ubli	-11.2537
▁Tos	-11.2537
liúnta	-11.2539
▁mhara	-11.2539
▁Tionól	-11.2539
hanc	-11.2542
OIR	-11.2543
▁cosa	-11.2546
dubh	-11.2554
▁Inc	-11.2556
low	-11.2563
▁gu	-11.2567
▁Leictreach	-11.257
ign	-11.2573
▁faireacha	-11.2578
▁dhíscaoil	-11.259
▁Europe	-11.2598
▁trédhearcacht	-11.26
▁theorant	-11.2601
▁fís	-11.2608
allmhair	-11.2614
▁rothaí	-11.2616
▁Mha	-11.2617
eastá	-11.2621
▁shéala	-11.2628
▁Meiriceá	-11.2637
▁bailiú	-11.2638
▁ainmhí	-11.264
▁salach	-11.264
▁hi	-11.2646
aonta	-11.2647
▁fhorai	-11.265
▁tocsaineach	-11.2653
▁Bhea	-11.2653
▁réalta	-11.2655
▁chaibid	-11.2656
▁bailíocht	-11.2657
▁Thu	-11.2657
ooter	-11.2657
▁Taispeán	-11.2658
▁108	-11.2658
▁sú	-11.2658
éadach	-11.2664
▁seolfa	-11.2665
▁Luain	-11.2668
▁tairbh	-11.2671
▁ioncu	-11.2673
teach	-11.2676
▁bhalla	-11.2679
▁átha	-11.2681
rolla	-11.2682
▁Pins	-11.2687
teoir	-11.2687
▁Aracha	-11.2687
ric	-11.269
aistr	-11.2701
▁deon	-11.2705
▁Di	-11.2705
▁chionn	-11.2718
▁clárúchá	-11.2723
▁Tacaíochta	-11.2727
tighe	-11.2729
▁tiont	-11.2732
SA	-11.2733
ÁN	-11.2735
▁bád	-11.2738
▁Chorca	-11.2746
LC	-11.2747
▁comhacht	-11.2754
▁coig	-11.2755
eibhéal	-11.2756
▁Caipit	-11.276
ealtaine	-11.2761
▁teicníc	-11.2763
▁dtéa	-11.2763
íobla	-11.2763
▁ndlí	-11.2765
▁Cóip	-11.2765
▁Tairisc	-11.2769
▁Stáisiú	-11.2769
▁dtrácht	-11.2769
▁election	-11.2769
▁fuascailte	-11.2769
▁seirbheála	-11.2769
▁Tuarasta	-11.2769
▁shócmhainn	-11.2769
▁erotic	-11.2769
▁tiubh	-11.2769
▁dearthóir	-11.2769
▁Classic	-11.2769
▁Cóiré	-11.2769
▁rannchuidi	-11.2769
▁todóg	-11.2769
▁Staidé	-11.277
▁Tréimhse	-11.277
▁conabla	-11.277
▁Iodáil	-11.277
easóid	-11.2772
▁Comharthaí	-11.2772
▁2-3	-11.2773
▁shamhl	-11.2774
▁Comhlacha	-11.2774
▁Leabharlann	-11.2775
▁CBS	-11.2775
▁nochtfa	-11.2777
▁dheireanach	-11.2778
▁Taobh	-11.2778
▁thaifead	-11.278
▁gairid	-11.2781
▁sása	-11.2783
▁File	-11.2784
▁fara	-11.2784
▁hiarrthóir	-11.2784
pc	-11.2784
▁easnamh	-11.2785
▁Corporation	-11.2787
▁km	-11.2789
▁conarthach	-11.2789
▁aisíocaíocht	-11.2792
▁feitheam	-11.2799
áithre	-11.2799
mhorgáiste	-11.28
▁gcéim	-11.2801
▁ngnótha	-11.2802
▁American	-11.2802
PAR	-11.2805
▁inter	-11.2809
▁doimhneacht	-11.2816
▁saotharlann	-11.2817
▁vót	-11.2818
▁tairseach	-11.2819
▁Ghlac	-11.2819
▁She	-11.282
▁Pay	-11.2822
gan	-11.2824
▁sheachtrach	-11.2824
ct	-11.2825
▁cent	-11.2827
▁ársa	-11.2828
▁éigeantach	-11.283
▁cnó	-11.283
fhág	-11.2834
▁phleanál	-11.2835
▁Muirí	-11.2835
▁folu	-11.2838
▁Bre	-11.2839
▁thír	-11.2845
▁tionsclaíoch	-11.2857
▁beid	-11.2857
máil	-11.2863
feola	-11.2864
ff	-11.2869
ii	-11.2879
II	-11.2883
fhill	-11.2886
▁corr	-11.2887
▁Glac	-11.2895
▁Bhlia	-11.2898
▁fúth	-11.29
con	-11.2904
tóg	-11.2906
aigheann	-11.2907
ghlactha	-11.2912
▁shás	-11.2912
▁muirí	-11.2912
agarmharc	-11.2913
nasctha	-11.2917
▁eu	-11.2917
▁gcumhacht	-11.2919
▁Arna	-11.292
▁mheastóireacht	-11.2924
umha	-11.2926
▁arbh	-11.2928
01	-11.2929
▁bhuío	-11.2929
▁Stra	-11.293
▁dídean	-11.2931
▁gconra	-11.2933
ullmha	-11.2937
abhra	-11.2938
▁ceannair	-11.2939
00	-11.295
▁mball	-11.295
talamh	-11.2951
▁idirghabhála	-11.2969
▁pháipé	-11.2973
▁threor	-11.2977
▁pháipéir	-11.2978
▁64	-11.2979
▁Eorpa	-11.2983
▁Cúig	-11.2986
▁gciste	-11.2992
▁neamhdh	-11.2993
iarraid	-11.2994
iall	-11.2996
▁ngeall	-11.2997
▁cháilíochta	-11.2998
siceo	-11.3006
▁díospóireachta	-11.3009
▁iomaíoch	-11.3012
▁úinéirí	-11.3022
ghabhálach	-11.3028
mon	-11.3033
▁chois	-11.3033
▁aithris	-11.3034
▁urram	-11.3036
oine	-11.3036
▁muc	-11.3039
▁Ghaeltacht	-11.3039
▁sainmhín	-11.3041
▁Pacáist	-11.3045
údará	-11.3048
▁chuims	-11.3049
ical	-11.3052
athbhreithniú	-11.3055
lt	-11.306
▁fhostó	-11.3061
▁trioma	-11.3068
▁eagr	-11.3076
▁Her	-11.3078
▁dheimhn	-11.3091
wan	-11.3098
▁Maoine	-11.31
▁ranníocaíocht	-11.3103
▁Franc	-11.3109
▁Díol	-11.3112
▁féadf	-11.3116
▁Bog	-11.3119
▁seisea	-11.3124
iÃo	-11.313
▁Cúirt	-11.313
▁sheol	-11.3136
▁Ame	-11.3142
MH	-11.3143
log	-11.3147
▁Suirbhé	-11.3151
▁leithreas	-11.3152
ullamh	-11.3153
▁Blonde	-11.3154
▁naipcín	-11.3154
▁tSeapáin	-11.3154
▁teagmhai	-11.3154
▁litríocht	-11.3154
▁theastó	-11.3154
léarga	-11.3154
▁Video	-11.3154
▁constaic	-11.3154
▁soladach	-11.3154
▁éarlais	-11.3154
▁cumhra	-11.3154
▁ciliméada	-11.3154
▁choimirc	-11.3154
▁Bhunreacht	-11.3154
▁Search	-11.3154
▁craicin	-11.3154
▁peata	-11.3154
▁1984	-11.3154
▁Iarmhéid	-11.3155
▁Foghlaim	-11.3155
▁Union	-11.3155
CU	-11.3155
▁PhrÃ	-11.3155
▁Amazon	-11.3156
▁formáid	-11.3156
▁thuig	-11.3157
▁scairshealbhóir	-11.3157
ble	-11.3157
▁sleamhná	-11.3157
▁huirlis	-11.3158
▁banda	-11.3158
▁gunna	-11.3158
▁ceiliúra	-11.3159
ocial	-11.3159
▁1969	-11.3159
Press	-11.3159
ember	-11.3161
ting	-11.3166
▁mias	-11.3166
▁sútha	-11.3167
árachóir	-11.3168
▁Land	-11.3172
▁eatramhach	-11.3175
▁roth	-11.3177
▁Order	-11.3177
▁caing	-11.318
rab	-11.3181
▁ticéad	-11.3184
▁Cumas	-11.3184
mes	-11.3184
GN	-11.3185
▁aisíocaíochta	-11.3193
▁tiús	-11.3198
▁ORD	-11.3201
▁fhada	-11.3205
ming	-11.3206
some	-11.321
▁chaing	-11.3215
▁tram	-11.3222
▁Read	-11.3226
▁cré	-11.3226
▁shaorána	-11.3228
▁Ardchaighdeá	-11.3231
▁Sco	-11.3233
▁mhonaróir	-11.3235
▁mhuiri	-11.3236
dáilte	-11.3241
íleata	-11.3243
▁neamhchomhlíon	-11.3246
▁conraitheoir	-11.3251
▁Chóir	-11.3254
rdú	-11.3259
heobhaid	-11.3259
amar	-11.326
▁bpáipé	-11.3263
▁timthriall	-11.3263
▁MP	-11.3269
ionsaithe	-11.3274
onic	-11.3276
glass	-11.3282
▁cáis	-11.3283
▁scar	-11.3284
▁Scair	-11.3284
Doc	-11.3286
ev	-11.3287
jo	-11.329
bhirt	-11.3292
itheantas	-11.3296
▁gao	-11.3302
▁fhuinneog	-11.3307
▁feabhsú	-11.3307
uxur	-11.3311
▁sara	-11.3315
▁71	-11.3316
▁caomhnóir	-11.332
▁dhíolta	-11.3322
eart	-11.3323
▁spreag	-11.3334
▁fhoca	-11.3336
▁comhábha	-11.3347
chead	-11.3352
▁Amplifier	-11.3355
▁difríochta	-11.3357
▁Cultúr	-11.3358
tírdhreach	-11.3368
▁bhunó	-11.3372
▁bhainc	-11.3372
eagrú	-11.3373
▁naimhde	-11.3374
val	-11.3375
prionsaba	-11.3378
▁foinsí	-11.3378
inneall	-11.3381
▁gcu	-11.3383
▁ghníomha	-11.3386
choimeád	-11.3389
▁tonn	-11.3392
▁67	-11.3397
▁Seola	-11.3397
▁Tai	-11.3399
0	-11.34
▁Fé	-11.3406
báiste	-11.3406
scaradh	-11.3412
▁Iartha	-11.342
reg	-11.3423
▁comhard	-11.343
▁76	-11.3431
▁gabhála	-11.3432
aith	-11.3437
▁forfheidhmi	-11.3439
▁eilimint	-11.3442
VC	-11.3445
aba	-11.3447
▁316	-11.3448
huaisceart	-11.3452
▁Ko	-11.3454
▁Foilsithe	-11.3458
▁gaire	-11.3459
col	-11.3467
▁Star	-11.3467
▁Teorant	-11.3469
▁cloch	-11.3471
▁iompróir	-11.3474
▁bhrabús	-11.3476
▁dtean	-11.3477
▁chárta	-11.348
com	-11.348
▁ghlan	-11.3481
▁cat	-11.3492
▁Seice	-11.3497
▁Rí	-11.3498
▁Dis	-11.3501
aicmí	-11.3505
▁ranna	-11.3507
fhás	-11.3511
ef	-11.3514
▁chabhra	-11.3515
▁gabhálta	-11.3518
CHÁIN	-11.352
▁Deimhn	-11.3522
▁cealla	-11.3528
▁scaip	-11.3532
▁Lár	-11.3533
Fheabh	-11.3538
oncler	-11.3549
▁lasmui	-11.3552
▁sola	-11.3552
▁cathaoir	-11.3554
▁Incredi	-11.3554
▁Danmhairg	-11.3554
▁airbheartó	-11.3554
▁cearrbhacha	-11.3554
meabhrach	-11.3554
▁Cuspóir	-11.3554
▁Stáda	-11.3554
▁dhoiciméad	-11.3554
TAOBH	-11.3554
▁FORÁLA	-11.3554
▁foilseo	-11.3554
▁chartú	-11.3554
▁Rannóg	-11.3554
▁ceirde	-11.3554
▁cairdiú	-11.3554
▁Omega	-11.3554
▁Srian	-11.3554
▁Seachtain	-11.3554
▁ceathrú	-11.3554
▁tréidlia	-11.3556
▁1928	-11.3556
▁marsanta	-11.3557
▁Eura	-11.3557
▁péinteáil	-11.3557
▁coinneáil	-11.3559
▁oinniú	-11.3559
▁guy	-11.356
charachta	-11.3561
▁suiteála	-11.3561
▁fhochuideachta	-11.3561
tis	-11.3564
chláraithe	-11.3564
▁laoch	-11.3564
▁1948	-11.3565
▁kb	-11.3565
▁Hua	-11.3568
▁Díreach	-11.357
▁taoide	-11.3571
▁plú	-11.3575
▁saothra	-11.3575
▁light	-11.3575
idiam	-11.3578
síocháin	-11.3582
súil	-11.3587
ibhe	-11.3589
▁Eagraíocht	-11.3589
▁Time	-11.359
ráthú	-11.3591
▁ndeire	-11.3593
▁ndein	-11.3595
▁astaíochta	-11.3596
▁Cleachta	-11.3597
▁luachmhar	-11.3598
▁chlo	-11.3598
▁strus	-11.3599
work	-11.3602
▁Ion	-11.3605
uin	-11.3605
▁mheasúna	-11.3611
▁Sea	-11.3611
▁Gníomhaireacht	-11.3612
▁teochta	-11.3613
arthu	-11.3616
▁comhthoil	-11.3622
▁Páipéar	-11.3623
▁Mes	-11.3623
▁Ean	-11.3628
981	-11.3634
▁Tithíocht	-11.3636
fer	-11.3638
▁thoiliú	-11.3639
riachtanach	-11.3648
gartha	-11.3655
66	-11.3656
▁comhéada	-11.3665
▁Ola	-11.367
líon	-11.3671
▁fónta	-11.3673
ealaíontóir	-11.3678
bhÃ	-11.3678
▁eat	-11.368
▁ardleibhé	-11.3686
ny	-11.369
▁shínea	-11.3699
▁coil	-11.3702
▁feo	-11.3703
▁imp	-11.3703
uais	-11.371
▁tinn	-11.3714
▁And	-11.3722
▁míochaine	-11.3725
obha	-11.3726
▁gcaing	-11.3727
▁sub	-11.373
choigeart	-11.3731
óca	-11.3737
roinnt	-11.3739
ship	-11.3743
▁Cultú	-11.3754
▁innéacs	-11.3759
▁fearais	-11.3761
▁cheangló	-11.3763
shlánú	-11.377
unt	-11.3775
▁sheachtainiú	-11.3776
eola	-11.3781
03	-11.3784
RÉ	-11.3784
dom	-11.3791
eagar	-11.3797
▁Ón	-11.3798
HT	-11.3798
▁Cabhra	-11.3805
CS	-11.3807
infheisteoir	-11.3819
ration	-11.3821
rely	-11.3825
▁ionta	-11.3829
seomra	-11.3833
sócmhainn	-11.3834
TP	-11.384
Inniu	-11.3842
▁haicmí	-11.3842
▁cáil	-11.3847
Iúil	-11.3848
▁fhu	-11.385
▁Síochá	-11.3851
▁by	-11.3851
íocaíocht	-11.3853
▁uimhreach	-11.3858
▁foirml	-11.3858
▁Táscair	-11.3862
▁ítim	-11.3872
néal	-11.3874
son	-11.3874
▁choda	-11.3883
▁cumhachtach	-11.3889
▁theanga	-11.389
mid	-11.3893
LS	-11.3897
▁cro	-11.3898
900	-11.3905
▁shuim	-11.3905
▁inchinn	-11.3907
ATH	-11.3908
iomláin	-11.3913
▁choinn	-11.3915
▁Fhoir	-11.3917
▁míchuma	-11.392
aonar	-11.3925
ella	-11.3927
ino	-11.3931
▁amharc	-11.3937
▁Mheithea	-11.3938
▁choimisiún	-11.3943
▁iarmhéid	-11.3945
▁mil	-11.3945
▁mhac	-11.3947
▁tosaithe	-11.3948
▁míchu	-11.395
▁Ghnó	-11.3956
▁claon	-11.3956
▁fhiacha	-11.3957
inneas	-11.3961
▁trans	-11.3967
▁CNC	-11.397
▁Invest	-11.397
▁Ceangla	-11.397
▁Nuashonr	-11.397
▁ngrúpa	-11.397
▁smartphone	-11.397
EILE	-11.397
fhórsa	-11.397
▁paraiméada	-11.397
▁Aoisliúnta	-11.3971
▁dhoirtea	-11.3971
▁Cúram	-11.3971
▁ÁITIÚ	-11.3971
▁frithpháirteach	-11.3971
eorpa	-11.3971
▁acadúil	-11.3971
▁sapphire	-11.3971
▁suibscríobh	-11.3971
▁phuiblí	-11.3971
▁1982	-11.3971
▁tiomna	-11.3971
▁Chonartha	-11.3971
▁cloí	-11.3972
▁teoiric	-11.3972
▁smachtbhanna	-11.3972
comaoin	-11.3973
▁éanlaith	-11.3973
▁Sceid	-11.3973
▁téip	-11.3973
▁coláist	-11.3974
iúiré	-11.3974
▁Choiriú	-11.3974
▁radharc	-11.3975
▁Just	-11.3975
▁Samhna	-11.3976
chuimsitheach	-11.3977
▁saille	-11.3977
▁leithreasaí	-11.3978
▁cúins	-11.398
▁1918	-11.398
eochra	-11.3981
chleachtóir	-11.3981
ction	-11.3982
uation	-11.3982
▁seó	-11.3982
▁borr	-11.3983
▁Painé	-11.3985
▁VIS	-11.3987
▁roinnte	-11.3988
▁Srianta	-11.3993
ess	-11.3994
▁thioncha	-11.3994
1957	-11.3999
▁síntiús	-11.3999
▁Maca	-11.4002
▁ngá	-11.4006
69	-11.4012
▁héifeachtú	-11.4013
▁logáil	-11.4013
▁Óir	-11.4014
▁bródú	-11.4018
▁fhritháir	-11.4021
▁coimeádán	-11.4026
araí	-11.4031
▁Dáil	-11.4033
▁náisiú	-11.4033
▁infheistiú	-11.4034
choinneála	-11.4036
▁Ionaid	-11.4056
▁En	-11.4056
▁comhairleoir	-11.406
under	-11.4061
▁bunó	-11.4064
▁Jackets	-11.4068
▁Mhí	-11.4073
▁biotáille	-11.4074
▁bhfás	-11.4077
óireacht	-11.4077
WC	-11.4086
▁shealadach	-11.4089
▁dtagar	-11.4093
▁tharraing	-11.4097
▁tAon	-11.4099
▁abhar	-11.4101
SC	-11.4104
▁rothl	-11.4104
▁Féil	-11.4105
eicníocht	-11.4106
rialta	-11.411
▁lúb	-11.411
back	-11.411
▁faighteoir	-11.4127
▁chreidiúna	-11.4135
íocha	-11.414
▁sannta	-11.4143
▁Mini	-11.415
49	-11.4153
aster	-11.4158
ánaigh	-11.4159
▁ghala	-11.4163
▁tarraingteach	-11.417
▁bhfor	-11.4173
▁tosaíocht	-11.4174
ged	-11.4175
▁aigéad	-11.4178
idéal	-11.4181
di	-11.4182
▁Athchóiri	-11.4183
rdán	-11.4185
ying	-11.4187
mirce	-11.4193
▁hobair	-11.4198
tóireachta	-11.42
▁gcinn	-11.4205
▁hath	-11.4211
▁gluaiseachta	-11.4211
íomhaoin	-11.4212
df	-11.4213
▁theas	-11.4215
▁thionól	-11.4217
▁bhlianacht	-11.4219
▁bhunús	-11.4222
▁morgáist	-11.4223
▁ioncha	-11.4227
olla	-11.423
▁feabhsúchá	-11.4235
▁préimhe	-11.4235
AND	-11.4236
▁gas	-11.4238
▁TAR	-11.4239
oladh	-11.4243
▁gnóthair	-11.4248
▁Pu	-11.4249
athachta	-11.425
▁caint	-11.4252
▁gl	-11.4257
▁ciont	-11.4259
▁buíocha	-11.4266
▁laghdófa	-11.4274
institiúid	-11.4275
▁watch	-11.4277
ung	-11.4279
▁urghabhá	-11.428
▁paist	-11.4281
óis	-11.4283
▁Sl	-11.4284
▁monar	-11.4284
08	-11.4285
iomp	-11.4288
eiceáil	-11.429
▁faillí	-11.4297
▁Per	-11.4297
ullmhú	-11.4298
▁tri	-11.4299
raimí	-11.43
phlean	-11.4302
▁gabha	-11.4303
iniúchóir	-11.4303
fhéadf	-11.4309
▁grafa	-11.4309
oireachta	-11.431
léiriú	-11.4312
fhá	-11.4313
88	-11.4318
▁Don	-11.4319
ave	-11.4319
▁DC	-11.4329
▁ghairme	-11.4331
lot	-11.4332
IREANN	-11.4334
ndment	-11.4334
▁Linn	-11.4354
ealaíon	-11.4355
▁tail	-11.436
▁tO	-11.4362
▁roghnaío	-11.4362
▁gcáin	-11.4362
▁chló	-11.4365
▁folúnta	-11.437
▁Chua	-11.4372
obac	-11.4373
▁High	-11.4375
▁poil	-11.4375
▁gnéasach	-11.4376
chreidte	-11.4379
▁dúshlán	-11.4381
údaró	-11.4387
▁ealaíon	-11.4388
▁85	-11.4388
▁choinní	-11.4389
▁86	-11.439
▁Luc	-11.4395
▁pós	-11.4396
▁labhair	-11.4398
ban	-11.44
▁PO	-11.44
▁sonrú	-11.4402
aife	-11.4403
▁bhabhta	-11.4405
▁bhfeithic	-11.4405
▁feabhsa	-11.4405
▁thrádmharc	-11.4405
▁timpist	-11.4405
▁wallpaper	-11.4405
▁Affair	-11.4405
▁Soláthró	-11.4405
▁fisiceach	-11.4405
▁Rialtóir	-11.4405
▁Tionscna	-11.4405
▁White	-11.4405
▁CRO	-11.4405
▁Téacs	-11.4405
▁fairsing	-11.4405
AIDH	-11.4405
▁School	-11.4405
▁Express	-11.4405
▁Power	-11.4405
▁bacainn	-11.4406
▁bhfeic	-11.4406
▁ghnólachta	-11.4406
▁luíod	-11.4406
▁cluaise	-11.4406
chrios	-11.4406
▁Council	-11.4407
▁lómhar	-11.4407
▁bithicíd	-11.4407
▁Taist	-11.4408
▁Fág	-11.4408
▁foraoise	-11.4408
▁Pearsanta	-11.4408
ilver	-11.4408
▁Tuig	-11.4409
▁substaintiú	-11.4409
▁gcleachta	-11.441
▁FAIR	-11.441
▁dlús	-11.441
▁tráthchoda	-11.441
Kommission	-11.441
-12	-11.4412
▁iníon	-11.4413
riseadh	-11.4413
▁leasachá	-11.4414
▁Bunó	-11.4417
▁comhshó	-11.4418
▁rúis	-11.4418
▁thráth	-11.4419
▁chreidmheasa	-11.442
▁silín	-11.4421
▁cógaiseoir	-11.4422
▁Long	-11.4423
▁peann	-11.4424
▁Foráil	-11.4424
▁achainí	-11.4426
▁piobar	-11.443
TÉ	-11.4431
▁bric	-11.4433
▁One	-11.4436
▁neodrach	-11.444
tíní	-11.4442
▁ndeara	-11.4442
▁Gall	-11.4443
▁Madra	-11.4444
▁gabhálais	-11.4444
▁nimhiú	-11.4445
▁fair	-11.4449
▁Rang	-11.445
▁mbarr	-11.445
áras	-11.4454
▁síochána	-11.4458
▁Comhar	-11.4458
lomhá	-11.4459
▁Suim	-11.4459
Oifigeach	-11.446
▁Airm	-11.4461
ft	-11.4462
▁Soláthraí	-11.4463
▁chod	-11.4464
fheithicl	-11.4466
▁Líonra	-11.4471
▁chomhordú	-11.4472
▁fhiosrúchá	-11.4474
▁imscrúd	-11.4482
▁phr	-11.4484
KB	-11.4484
▁stóras	-11.4484
▁Cruinni	-11.4485
▁leantóir	-11.4488
▁guth	-11.4489
gcomhpháirtíocht	-11.4493
▁Seacht	-11.4495
▁thairg	-11.4497
▁chaighdeánach	-11.4498
▁Ex	-11.4501
▁imoibr	-11.4503
▁Indiach	-11.4507
▁fonn	-11.4521
leanann	-11.4527
▁83	-11.4533
▁meisc	-11.454
-5	-11.454
06	-11.4547
FOR	-11.4548
nste	-11.455
▁hiasachta	-11.4553
▁main	-11.4553
other	-11.4554
orex	-11.4559
▁cistine	-11.4561
▁feasacht	-11.4569
uilte	-11.4571
▁chosant	-11.4578
▁bhliana	-11.4582
gration	-11.4583
mháil	-11.4583
únant	-11.4584
▁bha	-11.4586
tuairiscí	-11.4588
▁forfheidhmiú	-11.459
PE	-11.4591
▁Ear	-11.4598
onta	-11.4599
tógáil	-11.46
cháilíocht	-11.4603
▁eachtraíocht	-11.4606
neacha	-11.461
▁Nov	-11.4614
▁práinne	-11.4615
▁íon	-11.4617
▁fógraíocht	-11.4619
AG	-11.4621
▁trasna	-11.4623
▁stu	-11.4628
dúrad	-11.4633
▁Cáilíocht	-11.4638
éinn	-11.4643
▁bhá	-11.4643
▁bréagá	-11.465
▁190	-11.4651
taisí	-11.4653
teiripe	-11.4653
ICI	-11.4653
▁paitinn	-11.4657
▁bardas	-11.4661
réige	-11.4661
▁Chlárú	-11.4669
▁dteanga	-11.467
▁mothúchá	-11.4672
bhrú	-11.4673
▁TG	-11.4675
▁príomhfheidhm	-11.4678
▁gnóthaí	-11.468
▁Fheidhmeannach	-11.468
uigh	-11.4685
▁Cead	-11.4685
▁ráill	-11.4686
ND	-11.4686
▁gé	-11.4687
▁Ailt	-11.4691
▁thairbh	-11.4691
UR	-11.4691
ngle	-11.4697
▁dheas	-11.4698
údaruí	-11.4705
athra	-11.4713
ney	-11.4714
ham	-11.4716
▁míosú	-11.4716
▁fan	-11.4718
tive	-11.4719
inneacha	-11.4719
téar	-11.4726
▁neamhth	-11.4733
soláthair	-11.4738
▁soithí	-11.4739
▁Conarthach	-11.4744
▁thú	-11.4748
bhreith	-11.4754
▁Sha	-11.476
▁oiriúnaithe	-11.4761
▁bailío	-11.4762
▁Roth	-11.4765
eanach	-11.4767
ated	-11.4769
▁Bainisti	-11.4772
▁coireacht	-11.4774
▁húinéir	-11.4775
iosta	-11.4776
▁fearai	-11.4777
▁Masturbat	-11.4779
▁teileafó	-11.4781
▁coimeádfa	-11.4788
ova	-11.479
CE	-11.479
▁cosá	-11.4794
aem	-11.4803
buiséad	-11.4805
iúin	-11.4809
iarnró	-11.481
aitheoir	-11.4814
cach	-11.4817
idirbheart	-11.4818
eagraíocht	-11.482
▁substainte	-11.4822
fhostóir	-11.4825
▁treocht	-11.4825
▁Leathan	-11.4826
VA	-11.4826
▁bá	-11.483
tions	-11.483
fide	-11.4832
ríonna	-11.4834
▁hairgead	-11.4837
▁speisial	-11.4837
▁cainníocht	-11.4837
hip	-11.4842
▁110	-11.4843
▁Breit	-11.4844
▁neamhrialta	-11.4845
láithreacht	-11.4846
▁cairé	-11.4847
▁healaíon	-11.485
▁Clas	-11.4851
▁Mheic	-11.4851
▁Ros	-11.4852
oy	-11.4854
adóireacht	-11.4857
▁fú	-11.4858
▁Diúité	-11.486
aliforni	-11.486
Ísiltír	-11.486
▁FEIDHM	-11.486
▁Mheithimh	-11.486
▁Mhúinteoireacht	-11.486
▁Nádúrth	-11.486
▁bpríosún	-11.486
▁coimisinéir	-11.486
▁fíneála	-11.486
▁jewel	-11.486
▁líomóid	-11.486
▁ndiúltó	-11.486
▁ocsaigin	-11.486
▁pribhléid	-11.486
▁próitéin	-11.486
▁thaighde	-11.486
▁Atweetáil	-11.486
▁Govern	-11.486
▁geimhr	-11.486
▁polaitíocht	-11.486
▁thuarasta	-11.486
▁príosúntacht	-11.486
▁dhílsiú	-11.486
▁TÁ	-11.486
▁Margadh	-11.486
▁Department	-11.486
▁Volta	-11.486
▁tubaiste	-11.4861
▁Diaper	-11.4861
▁sceithea	-11.4862
▁Chónaithe	-11.4862
▁club	-11.4862
▁phaisinéir	-11.4862
▁ceardlann	-11.4862
▁teirmeach	-11.4863
inéiv	-11.4863
▁Cairt	-11.4863
▁fiaclóireacht	-11.4864
▁forghéill	-11.4864
▁Bileog	-11.4864
cheadúna	-11.4864
▁Polasa	-11.4865
▁leachtaitheoir	-11.4865
▁liath	-11.4866
▁Cailín	-11.4866
▁tobhach	-11.4867
ainn	-11.4868
iomad	-11.4869
930	-11.487
tomhas	-11.4871
▁coileach	-11.4872
foundation	-11.4873
▁sháró	-11.4873
BID	-11.4874
▁trastomhas	-11.4874
VI	-11.4876
▁fhorfheidhmiú	-11.4877
oibríochta	-11.4878
▁Chabh	-11.4879
BHAR	-11.4879
▁1922	-11.488
▁BHAINEA	-11.4881
▁Nar	-11.4881
bona	-11.4881
▁toirchi	-11.4882
▁seasa	-11.4883
▁cloi	-11.4886
▁Eolaíocht	-11.4886
▁Nasc	-11.4887
freagraí	-11.4891
▁rúndacht	-11.4894
thu	-11.4895
▁96	-11.4898
lut	-11.49
▁Saoirse	-11.4902
ttle	-11.4903
▁chuaird	-11.4903
▁Buisé	-11.4906
▁oighea	-11.4906
▁Tráth	-11.4907
▁gceachta	-11.4913
▁79	-11.4913
mhaoin	-11.4914
fheirmeoir	-11.4915
▁dílse	-11.4916
▁soghluaisteacht	-11.4916
Rúnaíocht	-11.4916
▁foirmiúla	-11.4916
▁tabhair	-11.492
▁tsean	-11.4926
ency	-11.4927
séasú	-11.4927
raenáil	-11.4928
▁Meas	-11.4928
bhaile	-11.4931
▁Mhic	-11.4935
▁hion	-11.4938
▁feinimé	-11.4938
▁oll	-11.4941
▁tuill	-11.4944
▁cith	-11.4948
ardaithe	-11.4948
inoibritheacht	-11.4952
▁City	-11.4952
▁greannmha	-11.4959
uatha	-11.4959
▁cruthú	-11.496
IA	-11.4961
chéime	-11.4967
▁CÚ	-11.4967
▁tionóntachta	-11.4977
▁náisiúntacht	-11.4979
loic	-11.4986
▁uaim	-11.4987
▁lámhach	-11.4993
▁PE	-11.4993
▁buntáiste	-11.5001
ÉIS	-11.5009
und	-11.5012
itheora	-11.5013
▁marcáilte	-11.5013
▁Ceadaío	-11.5014
iarann	-11.5015
ITE	-11.5016
▁comhairleach	-11.5017
ates	-11.502
▁Meiriceána	-11.5025
App	-11.5027
amhain	-11.5028
SU	-11.503
▁thréig	-11.503
loine	-11.5032
▁Minist	-11.5033
▁pill	-11.5038
mate	-11.5042
▁léacht	-11.5045
ubai	-11.5046
▁fágá	-11.5051
▁orla	-11.5057
samhraidh	-11.5059
idirthréimhseach	-11.5064
▁paitinne	-11.5066
icéad	-11.5068
lán	-11.5069
▁Bhuir	-11.5076
▁hu	-11.5078
▁cao	-11.5086
▁cruithneacht	-11.5095
faí	-11.5107
immer	-11.5108
▁Chúna	-11.5108
▁bpacáist	-11.511
▁Mor	-11.5114
▁Dar	-11.512
▁Straitéise	-11.5128
aiste	-11.5129
agra	-11.5137
▁gcruthó	-11.5138
BE	-11.5149
▁Chumann	-11.516
▁cor	-11.516
▁phleanáil	-11.5161
▁coigilt	-11.5165
▁Chorparáid	-11.5169
▁matá	-11.517
uff	-11.5175
iff	-11.518
▁Ski	-11.5182
brand	-11.5183
fhoirm	-11.5184
▁cháilithe	-11.5193
▁Astráil	-11.5198
eoranta	-11.5205
▁duill	-11.5205
▁athchóir	-11.5206
▁Chaomhn	-11.5208
fhíor	-11.5215
▁MT	-11.5215
acmhainn	-11.5216
▁vótaíocht	-11.5217
iteann	-11.5219
▁chuairte	-11.5223
▁Ins	-11.5224
▁My	-11.5224
▁Jacket	-11.5225
▁Noll	-11.5234
▁182	-11.5236
37	-11.5237
cm	-11.5243
▁alla	-11.5244
▁Áirithe	-11.5245
▁bhronna	-11.5249
dróm	-11.525
▁dúshlá	-11.5258
utter	-11.5259
oz	-11.5263
fhéach	-11.5263
▁teagasc	-11.5265
urrús	-11.5269
▁coimhdeacht	-11.5272
▁ton	-11.5276
▁Creidmheasa	-11.528
ILL	-11.5282
cháil	-11.5282
▁rát	-11.5284
▁chaird	-11.5285
▁taighdeoir	-11.5286
▁Lán	-11.5291
corparáid	-11.5294
▁Bainistí	-11.5303
▁Seanad	-11.5304
▁rúnda	-11.5306
▁Imréit	-11.5307
Rúnaí	-11.5308
zing	-11.5309
▁138	-11.531
néis	-11.5311
stro	-11.5312
uck	-11.5313
asmuigh	-11.5317
Oibreacha	-11.5322
oundation	-11.5323
fhreasta	-11.5324
▁Acad	-11.5325
Oileá	-11.5325
rapóirtéir	-11.5326
réimhe	-11.533
▁Cuimsi	-11.5332
fhógair	-11.5332
▁Aistriú	-11.5332
fhulaing	-11.5333
▁org	-11.5333
fhreagair	-11.5334
holáiste	-11.5334
▁conver	-11.5334
▁Thairis	-11.5335
▁spiorad	-11.5336
Parlaimint	-11.5336
▁Gineadóir	-11.5336
▁dtimpeallacht	-11.5336
▁mbrabú	-11.5336
▁nítrigin	-11.5336
▁shuntasach	-11.5336
▁thaispeánta	-11.5336
▁vaigín	-11.5336
▁véarsa	-11.5336
▁stylish	-11.5336
▁Caiteacha	-11.5336
fiunra	-11.5336
▁cinntitheach	-11.5336
▁Tomhalt	-11.5336
▁seánra	-11.5336
▁Bhreatain	-11.5336
▁comhlíonfa	-11.5336
▁inghnóthaithe	-11.5336
CÚIRTE	-11.5336
▁tuirse	-11.5336
▁ghream	-11.5336
▁fhréamh	-11.5336
▁leapacha	-11.5336
▁athsholátha	-11.5336
▁Blue	-11.5336
▁Leathn	-11.5336
▁bríomha	-11.5336
ejian	-11.5336
▁Toscaireacht	-11.5337
▁Fiontraíocht	-11.5337
▁Marmara	-11.5337
▁thairis	-11.5337
Ceanada	-11.5337
▁theorann	-11.5337
▁Aicm	-11.5337
▁fíonchaor	-11.5337
▁gluaisrotha	-11.5337
Gaeilge	-11.5337
ware	-11.5337
▁Taisteal	-11.5337
▁atmaisféar	-11.5338
▁Hack	-11.5338
▁gCuma	-11.5338
▁Coitiant	-11.5339
▁Home	-11.5339
▁chabhró	-11.5339
▁thobhac	-11.534
uestion	-11.534
Páirc	-11.534
▁Miontuairisc	-11.5341
▁scaipthe	-11.5341
phort	-11.5342
atalóg	-11.5342
▁Ho	-11.5343
▁Thiarna	-11.5344
▁Lárchóra	-11.5345
▁Meácha	-11.5345
Ghala	-11.5345
▁ghéar	-11.5345
▁lánúin	-11.5346
▁fheidhmeo	-11.5346
▁pholasa	-11.5346
▁bileog	-11.5347
Gain	-11.5348
▁tionscnóir	-11.5348
▁Luachála	-11.5349
▁speisialtóir	-11.5349
úth	-11.535
▁Teasta	-11.5354
▁thoir	-11.5356
▁Ceada	-11.5357
▁chomhlíon	-11.5358
▁Last	-11.5359
▁mhainneo	-11.536
▁chon	-11.5361
▁timpeallachta	-11.5365
▁truailliú	-11.5367
ghearrtha	-11.5368
phá	-11.5368
▁cuaill	-11.5368
ehir	-11.5369
▁kid	-11.537
▁Ceala	-11.5371
eisia	-11.5372
▁Iasc	-11.5373
▁maolú	-11.5374
ever	-11.5378
BO	-11.5379
▁cóimhiotal	-11.538
▁dTreoir	-11.538
toghachá	-11.5387
▁gnólacht	-11.5387
▁iomaíocha	-11.5389
▁glúine	-11.5389
▁chúirte	-11.5391
▁cheapachá	-11.5392
▁Meá	-11.5392
ianbhreith	-11.5392
▁taibhs	-11.5393
▁bhronntanas	-11.5393
tub	-11.5394
liaint	-11.5394
agre	-11.5394
eform	-11.5394
▁gcumhachtaí	-11.5395
chomhairliúchá	-11.5396
▁Oll	-11.5404
bian	-11.5408
FE	-11.541
LO	-11.5411
▁cheil	-11.5412
▁forlíonta	-11.5414
▁comhpháirtíocht	-11.5414
leatha	-11.5415
▁sonnr	-11.5418
▁ml	-11.5418
ping	-11.5418
▁chleithiúna	-11.5419
▁féichiúna	-11.5419
▁cri	-11.5419
institiúideach	-11.5424
▁críochnú	-11.5428
▁Oscailt	-11.5431
IMH	-11.5435
▁chíosa	-11.5437
▁mhaisiú	-11.5438
▁slat	-11.5438
▁formheasa	-11.544
▁iontaoibh	-11.5442
▁cosmaideach	-11.5457
▁custa	-11.5458
▁spreagú	-11.5458
▁aiste	-11.547
▁clainn	-11.547
▁threala	-11.5473
▁gcruth	-11.5476
▁Seol	-11.5477
TU	-11.5478
mg	-11.5482
▁Dleachta	-11.5486
▁hidir	-11.5486
▁Ranná	-11.5489
▁ghléas	-11.549
▁fhoirgniú	-11.5491
▁Fre	-11.5494
eascair	-11.5495
▁84	-11.5497
▁IAR	-11.5504
for	-11.5507
▁uachtarach	-11.5507
▁Aois	-11.5509
iarratasóirí	-11.551
▁bunuithe	-11.5512
vigation	-11.5516
▁clog	-11.5517
átha	-11.5518
▁fhinné	-11.5527
pit	-11.5532
▁reiligiún	-11.5532
ible	-11.5533
raíochta	-11.5534
roim	-11.5539
iarrfa	-11.5541
▁comhordaithe	-11.5541
▁Creidim	-11.5541
▁déanf	-11.5544
▁daingn	-11.5545
▁coisctheach	-11.5546
▁mbunú	-11.5549
aingne	-11.555
▁comhlucht	-11.5554
▁Ainmn	-11.5558
úsáidf	-11.5564
▁Mer	-11.5569
▁Uathoibr	-11.5574
ipéid	-11.5574
▁híocfa	-11.5575
▁Sun	-11.5578
▁brains	-11.558
▁craolachá	-11.5584
▁sceit	-11.5586
▁cruithneachta	-11.5586
▁chos	-11.5588
▁dífhosta	-11.5589
▁Brú	-11.5597
▁coibhneas	-11.56
old	-11.5602
▁coinneo	-11.5607
intreach	-11.5609
ioc	-11.561
▁88	-11.5613
shot	-11.5615
▁Teagmhá	-11.5617
▁neamhch	-11.5617
shaoil	-11.5622
orie	-11.5626
óthach	-11.5629
▁malartach	-11.5637
▁bhreathn	-11.5638
▁snámh	-11.5641
▁thabh	-11.5648
▁cruthaitheach	-11.5653
úsáidte	-11.5654
bhunscoile	-11.5656
▁dhíl	-11.5656
▁idirghníomh	-11.5658
▁Fuar	-11.5663
▁Anailís	-11.5667
▁mhilliú	-11.5667
▁shuíf	-11.5669
sraon	-11.5671
▁deonfa	-11.5677
▁tháirge	-11.5681
▁dall	-11.5685
▁aithní	-11.5689
AM	-11.5691
▁Plé	-11.5692
▁struchtú	-11.5692
▁Sampla	-11.5693
▁dteacht	-11.5694
▁einsím	-11.5694
▁gcearta	-11.5695
uaithi	-11.5698
▁Chustaimé	-11.5698
▁ghl	-11.5699
▁físe	-11.5701
▁Phr	-11.5716
▁corp	-11.5718
▁laig	-11.5718
▁Uí	-11.5721
▁ríocht	-11.5726
▁spo	-11.5732
▁eacnamaíocht	-11.5733
▁chine	-11.5735
ATT	-11.5735
caife	-11.5738
archéime	-11.5742
▁pola	-11.5743
▁Éisteacht	-11.5747
aontó	-11.5749
▁ghlao	-11.5752
▁Cearta	-11.5757
▁amhrán	-11.5763
láimhs	-11.5765
▁pre	-11.5775
ilf	-11.5777
▁fillteá	-11.5783
hange	-11.5784
GS	-11.5787
▁Teo	-11.5787
Sh	-11.5792
ghrúpa	-11.5792
acmhainneacht	-11.5792
ifríocht	-11.5798
▁Tógá	-11.5808
▁Críoch	-11.5809
▁Rún	-11.5811
US	-11.5813
ompany	-11.5813
▁Digit	-11.5814
▁Teacht	-11.5814
▁Fás	-11.583
▁earc	-11.583
▁sainchomha	-11.5834
▁Cánacha	-11.5834
▁roghnó	-11.5835
easca	-11.5836
lowjob	-11.5836
▁Ghréig	-11.5836
▁Green	-11.5836
▁Marquette	-11.5836
▁cucumber	-11.5836
▁habairt	-11.5836
▁iargúlta	-11.5836
▁searmana	-11.5836
▁siopadóireacht	-11.5836
▁tipiciú	-11.5836
▁tuarasgabhá	-11.5836
shaoire	-11.5836
▁Cábla	-11.5836
▁Sliocht	-11.5836
athghairm	-11.5836
▁gcluich	-11.5836
▁Tástála	-11.5836
▁sciorta	-11.5836
▁Archive	-11.5836
▁Socru	-11.5836
fholúnta	-11.5836
▁Network	-11.5836
▁TRÍ	-11.5836
▁Luimn	-11.5836
▁craobh	-11.5836
▁Transport	-11.5836
▁shlándá	-11.5837
áireofa	-11.5837
General	-11.5837
▁toiltean	-11.5837
▁cóimheas	-11.5837
▁RIALTA	-11.5837
▁phriontáil	-11.5838
▁Ghairm	-11.5838
▁Spiorad	-11.5838
▁Life	-11.5838
Plus	-11.5839
▁choirp	-11.5839
▁BA	-11.584
▁ullmhúchá	-11.584
▁grinnscrúdú	-11.584
▁atáirgea	-11.584
▁bhanchéil	-11.584
▁Leigheas	-11.5841
▁bata	-11.5841
▁fia	-11.5842
▁Road	-11.5842
▁gráin	-11.5842
▁impleacht	-11.5843
oideas	-11.5843
▁cartúi	-11.5843
▁Gold	-11.5844
▁Áireo	-11.5845
▁torrach	-11.5846
▁hinfheistíochta	-11.5846
▁Ghnócha	-11.5847
▁clúmhillte	-11.5847
ank	-11.5847
fhálta	-11.5848
▁han	-11.5848
▁Chuntas	-11.5849
TTE	-11.585
inmhianaithe	-11.585
▁Doirt	-11.585
▁Cosc	-11.5852
▁dosage	-11.5853
arán	-11.5853
léid	-11.5853
póir	-11.5854
▁MB	-11.5855
▁eml	-11.5856
▁dhigiteach	-11.5857
▁trócaire	-11.5858
▁seachadfa	-11.5861
saorghluaiseacht	-11.5862
OP	-11.5863
▁grianchlo	-11.5863
choimisiún	-11.5872
iarmhéid	-11.5873
ough	-11.5874
▁taitneamhach	-11.5874
▁húsáideoir	-11.5875
▁Ada	-11.5876
▁chomhionann	-11.5876
iontaobha	-11.5878
agon	-11.5878
ero	-11.5878
▁líníocht	-11.5878
aithint	-11.5879
▁háireamh	-11.5882
▁lámhleabha	-11.5883
▁gcroí	-11.5883
fhorchu	-11.5883
▁Rud	-11.5885
Co	-11.5886
▁hús	-11.5886
▁aisíoca	-11.5886
ork	-11.5888
▁Daid	-11.5889
Éirinn	-11.5892
▁tionnsca	-11.5893
hua	-11.5894
ordó	-11.5896
▁Féin	-11.5896
▁Mala	-11.5897
▁fillte	-11.59
▁ardvolta	-11.5901
▁Bhéar	-11.5904
▁Cúit	-11.5904
logad	-11.5905
dóthain	-11.5909
▁tógfa	-11.5915
▁Chinn	-11.5915
MC	-11.5916
tabhairt	-11.5917
▁fuin	-11.5917
▁tso	-11.5917
▁fiontraíocht	-11.5918
áirse	-11.5918
rón	-11.5918
▁uala	-11.5919
EL	-11.592
▁Réalt	-11.5922
▁TUA	-11.5924
▁péint	-11.5929
▁Réims	-11.593
▁bunacha	-11.593
▁gnóthach	-11.5931
▁Aibí	-11.5932
▁monarú	-11.5932
▁díortha	-11.5934
▁seaicé	-11.594
une	-11.594
▁deisiú	-11.594
▁scaird	-11.594
ving	-11.5942
esearch	-11.5942
áird	-11.5945
cliant	-11.5955
obháide	-11.5957
▁Láir	-11.5958
▁ceadó	-11.5961
▁radha	-11.5962
CB	-11.5965
▁ól	-11.5968
imín	-11.5968
▁Eas	-11.5973
▁Fó	-11.5986
PI	-11.599
▁thig	-11.5995
▁Thar	-11.5996
▁gcomhacht	-11.5996
▁Choimisinéir	-11.5997
▁Auto	-11.5998
▁inneacha	-11.5999
▁oidhreachta	-11.6001
▁oiriúnaí	-11.6002
▁carraig	-11.6007
▁bpragh	-11.601
ery	-11.6011
▁tur	-11.6012
róiseas	-11.6014
mu	-11.602
▁shainiú	-11.6022
infheistíochta	-11.6022
▁114	-11.6023
▁haistriú	-11.6024
loingsi	-11.6024
EAS	-11.6032
▁clára	-11.6033
▁Chair	-11.6037
▁bhunúsach	-11.6038
▁bronn	-11.604
áire	-11.604
intinn	-11.6041
▁140	-11.6041
bhall	-11.6041
ócó	-11.6044
eamara	-11.6044
PRO	-11.6045
▁suidh	-11.606
▁Léiriú	-11.606
▁Cong	-11.6063
ists	-11.6064
AA	-11.6069
Aireachta	-11.6073
cóip	-11.6073
chíos	-11.6075
▁snáith	-11.6084
láraithe	-11.6084
teileachumarsáid	-11.609
▁82	-11.6091
▁chainníocht	-11.6096
íotáiniam	-11.6101
▁bolgá	-11.6105
AIL	-11.6105
▁Cineálach	-11.6107
Eabhra	-11.6108
▁Breis	-11.6109
▁táirgeacht	-11.6111
▁Stoc	-11.6112
▁Clá	-11.6114
▁Forál	-11.6116
cadé	-11.6122
▁Ul	-11.6128
dhlí	-11.6129
▁mhais	-11.613
▁taispeána	-11.6136
▁tionóisc	-11.6142
ianaise	-11.6145
▁peil	-11.6146
▁Toir	-11.6147
▁123	-11.6151
▁grúp	-11.6158
TM	-11.6158
▁Eacnamaíocht	-11.6158
▁sainaith	-11.6163
mba	-11.6164
ift	-11.6165
▁heisia	-11.617
oscailt	-11.617
▁Fíor	-11.6173
ream	-11.6175
▁choiriú	-11.6178
chruinn	-11.6187
hug	-11.6189
▁Cruinn	-11.6191
ilac	-11.6193
▁Sho	-11.6195
itic	-11.6199
EID	-11.62
ráta	-11.62
▁Hor	-11.6206
▁SF	-11.6206
▁gcruthaí	-11.6209
sam	-11.6219
olrú	-11.6226
▁aistrío	-11.6227
IV	-11.6234
▁gcoimeádá	-11.6238
hliste	-11.6239
▁mhol	-11.6239
▁díl	-11.625
▁iniompartha	-11.6252
▁eachtra	-11.6255
uille	-11.6263
Aighne	-11.6265
▁reachta	-11.6267
▁féadfaid	-11.6269
▁croílár	-11.627
▁Mas	-11.6271
▁creidiúnaí	-11.6278
996	-11.6281
comhshocraíochta	-11.6285
▁huisc	-11.6291
fhir	-11.6298
agró	-11.6304
▁leictrea	-11.6316
DI	-11.6325
▁cúlghairm	-11.6326
▁ndualga	-11.6326
Oibr	-11.6327
▁ghabhálta	-11.6327
raft	-11.6329
oitianta	-11.6337
ized	-11.6337
earnóg	-11.6339
▁Caomhn	-11.6342
▁carbó	-11.6343
▁ROS	-11.6343
▁adhmad	-11.6345
urraithe	-11.6347
▁Rogha	-11.6348
▁ollscoile	-11.6354
HRÍ	-11.6357
vótál	-11.6357
▁Bhr	-11.6359
▁droich	-11.6361
▁fionnu	-11.6362
apór	-11.6362
mháistir	-11.6362
rioblóid	-11.6362
▁Cheanada	-11.6362
▁Pandora	-11.6362
▁Satailíte	-11.6362
▁Tiomána	-11.6362
▁baictéir	-11.6362
▁fluaraiseach	-11.6362
▁foilseachá	-11.6362
▁massage	-11.6362
▁ndéileálfa	-11.6362
▁neamhchiontach	-11.6362
▁píolóta	-11.6362
▁seimineá	-11.6362
▁tiúbair	-11.6362
▁íoslaghd	-11.6362
▁Dúbailte	-11.6362
▁Shaorstá	-11.6362
▁gheobhfa	-11.6362
▁1943	-11.6362
▁phonc	-11.6362
▁Select	-11.6362
▁comhréidh	-11.6362
▁Royal	-11.6362
LISA	-11.6362
▁gcaipit	-11.6362
▁thriom	-11.6362
▁COMMI	-11.6362
▁Mharga	-11.6362
▁ainsealach	-11.6362
▁comhraic	-11.6362
▁ilghnéitheach	-11.6362
draig	-11.6362
▁Cúntóir	-11.6362
▁Cairdi	-11.6363
▁Pholainn	-11.6363
▁dtuismitheoir	-11.6363
▁láimhdeacha	-11.6363
▁Cónaithe	-11.6363
▁OIBRE	-11.6363
▁shaincheist	-11.6363
▁briste	-11.6363
▁cólíona	-11.6363
dícheall	-11.6363
▁stiall	-11.6363
▁ionmhuir	-11.6363
asket	-11.6363
▁Bharra	-11.6364
▁chomhtháth	-11.6364
▁éadroim	-11.6365
amharc	-11.6365
▁forbraío	-11.6365
▁Neart	-11.6365
caillfid	-11.6365
▁créachta	-11.6365
▁míbhuntáist	-11.6366
▁fabraic	-11.6366
▁dtarla	-11.6366
▁rian	-11.6367
▁ndoiciméad	-11.6367
like	-11.6367
▁cuairteoir	-11.6367
▁mionbhr	-11.6368
ponc	-11.6369
nstruction	-11.6369
▁cumaisc	-11.637
CPL	-11.637
▁115	-11.637
▁éagóir	-11.637
▁Food	-11.6371
▁Malart	-11.6371
▁hack	-11.6372
mateur	-11.6373
▁1916	-11.6373
▁baincéir	-11.6374
Point	-11.6376
ruailliú	-11.6376
mhíleata	-11.6376
▁troscá	-11.6378
▁neamhchorpra	-11.6378
▁ghní	-11.6378
▁déantúsaíocht	-11.6379
▁prái	-11.6379
▁Bhun	-11.638
▁Glao	-11.6381
▁dhaltaí	-11.6382
▁Peil	-11.6382
erver	-11.6383
▁bhfáil	-11.6386
▁Boy	-11.6387
▁háise	-11.6388
▁ghló	-11.6393
streach	-11.6393
▁Cogadh	-11.6395
▁feadán	-11.6395
MENT	-11.6396
▁braiteoir	-11.6399
maighnéadach	-11.6401
▁Íos	-11.6402
▁uirb	-11.6402
▁ceartaitheach	-11.6403
▁phríosún	-11.6404
▁óstach	-11.6406
▁lamhálta	-11.6406
▁from	-11.6411
▁meánmhéid	-11.6412
▁Saol	-11.6412
▁mheasca	-11.6415
irmeacha	-11.6416
▁aithnío	-11.642
▁Medi	-11.6421
▁ster	-11.6423
▁shean	-11.643
▁earnálach	-11.6436
ionúireacht	-11.6437
▁comp	-11.6438
chlub	-11.644
TV	-11.6446
▁cúlra	-11.6453
▁Ioncam	-11.6456
íoga	-11.6459
léasóir	-11.6459
chárta	-11.6461
croílár	-11.6463
▁Cure	-11.6467
árachaithe	-11.6471
▁thárla	-11.6472
phlé	-11.6473
EACH	-11.6476
sia	-11.6479
scéim	-11.6483
chúraim	-11.6489
▁gceanglaí	-11.6489
▁comhfhreagra	-11.6493
aifid	-11.6497
▁crannchu	-11.6497
▁tosca	-11.6501
uama	-11.6504
▁Vis	-11.6505
▁dhleacht	-11.6507
▁ceannas	-11.6508
iostá	-11.6511
▁ghearán	-11.6513
▁fhéidearthacht	-11.6518
NR	-11.6521
▁tura	-11.6525
▁Iarr	-11.6527
▁nG	-11.6532
ocra	-11.6533
áirge	-11.6537
▁ceadún	-11.6539
ner	-11.6548
▁deireana	-11.6552
▁fhorál	-11.656
▁fál	-11.6563
▁himscrúd	-11.657
▁Só	-11.6572
98	-11.6576
▁sighn	-11.6579
othú	-11.6595
ndre	-11.6596
▁Teagmhála	-11.6598
▁bhainisteo	-11.6602
éacht	-11.6602
▁fánaíocht	-11.6602
▁Tacaíon	-11.6609
tum	-11.6619
léireach	-11.6621
▁vii	-11.6625
▁dhi	-11.663
SMA	-11.6631
aontu	-11.6632
óibh	-11.6643
▁háitiú	-11.6646
▁nuálaíochta	-11.665
díol	-11.6652
▁Rad	-11.6652
▁laghd	-11.6654
táill	-11.6654
▁Críochna	-11.6654
▁tora	-11.6655
▁scáthá	-11.6663
aithn	-11.6667
▁múch	-11.667
údarú	-11.6677
LAF	-11.6679
▁thu	-11.669
ocha	-11.6692
pre	-11.6693
EAN	-11.6694
heilg	-11.6694
▁cleithiúnach	-11.6695
▁Thre	-11.6696
▁130	-11.6697
uaird	-11.6701
▁STA	-11.6704
hordó	-11.6715
▁cinnfid	-11.6716
▁maisithe	-11.6717
▁luibh	-11.6717
earca	-11.6719
▁CON	-11.6721
▁Log	-11.6731
▁simpl	-11.6736
▁sainmhíni	-11.6736
insí	-11.6751
▁inniúlachta	-11.6752
ition	-11.6754
▁scé	-11.6756
▁FAOI	-11.676
icéid	-11.6762
heathrú	-11.6766
▁ailléirg	-11.6774
▁Mír	-11.6777
AIR	-11.6778
▁suiteáilte	-11.6779
▁Gaelscoil	-11.6782
▁fhéil	-11.6792
ingne	-11.6802
▁oidhreachtá	-11.6803
▁phionó	-11.6806
▁Riachtana	-11.6808
ghníomhach	-11.6816
▁éite	-11.6816
▁you	-11.6819
▁Leagt	-11.6821
▁soláthrói	-11.6822
▁Léirío	-11.6825
▁contúirt	-11.6827
▁Náisiú	-11.683
earnála	-11.6831
fhrith	-11.6834
▁Coist	-11.6834
▁gclá	-11.684
▁chomhlacha	-11.6841
una	-11.6842
▁bóna	-11.685
▁phian	-11.6854
▁milliú	-11.6855
107	-11.6859
898	-11.6864
▁iris	-11.6867
▁thruailli	-11.6867
▁Cam	-11.6868
itreo	-11.6868
CO	-11.6873
▁spraeá	-11.6874
▁dif	-11.6879
rem	-11.6882
▁Treora	-11.6885
▁Táill	-11.6888
▁Margaí	-11.6888
▁Luach	-11.6889
wi	-11.6889
▁103	-11.6893
▁comhrá	-11.6895
chónaí	-11.6896
▁ingearach	-11.69
▁Muirear	-11.6903
bhainte	-11.6904
▁Sit	-11.6905
▁fáltai	-11.6906
atellite	-11.6907
Gaeltacht	-11.691
▁sócmhainne	-11.6913
▁Earná	-11.6914
dhleathach	-11.6914
▁Preas	-11.6915
▁thionónta	-11.6917
▁expe	-11.6917
mheabhrach	-11.6918
▁Coimeádfa	-11.6918
▁Cónaidhm	-11.6918
▁Environment	-11.6918
▁Feithicl	-11.6918
▁Maoirseacht	-11.6918
▁Sealadach	-11.6918
▁Teagasc	-11.6918
▁bhiotáille	-11.6918
▁dhámhachtain	-11.6918
▁dtionscada	-11.6918
▁ngeilleaga	-11.6918
▁phraiticiú	-11.6918
▁tomhalta	-11.6918
▁Éadrom	-11.6918
▁Dochtúir	-11.6918
▁Léarscáil	-11.6918
▁Puiblí	-11.6918
▁bioráin	-11.6918
▁límistéir	-11.6918
▁1944	-11.6918
▁Februar	-11.6918
▁Práinne	-11.6918
▁Sreabh	-11.6918
▁gclúd	-11.6918
▁gcreat	-11.6918
▁hÁise	-11.6918
▁mbosca	-11.6918
▁orgasm	-11.6918
▁piorra	-11.6918
▁Íoslódáil	-11.6918
▁elegan	-11.6918
▁lóisteáil	-11.6918
phróiseála	-11.6918
▁Reifr	-11.6918
Brown	-11.6918
▁clasp	-11.6918
▁fóirst	-11.6918
▁sealúcha	-11.6918
▁bhagú	-11.6918
▁Éasca	-11.6918
▁bplanda	-11.6918
▁éagórach	-11.6918
▁Raidi	-11.6918
▁fhógrá	-11.6918
▁Halla	-11.6918
▁Bhreis	-11.6918
▁shín	-11.6918
chorraithe	-11.6918
▁Comhionanna	-11.6918
zhen	-11.6918
▁botú	-11.6918
ashington	-11.6918
▁fiailí	-11.6918
▁choinbhleacht	-11.6919
▁uillinn	-11.6919
▁seirbheáil	-11.6919
ÓID	-11.6919
▁díolta	-11.6919
▁shaoirs	-11.6919
fhionta	-11.6919
▁Christ	-11.6919
▁micrea	-11.6919
▁Bhearta	-11.6919
▁congant	-11.6919
▁hInstitiúid	-11.6919
▁Stop	-11.6919
▁Chumhacht	-11.692
▁Expe	-11.692
▁shórt	-11.692
ÉIL	-11.692
▁glacadóir	-11.692
aireagá	-11.692
▁comharba	-11.6921
▁conclúid	-11.6921
▁chothabhála	-11.6921
▁neamhbhailí	-11.6921
▁coinneála	-11.6922
▁huimhreach	-11.6922
▁Bonneaga	-11.6922
▁mbunófa	-11.6922
▁Bárda	-11.6923
▁folláin	-11.6923
▁Dích	-11.6923
▁Translat	-11.6924
▁cúnta	-11.6924
▁Mol	-11.6924
Oirthear	-11.6924
▁mhille	-11.6924
▁meaitseá	-11.6925
▁Róimh	-11.6925
íde	-11.6925
mak	-11.6925
▁réamhíoc	-11.6925
▁chomhroinnt	-11.6925
▁pacála	-11.6926
▁372	-11.6927
▁thosó	-11.6928
▁Rúnaí	-11.6929
▁marthanacht	-11.693
▁Mhúin	-11.693
▁bruit	-11.6931
▁Pen	-11.6932
▁toimhdeo	-11.6932
▁Díolachá	-11.6933
▁Comhdhlú	-11.6933
▁carthana	-11.6933
▁Caidr	-11.6934
▁bairille	-11.6934
▁home	-11.6935
athcheap	-11.6936
▁fuath	-11.6936
▁staon	-11.6937
▁Leagfa	-11.6939
EAR	-11.6939
▁720	-11.6939
▁Mús	-11.6939
▁chuimhne	-11.694
chomhshocraíocht	-11.6941
▁radaíocht	-11.6942
▁dramhaíola	-11.6943
▁It	-11.6944
▁ghealltana	-11.6944
▁Chl	-11.6946
▁Ardoideachais	-11.6946
▁péire	-11.6948
▁comhchosú	-11.6949
▁TUAIRIM	-11.695
▁Manufacturer	-11.6951
▁airbhearta	-11.6953
▁hairteaga	-11.6953
▁theicneolaíocht	-11.6953
troigh	-11.6955
▁ghabháltais	-11.6956
▁brón	-11.6956
▁hainmh	-11.6961
flashing	-11.6961
▁Cinnt	-11.6966
DARA	-11.6977
▁seam	-11.6977
MÁ	-11.6977
▁bhuachaill	-11.698
NI	-11.698
▁Aud	-11.6984
▁Gabh	-11.6985
bhrat	-11.6985
▁chinntí	-11.699
oibrí	-11.699
▁gcomhaontó	-11.6992
▁Rá	-11.6994
porno	-11.6999
▁thé	-11.7
▁stain	-11.7
▁freagarthach	-11.7002
▁cáipéisí	-11.7002
ruim	-11.7003
▁roll	-11.7003
ony	-11.7004
IP	-11.7005
▁dúich	-11.7007
izer	-11.7008
oite	-11.701
Caisleá	-11.7012
▁siombail	-11.7014
▁gníomhaireacht	-11.7014
▁naked	-11.7014
▁Work	-11.7015
▁Bainisteoir	-11.7016
▁Ceapfa	-11.7019
amine	-11.7021
▁lionsa	-11.7024
▁Bhú	-11.7027
▁gcead	-11.7029
ineál	-11.7031
105	-11.7032
▁gceapa	-11.7032
▁Creidea	-11.7035
▁Ró	-11.7036
achtachá	-11.7038
▁ardaigh	-11.7039
▁mhéadaithe	-11.7041
▁chosa	-11.7042
▁House	-11.7042
stoc	-11.7044
▁Tuairisceá	-11.7045
▁mea	-11.7048
ISTE	-11.7048
cheangailte	-11.7049
téarma	-11.7051
ndáil	-11.7053
▁garraíodóir	-11.7056
▁Old	-11.7058
AGH	-11.706
▁Hand	-11.7061
▁gceadó	-11.7063
cted	-11.7063
▁Ears	-11.7064
tae	-11.7065
▁daingniú	-11.7069
dath	-11.707
▁Caith	-11.7072
ghné	-11.7076
▁Eit	-11.7077
chumas	-11.7079
Astráil	-11.7082
watch	-11.7085
táblaí	-11.7085
▁hionad	-11.7085
▁chomhlucht	-11.7086
▁Teachtaireacht	-11.7087
▁Stamp	-11.709
ghrád	-11.7091
zen	-11.7095
bhainisteoir	-11.7099
teaghlaigh	-11.7102
▁160	-11.7102
▁seic	-11.7103
cineál	-11.7107
-15	-11.7108
▁Cúrsa	-11.7108
▁Breise	-11.7111
▁220	-11.7112
toghchán	-11.7113
▁sheolfa	-11.7115
óthar	-11.7116
▁aschu	-11.7118
stáit	-11.712
▁cainte	-11.7122
cum	-11.7125
comharsanacht	-11.7129
▁haicm	-11.7131
Iarscríbhinn	-11.7131
▁Solad	-11.7132
álainn	-11.7134
▁príntíseach	-11.7135
▁Ordu	-11.7137
irne	-11.714
▁thógfa	-11.7147
thúil	-11.715
áirith	-11.7157
▁pun	-11.7164
▁Fuaime	-11.7165
▁bloc	-11.7167
▁cealú	-11.7172
▁frithsheasmhach	-11.7173
liosta	-11.7174
▁cigireacht	-11.7175
líochta	-11.7184
GC	-11.7191
trol	-11.7196
phing	-11.7198
▁hiarra	-11.7199
áiritheofa	-11.72
ábhair	-11.7201
údair	-11.7201
opa	-11.7203
ppy	-11.7203
▁star	-11.7203
abha	-11.7207
▁chumarsáid	-11.721
ook	-11.7211
▁Tír	-11.7214
▁charms	-11.7214
stat	-11.7221
úsai	-11.7223
▁tairg	-11.7226
éifeachtach	-11.7229
aistreofa	-11.7229
▁neamhghníomh	-11.7233
▁Shi	-11.7246
leog	-11.7251
▁coist	-11.7257
05	-11.7259
▁Scoir	-11.7262
avi	-11.7263
▁calafo	-11.7266
▁Sci	-11.7269
▁rátáil	-11.7273
▁Leag	-11.7276
je	-11.7278
NBA	-11.728
▁caoi	-11.7281
▁coimirc	-11.7294
▁Gloin	-11.7298
France	-11.7299
▁Spa	-11.73
▁Bótha	-11.7301
▁OF	-11.7302
eolaí	-11.7303
▁Téarma	-11.7313
ealla	-11.7316
OLA	-11.7322
▁Foirgn	-11.7328
▁gceadaí	-11.7339
pho	-11.734
▁ionadaíoch	-11.7341
▁Map	-11.7348
▁Ionchúis	-11.7351
Cheann	-11.7351
▁Beat	-11.7361
esent	-11.7361
áirmhí	-11.7362
heith	-11.7364
fo	-11.7375
▁cónaitheach	-11.7387
▁tionóntacht	-11.7387
▁scratch	-11.7396
iteamh	-11.7396
IU	-11.7397
▁feabha	-11.7397
▁Fosta	-11.7398
▁réasú	-11.74
▁dheonófa	-11.7404
over	-11.7406
▁Iontaobha	-11.7407
AÍOCHTA	-11.7412
▁700	-11.7415
▁uachtarán	-11.7421
▁luch	-11.7429
cc	-11.743
▁uacht	-11.7431
ji	-11.7432
▁leachtach	-11.7433
FI	-11.7435
cheadú	-11.7438
cheapann	-11.7441
▁Cro	-11.7447
▁185	-11.7454
▁Rúi	-11.7457
▁cistin	-11.7457
▁aistarraingt	-11.746
▁cuims	-11.7466
▁iarrata	-11.747
▁Ceadúna	-11.7471
▁leasu	-11.7473
dies	-11.7478
DR	-11.748
usiness	-11.7486
AO	-11.7491
airseach	-11.7493
▁bhuisé	-11.7494
▁póstae	-11.7494
íonachta	-11.7498
▁eadrá	-11.7499
chraola	-11.7499
bunscoile	-11.7499
▁Trans	-11.75
▁Thiar	-11.75
ortaingéil	-11.7501
▁Prim	-11.7503
icneolaíocht	-11.7504
▁hiasachtaí	-11.7504
▁Teid	-11.7504
▁RIAL	-11.7505
fhabht	-11.7506
ruaig	-11.7506
▁Consolidat	-11.7506
▁coiníoll	-11.7506
Athghairm	-11.7506
experience	-11.7506
▁Countertop	-11.7506
▁Human	-11.7506
▁Independen	-11.7506
▁Iompórtáil	-11.7506
▁Maoirseoir	-11.7506
▁Stóráil	-11.7506
▁ornáideach	-11.7506
▁robot	-11.7506
▁seirbheálfa	-11.7506
▁spéacl	-11.7506
▁trucail	-11.7506
▁unbeliever	-11.7506
▁nuálach	-11.7506
▁uasteorainn	-11.7506
▁Comhthái	-11.7506
▁flúirse	-11.7506
▁mhionsonra	-11.7506
▁roghchlá	-11.7506
▁fertiliz	-11.7506
▁ultra	-11.7506
guisín	-11.7506
▁Bhliantú	-11.7506
▁Brabú	-11.7506
▁eorna	-11.7506
▁osclaío	-11.7506
▁figiúr	-11.7506
▁Pearl	-11.7506
▁geata	-11.7506
▁Phort	-11.7506
▁lacáist	-11.7506
▁neamhfhoirmiú	-11.7506
▁coigistíoch	-11.7506
▁barúlach	-11.7506
▁bhfíor	-11.7506
reacha	-11.7507
▁color	-11.7507
▁truaillithe	-11.7507
▁Plaisteach	-11.7507
▁rannóg	-11.7507
▁printíseachta	-11.7507
▁dteast	-11.7507
▁rince	-11.7507
▁easna	-11.7507
bhanda	-11.7507
EREC	-11.7507
▁Íosluchtai	-11.7507
▁loighic	-11.7507
▁Cross	-11.7507
▁Tiont	-11.7507
▁pussy	-11.7507
▁múinea	-11.7507
▁Polic	-11.7508
▁sású	-11.7508
▁fhuinn	-11.7508
▁bhrabhsála	-11.7508
▁bhailecheannta	-11.7508
▁réamheolair	-11.7508
▁sciúr	-11.7508
▁shíl	-11.7509
▁dhéileá	-11.7509
cadhnra	-11.751
▁teagmhasach	-11.751
▁spéir	-11.751
▁ionchasach	-11.751
▁scarda	-11.7511
▁fála	-11.7511
olláin	-11.7511
▁míshásta	-11.7511
▁machnamh	-11.7511
IOMPA	-11.7512
orcaigh	-11.7512
▁imdhíonach	-11.7512
▁meabhair	-11.7513
▁garbh	-11.7513
▁Crios	-11.7514
▁Play	-11.7515
ÁC	-11.7516
▁ghlas	-11.7516
▁tionóntá	-11.7517
▁charr	-11.7519
▁scan	-11.7519
▁phósta	-11.7519
▁chairt	-11.7519
▁allmhaireoir	-11.7519
BLA	-11.752
▁inléite	-11.752
▁hullmhú	-11.752
▁mull	-11.7521
thráchta	-11.7521
▁COD	-11.7522
▁bhreithiúnach	-11.7522
▁suck	-11.7522
▁Rialaitheoir	-11.7523
▁shaineola	-11.7523
▁atráth	-11.7524
▁deacra	-11.7526
▁mheaitseá	-11.7526
labhra	-11.7526
halamh	-11.7527
▁téad	-11.7528
amhábhar	-11.7532
claíocht	-11.7533
▁uathoibrithe	-11.7534
nder	-11.7535
▁Comisi	-11.7537
caire	-11.7538
▁súl	-11.7541
▁phrionsaba	-11.7541
▁oblagáid	-11.7541
▁Freagraí	-11.7542
▁Díolúin	-11.7542
▁chomhacht	-11.7545
▁chomhall	-11.7545
▁ciúin	-11.7546
git	-11.7549
▁Réad	-11.755
▁Soghluaisteacht	-11.7554
▁folúntais	-11.7555
▁ceathra	-11.7556
oiliúna	-11.7558
▁clé	-11.7562
▁Cana	-11.7566
▁Rith	-11.7567
▁Sing	-11.7568
▁Comhlíon	-11.7568
▁Chomhdhá	-11.7576
▁Phen	-11.7577
ctive	-11.7579
▁fhuil	-11.7579
▁Réim	-11.7587
craft	-11.7589
lly	-11.7591
▁Deis	-11.7594
▁fhéachan	-11.7597
▁hoibrithe	-11.7598
▁cói	-11.7599
▁dhea	-11.7603
▁coibhéiseach	-11.7604
▁bille	-11.7604
direct	-11.7605
TD	-11.7608
▁Chicago	-11.7609
▁Dír	-11.7611
▁oighi	-11.7614
▁luacha	-11.7616
mhéide	-11.7617
bhu	-11.7618
▁ndeacha	-11.7625
▁Wi	-11.7627
▁Chomhalta	-11.7628
▁intleachtú	-11.7638
▁450	-11.7644
▁earráide	-11.7645
▁Íocaíocht	-11.7646
ians	-11.7647
▁Dámh	-11.7647
▁nb	-11.7654
▁príomhshuim	-11.7657
lasse	-11.7657
scríbhneoireacht	-11.7667
▁lása	-11.767
▁optú	-11.7672
threorach	-11.7677
▁ionadaitheach	-11.7677
▁substainteach	-11.7681
osaithe	-11.7682
▁tairgeoir	-11.7682
▁tíl	-11.7683
▁Ráth	-11.7684
▁mianadóireacht	-11.7685
oses	-11.7686
▁chobhs	-11.769
▁toillea	-11.769
▁himeacht	-11.7695
▁pra	-11.7695
▁Chomhlacha	-11.7696
sáraithe	-11.7696
cian	-11.7697
▁Pacáisti	-11.7698
▁neamhchónaithe	-11.7699
▁ionstraime	-11.7699
hlóga	-11.7702
seirbhís	-11.7705
▁leanúnacha	-11.7707
móin	-11.7708
náthchónaitheoir	-11.7709
▁Chorparáide	-11.7717
▁Izmi	-11.772
▁Red	-11.7723
GM	-11.7724
chóras	-11.7731
▁Herm	-11.7735
CHE	-11.7735
▁Org	-11.7738
▁dífhost	-11.7739
ghnótha	-11.7739
oirse	-11.7739
héile	-11.774
▁scrúdaithe	-11.774
▁spá	-11.7743
ark	-11.7748
Chumann	-11.7749
▁asbhainte	-11.775
▁mbanc	-11.7753
▁phríosúnacht	-11.7754
▁príosúnach	-11.7754
ily	-11.7754
mhara	-11.7754
fhoirgn	-11.776
▁dob	-11.7766
ospidé	-11.7766
simplí	-11.7771
▁comhréire	-11.7777
▁dtuairisc	-11.7778
ógaiseoir	-11.7782
oige	-11.7783
▁rós	-11.7783
lay	-11.7783
▁cumais	-11.7786
gCabh	-11.7787
aigéi	-11.7797
▁Dheimhn	-11.78
INN	-11.7802
101	-11.7806
▁bhac	-11.7814
▁bunaíochta	-11.7819
Pal	-11.7823
fhost	-11.7838
bhann	-11.784
▁stua	-11.784
▁cala	-11.784
GH	-11.7841
▁bialann	-11.7842
▁chlúda	-11.7844
▁Sm	-11.7844
ize	-11.7848
▁fóin	-11.7848
▁Europa	-11.7849
▁Tho	-11.7864
láinte	-11.7867
INMH	-11.7868
oscó	-11.7869
▁Éirí	-11.7873
oiriúnach	-11.7874
▁hOllscoil	-11.7875
Ealaíona	-11.7882
▁Treoirl	-11.7884
▁bhfó	-11.7886
▁inrochta	-11.7888
▁múnlaí	-11.7888
bhótha	-11.7888
adóireachta	-11.7889
▁Chuma	-11.7891
▁pháirc	-11.7895
mens	-11.79
chúis	-11.7904
▁giú	-11.7919
isteoir	-11.7927
eum	-11.7932
phone	-11.7933
▁chomhréir	-11.7933
▁hIo	-11.7934
alk	-11.7935
▁gcoimeádfa	-11.794
othabhála	-11.794
▁mhaoine	-11.7942
▁Jer	-11.7948
▁Custa	-11.795
▁bpáirtí	-11.7956
▁mbainist	-11.7957
▁minicíochta	-11.7962
▁scríbhneoir	-11.7963
▁deisiúchá	-11.7964
▁bhfosta	-11.7965
▁chreidea	-11.7966
uro	-11.7971
▁mbainfea	-11.7982
▁gcunta	-11.7991
TFT	-11.7992
sio	-11.7992
gne	-11.7995
tem	-11.8
▁Vic	-11.8
rialach	-11.8004
▁188	-11.8009
hathrach	-11.8012
opta	-11.8023
▁ndea	-11.8023
LT	-11.8027
aitheora	-11.8029
▁Ado	-11.8033
eanga	-11.8035
Alt	-11.8037
▁gréasán	-11.804
▁Thionsca	-11.8044
chuí	-11.8051
▁mhúnla	-11.8051
▁Uachtará	-11.8054
das	-11.8055
aisc	-11.8058
inicíocht	-11.8062
▁Mé	-11.8064
▁Rannpháirt	-11.8065
▁gleo	-11.8074
▁chomhréire	-11.8079
▁choir	-11.808
▁scrúd	-11.808
▁Réalta	-11.8083
▁fhisic	-11.8091
▁sochaí	-11.8093
OC	-11.8094
▁próis	-11.8094
▁Pionó	-11.8095
uiscint	-11.8098
▁iniúchó	-11.8099
▁dhlíthiúla	-11.8102
Eagraíochta	-11.8104
ische	-11.8106
▁neamhfh	-11.8107
oic	-11.8113
socraíocht	-11.8115
▁Comhachta	-11.8116
▁lamhálfa	-11.8117
ilíoch	-11.812
NÚ	-11.8127
▁Pre	-11.8127
atamaitic	-11.8127
▁dhíobh	-11.8128
▁creim	-11.8128
rmáid	-11.8128
ANCE	-11.8129
▁Smaoin	-11.813
eitilt	-11.8131
▁imtheorann	-11.8131
Erasmus	-11.8131
eispéir	-11.8131
ournament	-11.8131
▁Fhuinn	-11.8131
▁Friend	-11.8131
▁Organization	-11.8131
▁Simplí	-11.8131
▁dhúshlá	-11.8131
▁soláthrófa	-11.8131
▁suaimhnea	-11.8131
▁víreas	-11.8131
▁HTML	-11.8131
Dámhachtain	-11.8131
president	-11.8131
▁market	-11.8131
▁síntiúis	-11.8131
iospói	-11.8131
▁macánta	-11.8131
▁phíosa	-11.8131
▁Chomhbhearta	-11.8131
▁ngnáthnós	-11.8131
▁priaca	-11.8131
mheáchan	-11.8131
▁Java	-11.8131
▁gcrios	-11.8131
▁Ceathrú	-11.8131
▁pláiné	-11.8132
▁Euroopa	-11.8132
▁athlas	-11.8132
▁éiceachóra	-11.8132
▁thionscnó	-11.8132
▁tochailt	-11.8132
▁thimpeallacht	-11.8132
▁cheird	-11.8132
giotá	-11.8132
▁dhréacht	-11.8132
Udarás	-11.8132
▁Buntáist	-11.8132
▁Agricultur	-11.8132
formation	-11.8132
▁mháithreacha	-11.8132
▁Forbraío	-11.8132
▁Tháirg	-11.8132
▁Rátáil	-11.8133
▁Turas	-11.8133
▁Foilseo	-11.8133
▁peaca	-11.8133
▁Programme	-11.8133
actus	-11.8133
▁géiniteach	-11.8133
control	-11.8133
▁Agalla	-11.8133
▁buailte	-11.8133
▁Scéal	-11.8133
▁comhroinnt	-11.8133
▁3-4	-11.8134
▁connra	-11.8134
liabh	-11.8134
▁humidor	-11.8135
▁Right	-11.8135
▁silic	-11.8135
▁garda	-11.8136
▁FBM	-11.8136
▁forbróir	-11.8137
▁dramh	-11.8137
▁Cuntais	-11.8137
Campa	-11.8137
▁Cluas	-11.8138
SUR	-11.8139
▁Game	-11.8139
▁dócmhainneachta	-11.8139
▁sonrúchá	-11.814
▁muirearófa	-11.814
▁Innealtóireacht	-11.814
▁Cloch	-11.814
▁stuama	-11.8141
▁hAer	-11.8141
▁preas	-11.8141
chathaoir	-11.8141
▁diagnóiseach	-11.8141
▁corcra	-11.8142
▁Fund	-11.8142
▁sláin	-11.8142
▁rásaí	-11.8143
▁satellite	-11.8143
▁eitl	-11.8145
▁deontóir	-11.8147
▁Tharla	-11.8148
▁socraío	-11.8149
▁Crua	-11.815
▁sách	-11.8151
▁athúsáid	-11.8151
chtúra	-11.8151
▁gcomórta	-11.8152
▁Mhara	-11.8153
treora	-11.8153
▁Tógála	-11.8154
lonrach	-11.8155
▁Sócmhainn	-11.8157
Shéalainn	-11.8157
▁forghníomhaithe	-11.8158
▁sioc	-11.8158
▁mbaint	-11.8159
▁dhíoth	-11.816
▁Luan	-11.8162
▁Litr	-11.8162
▁teagla	-11.8162
▁chomhartha	-11.8162
▁socraíochta	-11.8165
Brasaíl	-11.8166
▁Miotal	-11.8167
▁Léireo	-11.8168
▁bhinse	-11.8168
▁Modhanna	-11.8168
▁bhfolú	-11.8169
▁neamhréir	-11.8174
▁new	-11.8175
2020	-11.8175
chloiste	-11.8177
▁eisceachta	-11.8178
▁Sport	-11.818
▁iomarcaíochta	-11.8184
SHA	-11.8188
▁chabh	-11.8188
ending	-11.8188
▁thorth	-11.819
ering	-11.8192
ANN	-11.8194
▁fógrá	-11.8199
▁Them	-11.8199
▁cionroinnt	-11.8203
▁théam	-11.8207
▁grean	-11.821
▁chláraitheoir	-11.821
76	-11.8211
▁mhúnl	-11.8212
▁chúlra	-11.8213
▁fálta	-11.8214
▁hainmne	-11.8214
athru	-11.8217
▁coimhdeach	-11.8217
cne	-11.822
shoiléir	-11.822
▁duais	-11.8221
comm	-11.8224
Rail	-11.8225
praghas	-11.8231
▁cháilith	-11.8233
GO	-11.8234
▁meáchaint	-11.8236
urs	-11.8241
▁uaillmhian	-11.8241
ipín	-11.8242
▁COMH	-11.8244
iomaíochta	-11.8244
▁leictreona	-11.8245
▁ngabhál	-11.8247
▁Phreas	-11.8247
THA	-11.825
▁Bheag	-11.825
▁aigéadacht	-11.8253
▁deacracht	-11.8253
lover	-11.8255
leá	-11.8266
▁eaglais	-11.8269
▁chóiríocht	-11.827
▁mainneo	-11.8271
▁UV	-11.8274
▁Bio	-11.8275
inscne	-11.8276
eagraíochta	-11.8277
ups	-11.828
▁mhianra	-11.8281
▁127	-11.8282
▁hairgeadra	-11.8283
astáin	-11.8286
▁Teoran	-11.8287
ML	-11.829
▁fuaraithe	-11.829
▁bitheolaíoch	-11.8292
▁cadá	-11.8292
▁Can	-11.8297
▁Athair	-11.8298
adaigh	-11.831
UC	-11.8312
▁May	-11.8313
eidhmeannach	-11.8315
▁dhíobhál	-11.8315
▁deasc	-11.8322
▁Forlíon	-11.8324
chomharc	-11.8326
▁faci	-11.833
▁Mag	-11.8338
gairdín	-11.8341
▁géarchéime	-11.8342
chóir	-11.8344
▁hE	-11.8344
▁Son	-11.8352
▁leabharlann	-11.8356
▁togh	-11.836
▁chiontó	-11.836
▁Reatha	-11.8361
▁hIarái	-11.8372
bus	-11.8374
▁liost	-11.8376
▁Aont	-11.8383
OV	-11.8385
▁Léi	-11.8387
▁mbia	-11.8387
WER	-11.8387
▁Eski	-11.8387
▁carachtar	-11.8388
oda	-11.839
easú	-11.839
cheanta	-11.8399
▁páirceá	-11.8401
▁ghéillea	-11.8401
NTA	-11.8402
oimeádán	-11.8402
▁jack	-11.8406
▁seoltóir	-11.841
▁dén	-11.8412
▁fhíon	-11.842
▁fhoilsithe	-11.842
▁mhealla	-11.8423
cáin	-11.843
aisíocfa	-11.8432
500	-11.8438
▁Lárna	-11.8441
ampála	-11.8441
▁Ghníomh	-11.8447
otion	-11.8453
rop	-11.8455
éadan	-11.846
▁críochn	-11.8461
íscaoilte	-11.8462
▁Cíoch	-11.8463
▁dtuig	-11.8464
brainse	-11.847
thrádála	-11.8472
▁frithghníomh	-11.8477
fhostaí	-11.848
▁Institut	-11.8481
Stiúrthóir	-11.8489
-30	-11.8492
thairgthe	-11.8494
dealú	-11.8522
▁si	-11.8535
bhliana	-11.8536
MU	-11.8547
▁meá	-11.8548
▁reiligiúnach	-11.8555
▁formheas	-11.8557
▁asraon	-11.8558
▁Main	-11.8559
dáin	-11.8563
▁cultú	-11.8569
▁roghnach	-11.8571
▁bhFo	-11.8576
▁mionn	-11.858
dtréimhse	-11.858
▁Raon	-11.8582
▁Cló	-11.8583
▁grán	-11.8583
▁incháilitheacht	-11.8592
▁News	-11.8597
▁Teachtaireachta	-11.8598
▁aicmiú	-11.8602
▁128	-11.8613
off	-11.8621
▁tharchuir	-11.8629
▁rollaí	-11.8637
▁199	-11.8638
uain	-11.864
▁aerach	-11.8641
▁pop	-11.8646
nnel	-11.8652
▁bpá	-11.8654
idirdhealaithe	-11.8661
▁Cust	-11.8664
▁shrian	-11.8664
RT	-11.8665
▁Lae	-11.8668
▁pic	-11.867
▁dtáirgea	-11.867
▁comhch	-11.8671
ory	-11.8673
prof	-11.8678
▁104	-11.8679
ionstraimí	-11.8686
▁coibhéis	-11.8687
▁Mion	-11.869
oscail	-11.8692
RP	-11.8692
▁gcigire	-11.8693
▁scriosfa	-11.8704
mail	-11.8711
ithní	-11.8713
cast	-11.8714
▁scotha	-11.8715
TB	-11.8715
▁breath	-11.8715
anga	-11.8717
▁dóchúla	-11.8724
▁Domha	-11.8726
▁lom	-11.8727
íteas	-11.8729
▁Inneal	-11.8732
▁fhéin	-11.8737
hoo	-11.8738
▁líníochta	-11.8742
hiontach	-11.8743
▁dhoch	-11.8743
▁Fho	-11.8743
▁Wal	-11.875
IF	-11.8753
▁Mom	-11.8753
▁komis	-11.8762
▁suífea	-11.8762
gent	-11.8764
▁Aitheanta	-11.8768
▁dhigit	-11.877
▁dtaifead	-11.8771
Tax	-11.8773
▁IW	-11.8776
adáin	-11.8777
insteall	-11.8783
▁Coig	-11.8786
eál	-11.8786
▁turgna	-11.8788
▁106	-11.8789
▁Eachtra	-11.8791
phacáil	-11.8793
▁príosún	-11.8794
lectric	-11.8795
Iodáile	-11.8796
▁boilg	-11.8796
▁Sábháil	-11.8797
▁dobharshaothr	-11.8798
Impireacht	-11.8798
SPORTS	-11.8798
prótaca	-11.8798
séadchomhartha	-11.8798
▁Achoimr	-11.8798
▁Alúmana	-11.8798
▁Bhruiséil	-11.8798
▁Ciorclá	-11.8798
▁Cispheil	-11.8798
▁Dromchla	-11.8798
▁Ealaín	-11.8798
▁Oibleagáid	-11.8798
▁Oilimpeach	-11.8798
▁Píoló	-11.8798
▁SLÁINT	-11.8798
▁Sibhialta	-11.8798
▁Taifead	-11.8798
▁bhfoghlaim	-11.8798
▁chimeád	-11.8798
▁chomóra	-11.8798
▁consalachta	-11.8798
▁dlisteanach	-11.8798
▁díograis	-11.8798
▁pléasctha	-11.8798
▁randamach	-11.8798
▁Éigeandála	-11.8798
▁Atlanta	-11.8798
▁DVD	-11.8798
▁clársceideal	-11.8798
▁loam	-11.8798
▁Aigéad	-11.8798
▁Phearsan	-11.8798
▁eiseama	-11.8798
▁ngearán	-11.8798
▁Crown	-11.8798
▁cófra	-11.8798
▁caomhnaithe	-11.8798
▁tamaill	-11.8798
▁modúl	-11.8798
NÁISIÚN	-11.8798
▁Coiscthe	-11.8798
▁Dílean	-11.8798
anagement	-11.8798
maitéara	-11.8798
▁Great	-11.8798
▁luighe	-11.8798
▁anaithnid	-11.8798
▁damhsa	-11.8798
▁Ceangal	-11.8798
▁Cloí	-11.8798
▁gnóthú	-11.8798
▁Chiarra	-11.8798
▁tánaisteach	-11.8798
▁Eurasia	-11.8798
▁cluas	-11.8798
▁gCeanta	-11.8798
▁Meabhair	-11.8798
▁Chúram	-11.8798
scolaíocht	-11.8798
offici	-11.8799
▁fabhar	-11.8799
▁hiomportál	-11.8799
▁NFL	-11.8799
▁Development	-11.8799
▁Spás	-11.8799
▁uilíoch	-11.88
▁tháill	-11.88
▁ndeimhneo	-11.88
▁Print	-11.88
NKO	-11.88
▁promha	-11.88
▁lobha	-11.88
▁tréigthe	-11.88
sagart	-11.8801
SPN	-11.8801
▁bhileog	-11.8801
▁bPrímh	-11.8801
ontent	-11.8802
▁dhílseána	-11.8803
▁Cuairt	-11.8803
▁Day	-11.8803
▁CHUID	-11.8803
▁guaise	-11.8803
▁PET	-11.8803
osúlacht	-11.8804
pay	-11.8804
▁dréachta	-11.8804
shábháilte	-11.8804
fhorghéill	-11.8804
▁ndaingneo	-11.8804
▁fiabhra	-11.8804
▁Parad	-11.8805
▁Scríobh	-11.8805
▁cothrománach	-11.8806
▁scuirfid	-11.8808
tana	-11.8808
▁hIarscríbhinn	-11.881
▁deirfiúr	-11.8811
▁priontáil	-11.8812
▁Inmheánach	-11.8813
▁Dhír	-11.8815
▁1000	-11.8815
▁Ster	-11.8815
▁chóipeá	-11.8815
▁díon	-11.8815
▁Luath	-11.8816
▁eitleá	-11.8816
oráid	-11.8821
▁dTeaghla	-11.8823
▁hiarrachtaí	-11.8824
charbó	-11.8826
▁vein	-11.8826
oibreo	-11.8826
▁iolra	-11.8826
lorida	-11.8827
aeriompróir	-11.8829
cquis	-11.883
alaithe	-11.883
▁chara	-11.8833
▁komisi	-11.8833
airde	-11.8836
Innealtóir	-11.8838
▁146	-11.8839
▁slait	-11.8841
ghnéithe	-11.8842
▁Crois	-11.8842
OTA	-11.8842
▁Chorcaigh	-11.8843
AIRT	-11.8843
▁ndualgais	-11.8844
▁chomórta	-11.8845
▁suíochán	-11.8847
▁heolaíochta	-11.8847
▁Chaith	-11.8848
▁déir	-11.8851
genda	-11.8852
▁taitneamhachta	-11.8854
ooth	-11.8854
▁háitreabh	-11.8855
post	-11.8856
▁chistí	-11.8863
ender	-11.8864
▁feachtas	-11.8864
ubi	-11.8866
raenála	-11.8866
leib	-11.8869
▁Light	-11.8869
cipe	-11.887
sláinte	-11.8872
▁gcostais	-11.8874
▁réaltacht	-11.8876
ING	-11.8878
ónta	-11.8879
▁dhíolmh	-11.888
▁mata	-11.8883
▁dheimhnithe	-11.8885
athuair	-11.8886
chomhlíonta	-11.8888
Ceanncheathrú	-11.8888
▁stiúrth	-11.889
▁Brea	-11.8895
▁Real	-11.8895
▁dréachtch	-11.8897
▁Mhíchuma	-11.8898
BAN	-11.8899
NIÚ	-11.8899
▁trian	-11.89
AIRE	-11.8903
▁Nu	-11.8904
▁Eisea	-11.8906
ASH	-11.891
▁chríocha	-11.8913
▁Óstá	-11.8914
▁féidearthacht	-11.8915
▁tiontair	-11.8915
▁chré	-11.8916
▁ghlaonn	-11.8918
cheannaithe	-11.8923
▁Tionsclaíocht	-11.8925
▁mono	-11.8927
ack	-11.893
▁chomhchuibh	-11.8932
▁Aerártha	-11.8933
icne	-11.8939
▁iarchéime	-11.8942
▁Bul	-11.8942
▁ndéileáil	-11.8946
aighnea	-11.8947
▁Kora	-11.8947
▁Count	-11.8948
charge	-11.8949
▁fholu	-11.895
▁monaraíocht	-11.895
▁Labhair	-11.895
ddle	-11.8952
▁bhfón	-11.8956
▁hainmniú	-11.896
ghort	-11.8963
▁Osclaío	-11.897
NACH	-11.8972
▁méarlo	-11.8973
▁dick	-11.8974
▁Fhin	-11.8974
▁mille	-11.8976
chríochnaitheach	-11.8977
KI	-11.8979
▁test	-11.8982
ABS	-11.8985
uaidhe	-11.8991
▁Fógraí	-11.8994
In	-11.8995
▁Band	-11.8998
▁réadach	-11.8999
▁Ghaeltachta	-11.9002
djust	-11.9008
▁ndeonófa	-11.9008
▁mín	-11.9012
▁Comórta	-11.9015
statach	-11.9018
▁Chong	-11.9019
▁Cap	-11.9022
▁réada	-11.9022
▁theorainne	-11.9022
lock	-11.9027
▁Togh	-11.9028
▁Uni	-11.9029
▁stóráilte	-11.9029
ION	-11.9032
lacadh	-11.9033
▁Mín	-11.9038
▁comhairl	-11.9039
77	-11.904
▁Water	-11.904
tarraingt	-11.9056
▁Comhairleach	-11.9057
ved	-11.9058
▁Gréig	-11.9061
▁geilleaga	-11.9062
▁aontaithe	-11.9065
▁comhleanúnacha	-11.9065
bhun	-11.9066
ific	-11.9069
▁mbá	-11.9082
pal	-11.9087
OD	-11.909
▁Mórdhíol	-11.9093
▁Eco	-11.9097
▁ngníomhair	-11.9099
eisean	-11.9102
ARD	-11.9104
-70	-11.9107
zon	-11.911
▁thaisc	-11.9113
▁Tac	-11.913
▁gceapfa	-11.9131
love	-11.9134
Box	-11.914
eisiatach	-11.914
xy	-11.9142
▁neamhbh	-11.915
▁Toghchá	-11.9152
▁Den	-11.9154
▁Cinnf	-11.9155
eileachumarsáid	-11.9156
▁cust	-11.9163
▁fiosr	-11.9166
▁Je	-11.9166
▁séarach	-11.917
▁práinneach	-11.9173
▁Care	-11.9178
▁phearsan	-11.9184
Bhuirg	-11.919
iria	-11.9192
right	-11.9195
▁anailíse	-11.9203
▁diana	-11.9214
ked	-11.9214
▁Cean	-11.9218
▁chosn	-11.9218
▁Col	-11.9222
▁Corn	-11.9228
scaire	-11.9229
▁Idirlí	-11.9233
lucht	-11.9241
tháirgí	-11.9246
meri	-11.9248
Iarrata	-11.925
Ionad	-11.9254
▁Anti	-11.9255
▁chá	-11.9255
athdhíol	-11.9257
eagla	-11.9259
▁bpu	-11.9266
OM	-11.9266
mainn	-11.9269
mic	-11.9271
fhágfa	-11.9277
▁shlán	-11.928
BC	-11.928
HUR	-11.9284
tseirbhís	-11.9287
▁dtria	-11.9288
tation	-11.9292
▁mbainisteoir	-11.9299
teaghlach	-11.9308
▁Pas	-11.9314
▁deisce	-11.9322
▁Míle	-11.9328
▁coirn	-11.933
▁cónasca	-11.933
oíche	-11.9336
ráitis	-11.9343
▁Micro	-11.9347
▁beath	-11.9347
aming	-11.9348
éata	-11.9353
▁mbaile	-11.9354
▁cothaithe	-11.9355
thur	-11.9359
aerártha	-11.9364
andro	-11.9365
ogall	-11.9366
AH	-11.9366
▁caithte	-11.937
INT	-11.9377
oto	-11.9378
céad	-11.9379
dge	-11.938
úine	-11.938
aíoch	-11.9383
lb	-11.9386
▁pléasca	-11.9391
▁CAIN	-11.9392
▁teilifís	-11.9393
▁chlui	-11.9395
▁pragha	-11.9397
▁freagartha	-11.9404
▁Scrios	-11.9405
▁Tren	-11.9407
lamháilte	-11.9411
onia	-11.9413
▁Rev	-11.9416
aidhm	-11.9417
▁Ioslam	-11.9422
▁Stu	-11.9423
▁tuar	-11.9425
ceannasaí	-11.9425
phoint	-11.9426
twork	-11.943
vice	-11.9431
▁Giúda	-11.9431
▁glúin	-11.9433
icíd	-11.9437
blan	-11.9437
▁gCór	-11.9438
▁Muir	-11.9438
choimeádta	-11.944
fri	-11.9441
uto	-11.9444
▁innealtóir	-11.9446
▁ceartais	-11.9447
▁toghfa	-11.9447
leo	-11.9449
▁príosúna	-11.945
BM	-11.9453
ntel	-11.9472
rga	-11.9472
▁mainneachta	-11.9474
▁braite	-11.9474
▁sainord	-11.9475
clam	-11.9477
▁eisiata	-11.9478
▁ndeach	-11.948
▁leictr	-11.9487
▁5000	-11.9493
▁cithfholc	-11.9493
fhorfheidhmi	-11.9495
▁infhaighte	-11.9497
luchta	-11.9499
CF	-11.9499
Corparáid	-11.9499
▁Móra	-11.95
Eacnama	-11.9501
▁feic	-11.9502
▁chomharsanach	-11.9503
iamond	-11.9504
stam	-11.9505
rinnscrúdú	-11.9506
▁Chomhshao	-11.9509
adán	-11.9509
▁Tairis	-11.9509
▁Cíosa	-11.9509
▁ndeimhn	-11.9511
▁snáth	-11.9511
loíte	-11.9511
▁fluor	-11.9512
▁thaispeána	-11.9512
▁Imscrúd	-11.9512
▁Próiseá	-11.9512
▁bhláth	-11.9512
▁caomhnú	-11.9512
▁grinnfhiosrúchá	-11.9512
athscrúd	-11.9512
field	-11.9512
iompórtáil	-11.9512
rionglóid	-11.9512
thocsaineach	-11.9512
▁CÉIM	-11.9512
▁Doiciméad	-11.9512
▁Prophet	-11.9512
▁Rómáin	-11.9512
▁TIONCHA	-11.9512
▁cuóta	-11.9512
▁dhromchla	-11.9512
▁dtionscna	-11.9512
▁eagarthóireacht	-11.9512
▁fíniúna	-11.9512
▁gcultú	-11.9512
▁masterpiece	-11.9512
▁núicléach	-11.9512
▁phictiúr	-11.9512
▁phátrún	-11.9512
▁pimple	-11.9512
▁síochánta	-11.9512
▁turraing	-11.9512
▁German	-11.9512
▁Téalainn	-11.9512
▁spúnóg	-11.9512
aught	-11.9512
▁Garci	-11.9512
▁seasmhach	-11.9512
▁stailc	-11.9512
▁taidhleoir	-11.9512
▁mhadra	-11.9512
oirthear	-11.9512
▁uaslódáil	-11.9512
Dlúthpháirtíocht	-11.9512
▁babhta	-11.9512
olaire	-11.9512
▁durable	-11.9512
▁pléisiú	-11.9512
▁twist	-11.9512
quality	-11.9512
▁Beatha	-11.9512
▁ghiorr	-11.9512
▁mionnscríbhinn	-11.9512
▁stampáil	-11.9512
▁fabhrach	-11.9512
▁sicín	-11.9512
▁raidis	-11.9512
▁máithreacha	-11.9513
▁Smart	-11.9513
▁sparán	-11.9513
▁calma	-11.9513
▁díleá	-11.9513
▁Mheánmhuir	-11.9513
aitsilé	-11.9513
▁leochaileach	-11.9513
treet	-11.9513
▁Skill	-11.9513
▁Secon	-11.9513
▁ghlúin	-11.9513
▁Tríocha	-11.9514
bourg	-11.9514
▁plandála	-11.9514
▁scartáil	-11.9514
▁Imleabha	-11.9514
▁Buail	-11.9514
▁lipéid	-11.9514
▁thoghthóir	-11.9514
board	-11.9515
▁gamer	-11.9515
loud	-11.9515
▁mhuirearófa	-11.9515
▁foghlaimeoir	-11.9515
▁Electric	-11.9515
▁Cigireacht	-11.9516
▁Dhlí	-11.9516
▁iarmhartach	-11.9516
úbal	-11.9516
▁Chaitliceach	-11.9516
▁bhfadhb	-11.9516
▁Bride	-11.9517
▁díom	-11.9517
▁criticiú	-11.9518
▁Úsáideoir	-11.9518
▁dhruga	-11.9518
▁cómhaoini	-11.9519
▁clása	-11.9519
▁gcló	-11.9519
▁gcríochnó	-11.9519
ssess	-11.9519
town	-11.9519
▁meath	-11.952
▁heintit	-11.952
▁bhréagach	-11.9521
ionlainn	-11.9521
▁drochamhra	-11.9522
▁breacachá	-11.9522
▁inmholta	-11.9523
▁Lámhach	-11.9524
entral	-11.9524
▁taom	-11.9524
▁inné	-11.9525
▁chaitheann	-11.9525
▁168	-11.9525
mhiotal	-11.9526
▁hoscailt	-11.9527
▁dhíchu	-11.9527
▁tairis	-11.9529
▁Buirg	-11.953
▁Joy	-11.953
▁forc	-11.953
▁Punt	-11.9532
▁Shibhialta	-11.9532
▁thagraí	-11.9533
▁ceardaíocht	-11.9534
▁chaighdeá	-11.9534
▁bairr	-11.9534
▁dtabh	-11.9535
▁Caol	-11.9536
▁heart	-11.9536
▁FÉ	-11.9536
▁iallach	-11.9537
dhíoltóir	-11.9538
▁gcai	-11.9539
▁sung	-11.9541
▁Oibriú	-11.9541
▁uisciú	-11.9542
mfhál	-11.9543
▁Cartlann	-11.9543
▁colscar	-11.9544
▁Cúis	-11.9544
ghlacadóir	-11.9545
▁Eng	-11.9546
▁drámaíocht	-11.955
▁Pionóis	-11.9553
▁réalt	-11.9555
▁Ceadúnais	-11.9556
▁ciorcal	-11.9556
▁ticéid	-11.9558
oghthóir	-11.9559
▁350	-11.956
kes	-11.9562
▁réamhshocr	-11.9562
▁tharrac	-11.9564
▁Oibríochta	-11.9564
sen	-11.9565
made	-11.9566
▁galú	-11.9567
íbhinn	-11.9569
OTI	-11.9569
▁fac	-11.957
▁diúltó	-11.957
▁IMI	-11.9571
athchúrsáil	-11.9571
▁Tógfa	-11.9572
comhbhearta	-11.9573
▁slite	-11.9574
▁thrasn	-11.9574
▁lárchóra	-11.9574
▁Defen	-11.9575
▁laghdó	-11.9577
▁hasbhaint	-11.9578
ational	-11.9578
▁Nod	-11.9582
room	-11.9583
▁Date	-11.9583
▁Saoránach	-11.9586
▁cleas	-11.9586
▁chirt	-11.9587
▁gníomhacha	-11.9588
▁Ceapa	-11.9589
▁scrúdói	-11.9594
▁lamhál	-11.9594
▁cinnteo	-11.9597
▁gní	-11.9598
▁ros	-11.96
▁Spáinnis	-11.96
▁príomhchúi	-11.9602
mhinic	-11.9602
▁Laeth	-11.961
▁treochta	-11.9614
holún	-11.9618
▁císt	-11.9624
▁Uachtaránacht	-11.9628
▁vid	-11.9629
▁Ligean	-11.9631
ette	-11.9641
▁eachtraí	-11.9642
▁aisti	-11.9642
▁Masturbate	-11.9642
▁bhfarraig	-11.9646
ANTA	-11.9649
teocht	-11.9652
▁Phlé	-11.9657
▁easaonta	-11.9658
íobhálach	-11.9658
▁guí	-11.9661
▁ócáideach	-11.9661
▁Siopa	-11.9661
▁bónas	-11.9662
reign	-11.9665
FRE	-11.9667
▁Chom	-11.9667
▁fille	-11.9668
íoda	-11.9669
▁cúr	-11.967
▁sloinne	-11.9673
axi	-11.9675
oileán	-11.9675
▁Tith	-11.9677
▁gCeann	-11.9678
enerál	-11.9679
▁Bliantú	-11.968
▁ghluaisteá	-11.9687
box	-11.9687
uisc	-11.9689
▁siúlóid	-11.9695
▁ailléirgeach	-11.9701
▁Measúnacht	-11.9704
TEA	-11.9709
▁Bhótha	-11.9711
▁rep	-11.9717
imscrúdú	-11.972
▁Scói	-11.972
▁Shín	-11.9729
▁mbu	-11.9729
irge	-11.9731
▁178	-11.9738
▁buicé	-11.9738
ext	-11.9743
-16	-11.9744
ries	-11.9745
▁dtógfa	-11.9753
fhaois	-11.9772
▁Liti	-11.978
▁Áras	-11.9782
▁cothaitheach	-11.9783
▁Pia	-11.9785
mháin	-11.9785
ava	-11.9798
▁áireamhacht	-11.98
eilg	-11.9805
▁nACHT	-11.9815
TOR	-11.982
▁Chomhar	-11.982
▁Caighdeánach	-11.9825
theoir	-11.9835
▁Ranna	-11.9846
▁mhéar	-11.9847
hold	-11.9853
▁para	-11.9855
▁Iasachta	-11.986
▁sealbhó	-11.9861
▁Baint	-11.9869
dhlúit	-11.9869
▁thiomáin	-11.9876
▁hum	-11.9877
▁Mc	-11.9883
▁Barra	-11.9885
imeacht	-11.9901
▁shroich	-11.9903
▁bhunacha	-11.9908
▁geo	-11.9917
iontráil	-11.9917
fect	-11.9924
▁mbeif	-11.9926
▁Flo	-11.9929
hat	-11.9931
scaoilte	-11.9934
▁diúltaío	-11.9936
▁Dramhaí	-11.9944
▁cruinne	-11.9945
PM	-11.9945
89	-11.9947
▁taraif	-11.9949
▁Buí	-11.9952
▁Forala	-11.9955
▁féad	-11.9964
63	-11.9969
▁180	-11.9969
GL	-11.997
▁tsolátha	-11.9972
eep	-11.9973
cháilíochta	-11.9973
▁arbhar	-11.9975
oiriún	-11.9979
▁neo	-11.9988
▁cónaitheoir	-11.999
ullmhó	-11.9991
ET	-11.9991
abhal	-11.9996
▁cúil	-11.9997
láin	-11.9999
▁cistiú	-12.0004
▁ghar	-12.0009
▁Fire	-12.0011
nós	-12.0013
chumann	-12.0018
ARA	-12.0021
▁Feicf	-12.0028
▁230	-12.0029
tréithe	-12.0035
raíocht	-12.004
scor	-12.0046
▁189	-12.0046
éamhráite	-12.0048
haifid	-12.0049
▁críochnaío	-12.0054
▁brata	-12.0054
▁Ki	-12.0055
▁blianacht	-12.0055
coin	-12.0061
kV	-12.0062
fhága	-12.0069
bhanna	-12.0069
choinníollach	-12.0072
▁hiontaobha	-12.0072
IDIR	-12.0075
oder	-12.0077
scairchaipit	-12.0077
wer	-12.0082
chuntas	-12.0085
sheirbhís	-12.0086
Úsáid	-12.0088
Moncler	-12.0088
riosca	-12.0089
▁stiúrthó	-12.009
chtáil	-12.0092
PT	-12.0094
▁gheal	-12.0099
Bhreith	-12.01
cheangal	-12.0101
▁muiníne	-12.0101
▁ceangailteach	-12.0102
fhorléir	-12.0104
úchán	-12.0105
▁Deisc	-12.0105
▁mótar	-12.0107
FU	-12.0107
chomhalta	-12.0111
▁147	-12.012
ESS	-12.0125
▁chaithf	-12.0132
eodh	-12.0134
▁Fáil	-12.0148
▁hiarrata	-12.0151
▁buachaill	-12.0151
chomhairleoir	-12.0156
cóirí	-12.0162
▁príobháid	-12.0164
DC	-12.0164
enal	-12.0166
▁breoite	-12.0167
▁Hous	-12.0169
▁shoiléiri	-12.0172
▁bhfeirm	-12.0173
▁fóillíocht	-12.018
▁Chon	-12.0183
pul	-12.0183
ionanna	-12.0183
óiteáin	-12.0184
▁chisti	-12.019
▁iniúchóireacht	-12.019
orbhreathn	-12.0194
urghabh	-12.0194
ualainn	-12.0206
▁teid	-12.0207
▁pacáistí	-12.0217
aoide	-12.0222
▁céannacht	-12.0222
omhshó	-12.0222
gnéis	-12.0225
▁Jul	-12.0225
▁Prionsa	-12.0228
Grianghraf	-12.0229
▁Media	-12.0229
▁Cat	-12.023
amara	-12.0235
SM	-12.0235
▁Oidhreacht	-12.0239
earmad	-12.0241
yo	-12.0245
fheirme	-12.0245
FT	-12.0246
▁dtortha	-12.0251
▁Grianghra	-12.0257
ccess	-12.0257
hronograph	-12.0259
▁toimhde	-12.0261
▁Inmheána	-12.0263
▁dtréimhs	-12.0264
▁bhfios	-12.0269
iniúna	-12.0272
roo	-12.0275
▁Justi	-12.0275
▁micro	-12.0275
eatramh	-12.0275
▁struchtúrach	-12.0276
▁Cinnteoi	-12.0276
FAR	-12.0277
eolaíoch	-12.0278
▁gcorp	-12.028
▁SAM	-12.028
RÉIMH	-12.028
▁Praghs	-12.0281
▁Sprioc	-12.0281
▁cheardchuma	-12.0281
Dioplóma	-12.0281
iompórtála	-12.0281
▁AIRGEAD	-12.0281
▁Breosla	-12.0281
▁Chónaidhm	-12.0281
▁Copernicus	-12.0281
▁Fráma	-12.0281
▁Insteall	-12.0281
▁Liotuáin	-12.0281
▁Thaighde	-12.0281
▁alcaileach	-12.0281
▁bpaisinéir	-12.0281
▁chronomet	-12.0281
▁daoibh	-12.0281
▁dteipf	-12.0281
▁gcosantóir	-12.0281
▁plague	-12.0281
▁sliotá	-12.0281
▁thaispeánfa	-12.0281
▁thalmhaíocht	-12.0281
▁watermelon	-12.0281
wood	-12.0281
▁Communit	-12.0281
▁Priontáil	-12.0281
▁Trasfhoirmeo	-12.0281
▁bróicéir	-12.0281
▁script	-12.0281
▁IARSCRÍBHINN	-12.0281
▁Nuálaíocht	-12.0281
weight	-12.0281
▁frása	-12.0281
▁phláiné	-12.0281
▁saighead	-12.0281
▁shaothar	-12.0281
comhthimpeallach	-12.0281
journ	-12.0281
▁spíosra	-12.0281
▁Brunette	-12.0281
▁Fiber	-12.0281
▁scamhóg	-12.0281
▁déthaobhach	-12.0281
▁gceathrú	-12.0281
▁Sonró	-12.0281
áistreás	-12.0281
▁Léas	-12.0281
▁puzzle	-12.0281
▁buaiteoir	-12.0281
▁fócas	-12.0281
▁cailc	-12.0281
▁Thoghchá	-12.0282
chuóta	-12.0282
▁mhothúchá	-12.0282
▁Faireachá	-12.0282
▁huibhe	-12.0282
▁gcailltea	-12.0282
▁paisean	-12.0282
▁breithneo	-12.0282
▁dílleachta	-12.0282
▁cannaba	-12.0282
▁maigné	-12.0282
▁Feisir	-12.0282
▁Comhlána	-12.0282
▁hollscoile	-12.0282
▁ciorr	-12.0282
izz	-12.0282
▁dhaonra	-12.0282
Ostair	-12.0282
▁featha	-12.0282
▁Photo	-12.0282
▁Custom	-12.0282
▁dTeanga	-12.0282
▁retro	-12.0282
▁litera	-12.0283
▁seilf	-12.0283
Chalaois	-12.0283
Tiomna	-12.0283
▁LEANA	-12.0283
hagóid	-12.0283
▁ghaol	-12.0283
▁hiarmhairt	-12.0284
▁Éada	-12.0284
▁éiginnte	-12.0284
▁cnuas	-12.0284
▁íocf	-12.0284
▁Eitilt	-12.0284
▁TIONSCA	-12.0284
steroid	-12.0285
mbrí	-12.0285
▁chrann	-12.0285
▁177	-12.0286
▁chéatadá	-12.0286
Phins	-12.0286
▁tadhlach	-12.0286
▁eiseachad	-12.0287
▁cheol	-12.0287
▁Claus	-12.0288
▁forlíon	-12.0288
UBLI	-12.0288
▁híomhá	-12.0288
▁Seachada	-12.0289
▁arrow	-12.0289
▁ainmní	-12.0289
▁coincréit	-12.0289
▁dramhaí	-12.029
▁West	-12.0291
▁BBC	-12.0291
▁bhagairt	-12.0291
▁Nik	-12.0292
oircheas	-12.0292
▁Cuimhnigh	-12.0293
▁alia	-12.0295
▁spleácha	-12.0296
▁Exc	-12.0296
ISCE	-12.0297
enter	-12.0298
othrom	-12.0299
▁750	-12.03
fhaighteoir	-12.03
▁fheachta	-12.0301
hinking	-12.0302
▁theagasc	-12.0302
▁nuachtlit	-12.0303
▁seachtó	-12.0305
▁240	-12.0306
▁thrácht	-12.0306
▁cartlann	-12.0306
▁bheartó	-12.0307
ineasa	-12.0308
▁thiarna	-12.0312
▁Scaird	-12.0313
▁Dífhostaíocht	-12.0316
▁TFC	-12.0318
chomhairl	-12.032
▁mhargaíocht	-12.0321
▁masc	-12.0324
▁Industrie	-12.0325
rtaithe	-12.0325
▁Rómhánach	-12.0327
▁bailithe	-12.0328
▁Cheat	-12.033
▁Ranníoca	-12.033
▁Ceannasaí	-12.0337
▁meon	-12.0342
heilimint	-12.0343
comhdhúil	-12.0344
▁gcúins	-12.0347
cán	-12.0347
bam	-12.0348
▁Ról	-12.0349
▁Cruthú	-12.0349
▁choigrí	-12.035
▁doirtea	-12.0351
▁Déanaim	-12.0355
▁Dhíol	-12.0356
▁greann	-12.0359
▁USD	-12.036
ithle	-12.0362
▁scraga	-12.0363
▁CL	-12.0364
▁Riaghalta	-12.0365
▁áisiúla	-12.0367
▁mhótar	-12.0367
▁mear	-12.037
▁NUA	-12.0371
▁caibidlí	-12.0372
éiseach	-12.0373
Safe	-12.0375
▁ndeis	-12.0376
cover	-12.038
▁Airí	-12.0383
▁bharracha	-12.0384
▁Marine	-12.0384
SL	-12.0386
▁Gala	-12.0387
▁athchomhair	-12.0388
▁mona	-12.0388
▁fhormhuini	-12.0388
▁Thionscada	-12.039
▁iontaofacht	-12.039
alára	-12.0391
▁Ghla	-12.0392
eoite	-12.0393
▁altrana	-12.0393
▁Plann	-12.0394
▁marcál	-12.0395
formheasta	-12.0395
▁Theach	-12.0397
▁Fógraíocht	-12.0398
▁Gníomhach	-12.04
▁eire	-12.0402
cheannaitheoir	-12.0403
atharn	-12.0406
▁tarchuir	-12.0409
▁driog	-12.0409
▁ceacht	-12.041
▁sonró	-12.0412
▁Feirme	-12.0415
oibríocht	-12.0418
agall	-12.0418
▁Jes	-12.0419
▁teileafón	-12.0419
▁Cruinne	-12.0421
▁dúth	-12.0421
▁cóta	-12.0421
▁bhfeidhmeo	-12.0426
berg	-12.0427
chothaithe	-12.043
▁scratche	-12.0435
▁deighilt	-12.0437
▁Stampa	-12.0448
ities	-12.0449
▁greamaitheach	-12.0449
INE	-12.0451
▁triomach	-12.0459
▁dheonó	-12.0467
▁Mad	-12.0467
OIL	-12.0499
FHOR	-12.0501
▁exc	-12.0505
ndíolta	-12.051
▁Pac	-12.0515
BP	-12.0515
LÍ	-12.0517
▁1-2	-12.0518
▁Ocht	-12.0519
acra	-12.0519
▁Aird	-12.0528
▁Gao	-12.0534
▁Geall	-12.0534
▁tent	-12.0536
▁dtaisc	-12.054
▁chineá	-12.0544
▁TL	-12.0558
pac	-12.0566
DT	-12.0572
▁Ak	-12.058
olo	-12.0581
Spy	-12.0583
uidéal	-12.0585
▁Creid	-12.0585
▁saibhre	-12.0593
agrafaíocht	-12.0598
Ku	-12.0601
▁Corr	-12.0603
▁Val	-12.0606
▁seisiú	-12.0608
▁uasmhéad	-12.0613
▁chéannacht	-12.0628
ghníomhaíochta	-12.063
▁Bitc	-12.0631
gáin	-12.0634
▁díolaíocht	-12.0634
thonn	-12.0639
▁aicíd	-12.0642
▁Shin	-12.0656
▁fána	-12.0659
▁thréimhsiú	-12.0661
tone	-12.0665
sheacha	-12.0669
▁Mosc	-12.0673
treal	-12.0681
BS	-12.0681
▁imscar	-12.0683
cúram	-12.0685
▁onó	-12.0687
▁craola	-12.069
▁Loch	-12.0696
▁Liostaí	-12.0702
▁Leit	-12.0703
▁extra	-12.0712
▁Scaoilea	-12.0715
igue	-12.0717
mhail	-12.0725
oghairm	-12.0726
▁méadófa	-12.0731
▁Ju	-12.0736
aothrú	-12.0737
▁Iarra	-12.0739
▁133	-12.0742
▁Feidhme	-12.0751
aireachas	-12.0752
▁fosfa	-12.0759
pátrún	-12.0767
▁gual	-12.0781
▁Mat	-12.0782
dul	-12.0785
▁comhleanúnach	-12.0787
chóiriú	-12.0788
ONTAIS	-12.0791
▁gcinnfea	-12.0792
▁Cinntí	-12.0798
▁PP	-12.08
▁foraois	-12.08
▁pholl	-12.0806
▁hintinn	-12.0807
▁híocaíocht	-12.0809
▁thoghfa	-12.0812
▁barraí	-12.0815
▁haistr	-12.0815
omhairliúchán	-12.0828
éasta	-12.0832
▁dhlúth	-12.0835
▁thréimhs	-12.0836
lás	-12.0837
dac	-12.0841
▁Pet	-12.0842
géarchéim	-12.0844
▁hAon	-12.0844
▁chultú	-12.0845
OU	-12.0846
duine	-12.0848
▁Bhreithe	-12.0852
▁bhfág	-12.0852
fhrea	-12.0859
zel	-12.086
▁Sub	-12.0863
▁comhdhlúth	-12.0863
páis	-12.0868
wed	-12.0874
▁léirmhíni	-12.0876
▁129	-12.0877
cket	-12.0878
▁LEAS	-12.0878
ural	-12.0879
bhair	-12.0882
uni	-12.0888
bhliantú	-12.0889
hochar	-12.0889
ógairt	-12.0896
du	-12.0899
▁Náisiúntacht	-12.0901
▁Crain	-12.0903
uaite	-12.0904
▁labhraío	-12.0904
aidir	-12.0908
▁choiscf	-12.091
▁stró	-12.0915
▁Tom	-12.0925
▁fich	-12.0929
▁Fast	-12.0944
▁Ball	-12.0946
cci	-12.0947
▁séaracha	-12.0952
ÍOMH	-12.0959
bri	-12.0962
roinne	-12.0969
gli	-12.097
siombail	-12.097
▁ragh	-12.0975
gasta	-12.0977
TUA	-12.0981
stóras	-12.0981
Prótaca	-12.0983
líona	-12.0983
▁comórta	-12.0984
fhoirgniú	-12.0985
cnaipe	-12.0987
loingseoireacht	-12.0989
fuinneog	-12.099
▁threisi	-12.0993
▁Reachtú	-12.0998
éadaí	-12.0999
▁hOifig	-12.1007
▁mbanna	-12.1009
▁sea	-12.101
hreasa	-12.1016
INNE	-12.1018
Iaráin	-12.1022
▁Cai	-12.1026
▁cigir	-12.1027
▁Fina	-12.1027
MAT	-12.103
▁Déantús	-12.1038
▁Cláraithe	-12.1038
▁America	-12.1038
leithead	-12.1038
▁vacsaín	-12.1046
▁misin	-12.1049
suíomh	-12.1054
▁fhia	-12.106
▁Breiseá	-12.1063
tástála	-12.1064
lóige	-12.1066
DU	-12.1067
▁amhrá	-12.1068
pping	-12.1069
dhaonna	-12.1071
▁Comór	-12.1071
illeacht	-12.1072
urlái	-12.1073
odhchaí	-12.1075
-100	-12.1077
▁orgá	-12.1078
▁lóistí	-12.1078
▁chaitea	-12.1078
eagaisc	-12.1081
quisit	-12.1082
éama	-12.1085
dráma	-12.109
▁barántúla	-12.1101
isgint	-12.1102
▁Ioma	-12.1102
oicind	-12.1104
hrúpa	-12.1105
abraic	-12.1109
▁STÁ	-12.1109
▁Direct	-12.1109
▁bhraith	-12.1111
▁117	-12.1111
▁Ele	-12.1111
iascaireacht	-12.1113
▁fionna	-12.1114
▁fhéich	-12.1115
eascró	-12.1115
▁bhreosla	-12.1115
▁nArm	-12.1115
▁Íomhá	-12.1115
Loingseoireacht	-12.1115
Oispidé	-12.1115
Seirbia	-12.1115
athnuachaint	-12.1115
▁Anatolia	-12.1115
▁Lascain	-12.1115
▁Messenger	-12.1115
▁Nigéir	-12.1115
▁Oiriúnach	-12.1115
▁SOLÁTHA	-12.1115
▁Scríbhneoir	-12.1115
▁Séadchomhartha	-12.1115
▁bPoblacht	-12.1115
▁bhranda	-12.1115
▁chonsalacht	-12.1115
▁cháipéis	-12.1115
▁deighleálfa	-12.1115
▁gCríost	-12.1115
▁idirmheánach	-12.1115
▁language	-12.1115
▁ngréasá	-12.1115
▁prostitute	-12.1115
▁rómánsú	-12.1115
▁sreinge	-12.1115
▁tíolactha	-12.1115
▁Metropoli	-12.1115
▁cúcama	-12.1115
▁Thiobra	-12.1115
▁capaill	-12.1115
▁coimhth	-12.1115
flower	-12.1115
▁ECRIS	-12.1115
▁bintiúr	-12.1115
▁inimirce	-12.1115
cleachtóir	-12.1115
▁Pláta	-12.1115
▁chumhrá	-12.1115
fhéichiúna	-12.1115
▁Baincéireacht	-12.1115
▁eagna	-12.1115
▁lóisteál	-12.1115
▁Chonaic	-12.1115
phíopa	-12.1115
▁gColáist	-12.1115
▁dtráthchoda	-12.1115
▁gconartha	-12.1115
▁hiodrálach	-12.1115
▁dáilcheanta	-12.1115
▁iomadúla	-12.1115
▁achtúire	-12.1115
▁Sinseara	-12.1115
▁Traidisiú	-12.1115
▁néaróg	-12.1115
fiber	-12.1115
▁carthanú	-12.1115
▁shúile	-12.1115
▁Spreag	-12.1115
mhéada	-12.1115
▁Ciorca	-12.1115
▁fiuch	-12.1115
▁Journ	-12.1115
▁Hood	-12.1115
▁phainé	-12.1115
position	-12.1115
▁gContae	-12.1115
▁Tomhais	-12.1115
▁céimshria	-12.1115
▁bholg	-12.1115
▁Vote	-12.1115
▁ciúb	-12.1116
▁Sreang	-12.1116
éascó	-12.1116
▁Tábhacht	-12.1116
▁Puls	-12.1116
▁SAOR	-12.1116
▁cábá	-12.1116
▁fhoilseo	-12.1116
▁leaisteacha	-12.1116
▁Protect	-12.1116
▁MEASÚN	-12.1116
▁Urrú	-12.1116
▁liopa	-12.1116
boilgeog	-12.1116
▁Páirceá	-12.1116
▁sult	-12.1116
▁Airport	-12.1116
▁grill	-12.1117
allmhuir	-12.1117
001	-12.1117
▁Sonrú	-12.1117
▁Well	-12.1117
▁hidirbhearta	-12.1117
▁Suiteáil	-12.1117
▁contaebhuirg	-12.1117
▁Magic	-12.1117
▁Forlíontach	-12.1118
MÉAD	-12.1118
▁People	-12.1118
▁Scáth	-12.1119
▁gCéad	-12.1119
▁Enact	-12.1119
▁nAir	-12.1119
▁TEO	-12.112
▁chongant	-12.112
▁BIA	-12.112
chini	-12.112
▁sceid	-12.112
▁dhligh	-12.112
teidlíocht	-12.1121
▁feithid	-12.1121
▁Comhairlitheach	-12.1121
▁Compani	-12.1121
▁comhnaithe	-12.1122
▁calc	-12.1122
▁Coinneo	-12.1123
▁Araíonacht	-12.1123
ainmheach	-12.1123
▁airnéis	-12.1123
▁UNE	-12.1124
▁Meastóireacht	-12.1124
▁téamh	-12.1124
▁ardaitheoir	-12.1124
▁Cásca	-12.1124
▁gáinneá	-12.1126
▁bhradá	-12.1126
▁chéadluaite	-12.1126
▁gcliant	-12.1126
▁Machin	-12.1126
SCO	-12.1127
▁Athchomhair	-12.1127
▁feicfi	-12.1127
▁adeir	-12.1127
▁gcrit	-12.1127
▁theachtaireacht	-12.1128
▁príomháit	-12.1128
▁Cóipcheart	-12.1129
▁Pósta	-12.1129
▁reo	-12.113
▁Brun	-12.113
▁Chart	-12.1131
▁Suck	-12.1132
▁athshlánú	-12.1133
▁dTiarna	-12.1133
▁Fold	-12.1134
▁Slán	-12.1134
▁fhéimheach	-12.1136
NUM	-12.1136
▁amóinia	-12.1137
▁dtoil	-12.1138
▁geallta	-12.1139
▁Hry	-12.1139
▁Bréag	-12.114
▁chomhiomlán	-12.114
▁tsola	-12.114
▁ABC	-12.114
hríocha	-12.1142
▁Láithreach	-12.1144
▁déarfa	-12.1145
▁Paint	-12.1146
▁mheo	-12.1146
Saoráid	-12.1147
▁neamhrialtachta	-12.1147
▁thromchúiseach	-12.1148
Bhunscoileanna	-12.1149
▁paidr	-12.1151
▁Ghearr	-12.1151
chríoch	-12.1152
▁cothú	-12.1153
▁páirtnéir	-12.1154
ushing	-12.1155
▁Brúigh	-12.1156
▁CAD	-12.1157
▁áirithint	-12.1157
▁rannpháirteacha	-12.1158
▁Lún	-12.1159
▁tuillte	-12.1159
▁ceirmeach	-12.1161
▁buíoch	-12.1162
mhiota	-12.1164
▁Shot	-12.1166
▁Bóna	-12.1167
▁margadhluach	-12.1169
▁Ever	-12.1172
▁Tram	-12.1172
▁Deartha	-12.1175
▁healaíontóir	-12.1175
▁Oibrithe	-12.1178
volta	-12.1178
▁gre	-12.1178
▁tonna	-12.1179
vni	-12.1179
▁Thoir	-12.1182
▁chói	-12.1183
▁Store	-12.1183
úinéireacht	-12.1185
event	-12.1185
▁saotharla	-12.1186
chríochnaithe	-12.1192
▁Cothabháil	-12.1194
▁thosaíochta	-12.1194
▁leachtaithe	-12.1195
anáil	-12.12
uter	-12.1201
▁tsaotha	-12.1201
▁cineá	-12.1202
fall	-12.1204
▁Chlua	-12.1204
▁Rannpháirtíocht	-12.1205
link	-12.1208
▁Chist	-12.1209
Book	-12.121
▁ngrá	-12.1219
RL	-12.1223
▁Chro	-12.1224
▁deata	-12.1234
▁thuairisceá	-12.1236
ampáil	-12.1238
▁breoiteacht	-12.124
bheag	-12.1244
chabhrach	-12.1245
ties	-12.1246
▁atreor	-12.1247
réit	-12.1248
▁mheascá	-12.1248
▁112	-12.1248
Park	-12.1249
▁dintiúir	-12.1251
theangacha	-12.1257
▁buachaillí	-12.1264
▁iontaoibhe	-12.1265
▁Eu	-12.1265
▁Bunú	-12.1267
▁bhfuigh	-12.127
ídiú	-12.1271
húdarú	-12.1273
▁thógála	-12.1274
▁shuí	-12.1277
taobh	-12.128
▁Jun	-12.1282
eoireacht	-12.1286
▁teo	-12.1295
▁corpr	-12.1297
▁Ceol	-12.13
▁chomhlachai	-12.1302
▁dhíri	-12.1303
▁ngearr	-12.1305
▁Leictreonach	-12.1306
▁Tollá	-12.1306
PG	-12.1311
tapa	-12.1312
▁Lámh	-12.1314
▁Modúl	-12.1315
▁cnámha	-12.1316
▁grafach	-12.1317
▁Ríomhair	-12.1327
▁Meta	-12.1336
▁bearna	-12.1338
▁hoil	-12.1339
próiseáilte	-12.134
tosó	-12.1341
ileog	-12.1342
▁Oc	-12.1344
▁CT	-12.1348
▁Rose	-12.1349
▁ceartúchá	-12.1352
▁Chustaim	-12.1353
▁dámha	-12.1358
▁Dheon	-12.1358
▁Cíos	-12.1359
▁pacáistithe	-12.1359
▁iarchur	-12.1363
▁béal	-12.1365
ionchúis	-12.1369
▁bhfeiste	-12.1369
▁síor	-12.1373
ano	-12.1378
Plan	-12.138
shocrú	-12.1386
pad	-12.1392
▁chompord	-12.1393
lks	-12.1393
Eolaíochtaí	-12.14
range	-12.1404
▁dtuarascá	-12.1405
itín	-12.1413
▁traidisiú	-12.1414
▁bratach	-12.1414
astaíochta	-12.1415
dhíola	-12.1416
SEO	-12.1422
ardchaighdeá	-12.1427
▁gri	-12.1433
▁cóimh	-12.1437
▁ullmhóid	-12.144
húchán	-12.1444
NL	-12.1448
▁fheo	-12.1449
ástáil	-12.1455
TAR	-12.1456
▁hachomhair	-12.1456
▁neamhair	-12.1457
▁Die	-12.1462
▁belo	-12.1465
▁caorach	-12.1467
pháirteach	-12.147
Dún	-12.147
reab	-12.147
▁pluma	-12.1475
▁bréag	-12.1475
▁léireo	-12.1489
▁foraoiseacht	-12.1489
ux	-12.1502
ju	-12.1503
NÉ	-12.1505
▁dinimiciú	-12.1514
▁Bao	-12.1516
▁deimhniúchá	-12.1525
inger	-12.1527
▁Web	-12.1529
▁hAlb	-12.153
▁pland	-12.1537
▁castacht	-12.1547
▁109	-12.1552
▁dtáirge	-12.1554
PR	-12.1554
CHU	-12.1556
count	-12.1558
022	-12.1561
DM	-12.1564
▁ndéan	-12.1577
▁bocht	-12.1586
Confe	-12.1588
▁rothaíocht	-12.1588
▁morgáisteo	-12.1591
eilbh	-12.1596
▁saoirs	-12.1596
▁tuaslag	-12.1599
hosca	-12.16
▁Seana	-12.1602
▁Bhreithi	-12.161
▁eitic	-12.1611
lúbthachta	-12.1611
hárda	-12.1614
▁héilithe	-12.1614
▁athró	-12.1615
▁fuíoll	-12.1618
▁dinimic	-12.1621
íocóir	-12.1621
▁Móir	-12.1623
▁coiscthe	-12.1627
▁idirnasc	-12.1628
▁Oh	-12.1634
▁géin	-12.1635
hionann	-12.1637
▁bheo	-12.1638
▁páirce	-12.1638
idirthréimhse	-12.1646
blog	-12.1652
inx	-12.1653
▁mbó	-12.1654
IDA	-12.1662
▁186	-12.1663
hosmálta	-12.1665
aibidil	-12.1668
▁Úsáidte	-12.1679
▁cúlchist	-12.168
zmir	-12.168
▁dtóg	-12.1686
chruinni	-12.169
▁hAir	-12.1694
▁Ev	-12.1694
tage	-12.1696
▁phó	-12.1706
▁comhdhá	-12.1707
óstá	-12.1708
▁ionrach	-12.171
chlann	-12.1721
▁iomarca	-12.1724
▁diúsca	-12.1724
▁bhfiach	-12.1738
▁acmhainne	-12.1738
bhliain	-12.1743
▁thras	-12.1748
árda	-12.175
care	-12.1759
▁Dec	-12.1761
▁ioml	-12.1762
punt	-12.1762
▁gheará	-12.1765
▁pail	-12.1765
VAS	-12.1771
▁251	-12.1771
▁Taois	-12.1773
uinniú	-12.1775
AITHE	-12.178
▁145	-12.1782
abhrói	-12.1782
▁Maoin	-12.1785
roime	-12.1789
óiríocht	-12.179
ARR	-12.1792
bell	-12.1805
▁phas	-12.1822
▁Rac	-12.1823
▁Hi	-12.1824
fhad	-12.1829
▁Hip	-12.1835
▁Pola	-12.184
▁Fiche	-12.1841
▁thábhacht	-12.1843
▁cuan	-12.1853
▁Bou	-12.1859
SB	-12.1867
▁Tru	-12.1875
aontacht	-12.1875
▁fiontra	-12.1875
Comhpháirtíochta	-12.1885
▁HC	-12.1887
hlub	-12.1894
Stiúrth	-12.1896
▁sheolta	-12.1903
▁chomhlíonfa	-12.1906
dhíobháil	-12.191
▁iascair	-12.1916
▁bhronntana	-12.1916
oimhneacht	-12.193
▁náire	-12.1931
▁chalaois	-12.1931
RU	-12.1932
abhrán	-12.1937
fast	-12.1937
▁mhorgáist	-12.1946
fheabhs	-12.1951
▁phríobháid	-12.1957
▁Rat	-12.1958
orpraithe	-12.1958
RAÍ	-12.1961
House	-12.1962
shop	-12.1963
FL	-12.1966
hairc	-12.1966
level	-12.1967
▁Dhéan	-12.1967
oblagáid	-12.1968
sky	-12.1969
phrionsaba	-12.1969
ront	-12.197
TUAIRIM	-12.197
thionónta	-12.197
contúirt	-12.1971
airbhearta	-12.1971
▁Bhean	-12.1972
▁Industr	-12.1974
▁Eochair	-12.1976
flu	-12.1977
▁Leatha	-12.1978
eintit	-12.198
tack	-12.1983
▁haer	-12.1983
gheall	-12.1985
▁inacmhainne	-12.1985
▁reilig	-12.1986
▁teora	-12.1986
Sheirbhís	-12.1986
▁Law	-12.1987
aturnae	-12.199
▁PL	-12.1991
▁LÉ	-12.1991
chigire	-12.1992
▁Bailío	-12.1993
▁bpai	-12.1993
réigiúnach	-12.1994
ador	-12.1994
chuimilt	-12.1995
atur	-12.1996
sásta	-12.1999
leagan	-12.1999
bhriste	-12.2001
▁drámaí	-12.2003
▁phea	-12.2003
staid	-12.2004
ALL	-12.2005
mplifier	-12.2008
▁deifr	-12.2012
▁Theicn	-12.2013
bhréag	-12.2014
leictreach	-12.2015
liant	-12.2016
chomhar	-12.2017
POL	-12.2019
riachtanais	-12.202
CHOIM	-12.2021
▁loigh	-12.2023
ample	-12.2023
itneamhach	-12.2023
nphrionsa	-12.2023
▁Louboutin	-12.2024
▁Trédhearcach	-12.2024
▁inphionó	-12.2024
▁splanc	-12.2024
MHEÁNACH	-12.2024
RAITH	-12.2024
ionstruim	-12.2024
sinneagóid	-12.2024
▁Ceardlann	-12.2024
▁Cucumber	-12.2024
▁Dliteana	-12.2024
▁Dualgais	-12.2024
▁Gobharnóir	-12.2024
▁Muslim	-12.2024
▁Próifíl	-12.2024
▁STIÚRTHÓIREACHT	-12.2024
▁System	-12.2024
▁Thalmhaíocht	-12.2024
▁athphland	-12.2024
▁bithmhéadrach	-12.2024
▁choimisinéir	-12.2024
▁cniog	-12.2024
▁diaibéitea	-12.2024
▁fashion	-12.2024
▁fheabha	-12.2024
▁flesh	-12.2024
▁gallúnach	-12.2024
▁hidreacarbó	-12.2024
▁múirín	-12.2024
▁ndliteana	-12.2024
▁phíolóta	-12.2024
▁sléibhte	-12.2024
▁Éifeachtach	-12.2024
▁éagobhsaí	-12.2024
Ungáir	-12.2024
▁Centre	-12.2024
▁Group	-12.2024
▁RÉIGIÚN	-12.2024
▁acadúla	-12.2024
▁nGarda	-12.2024
▁teirminé	-12.2024
▁wonder	-12.2024
▁bochtaineacht	-12.2024
▁fhiáin	-12.2024
▁sciála	-12.2024
chontúirt	-12.2024
▁winter	-12.2024
▁IMEACHTA	-12.2024
▁Fisher	-12.2024
▁Saincheap	-12.2024
▁Shasana	-12.2024
▁finscéal	-12.2024
▁pónair	-12.2024
iobar	-12.2024
uafás	-12.2024
▁Ceirde	-12.2024
▁Tréidliacht	-12.2024
▁gceird	-12.2024
▁Grád	-12.2024
▁calorie	-12.2024
▁Cabhla	-12.2024
mhuint	-12.2024
▁Coigeart	-12.2024
▁Loing	-12.2024
▁gCairt	-12.2024
▁iomaitheoir	-12.2024
▁reáchtála	-12.2024
▁gcampa	-12.2024
▁phríosúntacht	-12.2024
▁Grey	-12.2024
▁staighr	-12.2024
▁Séaracha	-12.2024
thbhunú	-12.2024
▁Cócaireacht	-12.2024
▁cúntóir	-12.2024
▁phréimh	-12.2024
▁bídeach	-12.2024
balance	-12.2024
▁Gaile	-12.2024
▁TUI	-12.2024
▁fóirdheonta	-12.2024
▁Rásaíocht	-12.2024
▁Druga	-12.2024
ization	-12.2024
▁neamhorgánach	-12.2025
▁ndealraí	-12.2025
▁Financial	-12.2025
▁fhónta	-12.2025
▁chonclúid	-12.2025
▁bpróiseáil	-12.2025
▁Sasana	-12.2025
dress	-12.2025
▁fabhraí	-12.2025
▁Dhubh	-12.2025
▁fhoriomlán	-12.2025
rival	-12.2026
▁éiglí	-12.2026
▁PrÃ	-12.2026
bhraite	-12.2026
▁mbailiúchá	-12.2026
▁Rechargeable	-12.2026
▁CHOIMISIÚ	-12.2026
▁uathria	-12.2026
▁fundúireacht	-12.2026
▁Mótarchá	-12.2026
▁ngnólacht	-12.2026
▁Share	-12.2026
▁Alex	-12.2027
▁maighdean	-12.2027
▁muice	-12.2028
▁Cúp	-12.2028
ggle	-12.2029
cular	-12.2029
▁comhuaineach	-12.2029
▁hítim	-12.2029
ileata	-12.2029
amily	-12.203
▁Teen	-12.203
niper	-12.2031
▁Uile	-12.2032
▁dlíodóir	-12.2032
▁Chánach	-12.2032
▁Oirth	-12.2032
▁thrian	-12.2032
▁sweet	-12.2033
▁cleans	-12.2034
▁Bhárda	-12.2034
▁phláta	-12.2035
▁capall	-12.2035
▁urraíocht	-12.2035
▁Léirmheas	-12.2036
▁With	-12.2036
réims	-12.2037
dhriog	-12.2038
▁torthú	-12.2038
▁coimhlint	-12.2038
▁will	-12.2038
▁gcríochn	-12.2038
▁Ceimiceá	-12.2039
▁here	-12.2039
▁inspi	-12.204
▁mionlach	-12.2041
▁1909	-12.2041
▁Nice	-12.2042
▁bhfeachta	-12.2042
ACA	-12.2042
▁Lámhleabha	-12.2042
▁phósa	-12.2042
▁Cairde	-12.2043
▁europ	-12.2044
▁Timpeallacht	-12.2044
dine	-12.2045
▁Aithní	-12.2045
insteallta	-12.2045
▁cailliú	-12.2045
▁Comis	-12.2046
▁Inneall	-12.2046
airisgint	-12.2048
▁Nochta	-12.2048
▁chomharsa	-12.2048
▁Chlé	-12.2049
chonnartha	-12.2049
▁funga	-12.2049
▁dtrádála	-12.205
iye	-12.2051
▁éifeachtúla	-12.2052
▁Foraoise	-12.2052
▁Rain	-12.2054
▁Prio	-12.2055
omment	-12.2056
▁taos	-12.2056
ráthúlacht	-12.2056
▁idirghabhá	-12.2057
▁clamp	-12.2058
▁Peir	-12.2058
▁Pure	-12.2058
▁mhórbheala	-12.2059
artlann	-12.2059
▁CBT	-12.206
▁filíocht	-12.206
▁dteach	-12.2061
▁Maoiniú	-12.2062
▁chainé	-12.2062
▁Sár	-12.2063
PC	-12.2063
▁Peter	-12.2064
▁whi	-12.2065
▁cuimhneachá	-12.2065
pórt	-12.2065
tuaslagtha	-12.2066
rei	-12.2066
fhoirceann	-12.2067
▁cliaint	-12.2068
▁hÉ	-12.2068
▁choláiste	-12.2069
fhada	-12.2069
▁cainníochta	-12.207
rush	-12.2072
▁gceadú	-12.2073
▁molfa	-12.2073
▁baintreach	-12.2073
▁Comhacht	-12.2075
▁Reachtaíocht	-12.2076
Caitliceach	-12.2076
▁taibh	-12.2077
▁chairé	-12.2078
▁Seachtrach	-12.2079
▁bailitheoir	-12.2082
▁Molaim	-12.2084
▁Bainc	-12.2084
▁áille	-12.2085
ruithniú	-12.2085
athló	-12.2088
adharc	-12.2091
íseach	-12.2091
▁ngné	-12.2091
▁Tús	-12.2093
▁SOCR	-12.2094
▁Baba	-12.2094
ague	-12.2095
▁184	-12.2096
▁spraeála	-12.2096
Oideachas	-12.2098
TAC	-12.2099
vé	-12.2102
▁athmhúnl	-12.2105
Afri	-12.2106
▁earcaíocht	-12.2107
▁éilitheo	-12.2108
▁gabháltais	-12.2109
tooth	-12.2109
▁foircean	-12.211
▁Ky	-12.211
▁Comhroinn	-12.2116
Cheadúna	-12.2116
ening	-12.2117
▁tairn	-12.2117
AOINE	-12.2119
aithreacha	-12.2121
▁Comhéada	-12.2122
▁iarrthach	-12.2122
▁deonta	-12.2124
chonair	-12.2126
▁marthana	-12.2126
emor	-12.2127
▁anraith	-12.2131
master	-12.2133
▁minim	-12.2134
▁Dina	-12.2134
▁Mark	-12.2135
dmin	-12.2136
fhéachaint	-12.2142
▁bhfostaí	-12.2142
▁thionóntacht	-12.2143
▁bhforchuir	-12.2144
gánach	-12.2149
▁NAS	-12.2151
ownload	-12.2152
▁Póilíneacht	-12.2152
▁Fís	-12.2153
wei	-12.2154
ongress	-12.2154
▁256	-12.2157
▁Dead	-12.2157
▁glaine	-12.2157
▁spéise	-12.2161
RTHA	-12.2164
▁choic	-12.2165
gp	-12.2165
ivas	-12.2165
▁COM	-12.2167
▁cothromas	-12.2168
▁dhaingn	-12.2172
▁ciontóir	-12.2175
▁142	-12.2177
Polainn	-12.218
IBH	-12.2186
aeradró	-12.2194
▁mbreis	-12.2201
▁Mhói	-12.2201
▁tarraingío	-12.2203
▁tiocfaid	-12.2203
nswer	-12.2207
▁pou	-12.221
▁sláinteacha	-12.2211
▁Dre	-12.2217
▁Suas	-12.2219
athracha	-12.2221
orálta	-12.2223
mra	-12.2225
▁tsealbhó	-12.2228
▁ndint	-12.223
Tub	-12.2232
Crannchu	-12.2232
▁Teste	-12.2232
▁cumha	-12.2235
mheastachá	-12.2235
▁CIS	-12.2237
▁hand	-12.224
imhneacht	-12.2249
155	-12.2258
▁Comp	-12.2264
▁dhífhost	-12.2265
▁Europei	-12.2265
bhrais	-12.2271
hóiteá	-12.2272
neart	-12.2273
claí	-12.2274
▁Bonn	-12.2274
tball	-12.2278
▁banaltr	-12.2279
▁ardcháilíocht	-12.2281
bout	-12.229
bhuailte	-12.2294
▁phríomhoifig	-12.2298
▁insil	-12.2299
▁dílsiú	-12.2306
uimhnigh	-12.2306
▁Logainm	-12.2307
nell	-12.2312
oli	-12.2315
▁360	-12.2324
osmálta	-12.2331
▁maisiúchá	-12.2348
▁FTT	-12.2349
▁Teaghlach	-12.235
▁seal	-12.235
▁scio	-12.2352
Fi	-12.2353
oibritheoir	-12.2356
▁caithfea	-12.2356
phé	-12.2363
▁Foca	-12.2364
ailín	-12.2365
▁éabhlóid	-12.2367
▁coimirce	-12.2367
▁ndeon	-12.237
▁mhonaraí	-12.2371
▁fheara	-12.2382
▁Lite	-12.2384
▁dabh	-12.2386
▁tionóntachá	-12.2387
▁DEN	-12.2389
▁pháirtnéir	-12.239
▁gcumhda	-12.2391
raithne	-12.2393
aistriúchá	-12.2394
ento	-12.2395
aithin	-12.2395
olói	-12.2398
eze	-12.2399
▁cláró	-12.2401
Feidhmeannacht	-12.2411
▁Comhdhlúth	-12.2413
RAM	-12.2413
stad	-12.243
díoltóir	-12.2431
▁Cion	-12.2432
FF	-12.2433
▁Leanfa	-12.2433
SR	-12.2436
olog	-12.2443
▁turasóir	-12.2452
bhord	-12.2454
▁AONTA	-12.2454
uimhriú	-12.2454
abilit	-12.2458
▁epi	-12.2458
eilge	-12.2463
▁héinn	-12.2463
mill	-12.2465
▁cheapf	-12.2465
km	-12.2468
▁mheasún	-12.2471
▁creata	-12.2471
tarbh	-12.2472
imhdeach	-12.2475
▁méadó	-12.2477
▁war	-12.2477
▁thogh	-12.248
▁Scaoil	-12.2485
▁gCo	-12.249
▁loing	-12.2491
▁muint	-12.2494
Trádáil	-12.2494
▁bolg	-12.2497
▁shroichea	-12.2499
eartaithe	-12.2502
▁fhaomha	-12.251
▁thro	-12.251
▁Kara	-12.2518
▁Laidine	-12.2519
▁Santa	-12.2523
fhoilsi	-12.2526
▁Críochnaío	-12.254
Ean	-12.2543
Tá	-12.2549
Pobal	-12.2551
▁córasach	-12.2561
▁Réigiúna	-12.2563
níomh	-12.2568
▁scoiltea	-12.257
hreath	-12.2572
iya	-12.2573
▁Love	-12.2574
PO	-12.2575
Bay	-12.2578
▁gcóna	-12.258
▁féimheacht	-12.2588
chláir	-12.2589
reisiú	-12.2595
réasúnach	-12.2599
umble	-12.2609
igint	-12.2611
▁mBó	-12.2617
▁ghair	-12.2619
éachtaí	-12.2629
▁ceangail	-12.2633
DS	-12.2635
fy	-12.2642
▁bunch	-12.2649
cialló	-12.2655
▁tearma	-12.2658
Samhail	-12.266
fharraig	-12.2664
▁asbhain	-12.2665
▁orgána	-12.2673
bhuíon	-12.2675
bed	-12.2677
▁Resu	-12.2678
fite	-12.268
fish	-12.2694
ásc	-12.2696
▁iasachtóir	-12.2697
▁198	-12.2699
▁dteora	-12.2709
chobhsaí	-12.2712
néithe	-12.2712
shed	-12.2715
DL	-12.2735
▁bpáip	-12.2739
▁ndei	-12.2745
▁Fran	-12.2747
omparáid	-12.2752
▁Iom	-12.2753
clárathóir	-12.2755
rack	-12.2756
eiseofa	-12.2757
▁Dáilea	-12.276
uirbeacha	-12.2764
▁hiomlá	-12.2766
▁cosmaid	-12.2769
óipcheart	-12.2772
ISE	-12.2777
eorach	-12.279
▁Pes	-12.2793
▁Leith	-12.2795
▁chánacha	-12.2797
IÚLA	-12.2803
▁Shamh	-12.2803
istic	-12.2811
ghníomhú	-12.2812
liste	-12.2816
▁ghrúp	-12.2819
ober	-12.2828
ainimh	-12.2833
sceana	-12.2834
▁cuar	-12.2835
file	-12.2837
▁dream	-12.2842
host	-12.2847
earing	-12.2847
search	-12.2851
MB	-12.2853
▁beannacht	-12.2859
▁éigeanta	-12.286
dem	-12.2862
▁fhabhr	-12.2865
uilig	-12.2869
▁cothaith	-12.2871
▁intri	-12.2874
▁ionra	-12.2875
▁maoirs	-12.2876
▁Leanfai	-12.2877
▁siamsa	-12.2878
churacla	-12.2883
▁Marc	-12.2886
ghnó	-12.2888
ERS	-12.2889
LACHT	-12.2894
▁Feidhmeannach	-12.2897
▁ceadúnú	-12.2897
▁Cill	-12.2898
▁cáilith	-12.2898
▁Bhéarfa	-12.2902
▁briatha	-12.2903
▁hathbhreithni	-12.2911
sealbhaire	-12.2913
ward	-12.2919
iva	-12.292
▁Thóg	-12.292
▁RF	-12.2921
▁dúcha	-12.2925
eithí	-12.2935
ardaigh	-12.2936
gnáthóg	-12.2938
▁Fur	-12.2939
▁bhfreagracht	-12.2942
▁Smaointe	-12.2945
▁Cath	-12.2946
▁cnaip	-12.2947
▁maighnéad	-12.2948
▁Chaighdeá	-12.2949
pple	-12.2949
Breithiún	-12.2951
MT	-12.2952
tógtha	-12.2957
▁maol	-12.2957
▁Manufactur	-12.2962
▁Stor	-12.2966
▁Eagraío	-12.2966
▁bhuí	-12.2969
ÁLA	-12.2974
▁coimeádá	-12.2975
▁gceap	-12.2976
▁forfheidhmiúchá	-12.2977
▁iarrtha	-12.2983
uile	-12.2987
▁easláin	-12.2987
eimpléad	-12.2988
Oideacha	-12.2993
fhorbair	-12.2996
DO	-12.2998
ailme	-12.2998
▁comhfhreagrach	-12.3006
▁shamp	-12.3007
▁doimhne	-12.301
CCA	-12.301
▁eastósc	-12.3011
ener	-12.3014
AINGNI	-12.3015
mhaoirs	-12.3016
▁corpra	-12.3017
▁Choimisiné	-12.3017
éintéireacht	-12.302
▁buisé	-12.3022
▁Virgin	-12.3023
▁dtoirmisc	-12.3024
▁phraghs	-12.3024
tweetá	-12.3024
▁Bloom	-12.3024
▁appetite	-12.3024
INEARÁL	-12.3024
haraoh	-12.3024
ibearshlándá	-12.3024
phróifíl	-12.3024
ruilcheanna	-12.3024
veirteabra	-12.3024
▁Araibis	-12.3024
▁Capital	-12.3024
▁Diosca	-12.3024
▁Ghréasá	-12.3024
▁Jewel	-12.3024
▁Metatrader	-12.3024
▁Mionsonra	-12.3024
▁Mobile	-12.3024
▁Ottoman	-12.3024
▁Philipp	-12.3024
▁Statistic	-12.3024
▁Teicniú	-12.3024
▁Weather	-12.3024
▁bronchi	-12.3024
▁budget	-12.3024
▁choinbhinsiú	-12.3024
▁comhthreomhar	-12.3024
▁dhiúité	-12.3024
▁dhícháiliú	-12.3024
▁dioplóma	-12.3024
▁feabhsu	-12.3024
▁gcatagóir	-12.3024
▁gcimeád	-12.3024
▁meitibileach	-12.3024
▁miniature	-12.3024
▁theaghais	-12.3024
▁zombie	-12.3024
▁British	-12.3024
▁Rialála	-12.3024
▁cardashoithíoch	-12.3024
▁coipthe	-12.3024
▁thiomána	-12.3024
▁Desert	-12.3024
▁Gaolmhar	-12.3024
▁craoltóir	-12.3024
▁fhoirgint	-12.3024
▁gCumhacht	-12.3024
▁polaiméir	-12.3024
▁píobá	-12.3024
▁trúpa	-12.3024
▁hibrideach	-12.3024
▁Railway	-12.3024
▁Scagair	-12.3024
▁idirchaidr	-12.3024
▁topaic	-12.3024
▁Íseal	-12.3024
▁bPáirt	-12.3024
▁Gheall	-12.3024
▁Holm	-12.3024
algarta	-12.3024
▁tempt	-12.3024
▁Fhios	-12.3024
▁Phleaná	-12.3024
▁deilbhín	-12.3024
▁tollán	-12.3024
▁cluaisín	-12.3024
▁chiorca	-12.3024
sileac	-12.3024
▁Dragon	-12.3024
▁chruach	-12.3024
▁Club	-12.3024
▁Normal	-12.3024
▁nialas	-12.3024
▁Pháirc	-12.3024
▁frost	-12.3024
▁meargánta	-12.3024
▁dtarraingeofa	-12.3024
▁Paitinn	-12.3024
▁dropper	-12.3024
ransposh	-12.3024
▁multi	-12.3024
hreabha	-12.3024
▁Fadhb	-12.3024
▁forcoimeád	-12.3024
▁gcógas	-12.3024
eliever	-12.3024
hiodráit	-12.3024
▁dtíolac	-12.3024
onnmhuiri	-12.3024
▁coróin	-12.3024
▁féileacá	-12.3024
water	-12.3024
▁Massag	-12.3024
office	-12.3024
▁juic	-12.3024
▁snáthaid	-12.3025
▁Abair	-12.3025
▁Regulation	-12.3025
▁dhroch	-12.3025
▁dhamáist	-12.3025
▁Coróin	-12.3025
▁fógró	-12.3025
▁athstruchtúr	-12.3025
▁suaitheanta	-12.3025
▁4-6	-12.3025
lastic	-12.3025
▁Easpa	-12.3025
▁Glob	-12.3025
▁aersheirbhís	-12.3025
▁tarraic	-12.3025
▁iarscríbhinn	-12.3025
▁Víosa	-12.3025
▁TEORA	-12.3025
▁dhlítheana	-12.3025
▁gclo	-12.3026
ibrid	-12.3026
▁Touris	-12.3026
▁CNCM	-12.3026
rghnách	-12.3026
▁súgartha	-12.3026
▁Natura	-12.3026
▁Consumer	-12.3026
▁Múnl	-12.3026
▁réadmhaoin	-12.3026
▁háracha	-12.3026
▁píblín	-12.3026
▁seachvótála	-12.3027
▁scamall	-12.3027
ssembl	-12.3027
▁Banríon	-12.3027
cionn	-12.3027
▁coigisti	-12.3027
▁halla	-12.3027
▁tráchtearra	-12.3027
▁bhreithiúnta	-12.3028
▁Fianá	-12.3028
airbh	-12.3028
Offici	-12.3028
▁Curacla	-12.3028
clare	-12.3029
worth	-12.3029
IFE	-12.3029
réineála	-12.303
▁máinliacht	-12.303
cotland	-12.303
▁foighne	-12.303
▁príomhoid	-12.303
▁uiríoll	-12.3031
▁consighn	-12.3031
STÁT	-12.3031
lotnaidicíd	-12.3031
wick	-12.3031
▁éillithe	-12.3031
▁congna	-12.3031
▁grace	-12.3032
▁hiniúchta	-12.3032
▁brusca	-12.3032
▁Suite	-12.3032
▁milseog	-12.3032
▁ciorclach	-12.3032
▁lochá	-12.3032
▁gcreidea	-12.3033
▁comhchineá	-12.3033
▁phlú	-12.3034
▁Member	-12.3034
táinig	-12.3035
▁urrann	-12.3035
▁comóra	-12.3035
▁WW	-12.3036
▁Maol	-12.3036
▁max	-12.3036
▁nDáil	-12.3036
etting	-12.3037
▁Fhia	-12.3037
▁Fill	-12.3037
▁saorálach	-12.3037
verlast	-12.3038
▁Toghachá	-12.3038
▁speictrea	-12.3038
LEATH	-12.304
rdeaglais	-12.304
▁Eagra	-12.3041
▁chúp	-12.3042
tepe	-12.3042
▁Comhordú	-12.3043
▁sheas	-12.3043
▁mhairf	-12.3044
▁mótarfheithicl	-12.3044
▁cheimiceach	-12.3044
airneoireacht	-12.3045
▁toscaireacht	-12.3046
athnua	-12.3048
▁Feabhsú	-12.3048
▁hiontrál	-12.3049
▁mhícheart	-12.3049
choibhneas	-12.305
▁Colle	-12.3051
▁Sign	-12.3051
▁Tobha	-12.3051
réasúnaíocht	-12.3052
▁EIT	-12.3052
▁neamhíoc	-12.3052
óideach	-12.3052
▁naíon	-12.3054
▁toghlach	-12.3054
▁Deisiúchá	-12.3055
amhnach	-12.3055
isiriú	-12.3057
▁Scrío	-12.3057
amall	-12.3057
▁campa	-12.3058
olóim	-12.3059
▁dumpáil	-12.3061
olone	-12.3061
ALA	-12.3061
▁curacla	-12.3062
tomhaiste	-12.3063
▁Mhan	-12.3065
▁anodiz	-12.3065
▁LG	-12.3067
▁LCD	-12.3067
▁compána	-12.3067
▁Meabhr	-12.3067
▁Open	-12.3068
▁duánacht	-12.3068
▁eascann	-12.3068
▁toghairm	-12.3068
litreach	-12.3071
▁dátheangach	-12.3072
▁muinc	-12.3073
▁seandálaíocht	-12.3073
▁disciplín	-12.3073
irisí	-12.3074
éagsúlacht	-12.3074
▁Fiosrúchá	-12.3077
eichniúr	-12.3078
▁deimhnío	-12.3079
▁bunu	-12.3079
▁grámhar	-12.308
▁láidreachta	-12.3081
▁Macad	-12.3081
▁Clé	-12.3082
tones	-12.3084
▁Bóthair	-12.3085
▁infhaighteacht	-12.3085
▁gcuntais	-12.3085
Imréit	-12.3086
▁Eisc	-12.3086
Istanbul	-12.3089
▁samhlaíocht	-12.309
verter	-12.309
▁ballraíocht	-12.3092
▁143	-12.3093
iarmhar	-12.3095
▁fhaireacha	-12.3096
uirlis	-12.3096
oileach	-12.3097
suiteáil	-12.3098
▁hoc	-12.3098
airdeall	-12.3099
mhúch	-12.31
▁Rica	-12.31
vóta	-12.31
▁mbunacha	-12.3101
fhoghlaim	-12.3103
▁bhardas	-12.3103
ág	-12.3104
iontaofa	-12.3105
chostas	-12.3105
struchtúr	-12.3107
uaicphoint	-12.3107
giúnach	-12.3108
Scoil	-12.3108
Lawn	-12.3108
India	-12.3108
sprioc	-12.3109
chonra	-12.3109
stiúrthóir	-12.311
well	-12.311
▁mheánmhéid	-12.3111
▁Lum	-12.3111
Plean	-12.3112
ingearach	-12.3112
▁bhaintreach	-12.3115
fhear	-12.3116
gus	-12.3116
rógra	-12.3117
▁inrochtaineacht	-12.3117
▁iontais	-12.3119
▁comhda	-12.3119
▁Will	-12.3119
▁Lege	-12.3121
dition	-12.3123
hógaint	-12.3125
▁Sib	-12.3126
▁ndlíns	-12.3127
▁ndeonta	-12.3131
▁Live	-12.3132
▁miotal	-12.3139
tuillea	-12.3143
▁Béal	-12.3145
ICES	-12.3145
▁crom	-12.3146
▁EB	-12.3146
▁Feb	-12.3148
ostú	-12.3149
lúthchuideachta	-12.3149
▁Mold	-12.315
toghtha	-12.315
▁Príomhfh	-12.3153
▁oibiachtúla	-12.3154
▁Border	-12.3154
▁rabh	-12.3158
fheabhsú	-12.3159
FS	-12.3163
EIF	-12.3165
▁sainchomhairleo	-12.3166
cmhainneachta	-12.3168
íogair	-12.3171
iméid	-12.3172
carbó	-12.3175
▁dhíolmha	-12.3176
eallach	-12.3177
ghearr	-12.3179
▁gcóireá	-12.3181
▁logá	-12.3184
▁Branda	-12.3186
▁Meastachá	-12.3189
▁comórtas	-12.3191
▁Teas	-12.3194
▁chruithneachta	-12.3196
365	-12.3196
uf	-12.3197
▁MIL	-12.3198
▁delight	-12.32
xit	-12.3201
▁Tríd	-12.3204
▁trua	-12.3204
roof	-12.3206
▁óráid	-12.3208
▁Comhairliúchá	-12.3214
asbhainte	-12.3214
▁your	-12.3215
aidéal	-12.3217
▁Gníomhair	-12.3221
treoirlín	-12.3222
thing	-12.3223
óite	-12.3223
allraíocht	-12.3226
▁Riachtanach	-12.323
▁tháirgeoir	-12.3235
▁156	-12.3238
▁eachtrannach	-12.3242
chónaitheoir	-12.3245
▁chomhachta	-12.3245
CG	-12.3248
LLA	-12.3248
ULA	-12.3248
okia	-12.3252
▁Bean	-12.3255
eisiún	-12.3256
▁Croí	-12.3256
Max	-12.326
cyclo	-12.3266
▁bhuacha	-12.3267
▁Bell	-12.3268
▁cnapshuime	-12.3278
▁hinniúlacht	-12.3279
▁Cróit	-12.3281
foli	-12.3285
▁sheacht	-12.329
100	-12.329
OT	-12.329
▁chistiú	-12.3291
▁saorg	-12.3298
▁Elect	-12.33
▁sheirbheálfa	-12.3302
ERT	-12.3302
▁ábharthacht	-12.3304
▁bunreachtú	-12.3307
iméadrach	-12.3309
▁111	-12.3312
▁seamla	-12.3315
ettle	-12.3317
▁éagothro	-12.3327
▁mhíchu	-12.3335
AIM	-12.3335
▁clos	-12.3336
▁uathoibr	-12.3342
EO	-12.3345
Seoirs	-12.3345
▁liostáil	-12.3347
athrófa	-12.3349
asfhoca	-12.335
unter	-12.3351
▁575	-12.3354
order	-12.3357
▁modheolaíochta	-12.3364
▁bhfiacha	-12.3364
▁Fee	-12.3365
▁gcúig	-12.3372
bhalla	-12.3374
ugg	-12.3381
CD	-12.3387
MR	-12.3388
reaca	-12.3391
umba	-12.3396
▁náisiúntachta	-12.3399
▁luachan	-12.3399
CHT	-12.34
▁gCó	-12.3402
aimse	-12.3404
▁chol	-12.3409
▁End	-12.3409
RIU	-12.3416
▁bríc	-12.3425
▁Fón	-12.3433
fhógra	-12.3435
AISI	-12.3438
izo	-12.3441
base	-12.3445
emia	-12.3451
ideachta	-12.3455
▁pátrú	-12.3462
▁slua	-12.3465
▁tionóisce	-12.3467
▁RO	-12.3467
▁Méar	-12.3468
▁AINM	-12.3469
▁Alla	-12.3474
▁romha	-12.3475
▁gceangló	-12.3477
▁bhFora	-12.3477
▁Daonna	-12.3481
▁dheonta	-12.3485
▁brící	-12.3491
inbhuanaitheacht	-12.3492
heat	-12.3495
▁blastá	-12.3501
▁caoir	-12.351
cúlghairm	-12.351
▁geala	-12.3516
bite	-12.3518
AIGH	-12.3518
▁Gearrth	-12.3521
FG	-12.3522
▁cuirid	-12.3524
EU	-12.3526
ient	-12.3526
AMP	-12.3537
▁tuath	-12.3539
▁Sóisialach	-12.354
fhíoraithe	-12.3541
oilsiú	-12.3543
▁dtosó	-12.3545
únasa	-12.3552
▁Tot	-12.3567
▁gcóip	-12.3576
taithí	-12.3585
▁gabh	-12.3585
ídeana	-12.3589
coirf	-12.359
▁Cathai	-12.3591
▁comhdhála	-12.36
▁glanta	-12.3602
SK	-12.3603
olúin	-12.3613
▁bod	-12.3616
▁droim	-12.3625
▁samplá	-12.3629
▁chineálchead	-12.3629
phragha	-12.3629
▁mheall	-12.363
bailte	-12.364
ental	-12.364
▁ranníocach	-12.365
▁sáró	-12.365
IO	-12.3653
▁éistf	-12.3659
▁míochain	-12.3662
▁Bank	-12.3663
400	-12.3672
▁eagrúchá	-12.3673
▁ndíolfa	-12.3674
▁Adam	-12.3678
BD	-12.3686
▁fhéad	-12.3693
olu	-12.3697
▁Samhra	-12.3716
▁shoils	-12.3717
▁Leacht	-12.3726
oichte	-12.3732
▁scre	-12.3733
amhras	-12.3735
▁foth	-12.3739
▁Chríostaí	-12.3739
ricul	-12.375
▁leabharlanna	-12.3755
mbo	-12.376
eimiceach	-12.3764
ody	-12.3765
▁carnach	-12.3768
▁nglao	-12.377
chomhpháirtíocht	-12.3775
▁phríosúnach	-12.3778
▁forchur	-12.3781
380	-12.3782
▁Diúsca	-12.3783
▁ndáilchean	-12.3798
▁Boll	-12.3803
▁inmharthana	-12.3806
kara	-12.3806
▁Shlá	-12.3811
▁Scrúda	-12.3814
elli	-12.3817
▁réamhfhóg	-12.3818
aistritheoir	-12.382
▁lao	-12.3822
▁Bunscoile	-12.383
▁Breathn	-12.3839
▁Imeacht	-12.3844
▁Uas	-12.3849
▁Met	-12.3851
garraíodóireacht	-12.3857
▁Ves	-12.3864
FP	-12.3868
eeping	-12.3874
bhunaíocht	-12.3877
ssur	-12.3882
▁amharclann	-12.3884
▁bunaíocht	-12.3884
▁Shon	-12.3888
▁Cheapach	-12.3893
gáil	-12.3896
Cuntasóir	-12.3897
OIFIG	-12.3899
▁thárl	-12.3901
ltacht	-12.3901
▁rialáilte	-12.3902
shealbhaíocht	-12.3905
hoinneála	-12.3917
▁dhóiteá	-12.392
▁bhéarfaid	-12.3922
▁greamaithe	-12.3926
▁rialói	-12.3938
thernet	-12.3942
▁turgnamh	-12.3944
cuirfid	-12.3959
throm	-12.3959
ódú	-12.3962
▁Póilín	-12.3979
▁Chruinn	-12.3982
ument	-12.3993
▁Daonáir	-12.3999
▁coimisiú	-12.4003
▁Acmhainn	-12.4009
650	-12.4011
mpact	-12.4012
▁stru	-12.4012
▁Trade	-12.4016
inniúlachta	-12.4019
infheistíocht	-12.4028
▁cóimhiota	-12.403
bainisteoireacht	-12.4034
▁Gabha	-12.4037
togra	-12.4039
▁taiscéala	-12.4041
▁corda	-12.4042
▁Imir	-12.4044
▁121	-12.4045
▁Nav	-12.4045
fheidhmeach	-12.405
tance	-12.4058
Iarscríbhin	-12.4058
BI	-12.4063
▁Blad	-12.4065
gging	-12.407
▁Mec	-12.4077
fhostaíocht	-12.4078
▁bhfreastal	-12.4078
isciplín	-12.408
DAC	-12.4083
▁Fheidhm	-12.4088
▁Bith	-12.4091
VII	-12.4096
▁tomhaltó	-12.4102
erian	-12.4102
EK	-12.4103
▁Tuaisc	-12.4105
▁mhúinteo	-12.4106
UN	-12.4108
hóilíneach	-12.411
▁Chód	-12.4111
▁lochtach	-12.4112
iochta	-12.4114
ady	-12.4117
▁chlaochl	-12.4117
mploy	-12.4118
▁claochl	-12.4121
▁294	-12.4123
clábha	-12.4124
▁dócmhainneach	-12.4124
▁Commissi	-12.4126
▁Thionó	-12.4126
ÍOC	-12.4129
▁buaic	-12.4131
system	-12.4135
▁heipit	-12.4135
Continu	-12.4135
Tbilisi	-12.4135
▁London	-12.4135
▁Neighbo	-12.4135
▁Societ	-12.4135
▁coinbhinsiú	-12.4135
▁comhfhogas	-12.4135
▁eiseamláir	-12.4135
Ailgéir	-12.4135
Aimplitheoir	-12.4135
eamhthuillmheach	-12.4135
omhghleaca	-12.4135
ourbillon	-12.4135
theileagraf	-12.4135
ÚDARÁ	-12.4135
▁Athnuachan	-12.4135
▁Bleacher	-12.4135
▁CRÍCHE	-12.4135
▁Chultú	-12.4135
▁Cobhsaíocht	-12.4135
▁Cóireála	-12.4135
▁Double	-12.4135
▁FHEIDHM	-12.4135
▁Field	-12.4135
▁Féideartha	-12.4135
▁Language	-12.4135
▁SEALADACH	-12.4135
▁SEIRBHÍS	-12.4135
▁Toronto	-12.4135
▁VITIM	-12.4135
▁billiard	-12.4135
▁bpolasa	-12.4135
▁choimhthíoch	-12.4135
▁freagróir	-12.4135
▁fínéaga	-12.4135
▁fóirithin	-12.4135
▁gemstone	-12.4135
▁hidrigin	-12.4135
▁inflorescence	-12.4135
▁léaráid	-12.4135
▁líomhaint	-12.4135
▁lúthchleasa	-12.4135
▁mhuilneoir	-12.4135
▁outfit	-12.4135
▁policy	-12.4135
▁pumpkin	-12.4135
▁rannchuideo	-12.4135
▁righteous	-12.4135
▁slaodacht	-12.4135
▁sprinkle	-12.4135
▁strainséir	-12.4135
▁wrinkle	-12.4135
ebentiúir	-12.4135
▁Champa	-12.4135
▁Eatramh	-12.4135
▁Jump	-12.4135
▁Prince	-12.4135
▁Sceimhlitheoir	-12.4135
▁Socró	-12.4135
▁inchomparáide	-12.4135
▁mailíseach	-12.4135
▁meeting	-12.4135
process	-12.4135
riminal	-12.4135
▁Soiscéal	-12.4135
▁TALMHA	-12.4135
▁dreasachta	-12.4135
▁foirgint	-12.4135
▁micreafó	-12.4135
▁uathúla	-12.4135
phosph	-12.4135
▁Ceadúnú	-12.4135
▁Columb	-12.4135
▁Women	-12.4135
▁service	-12.4135
▁thaisteal	-12.4135
calyp	-12.4135
function	-12.4135
tháscair	-12.4135
▁haighneachta	-12.4135
▁iPod	-12.4135
▁GLAS	-12.4135
▁choiscthe	-12.4135
▁radio	-12.4135
achuinge	-12.4135
▁sreafa	-12.4135
ELECT	-12.4135
oftware	-12.4135
▁gcainníocht	-12.4135
fhóirdheonta	-12.4135
▁Sky	-12.4135
▁Vóta	-12.4135
▁dhíochur	-12.4135
▁chrité	-12.4135
ghunna	-12.4135
▁phriaca	-12.4135
▁ndíls	-12.4135
▁copair	-12.4135
▁bhacainn	-12.4135
evelation	-12.4135
▁Inimirc	-12.4135
▁tuáill	-12.4135
éighníomhach	-12.4135
▁corrfholúnta	-12.4135
▁Court	-12.4135
▁shreang	-12.4135
▁admir	-12.4135
▁gheografa	-12.4135
▁uigeacht	-12.4135
▁MIAN	-12.4135
▁follas	-12.4135
▁Cistine	-12.4135
oirfea	-12.4135
▁cabhla	-12.4135
▁Chomhlachta	-12.4135
▁dhealra	-12.4135
fhoilseachá	-12.4135
▁Eiseo	-12.4135
▁lúibín	-12.4135
▁músae	-12.4135
▁poke	-12.4135
OVER	-12.4136
▁Syria	-12.4136
▁Wood	-12.4136
▁wind	-12.4136
▁Sloinn	-12.4136
ÍOL	-12.4136
▁Button	-12.4136
▁infheictheacht	-12.4136
▁heachtra	-12.4136
▁THABH	-12.4136
▁tarracóir	-12.4136
OGG	-12.4136
▁COIM	-12.4136
▁stoirm	-12.4136
▁Tairge	-12.4136
▁Myster	-12.4136
▁Carranna	-12.4136
▁súilíneach	-12.4136
▁Diúscairt	-12.4136
▁trust	-12.4136
▁nerve	-12.4136
▁garlic	-12.4136
▁Grada	-12.4136
▁toitín	-12.4136
▁Radio	-12.4136
▁fruili	-12.4136
▁Gaz	-12.4136
▁shíor	-12.4136
neamhchonarthach	-12.4136
omplete	-12.4136
ompensat	-12.4137
▁bíoma	-12.4137
ovement	-12.4137
▁gceannaitheoir	-12.4137
▁dhéileálfa	-12.4137
▁suirbhéireacht	-12.4137
▁Building	-12.4137
▁Troid	-12.4137
Pharma	-12.4137
▁bhflaith	-12.4137
ghreamaitheach	-12.4138
ggy	-12.4138
▁bhFór	-12.4138
▁Cheanta	-12.4138
▁dlúithe	-12.4138
Íoslainn	-12.4138
▁selec	-12.4138
▁153	-12.4138
▁who	-12.4138
▁ionsaitheach	-12.4139
▁gComhlacht	-12.4139
▁tráidir	-12.4139
limate	-12.414
▁Altrana	-12.414
▁seaicéad	-12.414
▁Earth	-12.414
quest	-12.414
▁Ainmneo	-12.414
▁fionnuisce	-12.4141
▁Children	-12.4141
▁Arabach	-12.4141
▁luing	-12.4141
▁Cuimhneachá	-12.4141
▁Paul	-12.4141
▁leathranna	-12.4141
▁thréith	-12.4142
▁GHL	-12.4142
sléibhe	-12.4142
▁finger	-12.4142
▁Iomarcaíocht	-12.4142
PORT	-12.4143
▁poss	-12.4143
▁Aistriúchá	-12.4143
▁druil	-12.4143
▁neamhinniú	-12.4143
▁gcalafo	-12.4143
▁intuartha	-12.4144
▁chlás	-12.4144
▁Míchuma	-12.4144
build	-12.4144
▁gCúig	-12.4145
▁heisío	-12.4145
▁shloinne	-12.4145
▁DAINGNI	-12.4145
▁plot	-12.4145
▁first	-12.4145
orimealla	-12.4146
aintín	-12.4146
▁Rolla	-12.4146
▁uchtála	-12.4146
▁bhfoirceann	-12.4147
▁héifeachtúlacht	-12.4147
▁rópa	-12.4147
▁Téama	-12.4147
▁lánaimsire	-12.4147
▁pingin	-12.4148
reasure	-12.4148
▁Maor	-12.4149
▁Deep	-12.415
▁About	-12.415
▁suíochá	-12.415
▁gclárófa	-12.415
▁bhfac	-12.415
▁cool	-12.4151
▁Todhchaí	-12.4151
amatach	-12.4151
▁bhogearra	-12.4153
▁súg	-12.4153
▁Davi	-12.4154
▁OEC	-12.4154
▁Déiríocht	-12.4155
▁tairs	-12.4156
▁Fiach	-12.4156
ubb	-12.4157
HEAD	-12.4158
ibia	-12.4158
▁dronuilleogach	-12.4159
▁neamhfheidhmiú	-12.4161
▁Uirbeach	-12.4163
▁ochtó	-12.4164
▁dtosnó	-12.4164
▁searbh	-12.4165
▁ghníomhó	-12.4167
▁hallmhair	-12.4168
glyc	-12.4169
teolaí	-12.4171
▁ngnócha	-12.4171
andy	-12.4171
pter	-12.4172
▁comhréit	-12.4172
▁thuar	-12.4172
saor	-12.4173
▁bual	-12.4173
ionraca	-12.4176
▁Dronuilleog	-12.4177
▁bhfoló	-12.4177
kent	-12.4178
▁scríbh	-12.4178
IANNA	-12.4179
alway	-12.4179
▁531	-12.4182
ambú	-12.4183
▁Cluai	-12.4184
leamhná	-12.4184
▁lóistíocht	-12.4184
▁Cruth	-12.4185
▁shighni	-12.4185
house	-12.4187
▁tuile	-12.4188
mheilt	-12.4192
▁aigéadach	-12.4193
▁buin	-12.4193
▁rúnaíochta	-12.4194
itime	-12.4194
▁maoirseoir	-12.4194
▁Séala	-12.4195
▁hiniúcha	-12.4195
▁Ruba	-12.4195
▁bácá	-12.4196
▁sheasta	-12.4196
▁dorná	-12.4196
▁Feir	-12.4198
itseáil	-12.4199
▁Foo	-12.4199
▁Foils	-12.42
▁Margaíocht	-12.42
NERA	-12.42
isling	-12.42
▁dearbhá	-12.4201
AGAN	-12.4202
iosó	-12.4206
tish	-12.4206
▁antaibheathach	-12.4206
▁heit	-12.4209
brabhsála	-12.4209
▁Cúl	-12.4209
▁caidéal	-12.421
▁PIN	-12.421
ullet	-12.4211
MSA	-12.4211
▁hola	-12.4213
inchúlghair	-12.4214
▁Jan	-12.4216
▁coimeádta	-12.4216
▁inárachaithe	-12.4216
estiv	-12.4216
▁Eastá	-12.4217
clóir	-12.4218
▁haitheanta	-12.4218
▁baiste	-12.4221
body	-12.4222
▁billí	-12.4223
dúbláid	-12.4223
iseachad	-12.4223
▁King	-12.4224
▁tobha	-12.4226
▁feachta	-12.4227
IMS	-12.4228
▁Van	-12.423
▁ionduchtú	-12.4231
▁cainteoir	-12.4233
▁Teasa	-12.4234
▁loga	-12.4235
inearál	-12.4237
yes	-12.4241
▁guail	-12.4248
onnartha	-12.4254
▁rithf	-12.4254
téite	-12.4256
▁Insta	-12.4257
▁Gnóthacha	-12.4258
▁bead	-12.4258
▁fhian	-12.4262
▁fhearchéil	-12.4263
▁choim	-12.4264
híntiús	-12.4264
aighdean	-12.4265
anie	-12.4271
▁leaca	-12.4271
▁Corpoideacha	-12.4272
bhialta	-12.4276
hairde	-12.4277
ghluaiseacht	-12.4278
▁Ioslamach	-12.4279
▁nead	-12.4281
ues	-12.4284
▁LOC	-12.4285
▁creatha	-12.4285
▁Eurosta	-12.4286
iev	-12.4287
dachad	-12.4293
▁Of	-12.4294
▁tosnu	-12.4295
▁chreidmheas	-12.4296
▁Comhd	-12.4296
ATION	-12.4298
▁séana	-12.4301
▁cinnteoireacht	-12.4308
▁Fly	-12.431
media	-12.431
▁cuimilteoir	-12.4311
▁páigh	-12.4317
phu	-12.4318
▁crochad	-12.4321
▁Ric	-12.4322
▁bhféachfa	-12.4323
fhachtóir	-12.4328
▁fhadtéarmach	-12.4328
▁fhorlíontach	-12.4328
Iontaobha	-12.433
▁How	-12.433
uachtarán	-12.4332
▁Ether	-12.4334
aiscéalaíocht	-12.4335
▁pléascach	-12.4336
▁sibh	-12.4339
éifeachtúlacht	-12.434
▁gcoinneof	-12.4342
dheimhniú	-12.4343
Gaillimh	-12.4344
plátáil	-12.4346
chaipit	-12.4346
shonraí	-12.4346
Ospidé	-12.4347
cruth	-12.4347
▁spec	-12.4351
fhiach	-12.4351
sreabha	-12.4353
shain	-12.4353
chostais	-12.4353
tionscal	-12.4356
soláthra	-12.4357
Iarnró	-12.4358
dochtúir	-12.4358
▁síceolaíocht	-12.4358
théarma	-12.4358
Sraith	-12.4359
nádúrtha	-12.436
ordachá	-12.4361
dáileog	-12.4362
▁dtogh	-12.4365
Cáilíochta	-12.4366
295	-12.4369
▁gheibhea	-12.4371
stíl	-12.4373
oitinn	-12.4375
íomhá	-12.4375
▁OIFIGIÚ	-12.4377
fás	-12.4377
shealbhóir	-12.4381
domhain	-12.4381
▁láithreoi	-12.4385
ONRA	-12.4385
féiniúlacht	-12.4389
234	-12.4397
▁sheach	-12.4398
cros	-12.44
athchomharc	-12.4405
stop	-12.4405
▁ullmhaío	-12.4406
baránta	-12.4408
▁Ráthaíochta	-12.4429
SRI	-12.4432
tioncha	-12.4437
▁bhféadf	-12.4438
▁whiten	-12.4451
▁Batt	-12.4452
sheomra	-12.4457
▁mBanna	-12.4458
shínithe	-12.4459
meter	-12.4472
▁faill	-12.4485
ílim	-12.4486
▁Uair	-12.4487
▁chasa	-12.4492
▁Camb	-12.4495
▁OL	-12.4496
▁cabhrói	-12.4498
▁leithdháilte	-12.4502
mia	-12.4507
▁bhfost	-12.4517
▁ceannasach	-12.4518
eonach	-12.4521
feast	-12.4523
kg	-12.4526
uastréimhs	-12.4528
▁radai	-12.4529
▁Insu	-12.4533
▁Roo	-12.4535
plane	-12.4546
▁Dhear	-12.4554
▁cúltacair	-12.4556
▁cuntasóir	-12.4556
ónach	-12.4562
▁Fíorú	-12.4563
afari	-12.4567
▁fothai	-12.457
▁luaíocht	-12.457
DF	-12.457
▁Éist	-12.4574
OG	-12.4574
zone	-12.4576
▁coinbhleachta	-12.4578
▁gcro	-12.4581
▁chomhfhreagrach	-12.4587
CHEANN	-12.4593
▁díoth	-12.4596
ramhaíola	-12.4598
▁mearbha	-12.46
elle	-12.4601
iance	-12.4615
iúchán	-12.4618
HF	-12.4627
tuaslagá	-12.4631
▁láimhseála	-12.4633
▁cuimilte	-12.4649
achomharcó	-12.4656
▁Cast	-12.4657
▁Sep	-12.4661
▁170	-12.4664
▁buama	-12.4674
▁marcaíocht	-12.468
▁dhomhand	-12.468
hiad	-12.4695
▁dtoghfa	-12.4697
▁gníomhóid	-12.4703
RN	-12.4705
▁cóiriú	-12.4708
▁greamachá	-12.4708
▁Chang	-12.4713
▁Spáinne	-12.4716
ij	-12.4717
▁Castle	-12.4721
▁Seolfa	-12.4725
réireachta	-12.4728
ascal	-12.473
▁aontaío	-12.4733
▁ref	-12.4734
▁greama	-12.4739
▁chigireacht	-12.4742
▁read	-12.4758
▁Feic	-12.4761
▁Ullmha	-12.4767
bum	-12.4767
▁bunriachtana	-12.4775
Aturnaeth	-12.4776
▁leasó	-12.4784
dron	-12.4788
▁Iasacht	-12.479
ford	-12.4799
▁Gearrtha	-12.481
ithiúla	-12.4812
▁Mear	-12.4819
solúbthacht	-12.482
STE	-12.4832
Men	-12.4841
▁idirghabhálach	-12.4851
▁sáraío	-12.4868
beat	-12.4871
▁Uath	-12.4872
▁WE	-12.4878
▁gcúl	-12.4881
pst	-12.4888
▁cónasc	-12.4892
▁chomhfhreagra	-12.4903
tribu	-12.4911
▁chonarthach	-12.4913
▁coinbhleacht	-12.4916
▁134	-12.4925
▁foilsitheoir	-12.4926
▁Socrú	-12.4932
GD	-12.4932
▁Riala	-12.4932
CAR	-12.4935
▁míréasún	-12.4935
▁samhla	-12.4937
saoire	-12.4939
▁viv	-12.494
▁ndearbh	-12.494
erie	-12.4942
▁ionsúite	-12.4943
atek	-12.4955
▁165	-12.4968
neura	-12.4973
cock	-12.4975
▁Schem	-12.4978
▁leithdháilt	-12.4989
▁marcáil	-12.4991
▁chomhdhlúth	-12.4992
▁Chomhlachai	-12.4999
omotiv	-12.5004
▁shealada	-12.5022
fhionn	-12.5027
TÍ	-12.5036
pháirtíocht	-12.5037
▁comhlua	-12.5038
▁státseirbhís	-12.5041
RAD	-12.5045
▁white	-12.5046
have	-12.5061
bro	-12.5069
▁daonlatha	-12.5074
oghroinn	-12.5074
349	-12.5076
▁gcreid	-12.5079
omharsanacht	-12.5079
▁cumadóir	-12.508
▁tang	-12.508
▁Ráthaíocht	-12.508
▁cnámh	-12.5084
ainmnithe	-12.5087
eview	-12.5093
íochaine	-12.5095
▁leachtacht	-12.5099
inder	-12.5124
ÓR	-12.5138
▁comhcheangail	-12.5141
▁dhíolúin	-12.5142
▁chomhbheartai	-12.5145
uz	-12.5149
Tool	-12.5159
syl	-12.5159
▁forlá	-12.517
▁chruithneacht	-12.5172
▁amui	-12.5172
[...]
