<unk>	0
<s>	0
</s>	0
▁	-2.34825
▁a	-3.47226
,	-3.53228
▁an	-3.6094
▁.	-3.83978
▁agus	-4.11814
▁ar	-4.30031
í	-4.40353
▁na	-4.42141
)	-4.44705
(	-4.44924
▁i	-4.56946
s	-4.628
▁le	-4.63261
-	-4.68036
r	-4.80938
▁nó	-4.91687
a	-4.95466
▁go	-4.97787
dh	-5.01401
n	-5.01567
e	-5.02443
▁sin	-5.21497
▁de	-5.2608
▁d	-5.26459
▁do	-5.27086
▁ag	-5.293
idh	-5.37961
▁seo	-5.39496
il	-5.44092
ú	-5.50909
▁chun	-5.53833
▁leis	-5.56562
in	-5.65783
'	-5.6775
ithe	-5.69489
▁aon	-5.72708
▁den	-5.73779
▁is	-5.7423
:	-5.74863
▁in	-5.75258
is	-5.76423
▁é	-5.76652
ir	-5.78092
▁t	-5.78829
▁sé	-5.81577
▁faoi	-5.84809
h	-5.8547
▁sa	-5.93288
▁bhfuil	-6.0056
▁mar	-6.00565
▁b	-6.03619
;	-6.07065
▁atá	-6.09005
igh	-6.12355
t	-6.13215
▁1	-6.14678
▁ina	-6.14932
▁c	-6.19331
anna	-6.25626
"	-6.26762
▁eile	-6.27835
▁san	-6.28921
▁bheith	-6.29344
▁ó	-6.2945
▁chur	-6.30233
▁duine	-6.30508
tear	-6.32375
▁2	-6.38729
▁alt	-6.38781
▁dhéanamh	-6.3928
▁dá	-6.40355
▁n	-6.40851
▁don	-6.41615
nn	-6.42226
▁maidi	-6.43309
—	-6.44898
▁Tá	-6.47345
▁réir	-6.5086
▁An	-6.53858
adh	-6.54969
▁nach	-6.55152
▁ná	-6.56569
ch	-6.57741
▁Is	-6.59969
▁lena	-6.60357
gach	-6.61605
ar	-6.63483
▁tá	-6.64501
▁Acht	-6.64658
alt	-6.67576
/	-6.68082
▁C	-6.68926
▁féid	-6.69514
▁I	-6.70894
▁3	-6.72508
ach	-6.75378
eanna	-6.76421
d	-6.78595
▁nío	-6.78922
▁no	-6.80026
▁ní	-6.82444
▁gcás	-6.83243
▁A	-6.83893
l	-6.87182
▁trí	-6.91428
▁mó	-6.9173
▁faoin	-6.93203
”	-6.9391
▁tú	-6.94172
▁éis	-6.94544
▁ach	-6.94556
▁iad	-6.9579
▁haghaidh	-6.97108
íonn	-6.97866
▁leith	-6.98582
▁B	-6.99184
“	-6.99329
▁gur	-6.99749
la	-7.01529
▁chuid	-7.03188
▁ón	-7.03226
▁thabhair	-7.06825
▁as	-7.07091
▁amháin	-7.07436
tha	-7.0764
▁4	-7.08818
▁lá	-7.10206
ta	-7.10211
▁roimh	-7.10419
mh	-7.10801
▁úsáid	-7.11688
▁5	-7.13123
eidh	-7.14286
▁so	-7.1468
▁um	-7.15758
▁á	-7.15816
ann	-7.16351
aoine	-7.16885
aithe	-7.17904
▁gan	-7.18792
isteach	-7.1894
▁méid	-7.19244
far	-7.1926
]	-7.20017
[	-7.20413
▁Ní	-7.20677
▁amach	-7.21171
▁D	-7.21347
▁siad	-7.21348
▁tar	-7.214
ítear	-7.23642
▁chuig	-7.24484
▁fáil	-7.30135
’	-7.30199
▁rud	-7.3037
▁bhei	-7.31651
▁má	-7.32237
iú	-7.32666
▁ann	-7.33199
▁Airteagal	-7.34251
cha	-7.34892
▁nua	-7.35609
▁acu	-7.36574
▁tréimhse	-7.36659
▁féin	-7.36683
▁T	-7.38502
acha	-7.38679
▁f	-7.38735
▁Rialachá	-7.40047
▁L	-7.40551
arna	-7.40826
▁gá	-7.43596
▁fho	-7.45253
▁saor	-7.45417
▁Má	-7.45584
▁g	-7.45758
imh	-7.45974
▁bh	-7.47814
▁bhí	-7.47977
uithe	-7.48196
▁G	-7.48708
▁6	-7.4909
eamh	-7.49516
▁idir	-7.499
▁maith	-7.50141
Acht	-7.50191
aí	-7.50662
▁S	-7.51898
▁mór	-7.52583
▁Aire	-7.52733
as	-7.54263
▁leana	-7.54912
▁EN	-7.55144
▁sna	-7.55744
▁fháil	-7.56247
ibé	-7.5648
▁sonraí	-7.5836
?	-7.58398
▁tAir	-7.58555
&	-7.58688
▁bhainean	-7.59206
im	-7.59235
▁chomh	-7.59817
▁aige	-7.60802
▁linn	-7.61289
▁Ar	-7.61677
▁ceann	-7.61931
▁dtí	-7.61983
▁m	-7.61991
▁áit	-7.6208
raibh	-7.62958
ra	-7.63181
▁leat	-7.63322
aisce	-7.64495
▁más	-7.6475
▁aghaidh	-7.65812
▁h	-7.66192
▁déanfa	-7.67108
▁bhfeidhm	-7.68175
aigh	-7.68546
id	-7.68876
▁Uimh	-7.71315
nuair	-7.71907
eann	-7.72232
▁19	-7.7248
▁dul	-7.73267
it	-7.73317
cháin	-7.73565
▁áirithe	-7.73974
▁féadfa	-7.74782
▁dáta	-7.74844
▁freisi	-7.75658
▁íoc	-7.76791
▁bhliain	-7.77062
▁porn	-7.77433
fear	-7.77623
▁líne	-7.78499
▁F	-7.78693
▁seirbhís	-7.78877
▁7	-7.79451
▁cur	-7.79756
▁ciallaíon	-7.80182
▁dó	-7.80435
▁ordú	-7.80636
▁mé	-7.80932
▁ndáil	-7.81078
▁fo	-7.81294
▁P	-7.81804
aon	-7.81851
▁chéad	-7.82586
▁ionad	-7.83561
▁fé	-7.84016
▁imeachta	-7.84215
▁amhlaid	-7.8431
the	-7.84807
na	-7.84984
▁uair	-7.85044
▁dtagraí	-7.85175
▁iomchu	-7.85485
▁bhfo	-7.86007
▁fearr	-7.86185
▁bheid	-7.86878
▁sí	-7.87047
ing	-7.87108
▁críocha	-7.88492
▁feidhm	-7.89187
▁léir	-7.89205
▁sórt	-7.89266
▁údarás	-7.90246
▁deimhnithe	-7.91062
▁10	-7.91196
▁ba	-7.91302
▁bliana	-7.91345
▁feidhme	-7.91418
▁tráth	-7.91534
▁bearta	-7.91605
▁mír	-7.92385
▁Ballstá	-7.924
▁Le	-7.92732
▁iomlán	-7.92979
▁8	-7.93244
▁am	-7.93579
▁hEorpa	-7.9499
▁stiúir	-7.95269
eadh	-7.95647
▁cheart	-7.9566
▁Eorpach	-7.95802
▁air	-7.95981
▁bhaint	-7.96342
y	-7.96356
tar	-7.96677
▁bith	-7.97016
▁gcomhréi	-7.97537
▁laist	-7.97677
▁cuideachta	-7.97778
▁roinnt	-7.98247
▁cheann	-7.98499
▁fógra	-7.99404
▁Aontais	-8.01488
▁thar	-8.01671
▁díreach	-8.0209
▁ndéanfa	-8.02118
▁Féadfa	-8.02477
▁ábhar	-8.03507
▁leo	-8.03619
▁duit	-8.0389
▁éifeacht	-8.04144
▁Cuntas	-8.04221
▁ár	-8.04278
▁feadh	-8.05286
íodh	-8.05795
▁dlí	-8.0623
▁haon	-8.06348
▁Coimisiún	-8.06658
▁síos	-8.06895
▁mbe	-8.06898
@	-8.07281
láthair	-8.07425
▁Déanfa	-8.08313
m	-8.08319
eideal	-8.08705
▁cinn	-8.10198
▁chéile	-8.10281
▁0	-8.10301
▁iarratas	-8.10301
▁rialachá	-8.10713
g	-8.11177
▁bhe	-8.11275
▁mbainea	-8.11611
▁dhá	-8.1197
▁mb	-8.12716
▁AE	-8.13097
▁mhéid	-8.13977
▁bhun	-8.14894
▁Chun	-8.15262
▁Agus	-8.15331
▁cuid	-8.1546
▁Ba	-8.15665
▁leor	-8.15896
al	-8.16189
3	-8.16626
▁Stát	-8.17713
▁áitiú	-8.17876
▁mbeid	-8.18112
▁luach	-8.18254
▁M	-8.18432
▁Mar	-8.1868
▁Aonta	-8.19265
▁suas	-8.19279
te	-8.19738
áiríte	-8.20083
▁mhí	-8.20768
▁déanta	-8.20879
▁dhéanfa	-8.20945
▁rinne	-8.21102
▁12	-8.21537
▁Achta	-8.22808
▁gt	-8.2281
!	-8.22946
▁éagsúla	-8.23057
aíonn	-8.23367
▁9	-8.23604
▁gComhairle	-8.24247
▁fén	-8.24431
▁dtaobh	-8.2463
A	-8.24778
–	-8.24807
▁mhír	-8.25113
▁gheall	-8.25374
▁mura	-8.2562
▁seacha	-8.25745
niú	-8.26019
▁Airgeada	-8.26549
▁comhalta	-8.26743
inneadh	-8.26786
▁ghlacadh	-8.26815
▁p	-8.27012
▁bhrí	-8.27125
▁Nua	-8.27593
obair	-8.28229
▁CE	-8.28557
▁chóir	-8.28757
▁áireamh	-8.2926
▁teacht	-8.29401
▁beag	-8.29477
▁ailt	-8.29488
▁Ard	-8.29786
▁dóibh	-8.29839
▁coinníollach	-8.30043
án	-8.30132
▁céanna	-8.30352
▁airgeadai	-8.30372
▁gníomh	-8.30549
c	-8.30881
áil	-8.30884
faidh	-8.32088
i	-8.321
▁Faoi	-8.32114
▁Béarla	-8.32433
▁uisce	-8.32489
▁ceart	-8.32864
▁líon	-8.33015
▁mo	-8.3309
▁amp	-8.33253
▁mbei	-8.33772
▁ard	-8.33864
▁cuí	-8.34735
▁oifig	-8.34976
▁Bei	-8.35558
▁R	-8.35766
▁rialacha	-8.35977
▁chuir	-8.36122
▁Seo	-8.36369
▁neamh	-8.36456
▁Ceist	-8.37027
▁AN	-8.38188
▁15	-8.38595
▁fad	-8.38676
▁táirgí	-8.3893
▁talamh	-8.39219
▁pé	-8.39773
▁Ach	-8.39948
ed	-8.40426
▁Tuillea	-8.40666
▁bhíonn	-8.40698
▁tríd	-8.4072
▁ráta	-8.40878
▁Fuaim	-8.40957
▁Chomhairle	-8.4126
▁scéim	-8.41545
▁rith	-8.41584
▁18	-8.41888
▁leas	-8.42299
▁airgead	-8.42493
▁Coimisinéir	-8.43325
▁forála	-8.44336
náisiúnta	-8.44488
▁ii	-8.44759
▁iníoc	-8.4523
imid	-8.45326
▁Ag	-8.45931
▁dt	-8.46275
▁Sceideal	-8.46539
▁cé	-8.46655
▁chuideachta	-8.47052
int	-8.47664
%	-8.4771
▁Sa	-8.48186
▁ch	-8.49053
▁di	-8.49087
▁deara	-8.49147
▁for	-8.49242
▁tagairt	-8.49391
▁Na	-8.49437
ansin	-8.49802
▁déana	-8.5038
▁E	-8.50954
▁11	-8.51389
orthu	-8.51563
▁30	-8.51625
▁ainm	-8.51626
▁háirith	-8.51977
▁náisiúnta	-8.52363
▁gcuid	-8.52991
▁rá	-8.53297
áin	-8.54063
▁of	-8.54145
▁eolas	-8.54266
▁Pharlaimint	-8.54297
▁uile	-8.54754
▁Féadfai	-8.54755
▁réims	-8.54929
▁críche	-8.55842
fhéadfadh	-8.56113
▁Aon	-8.56274
▁leasú	-8.56444
▁táirge	-8.56514
▁leibhéal	-8.56514
▁clár	-8.5655
▁mbea	-8.56834
amh	-8.57115
▁deimhniú	-8.57158
▁mí	-8.57247
agtha	-8.57397
▁cuirea	-8.57648
▁Comhairle	-8.57979
▁earra	-8.58443
▁baint	-8.58717
▁tSín	-8.58973
▁monaróir	-8.58975
▁suim	-8.59203
▁sholátha	-8.59618
agat	-8.59714
▁Bord	-8.60108
▁speisialta	-8.60173
hloig	-8.60238
▁bunaithe	-8.60817
▁gréasá	-8.60962
▁chomhalta	-8.61214
2	-8.61253
íoc	-8.61454
▁Cé	-8.61531
anas	-8.62086
▁oifigeach	-8.62286
▁scríbhinn	-8.63085
Ã	-8.63127
▁bhféadfa	-8.63217
▁Stáit	-8.63585
▁Chéad	-8.6382
▁Choimisiú	-8.63876
▁20	-8.63931
eacha	-8.6409
▁hiomlán	-8.64125
údarás	-8.64483
▁ceadúna	-8.64746
▁féadfaid	-8.64756
▁gnó	-8.65518
▁deirea	-8.6589
▁láithreá	-8.6644
▁planda	-8.6712
▁ceap	-8.67255
UID	-8.67614
▁Fómhair	-8.67777
▁gcéad	-8.67796
▁chás	-8.67818
▁Eorpaigh	-8.67871
▁os	-8.67947
▁chomhlíona	-8.67997
▁Roimh	-8.68071
▁pearsanta	-8.68346
éachaint	-8.68417
▁páirt	-8.68724
éanamh	-8.68772
▁beid	-8.68798
▁athrú	-8.68912
▁liosta	-8.69034
slí	-8.69497
othair	-8.69533
iúil	-8.70044
artha	-8.70124
ois	-8.70125
▁faisnéis	-8.7028
▁oiriúnach	-8.7036
fa	-8.70399
▁cánach	-8.70507
o	-8.70638
▁fiú	-8.70681
▁HD	-8.70997
▁nós	-8.7111
▁16	-8.71128
▁lú	-8.71207
▁téarma	-8.71229
▁mian	-8.71292
▁bei	-8.7203
▁rogha	-8.72081
▁taobh	-8.72203
▁suíomh	-8.72352
huine	-8.72371
▁Ionca	-8.72564
▁thug	-8.72596
anseo	-8.73161
1	-8.7317
▁000	-8.73264
▁gurb	-8.73278
▁modh	-8.73287
▁hAcht	-8.73544
▁oibre	-8.7357
▁fó	-8.74124
▁hÉireann	-8.74338
Airteagal	-8.74355
ais	-8.74609
sórt	-8.74726
▁Bhí	-8.74903
▁14	-8.74964
▁foca	-8.75086
▁ábhartha	-8.75111
▁ndia	-8.75128
▁Cuir	-8.75317
L	-8.75371
▁13	-8.7541
▁muid	-8.7558
▁huaire	-8.75616
iúl	-8.76117
▁chineál	-8.76226
▁poiblí	-8.76261
▁Údará	-8.76327
▁In	-8.76683
▁iarrai	-8.76723
amhail	-8.76832
▁th	-8.76867
▁Go	-8.7699
▁ndearna	-8.77477
▁seirbhíse	-8.77668
▁fás	-8.77744
▁dháta	-8.78
▁leagan	-8.78112
▁údará	-8.7847
▁cluichí	-8.78771
haoine	-8.78803
▁2017	-8.78953
▁Ch	-8.79211
onas	-8.79262
▁rialú	-8.79303
▁cead	-8.79404
▁comhlacht	-8.79427
▁fhaisnéis	-8.7952
nna	-8.79604
▁sonra	-8.79606
▁ghabha	-8.80333
▁dochar	-8.80408
▁dar	-8.80437
▁2016	-8.80684
4	-8.80725
▁gceist	-8.81688
▁measfa	-8.81808
▁O	-8.82023
▁lagha	-8.82181
▁De	-8.82203
chosaint	-8.82217
▁cosúil	-8.82418
▁tras	-8.82439
fianaise	-8.82603
▁mhaith	-8.8296
▁Chúirt	-8.83179
fásta	-8.83509
▁forál	-8.83567
▁dhéana	-8.83617
▁gCoimisiú	-8.83703
▁toiliú	-8.83768
▁ghnáth	-8.84541
▁gcónaí	-8.84557
onair	-8.84764
p	-8.84811
▁gcoinne	-8.84851
▁togra	-8.84858
an	-8.84903
▁iarra	-8.84941
ghaidh	-8.85115
▁gníomhaíochta	-8.85125
▁N	-8.85125
▁Treoir	-8.85315
▁Chuid	-8.85395
▁cluiche	-8.85413
▁2018	-8.85425
▁Ó	-8.85434
▁leasa	-8.85508
▁II	-8.85587
▁cad	-8.86075
▁Phríomh	-8.86119
▁cineál	-8.86136
▁laghdú	-8.86498
▁cion	-8.86725
▁cheana	-8.86818
▁ríomh	-8.87019
▁Maidir	-8.87499
us	-8.87609
▁físeáin	-8.87684
▁trádála	-8.8774
▁aistriú	-8.87782
▁cúram	-8.87838
▁17	-8.87884
▁Twitter	-8.88197
▁íocaíocht	-8.88296
▁Roinn	-8.88325
úinn	-8.88351
▁gc	-8.88362
▁áirithi	-8.88391
▁cás	-8.88441
each	-8.88495
▁blia	-8.88501
▁cuir	-8.8875
ordú	-8.88913
eas	-8.88958
▁chinneadh	-8.89172
inearálta	-8.89605
hráid	-8.89632
▁sheola	-8.89798
abhair	-8.90017
▁bia	-8.90201
▁Níl	-8.9021
▁tuarascá	-8.90336
▁gcomhairle	-8.9035
▁be	-8.90767
▁bhonn	-8.909
▁cúis	-8.91291
▁dara	-8.91295
▁reatha	-8.91435
▁Cad	-8.91509
▁Leasú	-8.91553
▁24	-8.91604
▁shonraí	-8.91739
ileamh	-8.91895
▁limistéar	-8.92
▁curtha	-8.92061
ailt	-8.9211
▁aird	-8.92198
▁léi	-8.92336
▁sláinte	-8.93183
▁25	-8.93264
▁ama	-8.93354
fhonn	-8.93379
ó	-8.93517
▁shin	-8.9359
▁ceangla	-8.93653
▁measc	-8.93856
▁bhunú	-8.9403
▁193	-8.94741
▁cúig	-8.95339
▁áitreabh	-8.95374
▁Gaeilge	-8.95401
am	-8.95473
ála	-8.95548
▁2013	-8.95632
inne	-8.95813
▁dhíol	-8.95875
▁cláraithe	-8.95916
▁nár	-8.95923
▁Oifig	-8.95971
▁liom	-8.96307
▁faoina	-8.96633
íochta	-8.96673
er	-8.96791
▁fíor	-8.96816
▁dhiai	-8.971
▁leathan	-8.97473
▁bláth	-8.97489
▁gcion	-8.97549
▁choimeád	-8.97883
oisc	-8.97889
▁fu	-8.97951
GUS	-8.98178
ireann	-8.98276
▁lán	-8.98458
▁San	-8.98655
▁NA	-8.98767
úsáid	-8.9884
scríobh	-8.99189
▁ráite	-8.99299
▁The	-8.99386
▁dtugta	-8.99513
▁Léim	-8.99831
▁31	-8.99963
rochtain	-9.00099
▁Náisiúnta	-9.00155
▁costais	-9.00221
▁caighdeán	-9.00244
S	-9.00251
▁breise	-9.00546
▁fhorbairt	-9.00583
▁thaobh	-9.00647
▁2012	-9.01063
▁íocaíochta	-9.01123
▁comhaont	-9.0116
▁Cluich	-9.01186
ealach	-9.01378
▁chéanna	-9.0138
▁21	-9.01512
▁thora	-9.01713
▁chaighdeán	-9.01735
irgid	-9.02131
íos	-9.02288
▁shampla	-9.02665
▁Dé	-9.0268
▁bhua	-9.02814
▁100	-9.02985
▁soláthar	-9.03137
▁faisnéise	-9.03232
▁V	-9.03553
▁againn	-9.03756
ainneoi	-9.03773
▁tuairim	-9.03904
▁leanbh	-9.03996
íoslódáil	-9.04339
▁Act	-9.0448
▁Baile	-9.04587
b	-9.05046
▁lae	-9.05131
▁u	-9.05153
▁Uimhir	-9.05165
▁siúl	-9.05189
▁cruach	-9.05228
▁2014	-9.05612
▁fhógra	-9.05758
▁doiciméad	-9.05944
▁2009	-9.06061
▁H	-9.06077
▁choinneáil	-9.064
▁2019	-9.06441
▁Be	-9.065
▁sásta	-9.06521
▁cheannach	-9.06876
▁tharla	-9.06965
▁córas	-9.0726
▁feidhmiú	-9.07297
▁riachtanach	-9.07386
▁Tar	-9.07415
▁chlár	-9.07528
▁bun	-9.07569
▁forbairt	-9.07649
▁comhair	-9.07688
on	-9.07784
▁kar	-9.07895
▁chlárú	-9.08116
▁lua	-9.08129
▁sula	-9.08267
▁192	-9.08269
athair	-9.08303
▁saol	-9.08347
▁tuga	-9.0865
ean	-9.08975
insean	-9.09061
▁measún	-9.09071
▁2015	-9.09135
le	-9.09559
▁súil	-9.09649
▁thaga	-9.09732
▁faid	-9.09771
▁seilbh	-9.09851
▁fhios	-9.10032
▁roghnú	-9.10061
Aire	-9.10284
▁mhonarcha	-9.10393
▁mba	-9.10821
▁bhea	-9.10914
▁scoth	-9.11353
▁tacaíocht	-9.11497
▁úsáide	-9.11521
▁cearta	-9.11581
▁bliantú	-9.11593
▁cosanta	-9.11638
▁téarmaí	-9.11704
▁chumhacht	-9.11789
úil	-9.11789
▁ciontach	-9.12189
▁éigin	-9.12217
▁cheangal	-9.12711
▁praghas	-9.12789
ladh	-9.12832
▁tioncha	-9.12865
mirt	-9.13138
▁arb	-9.13308
▁láithreach	-9.13373
▁ionann	-9.13594
air	-9.13676
▁leagt	-9.13759
▁airde	-9.1382
▁talún	-9.13897
▁tabharfa	-9.13965
▁damáist	-9.14376
▁tionscada	-9.14434
▁dath	-9.14446
▁ioncam	-9.14573
▁tír	-9.14708
▁stiúrthóir	-9.14719
▁26	-9.14729
B	-9.1476
▁Author	-9.14807
▁tortha	-9.1487
▁ordu	-9.15031
nar	-9.15059
▁barr	-9.15118
áir	-9.15579
▁22	-9.15634
▁nádúrtha	-9.15659
▁Tweet	-9.15735
▁minic	-9.1577
ompair	-9.15828
▁iontach	-9.15831
▁iarratais	-9.15938
▁domhain	-9.16108
▁dhosmálta	-9.16232
▁bhéal	-9.16232
leanúint	-9.16394
▁luaite	-9.16414
▁bheadh	-9.16938
▁chruthú	-9.16948
nniu	-9.16957
irt	-9.17009
▁Bh	-9.17152
▁liúnta	-9.17191
▁grúpa	-9.17301
▁dóigh	-9.17339
▁Áitiú	-9.17445
íortha	-9.17533
▁cheapa	-9.17602
▁abairt	-9.17648
▁chúis	-9.17702
▁28	-9.17902
▁Corporat	-9.1808
hong	-9.18211
▁margadh	-9.18309
ad	-9.18312
▁deir	-9.18591
▁shl	-9.18606
▁hordú	-9.18712
▁cuirfea	-9.18893
▁2011	-9.19078
ite	-9.19105
▁Coiste	-9.19108
▁lucht	-9.19277
▁cabhr	-9.19345
▁grianghraf	-9.19351
▁Seirbhís	-9.19904
▁l	-9.19966
▁leath	-9.19983
▁teorainn	-9.20303
▁cuntais	-9.20534
▁cóip	-9.20603
▁riarachá	-9.20716
▁gh	-9.20786
▁scaire	-9.20824
▁soils	-9.20851
▁Éireann	-9.20906
▁dhéanta	-9.2093
▁lasmuigh	-9.21002
▁ionca	-9.21035
Bord	-9.21046
▁riachtanais	-9.2112
▁freagrach	-9.21888
▁Do	-9.21934
▁Nolla	-9.21969
▁cuspóir	-9.21997
▁feidhmeanna	-9.22171
oirí	-9.22221
▁Tag	-9.22242
▁luath	-9.22309
▁céim	-9.22765
iméad	-9.22933
▁195	-9.23041
▁sonrach	-9.23099
▁dtabharfa	-9.2325
▁iompar	-9.23354
▁díol	-9.23403
▁údara	-9.2346
▁inar	-9.23591
hord	-9.23737
f	-9.23752
▁mhaoin	-9.23864
▁50	-9.23941
▁Parlaimint	-9.23943
▁thosa	-9.23955
▁gcrích	-9.23993
uíonn	-9.2422
▁Bill	-9.24456
ca	-9.24498
▁tháinig	-9.24569
▁achomharc	-9.2466
▁húdará	-9.24839
▁comhairle	-9.24965
▁fhoráil	-9.25264
istigh	-9.25451
▁foirgn	-9.25584
▁Cona	-9.25631
▁chiont	-9.25781
▁cáin	-9.25819
▁III	-9.25963
anta	-9.26002
▁cáilíochta	-9.26004
ion	-9.26008
▁ngníomh	-9.26145
▁húsáid	-9.26172
▁dtaca	-9.26309
▁23	-9.26334
▁bhfoirm	-9.26379
▁deis	-9.26445
▁o	-9.26455
▁Féach	-9.2655
▁mBallstá	-9.26563
▁sh	-9.26809
▁cothrom	-9.26973
▁mhalairt	-9.27076
▁rialta	-9.27123
úirt	-9.27204
▁treala	-9.27267
▁taighde	-9.27306
▁tabhairt	-9.27307
mhéadú	-9.27483
▁etc	-9.276
hoird	-9.27601
▁fada	-9.27689
▁uimhir	-9.2776
iarratas	-9.28151
▁siar	-9.28495
▁comh	-9.28507
aois	-9.28631
▁halt	-9.28643
▁Bhallstá	-9.28679
▁gcuideachta	-9.28693
▁dheon	-9.28908
▁cumhacht	-9.2901
D	-9.29249
▁maoin	-9.29383
▁ndéanta	-9.29426
▁réasúnach	-9.2955
▁íseal	-9.29556
ig	-9.29596
E	-9.29694
cht	-9.29948
▁infheidhme	-9.2996
▁cúna	-9.30042
▁cosaint	-9.3027
6	-9.30317
eachta	-9.30426
▁DO	-9.30445
▁breith	-9.30636
▁doiciméid	-9.30717
▁comhlachta	-9.3087
▁ola	-9.30887
▁díobh	-9.31035
▁chúirt	-9.31058
▁láimh	-9.31157
▁páirtí	-9.31321
▁fíneáil	-9.31344
ithre	-9.31386
▁choinníoll	-9.31432
▁27	-9.31606
▁and	-9.31749
▁Porn	-9.3189
▁siú	-9.31938
gh	-9.31997
▁fhéadfa	-9.32021
▁rún	-9.32082
▁scrúdú	-9.32293
▁cinnte	-9.32411
▁iarnró	-9.32493
oifigeach	-9.32526
▁deimh	-9.32586
▁oibriú	-9.32808
▁scrío	-9.32939
nithe	-9.33034
os	-9.33229
▁nochta	-9.33254
▁seachtain	-9.33352
▁córa	-9.33401
▁Cánach	-9.33418
nach	-9.33454
▁tosa	-9.3346
▁Product	-9.33547
▁Cliath	-9.33547
▁páirteach	-9.33618
▁Soláthra	-9.33752
aici	-9.33781
▁tuillea	-9.33929
▁sócmhainn	-9.33994
▁ghairm	-9.34151
▁Soils	-9.34227
ear	-9.34297
▁tapa	-9.34446
▁Rialtais	-9.34681
▁ábhair	-9.34925
sanna	-9.34987
▁cheap	-9.35261
baineann	-9.35402
▁soiléir	-9.3549
▁bharr	-9.35543
C	-9.35553
▁29	-9.35621
▁Cuarda	-9.35633
▁riosca	-9.35635
▁ainmnithe	-9.35683
chlár	-9.35739
oideachais	-9.3579
▁Márta	-9.35805
▁thabharfa	-9.35846
▁Cuirf	-9.36038
▁bhfad	-9.36384
▁forbartha	-9.36413
able	-9.36421
▁phoiblí	-9.36439
▁fheidhmiú	-9.36497
▁bainistíocht	-9.36534
▁Meán	-9.36539
▁nasc	-9.36565
▁Iúil	-9.36738
▁raon	-9.36817
▁tástála	-9.36858
▁bhforáil	-9.36954
▁iasacht	-9.36979
▁gné	-9.37081
▁feist	-9.37369
▁ngair	-9.37548
▁z	-9.37597
▁freastal	-9.37704
scaoileadh	-9.3771
▁dhéan	-9.37725
▁níl	-9.37735
▁dleacht	-9.37936
▁ullmhú	-9.37988
▁ionstraim	-9.38032
▁thart	-9.38064
▁tábhachtach	-9.38103
▁neart	-9.38122
▁Sláinte	-9.38134
▁oifige	-9.382
▁iii	-9.38449
▁plean	-9.38458
▁seach	-9.38694
▁costas	-9.38702
é	-9.38741
▁Líne	-9.38744
óga	-9.38933
▁nd	-9.38986
▁Eanáir	-9.39076
▁éasca	-9.39182
▁léamh	-9.3928
▁rialaithe	-9.39427
▁socha	-9.39537
▁Chomh	-9.39886
▁údar	-9.40105
▁Dá	-9.40303
Rialtas	-9.4031
▁déantóir	-9.40376
▁gnéas	-9.40407
▁2008	-9.40442
▁gceannas	-9.40464
▁Físeá	-9.40482
▁taithí	-9.40641
ábhar	-9.40719
▁Deirea	-9.40778
uirthi	-9.41066
▁fear	-9.41119
▁foráil	-9.41132
▁ort	-9.41332
▁chumas	-9.41374
shan	-9.41378
▁ligean	-9.41409
▁Táirg	-9.41448
▁ghnó	-9.4147
▁Idir	-9.41538
▁Leictreon	-9.41638
▁gabhá	-9.41698
if	-9.41764
List	-9.41841
u	-9.41926
▁aois	-9.42284
óirí	-9.42291
▁eisiúint	-9.42498
▁príomh	-9.42557
▁chinnt	-9.42667
▁fáth	-9.42843
▁lorg	-9.42883
▁saintréith	-9.42927
▁cona	-9.42939
▁SC	-9.42977
▁fola	-9.43009
▁dhó	-9.43058
5	-9.43102
▁fostaíochta	-9.43221
▁Leasa	-9.43256
▁gnáth	-9.43319
▁Th	-9.43403
▁ceist	-9.43465
▁teach	-9.43505
▁thógá	-9.43524
▁Oireachta	-9.43599
▁glan	-9.43691
▁gcuir	-9.437
▁ball	-9.43814
▁ham	-9.43827
▁caiteacha	-9.44
▁choiste	-9.44041
▁tuairisc	-9.44073
▁inniú	-9.44263
▁sheirbhís	-9.44412
▁bán	-9.44424
▁soilsi	-9.44672
▁chu	-9.44676
▁dubh	-9.44862
éard	-9.45038
ACHT	-9.45043
aineann	-9.45119
Údará	-9.45134
▁theacht	-9.45146
▁cruinn	-9.45279
▁tionscna	-9.45398
▁údarú	-9.4542
eal	-9.45428
▁fuair	-9.45521
▁fhaigh	-9.45585
▁léas	-9.45675
▁Éirinn	-9.45891
▁Contae	-9.4599
▁cúit	-9.46185
▁Co	-9.46196
▁Iarscríbhinn	-9.4642
▁mbliana	-9.46441
isce	-9.4646
▁teast	-9.46624
ITHE	-9.46637
▁ghnóth	-9.46639
▁tairiscint	-9.46735
▁físeá	-9.46793
▁tús	-9.47044
▁thugta	-9.47221
▁balla	-9.47429
▁ciall	-9.47457
▁ré	-9.47599
▁déan	-9.47738
▁ACHT	-9.47956
▁caillteana	-9.48203
▁sraith	-9.4825
▁tos	-9.48448
▁bhearta	-9.48535
▁cheist	-9.48734
▁sprioc	-9.48993
▁aistrithe	-9.49087
▁teagmhá	-9.49097
▁bord	-9.49171
▁Grúpa	-9.49195
▁chaitheamh	-9.49232
▁Cúirte	-9.49378
▁scannán	-9.49585
íre	-9.49604
▁thionscna	-9.49884
liain	-9.49947
▁simplí	-9.4998
▁Clárú	-9.5
▁léiriú	-9.5021
▁mhór	-9.50259
▁thuras	-9.50514
▁cailín	-9.50527
▁hearra	-9.50565
▁ríomhaire	-9.50674
▁dír	-9.50846
▁Cuirea	-9.51024
▁cláir	-9.5117
hníomhaireacht	-9.5123
onaid	-9.51464
▁scéime	-9.51522
▁domhan	-9.51537
▁féach	-9.51733
▁TV	-9.51766
▁sábháilteacht	-9.51795
▁úsáideoir	-9.51886
▁shocrú	-9.52582
▁Sonraí	-9.52666
▁seomra	-9.52724
dong	-9.52726
▁dliteana	-9.52834
ne	-9.52944
▁saoire	-9.53032
ce	-9.53071
▁Clár	-9.53094
▁stoc	-9.53201
▁2006	-9.53254
▁Cuid	-9.53267
▁cuirfid	-9.53475
▁glaca	-9.53536
▁sár	-9.53541
▁gclár	-9.53582
omhairc	-9.53933
▁iarracht	-9.54447
laigh	-9.54514
▁adhmai	-9.54521
▁cumhachta	-9.54605
▁dom	-9.5464
aimseartha	-9.54858
▁reachtú	-9.54969
▁Déanta	-9.55068
▁críoch	-9.55091
▁fh	-9.55167
▁ath	-9.5517
scoileanna	-9.55255
Stiúrthóireacht	-9.55326
▁chomhaont	-9.55342
▁Choiste	-9.55368
▁cm	-9.55444
▁ró	-9.55725
▁céad	-9.55759
▁bhreise	-9.5584
um	-9.55881
▁bosca	-9.55932
EIDEA	-9.56007
ge	-9.56019
▁muirear	-9.56087
▁teanga	-9.56116
▁bliant	-9.56461
▁scoile	-9.56589
▁oibleagáid	-9.56722
▁gcur	-9.56752
▁volta	-9.56815
▁oifigiú	-9.56984
▁scoil	-9.5702
▁Lawn	-9.57314
▁socrú	-9.5733
▁Bhaile	-9.57335
▁Gan	-9.57363
▁leanúnach	-9.57661
▁cosc	-9.57705
▁laeth	-9.57811
onn	-9.579
▁athbhreithniú	-9.58019
óir	-9.58028
▁éifeachtach	-9.58123
▁slándá	-9.58129
▁eolai	-9.58236
▁institiúid	-9.58255
▁léinn	-9.58344
ngach	-9.58467
▁min	-9.5853
▁mion	-9.58547
▁sealbhóir	-9.58646
▁post	-9.58748
▁ndáir	-9.5877
che	-9.58813
▁punt	-9.58839
▁leictreonach	-9.58894
▁teicniú	-9.58955
seamh	-9.58964
▁tré	-9.59142
land	-9.59327
▁thagairt	-9.59518
▁milliún	-9.59584
▁ísle	-9.59586
▁árachais	-9.59706
▁beart	-9.59743
▁Alt	-9.59822
▁Cur	-9.59884
▁éil	-9.6017
▁mheas	-9.60361
ly	-9.60366
▁fost	-9.60456
▁Stiúrthóir	-9.6051
▁cheadúna	-9.6055
▁40	-9.60595
▁gala	-9.60597
▁scair	-9.6062
▁tharraingt	-9.60626
▁chó	-9.60857
▁éisteachta	-9.6093
ine	-9.61235
▁creidmheasa	-9.61681
eithre	-9.61782
▁fanacht	-9.618
▁cineálach	-9.61834
▁cheangla	-9.62107
méadú	-9.62145
▁cleachta	-9.62158
▁Déan	-9.62178
ire	-9.62193
▁foirm	-9.62257
▁shonró	-9.62445
▁clárú	-9.62472
▁parlaiminteach	-9.62533
▁Guan	-9.6254
▁fhorála	-9.62579
▁dleathach	-9.62612
▁iascaireacht	-9.63089
oirceallá	-9.6312
▁chothabháil	-9.63175
▁tacú	-9.63195
▁iasc	-9.63218
▁dearbhú	-9.63218
▁thíos	-9.63219
▁plandáil	-9.63286
▁inmheánach	-9.63336
▁aer	-9.63349
cumhachtaí	-9.63398
Ú	-9.63407
▁chuntasaíocht	-9.63513
▁rátaí	-9.63583
ol	-9.63655
orthaí	-9.63758
thréimhse	-9.63884
▁meaisín	-9.63904
teannta	-9.6402
▁luaith	-9.6418
▁dlite	-9.64312
▁Ollscoil	-9.6432
achta	-9.6433
MS	-9.64371
N	-9.64569
▁gCuid	-9.64596
▁roghna	-9.64635
▁thaispeáin	-9.64664
▁bpoint	-9.64675
▁tráchtál	-9.647
uas	-9.64725
▁gcóra	-9.64746
▁inniúla	-9.64754
▁molta	-9.64759
▁Meitheamh	-9.64891
▁éadrom	-9.65089
▁Teach	-9.65128
▁LE	-9.65147
▁Tabharfa	-9.6522
▁scriosa	-9.65359
▁éinn	-9.65415
AMH	-9.65443
▁freagra	-9.65533
▁aisíoc	-9.65534
fháil	-9.65902
▁oscailte	-9.66009
▁caite	-9.66041
▁sampla	-9.66072
▁tsuim	-9.66202
▁Chonra	-9.66254
ontas	-9.66271
▁Mura	-9.66348
▁substaint	-9.66633
▁baile	-9.66672
▁thuillea	-9.66709
bogearra	-9.66769
▁cheadú	-9.66819
▁liúntais	-9.67005
▁corpraithe	-9.67035
éidir	-9.67055
▁Foins	-9.67454
▁faire	-9.67504
▁úinéir	-9.67667
▁gCoimisinéir	-9.67753
▁reachtaíocht	-9.6788
▁cuma	-9.67904
mná	-9.68037
▁Aibreá	-9.68109
▁coiste	-9.68124
▁bhailiú	-9.68184
▁fheiceá	-9.68339
▁gnótha	-9.68362
táille	-9.68377
▁éisteacht	-9.68459
▁leabhar	-9.68507
▁long	-9.68532
▁sláintíocht	-9.68541
▁Londa	-9.68542
▁tarmlig	-9.68543
▁cuirf	-9.68545
▁contae	-9.68546
▁déag	-9.68668
▁gcomhair	-9.68669
inn	-9.68693
tory	-9.68767
óra	-9.68775
▁leathn	-9.68852
▁Rogh	-9.68904
▁IV	-9.6896
▁chosc	-9.68965
▁talmhaíocht	-9.69078
▁on	-9.69108
▁ghlac	-9.69121
▁cionn	-9.69167
▁malairt	-9.69335
▁cárta	-9.69336
▁bhfaigh	-9.6949
R	-9.69559
▁tuig	-9.69569
▁32	-9.6958
▁Bealtaine	-9.69623
▁Tiarna	-9.69637
▁Ina	-9.69647
▁réamh	-9.69955
▁fhoirm	-9.69993
▁réidh	-9.70079
▁achtachá	-9.70127
▁iontu	-9.70134
ordaithe	-9.70175
▁chaiteacha	-9.70237
▁prionsaba	-9.70449
▁foirn	-9.70568
▁uirlis	-9.70864
▁bhíthin	-9.70941
▁treoir	-9.71023
▁Feabhra	-9.71098
▁réasúnta	-9.71316
▁réit	-9.71384
▁ais	-9.7139
▁onnmhaireoir	-9.71453
▁scor	-9.71523
▁fiche	-9.71589
lacha	-9.71655
▁deich	-9.71658
▁có	-9.71784
▁crua	-9.71788
▁Síochá	-9.71839
▁ndéana	-9.71876
▁infheistíochta	-9.71904
fach	-9.71913
▁gheimhr	-9.71973
▁Áth	-9.72041
uaidh	-9.72046
▁dochtúir	-9.72082
▁bheala	-9.72233
▁frith	-9.72367
k	-9.72624
▁Tuga	-9.72646
▁35	-9.72752
▁Ríocht	-9.72872
á	-9.72896
▁comha	-9.72899
▁álainn	-9.73135
▁glas	-9.73422
▁gcuirf	-9.73536
▁brath	-9.73751
inse	-9.73791
▁aitheanta	-9.73795
▁cíos	-9.73822
▁aicm	-9.74179
▁iarrthóir	-9.74342
▁Airgid	-9.7446
▁lean	-9.74535
▁breathn	-9.74654
rís	-9.74656
▁cuntas	-9.74816
▁lár	-9.74952
▁phróiseáil	-9.7496
▁fheabhsú	-9.75044
▁2007	-9.75074
▁coitianta	-9.75106
▁ainmniú	-9.75145
▁socruithe	-9.75227
▁éag	-9.75329
▁beo	-9.75335
lann	-9.75355
▁ghearradh	-9.75438
▁straitéis	-9.75452
▁Iarnró	-9.75552
ainne	-9.75607
▁chontae	-9.75654
▁stíl	-9.75661
acht	-9.757
oiread	-9.75881
▁SOLAS	-9.75923
▁treorach	-9.75964
▁sealadach	-9.76018
iompar	-9.76041
ill	-9.76091
▁Chuir	-9.7629
▁mórdhíol	-9.76442
▁cionta	-9.76461
▁leighis	-9.76468
▁deontas	-9.76575
▁U	-9.76638
▁oibríochta	-9.76742
▁pictiúir	-9.76824
▁rachai	-9.76833
▁Dlí	-9.7686
▁ghabh	-9.76917
▁mhodh	-9.76963
▁thiocfa	-9.76991
▁2010	-9.77003
rac	-9.77013
fho	-9.77104
▁sheachada	-9.77239
▁60	-9.77258
▁earnáil	-9.77305
▁Oideacha	-9.77412
lach	-9.77434
▁himeachta	-9.7753
▁ndéan	-9.77598
▁Dara	-9.77601
▁com	-9.7769
▁dtiocfa	-9.77837
▁stair	-9.77931
aptha	-9.78071
▁leanfa	-9.78225
oist	-9.78229
▁staid	-9.78259
▁eacnamaíoch	-9.78276
▁cáilithe	-9.78279
ibh	-9.78287
▁taifead	-9.78478
▁fadhb	-9.78508
▁Tuirc	-9.7856
▁Naisc	-9.78583
▁Éisteachta	-9.78644
▁Eola	-9.78665
▁Córa	-9.78743
▁réite	-9.78746
muigh	-9.78792
▁díospóireacht	-9.78794
▁comhlíona	-9.78853
▁cóir	-9.78877
ling	-9.78941
▁Scoil	-9.79011
▁múinteoir	-9.79077
▁sóisial	-9.79154
ment	-9.79188
es	-9.79279
▁trína	-9.79541
▁próiseas	-9.79574
▁Moncler	-9.79585
▁líonra	-9.79614
▁to	-9.79637
▁ria	-9.80116
▁brabú	-9.80209
oibreacha	-9.80233
▁2001	-9.803
Í	-9.80351
▁chóras	-9.80483
▁Trí	-9.80637
▁bhaile	-9.80654
ity	-9.80672
▁bhreis	-9.80674
▁chomhlachta	-9.80698
▁brú	-9.80783
▁siopa	-9.8079
▁Bainistíocht	-9.80807
rátaí	-9.80866
▁Gnótha	-9.81119
▁Chuideachta	-9.81192
▁gcuirfea	-9.81399
▁luaidhte	-9.81487
▁agam	-9.81563
éasca	-9.81608
tv	-9.81794
▁athr	-9.81895
▁suí	-9.81895
▁cúraim	-9.82072
▁ghinearálta	-9.82096
▁cuairt	-9.8212
▁chéim	-9.82508
9	-9.82514
oidh	-9.82578
▁fuarth	-9.82657
▁Poiblí	-9.82709
los	-9.82846
▁Bain	-9.82848
▁fostaí	-9.82872
▁Talmhan	-9.82972
▁híoc	-9.83023
▁Ciste	-9.8304
▁Lúnasa	-9.83125
▁Chomhphoba	-9.83164
▁cumas	-9.83166
▁clip	-9.83262
▁iniúcha	-9.83283
▁conartha	-9.83285
▁bhain	-9.83347
ist	-9.83371
ainm	-9.83373
▁Úsáid	-9.83384
▁cheannas	-9.83447
▁maid	-9.83468
7	-9.83486
Aibreá	-9.83502
Chiste	-9.83511
▁asbhaint	-9.83588
▁bhliantú	-9.83615
▁dhearbh	-9.83683
uine	-9.83698
airgead	-9.83752
▁Gharda	-9.8389
▁pe	-9.83894
▁thuas	-9.83918
▁dhliteana	-9.83926
▁oscailt	-9.83989
▁speic	-9.84133
▁Fear	-9.84142
ic	-9.84339
heannta	-9.84468
▁meán	-9.84481
▁scéal	-9.84506
▁Dia	-9.84512
▁shonra	-9.8455
▁chomhlacht	-9.8465
▁leithligh	-9.84819
▁ngairm	-9.84881
▁plaisteach	-9.84889
▁gceann	-9.84976
▁faireachá	-9.84993
ies	-9.85087
▁phobal	-9.85089
▁mhaithe	-9.85205
▁ainmh	-9.85294
▁mheasúnachta	-9.85351
▁monarcha	-9.8537
▁táill	-9.85388
▁dócha	-9.85558
▁chríoch	-9.85657
▁gléas	-9.85666
▁tithíocht	-9.85791
chóireáil	-9.85818
▁gceart	-9.85873
▁seachtrach	-9.85915
▁conra	-9.85931
▁fostóir	-9.85995
▁smaoin	-9.86027
▁glac	-9.8621
▁tháirgeadh	-9.86258
éile	-9.86292
▁chion	-9.86416
▁fosta	-9.86425
▁tuismitheoir	-9.86473
éal	-9.86536
▁phoba	-9.86648
▁cúpla	-9.86708
▁Dáta	-9.86827
▁dualgais	-9.86911
ord	-9.86919
▁réigiún	-9.87027
▁bás	-9.87029
maoine	-9.87059
▁leictreacha	-9.8711
▁W	-9.87335
▁chinnf	-9.87388
▁íomhá	-9.87448
▁chomhairle	-9.87608
▁diúlt	-9.87609
▁crité	-9.87662
▁leithéid	-9.87675
▁solas	-9.8778
athaoirleach	-9.87829
▁Scéim	-9.88012
▁tacaíochta	-9.88052
churtha	-9.88132
▁500	-9.88177
▁cinntí	-9.88483
EORPA	-9.88514
▁míle	-9.88551
▁bPríomh	-9.88607
▁iontaobha	-9.88634
▁Cruach	-9.8867
▁Rinne	-9.88681
▁cheanta	-9.88685
▁ceadúnais	-9.88693
▁shealbh	-9.88904
▁roghanna	-9.88925
▁Threo	-9.88938
aip	-9.88942
▁stáisiú	-9.88999
iúla	-9.89031
▁gcomh	-9.89256
▁déanmha	-9.89411
▁eagraíocht	-9.89521
▁soláthraí	-9.89551
▁Hot	-9.89603
▁Gaeltachta	-9.89656
▁Coda	-9.89747
▁chóra	-9.89952
▁sábháilte	-9.90004
▁tairbhe	-9.90117
▁bhéarfa	-9.90129
▁shár	-9.90292
eolas	-9.90367
8	-9.90463
▁mara	-9.90503
▁45	-9.90522
▁Príomh	-9.90533
▁dromchla	-9.90559
▁gairdín	-9.90636
▁cúirte	-9.90663
▁1999	-9.90731
▁thoil	-9.9074
▁UM	-9.90762
▁chearta	-9.90896
léireofa	-9.90969
▁Chiste	-9.91031
▁luas	-9.91074
▁fuinn	-9.91162
▁teoranta	-9.91165
▁Saor	-9.91196
▁tuairisceá	-9.91343
▁gCúirt	-9.91556
Load	-9.91557
▁limisté	-9.91578
▁Sóisial	-9.9161
▁soláthróir	-9.91685
▁aice	-9.91691
aitheamh	-9.91718
▁fheidhm	-9.91784
raí	-9.9179
▁34	-9.92084
tee	-9.92105
▁gheobhaid	-9.92187
▁fuaime	-9.92373
▁saineola	-9.925
▁fianaise	-9.92513
▁thalamh	-9.92602
▁Commit	-9.9261
▁caighdeáin	-9.92618
▁pleaná	-9.92624
▁spás	-9.92632
▁2005	-9.92633
▁Á	-9.92821
▁dT	-9.93024
▁ghrúpa	-9.93037
▁traidisiún	-9.93098
bh	-9.9318
airdín	-9.93199
▁sainche	-9.93362
load	-9.93375
▁grá	-9.93426
▁Fógra	-9.93487
▁shonr	-9.93515
▁cumarsáid	-9.93559
▁BliainDaon	-9.93559
▁sheirbheáil	-9.93559
▁fág	-9.93582
▁Porno	-9.93593
▁Caibidil	-9.93596
▁grianghra	-9.93616
▁glacad	-9.93632
▁00	-9.93677
▁diúité	-9.93724
▁tiomána	-9.93761
▁gnócha	-9.93793
▁33	-9.93999
▁caiteachais	-9.94081
▁sochai	-9.94197
▁cuntasaíocht	-9.94317
▁tseirbhís	-9.94402
▁dheimhniú	-9.94427
▁stóráil	-9.94475
▁cheapfa	-9.94583
▁gloine	-9.94666
póirt	-9.94671
▁toradh	-9.94751
úla	-9.94928
uaire	-9.95123
▁suntasach	-9.95277
24	-9.9531
▁leasuithe	-9.95357
▁oideachas	-9.95427
w	-9.95488
seo	-9.9549
▁leordhóthanach	-9.9556
déileáil	-9.95606
▁Screen	-9.95611
▁Ansin	-9.95711
▁Ord	-9.95713
▁teilifíse	-9.95753
▁éagsúlacht	-9.95786
▁ús	-9.95851
▁oíche	-9.95922
▁Hel	-9.95953
▁Eor	-9.96446
▁príobháideach	-9.96547
▁iarbh	-9.96592
▁leigheas	-9.96662
▁bhf	-9.96665
▁taispeáint	-9.96716
▁bhainfid	-9.96731
elet	-9.96776
mhór	-9.96936
▁tuiscint	-9.96939
Chúirt	-9.97006
inbh	-9.97054
▁spreaga	-9.97146
▁eol	-9.97225
eana	-9.97255
▁fir	-9.9739
▁tréimhs	-9.97507
▁bainisteoir	-9.97511
▁pinsin	-9.97624
▁oibreacha	-9.97651
▁Split	-9.97705
▁theicniú	-9.97707
▁2004	-9.97717
▁leibhé	-9.97753
▁uathoibríoch	-9.9777
▁soláthra	-9.97788
áit	-9.9782
▁struchtúr	-9.97827
▁cuarda	-9.98007
67	-9.98228
ofa	-9.98249
orbartha	-9.9827
▁Post	-9.98298
▁bunúsach	-9.98375
agartha	-9.98493
ugtha	-9.9865
▁seacht	-9.98677
U	-9.98715
▁cruinni	-9.98729
..	-9.98768
▁bó	-9.98876
▁maoirseacht	-9.98903
▁dheirea	-9.9891
▁dearg	-9.98927
▁Sraith	-9.98986
▁Stair	-9.99035
▁trádá	-9.9909
▁sean	-9.99422
▁Speisialt	-9.99531
▁shuíomh	-9.99532
achomair	-9.99651
▁oiliú	-9.99679
ry	-9.99736
▁mBan	-9.9977
ide	-9.99829
▁Banc	-9.99872
▁taist	-9.99891
▁airgeadra	-9.99981
▁Oideachas	-10.0005
▁comhionann	-10.0007
▁suite	-10.0016
▁téacs	-10.0016
▁chinn	-10.0018
phointe	-10.0019
▁oiliúna	-10.0024
▁Leis	-10.0025
▁Iompair	-10.0027
▁táscair	-10.0029
▁imscrúdú	-10.0038
▁hAirteaga	-10.0039
▁mbun	-10.0045
x	-10.0051
aíochta	-10.0066
▁tástáil	-10.0067
▁Uisce	-10.0067
▁saoráid	-10.0069
▁leanúna	-10.007
▁pointe	-10.0075
▁ghabháil	-10.0087
ribh	-10.0088
▁1976	-10.0094
▁Allah	-10.0096
▁buan	-10.0098
▁gcomhar	-10.0111
fhéid	-10.0128
▁36	-10.013
▁díolúin	-10.014
▁bunaío	-10.0141
héann	-10.0142
▁taifid	-10.0147
ll	-10.0148
▁lámha	-10.0155
V	-10.0162
▁Tionsca	-10.0175
▁nAcht	-10.0176
iarratasóir	-10.0186
oird	-10.0189
▁tíre	-10.0191
▁chomhair	-10.0201
▁Togra	-10.0203
dóigh	-10.0206
▁fhoilsi	-10.0207
aistriú	-10.0211
▁gluaiseacht	-10.0214
▁v	-10.0215
▁Bosca	-10.0221
▁druga	-10.0223
▁Institiúid	-10.0233
irí	-10.0236
aontú	-10.024
▁breithiúna	-10.0258
ailte	-10.026
▁AR	-10.0272
▁Leasaí	-10.0272
▁bpost	-10.0277
rianchlo	-10.0307
▁fhomhír	-10.0309
▁catagóir	-10.0314
nár	-10.0316
▁seasamh	-10.0317
▁bunaidh	-10.0328
▁Déanann	-10.0329
▁ról	-10.0332
▁PH	-10.0342
▁pionós	-10.0344
▁bhainisti	-10.035
▁fororda	-10.0371
▁mhargadh	-10.0398
▁cheada	-10.0423
▁blas	-10.0426
▁Páirt	-10.0426
éil	-10.0428
▁chónaithe	-10.0433
▁Céad	-10.0435
▁gCuideachta	-10.0437
▁gcomhalta	-10.0441
▁réigiúnach	-10.0448
▁staidéar	-10.0448
▁feabhas	-10.045
▁Forála	-10.0452
▁dhiúlt	-10.0475
▁mac	-10.0476
▁thos	-10.0479
▁chláir	-10.0495
▁Tabhair	-10.0501
osach	-10.0505
▁difriú	-10.0507
▁K	-10.0511
▁mbainfid	-10.0517
▁ceadú	-10.052
▁Trácht	-10.0524
▁Monaróir	-10.0541
▁gearr	-10.0542
▁dheasca	-10.0544
▁bréagach	-10.0547
▁ion	-10.0547
▁aithint	-10.0554
▁feithicl	-10.0582
▁tA	-10.0583
▁Dúi	-10.0595
▁théarma	-10.0595
▁bhord	-10.0596
▁ardchaighdeá	-10.0597
▁shábháil	-10.0598
▁agóid	-10.0606
▁iarratasóir	-10.0626
▁Ire	-10.0634
▁ghníomh	-10.0646
eacht	-10.0647
▁mhéad	-10.0647
▁phríomh	-10.0654
▁Catagóir	-10.0655
nách	-10.066
▁ollmhór	-10.0662
I	-10.0682
▁bhreith	-10.0686
hiúscairt	-10.069
fheidhmeanna	-10.0708
▁bunú	-10.0711
▁teaghlaigh	-10.0727
▁chuirfea	-10.0727
AE	-10.0728
▁Wat	-10.0746
▁réim	-10.0753
shuiteáil	-10.0766
▁próiseála	-10.0771
▁Chontae	-10.0771
áireamh	-10.0778
▁íosta	-10.078
▁díls	-10.0803
▁fhianaise	-10.0803
IL	-10.0804
▁Airteaga	-10.0805
istí	-10.0812
oifig	-10.0814
▁fuar	-10.0824
▁measúnachta	-10.0846
▁meácha	-10.0851
▁líomatáist	-10.0853
▁sreang	-10.0861
▁Theas	-10.0862
▁mbunaí	-10.0881
▁chugainn	-10.0889
▁Next	-10.089
▁tobac	-10.0898
▁Pland	-10.0898
▁athbhreithn	-10.0901
▁inneall	-10.0909
▁Comh	-10.0919
eiridh	-10.0931
ineacht	-10.0934
▁mála	-10.0935
▁bhforál	-10.0954
▁snáithe	-10.0962
▁urrú	-10.0967
▁For	-10.0968
▁tionónta	-10.0991
chta	-10.0993
▁Ainm	-10.1008
▁spraoi	-10.1008
iarsma	-10.1008
▁tirim	-10.1009
▁1963	-10.101
▁nuashonr	-10.101
▁neamhspleách	-10.1016
tú	-10.102
▁baill	-10.1026
▁Sin	-10.1026
▁chúlghairm	-10.1026
▁chaoi	-10.1028
▁ph	-10.1052
▁tógáil	-10.1067
▁Barcelona	-10.1068
▁42	-10.1071
tí	-10.1076
▁thairiscint	-10.1078
▁leictreach	-10.1094
thar	-10.1107
or	-10.1115
▁dlíns	-10.112
ARLAIMINT	-10.1124
aid	-10.1134
▁Leanaí	-10.1138
▁ionadaí	-10.1142
▁fhorléir	-10.1164
▁tug	-10.1167
▁láidir	-10.1178
97	-10.1179
▁ng	-10.1181
▁Fac	-10.1184
▁Ábhar	-10.1184
shaol	-10.119
ers	-10.1207
▁Lean	-10.123
▁Iris	-10.1231
▁móra	-10.1231
▁teorann	-10.1241
▁maoiniú	-10.1243
▁rang	-10.125
▁praghs	-10.125
▁Choinbhinsiú	-10.125
▁friotaíocht	-10.1251
▁gcomhlacht	-10.1251
▁Bláth	-10.1257
▁bronntana	-10.1261
▁deireanach	-10.1263
▁tionsca	-10.1263
▁39	-10.1265
▁gcuntas	-10.1269
▁teagmhála	-10.1276
▁scoirf	-10.1287
▁Níor	-10.1299
th	-10.1303
▁bonn	-10.1303
raitheann	-10.131
▁teocht	-10.1314
oil	-10.1316
st	-10.1326
▁ea	-10.1329
▁eastá	-10.1332
aidh	-10.1333
rtha	-10.1339
▁VI	-10.1345
▁todhchaí	-10.1357
▁comhpháirt	-10.1363
▁aerártha	-10.1365
▁Connect	-10.1374
▁Talmhaíocht	-10.1374
bhreithniú	-10.1376
▁mheasfa	-10.1377
▁acmhainn	-10.1384
▁titim	-10.1387
áilte	-10.1393
▁tóir	-10.1421
thir	-10.1426
▁Ghaeilge	-10.1449
▁bac	-10.1475
eoil	-10.1477
▁phragha	-10.148
▁soláthair	-10.1493
▁srianta	-10.1498
▁dhéag	-10.1501
▁Cl	-10.1505
stoic	-10.1511
▁staidé	-10.152
▁nglacfa	-10.1528
▁Fostaíocht	-10.1529
▁Plean	-10.1531
▁ráitis	-10.154
▁dtú	-10.1543
áitreabh	-10.1546
▁branda	-10.155
▁European	-10.1552
▁Imeachta	-10.1554
▁Faisnéise	-10.1558
▁foirfe	-10.156
▁Oifigiú	-10.1564
▁Tionscada	-10.1567
▁sheacha	-10.1574
▁2000	-10.1577
▁folaío	-10.1586
ici	-10.1586
▁ceanta	-10.1613
▁riachtana	-10.1619
HUN	-10.1622
▁Monarcha	-10.1626
▁gcoinníoll	-10.1626
cónaí	-10.1626
▁Ráta	-10.1627
▁custaiméir	-10.1635
▁Gníomhaíochta	-10.165
M	-10.1652
▁Cineál	-10.167
▁EU	-10.1673
▁thíolaca	-10.1687
▁breis	-10.169
▁comhréireacht	-10.1694
▁híocaíochta	-10.1699
óide	-10.17
▁ghníomhaíochta	-10.1704
▁anailís	-10.1704
▁iniúchta	-10.1707
▁gcomhlíon	-10.1712
▁beala	-10.1714
▁dhlí	-10.1733
▁pacáist	-10.1743
hábhair	-10.1751
CDD	-10.1755
▁urrús	-10.1763
▁wash	-10.1764
▁Mórdhíola	-10.1765
▁mórdhíoltóir	-10.177
▁chuí	-10.1773
▁cathaoirleach	-10.1782
▁Seirbhíse	-10.1788
▁méada	-10.1788
▁38	-10.1799
▁tromchúiseach	-10.18
▁feiceá	-10.1814
▁thógaint	-10.1818
roichead	-10.182
úcháin	-10.1838
▁léiríonn	-10.1842
▁cónaithe	-10.1843
▁aonad	-10.1852
▁scoir	-10.188
▁Ilghnéitheach	-10.1884
▁teaghais	-10.1884
▁Coinbhinsiú	-10.1884
éascú	-10.1884
▁Chearta	-10.1884
▁labhairt	-10.1891
▁mbeart	-10.1897
▁iasca	-10.1904
▁inti	-10.1908
ness	-10.1911
▁Uachtarán	-10.1913
▁Óg	-10.1914
P	-10.1915
▁scála	-10.1919
▁gcríoch	-10.192
▁difríocht	-10.1936
▁gC	-10.1941
nscne	-10.1951
▁Euro	-10.1952
fheidhmiú	-10.1971
ath	-10.1971
comparáid	-10.1978
uisce	-10.1992
▁ghnótha	-10.1998
▁taitneamh	-10.2004
ollaig	-10.2004
▁70	-10.2006
▁mheán	-10.2011
▁bog	-10.2014
▁cathrach	-10.2016
▁paisinéir	-10.2018
▁Cumarsáid	-10.2023
▁Cathrach	-10.2025
▁cod	-10.2026
íocht	-10.2032
▁páist	-10.2032
▁gorm	-10.2042
▁athnuachan	-10.2042
▁oibríochtú	-10.2045
olex	-10.2049
ud	-10.2074
▁2020	-10.2076
▁Gníomhaireachta	-10.2091
▁críochnaithe	-10.2092
▁Feidhmiú	-10.2108
▁imthosca	-10.2111
▁dtreo	-10.2112
▁sibhialta	-10.2116
▁ma	-10.2118
▁séala	-10.214
▁ocht	-10.2143
▁Iostanbúl	-10.2148
▁Outlook	-10.2148
▁cigire	-10.2152
▁dhíon	-10.2153
éiríonn	-10.2159
osanta	-10.2162
▁Mo	-10.217
▁imeacht	-10.218
▁teicneolaíocht	-10.2181
éifeacht	-10.2182
▁dáilea	-10.2196
▁míniú	-10.2198
▁mhola	-10.2198
▁dréacht	-10.2207
▁Foirm	-10.2207
eacair	-10.2208
▁Anois	-10.2214
▁shóisial	-10.2228
oir	-10.2229
cmhainní	-10.2238
▁46	-10.2243
▁dualga	-10.2253
▁creidiúna	-10.2265
▁Faigh	-10.2276
▁páipéar	-10.2284
▁Gairdín	-10.2291
▁digiteach	-10.2293
▁mhaolú	-10.2293
▁cábla	-10.2299
▁ceachta	-10.2309
▁37	-10.2313
▁duilleog	-10.2314
▁Samhai	-10.2317
rádáil	-10.2322
▁threoir	-10.2327
▁rialaitheoir	-10.2331
▁Lá	-10.2336
▁Cuideachta	-10.2344
oibriú	-10.2346
▁hAchta	-10.2349
▁hoifig	-10.235
▁gcóir	-10.2356
mheasúnú	-10.2356
▁Pé	-10.2357
pháirtí	-10.2364
▁thóg	-10.2366
▁Daon	-10.237
▁200	-10.239
▁tionscal	-10.2391
▁aidhm	-10.2411
▁buntáist	-10.2416
▁satailít	-10.2421
▁chumhda	-10.2421
▁taisteal	-10.2422
▁scile	-10.2422
▁triail	-10.2423
▁thrí	-10.2426
▁stáda	-10.2433
▁fhoirgn	-10.2472
▁phearsanta	-10.2491
▁iomláin	-10.2492
▁aibí	-10.2498
hosaint	-10.2503
▁hArd	-10.2509
▁mhín	-10.2514
▁ghníomhaíocht	-10.252
▁tógála	-10.2536
▁te	-10.2551
▁timpeall	-10.2556
earra	-10.2556
▁gruaig	-10.2561
▁2002	-10.2562
phost	-10.2565
ip	-10.2567
▁bhean	-10.2568
▁Tuarascá	-10.2574
▁ríomhpho	-10.2575
▁Mór	-10.2578
íní	-10.2588
ochair	-10.2592
2003	-10.2605
▁beatha	-10.2609
▁réigiú	-10.2618
íonna	-10.262
▁Athr	-10.2632
▁comharthaí	-10.2644
ocht	-10.2654
▁ghlana	-10.2656
▁crann	-10.2659
▁55	-10.2663
nta	-10.2668
aoin	-10.267
▁phost	-10.2674
▁chláraithe	-10.2675
▁chuntas	-10.2685
▁Leas	-10.2691
▁deontais	-10.2705
▁incháilithe	-10.2706
▁faighte	-10.2706
▁caipit	-10.2713
▁scrios	-10.272
▁chleachta	-10.2727
▁slán	-10.2731
▁gcionta	-10.2731
▁Ceann	-10.2743
▁Ná	-10.2745
▁chruinni	-10.2746
▁gearán	-10.2751
▁iarr	-10.2757
▁chonra	-10.2761
▁cumann	-10.2767
▁lárnach	-10.2777
25	-10.2797
▁shláint	-10.2808
▁feithicle	-10.2819
▁fiosrúchá	-10.2825
▁riail	-10.283
▁Taispeáin	-10.2843
▁dhul	-10.2845
▁fhadhb	-10.2852
▁Forbairt	-10.2852
▁Nuacht	-10.2865
▁liti	-10.2866
▁tomhaltóir	-10.2867
▁phróisea	-10.288
▁cód	-10.289
▁Éireannach	-10.2895
airgeadra	-10.2897
▁gcoit	-10.2906
▁Atha	-10.2925
▁Mh	-10.2926
▁gairmiú	-10.2937
▁díola	-10.2942
▁teasa	-10.2943
ráite	-10.2945
▁chúna	-10.2948
▁coinníoll	-10.2965
ki	-10.297
▁turas	-10.2972
▁tháirgí	-10.2982
▁ghrian	-10.2988
▁cóireáil	-10.299
▁dlíthiúil	-10.299
▁gléasra	-10.3004
▁DHÉAN	-10.3012
▁Europ	-10.3017
▁Local	-10.3018
▁75	-10.3025
iontaobhais	-10.3027
▁buí	-10.3028
▁cóireála	-10.3029
▁chaill	-10.3029
▁úis	-10.3033
▁bpáirt	-10.3034
▁pháirt	-10.3036
▁Ionad	-10.3038
▁náisiún	-10.3046
Á	-10.3047
▁diúscairt	-10.3053
▁léasa	-10.3059
▁scanná	-10.3071
mm	-10.3076
▁cúrsaí	-10.3082
reidiúint	-10.3083
▁gcomhlíonfa	-10.3092
▁chluich	-10.3095
▁línt	-10.3096
▁éadaí	-10.31
▁tosaíochta	-10.3105
dhéanta	-10.3109
▁nea	-10.311
▁mhodhn	-10.3111
▁gcruinni	-10.3112
▁eagraíochta	-10.3115
ille	-10.3119
iceáil	-10.3128
▁Nach	-10.313
▁croí	-10.313
aimsire	-10.3131
▁alúmana	-10.3135
▁míleata	-10.3138
urscaoileadh	-10.3139
ation	-10.3142
▁féilir	-10.3143
▁thuairim	-10.3144
▁Gluaiseacht	-10.3145
▁pian	-10.3174
dhroim	-10.3178
DH	-10.3178
▁teaghlach	-10.3183
radh	-10.3189
▁mhíniú	-10.3197
▁sheachtain	-10.3203
▁iontaofa	-10.3221
▁ainmniúchá	-10.3221
▁pearsan	-10.3222
▁gcomhlíona	-10.3228
Chúirte	-10.3234
leic	-10.3241
▁fionraí	-10.3242
▁cultúr	-10.3244
eisiúint	-10.3249
▁cháin	-10.3252
▁ceall	-10.3253
▁marga	-10.3256
▁EUR	-10.3265
▁gcoinn	-10.3271
▁tiomanta	-10.3284
▁gCiste	-10.3285
▁comhairliúchá	-10.3285
▁65	-10.3285
▁reacht	-10.3287
▁indéanta	-10.3288
▁toirt	-10.3298
tine	-10.3304
▁sceideal	-10.3312
▁oibrithe	-10.3319
▁measta	-10.3322
▁iv	-10.3327
iasachtaí	-10.3335
ia	-10.3342
▁thuiscint	-10.3345
▁úinéireacht	-10.3352
▁éirí	-10.3353
ora	-10.3356
▁bean	-10.3359
dhéanamh	-10.3366
▁Ealaíon	-10.3369
ghala	-10.3378
ráid	-10.3379
▁uairean	-10.3401
▁coda	-10.3409
othabháil	-10.3417
▁té	-10.3419
▁éagsú	-10.3425
▁teicneolaíochta	-10.3432
▁Ciall	-10.3438
▁foláir	-10.3438
▁ghá	-10.3443
▁compordach	-10.3444
óige	-10.3447
▁iniúchóireachta	-10.3454
▁Barr	-10.3456
▁míre	-10.3485
▁glacfa	-10.3491
▁meas	-10.3496
ara	-10.3499
oiciméid	-10.3503
less	-10.3516
aghas	-10.3518
▁comhar	-10.3519
▁aimsi	-10.3528
▁caipitiú	-10.3529
998	-10.3555
64	-10.3556
▁coimeád	-10.356
▁suime	-10.3567
▁amhras	-10.3569
▁gníomhach	-10.3573
Oireachta	-10.3576
▁bailí	-10.3581
▁Feidhm	-10.3587
Eilvéis	-10.359
▁fórsa	-10.359
▁hoibleagáid	-10.3594
▁cainé	-10.3595
▁Iomlán	-10.3599
▁inmhuir	-10.3608
▁fíon	-10.3608
▁Mheán	-10.3611
▁craiceann	-10.3615
▁Roghna	-10.3617
▁giorra	-10.3619
▁bótha	-10.3625
go	-10.3628
▁pictiúr	-10.3631
▁chead	-10.3656
▁meáchain	-10.3658
▁riocht	-10.3661
▁mionsonra	-10.3662
▁tráchta	-10.3663
▁Iasca	-10.3664
▁laethú	-10.3664
▁dhochtúir	-10.3667
▁Ráit	-10.3669
iseán	-10.3671
▁bainisti	-10.368
▁príosúnacht	-10.3697
▁48	-10.3697
▁éigeandála	-10.3699
▁ciste	-10.3708
▁thur	-10.3711
▁clúda	-10.3715
▁feithic	-10.3721
K	-10.3724
z	-10.374
F	-10.3744
▁reáchtáil	-10.3746
▁Chuarda	-10.3746
▁staitisticí	-10.3747
▁dea	-10.3753
▁Praghas	-10.3756
▁dhaingniú	-10.376
▁toirmeasc	-10.3762
▁dteagmhá	-10.3764
ANNA	-10.3765
tor	-10.3766
▁tháirg	-10.377
▁phionós	-10.3773
▁chustaiméir	-10.378
▁ealaín	-10.3789
▁toghchán	-10.3792
▁eochair	-10.3798
▁chúram	-10.3804
▁taise	-10.3808
ige	-10.3808
▁únaer	-10.3811
▁pá	-10.3814
osúil	-10.3818
stát	-10.3818
▁chorp	-10.3821
▁intinn	-10.3823
▁fostaíocht	-10.3823
▁Eo	-10.3825
▁Rialú	-10.3826
▁Mhár	-10.3826
▁New	-10.3838
▁dian	-10.3842
íolta	-10.3851
▁fheithic	-10.3867
IS	-10.3886
ÁS	-10.3893
▁caighdeánach	-10.3895
▁thiar	-10.3897
IN	-10.3903
▁liathróid	-10.3905
▁páipéir	-10.3905
▁Taighde	-10.3905
▁gcé	-10.3906
book	-10.3907
▁theasta	-10.3912
▁farraige	-10.3914
▁scríobh	-10.3923
▁41	-10.3927
▁IO	-10.3928
arainn	-10.3932
▁CEE	-10.3933
▁táirgthe	-10.3944
▁tairisc	-10.3975
▁bheag	-10.3975
▁dtáirgí	-10.3984
▁tiocfaid	-10.3993
▁ord	-10.4005
▁meascá	-10.4007
teorann	-10.4016
▁ionchúis	-10.4018
▁gníomhaíocht	-10.4018
▁carr	-10.4024
▁dár	-10.4025
cal	-10.4029
▁Teaghla	-10.4033
▁comhartha	-10.4034
▁cúrsa	-10.4036
▁treoirlín	-10.4052
▁son	-10.4059
▁eitilt	-10.4066
▁Fhrainc	-10.4066
▁Déardao	-10.4066
▁chríche	-10.4068
▁gaolmhar	-10.407
▁gúna	-10.4074
▁Tiocf	-10.4078
▁ex	-10.408
▁Shóisiala	-10.4084
▁ordachá	-10.4086
▁ga	-10.4091
▁Uaireadóir	-10.4093
▁cuibhe	-10.4101
ainmneach	-10.4108
▁mblia	-10.4115
▁mheasta	-10.4116
EASÚ	-10.4119
▁stát	-10.4119
▁seachada	-10.4121
▁rathú	-10.4122
▁Ceannai	-10.4123
▁Cáin	-10.4129
▁bp	-10.4129
▁Léig	-10.4132
68	-10.4147
▁Síne	-10.4157
T	-10.4161
mhaith	-10.4163
▁fáilte	-10.417
fhostaithe	-10.4173
▁hionstraim	-10.4174
he	-10.418
▁Iarrata	-10.4184
▁eolaíoch	-10.4186
fhéadfa	-10.419
▁deartha	-10.4194
▁scaipea	-10.4197
▁chostas	-10.4197
▁reachtach	-10.4212
chánach	-10.422
▁fhoirceann	-10.4226
▁chruinn	-10.4228
▁lag	-10.423
▁polaitiú	-10.423
▁dtuairim	-10.4231
▁Joint	-10.4231
▁vótáil	-10.4231
▁gceanta	-10.4231
▁sainráite	-10.4232
▁madra	-10.424
▁fhororda	-10.4249
▁rannpháirtíocht	-10.4252
▁Ph	-10.4254
▁Dollar	-10.4261
▁hoibre	-10.4262
▁bailiúchá	-10.4277
▁cáiliú	-10.4281
▁tábhacht	-10.4287
▁shiúl	-10.4307
isc	-10.4307
▁Cumhacht	-10.4312
▁corparáide	-10.4314
▁fhostaí	-10.4325
▁glasra	-10.4337
▁níor	-10.4338
▁Fheidhmiú	-10.4339
▁j	-10.434
▁chigire	-10.4342
▁fuinni	-10.4344
▁fhás	-10.4347
▁Caithf	-10.4348
▁sholáthra	-10.4349
▁Áirí	-10.4354
▁Eacnamaíoch	-10.4366
▁breithe	-10.4368
ard	-10.4374
▁imní	-10.4383
▁uachtar	-10.4385
nse	-10.4388
▁dhiaili	-10.439
▁Tugt	-10.4393
ma	-10.4393
▁Riail	-10.4397
▁Ghearmáin	-10.4397
▁himthosca	-10.4398
▁scáileá	-10.4398
▁polasa	-10.4398
▁Rialacha	-10.4402
▁gcúirt	-10.4402
▁domhanda	-10.4403
▁Roinne	-10.4404
▁tabha	-10.4408
ebate	-10.441
▁malart	-10.4411
▁cheal	-10.4415
▁sain	-10.4427
▁eagla	-10.4428
▁Tóg	-10.4429
▁roinn	-10.4434
▁cruthúna	-10.4439
▁mhuirearú	-10.4445
▁point	-10.4454
▁lámh	-10.4475
▁héifeachtach	-10.4475
▁dhear	-10.4477
▁Saoir	-10.4482
Óg	-10.4483
▁CF	-10.4485
▁90	-10.4494
▁fhágá	-10.4499
▁teas	-10.45
▁riala	-10.451
▁La	-10.4515
▁aca	-10.4525
▁Straitéis	-10.4532
samhail	-10.4533
▁Cumhachta	-10.4535
▁fhreagra	-10.4548
▁Chaibid	-10.4553
▁ghníomhaire	-10.456
▁víosa	-10.4566
▁Dearadh	-10.4567
▁ilbhliantú	-10.4567
▁iPhone	-10.4569
▁coiriúla	-10.4572
▁infheistíocht	-10.4575
▁Clib	-10.4579
▁cliceá	-10.4586
▁ordó	-10.4589
▁Uathoibríoch	-10.4594
▁Céim	-10.46
▁laghdaithe	-10.4604
▁Déantóir	-10.4607
▁National	-10.4613
ga	-10.4614
▁teachtaireacht	-10.4615
▁gcumas	-10.4618
▁bhfu	-10.4618
▁rolla	-10.4619
mhairc	-10.4619
▁tharchu	-10.4643
éadrom	-10.4643
▁inarb	-10.4645
▁Tábla	-10.4649
▁ghairmiú	-10.4651
▁meastóireacht	-10.466
▁ngníomhaíocht	-10.466
▁réasún	-10.4673
▁oibríocht	-10.4689
▁Coláist	-10.469
▁vóta	-10.4691
▁Té	-10.4694
▁taisce	-10.4696
▁príomha	-10.47
uaisceart	-10.4701
▁earrach	-10.4704
ortha	-10.4706
▁58	-10.471
▁suimiú	-10.4718
▁shannt	-10.4722
▁vótála	-10.473
▁fholaío	-10.4731
▁Tuairim	-10.4739
▁Comhphoba	-10.4743
▁tábla	-10.4743
▁buidéal	-10.4744
▁Oibre	-10.4744
▁Dubh	-10.4745
▁ab	-10.4746
▁cairde	-10.4747
▁Cainteoir	-10.4748
lib	-10.4748
▁dílseána	-10.475
▁toghchá	-10.4752
▁léigh	-10.4752
▁chuirfid	-10.4779
oireann	-10.4781
▁ionstraimí	-10.4786
▁su	-10.4794
▁Dh	-10.4797
oilsiú	-10.4799
uair	-10.4801
▁Tí	-10.4812
▁Beal	-10.4814
idir	-10.4817
▁toghachá	-10.4831
▁Sh	-10.4833
▁49	-10.4845
▁dháilea	-10.4846
▁allmhairiú	-10.4849
▁mp	-10.485
ioncam	-10.4855
▁fhad	-10.4855
▁Feabh	-10.4877
▁Glacfa	-10.4878
abhrú	-10.4879
iúcháin	-10.4882
▁plé	-10.4892
▁daonna	-10.4907
éir	-10.491
▁cuimhne	-10.491
▁tseachtain	-10.4914
namh	-10.4914
▁traenach	-10.4916
▁Diamond	-10.4916
eofa	-10.4919
▁taispeánta	-10.4919
▁fomhír	-10.4922
▁Super	-10.4925
▁uaireadóir	-10.4925
▁cáilíocht	-10.4927
▁fhoghlaim	-10.4932
▁State	-10.4936
nmhuirear	-10.4944
▁stórála	-10.4944
▁Fh	-10.4944
▁dúrad	-10.4946
▁chomaoin	-10.4951
▁hamhá	-10.4951
▁raghaid	-10.4952
▁díbhinn	-10.4965
▁Fo	-10.4968
iúint	-10.497
rdú	-10.4977
▁measa	-10.498
▁cruth	-10.4985
▁choinne	-10.4995
▁shaol	-10.5004
athrú	-10.5008
▁44	-10.5012
▁Leigh	-10.5017
▁As	-10.5021
▁oibrí	-10.5026
eolaíochta	-10.5033
▁Earra	-10.5035
▁bhótha	-10.5051
▁cheadó	-10.5055
▁rannpháirteach	-10.5063
▁díolachá	-10.5063
▁trácht	-10.507
sal	-10.507
▁Sonra	-10.5077
▁Éire	-10.5078
▁díospóid	-10.5093
▁tSeirbhí	-10.5093
▁Méad	-10.5093
▁bainc	-10.5093
▁Mheiriceá	-10.5094
▁breac	-10.5095
▁bhfostaíocht	-10.5095
▁Eile	-10.5097
próiseas	-10.5102
▁Treorach	-10.5105
▁píosa	-10.5106
illiún	-10.5116
▁iar	-10.5121
▁mhoill	-10.5122
▁bháis	-10.5125
ÓN	-10.513
▁meicniú	-10.5131
▁marc	-10.5131
ate	-10.5139
▁tuarasta	-10.5141
▁fios	-10.5142
▁riara	-10.5155
lú	-10.5157
éine	-10.516
▁sc	-10.5166
▁fhorghníomh	-10.5166
údar	-10.517
▁Chomhaont	-10.5176
▁choth	-10.5178
▁Sta	-10.5183
irteagal	-10.5208
▁bhainea	-10.521
▁gairm	-10.5215
▁chostais	-10.522
▁Ós	-10.5221
▁ceangailte	-10.5229
▁modhn	-10.5229
eachín	-10.523
▁baránta	-10.5235
▁Gh	-10.5239
san	-10.5241
▁próiseáil	-10.5242
▁Universit	-10.5244
▁ionadaithe	-10.5244
aithí	-10.5246
▁tarraing	-10.525
▁Comhalta	-10.5267
▁aimsir	-10.5271
▁dhualga	-10.5273
▁Google	-10.5274
▁scilling	-10.5275
▁díoltóir	-10.5281
láraitheoir	-10.5282
▁gComhphoba	-10.5283
▁fráma	-10.5283
▁Corparáide	-10.5285
▁leagfa	-10.5286
▁beirt	-10.5287
▁ualach	-10.5292
▁shealbhóir	-10.5292
▁bheart	-10.5296
▁cist	-10.5301
93	-10.5304
▁scáth	-10.5308
▁199	-10.5323
v	-10.5328
▁sonrófa	-10.534
▁chuarda	-10.535
▁Bia	-10.5363
▁cáilitheach	-10.5365
mar	-10.5371
▁Limisté	-10.5372
▁Cás	-10.5374
▁cothromaíocht	-10.539
▁chúit	-10.539
▁vótaí	-10.5414
▁ceal	-10.5424
▁seolta	-10.5429
▁iniúchóir	-10.5429
▁teagmhas	-10.543
de	-10.5436
▁deoch	-10.544
▁Sainmhíni	-10.5442
rt	-10.5444
ail	-10.5449
▁meastachá	-10.5451
▁ócáid	-10.5454
▁olc	-10.546
▁1994	-10.5463
▁dúbailte	-10.5467
▁Health	-10.5471
▁chreid	-10.5474
▁Sna	-10.5477
Shan	-10.5482
▁phlanda	-10.5487
saothrú	-10.5491
▁fhíorú	-10.5508
▁easpa	-10.5508
▁Áiritheo	-10.5508
tíre	-10.5514
bhunaithe	-10.5517
▁rialáil	-10.5519
▁Gairmiú	-10.552
▁féideartha	-10.5525
▁dearfach	-10.553
aisghabháil	-10.5532
▁tuarascála	-10.5539
▁Táirge	-10.5543
ná	-10.555
▁aeráid	-10.5565
▁seolad	-10.557
▁óspidé	-10.557
tube	-10.5573
▁shaothr	-10.5578
▁chlúdach	-10.5583
▁mhian	-10.5604
▁caoga	-10.5612
▁cóiríocht	-10.5615
▁ceangal	-10.5625
▁mic	-10.5626
▁sreabha	-10.5628
úsáideoir	-10.5636
chur	-10.5636
▁patrú	-10.5648
▁dóich	-10.5649
▁1960	-10.5649
▁Breataine	-10.5649
▁tsl	-10.5652
▁Nós	-10.5664
chaighdeán	-10.5673
▁So	-10.5674
▁euro	-10.5678
olctha	-10.5684
▁stáit	-10.569
▁orainn	-10.569
iarr	-10.5706
▁faisean	-10.5707
▁seachtainiú	-10.5718
▁leasmhar	-10.5725
▁gcúrsa	-10.5726
G	-10.5731
▁chuma	-10.5742
▁caithfi	-10.5745
IT	-10.5752
▁tarchur	-10.576
SE	-10.5763
COMHAIRLE	-10.5767
▁IN	-10.577
▁Bearta	-10.577
ur	-10.5779
O	-10.5791
▁uast	-10.5794
▁Gné	-10.58
▁mblian	-10.5803
cu	-10.5807
▁áireofa	-10.5807
CP	-10.582
▁dathanna	-10.582
▁Mhaigh	-10.582
▁múnla	-10.5824
▁feiste	-10.5834
▁mB	-10.5837
▁nádúr	-10.5837
▁casta	-10.5838
iomlán	-10.5838
▁breosla	-10.5841
▁Trádála	-10.5841
▁maireachtá	-10.5841
▁1972	-10.5842
▁Domhna	-10.5842
▁gréine	-10.5843
▁Lucht	-10.5844
▁miotail	-10.5845
▁Sula	-10.5849
▁cothabhála	-10.5851
▁scór	-10.5851
▁fhor	-10.5852
▁gairmiúla	-10.5853
▁Thuaidh	-10.5855
anaí	-10.5855
▁baol	-10.5863
▁óna	-10.5869
946	-10.5872
▁ghearr	-10.5874
aistrithe	-10.5875
▁astu	-10.5875
▁creat	-10.5875
▁bhall	-10.5876
▁dearmad	-10.5877
▁Iarratais	-10.5878
▁fóill	-10.5879
▁aeir	-10.5885
▁Appl	-10.5887
▁heagraíochta	-10.5887
▁sheol	-10.5891
▁cúirt	-10.5897
▁chaomhn	-10.5912
▁Ár	-10.5918
thas	-10.5922
▁tí	-10.5927
▁chorpr	-10.5936
▁achmair	-10.5953
▁fhorál	-10.5967
íocfa	-10.5968
▁díobhálach	-10.5972
▁02	-10.5975
▁oibreoir	-10.5994
▁deona	-10.5998
▁comhshocraíocht	-10.6003
▁óg	-10.6012
▁timpeallacht	-10.6021
▁eisío	-10.6023
▁nótaí	-10.6028
▁pionóis	-10.6037
▁monatóireacht	-10.6037
▁dhia	-10.6037
▁tiarna	-10.6038
▁fochuideachta	-10.6038
▁Phoba	-10.604
▁43	-10.604
▁bhfógra	-10.6041
▁1988	-10.6043
▁gCoist	-10.6044
▁poba	-10.6045
▁chríochnú	-10.6045
▁tsamhraidh	-10.6051
▁stop	-10.6051
▁crainn	-10.6051
▁mhíchumas	-10.6052
▁caidr	-10.6056
▁Digiteach	-10.6057
▁bua	-10.6058
▁47	-10.606
cuain	-10.6061
▁rúnaí	-10.6063
▁video	-10.6069
mheasann	-10.607
▁fáis	-10.6072
fhorála	-10.6073
▁stampa	-10.6077
ious	-10.6079
mhéid	-10.6081
▁choigeartú	-10.6085
H	-10.6086
▁dligh	-10.6086
▁lig	-10.6093
▁géar	-10.6095
co	-10.6099
▁Iompa	-10.6101
▁Chlár	-10.6102
▁ospidé	-10.6107
▁siúcra	-10.6112
mhuireara	-10.6138
▁ranníocaíochta	-10.6147
oirne	-10.6151
▁saoirse	-10.6163
ST	-10.6169
▁gluaisteá	-10.6171
TA	-10.6177
▁fá	-10.618
▁bróg	-10.6183
fort	-10.6183
ardú	-10.6185
▁chuirf	-10.6185
abhartha	-10.6195
▁dalta	-10.6199
▁éifeachtúlacht	-10.6204
▁Faisnéis	-10.6211
▁53	-10.6212
▁fhonn	-10.6212
▁Léir	-10.6218
▁52	-10.622
▁méad	-10.6222
▁ithreach	-10.6227
▁gcomhaont	-10.6228
▁chúig	-10.6231
▁chiste	-10.6234
bhuirg	-10.6236
▁teaghrá	-10.6237
▁uathúil	-10.6237
▁comhiomlán	-10.6238
▁1937	-10.6241
▁tógtha	-10.6242
▁thuairisc	-10.6242
▁RIALACHÁ	-10.6244
▁gairme	-10.6245
▁vitimín	-10.6249
▁píopa	-10.6249
Afraic	-10.6249
▁iontráil	-10.6252
▁gcomhthéacs	-10.6253
▁dtosa	-10.6257
▁ranníoc	-10.6258
éirí	-10.627
▁aoisliúnta	-10.6289
▁diaper	-10.6295
orleathan	-10.6299
▁Cúna	-10.63
▁bhfora	-10.6309
▁tasc	-10.631
▁phlean	-10.6315
▁snámha	-10.6319
▁feidhmíochta	-10.6325
▁ceapachá	-10.6325
▁eagrú	-10.6328
▁Có	-10.6336
▁Líon	-10.634
leibhéal	-10.6349
▁gComh	-10.635
▁muiri	-10.6353
▁Athbhreithni	-10.636
▁gar	-10.636
just	-10.6364
▁Measfa	-10.6365
▁Oiliún	-10.6368
▁Irish	-10.6371
chéile	-10.6371
iam	-10.6372
▁deonaío	-10.638
▁hathru	-10.6385
▁Soláthair	-10.6421
▁srian	-10.6425
▁Forál	-10.6426
▁soghluaiste	-10.6427
▁thion	-10.6439
▁Phoibl	-10.6441
▁gceangal	-10.6441
▁fulaing	-10.6441
▁aturnae	-10.6442
▁Limit	-10.6442
▁sláintiú	-10.6442
▁lampa	-10.6442
▁1978	-10.6444
▁dorcha	-10.6451
▁socraithe	-10.6453
ty	-10.6454
▁1961	-10.6454
achomharc	-10.6457
▁mianra	-10.6458
▁Sola	-10.6459
omhaid	-10.6459
▁rochta	-10.6462
▁gníomhaire	-10.6473
▁fón	-10.6485
▁insint	-10.6487
▁mhuirear	-10.6505
uaithe	-10.6518
céanna	-10.6524
▁inár	-10.6542
▁grád	-10.6543
▁brabús	-10.6546
▁Domhand	-10.6547
▁chomhlán	-10.6561
▁neamhní	-10.6563
▁Infheistíochta	-10.6566
▁Deir	-10.6568
▁uiscí	-10.6571
imeachta	-10.6582
▁chaillea	-10.659
▁nuacht	-10.6597
hoist	-10.6597
▁ullmha	-10.6599
▁fógraí	-10.6612
▁féachan	-10.6619
leachta	-10.6635
▁foirceanna	-10.6636
▁Sean	-10.664
▁dheona	-10.6649
▁bándearg	-10.6649
▁80	-10.6649
▁huathoibríoch	-10.6649
▁Cosaint	-10.6652
▁fhág	-10.6656
▁cheadúnais	-10.6657
▁teagaisc	-10.6657
fuirm	-10.6659
▁freagairt	-10.6662
▁current	-10.6662
▁ríomhaireachta	-10.6665
▁Slándá	-10.6665
eanta	-10.6666
iniúcha	-10.6667
▁dóiteáin	-10.6667
▁saoránach	-10.6673
▁folamh	-10.6675
▁phríobháideach	-10.6677
▁leaba	-10.6678
▁hoibríochta	-10.6683
▁ceol	-10.6683
▁lipéad	-10.6683
▁buiséad	-10.6688
▁lonnaithe	-10.6693
Daonlatha	-10.6694
sliú	-10.6698
▁dhéanfaid	-10.67
▁ghné	-10.6704
▁gceadúna	-10.6705
▁Scil	-10.6706
▁chaillteana	-10.6708
▁bhosca	-10.6708
▁Dúin	-10.6708
▁rannpháirt	-10.6712
▁dainge	-10.6713
altaí	-10.6715
▁Fad	-10.673
▁01	-10.673
▁Fir	-10.6735
▁cruthaío	-10.6738
▁É	-10.6747
▁haisc	-10.6751
▁bhuiséad	-10.6757
▁fais	-10.6763
▁éifeachtacht	-10.6763
▁Réigiún	-10.6767
▁tsao	-10.677
Gníomhaireacht	-10.6774
▁Teicneolaíocht	-10.6782
91	-10.6789
▁Am	-10.6814
▁staidr	-10.682
▁áititheoir	-10.6822
▁strap	-10.6837
▁bainte	-10.6838
▁smaointe	-10.6844
▁custaim	-10.6849
Fómh	-10.686
▁lotnaid	-10.6861
▁Public	-10.6862
▁Fórsa	-10.6862
oideachas	-10.6862
▁trádmharc	-10.6862
▁clasaiceach	-10.6863
▁Ioncu	-10.6864
▁Dhia	-10.6865
▁chuspóir	-10.6866
▁Nóta	-10.687
nóna	-10.687
▁choinníollach	-10.6873
eiceáil	-10.6873
▁neamhdhleathach	-10.6873
choiste	-10.6874
▁fuinneog	-10.6878
▁dheisiú	-10.6881
59	-10.6894
▁pláta	-10.6897
▁tíolaca	-10.6897
▁Andro	-10.6911
▁Leasu	-10.6913
▁iasachta	-10.6917
▁Oba	-10.6924
▁IP	-10.6924
▁chumann	-10.6933
27	-10.6935
▁uain	-10.6937
▁morgáiste	-10.6944
▁Teicneolaíochta	-10.6956
▁meastóireachta	-10.6961
nternational	-10.6964
aíochtaí	-10.6964
▁chua	-10.6973
▁só	-10.6975
isean	-10.6976
▁dhíreach	-10.6982
▁charm	-10.6983
▁clúdach	-10.6984
▁con	-10.699
▁ráthaíocht	-10.699
íche	-10.6994
ófa	-10.6999
▁oiriún	-10.7006
ous	-10.7018
pobal	-10.7033
▁foins	-10.704
▁áis	-10.7045
▁foghlaim	-10.7051
▁sona	-10.7056
▁úsáideach	-10.7067
▁Tuarascála	-10.7069
▁teachtaireachta	-10.7075
▁gcaithf	-10.7079
▁Charm	-10.708
▁PDF	-10.708
▁gcaoi	-10.708
▁1980	-10.7081
▁Treal	-10.7082
▁1977	-10.7084
▁troid	-10.7084
▁dúnta	-10.7085
man	-10.7089
▁Poba	-10.7091
▁léarscáil	-10.7093
▁leasaithe	-10.7094
▁oibriúcháin	-10.7096
45	-10.7101
▁gcúis	-10.7104
▁Áracha	-10.7105
fheidhmíocht	-10.7106
▁tweet	-10.7118
ionsaí	-10.7119
▁cruinneas	-10.7124
▁tarraingt	-10.7125
▁geall	-10.7127
▁gCaibid	-10.7128
▁chailín	-10.7132
IR	-10.7135
▁vótaíochta	-10.7138
ie	-10.7139
▁Ankara	-10.714
▁phearsa	-10.7148
tas	-10.715
▁Iar	-10.7157
sc	-10.7161
▁Sóisiala	-10.7175
▁tuairisciú	-10.7175
▁Aer	-10.7175
▁léirithe	-10.7182
▁áiríte	-10.7182
▁Bardas	-10.7189
ments	-10.7189
▁Face	-10.7196
▁docht	-10.7203
▁phlé	-10.7219
▁1990	-10.722
pháipéir	-10.7223
▁árasá	-10.7233
▁scoláir	-10.7234
▁díobháil	-10.7235
▁k	-10.7241
▁Rúise	-10.7243
▁bain	-10.7248
racha	-10.7252
igthe	-10.7257
▁phinsin	-10.7257
▁scil	-10.7266
athar	-10.7268
▁brí	-10.7269
breá	-10.7273
áiste	-10.7282
▁ghlacfa	-10.7285
▁sruth	-10.7289
ogadh	-10.729
▁chionta	-10.7291
▁mola	-10.7292
▁eisia	-10.7294
▁sliocht	-10.7301
▁phlandáil	-10.7302
▁Tairiscint	-10.7303
▁measartha	-10.7305
▁mbearta	-10.7307
▁dlíthiúla	-10.7312
mharcáil	-10.7315
▁Fhorbairt	-10.7315
▁sneachta	-10.7316
▁Náisiún	-10.7322
▁66	-10.7322
▁bradá	-10.7324
ml	-10.7324
▁chuntais	-10.7324
▁Réamh	-10.7328
▁gníomhaireachta	-10.7328
▁chonartha	-10.7331
▁Costais	-10.7335
▁inneal	-10.7351
▁bP	-10.7361
▁China	-10.7365
▁theaghla	-10.7369
▁bainteach	-10.7374
ionad	-10.738
11	-10.7382
▁slabhra	-10.7384
▁coigeart	-10.7386
▁shainmhín	-10.7389
▁gealltana	-10.739
▁51	-10.739
▁miondíol	-10.7391
▁dé	-10.7395
ochta	-10.7402
▁ranníocaí	-10.7405
▁tsocha	-10.7411
▁tábhachta	-10.7417
▁saincheist	-10.7426
EANNA	-10.7434
▁shoot	-10.7436
▁Solátha	-10.7437
ínte	-10.7445
Uachtarán	-10.7446
▁Glac	-10.7456
▁Dearbh	-10.7456
▁120	-10.7466
▁comhshao	-10.7469
Parliament	-10.7482
▁un	-10.7491
▁bhuna	-10.7496
▁shon	-10.7509
▁arm	-10.7516
▁scrúdu	-10.7519
ailse	-10.7523
chleachta	-10.7524
▁déanach	-10.7526
▁toirmisc	-10.7526
▁Fuinn	-10.7527
▁dlítheanach	-10.7529
▁Talún	-10.753
▁Comhlacht	-10.7532
▁1974	-10.7533
▁thuismitheoir	-10.7533
▁cearnach	-10.7534
esistant	-10.7539
▁tap	-10.7543
▁DE	-10.7547
▁taisc	-10.7553
▁gcolú	-10.7559
eadhon	-10.7561
▁chúl	-10.7562
Bailiúchá	-10.7566
▁Méid	-10.7568
idirdhealú	-10.7569
▁rotha	-10.7575
▁foilsiú	-10.7576
▁nuachtá	-10.7576
▁Fáilt	-10.7579
▁béil	-10.758
▁innealtóireacht	-10.7586
▁fhostóir	-10.759
▁aisling	-10.7602
▁Dhei	-10.7603
ionann	-10.7604
▁iomarcach	-10.7605
▁chrutha	-10.7609
▁árachas	-10.7611
▁bhrú	-10.7614
▁tharmlig	-10.7617
▁dho	-10.7619
▁litreach	-10.7634
▁shíni	-10.7647
▁síológ	-10.7649
▁se	-10.7652
▁sia	-10.7652
▁Comhshao	-10.7657
▁inghlactha	-10.7661
lainn	-10.7663
▁Úcráin	-10.7665
chuid	-10.7672
▁muinín	-10.7675
▁aire	-10.7677
▁láimhseá	-10.768
▁loingseoireacht	-10.7694
▁athchomharc	-10.7714
▁togha	-10.7718
▁síol	-10.7736
CHA	-10.774
▁muir	-10.7741
▁per	-10.7742
ary	-10.7742
▁Comhaont	-10.7743
▁Nó	-10.7745
lag	-10.7748
▁Nío	-10.775
▁mhargai	-10.7751
ows	-10.7755
▁aquarium	-10.7755
▁mhonar	-10.7756
arraí	-10.7758
▁geal	-10.7761
▁dtarló	-10.7761
▁Meaisín	-10.7761
uathu	-10.7763
▁saothar	-10.7763
▁Wind	-10.7766
19	-10.7767
hósta	-10.7767
▁Pleanála	-10.777
en	-10.7771
nill	-10.7774
airm	-10.7777
▁toir	-10.7779
ive	-10.778
▁dlúth	-10.7782
▁Críostaí	-10.7787
▁chúrsaí	-10.7792
úint	-10.7802
▁snasta	-10.7805
▁bheatha	-10.7811
▁háite	-10.7813
▁glao	-10.7828
▁Cáilíochta	-10.7829
oinn	-10.7838
▁leithdháilea	-10.7847
▁Cum	-10.7848
tBank	-10.7849
▁Art	-10.785
▁ionfhabht	-10.785
▁dícháil	-10.7853
▁Leid	-10.7861
▁or	-10.7865
▁Neamh	-10.7866
▁mbainf	-10.7884
▁trédhearcach	-10.7887
▁mionsonraí	-10.789
▁bóthar	-10.7893
▁cúltaca	-10.7894
▁Commission	-10.7895
▁Liosta	-10.7909
▁thástá	-10.7922
▁tarl	-10.7923
▁comhpháirteach	-10.7925
▁bhailíocht	-10.7932
▁ionadaíocht	-10.7937
▁gcomhpháirt	-10.7938
▁inbhuanaithe	-10.794
▁háit	-10.7953
▁Ceanna	-10.7954
▁iarrfa	-10.7963
háinig	-10.7968
▁nÃ	-10.7973
▁onnmhairiú	-10.7983
▁pas	-10.7985
▁Leaba	-10.7986
logy	-10.7987
úlra	-10.7989
▁feirme	-10.7996
▁tO	-10.7997
▁Service	-10.7999
▁Suíomh	-10.7999
▁hinstitiúid	-10.8003
▁snáithín	-10.8006
▁fhormheas	-10.8007
▁idirbheart	-10.8007
926	-10.8009
▁Rialaithe	-10.801
▁achoimre	-10.8011
▁cheithre	-10.8013
▁dtrí	-10.8015
▁riarthóir	-10.8016
iúd	-10.8026
▁mm	-10.8028
▁barra	-10.8045
▁Gaillimhe	-10.8047
▁fhostaíocht	-10.8049
▁pósta	-10.8052
▁bhás	-10.8053
▁98	-10.8055
▁ce	-10.8064
oibreoir	-10.8072
▁fómha	-10.8074
▁earráid	-10.8076
▁Aonair	-10.8079
▁othar	-10.8082
▁orm	-10.8086
scrío	-10.8087
▁Fhorá	-10.8096
▁more	-10.8096
▁líomhna	-10.8104
▁gceangla	-10.8107
▁moill	-10.8108
ascach	-10.8111
▁Coinníollach	-10.8113
▁deas	-10.8116
▁gheobha	-10.8122
NA	-10.8122
▁Thosa	-10.8123
▁Ceanta	-10.8132
all	-10.8133
▁crios	-10.8135
▁eagra	-10.8137
939	-10.8144
▁Molta	-10.8146
▁co	-10.8146
▁dhlíthiú	-10.8155
▁thriail	-10.8159
óg	-10.8162
éiteach	-10.8169
▁dhíth	-10.8174
▁sástacht	-10.8175
Oidhreachta	-10.8185
chiste	-10.819
▁Airgead	-10.8195
▁luí	-10.8196
▁tairbhí	-10.8205
tair	-10.8217
hraitheann	-10.8219
aire	-10.8221
▁bheirt	-10.8232
▁Breithiúna	-10.8232
▁Shóisial	-10.8233
so	-10.8235
▁láidre	-10.8236
ainmniú	-10.8237
▁rapóirtéir	-10.8237
▁Frith	-10.8238
▁Caighdeán	-10.8241
▁ragha	-10.8241
▁LEIS	-10.8244
ou	-10.825
▁hachtachá	-10.825
▁Cóipeá	-10.8251
▁du	-10.8251
▁Rochta	-10.8253
▁creidmheas	-10.8254
▁déanfaid	-10.8255
▁sheiceáil	-10.8255
▁Financ	-10.8255
▁bhuail	-10.8258
▁rialála	-10.8259
▁thomhas	-10.8264
▁dinea	-10.8267
▁Buna	-10.8269
phinsean	-10.8269
▁Re	-10.8272
56	-10.8278
Aois	-10.8281
▁báis	-10.8283
▁soicind	-10.8283
▁Bliain	-10.8284
▁Cháin	-10.8287
▁Ath	-10.8288
▁shonrach	-10.8289
▁fiacha	-10.8292
▁bhail	-10.8296
▁fhaillí	-10.8301
▁Pro	-10.8303
▁thuarascá	-10.831
▁Coiriú	-10.8324
▁oibrío	-10.8334
▁puiblí	-10.8336
dálaí	-10.8339
▁thrádáil	-10.834
▁lascain	-10.834
▁cuimilteo	-10.8343
▁macasamh	-10.8349
▁seiceála	-10.8349
▁chomhlíon	-10.8357
▁Eaglais	-10.8362
▁cháilíocht	-10.8372
▁bhfoca	-10.8377
▁57	-10.8381
▁cath	-10.8386
úinéir	-10.839
▁PC	-10.8396
▁ionchur	-10.8396
ghabháil	-10.8404
▁bhriseadh	-10.8405
▁250	-10.8416
▁Féadf	-10.842
▁pearsa	-10.8422
▁forlíontach	-10.8427
BL	-10.8429
▁Íocfa	-10.8431
▁Po	-10.8438
▁liacht	-10.8438
▁tu	-10.8443
▁Pá	-10.8443
▁fíorú	-10.8454
▁Beag	-10.8455
▁Áise	-10.8464
ice	-10.8467
▁huisce	-10.8471
▁iarrthó	-10.8473
ful	-10.8473
▁orgánach	-10.8476
▁naoi	-10.8479
▁sonraíochta	-10.8479
▁Bliana	-10.8481
▁saorána	-10.8485
▁comhlacha	-10.8486
cheart	-10.8493
▁oiriúint	-10.8493
▁lógó	-10.8494
▁fiáin	-10.8494
▁praiticiú	-10.8494
▁Seapáin	-10.8495
▁mhic	-10.8495
▁fachtóir	-10.8495
▁bhfomhír	-10.8496
▁seasta	-10.8498
▁mhainn	-10.85
daonra	-10.85
▁Foireann	-10.8502
▁Mac	-10.8502
▁ghníomhach	-10.8503
▁hiarratais	-10.8504
▁thionscada	-10.8507
▁sceimhlitheoir	-10.8508
▁carachta	-10.8509
▁foghlam	-10.8509
▁sásra	-10.8511
▁thaiscea	-10.8514
▁comhachta	-10.8514
▁béim	-10.8522
▁comhlachais	-10.8524
stáil	-10.853
▁lasta	-10.853
▁caol	-10.8533
▁riaráist	-10.8534
iche	-10.8535
90	-10.8537
▁1941	-10.8537
▁Acmhainní	-10.854
▁nóta	-10.8541
iarrthóir	-10.8544
▁toil	-10.8545
▁cháil	-10.8552
reibh	-10.8558
▁hiarratas	-10.856
▁fhorchu	-10.8561
▁urlá	-10.8562
▁comhla	-10.8563
▁méadaithe	-10.8564
▁tSeana	-10.8569
▁68	-10.857
▁gcruthófa	-10.857
▁deon	-10.8575
eisiúna	-10.8589
▁Lig	-10.8592
▁barracha	-10.8595
luach	-10.86
▁díolmh	-10.8602
▁poll	-10.861
▁bhainistíocht	-10.8618
▁ardlua	-10.8618
▁iomlána	-10.8619
aisghair	-10.863
▁ngabh	-10.8633
▁chroí	-10.8643
▁Freagra	-10.8646
▁gcinnf	-10.8655
▁Costa	-10.8666
fh	-10.8667
be	-10.8668
iste	-10.8675
▁fiach	-10.8678
▁athchóiriú	-10.8681
▁óstá	-10.8684
▁Lt	-10.8686
▁ordóid	-10.8693
▁gClár	-10.8699
▁dáileog	-10.87
ance	-10.8701
▁rabha	-10.8703
▁fáinn	-10.8706
▁shaor	-10.871
beaga	-10.871
▁héifeachta	-10.8713
▁úr	-10.8715
▁Críost	-10.8722
▁56	-10.873
▁59	-10.8741
▁mheasúnacht	-10.8741
ng	-10.8744
▁cúl	-10.8744
▁seans	-10.8746
▁bhfaisnéis	-10.875
▁Deontais	-10.875
THE	-10.875
▁theip	-10.875
▁SEAS	-10.8751
▁Bhainc	-10.8751
▁geografach	-10.8752
▁gcaiteacha	-10.8752
▁eintit	-10.8752
▁fhorordó	-10.8752
▁colún	-10.8753
▁Stage	-10.8753
▁bonneaga	-10.8756
▁Bí	-10.8757
▁chiallaío	-10.8758
▁Gnéas	-10.8759
▁mhalartú	-10.8761
▁Parlaiminte	-10.8763
NCA	-10.8764
▁Tacaíocht	-10.8765
▁leithleach	-10.8765
▁Bursa	-10.8767
▁comhordú	-10.8769
▁Amach	-10.8769
▁1958	-10.8769
▁cobhsaíocht	-10.8773
▁téama	-10.8777
▁Arm	-10.8777
▁Io	-10.8782
aicm	-10.8786
▁197	-10.8787
aisíoc	-10.8789
IAS	-10.879
▁gcúrsaí	-10.8793
▁leithead	-10.8793
▁cumhrá	-10.8794
▁Aib	-10.8797
▁bunús	-10.8801
▁Tu	-10.8803
▁Tuairisc	-10.8809
▁Bainf	-10.881
▁bainis	-10.8822
▁fréamh	-10.8832
▁x	-10.8833
omhdhéanta	-10.8839
▁63	-10.8841
Eanáir	-10.8843
óiste	-10.8843
▁73	-10.8844
▁athraithe	-10.8847
▁héifeacht	-10.8848
▁luadhfa	-10.8873
dhíreach	-10.8875
naisc	-10.8878
▁ollscoil	-10.8883
ícheart	-10.8892
athanna	-10.8893
aoiseach	-10.8893
SIS	-10.8898
▁Big	-10.8908
▁bhrabú	-10.8916
▁Teanga	-10.8917
▁Gníomh	-10.8924
▁infheidhm	-10.8925
ium	-10.8928
▁bhia	-10.8931
ras	-10.894
▁chor	-10.8941
▁tóga	-10.895
▁máist	-10.8955
mhar	-10.8957
▁toba	-10.8965
▁fhoins	-10.897
▁Frainc	-10.8973
▁Ré	-10.8973
▁ceannach	-10.8977
▁sciath	-10.8988
▁aistriúchá	-10.8988
▁neamhspleácha	-10.901
▁shocró	-10.9013
▁cosantóir	-10.9013
▁USB	-10.9014
▁uait	-10.9014
▁1970	-10.9015
▁criostail	-10.9015
▁suiteáil	-10.9016
▁chólucht	-10.9017
▁ciorca	-10.9023
▁Struchtúr	-10.9028
▁próisis	-10.9028
ime	-10.903
▁thoirmeasc	-10.903
▁Sábháilteacht	-10.903
léim	-10.9031
ball	-10.9031
▁Mp	-10.9035
▁TF	-10.9038
▁diúltach	-10.9039
▁Maisiú	-10.904
▁séasúr	-10.9042
▁iontrála	-10.9042
▁ET	-10.9042
▁shimpl	-10.9044
▁cumhda	-10.9048
▁tomhais	-10.9052
▁déileál	-10.9054
▁rí	-10.9055
▁Sonraíocht	-10.9056
▁fhreagairt	-10.906
▁chónaí	-10.9062
▁fianá	-10.9067
▁1995	-10.9068
▁Dún	-10.9069
iseal	-10.907
▁scairchaipit	-10.9075
▁blianachta	-10.9075
rl	-10.9076
▁fiosrú	-10.9077
▁gheofa	-10.909
eáin	-10.9091
▁fhaois	-10.9096
▁táirgeoir	-10.9097
▁scagair	-10.9101
▁ailtireacht	-10.9104
mhlacha	-10.9107
▁cheiliúra	-10.9108
▁áise	-10.9116
▁púda	-10.9118
▁tírdhreach	-10.9122
▁uiscedhíonac	-10.9136
ACH	-10.9137
▁No	-10.9149
raiceann	-10.915
▁Hid	-10.9155
glaoch	-10.9158
ríche	-10.9159
▁uirbeach	-10.916
aghaidh	-10.916
IGH	-10.9168
▁dleachta	-10.9174
▁95	-10.9176
▁ranníoca	-10.9177
▁trá	-10.9181
▁eachtrach	-10.9182
▁Aireacht	-10.9186
▁mothú	-10.9187
▁margaí	-10.9188
▁72	-10.919
▁minicíocht	-10.919
▁sínea	-10.9196
▁pobal	-10.9204
▁cógas	-10.9208
▁chúrsa	-10.9212
ird	-10.922
▁Leagan	-10.922
▁Du	-10.9228
▁Bhó	-10.9232
iarrachtaí	-10.9233
▁mhúinteoir	-10.9234
▁ruba	-10.9235
▁comhlán	-10.924
ture	-10.9262
▁Dleacht	-10.9271
▁gcuma	-10.9275
▁03	-10.9276
hibhialta	-10.9277
▁gcaithea	-10.9283
▁tuirlingt	-10.9283
▁countertop	-10.9283
▁Cárta	-10.9283
▁tiomáint	-10.9284
▁claochladá	-10.9285
▁Sheirbhís	-10.9288
▁contrártha	-10.929
▁Eachtracha	-10.9291
▁cháis	-10.9294
▁imreoir	-10.9296
daite	-10.9296
▁Pháirt	-10.9299
▁breiseán	-10.9301
▁luachála	-10.9303
▁thabha	-10.9314
▁duille	-10.9314
▁fhiach	-10.9315
▁AG	-10.9317
▁triú	-10.9319
▁Poblacht	-10.9321
ochairfhoca	-10.9325
▁téigh	-10.9329
▁comhthá	-10.9346
▁info	-10.9347
one	-10.9355
▁chatagóir	-10.9355
▁fheiste	-10.9358
core	-10.9358
▁sealbh	-10.9368
▁coinne	-10.9371
▁me	-10.9378
▁luibhe	-10.9379
▁feast	-10.9381
▁pota	-10.9394
▁Socha	-10.9402
ionadaithe	-10.9403
▁chorparáide	-10.9406
líne	-10.9409
▁fírinne	-10.9416
▁ráthaíochta	-10.9417
▁par	-10.9417
ghluaiste	-10.9427
luais	-10.9431
▁07	-10.9433
▁CD	-10.9435
▁bhfeidhmiú	-10.9436
dán	-10.9438
36	-10.944
▁Bun	-10.9443
dirlíon	-10.9443
▁droch	-10.9449
▁Gearr	-10.9455
▁Chóra	-10.9455
ugann	-10.9459
tais	-10.9461
▁shraith	-10.9466
leabhar	-10.9471
▁thaifeada	-10.9474
▁coga	-10.9475
▁airleaca	-10.9486
burg	-10.949
list	-10.95
▁Sláintíoch	-10.9507
▁cláru	-10.9512
▁comhionanna	-10.9515
fheicthe	-10.9522
▁leag	-10.9525
chtaí	-10.9528
ian	-10.9529
936	-10.9533
▁tríocha	-10.9544
▁VII	-10.9545
mid	-10.955
éara	-10.9554
mhaid	-10.9557
▁Gearmáin	-10.9561
▁dealraitheach	-10.9561
▁xxx	-10.9561
▁mheabhair	-10.9561
▁Seomra	-10.9562
▁1940	-10.9562
fhuascailt	-10.9562
▁fíorai	-10.9562
▁with	-10.9564
▁ceannaitheoir	-10.9567
▁phróisis	-10.9568
fhírinne	-10.9569
dhílse	-10.9576
▁mbonn	-10.9577
▁chonaic	-10.9578
▁Cheanna	-10.958
▁eiseo	-10.958
▁forchuir	-10.958
▁1962	-10.9581
▁Il	-10.9582
hoblacht	-10.9583
▁comhtháth	-10.9586
▁smacht	-10.9588
iasc	-10.9591
▁riar	-10.9596
zine	-10.9599
den	-10.96
▁gearrtha	-10.9605
▁móide	-10.9607
▁69	-10.9609
▁dhualgais	-10.961
▁Údar	-10.9611
▁saibh	-10.9614
mais	-10.9614
▁Leabhar	-10.9615
▁fionta	-10.9615
▁shain	-10.9618
▁hailt	-10.9618
33	-10.9622
▁Réigiúnach	-10.9639
▁Oibrío	-10.964
▁príobháideacha	-10.964
▁sínithe	-10.9642
schur	-10.9642
▁mban	-10.9646
▁pháist	-10.9646
▁Tora	-10.9648
▁Rúis	-10.9649
▁thomhaltóir	-10.965
▁thogha	-10.9663
eithead	-10.9666
eur	-10.9667
shláint	-10.9682
omhshaoil	-10.9683
▁measúnacht	-10.9685
▁fán	-10.9689
▁bhallóid	-10.9696
▁thiomáint	-10.9697
▁uasghrád	-10.9698
▁India	-10.9705
▁banc	-10.971
ionraí	-10.9711
▁Coinn	-10.9715
▁comhoibri	-10.9715
▁inniúlacht	-10.9721
▁shainaith	-10.973
908	-10.973
únaer	-10.9734
▁Leanúin	-10.9736
▁caora	-10.9751
▁bhainfea	-10.9763
lacht	-10.9772
tóir	-10.9774
▁400	-10.9779
▁300	-10.9782
▁1989	-10.9789
▁Scoile	-10.9802
▁gCon	-10.9804
▁Liúnta	-10.9817
uimhir	-10.9835
▁chumai	-10.9839
sheilbh	-10.984
▁athraío	-10.9841
ichead	-10.9843
últaca	-10.9846
▁Staitistic	-10.9847
▁WHO	-10.9847
▁bhfoirgn	-10.9847
▁gaineamh	-10.9847
▁Stíl	-10.9847
▁chólíona	-10.9847
oine	-10.9847
▁Phrótaca	-10.9847
▁scriú	-10.9847
▁1949	-10.9849
▁painé	-10.9849
▁margaíocht	-10.985
▁Shábháilteacht	-10.9852
▁tsraith	-10.9853
sperm	-10.9854
▁AC	-10.9855
▁Caibidl	-10.9857
chomhshó	-10.9859
▁fadtéarmach	-10.9861
▁fhómha	-10.9864
▁buille	-10.9865
▁1983	-10.9868
▁normal	-10.9868
▁chumhachta	-10.987
▁gnáthchóna	-10.9872
▁comhlíonta	-10.9873
▁eisceachtú	-10.9874
fíric	-10.9883
▁rath	-10.9891
▁phun	-10.9892
▁cócaireacht	-10.9892
▁dtéarma	-10.9893
▁cnaipe	-10.9893
▁08	-10.9894
▁Aisghair	-10.9895
▁fhógair	-10.9898
▁chánach	-10.9899
shuim	-10.9901
fheidhm	-10.9902
▁thús	-10.9905
▁Taispeánta	-10.9911
▁gcoimeád	-10.9911
▁clocha	-10.9915
áthair	-10.9922
▁eascra	-10.9925
▁próifíl	-10.9925
▁choga	-10.9925
▁coiriú	-10.9935
acair	-10.9938
▁Bhreithiúnai	-10.9943
▁locht	-10.9944
▁Réit	-10.9945
díotáil	-10.9948
▁Beo	-10.9948
▁Oifigeach	-10.9949
▁lítear	-10.9951
ocal	-10.9963
▁Ríomh	-10.997
▁dífhostaíocht	-10.9978
do	-10.9984
▁cháilitheach	-10.9984
▁nuálaíocht	-10.9985
▁stiúra	-10.9987
▁Ú	-10.9991
▁bhfabh	-10.9991
huaigh	-10.9992
aill	-10.9994
▁coinn	-10.9999
▁fhorchuir	-11.0009
▁scaoilte	-11.0011
▁taca	-11.0011
▁marbh	-11.0012
▁nasctha	-11.0028
▁Conrad	-11.0028
▁li	-11.0032
▁62	-11.004
▁eadrána	-11.0041
▁MAIDI	-11.0042
aille	-11.0046
▁iomaíocht	-11.0046
▁meái	-11.0046
▁caith	-11.0048
▁hOifige	-11.0051
SIN	-11.0053
▁feidhmíocht	-11.0057
eitheamh	-11.0059
Sín	-11.0063
▁Tos	-11.0063
▁ghiniú	-11.0074
éann	-11.0076
▁thaifead	-11.0089
▁mhion	-11.0089
net	-11.0093
▁buiséadach	-11.0093
▁Buan	-11.0098
▁mBail	-11.0099
iad	-11.0103
▁láithreacha	-11.0104
▁cheachta	-11.0106
▁sráide	-11.011
▁pleanáil	-11.0115
lá	-11.0118
lánta	-11.0124
▁Gnó	-11.0129
oisghrúpa	-11.0133
icrosoft	-11.0137
▁Teaghrán	-11.0141
▁céatadá	-11.0141
▁Múinteoir	-11.0141
▁Dearg	-11.0141
▁Black	-11.0141
▁ww	-11.0141
▁póca	-11.0141
▁EP	-11.0142
urscaoilte	-11.0142
▁dáileoir	-11.0142
▁diosca	-11.0143
▁SOCRÚ	-11.0143
▁dheis	-11.0143
▁foriomlán	-11.0146
▁dhiúltó	-11.0146
▁ghléasra	-11.0146
▁hoifige	-11.0148
▁1975	-11.0148
▁chionroinnt	-11.0149
▁rásaíocht	-11.0149
▁gcineál	-11.0151
oibr	-11.0154
▁Breith	-11.0156
▁neamhghnách	-11.0156
▁cu	-11.0157
▁straitéiseach	-11.016
▁1950	-11.0162
▁Sínis	-11.0165
▁intu	-11.0165
▁gnólachta	-11.0166
▁cuimsitheach	-11.0166
▁ranga	-11.0168
▁bhfeidhmeanna	-11.0172
▁ceamara	-11.0179
▁neamhniú	-11.0181
▁ghrád	-11.0184
▁re	-11.0189
io	-11.0189
▁Li	-11.0189
▁Report	-11.019
▁fuil	-11.0206
▁Bunúsach	-11.0221
▁89	-11.0221
▁Seacha	-11.0222
thain	-11.0223
▁táiblé	-11.0226
35	-11.0234
▁feirmeoireacht	-11.0239
▁cruthaithe	-11.0242
▁foirmiú	-11.0245
▁bhainistí	-11.0245
▁Íocaíochta	-11.0246
▁scia	-11.0248
▁theach	-11.0251
▁Tuismitheoir	-11.0255
▁chóip	-11.0256
▁Dearbhu	-11.0258
▁dheir	-11.026
rainn	-11.026
▁Riarachá	-11.0261
▁fuck	-11.0263
▁díobhála	-11.0265
▁ceimiceá	-11.0269
▁Láriona	-11.027
86	-11.0276
▁sheirbhíse	-11.0285
▁cine	-11.0288
▁dílseach	-11.0295
▁thit	-11.0295
▁meá	-11.0313
▁Ospidé	-11.0315
▁shanna	-11.0319
▁cló	-11.0324
▁Cuideachtan	-11.0326
▁oibreo	-11.0326
▁caithea	-11.0329
▁sholáthró	-11.0342
▁bhuan	-11.0345
▁chinnfea	-11.0348
áirithe	-11.0355
▁Spáinn	-11.0363
▁cíosa	-11.0365
▁plátáil	-11.0385
▁ngnó	-11.0385
way	-11.0389
íocann	-11.0392
RAS	-11.0392
▁hacmhainn	-11.0394
oibleagáid	-11.0396
▁casa	-11.0401
▁dhúna	-11.0403
▁61	-11.0403
▁stad	-11.0411
ionnsca	-11.0412
▁chaipit	-11.0417
▁freagrachta	-11.042
▁Uairean	-11.042
Pad	-11.0421
▁bhrath	-11.0425
▁Tit	-11.0426
▁Ábha	-11.043
10	-11.0433
▁Naom	-11.0435
▁Glan	-11.0437
▁solúbtha	-11.0438
aigheann	-11.0442
▁Turasóireacht	-11.0444
▁ghréasá	-11.0444
▁íoslucht	-11.0444
▁Barbour	-11.0444
▁bplean	-11.0444
▁nGall	-11.0444
▁Corparáideach	-11.0445
▁Dúithch	-11.0445
▁codlata	-11.0446
▁spórt	-11.0446
▁bhformáid	-11.0446
▁1979	-11.0447
▁gaile	-11.0447
▁ríthábhachtach	-11.0447
CÁIL	-11.045
▁Samsun	-11.0451
▁125	-11.0451
▁rás	-11.0451
▁cliste	-11.0453
chais	-11.0455
▁milis	-11.0464
▁rithte	-11.0466
▁breithiúnach	-11.0468
luaite	-11.0468
▁aistreo	-11.0469
ndiúscar	-11.0471
mhná	-11.0474
▁hábhar	-11.0475
Béarla	-11.0476
▁Socra	-11.0478
▁gcú	-11.0481
▁Fuai	-11.0486
▁dtag	-11.0489
EM	-11.0493
▁Chá	-11.0496
áis	-11.0509
▁taifeadta	-11.0509
▁mhionn	-11.0511
aighdeáin	-11.0515
III	-11.0515
▁dhí	-11.0517
▁cá	-11.0519
▁loinge	-11.052
W	-11.0521
▁Éil	-11.0523
▁inslithe	-11.0528
▁Roinnt	-11.0532
▁pianbhreith	-11.0533
▁Comment	-11.0542
▁GO	-11.0545
▁nglacad	-11.055
irigh	-11.0551
▁Adhma	-11.0553
▁foilsío	-11.0565
▁ghnéas	-11.0572
▁críochnaitheach	-11.058
▁thrádála	-11.0582
▁Mara	-11.0584
rialacha	-11.0589
▁dtaga	-11.0589
▁CO	-11.0605
▁silt	-11.0616
J	-11.0621
▁06	-11.064
▁09	-11.065
nas	-11.0651
▁Tras	-11.0656
tom	-11.0662
▁Reacht	-11.0665
▁tS	-11.0673
▁Port	-11.0677
▁mais	-11.0684
▁luadh	-11.0686
▁Eolaíochta	-11.0696
anam	-11.0702
▁bhanna	-11.0706
▁fhorord	-11.0707
▁romhai	-11.0708
▁déileála	-11.0711
▁We	-11.0722
oi	-11.0728
ag	-11.0729
▁Sráid	-11.0738
ogearra	-11.0741
aisghairm	-11.0741
▁samhail	-11.0743
imreoir	-11.0746
▁sholáthraí	-11.0755
▁thaisbeá	-11.0756
▁gcuspóir	-11.0756
▁raidió	-11.0756
▁gearrthóg	-11.0756
▁héigeanta	-11.0756
▁mhainneachtain	-11.0756
▁Office	-11.0756
▁caipín	-11.0756
▁Techno	-11.0756
▁Talamh	-11.0757
▁Dhún	-11.0757
▁Chláir	-11.0757
United	-11.0758
▁Amharc	-11.0758
▁aonfhoirmeach	-11.0759
choróin	-11.0759
▁Bhuan	-11.076
dhlíthe	-11.0761
▁Teilifíse	-11.0761
▁Gléas	-11.0761
▁Scannán	-11.0762
▁bhfostóir	-11.0763
▁ISO	-11.0763
▁dearbhu	-11.0764
▁inmheána	-11.0767
▁Monatóireacht	-11.0767
▁Fásta	-11.0767
▁mainneachtain	-11.0772
▁haois	-11.0776
▁saincheiste	-11.0776
▁tíotáiniam	-11.0776
áilleacht	-11.0778
forbairt	-11.0778
▁05	-11.0781
rimh	-11.0786
▁Liúntais	-11.079
▁Free	-11.0792
▁nglac	-11.0793
▁bhfreagra	-11.0801
phinsin	-11.0806
▁daor	-11.0808
▁idirlí	-11.0812
▁Cá	-11.0815
comhthéacs	-11.0817
éis	-11.082
▁inrát	-11.0823
▁ainneo	-11.0826
▁ceada	-11.0828
▁ionchui	-11.0831
idirlíon	-11.0833
lón	-11.0837
▁chaidr	-11.0838
▁cliniciú	-11.0843
▁Word	-11.0845
▁uibhe	-11.0845
▁tionól	-11.0859
▁chatha	-11.086
▁Oileá	-11.086
▁hard	-11.0868
▁beze	-11.0873
▁Gréasá	-11.0874
▁Foilseachá	-11.0877
▁cas	-11.0882
▁lia	-11.0885
▁Mam	-11.0887
▁ri	-11.0889
▁cógais	-11.0896
▁CH	-11.0901
▁aithne	-11.0902
▁foilsithe	-11.0907
raein	-11.0909
▁eisithe	-11.0911
▁bainea	-11.0919
rúin	-11.0923
▁tugt	-11.0926
▁caillte	-11.0927
▁míos	-11.093
▁tairbhiú	-11.0932
▁rannpháirtí	-11.0933
▁cógaisíocht	-11.0936
▁ngnáth	-11.0938
▁deonach	-11.0942
▁Fora	-11.0943
▁Pleaná	-11.0947
981	-11.0948
▁tromla	-11.095
▁fhreagracht	-11.0951
▁cirt	-11.0951
▁Fhora	-11.0952
oga	-11.0968
aireacht	-11.0969
▁fréamha	-11.0977
▁gníomhair	-11.0995
údara	-11.1
oibrithe	-11.1001
▁hA	-11.1006
▁Mhuir	-11.1009
rianta	-11.101
sp	-11.1011
agus	-11.1013
▁scam	-11.1014
▁trialach	-11.102
fheistiú	-11.1021
▁parlaimint	-11.1026
▁EURO	-11.1031
▁shás	-11.1034
▁shé	-11.1034
oirmeasc	-11.1038
▁dhéanf	-11.1041
▁Dhá	-11.1049
▁chíos	-11.1056
▁Measta	-11.1058
▁mhúin	-11.1058
▁láithr	-11.1059
isiam	-11.1059
▁admhá	-11.106
▁fireann	-11.1061
OS	-11.1063
▁ríomhair	-11.1064
uasmhéid	-11.1072
13	-11.1072
▁gcustaiméir	-11.1079
▁ndeár	-11.1079
▁Education	-11.1079
▁chlinic	-11.1079
▁gcontae	-11.1079
▁Tioncha	-11.1079
▁drochuair	-11.1079
▁Traenach	-11.1079
▁ÁIR	-11.108
▁thabhó	-11.108
▁chluas	-11.108
▁tharló	-11.1081
▁eHouse	-11.1081
▁sráidbhail	-11.1081
▁Dóiteáin	-11.1081
▁Seinn	-11.1082
▁1985	-11.1082
▁1973	-11.1083
▁tarrthála	-11.1083
▁buirg	-11.1084
▁Meith	-11.1085
▁Garda	-11.1086
hábháilteacht	-11.1086
quarium	-11.1087
ollar	-11.1088
▁míthreorach	-11.1088
▁trátha	-11.1089
▁Thrácht	-11.109
▁hAoi	-11.109
▁feitheam	-11.1091
EES	-11.1094
ATIO	-11.1094
▁Prótaca	-11.1095
lte	-11.1098
▁Casino	-11.1099
▁rátála	-11.1099
▁seiceáil	-11.1104
▁éileo	-11.1106
▁deacrachta	-11.1107
fhoills	-11.1112
▁gcosta	-11.1112
▁turasóireacht	-11.1113
▁ranníocóir	-11.1113
▁beann	-11.1114
▁brac	-11.1114
fhorbairt	-11.1115
▁hurrú	-11.1117
▁ceimiceach	-11.1123
▁iompró	-11.1123
▁fillea	-11.1127
ID	-11.113
▁áiritheoi	-11.1134
▁fuaim	-11.1137
teangacha	-11.114
▁Fionta	-11.1145
▁chiall	-11.1145
▁oráist	-11.1149
▁meabhrá	-11.1151
▁mbain	-11.1155
▁Mó	-11.1155
RC	-11.1156
▁ginearál	-11.1158
▁contúirteach	-11.1166
▁Inter	-11.117
▁Foirgníocht	-11.1171
▁infheisteoir	-11.1177
bhainn	-11.1179
neacha	-11.1182
▁náisiúnach	-11.1182
▁Measún	-11.1183
▁fhear	-11.1187
▁aighneacht	-11.1191
▁réaltaí	-11.1191
tion	-11.1195
aonad	-11.1195
vision	-11.1196
onchur	-11.1204
▁app	-11.1208
▁Shaorá	-11.1209
▁roth	-11.1209
▁siamsaíocht	-11.1212
▁oidhreacht	-11.1216
▁monarchan	-11.1218
ally	-11.1219
▁dearca	-11.1228
▁ranná	-11.123
▁Áit	-11.1234
▁socró	-11.1237
▁rial	-11.1251
▁Réamhrá	-11.1253
▁soiléire	-11.1254
▁bhóthair	-11.1258
ant	-11.1269
▁fheic	-11.127
▁féadf	-11.127
pm	-11.1275
▁banna	-11.1275
▁Gaillimh	-11.128
▁77	-11.1282
▁cleithiúna	-11.1283
▁Oiliú	-11.1288
▁cairt	-11.129
▁bronnta	-11.129
▁ochta	-11.1291
▁chruth	-11.1297
▁feasach	-11.1299
▁chomhar	-11.13
▁máthair	-11.1301
▁chlog	-11.1303
arraige	-11.1308
▁tréithe	-11.131
▁shocha	-11.1311
▁ainmneo	-11.1312
árthach	-11.1313
▁alcó	-11.1316
▁léireofa	-11.1316
oladh	-11.1323
lu	-11.1339
rais	-11.1339
▁áisiú	-11.1341
itheach	-11.1347
▁fhost	-11.1353
ngen	-11.1355
▁chaipitiú	-11.1361
▁imréit	-11.1365
▁chúitea	-11.1366
▁comhréir	-11.1367
el	-11.1373
▁theorainn	-11.1374
▁reoite	-11.1386
▁cheartú	-11.139
▁feirmeoir	-11.1394
cóid	-11.1394
ímid	-11.1396
▁ruga	-11.14
▁cobhsaí	-11.1403
▁dhein	-11.1405
srael	-11.1411
▁figiúir	-11.1412
athnuaite	-11.1412
▁shubstaint	-11.1413
▁comhchoiteann	-11.1413
▁céadluaite	-11.1413
uartha	-11.1413
▁aistrí	-11.1414
▁sorcóir	-11.1414
▁spriocdháta	-11.1414
age	-11.1415
▁luaidhe	-11.1415
icrile	-11.1416
▁creidim	-11.1416
▁gCoinbhinsi	-11.1417
▁Láithreá	-11.1417
▁1920	-11.1418
▁ceint	-11.1419
▁Mens	-11.142
▁chronograph	-11.1421
▁úsáideora	-11.1421
▁mhaoirseacht	-11.1428
ádh	-11.143
▁scríb	-11.143
▁musc	-11.1431
▁fiacla	-11.1432
▁reifr	-11.1432
▁English	-11.1433
▁gheilleaga	-11.1433
▁Domhan	-11.1436
▁Staidr	-11.1436
ve	-11.1437
▁comhábhair	-11.1439
▁Féad	-11.1444
▁Freastal	-11.1445
▁fisiciú	-11.1445
og	-11.1446
23	-11.1449
▁sú	-11.1457
▁suirbhé	-11.1457
éireo	-11.146
▁ghlan	-11.1463
▁Teorainn	-11.1468
▁seachadta	-11.1468
▁Movie	-11.1468
▁deartháir	-11.1469
▁Rúisis	-11.1472
▁scian	-11.1473
▁Tionól	-11.1478
SS	-11.1481
▁úll	-11.1482
áistí	-11.149
▁míchumas	-11.1493
▁bainistí	-11.1494
▁thuairisciú	-11.1496
▁dhír	-11.1507
▁Cuims	-11.1507
▁calaoise	-11.1509
line	-11.1516
▁fhionna	-11.1517
ise	-11.152
▁67	-11.1529
▁oibr	-11.1532
▁Íoc	-11.1532
▁chónaío	-11.1535
▁Aisghabhá	-11.1535
áititheoir	-11.1536
▁seol	-11.1543
▁dlíthe	-11.1543
▁eola	-11.1547
tréimhse	-11.155
▁beacht	-11.1552
▁Cheap	-11.156
▁trom	-11.156
▁uachta	-11.1568
▁throm	-11.1569
mtha	-11.1574
▁Ghnótha	-11.1574
▁Chó	-11.1582
▁ionsú	-11.1584
▁trád	-11.1586
▁Mhór	-11.1595
▁dún	-11.1598
▁mhó	-11.1609
▁gcinnea	-11.162
▁Dea	-11.162
▁gaol	-11.1628
▁saill	-11.1628
éigean	-11.1629
▁hordu	-11.163
pi	-11.1631
▁geará	-11.1637
▁chuimsi	-11.1638
▁leaga	-11.1646
▁Samh	-11.1646
▁Mí	-11.1648
▁CAI	-11.165
▁cigireachta	-11.165
▁ha	-11.1656
ith	-11.1661
▁láriona	-11.1672
▁cánacha	-11.1674
▁imscrúdaithe	-11.1675
▁99	-11.1679
ualach	-11.1685
▁géill	-11.1687
▁thábhachtach	-11.1693
▁tóg	-11.17
▁leacht	-11.17
▁Chríost	-11.1702
▁éireo	-11.1703
FC	-11.1705
▁Dála	-11.1706
▁dtuga	-11.1709
▁mall	-11.171
▁Rí	-11.1711
▁coiteann	-11.1712
▁freagracht	-11.1715
▁samhra	-11.1731
TC	-11.1733
comhpháirtíochta	-11.1736
▁contrár	-11.1748
▁caidé	-11.1753
Oifig	-11.1757
Éigipt	-11.1757
▁World	-11.1757
▁lugha	-11.1757
▁Science	-11.1757
▁Metro	-11.1757
▁Deimhniú	-11.1758
Abrá	-11.1758
▁1947	-11.1759
▁Bronntana	-11.176
▁ceardchuma	-11.176
▁Hard	-11.1761
▁carn	-11.1761
▁Strap	-11.1761
sealbhóir	-11.1763
▁tArd	-11.1764
▁Coimirce	-11.1764
▁Feidhmeanna	-11.1765
aigne	-11.1766
▁forghníomhú	-11.1767
▁eagr	-11.1768
▁meicníocht	-11.1768
osta	-11.177
▁Cinn	-11.1771
▁1993	-11.1772
▁fliuch	-11.1774
▁chaith	-11.1776
▁NÃ	-11.1777
▁gníomha	-11.1777
▁bharánta	-11.1778
zre	-11.1778
▁chlé	-11.1779
▁ghaolmhar	-11.178
▁Dath	-11.1787
▁Sche	-11.1787
▁mbreith	-11.1791
▁mínithe	-11.1791
gáiste	-11.1792
▁600	-11.1793
▁thionsca	-11.1794
▁ghnócha	-11.1795
▁bhfoilseofa	-11.1795
SPC	-11.1795
▁bagú	-11.1797
▁Chuig	-11.1798
▁rite	-11.1813
▁bhog	-11.1823
▁féar	-11.1823
▁fíochá	-11.183
▁Ro	-11.1833
▁céannachta	-11.1835
▁Glas	-11.1856
ionadaí	-11.1858
▁dámhachtain	-11.186
▁Chathai	-11.1862
Chomhairle	-11.1862
▁Iniúchóir	-11.1863
▁cuntasach	-11.1867
▁Príobháideacha	-11.1868
▁cupá	-11.1869
▁iOS	-11.1872
▁Bó	-11.1873
▁coimisiún	-11.1874
▁treo	-11.1875
▁kg	-11.1879
▁toghthóir	-11.1882
▁Caipitiú	-11.1883
obháideacha	-11.1887
▁agalla	-11.1889
▁Leictreacha	-11.1889
▁Conartha	-11.1892
▁Tr	-11.1896
intiúir	-11.1921
▁Cúige	-11.1925
▁Sc	-11.1927
▁Iasc	-11.1927
▁fhorlíona	-11.1929
▁flash	-11.1932
▁Aims	-11.1935
▁gineadó	-11.1936
▁arbh	-11.1937
annán	-11.1938
▁scriosta	-11.1938
▁150	-11.1943
▁abhcóide	-11.1945
▁feistis	-11.1945
▁talmha	-11.1953
▁aerfo	-11.1968
▁Tionó	-11.1969
▁Leictreach	-11.1979
da	-11.198
thair	-11.1993
▁coirp	-11.1998
▁leide	-11.2
▁Sé	-11.2005
▁tromchúis	-11.2006
▁comhoiriúnach	-11.2009
leanann	-11.2009
▁fhoirmiú	-11.2011
sach	-11.2012
▁scuab	-11.2015
▁ghníomhaireacht	-11.202
▁Pacáist	-11.2026
CHÁIN	-11.2036
▁54	-11.2041
▁mholta	-11.2046
20	-11.2047
▁Ma	-11.2051
▁BTE	-11.2054
▁Sion	-11.2058
ábalta	-11.2061
hug	-11.2066
▁Stiúrthó	-11.2068
▁bhainisteoir	-11.207
ning	-11.2072
▁Chustaimé	-11.2073
▁bailíocht	-11.2097
▁cos	-11.2097
▁ceapfa	-11.2099
ithi	-11.2101
▁sholáthróid	-11.2105
▁stairiú	-11.2107
▁ban	-11.2112
mbudsma	-11.2114
▁Uirlis	-11.2114
▁gcaighdeán	-11.2114
▁phacáist	-11.2114
▁roisín	-11.2114
▁Ionstraim	-11.2114
▁tsráid	-11.2115
▁Grand	-11.2116
▁1987	-11.2116
▁Dréacht	-11.2117
▁gcuimhne	-11.2118
▁scur	-11.2118
▁finné	-11.2119
▁scíth	-11.2119
▁rialtóir	-11.2121
▁póilín	-11.2121
▁Dealra	-11.2121
▁Rialáil	-11.2122
▁thuaidh	-11.2123
▁1966	-11.2123
▁Oibreacha	-11.2125
▁toirte	-11.213
▁bagairt	-11.2131
▁cáblaí	-11.2131
▁Fuck	-11.2131
▁chustaim	-11.2131
ré	-11.2138
▁sex	-11.214
▁1965	-11.214
▁mhíle	-11.2141
▁teip	-11.2141
HÉAD	-11.2143
▁mhara	-11.2143
▁Deontas	-11.2143
▁peitrilia	-11.215
▁Déag	-11.2154
uan	-11.2155
▁tag	-11.2159
▁fiachais	-11.2163
▁gcoist	-11.2165
▁gealltanais	-11.2165
▁64	-11.2171
▁194	-11.2171
▁lamháil	-11.2175
▁By	-11.2176
▁chultúr	-11.218
▁sciathá	-11.2187
tighe	-11.2192
▁hearnála	-11.2192
▁cosa	-11.2196
▁saighdiúir	-11.2198
▁stór	-11.22
▁Nio	-11.2201
▁ghluaiseacht	-11.2208
▁fhíneá	-11.2214
▁rianú	-11.2214
▁Mheiriceánach	-11.2216
▁Maga	-11.2217
chomhshaoil	-11.222
▁mhar	-11.2221
▁bhó	-11.2222
▁salach	-11.2224
▁iarmhairt	-11.2226
tóirí	-11.2227
▁pacáil	-11.2227
reithniú	-11.2228
iteach	-11.223
▁bhreithiúna	-11.2232
▁comhréireach	-11.2232
Bunreacht	-11.2239
▁coir	-11.2241
lithe	-11.2243
day	-11.2246
▁scaga	-11.2246
▁Br	-11.2247
▁airteaga	-11.225
Ghaeilge	-11.226
▁leithroinnt	-11.226
tábhachtach	-11.2264
▁Seol	-11.2266
ooter	-11.2268
▁rothaí	-11.2269
threora	-11.227
dubh	-11.227
▁soláthraío	-11.2273
▁teicníc	-11.2274
▁Ur	-11.2274
▁tairbh	-11.2274
Hz	-11.2274
iarraid	-11.2277
▁Súil	-11.2282
▁eisiach	-11.2284
▁trédhearcacht	-11.2289
scartha	-11.2292
42	-11.2292
▁theorant	-11.2295
iompróir	-11.2305
▁chuims	-11.2306
▁ndíol	-11.2316
▁Meiriceá	-11.232
▁bpáipé	-11.2323
▁bhalla	-11.2327
ska	-11.2328
▁faireacha	-11.2336
▁cois	-11.2339
▁fís	-11.2348
▁Caipit	-11.2351
▁eip	-11.2354
▁aiseola	-11.2357
▁fúth	-11.2359
▁Pins	-11.2365
▁conarthach	-11.2369
▁bád	-11.2369
▁chionn	-11.2373
▁ghrá	-11.2399
▁Trá	-11.2406
▁bpearsa	-11.2406
▁gairea	-11.2407
▁fhostó	-11.2408
▁shéala	-11.2409
▁muireara	-11.2409
▁94	-11.2411
▁bailiú	-11.2412
éag	-11.2412
▁dearbha	-11.2413
gration	-11.2415
▁roghnaío	-11.2418
▁Tua	-11.242
▁coig	-11.2427
chúrsa	-11.2428
▁Luain	-11.2443
cósta	-11.2446
▁aisíocaíocht	-11.2451
▁calaois	-11.2452
▁Breithe	-11.2458
scadh	-11.246
▁04	-11.2462
fhaibhr	-11.2462
▁Chorca	-11.2463
▁Tacaíochta	-11.2467
▁réalta	-11.247
▁caillea	-11.247
▁189	-11.247
▁comhacht	-11.2472
▁phleanál	-11.2474
Catal	-11.2481
▁Gorm	-11.2484
▁Tuarasta	-11.2484
▁election	-11.2484
▁seirbheála	-11.2484
▁erotic	-11.2484
▁thaca	-11.2485
▁Tréimhse	-11.2485
▁Classic	-11.2485
▁Cóiré	-11.2485
easóid	-11.2486
▁dtrácht	-11.2486
▁Stáisiú	-11.2486
▁shócmhainn	-11.2486
38	-11.2488
▁Leabharlann	-11.2489
▁Staidé	-11.2489
▁todóg	-11.2489
LA	-11.249
▁Comhlacha	-11.249
▁CBS	-11.2491
▁Ceart	-11.2491
éad	-11.2491
▁conabla	-11.2492
▁gairid	-11.2492
▁File	-11.2494
▁km	-11.2494
▁hiarrthóir	-11.2496
▁Iodáil	-11.2502
▁mhol	-11.2508
▁árach	-11.251
rua	-11.251
▁2-3	-11.2511
▁dheireanach	-11.2515
▁Corporation	-11.2518
▁Pay	-11.2519
▁Ghlac	-11.252
▁tiont	-11.252
▁cnó	-11.2521
▁phá	-11.2523
▁clárúchá	-11.2527
▁eu	-11.2527
▁tairseach	-11.2529
▁J	-11.2531
▁ársa	-11.2531
▁sheachtrach	-11.2532
▁saotharlann	-11.2534
▁fuascailte	-11.2536
▁éigeantach	-11.2537
▁ngnótha	-11.2537
▁Crutha	-11.2538
▁pháipé	-11.2538
▁iomaíoch	-11.2541
▁chuga	-11.2541
▁dearthóir	-11.2545
▁Taobh	-11.2546
▁Muirí	-11.255
▁Tarraing	-11.2551
▁cent	-11.2553
▁muc	-11.2554
▁Téarmaí	-11.2555
▁forex	-11.2559
▁séip	-11.2567
▁cum	-11.2567
▁tionsclaíoch	-11.2571
íobla	-11.2572
at	-11.2574
▁American	-11.2576
▁Comhdhá	-11.2599
éilithe	-11.261
▁easnamh	-11.261
▁naimhde	-11.2612
▁bhfor	-11.2623
íocaíochta	-11.2626
▁mheastóireacht	-11.263
▁Tairisc	-11.2631
▁doimhneacht	-11.2634
▁108	-11.264
▁idirbhearta	-11.2644
▁ioncu	-11.2647
▁thír	-11.2649
Sualainn	-11.2656
▁déanf	-11.2663
▁ainmhí	-11.2666
▁bhuío	-11.2667
▁Cumas	-11.2667
▁pháipéir	-11.267
▁íogair	-11.2671
▁gciste	-11.2679
▁comhsheasmhach	-11.2679
▁gcáil	-11.2685
▁héil	-11.2687
TS	-11.2687
talamh	-11.2692
▁thuga	-11.2695
▁Cúig	-11.2696
▁Sp	-11.2701
▁sara	-11.2702
ÍOCHTA	-11.2702
▁Arna	-11.2703
téarmaí	-11.2705
athbhreithniú	-11.2708
▁thacaíocht	-11.2708
feighil	-11.2711
▁mháthair	-11.2712
▁laighead	-11.2713
▁chreat	-11.2714
▁cháilíochta	-11.2719
▁muirí	-11.2719
▁Eorpa	-11.2722
hoireann	-11.2727
▁ranníocaíocht	-11.2732
ism	-11.2734
▁aithris	-11.2748
oilte	-11.2752
▁Laghd	-11.2753
▁gaire	-11.2754
▁gcumhacht	-11.2755
▁Lena	-11.2755
▁thogra	-11.2755
▁gair	-11.2756
▁Ghaeltacht	-11.2762
ineann	-11.2773
eolaíocht	-11.2774
▁átha	-11.2786
sonraíocht	-11.2791
údará	-11.2792
▁Modh	-11.2795
▁sainiú	-11.2805
ja	-11.2808
▁comhdhéan	-11.2811
▁Bhain	-11.2818
▁sainmhín	-11.283
íochána	-11.2839
▁Teorant	-11.284
chuir	-11.2849
▁Te	-11.2852
▁Cúirt	-11.2853
▁oll	-11.2855
▁w	-11.2862
chán	-11.2864
siceo	-11.2868
▁Blonde	-11.2869
▁naipcín	-11.2869
▁tSeapáin	-11.2869
▁theastó	-11.2869
▁Search	-11.2869
▁choda	-11.287
▁Bhunreacht	-11.287
▁ciliméada	-11.287
▁Iarmhéid	-11.287
▁PhrÃ	-11.287
▁choimirc	-11.287
▁peata	-11.287
▁super	-11.287
▁craicin	-11.287
▁gunna	-11.287
▁soladach	-11.287
rialtas	-11.2871
▁1984	-11.2871
▁1969	-11.2871
▁formáid	-11.2871
▁Amazon	-11.2872
▁huirlis	-11.2872
ártha	-11.2872
▁litríocht	-11.2874
▁Land	-11.2874
▁scairshealbhóir	-11.2875
▁calafo	-11.2875
▁banda	-11.2877
árachóir	-11.2879
▁rátha	-11.288
yst	-11.288
▁sútha	-11.2882
▁Order	-11.2883
soláthair	-11.2884
▁leithreas	-11.2885
▁light	-11.2886
nasctha	-11.2886
▁constaic	-11.2886
▁Video	-11.2893
▁Siú	-11.2895
▁tiús	-11.2897
▁idirghabhála	-11.2901
inmheasún	-11.2904
▁imirce	-11.2905
heobhaid	-11.2906
▁gcéim	-11.2906
maid	-11.2906
▁cumhra	-11.2906
▁Fair	-11.2908
II	-11.291
▁éarlais	-11.2919
▁cré	-11.292
tógáil	-11.292
▁Foghlaim	-11.293
▁sleamhná	-11.2932
▁Union	-11.2935
▁bhunó	-11.2936
▁ticéad	-11.2937
▁bhfear	-11.2938
▁Inc	-11.2941
tiú	-11.2943
▁mhonaróir	-11.2944
▁mias	-11.2949
▁shaorána	-11.2952
▁chaing	-11.2955
▁caing	-11.2957
▁timthriall	-11.2976
▁fhada	-11.298
▁Ardchaighdeá	-11.2982
▁sp	-11.2996
▁seisea	-11.2999
dú	-11.2999
aiscí	-11.3001
fhág	-11.3002
odh	-11.3003
▁Seas	-11.3005
ember	-11.3006
▁oileán	-11.3008
▁Fan	-11.3011
▁conraitheoir	-11.3011
▁All	-11.3015
▁fhuinneog	-11.3018
▁eilimint	-11.3021
▁nochtfa	-11.3023
UM	-11.3024
▁ceiliúra	-11.3028
▁neamhchomhlíon	-11.3034
▁aisíocaíochta	-11.3039
aicmí	-11.304
et	-11.304
▁eatramhach	-11.3048
▁MP	-11.305
nce	-11.3055
ley	-11.3068
▁Amplifier	-11.3068
▁comhábha	-11.3068
líonta	-11.3069
▁úinéirí	-11.3069
▁imeall	-11.3072
▁foinsí	-11.3073
▁hé	-11.3088
nia	-11.309
ách	-11.3098
íleata	-11.3098
▁Lár	-11.3099
▁pro	-11.3103
ix	-11.3103
tírdhreach	-11.3105
▁forfheidhmi	-11.3107
prionsaba	-11.3113
92	-11.3117
▁caomhnóir	-11.3123
itheantas	-11.3126
▁cealla	-11.3128
▁Aracha	-11.3132
▁cheangló	-11.3132
▁sholáthraío	-11.3138
substaint	-11.314
áithre	-11.3147
▁Ola	-11.315
▁bhainc	-11.3152
▁foirml	-11.3154
tis	-11.3154
seog	-11.3158
▁by	-11.3161
▁iompróir	-11.3163
▁mharga	-11.3168
▁316	-11.3173
▁gconra	-11.3175
▁chárta	-11.3176
▁Eagraíocht	-11.3181
▁astaíochta	-11.3182
▁feabhsú	-11.3191
▁eisc	-11.3194
▁cloch	-11.3204
▁mogal	-11.3207
▁bus	-11.3207
▁Cultúr	-11.321
ain	-11.3214
dáilte	-11.3216
▁Gníomhaireacht	-11.3217
▁leasachá	-11.3224
▁gabhálta	-11.3237
▁Comharthaí	-11.3253
▁chabhra	-11.3257
▁ton	-11.3262
▁Foilsithe	-11.3262
cheathrú	-11.3262
EE	-11.3264
▁Srian	-11.3264
oncler	-11.3266
▁lasmui	-11.3268
▁Rannóg	-11.3269
▁FORÁLA	-11.3269
▁ceirde	-11.3269
▁cathaoir	-11.3269
▁Omega	-11.3269
▁foilseo	-11.327
▁vót	-11.327
▁Stáda	-11.327
▁Incredi	-11.327
▁cearrbhacha	-11.327
▁Cuspóir	-11.3271
▁Eura	-11.3271
▁tréidlia	-11.3271
▁guy	-11.3271
▁marsanta	-11.3271
▁oinniú	-11.3272
▁chartú	-11.3272
▁péinteáil	-11.3272
▁shín	-11.3273
▁coinneáil	-11.3273
▁1948	-11.3273
▁suiteála	-11.3274
▁saothra	-11.3275
▁1928	-11.3276
▁kb	-11.3276
▁71	-11.3276
meabhrach	-11.3278
▁plú	-11.3278
illí	-11.3279
▁eis	-11.3281
▁spéis	-11.3282
▁Díreach	-11.3285
▁taoide	-11.3287
TAOBH	-11.3287
▁Seachtain	-11.3294
▁Danmhairg	-11.3294
▁bhfola	-11.3299
▁Cleachta	-11.33
▁comhéada	-11.3304
▁lasc	-11.3311
▁Con	-11.3322
▁bhrabús	-11.3325
▁Cultú	-11.3328
▁Páipéar	-11.3336
▁76	-11.3336
▁airbheartó	-11.3338
ríonna	-11.334
▁ngeall	-11.3343
▁Tithíocht	-11.3345
▁phaitinn	-11.3346
▁gabhála	-11.3347
▁Creat	-11.3351
ráthú	-11.3351
feola	-11.3352
46	-11.3353
luacha	-11.3353
▁scaip	-11.3353
▁strus	-11.3358
▁dhíolta	-11.3365
éadach	-11.3368
dúil	-11.3373
▁Man	-11.3378
▁Mont	-11.3384
ullmha	-11.3385
▁fhochuideachta	-11.3386
scéal	-11.3392
▁Maoine	-11.3396
ainmh	-11.3397
▁Gnáth	-11.34
ton	-11.3404
▁míochaine	-11.3409
▁gcaing	-11.3412
chas	-11.3412
▁Time	-11.3413
▁Ón	-11.3415
▁shuim	-11.342
▁luachmhar	-11.3423
▁tinn	-11.3426
▁iarmhar	-11.3426
▁cáil	-11.3429
▁fónta	-11.3435
▁US	-11.3449
74	-11.346
▁gener	-11.3461
fhan	-11.3465
930	-11.3468
▁innéacs	-11.347
▁fearais	-11.3472
osú	-11.3475
▁réad	-11.3479
Inniu	-11.3489
king	-11.3491
aoise	-11.3495
▁choimisiún	-11.3504
▁bainfid	-11.3506
Mail	-11.351
▁trioma	-11.3513
▁ítim	-11.3515
othar	-11.3515
rely	-11.3529
théacs	-11.3532
▁Iartha	-11.3539
▁gearra	-11.3539
▁gcó	-11.354
▁ranna	-11.3542
AIS	-11.3547
▁Cabhra	-11.3548
▁thoiliú	-11.356
▁comhthoil	-11.3561
infheisteoir	-11.3562
▁Access	-11.3566
seomra	-11.3569
riseadh	-11.3569
▁cólucht	-11.3572
sócmhainn	-11.3572
baol	-11.3578
▁laoch	-11.3579
▁85	-11.3592
Iúil	-11.3593
▁haicmí	-11.3593
eachtar	-11.3597
▁uimhreach	-11.3605
30	-11.3606
scála	-11.3608
▁comhard	-11.3616
▁cumhachtach	-11.3616
ostaithe	-11.3621
bhirt	-11.3628
▁míchu	-11.3632
▁difríochta	-11.3636
▁Ean	-11.3638
▁tosaithe	-11.3638
▁inter	-11.3638
▁Mheithea	-11.3639
▁po	-11.3641
▁SA	-11.3642
▁roinnte	-11.3645
▁teochta	-11.3655
uxur	-11.3657
▁saille	-11.3658
▁claon	-11.3659
▁thionól	-11.366
▁chríochna	-11.3661
▁chois	-11.3666
▁Óir	-11.3668
▁ionta	-11.3674
▁shriana	-11.3684
▁Ceangla	-11.3686
▁ngrúpa	-11.3686
▁smartphone	-11.3686
▁Nuashonr	-11.3686
▁acadúil	-11.3686
EILE	-11.3686
▁sapphire	-11.3686
▁phuiblí	-11.3686
▁suibscríobh	-11.3686
▁frithpháirteach	-11.3686
▁CNC	-11.3686
▁radharc	-11.3687
eorpa	-11.3687
▁Sceid	-11.3687
▁smachtbhanna	-11.3687
▁1982	-11.3688
wan	-11.3689
▁1918	-11.3689
ure	-11.369
▁Painé	-11.3692
▁cúins	-11.3692
▁Samhna	-11.3693
tach	-11.3694
▁leithreasaí	-11.3694
52	-11.3695
▁éanlaith	-11.3696
▁Choiriú	-11.3698
orainn	-11.3698
▁éagumas	-11.3698
▁ngá	-11.37
▁Srianta	-11.3703
▁sm	-11.3706
raimí	-11.3706
▁bunó	-11.3711
▁Chonartha	-11.3712
▁Hua	-11.3713
▁seó	-11.3714
▁mhac	-11.3715
▁VIS	-11.3715
▁míchuma	-11.3715
▁bhunús	-11.3719
▁tail	-11.3724
▁coimeádán	-11.3724
arthu	-11.3726
▁ÁITIÚ	-11.3726
▁tharraing	-11.3727
▁Ame	-11.3728
álta	-11.3728
▁borr	-11.3735
▁mam	-11.3739
▁Léirío	-11.3743
▁spá	-11.3746
▁bródú	-11.3747
Fhor	-11.375
choinneála	-11.3752
1957	-11.3753
aíocht	-11.3756
haisnéis	-11.3757
naigh	-11.3758
▁Aoisliúnta	-11.3759
▁Maca	-11.3762
irmeacha	-11.377
NN	-11.3773
▁biotáille	-11.3773
▁inchinn	-11.3775
▁ardleibhé	-11.3777
▁Chóir	-11.3777
▁Ionaid	-11.378
▁dtagar	-11.378
▁uas	-11.3786
▁shealadach	-11.3787
▁teagmhai	-11.379
▁DC	-11.3792
óthar	-11.3793
▁Soláthraí	-11.3793
▁Jackets	-11.3797
▁cheapachá	-11.3802
▁logáil	-11.3804
▁paraiméada	-11.3805
eannach	-11.3808
▁feabhsúchá	-11.3815
▁faighteoir	-11.3816
▁comhairleoir	-11.3819
▁gás	-11.3822
▁tiubh	-11.3825
▁chreidiúna	-11.3826
▁Áir	-11.3826
▁theanga	-11.3832
WC	-11.3839
▁tarraingteach	-11.384
▁Ve	-11.3855
▁hobair	-11.3859
▁79	-11.386
▁tosaíocht	-11.3868
▁aigéad	-11.3875
▁choinní	-11.388
▁bhfás	-11.3884
▁He	-11.3898
ÁIL	-11.3903
▁infheistiú	-11.3906
Reachtair	-11.3908
▁Invest	-11.3909
▁paist	-11.3911
ithigh	-11.3911
▁thioncha	-11.3913
dar	-11.3913
▁mu	-11.3913
▁peann	-11.3914
léiriú	-11.3917
▁Táscair	-11.3918
ealtaine	-11.3922
comaoin	-11.3924
asc	-11.3926
some	-11.3926
▁bhlianacht	-11.393
▁Deimhn	-11.393
▁sannta	-11.393
▁Chú	-11.3931
ul	-11.3938
▁chomhpháirt	-11.3939
athach	-11.3943
▁ghairme	-11.3943
▁sheachtainiú	-11.3944
iomportá	-11.3946
▁dhoirtea	-11.3951
▁Cuma	-11.3956
▁dhoiciméad	-11.3964
df	-11.3966
▁ealaíon	-11.3967
▁héifeachtú	-11.3969
intear	-11.3974
▁fhiacha	-11.3974
▁watch	-11.3975
0	-11.3977
▁díospóireachta	-11.3977
▁caint	-11.3984
tóireachta	-11.3992
▁Fola	-11.3993
ex	-11.3997
▁alcól	-11.3997
▁91	-11.4004
▁comhchuibh	-11.4005
▁morgáist	-11.4008
▁MAR	-11.4009
uc	-11.4016
glass	-11.4021
▁fhreastal	-11.4022
mhír	-11.403
▁Cionta	-11.4037
▁Eora	-11.4037
aer	-11.4046
eibhéal	-11.4051
▁gnóthair	-11.4052
AL	-11.4052
▁coireacht	-11.4059
▁abhar	-11.4061
▁Linn	-11.4067
▁dúshlán	-11.4071
▁tháirge	-11.4071
▁ndlí	-11.4072
▁gluaiseachta	-11.4078
▁eagar	-11.4079
▁chod	-11.4086
chreidte	-11.4088
▁folúnta	-11.4091
▁dídean	-11.4094
34	-11.4098
chleachtóir	-11.4099
▁préimhe	-11.4107
get	-11.4114
réige	-11.4114
▁pós	-11.4114
▁ORD	-11.4116
▁Fé	-11.4119
▁Tionscna	-11.4121
▁timpist	-11.4121
▁bhfeithic	-11.4121
▁Téacs	-11.4121
▁Affair	-11.4121
▁Power	-11.4121
▁School	-11.4121
▁fairsing	-11.4121
orex	-11.4121
▁Rialtóir	-11.4122
Kommission	-11.4122
▁lómhar	-11.4122
▁thrádmharc	-11.4123
▁tráthchoda	-11.4123
▁Fág	-11.4123
TÉ	-11.4123
▁Ceadaío	-11.4123
▁Taist	-11.4124
▁gcleachta	-11.4124
▁bhabhta	-11.4124
▁Bunó	-11.4124
IREANN	-11.4124
tus	-11.4125
▁gná	-11.4125
▁chreidmheasa	-11.4125
▁White	-11.4125
▁foraoise	-11.4126
▁cluaise	-11.4128
▁labhair	-11.4128
▁CRO	-11.4129
▁buíocha	-11.4131
▁comhshó	-11.4132
▁bric	-11.4133
▁Foráil	-11.4135
lt	-11.4136
▁cógaiseoir	-11.4137
▁allmhairí	-11.4139
▁stóras	-11.4142
▁fhritháir	-11.4143
▁neodrach	-11.4147
▁shínea	-11.4147
▁wallpaper	-11.4147
▁Express	-11.4147
▁léitheoir	-11.4148
▁fara	-11.4148
▁bacainn	-11.4148
▁Council	-11.4148
▁Féil	-11.4151
▁Custaim	-11.4152
▁gabhálais	-11.4155
ating	-11.4155
▁Pearsanta	-11.4156
▁Airm	-11.4157
▁achainí	-11.4158
▁One	-11.4158
ats	-11.4161
▁bpríomh	-11.4161
▁laghdófa	-11.4162
▁folu	-11.4162
▁urghabhá	-11.4164
▁sonrú	-11.4166
▁Líonra	-11.4166
▁piobar	-11.4167
▁fhorai	-11.4174
▁Gall	-11.4179
▁leantóir	-11.4185
▁chomhordú	-11.4185
▁86	-11.4186
by	-11.419
▁tocsaineach	-11.4194
▁Feist	-11.4196
▁bhliana	-11.4198
▁Tai	-11.42
▁fógraíocht	-11.4202
▁fisiceach	-11.4203
▁coil	-11.4204
TP	-11.4207
me	-11.4208
▁Indiach	-11.4209
▁110	-11.4209
▁eolaíocht	-11.4212
nste	-11.4214
▁bithicíd	-11.4215
▁gnéasach	-11.4215
▁nimhiú	-11.4218
▁83	-11.422
▁iníon	-11.4223
freagraí	-11.4224
▁príomhfheidhm	-11.4227
▁Madra	-11.4239
▁cistine	-11.425
▁cairdiú	-11.4258
uel	-11.4259
Oifigeach	-11.4262
▁chaighdeánach	-11.4264
áide	-11.4268
▁meisc	-11.4271
shlánú	-11.4272
gcomhpháirtíocht	-11.4278
aonar	-11.4279
▁hiasachta	-11.428
li	-11.4284
▁fágá	-11.4284
que	-11.4288
bhail	-11.4291
▁práinne	-11.4292
▁rannchuidi	-11.4292
▁dlús	-11.4294
▁feasacht	-11.4299
▁eachtraíocht	-11.4302
▁togh	-11.4308
▁eat	-11.4311
RÉ	-11.4312
▁treocht	-11.4318
▁Sín	-11.4327
aithint	-11.4333
ánaigh	-11.4335
▁El	-11.4337
▁gnóthaí	-11.4338
▁Cáilíocht	-11.4341
un	-11.4345
▁custa	-11.4348
▁FAIR	-11.4352
▁190	-11.4356
▁bardas	-11.4356
▁ndeire	-11.436
▁ceathrú	-11.4362
DA	-11.437
▁bréagá	-11.4373
▁Clá	-11.4384
▁Al	-11.4387
▁sagha	-11.439
▁Bu	-11.4407
▁paitinn	-11.4409
▁Conarthach	-11.4413
▁Chlárú	-11.4416
allraí	-11.4423
no	-11.4424
▁dteanga	-11.4433
▁forfheidhmiú	-11.4436
▁gcruthó	-11.4436
ndi	-11.4438
▁sho	-11.444
▁céime	-11.444
▁ghnólachta	-11.4443
▁Fheidhmeannach	-11.4444
▁gcáin	-11.4445
Fheabh	-11.4449
idiam	-11.4452
íocaíocht	-11.4455
eicníocht	-11.4455
▁poil	-11.4457
▁ráill	-11.4457
▁substainte	-11.4457
HT	-11.4459
▁rúis	-11.4467
▁Cruinni	-11.447
GE	-11.4474
▁st	-11.4474
LS	-11.4477
údaruí	-11.4479
▁ól	-11.4488
▁míosú	-11.449
institiúid	-11.4495
eo	-11.4496
▁TÁ	-11.4496
▁soithí	-11.4499
▁teileafó	-11.4506
▁Air	-11.4507
phlean	-11.451
▁Minist	-11.4517
▁And	-11.4517
teach	-11.4519
▁cháilithe	-11.452
85	-11.4527
▁Eolaíocht	-11.4529
▁Breit	-11.4532
▁oibreoi	-11.4535
▁iarmhéid	-11.4535
▁ceangló	-11.4536
tíní	-11.4537
▁Suirbhé	-11.4539
fhostóir	-11.4547
dúrad	-11.4549
▁tram	-11.4554
▁196	-11.4556
mháil	-11.4563
▁náisiúntacht	-11.4563
▁Chur	-11.457
▁healaíon	-11.457
ocial	-11.4573
▁TG	-11.4574
▁Scair	-11.4575
▁Diúité	-11.4575
▁Mheithimh	-11.4575
▁jewel	-11.4575
▁ndiúltó	-11.4575
▁próitéin	-11.4575
▁Atweetáil	-11.4575
▁príosúntacht	-11.4575
▁pribhléid	-11.4575
▁Department	-11.4575
▁Tráth	-11.4576
Ísiltír	-11.4576
▁coimisinéir	-11.4577
▁liath	-11.4577
▁Polasa	-11.4577
▁ocsaigin	-11.4579
▁ceardlann	-11.458
▁thaighde	-11.458
▁phaisinéir	-11.4581
▁tobhach	-11.4581
▁geimhr	-11.4581
▁leachtaitheoir	-11.4582
BID	-11.4584
▁coileach	-11.4586
▁sháró	-11.4586
foundation	-11.4587
▁Cailín	-11.4587
▁bpríosún	-11.4587
iv	-11.4589
eora	-11.459
▁buntáiste	-11.4591
▁tubaiste	-11.4594
▁fiaclóireacht	-11.4595
AP	-11.4597
▁Chónaithe	-11.4598
▁dif	-11.4599
▁oiriúnaithe	-11.46
▁1922	-11.4601
iamh	-11.4601
▁ndein	-11.4602
▁rúndacht	-11.4603
▁polaitíocht	-11.4603
▁thuarasta	-11.4603
▁líomóid	-11.4604
▁ceannair	-11.4606
▁club	-11.4607
ama	-11.4607
▁foirmiúla	-11.4608
▁tabhair	-11.4608
▁Nádúrth	-11.461
▁téip	-11.4611
▁cloí	-11.4614
▁amharc	-11.4615
neach	-11.4615
▁seasa	-11.4617
▁dhílsiú	-11.4617
▁trastomhas	-11.4617
▁húinéir	-11.4617
▁Nasc	-11.4618
▁soghluaisteacht	-11.4618
▁fhiosrúchá	-11.4621
▁ghala	-11.4621
bhÃ	-11.4624
▁cith	-11.4624
▁forghéill	-11.4625
▁teoiric	-11.4626
▁96	-11.4627
▁mheasúna	-11.4631
▁Uachtara	-11.464
▁toirchi	-11.464
▁chuaird	-11.4642
buiséad	-11.4642
light	-11.4642
▁feinimé	-11.4644
▁fíneála	-11.4648
ullmhú	-11.465
▁cruthú	-11.4652
AIDH	-11.4652
▁Mhúinteoireacht	-11.4652
▁Bileog	-11.4652
▁teirmeach	-11.4654
▁Cho	-11.4658
inneall	-11.4659
▁182	-11.4659
inoibritheacht	-11.4663
▁greannmha	-11.4667
▁bheirte	-11.4676
▁sceithea	-11.4679
▁tionóntachta	-11.468
▁TAR	-11.468
▁dílse	-11.4682
▁áirith	-11.4685
▁lámhach	-11.4686
mhach	-11.4692
samhraidh	-11.4694
ency	-11.4694
▁BHAINEA	-11.4696
96	-11.4702
▁ceadún	-11.4703
▁comhpháirtíocht	-11.4706
▁Volta	-11.4709
▁marcáilte	-11.4709
▁74	-11.4713
▁Straitéise	-11.4713
▁cruithneacht	-11.4718
▁MT	-11.4719
rdán	-11.4719
▁athchóir	-11.4721
▁feo	-11.4723
▁over	-11.4729
nó	-11.473
▁Just	-11.473
▁dheas	-11.4738
éimeanna	-11.4738
▁City	-11.4744
huaisceart	-11.4744
▁paitinne	-11.4747
▁Op	-11.4764
▁fhorfheidhmiú	-11.4771
▁Read	-11.4771
▁Margadh	-11.4772
▁choinn	-11.4776
▁pill	-11.4785
▁Acad	-11.4795
▁bailío	-11.48
ak	-11.4805
▁84	-11.4808
▁Meiriceána	-11.4809
▁High	-11.4811
om	-11.4815
▁maisiú	-11.4816
oibríochta	-11.4817
riachtanach	-11.482
och	-11.4823
lanna	-11.4825
▁faillí	-11.4825
▁Uí	-11.4826
▁thabh	-11.4828
▁sheasa	-11.483
▁bhéarfaid	-11.4839
▁silín	-11.485
▁Chumann	-11.4854
ATT	-11.4854
▁speisial	-11.4856
▁Mol	-11.4857
illte	-11.4861
aem	-11.4869
▁taighdeoir	-11.4871
▁hainm	-11.4872
▁gceachta	-11.4877
▁armchúirt	-11.4882
iarann	-11.4884
▁comhairleach	-11.4889
▁Astráil	-11.4892
▁Cu	-11.4893
léas	-11.4901
65	-11.4902
▁gas	-11.4905
▁Fuar	-11.4911
VC	-11.4913
ding	-11.4914
▁áir	-11.4922
▁chúirte	-11.4925
eochra	-11.4927
▁chuairte	-11.4932
iarratasóirí	-11.4935
▁phleanáil	-11.4937
▁Europe	-11.4939
réine	-11.4939
▁theas	-11.4945
95	-11.4947
▁gcod	-11.4948
▁Chorparáid	-11.4951
▁síochána	-11.4951
▁luíod	-11.4952
▁ghníomha	-11.4952
▁coimhdeacht	-11.4953
▁Jacket	-11.4955
▁náisiú	-11.4956
▁Chúna	-11.496
▁vótaíocht	-11.4965
▁mhair	-11.4965
▁seolfa	-11.498
▁Áirithe	-11.4983
ual	-11.4984
▁dúshlá	-11.4984
▁fheice	-11.4988
iarnró	-11.4989
éim	-11.4991
easportá	-11.4992
idéal	-11.5005
▁Bo	-11.5013
▁gnólacht	-11.5013
chuideachta	-11.5014
▁Cúram	-11.5015
▁dtug	-11.5021
▁Imréit	-11.5028
▁Bre	-11.5031
inneacha	-11.5033
07	-11.5034
▁Dar	-11.5035
▁Di	-11.5035
urrús	-11.5039
▁lánúin	-11.5039
▁thoir	-11.5044
▁Ghnó	-11.5045
▁Ais	-11.5045
▁spiorad	-11.5046
26	-11.5047
roinn	-11.5048
Rúnaí	-11.5049
léarga	-11.5049
▁Thairis	-11.505
▁Ranná	-11.505
▁dtimpeallacht	-11.5051
▁vaigín	-11.5051
▁véarsa	-11.5051
▁shuntasach	-11.5051
▁seánra	-11.5051
▁nítrigin	-11.5051
▁Bhreatain	-11.5051
▁Marmara	-11.5051
▁stylish	-11.5052
▁Toscaireacht	-11.5052
▁thobhac	-11.5052
ndment	-11.5052
▁Fiontraíocht	-11.5052
▁pholasa	-11.5052
▁Taisteal	-11.5052
▁gluaisrotha	-11.5052
▁Hack	-11.5053
▁fíonchaor	-11.5053
ilver	-11.5053
▁Aicm	-11.5053
▁cinntitheach	-11.5053
▁chabhró	-11.5054
▁Miontuairisc	-11.5054
▁conver	-11.5054
uestion	-11.5054
▁rúnda	-11.5054
fhógair	-11.5055
▁Gineadóir	-11.5055
▁leapacha	-11.5055
▁bríomha	-11.5055
▁Meácha	-11.5056
▁scaipthe	-11.5058
12	-11.5058
▁Lárchóra	-11.506
▁Thiarna	-11.506
oin	-11.5061
rapóirtéir	-11.5063
ware	-11.5063
Gain	-11.5066
▁mhainneo	-11.5066
▁Luachála	-11.5068
▁kid	-11.5069
iteann	-11.5069
ejian	-11.507
Parlaimint	-11.5073
Gaeilge	-11.5074
athachta	-11.5075
▁theorann	-11.508
▁fheidhmeo	-11.5082
▁Last	-11.5083
▁truailliú	-11.5085
▁shása	-11.5087
▁Sea	-11.5088
▁tionscnóir	-11.5094
▁glúine	-11.5095
▁thairis	-11.5097
▁maolú	-11.5098
lí	-11.5099
▁bhronntanas	-11.5101
▁thuig	-11.5102
▁tuirse	-11.5104
▁timpeallachta	-11.5105
▁speisialtóir	-11.5108
▁Noll	-11.511
▁gcumhachtaí	-11.5116
ehir	-11.5118
▁Dleachta	-11.5119
▁coincheap	-11.5125
▁imscrúd	-11.5126
oundation	-11.5128
▁mbrabú	-11.513
cm	-11.5131
▁cóimhiotal	-11.5131
▁féichiúna	-11.5132
▁tAon	-11.5132
▁Blue	-11.5132
▁inghnóthaithe	-11.5132
▁chleithiúna	-11.5133
▁138	-11.5133
▁gcinn	-11.5134
▁urram	-11.5134
▁130	-11.5135
▁craolachá	-11.5137
▁shuíf	-11.5139
bhaile	-11.5141
▁Oscailt	-11.5142
▁sonnr	-11.5146
▁dTreoir	-11.5149
▁creidea	-11.5151
▁cosá	-11.5156
ireacht	-11.5162
Oibreacha	-11.5166
▁iontaoibh	-11.5169
▁thréig	-11.5169
▁Coitiant	-11.5169
▁taibhs	-11.5172
▁cosmaideach	-11.5172
irm	-11.5173
▁Clúda	-11.5176
▁teagasc	-11.5179
▁mhaisiú	-11.518
áras	-11.5182
▁Home	-11.5183
▁Teagmhá	-11.5187
▁Chinn	-11.5187
▁clainn	-11.5188
▁forlíonta	-11.5189
▁bileog	-11.5195
▁críochnú	-11.5197
▁Athchóiri	-11.5199
abhairt	-11.52
▁reiligiún	-11.5201
▁Bhuir	-11.5205
▁thaispeánta	-11.5208
ong	-11.5209
▁thú	-11.5209
ste	-11.521
▁Nov	-11.5212
▁ullmhúchá	-11.5213
▁fan	-11.5214
liaint	-11.5216
▁eacnamaíocht	-11.5217
▁uachtarach	-11.5221
▁Uathoibr	-11.5224
▁To	-11.5224
▁Aont	-11.5224
▁ghléas	-11.5229
▁mbunú	-11.5232
▁Gairm	-11.5233
▁fhinné	-11.5239
▁shrian	-11.525
icí	-11.5255
logad	-11.5259
▁athsholátha	-11.5263
▁feabhsa	-11.5263
mate	-11.5265
▁fhoirgniú	-11.5268
▁chaird	-11.5276
▁comhlucht	-11.5276
▁Creidim	-11.528
bona	-11.528
Ão	-11.5285
ghearrtha	-11.5287
ged	-11.5288
▁spreag	-11.5289
▁guth	-11.5289
▁Aistriú	-11.5295
▁dall	-11.5296
▁mhéada	-11.5298
▁Teasta	-11.5298
▁monar	-11.5306
▁formheasa	-11.5313
▁Díol	-11.5314
▁coisctheach	-11.5314
▁82	-11.5315
caife	-11.5318
▁coibhneas	-11.5323
▁gceanglaí	-11.5326
óthach	-11.5327
asta	-11.5331
▁rát	-11.5335
▁187	-11.5341
▁uala	-11.5342
▁Mes	-11.5343
▁hidir	-11.5346
▁snámh	-11.5347
sraon	-11.5348
▁81	-11.5352
alach	-11.5353
▁cheil	-11.5354
uation	-11.5354
▁chosant	-11.5355
▁atmaisféar	-11.5358
▁aithní	-11.5359
▁Tosa	-11.5361
med	-11.5362
▁cuaill	-11.5365
únt	-11.5366
▁ríocht	-11.5367
▁Teacht	-11.5369
▁struchtú	-11.5369
▁chíosa	-11.5371
▁mhilliú	-11.5375
GS	-11.5375
aobh	-11.5384
▁Cha	-11.5387
▁bá	-11.5387
hanc	-11.5396
▁neamhdh	-11.5397
▁cruithneachta	-11.5397
▁einsím	-11.5401
▁fuin	-11.5405
▁140	-11.5405
▁físe	-11.5407
bian	-11.541
▁spreagú	-11.5412
▁malartach	-11.5414
▁iomaíocha	-11.5414
▁Mhí	-11.5416
▁tor	-11.5417
ial	-11.5418
▁substaintiú	-11.5419
▁fhoca	-11.542
aliforni	-11.5421
▁188	-11.5423
chéim	-11.5427
irc	-11.5428
▁cruthaitheach	-11.5435
▁brains	-11.5437
▁fearai	-11.5438
▁reachta	-11.5438
▁Mheic	-11.544
▁Long	-11.5442
▁Conra	-11.5442
▁táirgeacht	-11.5444
shot	-11.5447
▁123	-11.5452
▁líníocht	-11.5453
bheart	-11.5455
mg	-11.5456
▁Sampla	-11.5457
▁laghd	-11.5459
▁onnmhair	-11.5461
obac	-11.5462
▁thráth	-11.5465
ro	-11.5467
▁hair	-11.5469
Ord	-11.5469
éisteacht	-11.5469
árach	-11.5476
sta	-11.5485
▁MB	-11.5487
▁gcearta	-11.5488
▁comhordaithe	-11.5491
▁maidin	-11.5496
▁ciont	-11.5503
▁tora	-11.551
▁Gael	-11.5511
aingne	-11.5512
▁Se	-11.5512
▁Mhic	-11.5516
▁aisíoca	-11.5519
airí	-11.5523
▁clog	-11.5525
láinte	-11.5525
▁threala	-11.5526
▁hairgead	-11.5531
▁Bainistí	-11.5534
▁Teo	-11.5538
▁gcroí	-11.5542
▁roghnó	-11.5546
▁Govern	-11.5551
uaithi	-11.5551
▁Marquette	-11.5551
▁cucumber	-11.5551
▁iargúlta	-11.5551
▁tuarasgabhá	-11.5551
▁tipiciú	-11.5551
▁Sliocht	-11.5551
▁Ghréig	-11.5551
▁Transport	-11.5551
▁Luimn	-11.5551
lowjob	-11.5551
▁TRÍ	-11.5551
▁habairt	-11.5552
▁Cábla	-11.5552
▁Socru	-11.5552
▁Network	-11.5552
▁Archive	-11.5552
▁choirp	-11.5552
▁Spiorad	-11.5553
▁siopadóireacht	-11.5554
▁cara	-11.5554
▁sciorta	-11.5554
▁Áireo	-11.5555
ordó	-11.5555
▁Leigheas	-11.5556
▁Cosc	-11.5556
▁Éisteacht	-11.5557
▁Saoirse	-11.5557
▁atáirgea	-11.5557
▁cartúi	-11.5557
▁Ghnócha	-11.5558
▁Digit	-11.556
inneas	-11.5561
▁Anailís	-11.5562
▁Chuntas	-11.5562
▁bhanchéil	-11.5563
shaoire	-11.5563
▁clúmhillte	-11.5563
▁craobh	-11.5564
▁dosage	-11.5567
inmhianaithe	-11.5567
▁eml	-11.5568
▁trócaire	-11.5568
mhaoin	-11.5569
▁gao	-11.557
▁PE	-11.5572
▁dhigiteach	-11.5572
▁Thu	-11.5575
foirt	-11.5576
Imm	-11.5576
▁seachadfa	-11.5579
▁torrach	-11.5582
▁chomhionann	-11.5582
▁toiltean	-11.5582
▁searmana	-11.5582
▁shlándá	-11.5584
▁grianchlo	-11.5584
taisí	-11.5584
▁Road	-11.5584
▁Tástála	-11.5585
ions	-11.5587
▁Life	-11.5587
▁ceadó	-11.5588
ráitea	-11.5592
▁sainchomha	-11.5594
▁fillteá	-11.5594
▁Féin	-11.5596
▁fiontraíocht	-11.5599
iontaobha	-11.56
▁mball	-11.5605
▁Daid	-11.5605
▁clára	-11.5605
▁Gold	-11.5606
▁tionnsca	-11.5608
▁ardvolta	-11.5608
▁laig	-11.5609
▁lámhleabha	-11.561
▁impleacht	-11.5611
▁daingn	-11.5614
▁Cúit	-11.5614
▁fair	-11.5614
▁Cong	-11.5614
▁fonn	-11.5616
▁Aibí	-11.5617
abháil	-11.5617
▁gcluich	-11.5619
fhás	-11.562
▁97	-11.5621
▁díortha	-11.5622
iarmhéid	-11.5622
▁húsáideoir	-11.5622
cháilithe	-11.5622
▁fillte	-11.5625
áireofa	-11.5625
▁TUA	-11.5629
79	-11.5631
cliant	-11.5631
▁grinnscrúdú	-11.5632
Éirinn	-11.5633
reamh	-11.5633
▁scaird	-11.5638
▁Láir	-11.5642
uatha	-11.5642
▁Seola	-11.5642
▁monarú	-11.5649
▁trasna	-11.565
▁hinfheistíochta	-11.5651
▁ster	-11.5653
▁114	-11.5655
15	-11.5655
▁Chaomhn	-11.5657
súil	-11.5659
▁Cearta	-11.566
▁Réims	-11.5663
saorghluaiseacht	-11.5664
shaoil	-11.5665
▁fhága	-11.5665
▁Or	-11.5669
men	-11.5672
▁vi	-11.5674
iliú	-11.5675
▁taitneamhach	-11.5676
intreach	-11.5678
▁Cánacha	-11.5678
▁tásc	-11.5679
▁Réalt	-11.568
eagra	-11.5681
▁inneacha	-11.5682
ilte	-11.5683
únant	-11.5684
▁phriontáil	-11.5689
▁bronn	-11.5697
▁Dáil	-11.5699
▁bata	-11.5699
infheistíochta	-11.5701
▁Meá	-11.5703
▁oidhreachta	-11.5705
ib	-11.5711
▁Choimisinéir	-11.5716
áird	-11.5717
▁chothrom	-11.5721
fhoir	-11.5733
▁Aois	-11.5736
▁grafa	-11.574
▁bunacha	-11.574
▁cheannta	-11.5748
▁deisiú	-11.5752
▁seaicé	-11.5752
TV	-11.5755
29	-11.5756
chumhacht	-11.5758
▁carraig	-11.5771
intinn	-11.5773
cadé	-11.5776
▁Ghairm	-11.5777
▁orla	-11.5783
▁Breis	-11.5788
ence	-11.5791
▁Sl	-11.5791
▁PO	-11.5793
▁bpragh	-11.5797
▁cáis	-11.5798
▁aisghair	-11.5799
▁gCuma	-11.5802
▁slat	-11.5808
teileachumarsáid	-11.5809
cháil	-11.5811
▁peil	-11.5817
▁ru	-11.5818
ghlactha	-11.5819
íotáiniam	-11.5824
▁snáith	-11.5825
▁Nar	-11.5829
rbh	-11.5831
▁bhunúsach	-11.5831
▁shainiú	-11.5832
▁haistriú	-11.584
CI	-11.5843
▁threor	-11.5844
▁tuill	-11.5847
láithreacht	-11.585
▁alla	-11.585
▁Fíor	-11.5851
▁Cuimsi	-11.5857
▁Rún	-11.5859
▁tiocfa	-11.5863
use	-11.5873
néal	-11.5874
▁dífhost	-11.5882
▁athar	-11.5883
▁oiriúnaí	-11.5884
▁bolgá	-11.5899
▁Eacnamaíocht	-11.5902
time	-11.5905
▁scar	-11.5907
▁Leagt	-11.5908
▁choiriú	-11.5911
▁Clas	-11.5914
ILL	-11.5923
▁creidiúnaí	-11.5925
oitianta	-11.5928
▁aiste	-11.5935
áire	-11.5938
▁tionóisc	-11.5938
▁sása	-11.5941
▁Cruinn	-11.5942
tail	-11.5954
▁croílár	-11.5955
iúró	-11.5955
▁oighea	-11.5957
▁Léiriú	-11.5961
▁taispeána	-11.5969
aitheoir	-11.5977
▁It	-11.5981
▁UN	-11.5984
▁aithnío	-11.5986
▁ml	-11.5988
▁ghló	-11.5991
▁ime	-11.5992
▁Leathn	-11.5997
▁ollscoile	-11.5998
▁Thar	-11.5999
asmuigh	-11.6002
ork	-11.6002
▁Cor	-11.6003
▁loc	-11.6003
loic	-11.6004
▁Brú	-11.6006
▁coimeádfa	-11.6006
ow	-11.6007
▁Mini	-11.601
▁aontú	-11.6011
rolla	-11.6012
▁coláist	-11.6013
▁Soláthró	-11.6015
Aighne	-11.6017
heilg	-11.6018
▁cúlghairm	-11.6019
▁St	-11.6022
▁115	-11.6025
▁gé	-11.6025
gram	-11.6026
▁iniompartha	-11.6028
▁Rogha	-11.6029
▁Cóip	-11.6031
ubai	-11.6032
▁thig	-11.6039
▁gcoimeádá	-11.604
▁ndualga	-11.6046
▁Caiteacha	-11.6049
▁Rang	-11.6049
▁Cead	-11.605
ompany	-11.6051
éan	-11.6054
▁dhe	-11.6059
▁Seanad	-11.6061
▁Sit	-11.6065
olaí	-11.6068
▁corr	-11.6071
liúnta	-11.6076
▁Satailíte	-11.6078
▁ndéileálfa	-11.6078
▁phonc	-11.6078
▁seimineá	-11.6078
▁Dúbailte	-11.6078
▁fluaraiseach	-11.6078
▁foilseachá	-11.6078
▁massage	-11.6078
▁Pandora	-11.6078
▁fhréamh	-11.6078
▁comhréidh	-11.6078
apór	-11.6078
▁gcaipit	-11.6078
▁stiall	-11.6078
▁comhraic	-11.6078
▁shaincheist	-11.6078
▁Tiomána	-11.6078
▁neamhchiontach	-11.6078
▁Royal	-11.6079
▁píolóta	-11.6079
▁fionnu	-11.6079
▁míbhuntáist	-11.6079
▁Pholainn	-11.6079
▁íoslaghd	-11.608
▁ghabhálta	-11.608
▁1916	-11.608
▁créachta	-11.608
▁Bharra	-11.6081
▁dtarla	-11.6081
▁ROS	-11.6082
▁Stra	-11.6082
▁Cairdi	-11.6082
CPL	-11.6082
▁éadroim	-11.6083
asket	-11.6083
▁fabraic	-11.6083
▁ndoiciméad	-11.6083
mateur	-11.6083
▁ilghnéitheach	-11.6084
▁COMMI	-11.6086
▁Boy	-11.6086
▁ainsealach	-11.6086
98	-11.6087
▁Bhea	-11.6087
▁háise	-11.6089
mhíleata	-11.6091
▁neamhrialta	-11.6091
▁bhronna	-11.6092
▁Food	-11.6092
▁Shaorstá	-11.6094
▁cuairteoir	-11.6096
▁Saol	-11.6096
▁dhaltaí	-11.6097
▁Chair	-11.6098
▁briste	-11.6098
▁dtuismitheoir	-11.6099
alú	-11.6099
▁bhfáil	-11.61
ria	-11.6103
▁1943	-11.6105
▁phríosún	-11.6105
▁péint	-11.6106
▁tiúbair	-11.6107
▁neamhchorpra	-11.6107
▁Cúntóir	-11.6108
▁hús	-11.6109
▁droich	-11.6109
▁Select	-11.611
▁braiteoir	-11.6111
▁bunuithe	-11.6112
▁láimhdeacha	-11.6113
▁lamhálta	-11.6115
▁déantúsaíocht	-11.6117
▁chomhtháth	-11.6117
▁feadán	-11.612
▁Cogadh	-11.612
▁cinnfid	-11.6122
▁éagóir	-11.6122
▁ghream	-11.6123
MENT	-11.6123
▁meánmhéid	-11.6126
ruailliú	-11.6127
▁dhiúlta	-11.613
▁ceacht	-11.6134
▁Ioncam	-11.6135
haill	-11.6138
LAF	-11.6139
▁eachtra	-11.614
▁baincéir	-11.614
láraithe	-11.6141
fide	-11.6143
▁troscá	-11.6151
39	-11.6151
▁cúlra	-11.6153
eachtaí	-11.6155
▁baictéir	-11.6161
▁Ordu	-11.6161
nstruction	-11.6163
archéime	-11.6166
mas	-11.6181
▁gheobhfa	-11.6183
idirbheart	-11.6199
árachaithe	-11.62
▁88	-11.62
iniúchóir	-11.62
▁Cairt	-11.6204
▁forbraío	-11.6204
▁comhlíonfa	-11.6204
phlé	-11.6206
chárta	-11.6208
▁fál	-11.6209
▁cumaisc	-11.6214
▁Chabh	-11.6218
fhorchu	-11.6219
▁huisc	-11.622
▁himscrúd	-11.6221
bhealaí	-11.6222
▁fhéidearthacht	-11.6223
hordó	-11.6226
▁vii	-11.6227
▁ceartaitheach	-11.6232
▁uirb	-11.6239
▁sighn	-11.6245
ES	-11.6249
▁Daonlatha	-11.6256
▁crannchu	-11.6257
▁dhleacht	-11.626
▁óstach	-11.6261
▁tura	-11.6261
▁díl	-11.6261
▁han	-11.6265
▁dob	-11.6266
▁adhmad	-11.6267
▁dhíscaoil	-11.627
▁fánaíocht	-11.6274
▁tonn	-11.6285
▁cleithiúnach	-11.6287
▁chú	-11.6291
▁deire	-11.6291
líon	-11.6293
▁hionad	-11.6294
▁Bhlia	-11.6295
TE	-11.6295
eamara	-11.6305
▁sainmhíni	-11.6315
NR	-11.6318
RE	-11.6322
choimisiún	-11.6325
▁scé	-11.6327
cair	-11.6333
orie	-11.6335
▁103	-11.6336
▁sola	-11.6337
agre	-11.6339
▁Don	-11.6348
▁stopa	-11.6353
▁Mír	-11.6354
▁bloc	-11.6356
máil	-11.6359
▁Mi	-11.6362
▁198	-11.6364
AN	-11.6364
TTE	-11.6365
▁nuálaíochta	-11.6366
▁ceannas	-11.6368
outh	-11.6372
▁iris	-11.6372
▁Seice	-11.6375
achtaí	-11.6377
ianbhreith	-11.6379
uaird	-11.6384
▁Earná	-11.6391
chláraithe	-11.6392
▁Gaelscoil	-11.6392
eastá	-11.6393
▁deireana	-11.6394
▁háitiú	-11.6399
cheapann	-11.6404
▁gráin	-11.6406
▁Fuaime	-11.6406
loine	-11.6408
ted	-11.6412
ized	-11.642
áthú	-11.6421
99	-11.6421
▁sócmhainne	-11.6426
▁scáthá	-11.6427
48	-11.6428
▁dteacht	-11.6429
▁Ski	-11.6436
▁org	-11.6436
▁Cineálach	-11.6443
▁thionónta	-11.6444
irg	-11.6445
▁inniúlachta	-11.6446
▁luacha	-11.6447
▁160	-11.6464
50	-11.6465
éar	-11.6477
croílár	-11.6477
▁chaibid	-11.6482
▁Herm	-11.649
▁Bog	-11.6497
▁rian	-11.6499
▁bhainisteo	-11.6501
▁Taispeán	-11.6509
▁Luach	-11.6511
▁Ailt	-11.6513
▁gram	-11.6513
▁Cure	-11.6515
IC	-11.652
▁RIAL	-11.6525
rab	-11.6528
aidrea	-11.6531
cheannta	-11.6532
ED	-11.6534
▁Teagmhála	-11.6534
▁phionó	-11.6536
▁Riachtana	-11.6538
ny	-11.6538
mheas	-11.6539
▁tiomna	-11.6539
▁Coist	-11.6542
▁oidhreachtá	-11.6543
▁gceadó	-11.6547
heathrú	-11.6548
léasóir	-11.6553
▁síntiús	-11.6555
▁soláthrói	-11.6555
sam	-11.6556
▁gcead	-11.6557
aiste	-11.6559
▁gclá	-11.6559
bhunscoile	-11.6559
▁suiteáilte	-11.6563
tae	-11.6564
▁ya	-11.6569
bhainte	-11.6571
▁Com	-11.6575
▁chinntí	-11.6576
eoir	-11.6578
▁milliú	-11.6579
▁shoiléir	-11.6586
08	-11.6586
▁Luc	-11.6586
uk	-11.6587
áirge	-11.659
CE	-11.6592
▁Fás	-11.6593
tions	-11.6594
▁Náisiú	-11.6595
iúlacht	-11.6598
fhéadf	-11.6598
▁Tacaíon	-11.6602
▁thairbh	-11.6604
▁thruailli	-11.6605
▁ingearach	-11.6607
▁Ceada	-11.6609
▁gníomhaireacht	-11.6615
faí	-11.6616
▁mionbhr	-11.6616
▁Comhdhlú	-11.662
isghairm	-11.6621
▁cóimheas	-11.6623
atellite	-11.6624
draig	-11.6631
▁Star	-11.6633
▁Cónaidhm	-11.6633
▁Environment	-11.6633
▁ngeilleaga	-11.6633
▁Reifr	-11.6633
▁mbosca	-11.6633
▁Sealadach	-11.6633
▁orgasm	-11.6633
▁Expe	-11.6633
▁gcreat	-11.6633
▁Íoslódáil	-11.6633
▁Éadrom	-11.6633
▁lóisteáil	-11.6633
▁Léarscáil	-11.6633
▁réamhíoc	-11.6633
▁fiailí	-11.6634
▁comharba	-11.6634
▁fhógrá	-11.6634
▁hÁise	-11.6634
▁seirbheáil	-11.6634
▁bioráin	-11.6634
▁bplanda	-11.6634
▁dhámhachtain	-11.6634
▁hInstitiúid	-11.6634
▁Chumhacht	-11.6634
▁fóirst	-11.6634
▁shórt	-11.6635
▁meaitseá	-11.6635
chorraithe	-11.6635
▁bhagú	-11.6635
▁Róimh	-11.6636
▁conclúid	-11.6636
▁tomhalta	-11.6636
▁Bonneaga	-11.6636
▁huimhreach	-11.6636
inéiv	-11.6637
▁1944	-11.6637
▁piorra	-11.6637
▁folláin	-11.6638
▁dtionscada	-11.6638
bhall	-11.6639
▁coinneála	-11.664
▁720	-11.664
▁botú	-11.6641
▁Margaí	-11.6641
▁Rúnaí	-11.6641
▁372	-11.6641
athcheap	-11.6641
ÉIS	-11.6641
▁Caidr	-11.6642
▁ghní	-11.6642
▁toimhdeo	-11.6642
itreo	-11.6642
▁staon	-11.6643
▁comhrá	-11.6643
▁Raidi	-11.6644
▁Maoirseacht	-11.6645
▁thosó	-11.6645
▁Mús	-11.6646
▁bairille	-11.6646
▁díolta	-11.6647
▁comhchosú	-11.6649
SO	-11.665
▁pacála	-11.6651
▁TUAIRIM	-11.6652
▁450	-11.6652
dháil	-11.6654
▁Manufacturer	-11.6655
▁péire	-11.6659
ster	-11.6659
▁hath	-11.666
▁expe	-11.666
▁dramhaíola	-11.6661
▁Ardoideachais	-11.6662
▁Thre	-11.6662
▁Februar	-11.6662
▁Práinne	-11.6663
▁cúnta	-11.6665
streach	-11.6665
▁ghabháltais	-11.6667
▁leictrea	-11.6667
▁clasp	-11.6668
▁phraiticiú	-11.6668
▁hairteaga	-11.6669
▁límistéir	-11.6669
áirse	-11.667
bail	-11.667
▁elegan	-11.6671
▁bhiotáille	-11.6672
▁háireamh	-11.6673
ealaíon	-11.6673
▁shean	-11.6674
flashing	-11.6674
▁Díolachá	-11.668
▁dhíolmh	-11.668
▁Stamp	-11.6688
▁chothabhála	-11.6688
▁spraeá	-11.6691
▁ghealltana	-11.6691
NBA	-11.6692
▁éilithe	-11.6692
▁earnálach	-11.6693
▁Lé	-11.6694
▁Bhearta	-11.6695
▁Íos	-11.6695
▁Halla	-11.6698
▁naked	-11.6699
▁Treora	-11.6701
▁thriom	-11.6702
quo	-11.6702
mheabhrach	-11.6702
óid	-11.6703
▁freagarthach	-11.6705
gar	-11.6708
▁shaoirs	-11.6711
táblaí	-11.6711
ón	-11.6711
▁marthanacht	-11.6714
▁siombail	-11.6714
▁House	-11.6714
láimhs	-11.6715
▁mhéadaithe	-11.6715
chónaí	-11.6715
ov	-11.6717
iarrfa	-11.6717
▁carbó	-11.672
aibh	-11.672
▁mbunófa	-11.6721
▁Teachtaireacht	-11.6726
▁Old	-11.6728
▁Bainisteoir	-11.6728
▁sealúcha	-11.6729
▁Stop	-11.6729
gal	-11.673
▁radaíocht	-11.673
dom	-11.673
▁chomhlucht	-11.6731
▁bhuachaill	-11.6733
▁ghlao	-11.6735
▁príosún	-11.6738
chomhshocraíocht	-11.674
ery	-11.6745
▁íon	-11.6751
▁comhaonta	-11.6752
achtachá	-11.6752
zhen	-11.6754
PS	-11.6754
▁Spa	-11.6762
▁Comhionanna	-11.6763
▁brón	-11.6764
▁cólíona	-11.6767
agairt	-11.677
ON	-11.6774
▁Mala	-11.6777
séasú	-11.6778
chéime	-11.6785
▁Breise	-11.6786
▁Bárda	-11.6786
phing	-11.6788
Press	-11.6788
▁haicm	-11.6789
▁IAR	-11.6792
táin	-11.6793
▁éagórach	-11.6794
▁lionsa	-11.6798
▁chos	-11.6801
▁chomhroinnt	-11.6802
▁cainte	-11.6804
▁Gloin	-11.6809
▁Seacht	-11.6813
▁Fre	-11.6814
▁glacadóir	-11.6814
▁Doirt	-11.6819
▁fille	-11.6821
hange	-11.6821
▁Cúrsa	-11.6822
watch	-11.6823
▁Map	-11.6824
Astráil	-11.6825
▁you	-11.6826
íoga	-11.6827
cineál	-11.6827
bhainisteoir	-11.683
▁220	-11.683
▁fhéil	-11.6832
▁príntíseach	-11.6834
eform	-11.6837
▁garraíodóir	-11.6841
Iarscríbhinn	-11.6841
▁Puiblí	-11.6843
▁cigireacht	-11.6843
íosparta	-11.6847
mirce	-11.6847
▁Lu	-11.6851
teaghlaigh	-11.6852
▁Shamh	-11.6857
álainn	-11.6858
git	-11.6858
and	-11.6867
Doc	-11.6869
▁frithsheasmhach	-11.6871
55	-11.6872
▁RIALTA	-11.6874
▁Translat	-11.6876
▁Tuairisceá	-11.6877
▁uacht	-11.6877
▁ionmhuir	-11.688
▁charms	-11.689
▁dúich	-11.6891
eidhmeannach	-11.6901
▁Mha	-11.6903
oo	-11.6903
rd	-11.6904
cheangailte	-11.6906
▁dífhosta	-11.6911
ph	-11.6914
idirthréimhseach	-11.6915
78	-11.6916
▁chumarsáid	-11.6917
ND	-11.6925
▁chuimhne	-11.6927
▁chine	-11.6927
ainn	-11.6935
▁cealú	-11.6936
GB	-11.6936
▁lúb	-11.6943
airde	-11.695
▁háir	-11.695
▁shamhl	-11.6965
▁800	-11.6967
▁Toir	-11.6975
▁theicneolaíocht	-11.6976
▁neamhch	-11.6981
▁choinbhleacht	-11.6984
▁Eit	-11.6986
▁92	-11.6986
▁mhille	-11.6987
▁Solad	-11.699
▁uachtarán	-11.6993
ingne	-11.6997
▁deonfa	-11.6998
▁Ceapfa	-11.7001
▁mhuiri	-11.7002
hliste	-11.7006
achán	-11.7006
áirmhí	-11.701
▁cainníocht	-11.7014
▁cáipéisí	-11.7015
▁bhliant	-11.7028
▁87	-11.703
▁Leag	-11.7035
▁nb	-11.704
▁trae	-11.7041
íochtaí	-11.7047
▁Leagfa	-11.705
▁Foirgn	-11.7054
▁earc	-11.7054
▁chreidea	-11.7055
▁daingniú	-11.7056
sion	-11.7057
pa	-11.7058
▁amhrán	-11.7069
▁fálta	-11.707
▁téad	-11.7071
ráta	-11.7071
▁ardaigh	-11.7073
▁dhlíthiúla	-11.7078
▁seiceál	-11.7078
▁mil	-11.7079
VA	-11.7084
▁cat	-11.7084
22	-11.7096
tuairiscí	-11.7097
▁Hand	-11.7103
▁Ionchúis	-11.7103
▁cónaitheach	-11.7107
▁comhr	-11.7107
ocsaíd	-11.7108
réimhe	-11.7117
▁Auto	-11.7119
▁réasú	-11.7125
▁Críoch	-11.7127
▁cistin	-11.7127
eisia	-11.7128
uilte	-11.7133
▁iompa	-11.7134
▁Freagraí	-11.7136
▁póstae	-11.7139
▁Log	-11.714
▁Her	-11.714
▁tionóntacht	-11.714
ily	-11.7143
rón	-11.7143
▁caithf	-11.7144
▁ceo	-11.7149
▁gabha	-11.715
úsai	-11.7157
éin	-11.716
▁shocra	-11.7161
▁éite	-11.7165
▁dheimhn	-11.7169
▁phrionsaba	-11.717
íoch	-11.7171
▁hiasachtaí	-11.7171
▁fíric	-11.7171
▁thuairiscí	-11.7172
▁chon	-11.7178
▁from	-11.7179
ac	-11.7184
▁Teid	-11.7187
▁uaim	-11.7188
▁luch	-11.7188
▁earráide	-11.7192
▁leachtach	-11.7193
▁Ceadúna	-11.7204
▁700	-11.7205
▁Custa	-11.7205
SMA	-11.7207
▁Réim	-11.7209
▁deacra	-11.7211
▁eadrá	-11.7213
▁Thiar	-11.7214
▁aistarraingt	-11.7215
▁bhuisé	-11.7216
▁feabha	-11.7219
▁aistrío	-11.722
experience	-11.7221
▁Countertop	-11.7221
▁Iompórtáil	-11.7221
▁Maoirseoir	-11.7221
▁coiníoll	-11.7221
▁unbeliever	-11.7221
▁Stóráil	-11.7221
▁Consolidat	-11.7221
▁roghchlá	-11.7221
▁spéacl	-11.7221
▁eorna	-11.7221
▁figiúr	-11.7221
▁ultra	-11.7221
▁Pearl	-11.7221
▁robot	-11.7221
▁Comhthái	-11.7221
EREC	-11.7222
▁geata	-11.7222
▁loighic	-11.7222
▁Phort	-11.7222
▁Íosluchtai	-11.7222
vigation	-11.7222
▁printíseachta	-11.7222
▁Independen	-11.7222
▁sheas	-11.7222
▁mheaitseá	-11.7222
▁pussy	-11.7223
▁flúirse	-11.7223
▁mhionsonra	-11.7223
▁réamheolair	-11.7223
▁shíl	-11.7223
▁sceit	-11.7223
▁bhailecheannta	-11.7224
▁garbh	-11.7224
▁sciúr	-11.7224
▁lacáist	-11.7225
▁Plaisteach	-11.7225
▁tionóntá	-11.7225
BE	-11.7225
▁meabhair	-11.7226
▁scarda	-11.7226
▁OF	-11.7226
▁trucail	-11.7226
▁ornáideach	-11.7226
▁spéir	-11.7227
aothair	-11.7227
▁míshásta	-11.7227
▁bruit	-11.7227
▁bhreithiúnach	-11.7227
▁dteast	-11.7227
▁rannóg	-11.7228
▁ionstraime	-11.7228
óibh	-11.7229
▁Dír	-11.7229
BLA	-11.723
ÁC	-11.723
▁osclaío	-11.7231
ósta	-11.7231
DARA	-11.7231
▁scratch	-11.7231
▁hullmhú	-11.7232
▁Cross	-11.7233
▁Ho	-11.7234
▁chomhall	-11.7235
▁maisithe	-11.7236
▁Play	-11.7236
ER	-11.7236
ble	-11.7238
▁uathoibrithe	-11.7238
▁shaineola	-11.7238
orcaigh	-11.7239
▁oblagáid	-11.7242
▁Rud	-11.7243
▁Díolúin	-11.7244
▁súl	-11.7245
▁Creidmheasa	-11.7249
▁gceadaí	-11.7252
aife	-11.7252
▁barúlach	-11.7254
▁atráth	-11.7256
▁hoibrithe	-11.7257
▁chomhacht	-11.7258
▁Soghluaisteacht	-11.7258
▁uasteorainn	-11.7258
▁truaillithe	-11.7259
▁bhrabhsála	-11.726
▁folúntais	-11.7264
▁Phen	-11.7265
amhábhar	-11.7266
ves	-11.7267
MI	-11.7267
iomad	-11.7271
▁Rialaitheoir	-11.7272
▁fála	-11.7273
▁toillea	-11.7273
INMH	-11.7274
scríbhneoireacht	-11.7277
▁fhuil	-11.7277
▁Human	-11.7278
▁Su	-11.728
996	-11.7284
iomláin	-11.7289
▁iarrfaid	-11.7289
▁Ráth	-11.7291
holáiste	-11.7293
▁nuálach	-11.73
▁imdhíonach	-11.7307
▁Plé	-11.7307
▁asbhainte	-11.731
▁Bhliantú	-11.7311
▁iarrata	-11.7312
▁easna	-11.7312
▁Íocaíocht	-11.7313
raithe	-11.7313
▁Bhun	-11.7314
▁coibhéiseach	-11.7319
▁matá	-11.7319
▁185	-11.732
▁oighi	-11.7321
ógaiseoir	-11.7322
▁Chicago	-11.7323
▁coist	-11.7324
▁fhuinn	-11.7325
bunscoile	-11.7327
▁machnamh	-11.7327
▁roll	-11.733
onraithe	-11.7331
▁himeacht	-11.7331
▁múinea	-11.7334
▁Polic	-11.7337
▁Cíoch	-11.7338
MU	-11.7339
▁Neart	-11.7342
▁teagmhasach	-11.7344
21	-11.7351
▁dtéa	-11.7351
▁bille	-11.7352
▁Coimeádfa	-11.7355
▁lu	-11.7355
▁lása	-11.7356
halamh	-11.7357
▁seirbheálfa	-11.7357
HUR	-11.7366
▁mianadóireacht	-11.7368
▁Creidea	-11.7369
líochta	-11.7369
léireach	-11.7369
gCabh	-11.737
▁bpacáist	-11.7372
▁neamhchónaithe	-11.7373
▁ionchasach	-11.7379
▁pháirc	-11.738
▁príomhshuim	-11.7383
▁mbarr	-11.7383
▁hiarra	-11.7384
▁Chorparáide	-11.7384
▁phósta	-11.7385
▁ndeach	-11.7386
▁theorainne	-11.7388
▁intleachtú	-11.7391
▁inléite	-11.7394
▁tairgeoir	-11.7397
▁Tuig	-11.74
▁substainteach	-11.7404
my	-11.741
roinnt	-11.7412
itheora	-11.7414
cy	-11.7416
▁ionadaitheach	-11.7417
out	-11.742
náthchónaitheoir	-11.7423
▁híocfa	-11.7423
▁dheonófa	-11.7426
▁tíl	-11.7426
▁fáltai	-11.7427
▁fóin	-11.7428
▁mbanc	-11.7431
▁Chomhalta	-11.7433
omhad	-11.7437
▁rátáil	-11.7441
oscailt	-11.7443
▁hainmh	-11.7444
▁Sun	-11.7445
táill	-11.7447
▁ghlas	-11.7448
▁phríosúnacht	-11.7449
▁porno	-11.7451
▁mull	-11.7455
aireachta	-11.7456
▁COD	-11.7461
▁aschu	-11.7461
éilitheoir	-11.7463
▁comhréire	-11.7465
▁mhaoine	-11.7466
▁hOllscoil	-11.7466
tabhairt	-11.7469
▁mhais	-11.7469
▁Chomhdhá	-11.747
MÁ	-11.7475
▁lón	-11.7478
tan	-11.7479
▁Jer	-11.7481
▁Treoirl	-11.7482
▁allmhaireoir	-11.7484
▁príosúnach	-11.7485
Chumann	-11.7488
▁gréasán	-11.7489
ri	-11.7491
▁cuideachtan	-11.7496
báiste	-11.7497
17	-11.7498
ISTE	-11.75
▁cumais	-11.7505
▁bialann	-11.7505
simplí	-11.7507
▁ciúin	-11.752
achar	-11.7521
gan	-11.7522
▁Europa	-11.7526
ithní	-11.7526
▁allmhair	-11.7527
▁Sing	-11.7529
▁dtáirge	-11.7529
suas	-11.7533
ink	-11.7542
▁Mé	-11.7545
▁grán	-11.7556
thráchta	-11.7562
▁coigistíoch	-11.7565
▁bunaíochta	-11.7567
▁Cheanada	-11.7578
▁corp	-11.7579
▁Comisi	-11.7582
▁múnlaí	-11.7583
troigh	-11.7583
▁aistr	-11.7584
▁SD	-11.7585
▁mothúchá	-11.7589
▁cadá	-11.7591
▁bhac	-11.7591
▁ndeara	-11.7602
▁grean	-11.7604
▁pra	-11.7609
▁EC	-11.761
▁bpá	-11.7611
▁Téarma	-11.7613
▁SF	-11.7615
▁bpáirtí	-11.7618
▁Luan	-11.7629
esearch	-11.7629
▁grúp	-11.763
lly	-11.7637
▁gcruthaí	-11.7637
liú	-11.7638
aw	-11.7642
scéim	-11.7648
▁My	-11.7649
zing	-11.7652
▁tógfa	-11.7654
áite	-11.7659
ey	-11.7661
▁ghlaca	-11.7663
▁optú	-11.7663
ilíoch	-11.7667
▁ailléirg	-11.767
ische	-11.767
umha	-11.7671
▁faci	-11.7681
▁Franc	-11.7682
▁éan	-11.7685
iteamh	-11.7691
▁home	-11.7708
▁leasu	-11.771
▁fhíor	-11.7711
othabhála	-11.7712
▁Comhar	-11.7712
▁MS	-11.7715
▁chainníocht	-11.7717
▁dlighf	-11.7719
▁minicíochta	-11.772
utter	-11.7721
▁liost	-11.7721
▁UV	-11.7722
ata	-11.7722
▁achomair	-11.7722
▁gcunta	-11.7727
▁críochn	-11.773
▁Cónaithe	-11.7735
▁radha	-11.7737
▁Críochna	-11.7737
▁thu	-11.774
▁main	-11.774
▁sochaí	-11.7741
press	-11.7742
▁leanúnacha	-11.7743
▁Diaper	-11.7743
▁mheasca	-11.7745
14	-11.775
▁Réalta	-11.7756
▁bu	-11.7758
▁Fol	-11.7766
TFT	-11.7769
898	-11.7776
▁nD	-11.7777
▁dóchúla	-11.7778
play	-11.7781
▁Lua	-11.7784
▁fhiosrú	-11.7784
▁sonrúchá	-11.7784
▁gcomhacht	-11.7785
▁Masturbat	-11.7786
▁Them	-11.779
▁heisia	-11.7791
▁congant	-11.7801
▁fhéachan	-11.7814
údarú	-11.7814
▁Pionó	-11.7816
▁Comhachta	-11.7817
▁Bhú	-11.7818
rialta	-11.782
achas	-11.7821
▁Bhreithe	-11.7821
▁deacracht	-11.7821
▁bhF	-11.7822
▁Rith	-11.7826
▁corparáid	-11.7827
zen	-11.7829
ithreach	-11.7829
earnóg	-11.783
▁hIo	-11.783
izer	-11.7831
▁Comhlíon	-11.7832
▁128	-11.7832
inte	-11.7832
▁scríbhneoir	-11.7838
▁sású	-11.7841
usiness	-11.7843
Erasmus	-11.7846
▁soláthrófa	-11.7846
▁suaimhnea	-11.7846
AR	-11.7846
▁Friend	-11.7846
▁Euroopa	-11.7846
▁Organization	-11.7846
▁priaca	-11.7846
▁Java	-11.7846
▁ngnáthnós	-11.7846
▁phíosa	-11.7847
HRÍ	-11.7847
▁Chomhbhearta	-11.7847
▁eitl	-11.7847
▁sláin	-11.7847
▁éiceachóra	-11.7847
Udarás	-11.7847
▁Fhuinn	-11.7847
▁Foilseo	-11.7847
▁Agricultur	-11.7847
▁Buntáist	-11.7847
iospói	-11.7848
▁mháithreacha	-11.7848
▁géiniteach	-11.7848
control	-11.7848
▁Agalla	-11.7849
▁FBM	-11.7849
▁humidor	-11.7849
▁connra	-11.7849
formation	-11.785
▁cheird	-11.785
▁stuama	-11.7851
▁muirearófa	-11.7851
▁Ceathrú	-11.7852
▁Game	-11.7852
ashington	-11.7852
▁sioc	-11.7854
▁teagla	-11.7855
▁hAer	-11.7856
ANCE	-11.7856
▁Tógála	-11.7856
▁Cluas	-11.7857
▁Turas	-11.7857
▁satellite	-11.7857
▁chomhlacha	-11.7858
▁tochailt	-11.7858
▁Tharla	-11.7859
▁athúsáid	-11.7859
▁deontóir	-11.7861
▁forbróir	-11.7861
héile	-11.7863
▁Ado	-11.7864
▁mhúnl	-11.7864
▁dócmhainneachta	-11.7864
▁buailte	-11.7865
▁Léireo	-11.7865
▁inrochta	-11.7865
▁Éasca	-11.7866
▁sách	-11.7866
66	-11.7867
▁Miotal	-11.7869
▁Scéal	-11.7869
▁Dochtúir	-11.787
▁Rátáil	-11.787
▁cháilith	-11.7871
▁Sócmhainn	-11.7874
Brasaíl	-11.7875
▁socraío	-11.7876
▁Modhanna	-11.788
Shéalainn	-11.7881
▁garda	-11.7881
▁Scoir	-11.7881
▁gcomórta	-11.7881
▁macánta	-11.7882
▁thárla	-11.7882
▁Simplí	-11.7883
▁Crua	-11.7885
▁fógrá	-11.7885
▁síntiúis	-11.7886
▁víreas	-11.7886
▁Programme	-11.7887
▁thimpeallacht	-11.7887
▁Cuntais	-11.7891
▁fuath	-11.7892
▁comhroinnt	-11.7892
▁próis	-11.7892
▁Fund	-11.7893
▁corcra	-11.7896
▁charr	-11.7899
▁chúlra	-11.79
▁bhinse	-11.79
praghas	-11.79
▁iomarcaíochta	-11.7901
▁ngabhál	-11.7903
▁forghníomhaithe	-11.7906
▁Muirear	-11.7909
▁dhíoth	-11.791
obha	-11.7911
▁dhi	-11.7914
▁chláraitheoir	-11.7914
▁Meas	-11.7915
brainse	-11.7921
▁Reatha	-11.7922
▁Iarr	-11.7923
▁Right	-11.7925
▁pláiné	-11.7927
ilac	-11.7931
▁Bheag	-11.7932
néithe	-11.7934
▁diagnóiseach	-11.794
▁cionroinnt	-11.7942
▁chóiríocht	-11.7947
▁silic	-11.7947
▁Preas	-11.7949
▁jack	-11.7949
▁hairgeadra	-11.7951
▁HTML	-11.7954
▁market	-11.7956
▁aigéadacht	-11.7956
▁Smaoin	-11.7958
ábhair	-11.7961
eagrú	-11.7962
▁uaillmhian	-11.7964
ella	-11.7971
SP	-11.7976
▁mainneo	-11.7977
mainn	-11.7982
raíochta	-11.7982
▁Aerfo	-11.7984
▁Teoran	-11.7986
WER	-11.7988
▁rásaí	-11.7989
▁coimhdeach	-11.799
stáit	-11.7991
2020	-11.7997
▁gleo	-11.8
hathrach	-11.8003
▁roghnach	-11.8004
▁meáchaint	-11.8005
▁chara	-11.8006
tóra	-11.8007
▁fuaraithe	-11.8007
▁Lae	-11.8012
▁Breathna	-11.8013
▁leabharlann	-11.802
▁Athair	-11.8023
▁Forbraío	-11.8027
hlóga	-11.8028
▁cultú	-11.8031
▁3-4	-11.8031
easca	-11.8033
▁socraíochta	-11.8036
ianaise	-11.8037
▁duais	-11.8038
▁Raon	-11.8039
31	-11.804
▁Gl	-11.8049
▁hIarái	-11.8049
chomharc	-11.8053
▁104	-11.8054
▁carachtar	-11.8058
▁dhréacht	-11.806
róga	-11.8061
▁lenar	-11.8063
eisean	-11.8064
▁cósta	-11.807
▁formheas	-11.8071
▁Glaca	-11.8071
▁chlúda	-11.8075
Eagraíochta	-11.8077
Eabhra	-11.8077
ghabhála	-11.8086
▁bitheolaíoch	-11.809
▁Mhara	-11.8091
IV	-11.8092
oth	-11.8092
eum	-11.8094
▁lamhálfa	-11.8096
▁peaca	-11.8106
LISA	-11.8106
▁Eski	-11.8106
cted	-11.8108
AS	-11.8108
bhann	-11.8114
▁304	-11.8115
amháin	-11.8115
▁seam	-11.8116
ba	-11.8118
▁Innealtóireacht	-11.812
▁May	-11.8121
mhéide	-11.8122
CH	-11.8125
gnéis	-11.8125
ever	-11.813
▁mionn	-11.8131
▁comhfhreagra	-11.8131
▁dén	-11.8138
▁chrios	-11.8139
▁Mor	-11.8141
▁Izmi	-11.8142
▁gceapa	-11.8143
▁bhreathn	-11.8143
▁Páirc	-11.8146
thairgthe	-11.8147
▁Tír	-11.8148
chumas	-11.8151
▁suck	-11.8154
▁ghéillea	-11.8154
▁Care	-11.816
▁fhoilsithe	-11.8162
lín	-11.8162
▁CÚIRTE	-11.8169
cóip	-11.8176
nnel	-11.8178
▁mhianra	-11.8179
ullamh	-11.8182
▁eaglais	-11.8183
có	-11.8192
fhoirgn	-11.8198
indíreach	-11.8204
éid	-11.8208
thrádála	-11.8212
uaidhe	-11.8215
Stiúrthóir	-11.8219
▁chuimsitheach	-11.8221
fhostaí	-11.8221
▁Rad	-11.8223
ipín	-11.8226
fhoils	-11.8226
▁Bótha	-11.8229
▁gcomhaontó	-11.8231
ved	-11.8234
▁chomhréir	-11.8237
éinn	-11.8239
rian	-11.8243
▁Chomhlacha	-11.8244
▁deasc	-11.8244
▁scotha	-11.8246
▁Son	-11.8249
▁Táill	-11.8251
▁Fe	-11.8256
▁anti	-11.826
▁aerach	-11.826
port	-11.8268
▁ubh	-11.8275
▁asraon	-11.8277
▁Institut	-11.8279
umann	-11.828
aistreofa	-11.8281
▁dhea	-11.8281
ÓID	-11.8285
▁Justi	-11.8291
oc	-11.8292
óin	-11.8296
▁mbainfea	-11.8299
▁chomhairliúchá	-11.8304
▁new	-11.8306
▁dúr	-11.8309
▁incháilitheacht	-11.8309
léid	-11.8313
▁gcrios	-11.8313
bhuntáist	-11.8316
▁Eisea	-11.8323
▁Bhéar	-11.8324
bhar	-11.8325
▁Cruth	-11.8325
▁rollaí	-11.8327
▁contúirt	-11.833
▁neamhth	-11.8334
bus	-11.834
41	-11.8341
▁Wal	-11.8343
▁Ears	-11.8347
▁caoi	-11.8348
ÁN	-11.8353
▁106	-11.836
▁News	-11.836
IÚ	-11.8365
▁Fu	-11.8371
▁reiligiúnach	-11.8371
▁dhíl	-11.8375
▁Úsáidte	-11.8375
▁IW	-11.8375
▁murar	-11.8379
▁sub	-11.8387
▁chlo	-11.8391
▁deisiúchá	-11.8394
ortaingéil	-11.8402
ól	-11.8403
▁coibhéis	-11.8403
▁Teachtaireachta	-11.8403
▁gal	-11.8417
▁Éirí	-11.842
▁cóipe	-11.8435
▁mhuir	-11.8436
▁Idirlí	-11.8441
▁ioncha	-11.8442
ier	-11.8442
▁cónasca	-11.8443
ód	-11.8446
sláinte	-11.8446
▁breath	-11.8446
▁gcigire	-11.8449
▁Chuma	-11.8457
ines	-11.8464
▁Deis	-11.8465
▁coigilt	-11.8466
▁ealaíontóir	-11.8468
▁Mín	-11.8468
aibidil	-11.8473
Iodáile	-11.8481
▁Bainisti	-11.8482
▁Teagasc	-11.8485
▁dhigit	-11.8486
▁fhíon	-11.8489
▁komis	-11.849
▁Domha	-11.8491
ionstraimí	-11.8492
dróm	-11.8494
Alt	-11.8494
atalóg	-11.8494
▁athlas	-11.8498
cne	-11.8499
▁turgna	-11.8505
▁chló	-11.8507
lectric	-11.8511
phacáil	-11.8512
▁Alúmana	-11.8513
▁Cispheil	-11.8513
▁Dromchla	-11.8513
▁Oibleagáid	-11.8513
▁Phearsan	-11.8513
▁chimeád	-11.8513
▁DVD	-11.8513
▁caomhnaithe	-11.8513
▁tamaill	-11.8513
▁Sibhialta	-11.8513
▁Ceangal	-11.8513
SPORTS	-11.8513
▁Dílean	-11.8513
▁randamach	-11.8513
▁Spás	-11.8513
▁Píoló	-11.8513
▁clársceideal	-11.8513
▁Eurasia	-11.8513
▁Chúram	-11.8513
▁Coiscthe	-11.8513
▁loam	-11.8514
▁NFL	-11.8514
▁tánaisteach	-11.8514
▁ndeimhneo	-11.8514
▁consalachta	-11.8514
▁PET	-11.8514
▁Development	-11.8514
▁uilíoch	-11.8515
▁pléasctha	-11.8515
▁Bhruiséil	-11.8515
▁gCeanta	-11.8515
▁Meabhair	-11.8515
▁bhileog	-11.8515
▁dréachta	-11.8515
▁dobharshaothr	-11.8515
▁gnóthú	-11.8516
▁eisceacht	-11.8516
▁fiabhra	-11.8516
▁Aigéad	-11.8516
▁Crown	-11.8517
▁CHUID	-11.8517
▁bPrímh	-11.8517
▁Scríobh	-11.8518
▁Parad	-11.8518
oibrí	-11.8519
▁Mom	-11.852
▁dlisteanach	-11.852
▁fabhar	-11.852
▁dhílseána	-11.8521
54	-11.8521
NKO	-11.8522
▁promha	-11.8522
▁hIarscríbhinn	-11.8522
▁boilg	-11.8523
oz	-11.8524
Impireacht	-11.8525
▁GN	-11.8525
▁Inmheánach	-11.8525
▁anaithnid	-11.8526
▁deirfiúr	-11.8526
▁SLÁINT	-11.8526
▁Kora	-11.8526
▁cluas	-11.8526
▁Mer	-11.8527
▁Sci	-11.8527
▁cothrománach	-11.8528
▁suífea	-11.853
▁Light	-11.8532
▁hiarrachtaí	-11.8534
▁Inneal	-11.8535
▁komisi	-11.8537
▁eitleá	-11.8537
▁guaise	-11.8541
▁dTeaghla	-11.8541
▁1000	-11.8542
lorida	-11.8544
BO	-11.8545
▁gabh	-11.8546
ampála	-11.8548
▁Crois	-11.8549
▁ndualgais	-11.8554
▁lánaimsear	-11.8554
▁chomóra	-11.8554
▁bhfolú	-11.8554
▁cófra	-11.8555
▁Oilimpeach	-11.8555
▁Chorcaigh	-11.8555
▁suíochán	-11.8555
▁Éigeandála	-11.8556
▁OIBRE	-11.8556
88	-11.8556
▁háitreabh	-11.8557
▁Ealaín	-11.8557
▁taitneamhachta	-11.8558
SPN	-11.8558
▁Ada	-11.8558
▁Toghchá	-11.8559
▁urra	-11.8559
maitéara	-11.8561
▁Chiarra	-11.8561
▁priontáil	-11.8566
▁damhsa	-11.8568
sagart	-11.8572
▁hiomportál	-11.8573
▁Ciorclá	-11.8574
▁feachtas	-11.8576
▁imtheorann	-11.8576
▁réaltacht	-11.8577
▁mi	-11.8578
amine	-11.8579
▁gcostais	-11.858
▁giú	-11.8582
▁carthana	-11.8584
caillfid	-11.8584
▁Fógraí	-11.8584
▁Óstá	-11.8586
AC	-11.8592
▁Bainea	-11.8594
▁slait	-11.8595
▁chomórta	-11.8595
lactha	-11.8596
▁tiontair	-11.8597
▁Mhíchuma	-11.8599
▁Red	-11.8605
▁dramh	-11.8606
▁chairt	-11.8607
gat	-11.8608
▁Ul	-11.8608
▁Car	-11.8617
▁Aerártha	-11.8619
▁tuigf	-11.862
osaithe	-11.8626
mon	-11.8627
▁pun	-11.8628
coin	-11.8628
thúil	-11.8629
▁eiseama	-11.8629
▁bhfón	-11.8629
▁monaraíocht	-11.863
▁Taifead	-11.8631
▁stóráilte	-11.8632
▁ghlaonn	-11.8632
▁Tionsclaíocht	-11.8634
▁dick	-11.8635
tán	-11.8637
▁Lárna	-11.864
▁like	-11.8641
▁tháill	-11.8647
▁iarchéime	-11.8649
▁heolaíochta	-11.8655
▁Achoimr	-11.8655
raenála	-11.8656
▁líníochta	-11.8656
▁Sreabh	-11.8659
AT	-11.8666
▁féidearthacht	-11.8667
▁cho	-11.8672
scríbhinn	-11.8678
▁idirghníomh	-11.8678
▁dtogh	-11.868
▁Osclaío	-11.8682
▁ndéileáil	-11.8683
▁cloi	-11.8687
▁réada	-11.8694
▁réadach	-11.8696
aontu	-11.8698
cheannaithe	-11.8701
▁Pacáisti	-11.8704
▁Ghaeltachta	-11.8704
▁Chong	-11.8706
▁Brown	-11.8706
▁Cinnf	-11.8708
▁phróiseála	-11.871
▁cao	-11.8715
▁uillinn	-11.8716
▁Muir	-11.872
▁chúraim	-11.8721
▁ACHTA	-11.873
reg	-11.8736
▁ndear	-11.8739
▁méarlo	-11.8739
▁lobha	-11.8745
eanach	-11.8747
▁chríocha	-11.8748
ab	-11.8751
▁Peil	-11.8754
▁Litr	-11.8755
▁chomhréire	-11.8758
▁dheimhnithe	-11.8763
LO	-11.8765
▁Cheann	-11.8767
▁muiníne	-11.8769
▁Real	-11.8772
▁mhorgáiste	-11.8773
▁tomhas	-11.8774
▁ponc	-11.8774
▁Uachtará	-11.8774
tic	-11.8775
AÍOCHTA	-11.8776
▁táim	-11.8777
▁anailíse	-11.8782
▁mháistir	-11.8783
900	-11.8791
▁luibh	-11.8798
▁dhíobh	-11.8806
SI	-11.8807
▁Míle	-11.8807
▁gCór	-11.8814
FRE	-11.8816
▁mheabhr	-11.8823
▁chiontó	-11.8824
▁Comórta	-11.8825
▁78	-11.8831
49	-11.8831
▁Ad	-11.8835
fhionta	-11.8838
▁frithghníomh	-11.8841
▁aicmiú	-11.8841
▁dréachtch	-11.8842
▁léacht	-11.8844
▁177	-11.8848
▁ndeonófa	-11.8849
▁Léi	-11.8849
▁diana	-11.885
chtúra	-11.8856
▁thairg	-11.8856
▁comhleanúnacha	-11.8858
▁féad	-11.8858
▁France	-11.8859
▁Dhír	-11.8861
▁Ce	-11.8863
▁fú	-11.8865
eileachumarsáid	-11.8868
▁dóthain	-11.8871
▁dtuig	-11.8872
▁Point	-11.8873
ndáil	-11.8877
▁chual	-11.8884
íomhaoin	-11.8885
▁aontaithe	-11.8887
cheangal	-11.8888
▁Stoc	-11.8888
tive	-11.8892
▁Luath	-11.8893
▁Uachtar	-11.8894
▁laghdó	-11.8899
gartha	-11.8909
cadhnra	-11.8921
cheadú	-11.8924
▁cairé	-11.8925
▁eisceachta	-11.8929
can	-11.8932
▁fiunra	-11.8938
fhórsa	-11.8943
▁Tairis	-11.8947
eagraíocht	-11.8953
fhéach	-11.8955
labhra	-11.8957
úth	-11.8958
inní	-11.896
▁tairis	-11.8962
stoc	-11.897
ospidé	-11.8974
▁Tomhaltó	-11.8978
▁cói	-11.8985
ya	-11.8989
Ionad	-11.899
úsáidte	-11.8992
aoil	-11.8993
eagraíochta	-11.8994
tháirgí	-11.8996
▁imoibriú	-11.8997
irfid	-11.8998
▁práinneach	-11.9
▁Den	-11.9003
▁íosparta	-11.9004
▁Seana	-11.9008
ÉIL	-11.9014
▁mbia	-11.9016
▁neamhghníomh	-11.9019
▁cothaithe	-11.9027
▁Rúnaíocht	-11.9028
ráitis	-11.9029
dtréimhse	-11.9035
ibhe	-11.9036
▁178	-11.9037
mhara	-11.9043
▁Tógá	-11.9047
▁En	-11.9048
Oileá	-11.9049
▁Da	-11.905
teaghlach	-11.9055
▁mín	-11.9067
▁FAOI	-11.9074
iar	-11.9077
▁Dis	-11.9077
▁saibhre	-11.9084
enter	-11.9085
▁Glao	-11.9088
▁Beatha	-11.9089
aerártha	-11.9091
▁gco	-11.9092
tal	-11.9092
ócó	-11.9095
▁Bra	-11.9097
▁phearsan	-11.9098
ooth	-11.9101
▁Scrios	-11.9106
▁ceartais	-11.9106
lamháilte	-11.9107
▁bual	-11.9107
aothrú	-11.9116
▁Ioslam	-11.912
▁choir	-11.9125
▁shroich	-11.9126
▁teilifís	-11.9126
▁pragha	-11.9126
▁fheithicl	-11.9127
j	-11.9133
▁chomhchuibh	-11.9133
▁freagartha	-11.9135
▁gnóthach	-11.9139
▁scuirfid	-11.914
orpraithe	-11.9142
dath	-11.9147
oíche	-11.9148
▁Cust	-11.9148
▁184	-11.9151
▁tosca	-11.9152
▁mbainisteoir	-11.9153
onic	-11.9155
▁chóipeá	-11.9158
immer	-11.9158
▁diúsca	-11.9159
▁rince	-11.9162
▁glúin	-11.9164
▁CAIN	-11.9169
▁Giúda	-11.9169
hiontach	-11.9171
áiri	-11.9174
▁cúisí	-11.9175
IMH	-11.9175
▁Leathan	-11.9177
direct	-11.9178
▁coirn	-11.9183
▁micrea	-11.9183
laithe	-11.9185
▁laghda	-11.9186
orann	-11.9189
▁tsean	-11.919
▁tharchuir	-11.9191
▁mainneachta	-11.9192
Aireachta	-11.9193
▁neamhbhailí	-11.9195
das	-11.9199
olrú	-11.9201
eagar	-11.9203
town	-11.9205
▁Cíosa	-11.9206
▁innealtóir	-11.9206
▁chistí	-11.9207
esent	-11.9207
PA	-11.9211
▁Cam	-11.9212
▁braite	-11.9214
▁feic	-11.9215
▁infhaighte	-11.9216
▁creim	-11.9217
rmáid	-11.9219
iamond	-11.9222
▁Sábháil	-11.9222
▁fluor	-11.9225
▁snáth	-11.9226
▁CÉIM	-11.9227
▁gcultú	-11.9227
▁Doiciméad	-11.9227
▁Rómáin	-11.9227
▁TIONCHA	-11.9227
▁cuóta	-11.9227
▁grinnfhiosrúchá	-11.9227
▁masterpiece	-11.9227
▁síochánta	-11.9227
field	-11.9227
▁taidhleoir	-11.9227
▁fabhrach	-11.9227
▁pléisiú	-11.9227
▁twist	-11.9227
▁calma	-11.9227
▁pimple	-11.9227
▁mhadra	-11.9227
loíte	-11.9228
▁spúnóg	-11.9228
▁díleá	-11.9228
▁Tríocha	-11.9228
bourg	-11.9228
▁Secon	-11.9228
▁dhromchla	-11.9228
▁fíniúna	-11.9228
▁Téalainn	-11.9228
▁bhláth	-11.9228
▁plandála	-11.9228
▁bhfadhb	-11.9228
▁Mheánmhuir	-11.9229
▁Imleabha	-11.9229
▁mionnscríbhinn	-11.9229
▁mhuirearófa	-11.9229
▁sicín	-11.9229
▁Joy	-11.9229
▁thoghthóir	-11.9229
▁taom	-11.9229
▁gcríochnó	-11.923
▁Electric	-11.923
▁5000	-11.923
▁dtionscna	-11.923
Dlúthpháirtíocht	-11.9231
▁stailc	-11.9232
▁géarchéime	-11.9232
▁durable	-11.9232
▁heintit	-11.9233
▁Prophet	-11.9234
▁núicléach	-11.9235
▁inné	-11.9235
▁thagraí	-11.9236
canna	-11.9236
▁Lámhach	-11.9236
▁phátrún	-11.9237
▁Dhlí	-11.9237
▁inmholta	-11.9238
▁chaitheann	-11.9238
dáin	-11.9238
▁foghlaimeoir	-11.9238
▁ghlúin	-11.9239
▁drochamhra	-11.9239
▁ceardaíocht	-11.9239
▁raidis	-11.9239
▁clása	-11.924
BAN	-11.9242
▁náir	-11.9242
▁phictiúr	-11.9242
▁Shibhialta	-11.9243
▁cómhaoini	-11.9243
made	-11.9244
▁diúltó	-11.9245
zon	-11.9245
▁criticiú	-11.9246
haifid	-11.9246
▁350	-11.9246
▁App	-11.9246
▁Punt	-11.9246
▁réamhshocr	-11.9247
blan	-11.9248
▁Chom	-11.9248
▁Cigireacht	-11.9248
▁bairr	-11.9249
▁caomhnú	-11.925
▁Réad	-11.9251
▁Cúis	-11.9251
▁port	-11.9251
▁Phlean	-11.9252
ogall	-11.9252
▁síocháin	-11.9253
▁máithreacha	-11.9253
▁hack	-11.9254
ham	-11.9255
ola	-11.9257
▁ciorcal	-11.9257
▁Cartlann	-11.926
▁ticéid	-11.926
▁gceapfa	-11.9261
▁Nod	-11.9261
▁tharrac	-11.9261
▁Ster	-11.9263
▁Pionóis	-11.9264
▁Buail	-11.9264
▁Ceadúnais	-11.9266
isé	-11.9268
▁príomhchuspóir	-11.9273
▁Friotaíocht	-11.9273
▁babhta	-11.9273
▁gcoimeádfa	-11.9273
▁turraing	-11.9273
▁Ranna	-11.9273
▁díon	-11.9274
▁gamer	-11.9275
▁uaslódáil	-11.9276
▁Chaitliceach	-11.9277
▁Count	-11.9278
▁urlái	-11.9278
▁charachta	-11.928
▁Buirg	-11.9281
▁Cloí	-11.9281
MC	-11.9282
▁lárchóra	-11.9286
▁IMI	-11.9287
▁bhréagach	-11.9287
EID	-11.9287
▁hasbhaint	-11.9288
▁geilleaga	-11.9288
fhaois	-11.9293
fhoilsi	-11.9294
▁bónas	-11.9294
ónta	-11.9297
▁eagarthóireacht	-11.9297
oma	-11.9297
▁breacachá	-11.9297
▁Masturbate	-11.9298
▁drámaíocht	-11.9298
▁cleas	-11.93
▁Úsáideoir	-11.93
cúram	-11.9301
▁slite	-11.9303
▁iallach	-11.9304
▁Táim	-11.9304
▁gníomhacha	-11.9307
▁Date	-11.9309
ent	-11.9309
▁Spáinnis	-11.931
▁gní	-11.931
dia	-11.9312
oláiste	-11.9313
▁Cloch	-11.9313
íniú	-11.9314
athru	-11.9314
▁Caillteana	-11.9315
▁císt	-11.9316
aught	-11.9316
▁Uachtaránacht	-11.9317
▁mata	-11.932
▁coinneo	-11.9325
▁Dámh	-11.9328
CC	-11.933
ceannasaí	-11.933
▁stua	-11.9331
und	-11.9332
▁chirt	-11.9333
chríochnaitheach	-11.9335
▁plat	-11.9336
▁stampáil	-11.9337
▁Oibriú	-11.9339
AIRT	-11.9347
▁OIREACHTA	-11.9347
▁president	-11.9352
up	-11.9353
imeacht	-11.9355
▁Móra	-11.9355
▁iarmhartach	-11.9357
ochtaí	-11.9358
▁scartáil	-11.936
▁Aud	-11.9363
ying	-11.9363
▁Garci	-11.9363
▁146	-11.9364
▁Bride	-11.9364
oiliúna	-11.9364
▁Laeth	-11.9367
▁áireamhacht	-11.9367
▁gcu	-11.9369
▁Fhin	-11.937
▁brand	-11.9373
▁dhíchu	-11.9374
▁Dích	-11.9374
▁ócáideach	-11.9374
mhuirear	-11.9374
▁grada	-11.9376
▁aisti	-11.9377
▁hoscailt	-11.9378
▁mbaint	-11.9381
leib	-11.9381
acmhainn	-11.9382
ka	-11.9385
▁Ligean	-11.939
▁Great	-11.9396
choda	-11.9397
▁Comhairleach	-11.9399
▁seasmhach	-11.9399
▁cruinne	-11.94
▁imscar	-11.9404
ony	-11.9405
lóige	-11.9408
▁ailléirgeach	-11.941
▁chrua	-11.9415
▁180	-11.942
▁arbhar	-11.942
▁Áras	-11.942
▁Mosc	-11.9422
ghrúpa	-11.9424
▁eachtraí	-11.9425
▁bhfarraig	-11.9427
▁Shín	-11.9429
▁Bliantú	-11.9433
▁lipéid	-11.9435
▁dhéanmha	-11.9442
bhliana	-11.9443
▁Creid	-11.9447
▁stiúrthó	-11.9448
▁Tith	-11.9448
▁Oibríochta	-11.9454
liabh	-11.9457
▁sloinne	-11.9458
▁Fraincis	-11.9466
▁siúlóid	-11.9468
éamhráite	-11.9473
▁bainist	-11.9475
itheoir	-11.9478
▁Buí	-11.9485
imscrúdú	-11.9485
60	-11.9498
▁Ha	-11.9506
▁tur	-11.951
▁Work	-11.9513
ANTA	-11.9515
▁Caisleá	-11.9516
oras	-11.9521
▁íoca	-11.9528
▁nACHT	-11.9532
opta	-11.9533
▁chomhad	-11.9534
ruaig	-11.9536
ipéid	-11.9541
▁116	-11.9544
Ghala	-11.9544
▁cothaitheach	-11.955
araí	-11.9555
▁IOMPA	-11.9556
▁gheal	-11.9558
ruim	-11.9558
▁dtean	-11.9559
▁phian	-11.9561
▁deimhniúchá	-11.9563
▁Dheimhni	-11.9569
ical	-11.9572
▁168	-11.9573
post	-11.9575
céad	-11.9575
▁ghluaisteá	-11.958
▁easportála	-11.958
▁147	-11.9582
aifid	-11.9591
▁ghnólacht	-11.9592
▁alia	-11.9593
▁choigeart	-11.9594
▁annamh	-11.9595
▁Caighdeánach	-11.9598
cquis	-11.9599
▁Bhótha	-11.9603
UR	-11.9604
76	-11.9606
▁aontacha	-11.961
mens	-11.9612
▁Coimeád	-11.9617
quisit	-11.9621
▁Ta	-11.9625
▁cónaitheoir	-11.9631
icéid	-11.9634
▁airbhearta	-11.9634
saire	-11.9639
▁taraif	-11.9641
aont	-11.9642
▁Fhor	-11.965
▁star	-11.9651
▁ndeacha	-11.9652
CB	-11.9657
▁neamhfhoirmiú	-11.9659
▁Feicf	-11.9661
▁mheasún	-11.9662
▁dtógfa	-11.9664
cum	-11.9668
▁bhá	-11.967
▁tagarmharc	-11.9677
raenáil	-11.968
▁Thionsca	-11.9682
▁table	-11.9685
BP	-11.9686
▁thiomáin	-11.9687
kV	-11.9688
▁General	-11.9689
amar	-11.969
▁blianacht	-11.9691
idí	-11.9692
▁Christi	-11.9695
▁Beat	-11.9696
oileán	-11.9702
▁treochta	-11.9703
▁áisiúla	-11.971
reacha	-11.9715
▁sonró	-11.9717
chóras	-11.972
▁diúltaío	-11.9724
▁chlui	-11.9726
▁éilitheoir	-11.9729
▁dhiúscair	-11.9731
▁Roth	-11.9735
▁210	-11.9736
▁si	-11.9737
fe	-11.9737
80	-11.9738
back	-11.974
chumann	-11.9743
▁Hon	-11.9743
aird	-11.9744
dícheall	-11.9748
tack	-11.975
▁buicé	-11.9751
▁230	-11.9758
▁dheonó	-11.9759
ICI	-11.976
tuismitheo	-11.9761
Ealaíona	-11.9766
▁Atlanta	-11.9772
ible	-11.9774
eascair	-11.9774
▁eisiata	-11.9783
▁Media	-11.9785
▁101	-11.9785
▁STA	-11.9786
▁mótar	-11.9788
oscó	-11.9789
▁bhfeic	-11.979
▁sung	-11.9791
úbal	-11.9792
ssess	-11.9794
ithne	-11.9795
ineál	-11.9796
▁Ion	-11.9807
▁Scéime	-11.9809
▁stiúrth	-11.981
toghachá	-11.9812
oiriúnach	-11.9812
▁Medi	-11.9816
lia	-11.9817
DM	-11.9817
AGH	-11.9821
chuntas	-11.9822
Moncler	-11.9822
chuí	-11.9823
scairchaipit	-11.9824
▁dtréimhs	-11.9826
teiripe	-11.983
iu	-11.9834
▁hainmne	-11.9848
▁deo	-11.9848
▁scaradh	-11.9852
▁Cinntí	-11.9856
▁fóillíocht	-11.9857
▁Déanaim	-11.9862
▁Mag	-11.9863
ostú	-11.9867
íteas	-11.9869
▁buachaill	-11.9871
éifeachtach	-11.9871
▁Dramhaí	-11.9872
▁cistiú	-11.9873
▁Fáil	-11.9873
cipe	-11.9879
▁hiarrata	-11.9882
ram	-11.9887
ities	-11.9889
▁Oll	-11.9889
▁bhfíor	-11.989
▁príobháid	-11.99
lacadh	-11.99
uigh	-11.9901
▁breoite	-11.9908
inscne	-11.9909
▁iniúchóireacht	-11.9912
bo	-11.9912
ration	-11.9918
▁Mórdhíol	-11.9919
ior	-11.9919
▁pacáistí	-11.9921
▁Hous	-11.9922
▁Mhúinteoir	-11.9923
▁bhfeirm	-11.9923
pc	-11.9924
▁preas	-11.9925
▁ceangailteach	-11.9928
SU	-11.9929
▁céannacht	-11.9929
omhshó	-11.9935
▁vótál	-11.9937
▁maithe	-11.9939
▁thionscnó	-11.9941
▁chineá	-11.9944
▁seoltóir	-11.9948
údaró	-11.9949
▁arda	-11.9956
▁Iontaobha	-11.9956
ournament	-11.9957
fhorléir	-11.9959
▁guí	-11.9972
▁galú	-11.9975
hronograph	-11.9975
▁bhfios	-11.9976
▁Prionsa	-11.9977
▁Nao	-11.9978
▁Inmheána	-11.9982
oic	-11.9983
▁Airí	-11.9983
▁teid	-11.9984
▁Mu	-11.9984
ontent	-11.9985
▁Print	-11.9986
▁cóimh	-11.999
anáil	-11.9991
▁luighe	-11.9992
▁forlíon	-11.9994
rry	-11.9994
aoide	-11.9995
▁Grianghra	-11.9995
▁AIRGEAD	-11.9997
▁Breosla	-11.9997
▁Liotuáin	-11.9997
▁bpaisinéir	-11.9997
▁bróicéir	-11.9997
▁dteipf	-11.9997
▁thalmhaíocht	-11.9997
▁watermelon	-11.9997
▁Chónaidhm	-11.9997
▁plague	-11.9997
▁cheardchuma	-11.9997
▁Brunette	-11.9997
▁Insteall	-11.9997
▁chronomet	-11.9997
▁déthaobhach	-11.9997
▁saighead	-11.9997
weight	-11.9997
▁gcosantóir	-11.9997
▁maigné	-11.9997
▁Fráma	-11.9997
▁mhothúchá	-11.9997
▁Praghs	-11.9997
▁breithneo	-11.9997
▁Custom	-11.9997
▁Sonró	-11.9997
▁dílleachta	-11.9997
▁dhaonra	-11.9997
▁featha	-11.9997
▁Feisir	-11.9997
▁Só	-11.9997
▁puzzle	-11.9997
áistreás	-11.9997
▁fócas	-11.9997
▁Thaighde	-11.9997
▁gceathrú	-11.9998
▁Claus	-11.9998
▁chomhartha	-11.9998
▁cnuas	-11.9998
▁arrow	-11.9998
▁paisean	-11.9998
▁West	-11.9999
▁SAM	-11.9999
wood	-11.9999
RÉIMH	-12
▁Faireachá	-12.0001
▁buaiteoir	-12.0002
▁spíosra	-12.0002
▁híomhá	-12.0002
▁fhaid	-12.0002
Ostair	-12.0003
▁daoibh	-12.0004
▁240	-12.0004
▁coimeáda	-12.0004
▁chaighdeá	-12.0004
▁hiarmhairt	-12.0005
▁bhagairt	-12.0006
▁litera	-12.0006
▁nuachtlit	-12.0007
comhthimpeallach	-12.0007
▁Exc	-12.0007
choinníollach	-12.0007
▁seilf	-12.0008
▁Cuimhnigh	-12.0008
▁amú	-12.0009
▁tadhlach	-12.0009
▁phláiné	-12.0009
▁Éada	-12.0009
▁bheartó	-12.001
▁spleácha	-12.001
▁Trasfhoirmeo	-12.0011
▁mona	-12.0012
▁Ról	-12.0013
▁Nuálaíocht	-12.0014
▁chosa	-12.0015
▁críochnaío	-12.0015
ife	-12.0016
▁Scaird	-12.0017
▁coincréit	-12.0019
▁sliotá	-12.002
▁iniúchó	-12.002
▁Eitilt	-12.0021
heilimint	-12.0021
airseach	-12.0024
▁cartlann	-12.0025
▁tuar	-12.0026
▁huibhe	-12.0028
▁ndeis	-12.003
▁Priontáil	-12.0032
▁Dífhostaíocht	-12.0034
▁dtaifead	-12.0035
▁ragh	-12.0036
▁thiarna	-12.0037
▁Thionscada	-12.0038
▁Léas	-12.004
▁dhruga	-12.0041
▁sl	-12.0041
▁cannaba	-12.0044
▁Cinnteoi	-12.0045
-30	-12.0045
▁Ceannasaí	-12.0046
▁miracle	-12.0046
▁IARSCRÍBHINN	-12.0046
▁alcaileach	-12.0046
▁John	-12.0046
▁BBC	-12.0046
▁Rómhánach	-12.0047
▁Oidhreacht	-12.0048
▁chéatadá	-12.0048
chruth	-12.0049
▁gcúins	-12.005
▁Thoghchá	-12.005
▁750	-12.005
▁TFC	-12.005
aigéi	-12.0051
▁Industrie	-12.0051
▁Photo	-12.0053
ualainn	-12.0055
▁frása	-12.0055
▁Ros	-12.0056
▁theagasc	-12.006
bhliant	-12.0061
▁ndaingneo	-12.0067
duine	-12.0068
hold	-12.0069
▁mharc	-12.0071
▁greann	-12.0072
▁uisciú	-12.0072
▁gcailltea	-12.0073
▁fhrith	-12.0075
UBLI	-12.0076
cheann	-12.0078
▁thaisc	-12.008
▁Forala	-12.0081
▁seachtó	-12.0084
▁cóta	-12.0088
▁bhfeidhmeo	-12.0091
▁cineá	-12.0093
formheasta	-12.0094
▁cailc	-12.0094
▁sín	-12.0094
▁chomhlachai	-12.0098
ASH	-12.0103
▁Fógraíocht	-12.0104
liosta	-12.0104
▁Cheat	-12.0106
▁Marine	-12.0106
▁Hor	-12.0107
bam	-12.0108
▁dóchas	-12.011
▁comhairl	-12.0112
▁bhunacha	-12.0112
íobhálach	-12.0112
▁Forlíon	-12.0115
▁teileafón	-12.0117
▁USD	-12.0121
▁chomharsanach	-12.0127
01	-12.0129
▁eiseachad	-12.0131
▁prótaca	-12.0131
▁ghéar	-12.0132
▁simpl	-12.0132
▁séadchomhartha	-12.0133
▁Ocht	-12.0136
orbhreathn	-12.0137
▁tiúchan	-12.0137
▁script	-12.0139
▁chrann	-12.014
▁doirtea	-12.0141
▁Pu	-12.0143
▁1-2	-12.0143
▁fhisiciú	-12.015
athuair	-12.0152
▁comhpháirte	-12.0153
▁133	-12.0153
ONTAIS	-12.0153
▁Stampa	-12.0154
▁meon	-12.0154
▁Ki	-12.0158
▁cuirfe	-12.0162
▁Chomhar	-12.0163
ineasa	-12.0163
▁triomach	-12.0163
▁tarchuir	-12.0167
▁bailithe	-12.0169
▁Chaith	-12.017
▁thrasn	-12.0172
ek	-12.0177
▁Org	-12.018
BS	-12.0182
▁dhéileála	-12.0183
▁inle	-12.0185
GC	-12.0186
▁creid	-12.019
RP	-12.0192
▁GB	-12.0192
▁sás	-12.0198
▁greamaitheach	-12.0198
▁fheachta	-12.0201
▁Ghla	-12.0205
dach	-12.0205
▁dtuarascá	-12.0207
▁scratche	-12.0208
ians	-12.0209
▁ghaol	-12.021
ten	-12.0216
▁sonraíocht	-12.0216
▁Gníomhach	-12.0219
▁chomharba	-12.022
▁áitritheoir	-12.0221
▁iontaofacht	-12.0223
▁dTeanga	-12.0227
▁rothlach	-12.0227
ionsaithe	-12.0243
úsáidfea	-12.0243
▁haistr	-12.0245
▁Malart	-12.0252
ii	-12.0253
irne	-12.0254
▁Ri	-12.0257
guisín	-12.026
NACH	-12.0264
▁chéannacht	-12.0266
box	-12.0268
▁LEANA	-12.027
▁Theach	-12.0272
▁cúil	-12.0274
▁lom	-12.0276
nchoigeart	-12.0279
▁saorg	-12.0279
▁Campa	-12.0282
▁hollscoile	-12.0292
▁deighilt	-12.0295
atharn	-12.0297
▁bharracha	-12.0302
▁107	-12.0302
▁léitheoireacht	-12.0306
▁leictreona	-12.0306
thaigh	-12.0307
▁scraga	-12.0308
▁Je	-12.0309
oimeádán	-12.0311
▁lamhál	-12.0312
▁athró	-12.0316
▁heart	-12.0317
▁chultú	-12.0318
▁mhealla	-12.0318
▁iostá	-12.0318
▁altrana	-12.0323
ghníomhú	-12.0328
OTI	-12.0331
▁time	-12.0336
aistr	-12.0341
▁Jes	-12.0351
bhanna	-12.0352
▁Plann	-12.0354
▁pléasca	-12.0358
▁Comhlána	-12.0359
▁Si	-12.0366
tub	-12.0372
▁Feidhme	-12.0372
▁Sen	-12.0373
▁indíreach	-12.0376
▁thréimhs	-12.0382
ghabhálach	-12.0384
▁bhrat	-12.0386
▁Dhíol	-12.0389
▁Spy	-12.0392
70	-12.0394
▁Áis	-12.0396
▁Liostaí	-12.0398
▁Oirthear	-12.0404
▁réalt	-12.0405
▁thaispeánfa	-12.0407
aint	-12.0407
▁mear	-12.041
▁comhleanúnach	-12.0412
únas	-12.0419
▁mha	-12.042
▁Pas	-12.0422
▁masc	-12.0427
▁beath	-12.0427
holún	-12.0436
▁Shin	-12.0438
ics	-12.0439
▁War	-12.0441
▁mhargaíocht	-12.0442
▁Aid	-12.0443
▁aireagá	-12.0448
▁éagumasa	-12.0453
apa	-12.0455
▁Aird	-12.0459
▁fe	-12.0461
▁hintinn	-12.0461
genda	-12.0463
mhail	-12.0469
▁híocaíocht	-12.0477
▁shaothar	-12.0482
▁gual	-12.0485
leog	-12.0486
▁aicíd	-12.0492
▁Eco	-12.0493
▁mheall	-12.0493
amharc	-12.0497
▁ceartú	-12.0498
▁oid	-12.0499
oireachta	-12.0499
▁fholu	-12.0503
▁fholúnta	-12.0506
▁ceathra	-12.0507
▁acmhainneacht	-12.0509
▁extra	-12.0512
▁struchtúrach	-12.0523
▁labhraío	-12.053
▁Adam	-12.0533
▁choiscf	-12.0536
▁Ves	-12.0544
▁Sprioc	-12.055
óipcheart	-12.0551
▁Fire	-12.0551
▁sainord	-12.0554
▁Ghníomh	-12.0558
▁GE	-12.0559
▁áite	-12.0561
PAR	-12.0561
lasse	-12.0563
▁129	-12.0563
▁úsáidf	-12.0564
▁Fast	-12.0564
▁ngearr	-12.0567
▁Fiber	-12.0569
▁hi	-12.0572
▁foraois	-12.0574
aisíocfa	-12.0577
▁thréimhsiú	-12.058
▁Sm	-12.058
uidéal	-12.0581
▁MA	-12.0582
▁Lán	-12.0595
eoranta	-12.0597
-5	-12.0598
▁hion	-12.0598
ídiú	-12.0599
▁Plus	-12.0601
▁barraí	-12.0601
▁Déantús	-12.0608
▁Clúdaío	-12.0612
▁Ainmn	-12.0613
scaire	-12.0621
rinnscrúdú	-12.0621
pol	-12.0624
otion	-12.0627
▁atreor	-12.0627
▁belo	-12.0628
▁fhir	-12.0628
▁fosfa	-12.063
▁buíoch	-12.0631
▁Rannpháirt	-12.0632
▁Pa	-12.0632
bhanda	-12.0634
arm	-12.0637
FAR	-12.0637
gasta	-12.0642
▁fhágfa	-12.0646
sio	-12.0647
▁che	-12.0652
▁chustaimé	-12.0656
Iú	-12.0657
abhal	-12.0658
▁TL	-12.0662
▁spot	-12.0665
▁och	-12.0665
ray	-12.0673
▁íocf	-12.0673
▁Ceanada	-12.0678
▁fiosr	-12.0683
phone	-12.0685
▁TH	-12.0688
mb	-12.0689
▁théam	-12.0692
▁dhlíthe	-12.0693
▁Mharga	-12.0695
▁Tigh	-12.0696
▁dhíobhála	-12.0701
mhorgáiste	-12.0708
une	-12.071
TUA	-12.0711
▁Ni	-12.0716
▁comórta	-12.0718
▁lomhá	-12.0718
treet	-12.0719
▁méadófa	-12.0719
fhoirgniú	-12.0719
▁séaracha	-12.0721
iff	-12.0722
isgint	-12.0723
▁morgáisteo	-12.0724
enerál	-12.0725
iomaíochta	-12.0729
▁Green	-12.0729
siombail	-12.0732
▁choigrí	-12.0734
▁Scaoilea	-12.0736
▁hOifig	-12.0736
▁Pac	-12.0739
míonn	-12.0739
fi	-12.074
com	-12.074
▁iniúch	-12.0741
▁uasmhéad	-12.0749
ti	-12.0751
leithead	-12.0756
▁thogh	-12.0757
caire	-12.0759
uilleoga	-12.0759
illeacht	-12.0759
adóireacht	-12.076
▁misin	-12.076
chóir	-12.0761
▁Phreas	-12.0761
▁America	-12.0768
▁tréigthe	-12.077
▁dramhaí	-12.0773
▁pc	-12.0775
▁Rev	-12.0776
▁Comór	-12.0782
▁thárl	-12.0782
tapa	-12.0784
▁GA	-12.0785
Iaráin	-12.079
hinking	-12.079
▁fuascailt	-12.0793
▁col	-12.0799
▁cigir	-12.0799
▁amhrá	-12.08
eagaisc	-12.0802
▁Ru	-12.0807
OP	-12.081
▁UNE	-12.0811
▁cust	-12.0813
▁chabh	-12.0813
eartaithe	-12.0814
va	-12.0814
actus	-12.0817
▁Breiseá	-12.0819
▁color	-12.082
▁barántúla	-12.0821
▁BIA	-12.0822
06	-12.0822
abraic	-12.0822
hrúpa	-12.0822
▁vacsaín	-12.0822
▁Slán	-12.0824
▁Tháirg	-12.0825
▁Jun	-12.0826
▁rann	-12.0827
▁ghearán	-12.0829
ough	-12.0829
▁bhfoghlaim	-12.083
Oispidé	-12.083
▁Metropoli	-12.083
▁Nigéir	-12.083
▁SOLÁTHA	-12.083
▁Séadchomhartha	-12.083
▁Thiobra	-12.083
▁bhreosla	-12.083
▁language	-12.083
▁nArm	-12.083
▁ngréasá	-12.083
▁prostitute	-12.083
▁rómánsú	-12.083
▁sreinge	-12.083
▁tíolactha	-12.083
▁dtráthchoda	-12.083
▁Sreang	-12.083
▁eagna	-12.083
▁Chonaic	-12.083
▁Messenger	-12.083
▁Sinseara	-12.083
▁sceid	-12.083
▁Journ	-12.083
▁Puls	-12.083
▁SAOR	-12.083
▁Airport	-12.083
▁gContae	-12.083
mbrí	-12.083
▁Baincéireacht	-12.083
▁Anatolia	-12.083
▁Tábhacht	-12.083
▁Traidisiú	-12.0831
fiber	-12.0831
éascó	-12.0831
▁TEO	-12.0831
▁Hood	-12.0831
▁gCéad	-12.0831
boilgeog	-12.0831
▁gconartha	-12.0831
▁grill	-12.0831
▁MEASÚN	-12.0831
▁Skill	-12.0831
▁ciúb	-12.0831
MÉAD	-12.0831
▁bPoblacht	-12.0831
▁Crios	-12.0831
▁céimshria	-12.0831
▁fiuch	-12.0832
▁geallta	-12.0832
▁Magic	-12.0832
▁Suiteáil	-12.0832
▁gCríost	-12.0832
▁dáilcheanta	-12.0832
▁sult	-12.0833
▁People	-12.0833
▁Sonrú	-12.0833
▁contaebhuirg	-12.0833
▁feicfi	-12.0833
▁Pláta	-12.0833
▁fhoilseo	-12.0833
dac	-12.0833
chini	-12.0833
▁Coinneo	-12.0834
ainmheach	-12.0834
▁Ciorca	-12.0834
▁Well	-12.0834
▁feithid	-12.0834
▁capaill	-12.0835
▁iomadúla	-12.0835
▁cúcama	-12.0835
▁Cásca	-12.0835
▁Araíonacht	-12.0835
▁Vote	-12.0835
▁Comhairlitheach	-12.0835
▁tuillte	-12.0837
▁theachtaireacht	-12.0837
tréithe	-12.0839
▁Ceapa	-12.0839
fuinneog	-12.0839
▁amóinia	-12.0839
▁cábá	-12.0839
▁Hry	-12.084
▁Scáth	-12.0841
▁fhéimheach	-12.0841
ocra	-12.0841
▁Paint	-12.0842
▁chéadluaite	-12.0842
▁Athchomhair	-12.0843
▁gcliant	-12.0843
NUM	-12.0843
▁paidr	-12.0843
▁Enact	-12.0843
▁Cóipcheart	-12.0844
▁bhradá	-12.0845
aidir	-12.0846
▁Thoir	-12.0847
▁comhnaithe	-12.0847
▁Páirceá	-12.0847
iria	-12.0848
▁dTiarna	-12.0849
▁Cláraithe	-12.085
▁Shot	-12.0851
▁reo	-12.0852
▁Loch	-12.0853
▁Scói	-12.0853
▁chomhiomlán	-12.0853
▁Lascain	-12.0853
▁ardaitheoir	-12.0855
▁LC	-12.0857
▁gcrit	-12.0857
▁healaíontóir	-12.0858
Dún	-12.0858
▁idirmheánach	-12.0859
aster	-12.086
▁thromchúiseach	-12.0863
Bhunscoileanna	-12.0863
▁tent	-12.0866
▁Brúigh	-12.0866
▁hiodrálach	-12.0867
▁díom	-12.0867
▁liostaí	-12.0869
▁Suck	-12.0871
pad	-12.0873
▁nAir	-12.0874
▁Copernicus	-12.0874
▁corpr	-12.0876
▁pop	-12.0878
▁FEIDHMIÚ	-12.0882
▁gl	-12.0882
▁fhéich	-12.0883
▁shaighdiúir	-12.0884
▁Dioplóma	-12.0884
▁bhranda	-12.0884
▁ECRIS	-12.0884
▁saotharla	-12.0884
▁Store	-12.0887
▁príomháit	-12.0889
▁áirithint	-12.0889
▁Tomhais	-12.0891
▁Buiséad	-12.0892
▁leaisteacha	-12.0894
▁chonsalacht	-12.0894
▁Lún	-12.0895
▁shúile	-12.0895
punt	-12.0896
▁Deartha	-12.0896
▁caoin	-12.0897
▁Rannpháirtíocht	-12.0897
▁Íomhá	-12.0899
údair	-12.09
▁Oiriúnach	-12.09
▁carthanú	-12.0901
▁Sub	-12.0905
▁Cothabháil	-12.0906
▁scrúdaithe	-12.0906
▁112	-12.0909
our	-12.0913
▁gColáist	-12.0914
▁cheol	-12.0916
dhaonna	-12.0916
íscaoilte	-12.0918
Prótaca	-12.0919
▁cothú	-12.092
▁chumhrá	-12.0924
aitheora	-12.0927
-70	-12.0927
▁breoiteacht	-12.0927
threorach	-12.0931
▁fhormhuini	-12.0932
▁CAD	-12.0936
▁deighleálfa	-12.094
húdarú	-12.0941
iosta	-12.0941
▁Meta	-12.0942
▁127	-12.0944
▁tsola	-12.0947
▁Rose	-12.0947
▁chaitea	-12.0948
▁iontaoibhe	-12.0951
▁Modúl	-12.0952
PG	-12.0953
▁phainé	-12.0955
▁Bhean	-12.0956
▁Forlíontach	-12.0957
▁fhaireach	-12.096
ardchaighdeá	-12.096
▁tonna	-12.0962
▁dintiúir	-12.0963
▁ceirmeach	-12.0965
▁Chríostaí	-12.0966
▁bearna	-12.0968
▁ABC	-12.0968
▁Ko	-12.0969
▁Ghearr	-12.0972
cheadúna	-12.0975
cnaipe	-12.0976
Pal	-12.0977
▁buachaillí	-12.0977
íocha	-12.0977
▁búcla	-12.0978
▁STÁ	-12.0981
▁airnéis	-12.0981
▁109	-12.0981
ardaithe	-12.0982
▁tuairiscí	-12.0983
▁duillín	-12.0983
próiseáilte	-12.0983
▁PAR	-12.0985
▁bhonneaga	-12.0985
▁eitic	-12.0986
▁calc	-12.0989
▁ÁBHAR	-12.0989
▁rannpháirteacha	-12.099
▁grafach	-12.0994
▁neamhrialtachta	-12.0996
▁thuairisceá	-12.0999
▁Próiseá	-12.1001
óiríocht	-12.1004
▁Chomhshao	-12.1005
adóireachta	-12.1012
▁Tollá	-12.1016
▁leantach	-12.1016
daithe	-12.1017
▁bhfeiste	-12.102
▁102	-12.1023
ave	-12.1026
theangacha	-12.103
▁rós	-12.1032
▁Cruinne	-12.1035
▁sreanga	-12.1035
artlann	-12.1036
▁dúth	-12.1041
▁pluma	-12.1043
erver	-12.1045
▁NAS	-12.1046
▁athshlánú	-12.105
range	-12.1054
rá	-12.1054
▁pacáistithe	-12.1055
ship	-12.1056
ástáil	-12.106
▁craola	-12.1061
ney	-12.1062
▁186	-12.1063
▁insteall	-12.1066
úinéireacht	-12.1069
▁giúiré	-12.107
▁shuí	-12.1074
▁athghairm	-12.1075
▁Support	-12.1076
▁thosaíochta	-12.108
tarraingt	-12.1082
work	-12.1086
▁déarfa	-12.1088
▁Won	-12.1088
▁hAlb	-12.109
car	-12.109
▁néaróg	-12.109
▁dtóg	-12.1097
▁Tac	-12.1099
húchán	-12.11
zmir	-12.1101
ition	-12.1103
NE	-12.1103
of	-12.1104
shocrú	-12.1104
▁cnámha	-12.1107
▁Seachada	-12.1108
▁liopa	-12.1111
ings	-12.1112
▁Breathnaío	-12.1113
▁téamh	-12.112
▁sheolfa	-12.112
▁145	-12.1122
▁teo	-12.1124
▁foraoiseacht	-12.1126
▁gcinnfea	-12.1127
atáin	-12.1129
▁rothl	-12.113
▁Leictreonach	-12.1133
▁caorach	-12.1141
ze	-12.1143
hosmálta	-12.1144
▁suidh	-12.1147
cóirí	-12.115
let	-12.1161
▁Feithicl	-12.1161
ppy	-12.1163
astáin	-12.1166
▁trioblóid	-12.117
▁fhoils	-12.117
▁Méar	-12.1173
ole	-12.1173
▁105	-12.1174
▁Taois	-12.1182
▁marcál	-12.1186
▁bratach	-12.1188
▁stró	-12.1188
▁Comis	-12.1189
▁maisiúchá	-12.1193
▁threisi	-12.1193
▁dinimic	-12.1195
▁rothaíocht	-12.12
dra	-12.1202
▁dtoil	-12.1208
▁mhéar	-12.1215
ioc	-12.1222
▁thoghfa	-12.1225
son	-12.1226
▁Gabh	-12.1227
uff	-12.1231
▁cheapf	-12.1232
▁bhféadf	-12.1233
iontráil	-12.1234
▁LEAS	-12.1235
aisc	-12.1236
▁traidisiú	-12.1237
▁hachomhair	-12.1238
val	-12.1238
▁coiscthe	-12.1247
aidhm	-12.1248
▁mheascá	-12.1248
▁dámha	-12.125
▁mbanna	-12.1251
▁éad	-12.1253
▁thógála	-12.1255
▁FC	-12.1263
▁dtortha	-12.1263
tain	-12.1264
ealaigh	-12.1266
VI	-12.1267
▁rabh	-12.127
▁Athghairm	-12.127
KB	-12.127
▁léirmhíni	-12.1275
ther	-12.1276
▁pic	-12.1277
earmad	-12.1278
▁Móir	-12.1286
▁ionrach	-12.1286
▁déir	-12.1287
heith	-12.1289
twork	-12.1297
▁shlán	-12.1307
▁giotá	-12.1311
SM	-12.1333
aming	-12.1334
cháilíochta	-12.1335
ampáil	-12.1337
▁Oibrithe	-12.1338
▁mea	-12.1344
▁PS	-12.1344
phort	-12.1346
gli	-12.1349
OD	-12.1362
▁foirme	-12.1373
▁bhfiach	-12.1374
▁Rá	-12.1374
hionann	-12.1376
▁fhan	-12.1379
lac	-12.138
▁phó	-12.1381
▁trasn	-12.1381
hríocha	-12.1384
▁hiomlá	-12.1387
▁clói	-12.1389
ás	-12.1394
▁toghfa	-12.1395
▁Cló	-12.1395
-25	-12.1398
▁tois	-12.1403
▁mbeif	-12.1404
▁251	-12.1406
▁bpu	-12.1412
▁Iasachta	-12.1416
▁Ioma	-12.1418
▁chair	-12.142
▁dinimiciú	-12.142
ors	-12.1425
▁Cíos	-12.1426
▁léireo	-12.1429
▁bra	-12.143
▁bhraith	-12.1431
▁ionadaíoch	-12.1431
▁gáinneá	-12.1433
▁Fold	-12.1433
▁dhlúth	-12.1434
▁áiritheofa	-12.1445
eoite	-12.1446
bhair	-12.1451
▁tso	-12.1456
arthaí	-12.1462
rga	-12.1464
▁fheo	-12.1466
airbhearta	-12.1467
BM	-12.1473
▁cuan	-12.1476
▁fia	-12.1476
▁iomarca	-12.1479
▁Micro	-12.1483
ette	-12.1486
MAT	-12.1488
zel	-12.149
▁oideas	-12.1494
▁hainmniú	-12.1494
-12	-12.1496
▁príosúna	-12.1498
▁urraithe	-12.1498
igue	-12.1502
▁measúna	-12.1505
áid	-12.1507
▁chompord	-12.1511
oses	-12.1516
teacht	-12.1521
▁eire	-12.1522
▁ME	-12.1523
fast	-12.1524
▁Bá	-12.1526
▁idirnasc	-12.1529
Samhail	-12.1535
▁Shi	-12.1536
ríse	-12.1537
tter	-12.1539
▁tsaotha	-12.154
▁Geo	-12.1542
▁cúlchist	-12.1542
▁trans	-12.1543
▁Tógfa	-12.1544
▁gheará	-12.1547
ór	-12.1551
▁Bhr	-12.1552
PC	-12.1553
▁Feidhmíocht	-12.1557
▁teora	-12.1569
tage	-12.1569
▁pre	-12.1575
bed	-12.1577
ói	-12.1578
▁Fó	-12.1581
▁Anti	-12.1581
An	-12.1582
▁NUA	-12.1582
con	-12.1583
▁acmhainne	-12.1587
▁deif	-12.1588
roim	-12.1593
bhliain	-12.1595
▁Fiche	-12.1595
roime	-12.1596
▁saoirs	-12.1597
▁deata	-12.1597
dhíola	-12.1599
▁Caol	-12.16
▁meath	-12.1602
ifríocht	-12.1602
ARD	-12.1606
▁cuard	-12.1606
▁inimirce	-12.1607
▁Maoin	-12.1616
bhliantú	-12.1617
est	-12.162
eisiún	-12.1622
íonachta	-12.1628
▁Caith	-12.1642
▁ioml	-12.1644
fhreagair	-12.1645
▁Sport	-12.1645
▁chalaois	-12.1647
▁bhronntana	-12.165
met	-12.1653
▁gCr	-12.1662
▁clé	-12.1665
sia	-12.1666
páis	-12.1668
SUR	-12.1669
oid	-12.167
dhleathach	-12.167
▁Eochair	-12.1673
▁net	-12.1677
-100	-12.1678
▁bhainist	-12.1678
▁idirthréimhse	-12.1678
▁athchomhair	-12.1679
▁mbaile	-12.1679
VAS	-12.1682
TR	-12.1684
raithne	-12.1686
▁húsáide	-12.1688
▁inacmhainne	-12.1688
▁hAon	-12.1691
bheag	-12.1693
▁thigh	-12.1693
▁neamhréir	-12.1697
House	-12.1701
igiú	-12.1702
stóras	-12.1704
▁náire	-12.1706
oblagáid	-12.1707
TUAIRIM	-12.1708
rionglóid	-12.171
▁comhpháirtí	-12.1712
di	-12.1713
entral	-12.1715
▁RF	-12.1715
▁reilig	-12.1717
▁spéise	-12.1717
▁phríobháid	-12.1719
▁hiontaobha	-12.1721
Sheirbhís	-12.1722
hlub	-12.1723
▁Me	-12.1725
iÃo	-12.1726
▁Dat	-12.1728
journ	-12.1729
mplifier	-12.1729
gairdín	-12.173
▁Buisé	-12.173
▁mille	-12.1732
▁phea	-12.1732
▁ullmhó	-12.1733
sásta	-12.1734
aturnae	-12.1734
▁Theicn	-12.1736
leagan	-12.1736
Comhpháirtíochta	-12.1736
oghthóir	-12.1737
obháide	-12.1738
nphrionsa	-12.1738
chigire	-12.1739
▁RÉIGIÚN	-12.1739
▁cniog	-12.1739
▁splanc	-12.1739
MHEÁNACH	-12.1739
▁Cucumber	-12.1739
▁Muslim	-12.1739
▁Próifíl	-12.1739
▁STIÚRTHÓIREACHT	-12.1739
▁System	-12.1739
▁bithmhéadrach	-12.1739
▁fashion	-12.1739
▁fheabha	-12.1739
▁inphionó	-12.1739
▁éagobhsaí	-12.1739
▁acadúla	-12.1739
▁wonder	-12.1739
▁Centre	-12.1739
▁Shasana	-12.1739
▁fhiáin	-12.1739
▁gcampa	-12.1739
▁Saincheap	-12.1739
▁finscéal	-12.1739
▁nGarda	-12.1739
▁Dliteana	-12.1739
▁gceird	-12.1739
▁flesh	-12.1739
▁iomaitheoir	-12.1739
▁Tréidliacht	-12.1739
▁reáchtála	-12.1739
▁phríosúntacht	-12.1739
▁Louboutin	-12.1739
▁Financial	-12.1739
▁fabhraí	-12.1739
▁hidreacarbó	-12.1739
▁Cabhla	-12.1739
▁phréimh	-12.174
▁Ceardlann	-12.174
▁Dhubh	-12.174
▁teirminé	-12.174
▁neamhorgánach	-12.174
▁gCairt	-12.174
▁ndealraí	-12.174
RAITH	-12.174
▁Gobharnóir	-12.174
▁ngnólacht	-12.174
▁retro	-12.174
▁chonclúid	-12.174
▁Sasana	-12.174
▁Rechargeable	-12.174
▁ndliteana	-12.1741
▁sciála	-12.1741
▁múirín	-12.1741
▁bpróiseáil	-12.1741
▁Peter	-12.1741
▁TUI	-12.1742
▁thrian	-12.1742
▁Share	-12.1742
▁will	-12.1742
▁IMEACHTA	-12.1743
▁Smart	-12.1743
▁Cócaireacht	-12.1743
▁hítim	-12.1743
▁fóirdheonta	-12.1743
▁hidirbhearta	-12.1743
▁maighdean	-12.1743
▁staighr	-12.1743
▁Gaile	-12.1743
▁sweet	-12.1743
▁Tax	-12.1743
▁lóistí	-12.1743
▁comhuaineach	-12.1744
▁gallúnach	-12.1744
▁fhoriomlán	-12.1744
▁pónair	-12.1745
mhuint	-12.1745
▁Grey	-12.1745
athló	-12.1746
▁PrÃ	-12.1746
▁Séaracha	-12.1746
▁Léirmheas	-12.1746
▁calorie	-12.1746
▁Bhárda	-12.1747
▁Grád	-12.1747
▁páirtnéir	-12.1747
riachtanais	-12.1747
▁dlíodóir	-12.1747
▁Thalmhaíocht	-12.1747
▁cúntóir	-12.1747
▁FÉ	-12.1748
▁neo	-12.1748
▁mionlach	-12.1748
▁Oirth	-12.1748
▁loigh	-12.1748
▁Pure	-12.1749
▁Ins	-12.175
▁fhónta	-12.175
▁capall	-12.175
▁inspi	-12.1752
▁coimhlint	-12.1752
▁Chánach	-12.1753
▁Law	-12.1753
▁Lámhleabha	-12.1753
▁bídeach	-12.1753
od	-12.1754
vni	-12.1755
▁CHOIMISIÚ	-12.1755
▁Mhói	-12.1755
▁taos	-12.1756
▁Rásaíocht	-12.1756
▁diaibéitea	-12.1756
IBH	-12.1756
▁Baba	-12.1756
▁trian	-12.1758
rival	-12.1758
eintit	-12.1759
▁Fisher	-12.1761
▁Inneall	-12.1762
fhálta	-12.1762
▁Teen	-12.1764
▁Dualgais	-12.1765
▁dtrádála	-12.1766
mhiotal	-12.1766
tosó	-12.1767
▁phósa	-12.1768
▁MO	-12.1768
▁Bainc	-12.1769
▁Comhéada	-12.1772
▁torthú	-12.1773
▁LÉ	-12.1773
▁Cairde	-12.1774
▁choláiste	-12.1776
▁sléibhte	-12.1777
lks	-12.1777
▁142	-12.1778
dhlí	-12.1779
óil	-12.1779
DC	-12.1779
▁cliaint	-12.1781
▁athraitheach	-12.1782
▁Togh	-12.1782
▁drámaí	-12.1783
▁pholl	-12.1784
síocháin	-12.1788
▁Suim	-12.1788
▁baintreach	-12.1789
▁Reachtaíocht	-12.179
▁Molaim	-12.179
contúirt	-12.1791
▁filíocht	-12.1791
▁chainé	-12.1792
▁mbailiúchá	-12.1792
▁earcaíocht	-12.1793
mheastachá	-12.1794
▁1909	-12.1795
olláin	-12.1795
▁Comhacht	-12.1795
▁bhfeachta	-12.1796
▁colaistéaró	-12.1798
▁winter	-12.1798
▁fhairsing	-12.1798
ivas	-12.1799
▁Comhroinn	-12.1799
▁Eas	-12.1801
▁choimisinéir	-12.1801
▁ros	-12.1803
▁bailitheoir	-12.1803
▁dteach	-12.1803
▁deifr	-12.1803
ering	-12.1804
▁áille	-12.1805
▁With	-12.1806
aitsilé	-12.1807
nswer	-12.1808
▁Nice	-12.1809
▁ndeimhn	-12.181
▁cuimhneachá	-12.181
▁Fís	-12.181
83	-12.181
▁spraeála	-12.1811
▁Ceirde	-12.1812
▁bocht	-12.1812
▁gabháltais	-12.1814
thbhunú	-12.1814
fhada	-12.1814
▁athmhúnl	-12.1817
▁anraith	-12.182
Oideachas	-12.182
▁clamp	-12.1821
lic	-12.1821
▁SOCR	-12.1822
▁Suas	-12.1822
▁éifeachtúla	-12.1825
▁éiglí	-12.1825
gp	-12.1826
▁ndint	-12.1826
oite	-12.1828
coirf	-12.1828
▁CBT	-12.1828
▁dhaingn	-12.1829
▁iarrthach	-12.1829
dies	-12.183
oder	-12.183
▁256	-12.1831
▁las	-12.1831
▁Maoiniú	-12.1832
▁bochtaineacht	-12.1832
úchán	-12.1832
▁Can	-12.1833
▁seana	-12.1834
ct	-12.1837
▁Europei	-12.1837
▁cláró	-12.1837
▁cithfholc	-12.1839
km	-12.184
▁cainníochta	-12.1841
▁ciontóir	-12.1841
▁Póilíneacht	-12.1843
▁him	-12.1844
▁dtaisc	-12.1848
▁tionóntachá	-12.1851
óiteáin	-12.1852
eitilt	-12.1855
▁PV	-12.1855
▁funga	-12.1856
▁pholaitiú	-12.1857
FE	-12.1858
tarbh	-12.186
▁mhórbheala	-12.1863
▁Logainm	-12.1864
▁Próise	-12.1868
▁test	-12.1873
ionanna	-12.1875
oise	-12.1875
uimhnigh	-12.1876
▁méadó	-12.1876
▁ID	-12.1876
▁PR	-12.1878
▁bhfostaí	-12.1878
▁coimirce	-12.1882
▁tuismitheo	-12.1882
▁Tús	-12.1883
OTA	-12.1886
▁fhuaim	-12.1886
▁Ceimiceá	-12.1891
▁bainf	-12.1894
chruinn	-12.1894
▁Anal	-12.1899
▁chuóta	-12.1902
▁Music	-12.1902
▁Rain	-12.1903
▁Uile	-12.1905
▁Ceala	-12.1906
ainmhí	-12.1913
▁KB	-12.1916
Bhreith	-12.1916
TO	-12.1919
ós	-12.1919
aontacht	-12.1921
ghnéithe	-12.1922
thú	-12.1922
▁LG	-12.1926
ghníomhach	-12.1927
ric	-12.1927
inicíocht	-12.1928
▁spreagtha	-12.1928
▁Bonn	-12.1931
Ó	-12.1932
▁ngné	-12.1933
▁Bao	-12.1937
▁Bhreis	-12.1937
▁onó	-12.1939
▁seal	-12.1941
▁TIONSCA	-12.1942
▁insil	-12.1943
teoir	-12.1944
▁Críochnaío	-12.1948
▁saineolaí	-12.1948
▁iompórtáil	-12.1949
▁éilitheo	-12.195
▁360	-12.1952
▁úsáidte	-12.1952
▁mbreis	-12.1955
US	-12.1956
aistriúchá	-12.1957
▁Teaghlach	-12.1958
▁Bóna	-12.1959
▁aimín	-12.196
▁Chart	-12.1963
▁phláta	-12.1964
▁Main	-12.1965
▁Cinnt	-12.197
▁Crain	-12.1979
▁RA	-12.1981
taigh	-12.1988
dhlúit	-12.199
▁mheo	-12.199
hairbh	-12.1992
▁iarchur	-12.1994
▁ghl	-12.1996
table	-12.1999
master	-12.2
ACHA	-12.2004
▁HC	-12.2004
▁loingsi	-12.2007
▁éabhlóid	-12.2011
▁Phlé	-12.2011
▁teastas	-12.2019
▁Uni	-12.202
▁díoltó	-12.2021
▁mBó	-12.2026
▁CT	-12.2026
▁Tom	-12.2028
▁tuaslagá	-12.2028
liste	-12.2029
▁117	-12.2029
ming	-12.2032
uafás	-12.2033
éasta	-12.2035
▁páirceá	-12.2035
úra	-12.2037
▁ardcháilíocht	-12.2037
cháilíocht	-12.2039
▁hoil	-12.2046
▁adeir	-12.2049
▁DEN	-12.205
ving	-12.2053
▁phríomhoifig	-12.2054
▁eadar	-12.2057
▁Rat	-12.2059
▁céir	-12.2061
▁shu	-12.2073
quality	-12.2077
sburg	-12.2078
▁Labhair	-12.2078
▁Resu	-12.2079
▁dté	-12.208
▁Seachtrach	-12.2087
▁turasóir	-12.2089
▁Laidine	-12.209
▁comhdhá	-12.2094
oda	-12.2097
charachta	-12.21
▁ndéanf	-12.21
▁NÓ	-12.2106
▁Par	-12.2109
▁Ball	-12.211
íoda	-12.2113
▁íosmhéid	-12.2117
othú	-12.2118
NTA	-12.212
▁tairn	-12.2121
▁bolg	-12.2122
▁leachtaithe	-12.2125
agall	-12.2127
▁Dina	-12.2127
▁Leatha	-12.2131
ardaigh	-12.2134
pt	-12.2135
ailme	-12.2135
▁cro	-12.2136
IDA	-12.2138
ár	-12.2139
▁Mark	-12.2139
▁mheasfaid	-12.214
▁Tot	-12.2142
sk	-12.2142
▁Us	-12.2143
mill	-12.2146
▁Éilío	-12.2146
▁Cean	-12.2147
ACA	-12.2149
▁Santa	-12.2149
▁Cruthú	-12.2149
▁cothromas	-12.215
ational	-12.2151
▁seic	-12.2153
▁comparáid	-12.2157
▁Cór	-12.2161
adán	-12.2161
▁tre	-12.2167
LC	-12.2169
▁institiúideach	-12.2173
▁micro	-12.2174
▁héinn	-12.2178
craiceann	-12.2183
uinniú	-12.2183
lla	-12.2183
▁tsealbhó	-12.2187
Trádáil	-12.219
osa	-12.2197
▁Éifeachtach	-12.2198
▁Seans	-12.2203
rance	-12.2205
▁Pr	-12.2207
cket	-12.221
▁van	-12.2211
155	-12.2212
▁ullamh	-12.2214
▁mhonaraí	-12.2216
igint	-12.2223
tógtha	-12.2224
ot	-12.2225
▁scéala	-12.2226
▁idirghabhá	-12.2234
▁bpai	-12.2238
AIGH	-12.2242
▁lit	-12.2244
▁creata	-12.2249
▁éistf	-12.2259
▁slise	-12.226
ci	-12.2261
▁dhúshlá	-12.2271
íde	-12.2272
▁dathú	-12.2274
▁bpoba	-12.2276
▁This	-12.2279
▁pháirtnéir	-12.2282
▁deimhn	-12.2289
▁urghabh	-12.2294
ague	-12.2294
▁iasachtóir	-12.2294
▁Mótarchá	-12.2295
óstá	-12.2301
▁uiscebheala	-12.2302
ter	-12.2302
osmálta	-12.2306
▁féimheacht	-12.2306
inal	-12.2311
▁Top	-12.2311
▁leictr	-12.2312
▁scan	-12.232
▁gcuirt	-12.232
▁fionna	-12.233
▁bhfosta	-12.2333
▁Grianghraf	-12.2334
cialló	-12.2334
bhuíon	-12.2336
▁tuí	-12.2336
chruinni	-12.2339
steroid	-12.2343
lot	-12.2343
▁tarraingío	-12.2343
IÚLA	-12.2349
PE	-12.2353
ok	-12.2357
▁bhunaithe	-12.2357
▁phas	-12.2357
▁gcorp	-12.2363
▁Dhéan	-12.2363
díoltóir	-12.2365
▁Príomhfh	-12.2366
▁Gaeltacht	-12.2369
▁gu	-12.2372
ogha	-12.2373
FI	-12.2377
▁Teste	-12.2379
osaitheoir	-12.2383
enal	-12.2383
▁q	-12.2384
▁córasach	-12.2384
▁sláinteacha	-12.2388
03	-12.2392
▁chas	-12.2397
chíos	-12.2402
▁Pes	-12.2405
ess	-12.2405
chabhrach	-12.2405
▁ceangail	-12.2407
▁minim	-12.2407
ck	-12.241
ists	-12.2413
▁TO	-12.2415
▁Tú	-12.2417
▁Vic	-12.2417
▁cora	-12.2421
fhor	-12.2423
▁beannacht	-12.2423
▁nglact	-12.2424
NÚ	-12.2426
▁asbhain	-12.2427
▁thé	-12.2428
ador	-12.243
▁sáraithe	-12.2431
▁vid	-12.2437
▁Col	-12.2437
bhord	-12.244
▁Fi	-12.2442
GA	-12.2454
cheanta	-12.2464
▁ghair	-12.2467
▁FTT	-12.2468
▁bail	-12.2468
▁deonta	-12.2478
athracha	-12.2482
▁Náisiúntacht	-12.2482
▁eolair	-12.2482
▁cosmaid	-12.2484
▁aics	-12.2484
▁Ka	-12.2486
▁maighnéadach	-12.249
rant	-12.2494
ML	-12.2496
▁comhfhreagrach	-12.2499
dal	-12.2503
▁tsolátha	-12.2503
▁forfheidhmiúchá	-12.2503
uck	-12.2507
▁dosa	-12.251
arán	-12.2512
amara	-12.2514
FP	-12.2518
icíd	-12.2526
▁ghrúp	-12.2526
▁imoibr	-12.2529
▁dream	-12.253
axi	-12.2536
▁dúi	-12.2539
▁Meastachá	-12.255
▁Pósta	-12.255
▁Fur	-12.2553
▁modúl	-12.2555
▁Nik	-12.2558
▁Hi	-12.256
olaire	-12.256
▁Ky	-12.2563
▁ON	-12.2567
▁Bro	-12.257
▁Fin	-12.2571
ubh	-12.2571
cúlghairm	-12.2572
▁scriosfa	-12.2575
▁thionóntacht	-12.2577
íomh	-12.258
▁chlub	-12.259
▁Fhil	-12.259
▁páirce	-12.2592
▁Eagraío	-12.2596
▁chairé	-12.2597
fhoirceann	-12.2597
▁PP	-12.2597
over	-12.2598
chónaitheoir	-12.2598
shop	-12.2602
chtáil	-12.2605
▁Oh	-12.2608
▁siamsa	-12.2611
▁Scríbhneoir	-12.2611
scoil	-12.2614
▁éigeanta	-12.2615
amhain	-12.2616
oicind	-12.2617
75	-12.2617
▁Die	-12.2618
sheacha	-12.262
iúin	-12.262
▁cáilith	-12.262
▁Ak	-12.2622
leictreach	-12.2623
IM	-12.2624
▁cothaith	-12.2628
▁bhfreagracht	-12.2631
taithí	-12.2633
FG	-12.2635
▁Brabú	-12.2636
▁Corn	-12.2643
MA	-12.2647
▁bheo	-12.2649
raíocht	-12.2649
ocha	-12.2653
▁threorach	-12.2654
AISI	-12.2657
▁maol	-12.2664
▁Deisc	-12.2664
▁143	-12.2666
bhuailte	-12.2667
scaoilte	-12.2668
board	-12.2671
▁Lit	-12.2671
fhorfheidhmi	-12.2674
AD	-12.2676
▁cnaip	-12.2676
▁séarach	-12.2677
▁Aitheanta	-12.2678
▁caibidlí	-12.2682
mra	-12.2684
anagement	-12.2685
▁Smaointe	-12.2686
▁margadhluach	-12.2687
▁Day	-12.2689
▁fhéin	-12.269
AH	-12.2692
▁Gréig	-12.2692
▁Mas	-12.2695
▁Choimisiné	-12.2698
hóiteá	-12.2698
▁Manufactur	-12.2699
umhachtófa	-12.271
▁dearbh	-12.2711
▁Láithreach	-12.2712
▁dtáirgea	-12.2712
▁toimhde	-12.2714
eola	-12.2716
▁chol	-12.2717
fhorbair	-12.2718
sts	-12.272
▁Flash	-12.272
fhad	-12.272
ileata	-12.2723
acu	-12.2723
▁driog	-12.2726
▁Direct	-12.2726
pórt	-12.2726
SCO	-12.2728
▁eastósc	-12.2728
▁doimhne	-12.2729
oráid	-12.2731
▁líneach	-12.2732
▁sparán	-12.2735
▁Communit	-12.2738
wick	-12.2739
▁Virgin	-12.2739
▁dtoirmisc	-12.2739
▁Teicniú	-12.2739
▁bronchi	-12.2739
▁Ghréasá	-12.2739
▁Jewel	-12.2739
▁Metatrader	-12.2739
▁Ottoman	-12.2739
▁appetite	-12.2739
▁dioplóma	-12.2739
▁gcimeád	-12.2739
▁meitibileach	-12.2739
▁phraghs	-12.2739
▁theaghais	-12.2739
▁zombie	-12.2739
▁cardashoithíoch	-12.2739
▁British	-12.2739
▁Statistic	-12.2739
▁Íseal	-12.2739
▁budget	-12.2739
▁comhthreomhar	-12.2739
▁Pháirc	-12.2739
onnmhuiri	-12.2739
▁Weather	-12.2739
▁chiorca	-12.2739
▁gcatagóir	-12.2739
▁trúpa	-12.2739
▁meargánta	-12.2739
▁Capital	-12.2739
▁Fadhb	-12.2739
sileac	-12.2739
▁Mionsonra	-12.2739
▁Railway	-12.2739
▁Bloom	-12.2739
▁Siopa	-12.2739
▁Philipp	-12.2739
INEARÁL	-12.274
▁Rialála	-12.274
▁aersheirbhís	-12.274
▁dhamáist	-12.274
▁Desert	-12.274
▁choinbhinsiú	-12.274
haraoh	-12.274
▁Club	-12.274
▁Gaolmhar	-12.274
▁TEORA	-12.274
▁Regulation	-12.274
▁Fianá	-12.274
▁miniature	-12.274
▁buisé	-12.274
▁CNCM	-12.274
▁Diosca	-12.274
▁bhreithiúnta	-12.274
▁cluaisín	-12.274
▁idirchaidr	-12.2741
▁féileacá	-12.2741
▁coróin	-12.2741
▁WW	-12.2741
▁réadmhaoin	-12.2741
tweetá	-12.2741
uilig	-12.2741
▁bPáirt	-12.2741
▁súgartha	-12.2741
▁thiomána	-12.2741
▁tráchtearra	-12.2741
ionlainn	-12.2741
▁seachvótála	-12.2741
▁congna	-12.2742
▁tollán	-12.2742
▁Víosa	-12.2742
▁feabhsu	-12.2742
▁Gheall	-12.2742
▁Curacla	-12.2742
▁coipthe	-12.2742
Oideacha	-12.2743
▁Banríon	-12.2743
▁ciorclach	-12.2743
ber	-12.2743
▁phlú	-12.2743
táinig	-12.2743
leá	-12.2743
▁scamall	-12.2743
▁topaic	-12.2744
▁Clé	-12.2744
LEATH	-12.2744
▁hiniúchta	-12.2744
▁nDáil	-12.2744
▁foighne	-12.2744
▁milseog	-12.2745
▁Coróin	-12.2745
▁brusca	-12.2745
▁Dragon	-12.2746
cionn	-12.2746
vé	-12.2746
▁frost	-12.2746
▁bhunscoil	-12.2747
▁Paitinn	-12.2747
▁comóra	-12.2747
▁Trans	-12.2747
lotnaidicíd	-12.2747
▁dhlítheana	-12.2748
▁Water	-12.2749
worth	-12.2749
▁deilbhín	-12.275
▁hibrideach	-12.275
▁Mobile	-12.275
▁saorálach	-12.275
EA	-12.275
▁EIT	-12.2751
▁Scagair	-12.2751
▁anodiz	-12.2751
▁dhícháiliú	-12.2752
▁dropper	-12.2752
▁pr	-12.2753
▁Comhordú	-12.2753
▁Toghachá	-12.2754
▁thrácht	-12.2754
▁códú	-12.2754
▁Tobha	-12.2754
▁hoc	-12.2754
▁Araibis	-12.2756
choibhneas	-12.2756
▁mótarfheithicl	-12.2757
▁hathbhreithni	-12.2757
▁Suite	-12.2757
ISCE	-12.2758
▁pearsana	-12.276
▁pu	-12.2761
▁crom	-12.2764
Dámhachtain	-12.2764
▁bha	-12.2764
▁gCumhacht	-12.2765
▁Open	-12.2766
▁mono	-12.2766
▁curacla	-12.2766
▁mhairf	-12.2769
▁Maol	-12.2769
▁duánacht	-12.277
tooth	-12.277
▁Croí	-12.2771
▁Feabhsú	-12.2771
▁juic	-12.2772
irisí	-12.2772
sean	-12.2772
▁speictrea	-12.2773
ties	-12.2773
▁toghairm	-12.2773
▁Machin	-12.2773
▁Gao	-12.2776
CHOIM	-12.2776
▁mhícheart	-12.2776
▁píobá	-12.2778
▁PL	-12.2778
▁tempt	-12.2779
▁Sib	-12.2779
▁dátheangach	-12.278
airdeall	-12.2783
▁Ceol	-12.2783
▁CC	-12.2783
▁nialas	-12.2785
▁Bóthair	-12.2787
▁Massag	-12.2787
-15	-12.2787
eichniúr	-12.2788
▁grace	-12.279
ucu	-12.279
▁Leanfa	-12.279
▁comhdh	-12.279
▁fána	-12.2792
▁gcuntais	-12.2793
▁COM	-12.2795
ked	-12.2796
▁halla	-12.2796
onta	-12.2796
▁Tru	-12.2797
hreabha	-12.2798
insí	-12.2798
▁píblín	-12.2798
▁cheimiceach	-12.2799
▁héilithe	-12.2799
AIM	-12.2799
▁lín	-12.28
DT	-12.28
▁Easpa	-12.2801
▁iarrtha	-12.2801
▁Comhtháth	-12.2802
amhnach	-12.2803
abhrói	-12.2803
▁gceangló	-12.2804
▁Gala	-12.2804
▁argóint	-12.2805
▁dhiúité	-12.2805
▁fhoirgint	-12.2805
▁polaiméir	-12.2805
▁ndeonta	-12.2805
▁iarscríbhinn	-12.2805
▁deisce	-12.2805
▁Rica	-12.2807
▁snáthaid	-12.2807
▁suaitheanta	-12.2807
▁máinliacht	-12.2807
▁uiríoll	-12.2807
▁príomhoid	-12.2807
▁bhardas	-12.2808
▁oibiachtúla	-12.2809
▁sainchomhairleo	-12.2809
▁brata	-12.2809
▁CIS	-12.281
xit	-12.281
▁Fiosrúchá	-12.2815
▁neamhíoc	-12.2816
emia	-12.2816
▁disciplín	-12.2819
▁eagarthóir	-12.282
▁ndáilchean	-12.2821
tball	-12.2821
ING	-12.2823
Imréit	-12.2824
INN	-12.2824
▁muinc	-12.2826
mhúch	-12.2827
▁thíolac	-12.2827
▁Border	-12.2828
ef	-12.2828
▁mheánmhéid	-12.2828
gheall	-12.2829
▁chruach	-12.2832
uirlis	-12.2833
▁corpra	-12.2833
▁Dead	-12.2834
▁trua	-12.2834
▁bhaintreach	-12.2834
sceana	-12.2835
Box	-12.2837
fhoghlaim	-12.2837
amall	-12.2838
▁dumpáil	-12.2838
▁Cas	-12.2839
▁inrochtaineacht	-12.2839
▁ndlíns	-12.284
stiúrthóir	-12.2842
▁Lege	-12.2843
mer	-12.2843
ingearach	-12.2846
▁cúr	-12.2846
▁Béal	-12.2846
▁craoltóir	-12.2846
Lawn	-12.2847
Iarrata	-12.2847
▁urrann	-12.285
▁infhaighteacht	-12.285
▁Normal	-12.2853
fheabhsú	-12.2854
▁gcai	-12.2856
iarmhar	-12.2856
▁bríc	-12.2856
▁gcúig	-12.2856
▁fhillea	-12.2859
▁dtosó	-12.286
India	-12.2861
▁grámhar	-12.2862
chomhpháirtíocht	-12.2863
earradh	-12.2863
ument	-12.2864
▁WA	-12.2865
▁Thóg	-12.2867
▁Deisiúchá	-12.2867
▁Bitc	-12.2867
▁iontais	-12.2868
▁2014-	-12.2871
▁hiontrál	-12.2874
lm	-12.2875
▁Tríd	-12.2875
AINGNI	-12.2876
iméid	-12.2876
▁Mold	-12.2876
▁delight	-12.2877
▁here	-12.2878
▁Cróit	-12.288
▁miotal	-12.2883
▁Creidmheas	-12.2883
Plean	-12.2883
▁comórtas	-12.2885
teocht	-12.2886
▁4-6	-12.2888
▁mbunacha	-12.2888
réigiúnach	-12.289
▁shroichea	-12.2894
shealbh	-12.2896
▁samhlaíocht	-12.2897
▁dtarraingeofa	-12.2898
volta	-12.2898
clare	-12.2899
tro	-12.2899
▁láidreachta	-12.29
▁Eagra	-12.29
istic	-12.29
reign	-12.29
▁romha	-12.2903
▁111	-12.2905
▁aclaíocht	-12.2911
▁aoibh	-12.2913
▁Branda	-12.2913
▁Riachtanach	-12.2917
oll	-12.2919
▁fhéichiúna	-12.292
▁Baku	-12.2921
oige	-12.2921
▁cleachtóir	-12.2921
amach	-12.2921
▁pearsantacht	-12.2922
EAS	-12.2925
mhéada	-12.2926
▁eachtrannach	-12.2926
▁blastá	-12.2929
ealaíontóir	-12.2929
cre	-12.2929
▁575	-12.2929
chead	-12.2931
phrionsaba	-12.2931
▁marg	-12.2932
▁bhforchuir	-12.2935
▁ballraíocht	-12.2937
▁ndíolta	-12.294
▁síor	-12.2941
▁ionsaithe	-12.2941
▁gcógas	-12.2942
stad	-12.2942
▁tháirgeoir	-12.2945
▁LCD	-12.2951
ural	-12.2952
▁gra	-12.2956
▁chomhachta	-12.2956
▁óráid	-12.2961
min	-12.2962
022	-12.2962
gne	-12.2962
▁DH	-12.2963
naithe	-12.2964
▁seandálaíocht	-12.2967
▁sáró	-12.2968
▁Dáilea	-12.2968
tomhaiste	-12.2969
fhir	-12.2969
teolaí	-12.2971
▁ábharthacht	-12.2972
comhshocraíochta	-12.2979
asbhainte	-12.2979
▁gcóireá	-12.2979
▁cnapshuime	-12.2979
16	-12.298
▁Cion	-12.2982
▁mol	-12.2984
▁Tor	-12.2987
▁Diúsca	-12.2994
search	-12.2994
▁chruithneachta	-12.2996
urlá	-12.3001
▁Bell	-12.3009
oileach	-12.3014
eimpléad	-12.3015
irge	-12.3015
iya	-12.3015
▁Bean	-12.3018
▁seamla	-12.3018
▁Touris	-12.3024
▁EPA	-12.3024
▁Leacht	-12.3025
▁Natura	-12.3027
treoirlín	-12.3028
rtaithe	-12.3032
fhéachaint	-12.3032
ónais	-12.3033
▁fhéad	-12.3034
▁cuirid	-12.3038
▁cóipch	-12.3038
▁bhuí	-12.3042
rálta	-12.3045
▁gcumhda	-12.3046
▁athstruchtúr	-12.3048
úinéirí	-12.3053
▁Safe	-12.3054
▁bholg	-12.3056
▁easláin	-12.3057
illing	-12.3058
lin	-12.3059
lock	-12.3059
▁eascann	-12.3059
head	-12.306
ko	-12.306
▁chistiú	-12.3068
▁Bhéarfa	-12.3068
isling	-12.3068
▁your	-12.307
fhógra	-12.307
▁Fón	-12.3071
▁comhlíon	-12.3072
▁Bio	-12.3073
bhalla	-12.3075
leas	-12.3076
▁mbail	-12.3079
▁dteora	-12.3079
▁Kars	-12.3079
▁sheacht	-12.3079
▁cab	-12.3082
▁tionóisce	-12.3082
▁socraíocht	-12.3082
▁265	-12.3083
bar	-12.3086
▁bóna	-12.31
bainisteoireacht	-12.3101
▁bunreachtú	-12.3104
▁Ra	-12.3108
▁aighnea	-12.3109
▁Gearrth	-12.311
▁PRO	-12.311
▁mhíchu	-12.3113
TAR	-12.3114
inbhuanaitheacht	-12.3116
NS	-12.3119
▁Stor	-12.3122
eisiatach	-12.3127
▁athscrúd	-12.3127
▁Fee	-12.3128
néis	-12.3136
lúthchuideachta	-12.3137
▁slua	-12.3141
▁bréag	-12.3143
mo	-12.3145
▁ainmn	-12.3152
▁Saoráid	-12.3152
▁Roo	-12.3156
▁fhórsa	-12.3158
AA	-12.316
▁fhaighteoir	-12.316
▁prái	-12.316
▁modheolaíochta	-12.3161
▁treal	-12.3164
▁Druga	-12.3164
▁sheirbheálfa	-12.3165
▁eagrúchá	-12.3168
pping	-12.317
▁háracha	-12.3177
uile	-12.3178
▁bhronn	-12.3181
▁Chomhlachai	-12.3182
▁tearma	-12.3185
▁onnmhairí	-12.3185
▁Breathn	-12.3187
gáin	-12.319
▁ullmhóid	-12.3198
▁Barra	-12.3201
▁hiona	-12.3203
roof	-12.3203
▁Per	-12.3203
▁Sár	-12.3204
▁brící	-12.321
GO	-12.321
▁campa	-12.321
▁that	-12.3211
▁1990-	-12.3213
▁Ele	-12.3217
▁aibíocht	-12.3218
hoo	-12.3219
bell	-12.322
ág	-12.322
▁dtria	-12.3224
▁121	-12.3228
lúbthachta	-12.323
001	-12.323
▁béal	-12.323
cast	-12.3239
▁Lei	-12.3239
▁bhfiacha	-12.324
▁shamhla	-12.3242
▁sealbhó	-12.3244
▁202	-12.3245
ema	-12.3247
oirse	-12.3261
Ag	-12.3263
▁AS	-12.3265
easta	-12.3266
idirdhealaithe	-12.3267
TB	-12.3268
éachtaí	-12.3278
sky	-12.328
▁NÁISIÚN	-12.3284
ITE	-12.3286
▁luachan	-12.3293
rÃ	-12.3295
▁éadan	-12.3295
ign	-12.33
chlann	-12.3302
thernet	-12.3305
verter	-12.3308
▁Uas	-12.331
séid	-12.3313
▁Cal	-12.3314
▁Sóisialach	-12.3315
▁stáits	-12.3316
▁ndeir	-12.3317
▁fhorghéill	-12.3321
▁AND	-12.3324
▁mhúnla	-12.3325
▁Sant	-12.3325
NÉ	-12.3328
▁fhreasta	-12.3329
oibríocht	-12.3333
▁droim	-12.3333
ator	-12.3336
▁comhréit	-12.3336
oghairm	-12.334
fad	-12.3341
▁chineálchead	-12.3343
uais	-12.3348
▁sea	-12.3349
▁geo	-12.3353
▁múch	-12.3356
▁chomhairleoir	-12.3361
▁trend	-12.3362
▁comhda	-12.3362
ghníomhaíochta	-12.3362
fhága	-12.3365
▁ranníocach	-12.3365
▁athdhíol	-12.3368
▁Bhuirg	-12.3374
▁gcóna	-12.3375
▁dhóiteá	-12.338
iorrú	-12.3384
▁liostáil	-12.3386
▁gcreidea	-12.3386
▁dúcha	-12.3388
amhras	-12.3388
thóir	-12.3391
▁bhFora	-12.3391
urs	-12.3396
NL	-12.3399
▁Bunreacht	-12.3402
fhulaing	-12.3404
▁Spreag	-12.3406
▁eispéir	-12.3407
amaí	-12.3407
▁fai	-12.3412
02	-12.3413
ut	-12.3413
▁logh	-12.3415
▁bhearna	-12.3416
▁Cath	-12.3417
▁thaispeána	-12.3418
▁haer	-12.3423
▁stain	-12.3426
▁ngearán	-12.3428
▁Pia	-12.3428
teen	-12.3436
▁Foca	-12.3436
▁tiarratas	-12.3442
▁bhu	-12.3445
▁Leit	-12.3446
garraíodóireacht	-12.3447
róiseas	-12.345
▁bhuacha	-12.3454
ilf	-12.346
▁míochain	-12.3464
87	-12.3467
position	-12.347
onad	-12.3475
▁fhál	-12.3477
▁Wa	-12.3481
▁rialach	-12.3481
▁Cheapach	-12.3482
NIÚ	-12.3483
▁éilío	-12.3484
▁fhaomha	-12.3485
iúchán	-12.3486
mars	-12.3494
▁chumais	-12.3496
asfhoca	-12.3498
▁tuath	-12.35
▁náisiúntachta	-12.3501
▁bheir	-12.3502
▁FOR	-12.3507
▁ósta	-12.351
thing	-12.3511
▁phríosúnach	-12.3511
▁Shon	-12.3511
▁Sú	-12.3522
abhrán	-12.3523
▁thr	-12.3524
▁MI	-12.3524
▁Caill	-12.3529
▁inmharthana	-12.3532
▁geala	-12.3533
bhriste	-12.3536
▁Cill	-12.3539
▁Bréag	-12.3543
ark	-12.3546
rán	-12.3547
▁mhodha	-12.3548
▁bunaíocht	-12.3556
▁mbainist	-12.3559
▁rialáilte	-12.3561
▁leabharlanna	-12.3563
bu	-12.3565
▁Ús	-12.3565
árú	-12.3566
▁Imscrúd	-12.3567
▁fhostaíochta	-12.357
toghchán	-12.3573
▁Samhra	-12.3573
athra	-12.3577
▁forchur	-12.3578
óca	-12.3581
abhar	-12.3584
▁dheonta	-12.3593
▁Dronuilleog	-12.3596
▁cailliú	-12.36
chúis	-12.3601
gairt	-12.3605
▁Imeacht	-12.3605
▁turgnamh	-12.3608
bainistíocht	-12.3613
▁orda	-12.3613
▁scamhóg	-12.3622
▁Vis	-12.3623
▁comhdhála	-12.3624
▁UK	-12.3624
▁dtosaíocht	-12.3624
phragha	-12.363
heiceáil	-12.3633
easú	-12.3634
▁hand	-12.3634
uibheach	-12.3641
▁170	-12.3641
▁príomhchúi	-12.3642
▁réamhfhóg	-12.3644
▁greamaithe	-12.3647
▁chánacha	-12.365
▁stu	-12.3654
▁agra	-12.3659
iúiré	-12.3661
▁294	-12.3662
▁Tiontai	-12.3666
▁Jul	-12.3667
chomhalta	-12.3672
lasta	-12.3673
mháin	-12.3673
▁Suí	-12.3676
▁hoibri	-12.3679
▁fertiliz	-12.368
▁dhé	-12.3682
▁brat	-12.3683
▁dearga	-12.3686
eup	-12.3687
▁bharra	-12.3688
fhíoraithe	-12.3689
FU	-12.369
▁Comhdhlúth	-12.3691
ban	-12.3691
rochta	-12.3693
stam	-12.37
ru	-12.3704
▁Feidhmeannach	-12.3705
event	-12.3705
▁Ginearál	-12.3709
▁Rua	-12.3714
▁Loing	-12.3718
▁coimisiú	-12.3719
uter	-12.372
▁Chlé	-12.3723
▁duill	-12.3726
▁Póilín	-12.3726
AIL	-12.3727
▁cóimhiota	-12.3728
▁Brun	-12.373
▁méide	-12.3731
▁fhulaing	-12.3733
▁OIFIG	-12.3739
▁Chist	-12.3741
▁coimirc	-12.3741
réireachta	-12.3751
▁haoise	-12.3754
Is	-12.3756
▁carnach	-12.3756
úna	-12.3759
▁lin	-12.3759
▁Scrío	-12.3759
▁Aistriúchá	-12.3764
▁gCó	-12.3765
nós	-12.3769
chaint	-12.3769
▁Coig	-12.377
▁lochá	-12.3773
▁dhroch	-12.3773
▁Trade	-12.3775
▁Nochta	-12.3776
▁Ghinearál	-12.3778
▁pátrú	-12.3778
▁ngrá	-12.3781
▁lann	-12.3783
▁cinnteo	-12.3783
-16	-12.3786
▁mhúinteo	-12.3789
▁153	-12.3789
berg	-12.3792
▁gcríochn	-12.3793
▁Not	-12.3794
▁tomhaltó	-12.3795
chonair	-12.3796
▁Feirme	-12.3797
▁bunu	-12.3801
▁MIL	-12.3802
▁Saint	-12.3807
▁Ne	-12.381
▁fomhíre	-12.3812
ianna	-12.3817
▁NÍ	-12.3818
réasúnaíocht	-12.3818
▁Bail	-12.3822
neart	-12.3822
▁CON	-12.3823
▁tairs	-12.3827
iness	-12.3827
▁max	-12.3833
erian	-12.3835
maí	-12.3835
-1	-12.3836
MR	-12.3836
▁Comharsan	-12.3837
deas	-12.3837
▁dhún	-12.3838
▁134	-12.3839
▁Tuaisc	-12.3839
mploy	-12.3839
clábha	-12.384
▁Foo	-12.3846
▁Taispeána	-12.3847
ob	-12.3847
wei	-12.3847
▁Compani	-12.3848
▁Group	-12.3848
▁Commissi	-12.3848
MSA	-12.385
▁TALMHA	-12.385
Tbilisi	-12.385
▁Bleacher	-12.385
▁Societ	-12.385
▁fínéaga	-12.385
ourbillon	-12.385
phosph	-12.385
▁Double	-12.385
▁Language	-12.385
▁SEALADACH	-12.385
▁SEIRBHÍS	-12.385
▁Sceimhlitheoir	-12.385
▁Socró	-12.385
▁Toronto	-12.385
▁billiard	-12.385
▁comhfhogas	-12.385
▁inflorescence	-12.385
▁léaráid	-12.385
▁outfit	-12.385
▁pumpkin	-12.385
▁righteous	-12.385
▁wrinkle	-12.385
▁gemstone	-12.385
▁iPod	-12.385
▁strainséir	-12.385
▁Athnuachan	-12.385
▁Field	-12.385
▁haighneachta	-12.385
▁radio	-12.385
calyp	-12.385
▁Jump	-12.385
▁bpolasa	-12.385
▁hidrigin	-12.385
▁phriaca	-12.385
▁VITIM	-12.385
▁heipit	-12.385
▁lúthchleasa	-12.385
▁shreang	-12.385
▁mhuilneoir	-12.385
▁CRÍCHE	-12.385
▁tuáill	-12.385
function	-12.385
▁Syria	-12.385
▁policy	-12.385
sléibhe	-12.385
▁Radio	-12.385
▁mailíseach	-12.385
▁bhacainn	-12.385
▁follas	-12.385
▁meeting	-12.385
▁Myster	-12.3851
ompensat	-12.3851
▁slaodacht	-12.3851
▁foirgint	-12.3851
▁bíoma	-12.3851
▁gcalafo	-12.3851
▁dhéileálfa	-12.3851
▁GLAS	-12.3851
DAC	-12.3851
▁Soiscéal	-12.3851
theileagraf	-12.3851
▁lúibín	-12.3851
▁Thionó	-12.3851
▁Diúscairt	-12.3851
▁corrfholúnta	-12.3852
▁choimhthíoch	-12.3852
▁gceannaitheoir	-12.3852
▁Eiseo	-12.3852
▁Ainmneo	-12.3852
▁Button	-12.3852
▁Prince	-12.3852
riminal	-12.3852
▁gCúig	-12.3853
▁shíor	-12.3853
▁súilíneach	-12.3853
▁Ceadúnú	-12.3853
▁seaicéad	-12.3853
▁micreafó	-12.3854
▁chrité	-12.3854
▁156	-12.3854
eamhthuillmheach	-12.3854
▁Sky	-12.3854
▁buaic	-12.3854
▁tarracóir	-12.3854
▁Cóireála	-12.3855
▁Eatramh	-12.3855
▁coinbhinsiú	-12.3855
icéad	-12.3855
▁OEC	-12.3855
reasure	-12.3855
▁Cistine	-12.3855
▁Children	-12.3856
▁THABH	-12.3856
▁Cobhsaíocht	-12.3856
▁pingin	-12.3856
▁Columb	-12.3856
▁searbh	-12.3856
▁dlúithe	-12.3856
▁Building	-12.3857
▁nerve	-12.3857
▁Troid	-12.3857
▁Castle	-12.3858
▁finger	-12.3858
▁bhflaith	-12.3858
▁fionnuisce	-12.3859
▁DAINGNI	-12.3859
▁uchtála	-12.3859
▁freagróir	-12.3859
▁Mec	-12.3859
▁heisío	-12.3859
▁first	-12.3859
▁Deep	-12.3859
▁Maor	-12.3859
▁tráidir	-12.386
▁Chruinn	-12.386
▁Altrana	-12.386
▁héifeachtúlacht	-12.386
▁German	-12.386
▁Téama	-12.386
▁Caomhn	-12.3861
▁shloinne	-12.3861
▁Bith	-12.3861
▁copair	-12.3861
▁lánaimsire	-12.3861
▁Cuimhneachá	-12.3862
▁Neighbo	-12.3863
▁Carranna	-12.3863
▁luing	-12.3863
▁rópa	-12.3863
▁plot	-12.3864
▁iom	-12.3864
▁Déiríocht	-12.3866
▁poke	-12.3866
▁Iomarcaíocht	-12.3867
amatach	-12.3867
▁Cheanta	-12.3867
Íoslainn	-12.3868
▁bhFór	-12.3869
loud	-12.387
▁líomhaint	-12.387
▁Dhear	-12.3871
▁Míchuma	-12.3872
▁suíochá	-12.3872
▁heachtra	-12.3872
dmin	-12.3874
▁gComhlacht	-12.3874
body	-12.3874
▁pa	-12.3874
▁Foraoise	-12.3875
▁531	-12.3876
▁bhogearra	-12.3877
▁ghníomhó	-12.3877
▁colscar	-12.3877
▁ngnócha	-12.3877
▁Uirbeach	-12.3878
▁súg	-12.3879
▁Sloinn	-12.3879
▁dtosnó	-12.388
▁PIN	-12.388
IFE	-12.388
▁poss	-12.3881
▁Chód	-12.3881
▁chongant	-12.3881
▁infheictheacht	-12.3882
▁fhálta	-12.3883
▁bhfoló	-12.3885
▁Daonáir	-12.3885
▁Vóta	-12.3885
▁Of	-12.3887
▁Grada	-12.3888
▁tobha	-12.3889
▁Davi	-12.3889
▁molfa	-12.3889
▁suirbhéireacht	-12.3891
▁Champa	-12.3892
ilse	-12.3893
▁tuile	-12.3893
▁Dualga	-12.3893
▁Inimirc	-12.3894
▁hiniúcha	-12.3895
bhrais	-12.3897
▁nocht	-12.3897
▁ghnóthaí	-12.3901
▁dhíochur	-12.3902
▁Fho	-12.3902
comhdhúil	-12.3902
bheala	-12.3903
▁caidéal	-12.3904
▁mhonaró	-12.3905
▁MIAN	-12.3907
▁ndíolfa	-12.3908
comharsanacht	-12.3908
HEAD	-12.3908
▁Mad	-12.3909
▁bhfac	-12.391
▁maoirseoir	-12.3911
▁antaibheathach	-12.3911
ups	-12.3916
▁cumha	-12.3918
▁Todhchaí	-12.3919
▁chóna	-12.3921
▁Teasa	-12.3921
▁Liam	-12.3922
▁cool	-12.3923
▁London	-12.3924
▁Women	-12.3924
▁trust	-12.3924
▁service	-12.3924
▁garlic	-12.3924
low	-12.3925
▁oileá	-12.3925
▁coimhthíoch	-12.3925
▁choiscthe	-12.3925
▁músae	-12.3925
media	-12.3925
▁thaisteal	-12.3926
▁haitheanta	-12.3927
lover	-12.3927
onnartha	-12.3927
▁Earth	-12.3927
íle	-12.3928
▁public	-12.3928
▁Ev	-12.393
▁dreasachta	-12.393
▁Eurosta	-12.393
SRI	-12.393
▁intuartha	-12.393
▁inchomparáide	-12.3931
▁inárachaithe	-12.3932
▁baiste	-12.3933
▁rithf	-12.3934
▁About	-12.3934
▁Orda	-12.3935
▁cainteoir	-12.3936
▁Feir	-12.3938
▁dheimhneo	-12.3938
▁dronuilleogach	-12.3938
▁sprinkle	-12.3939
▁toitín	-12.3939
▁Fly	-12.394
OVER	-12.394
agró	-12.3941
▁Coigeart	-12.3941
▁Gnóthacha	-12.3941
▁gníomhóid	-12.3942
▁Tosaío	-12.3943
▁Roghnú	-12.3943
isiriú	-12.3944
▁intri	-12.3944
▁thuar	-12.3948
▁feachta	-12.395
lon	-12.395
alway	-12.3951
leamhná	-12.3951
▁Van	-12.3953
▁sreafa	-12.3953
▁Dhío	-12.3953
▁billí	-12.3956
yes	-12.3957
▁rúnaíochta	-12.3958
▁bead	-12.3958
▁gcoinneof	-12.3962
IP	-12.3962
▁aigéadach	-12.3962
▁cinnteoireacht	-12.3964
shealbhóir	-12.3964
inator	-12.3965
dachad	-12.3965
▁Imir	-12.3966
dheimhniú	-12.3968
orimealla	-12.397
▁141	-12.397
ghlacadóir	-12.3974
▁Margaíocht	-12.3974
▁Fhoir	-12.3981
▁gcro	-12.3981
▁Doc	-12.3982
▁díoth	-12.3983
▁lóistíocht	-12.3984
▁faigh	-12.3985
▁leapa	-12.3985
▁sibh	-12.3987
ramhaíola	-12.3987
tháscair	-12.3988
bailte	-12.3989
craft	-12.399
▁sheasta	-12.399
▁out	-12.3991
▁Rolla	-12.3991
▁Arabach	-12.3994
ULA	-12.3994
chóiriú	-12.3995
▁ionduchtú	-12.3995
▁Chomhlachta	-12.3996
▁gcóip	-12.4
▁fich	-12.4
eilge	-12.4001
▁uathúla	-12.4004
▁hE	-12.4004
▁ochtó	-12.4005
▁Colle	-12.4005
ambú	-12.4007
scair	-12.4009
▁thy	-12.401
▁Corpoideacha	-12.4011
gen	-12.4012
▁fhaireacha	-12.4012
▁thógfa	-12.4013
▁thaisce	-12.4013
▁mine	-12.4014
Corparáid	-12.4014
▁ionsaitheach	-12.4015
mharc	-12.4016
▁leasó	-12.4016
▁fhadtéarmach	-12.4016
oirfea	-12.4016
sm	-12.4017
▁páigh	-12.4018
porno	-12.402
▁Ioslamach	-12.4022
▁pléascach	-12.4023
Rail	-12.4025
▁lochtach	-12.4027
dress	-12.4028
ost	-12.4029
▁fhorlíontach	-12.4029
▁chreidmheas	-12.403
▁Dó	-12.4031
▁draein	-12.4032
tseirbhís	-12.4033
shonraí	-12.4033
▁hola	-12.4033
▁cuimilteoir	-12.4037
▁éasúint	-12.4039
▁greamachá	-12.4041
▁Spáinne	-12.4042
▁dhíri	-12.4044
▁dtreoir	-12.4045
▁Wood	-12.4047
fite	-12.4048
ANN	-12.4048
Iontaobha	-12.4049
▁chlás	-12.4049
giúnach	-12.4049
▁síceolaíocht	-12.405
chlub	-12.405
Ordu	-12.405
▁Alla	-12.4052
▁Bus	-12.4052
▁fhearchéil	-12.4054
▁Uair	-12.4056
NERA	-12.4057
rúite	-12.4057
▁coimeádta	-12.4058
lonrach	-12.4059
Ceanada	-12.4062
fheirmeoir	-12.4062
OGG	-12.4063
▁chúins	-12.4063
▁ur	-12.4063
▁Bád	-12.4069
IANNA	-12.407
▁Liti	-12.4071
▁aeradró	-12.4071
chostas	-12.4074
▁How	-12.4075
▁thabharf	-12.4076
aithreacha	-12.4076
▁mBanna	-12.4077
▁chobhs	-12.4078
Gaillimh	-12.408
omhairliúchán	-12.4081
▁165	-12.4083
▁chúlghair	-12.4086
chríochnaithe	-12.4088
▁Ric	-12.409
▁gorta	-12.4091
nádúrtha	-12.4092
plátáil	-12.4094
▁fi	-12.4094
dáileog	-12.4095
éifeachtúlacht	-12.4096
▁dlíf	-12.4099
▁Scor	-12.4099
▁orgána	-12.4099
▁viv	-12.4099
▁idirghabhálach	-12.41
-10	-12.4101
íomhá	-12.4102
kg	-12.4104
▁cabhrói	-12.4106
▁catha	-12.4106
▁Éifeacht	-12.4108
domhain	-12.4109
réit	-12.4112
ló	-12.4115
reab	-12.4116
▁coimeádá	-12.4116
adaigh	-12.4119
ock	-12.4119
▁LOC	-12.4121
átha	-12.4121
Sraith	-12.4122
▁fhian	-12.4123
▁marcaíocht	-12.4126
▁Eng	-12.4127
▁creatha	-12.4131
ady	-12.4132
▁shoiléiri	-12.4132
▁charbó	-12.4136
▁tacaí	-12.4136
▁Breithiún	-12.4137
▁corda	-12.4141
fás	-12.4141
athchomharc	-12.4141
achomharcó	-12.4144
level	-12.4146
▁Scaoil	-12.4147
itting	-12.4149
maighnéadach	-12.415
▁phíolóta	-12.4156
▁leathranna	-12.4157
baránta	-12.4157
Cáilíochta	-12.4158
chun	-12.4161
▁hum	-12.4165
▁whiten	-12.417
▁loga	-12.4172
▁Stiúrth	-12.4175
▁easaonta	-12.4178
▁Ráthaíochta	-12.4179
▁Ríomhpho	-12.4181
▁dhomhand	-12.4185
▁eascró	-12.4188
▁sconna	-12.4188
▁word	-12.4191
oirthear	-12.4191
▁cuntasóir	-12.4192
▁bhfost	-12.4193
tioncha	-12.4193
▁chonarthach	-12.4193
▁flower	-12.4193
▁bhreithe	-12.4195
▁Vo	-12.4196
▁Fill	-12.4198
▁Confe	-12.4199
óis	-12.4203
▁bhfág	-12.4204
Ean	-12.4208
ttle	-12.421
▁Bainist	-12.4211
sed	-12.4216
▁Bou	-12.4219
SD	-12.4223
▁bhféachfa	-12.4223
▁Jan	-12.423
AGAN	-12.4231
astaíochta	-12.4234
▁chloi	-12.4239
▁Brea	-12.4242
tepe	-12.4242
▁samplá	-12.4243
afari	-12.4243
hreasa	-12.4247
▁gcreid	-12.4249
▁ullmhaío	-12.425
▁séana	-12.4256
▁féadfid	-12.4256
▁díolaíocht	-12.4258
▁chomhfhreagrach	-12.4262
▁sheolta	-12.4265
EACH	-12.4265
▁uaire	-12.4265
▁aigé	-12.4267
▁ceadúnú	-12.4267
▁Mear	-12.4269
▁armchúirte	-12.4269
hiad	-12.4271
aidéal	-12.4271
FT	-12.4272
▁gclárófa	-12.4274
▁Camb	-12.4276
▁luaíocht	-12.4276
ening	-12.4276
▁pland	-12.4277
ELECT	-12.4283
81	-12.4284
▁chún	-12.4286
shínithe	-12.4287
▁cionúireachta	-12.4289
MB	-12.429
rack	-12.429
▁nóim	-12.4294
▁bhuntáist	-12.4295
ainimh	-12.4297
▁ve	-12.4299
▁Eastá	-12.43
▁foth	-12.4307
ches	-12.4307
▁dtuairisc	-12.431
▁Chon	-12.4314
▁Luas	-12.4314
ilíní	-12.4317
▁DI	-12.4317
▁GHL	-12.4323
▁worm	-12.4325
inniúlachta	-12.4328
▁chigireacht	-12.4328
eáil	-12.433
▁ainmní	-12.433
VII	-12.4334
▁taibh	-12.4334
▁Kara	-12.4334
reaca	-12.4334
▁cheannaitheoir	-12.4335
gging	-12.4337
to	-12.434
▁chraola	-12.4348
TD	-12.435
▁alára	-12.4351
fhoirm	-12.4355
▁Cheadúna	-12.4357
▁Scrúda	-12.4357
▁deora	-12.4362
pst	-12.4362
▁Fíorú	-12.4363
red	-12.4369
▁forc	-12.4372
▁thuill	-12.4374
▁Band	-12.4383
▁bpáip	-12.4392
▁tri	-12.4392
▁coinbhleachta	-12.4393
▁game	-12.4395
olais	-12.4395
100	-12.4396
ordachá	-12.4399
scaradh	-12.4401
▁buna	-12.4405
-22	-12.441
▁dílsiú	-12.441
cheanna	-12.4415
saoire	-12.4428
ks	-12.4437
nc	-12.444
▁this	-12.4442
▁Ether	-12.4442
ries	-12.4445
▁comhbhearta	-12.4447
Cheann	-12.4447
▁géarchéim	-12.445
▁Séala	-12.4453
▁Acmhainn	-12.4454
▁Bhreithi	-12.4458
▁tuairisce	-12.4462
▁Athchóir	-12.4464
aim	-12.4464
▁toghlach	-12.4465
▁cúltacair	-12.447
▁caithfea	-12.4477
▁ndearbh	-12.4478
GN	-12.4481
aca	-12.4483
rom	-12.4486
▁imirceach	-12.449
▁Chathaoirl	-12.449
▁láimhseála	-12.4493
▁Ama	-12.4494
▁Sep	-12.4496
▁BA	-12.4497
▁deise	-12.4497
inger	-12.4502
q	-12.4502
▁cúige	-12.4503
▁bunriachtana	-12.4506
▁foilsitheoir	-12.4509
ev	-12.4512
▁Sho	-12.4512
eorach	-12.4512
▁naíon	-12.4513
▁Rúi	-12.4515
▁toch	-12.4516
mhdhéanta	-12.4518
rógra	-12.4518
▁Conair	-12.4525
▁bhúi	-12.4526
ESS	-12.4528
▁ciontaithe	-12.4529
▁maighnéad	-12.453
▁míréasún	-12.453
tones	-12.453
▁ionadú	-12.4532
▁Feidhmeannacht	-12.4534
▁tua	-12.4535
▁grianghrafadóir	-12.4537
▁athchúrsáil	-12.4537
▁Salm	-12.4538
▁cuimilte	-12.454
▁cóiriú	-12.4541
kes	-12.4543
▁dtoghchá	-12.4544
GL	-12.4545
ting	-12.4548
▁gheibhea	-12.4549
▁rialaitheo	-12.4549
▁phr	-12.455
lár	-12.4554
Phins	-12.4555
▁Ullmha	-12.4559
▁coinbhleacht	-12.456
▁Sain	-12.4563
▁Defen	-12.4565
▁oscail	-12.4574
▁Mail	-12.4575
tróc	-12.4575
▁Bhu	-12.4576
▁statach	-12.4579
▁lít	-12.458
▁Bunscoile	-12.458
▁cairéa	-12.4582
raigh	-12.4583
▁briath	-12.4586
▁gcúl	-12.4587
▁Industr	-12.4587
▁castacht	-12.4588
▁sulf	-12.4589
▁aeriompróir	-12.4591
▁caoir	-12.4592
▁bhailiúchá	-12.4598
▁offici	-12.4601
SR	-12.4604
ano	-12.4604
ory	-12.4605
vy	-12.4608
▁hoiliú	-12.461
oimhneacht	-12.4614
ctive	-12.4614
▁sáraío	-12.4616
EAL	-12.4617
▁CÚ	-12.4618
▁FO	-12.4619
▁tarraic	-12.4621
ik	-12.4622
GD	-12.4626
▁dearc	-12.4626
▁leaca	-12.4629
▁dhoch	-12.4631
▁Úsáide	-12.4633
uro	-12.4637
end	-12.4641
▁dhíolúin	-12.4641
▁Feic	-12.4643
▁gcoir	-12.4652
▁291	-12.4654
mes	-12.4655
▁208	-12.4658
▁tosnu	-12.4659
▁Gearrtha	-12.4666
▁deighilte	-12.4667
cail	-12.4669
rúis	-12.4674
RIU	-12.4674
heimiceach	-12.4676
▁Kat	-12.4681
icne	-12.4682
▁sealbhaire	-12.4684
ento	-12.4685
▁Fua	-12.4686
order	-12.469
ettle	-12.4692
NNA	-12.4693
▁Saoránach	-12.4693
▁ardaithe	-12.4695
▁COMH	-12.4695
▁Socrú	-12.4697
▁Bat	-12.4697
▁cnámh	-12.4698
▁coigisti	-12.4705
▁Dre	-12.4709
▁folaithe	-12.471
▁ghort	-12.4717
▁aib	-12.4723
▁Ceanncheathrú	-12.4727
móin	-12.4731
▁leachtacht	-12.4734
▁175	-12.4735
óideach	-12.4735
▁mheáchan	-12.4738
▁ghiorr	-12.4738
INNE	-12.4741
lay	-12.4742
▁ATH	-12.4742
▁Pen	-12.4746
▁Ju	-12.4747
▁amui	-12.4749
▁TM	-12.475
eidhmiúlacht	-12.4751
▁vit	-12.4751
oire	-12.4752
▁Dec	-12.4752
aria	-12.4759
▁Ráthaíocht	-12.4762
oirceannadh	-12.4763
▁marcáil	-12.4767
▁Mhan	-12.4786
▁chruithneacht	-12.4788
comm	-12.4792
una	-12.4792
uiscint	-12.4797
▁Déanf	-12.4797
▁chloiste	-12.4803
▁fundúireacht	-12.4805
▁comharthaíocht	-12.4808
▁Eu	-12.4811
▁forcoimeád	-12.4811
úine	-12.4812
▁iascair	-12.4815
▁Kon	-12.4817
▁thairge	-12.4818
íochaine	-12.4821
▁Thr	-12.4823
▁shealada	-12.483
TAIS	-12.4831
▁aontaío	-12.4832
▁thras	-12.4834
UME	-12.4835
▁Intern	-12.4835
caim	-12.4835
els	-12.4838
geal	-12.484
▁mhorgáist	-12.4844
▁nead	-12.4845
hip	-12.4848
▁leithdháilt	-12.4848
airc	-12.4849
▁white	-12.4855
▁Corp	-12.4861
ven	-12.4861
▁Áite	-12.4864
▁guail	-12.4865
▁Insta	-12.4866
▁líonr	-12.4867
▁gceadú	-12.487
sty	-12.4874
sheirbhís	-12.4874
atek	-12.4877
▁mbá	-12.4878
▁Press	-12.488
▁datha	-12.4882
icer	-12.4884
onia	-12.4887
oiliú	-12.4887
uastréimhs	-12.4889
éadaí	-12.489
nraí	-12.4892
▁Cat	-12.4892
▁dtabh	-12.49
▁Aistr	-12.4903
uil	-12.4904
▁ardcháil	-12.4908
▁gcló	-12.491
▁chobhsaí	-12.4912
CO	-12.4913
▁chomhbheartai	-12.4913
▁Taisc	-12.4915
sex	-12.4915
▁daonlatha	-12.4915
▁bod	-12.4917
liant	-12.4924
▁243	-12.4926
ement	-12.4928
▁tang	-12.493
nell	-12.4931
darás	-12.4932
ltacht	-12.4934
▁cún	-12.4938
▁Leathana	-12.4939
▁Infheistíocht	-12.4939
▁díograis	-12.4941
▁RS	-12.4943
umar	-12.4943
▁Chreidmheasa	-12.4949
▁Abair	-12.4952
▁maoirs	-12.4956
▁earnála	-12.4965
itheann	-12.4966
olone	-12.4967
32	-12.4969
▁Méide	-12.4971
▁andro	-12.4972
▁Tairge	-12.4974
▁Consumer	-12.4978
▁neamhfheidhmiú	-12.4982
▁Bit	-12.4983
cin	-12.4987
▁comharsanacht	-12.4987
RA	-12.4989
▁Spái	-12.4992
nrochtaineacht	-12.4995
raft	-12.4996
▁uirbeacha	-12.4997
charge	-12.5001
▁ionchas	-12.5007
▁122	-12.5007
▁vein	-12.5008
▁úiné	-12.5009
der	-12.501
▁Iom	-12.502
▁Glob	-12.5023
▁scrúd	-12.5023
HF	-12.5026
tionscal	-12.5027
▁Wi	-12.5029
▁gceap	-12.503
▁coimircí	-12.5033
chumhachta	-12.5034
▁TA	-12.5038
▁Urrú	-12.5039
▁buama	-12.5041
▁dÃ	-12.5043
sive	-12.5043
▁neamhfh	-12.5043
feast	-12.5045
▁Téa	-12.5047
▁dhíobháil	-12.5047
▁dhligh	-12.5051
tes	-12.5051
▁shealbhaíocht	-12.5053
▁tionscnó	-12.506
▁cuimsithe	-12.5061
▁scoilbhlia	-12.5063
▁Chl	-12.5064
onnta	-12.5065
▁Riaghalta	-12.5066
▁Uirb	-12.5069
▁Comhdhála	-12.5073
▁cearn	-12.5073
for	-12.5075
▁fheabhs	-12.5075
▁chomhfhreagra	-12.5077
▁drug	-12.5079
bhaint	-12.5079
▁claochl	-12.508
▁druil	-12.508
aithin	-12.5081
▁hÉ	-12.5083
ongress	-12.5084
íseach	-12.5086
▁éiginnte	-12.509
atamaitic	-12.509
ample	-12.5092
éintéireacht	-12.5092
ompu	-12.5093
eople	-12.5096
▁éagothro	-12.5096
▁Imlit	-12.5097
▁muint	-12.5098
GHLA	-12.5099
bhialta	-12.51
▁CEAD	-12.51
▁heictilít	-12.51
▁AIRTEAGA	-12.51
▁Seimineá	-12.51
▁héileacapta	-12.51
theileafó	-12.51
▁Administrati	-12.51
▁Bhrabú	-12.51
▁CHLÁR	-12.51
▁Erotic	-12.51
▁Innéacs	-12.51
▁Loighistic	-12.51
▁SHEALADA	-12.51
▁Toirmisc	-12.51
▁bpeaca	-12.51
▁briogáid	-12.51
▁brunette	-12.51
▁gcumarsáid	-12.51
▁hIonstraim	-12.51
▁http	-12.51
▁menstrua	-12.51
▁nGrúpa	-12.51
▁reáchtálfa	-12.51
Choibhneas	-12.51
ognaíoch	-12.51
▁Special	-12.51
▁TPPU	-12.51
▁fabhraithe	-12.51
▁hoverboard	-12.51
▁phatrú	-12.51
BUNREACHT	-12.51
▁BHAILE	-12.51
▁coicís	-12.51
▁nGnáth	-12.51
▁virgin	-12.51
TOGRA	-12.51
▁Lipéad	-12.51
▁Culture	-12.51
▁Seacláid	-12.51
ITHRE	-12.51
metaboli	-12.51
▁créatú	-12.51
▁dhifriú	-12.51
▁loighistic	-12.51
▁what	-12.51
▁compáirt	-12.51
▁comórfa	-12.51
▁Chaisleá	-12.51
▁recover	-12.51
Jiang	-12.51
▁tacsa	-12.51
▁díbhordá	-12.51
▁PHOB	-12.51
▁breast	-12.51
▁leochaileach	-12.51
▁waist	-12.51
▁civil	-12.51
▁cileagra	-12.51
▁Hidreaclóirí	-12.51
▁Máistir	-12.51
▁Common	-12.51
▁Seandálaíocht	-12.5101
▁chnuas	-12.5101
▁vagina	-12.5101
▁deighleog	-12.5101
▁Riosca	-12.5101
▁Tattoo	-12.5101
▁scátá	-12.5101
▁COIM	-12.5101
▁réalaíoch	-12.5101
▁fiseolaíoch	-12.5101
réamhtheachta	-12.5101
▁Gluaisteá	-12.5101
▁Easpórtá	-12.5101
▁blister	-12.5101
transport	-12.5101
▁thithíocht	-12.5101
▁Association	-12.5101
▁gnáthchomhalta	-12.5101
▁smile	-12.5101
▁Gheará	-12.5101
▁próca	-12.5101
▁OÉ	-12.5101
▁cleamhna	-12.5101
▁Eagrá	-12.5101
▁Thurasóireacht	-12.5101
▁Maireachtá	-12.5101
▁ghoid	-12.5102
Ãodará	-12.5102
▁Oirdheisc	-12.5102
damba	-12.5102
▁ullamhóid	-12.5102
▁peitil	-12.5102
▁méarlorg	-12.5102
▁phioc	-12.5102
▁approx	-12.5102
▁Síceolaíocht	-12.5102
▁Scaip	-12.5102
▁image	-12.5102
▁Tíolac	-12.5103
▁dhaingneo	-12.5103
▁teicstíl	-12.5103
▁Crystal	-12.5103
▁foréigneach	-12.5103
▁dtabhó	-12.5103
▁foirnéis	-12.5103
shliocht	-12.5103
▁Propert	-12.5103
▁gcrann	-12.5103
▁shéana	-12.5103
▁pasfhoca	-12.5104
▁gríos	-12.5104
▁ngléasra	-12.5104
▁Neamhspleách	-12.5104
▁Buíoch	-12.5104
▁míchruinn	-12.5104
▁bhFear	-12.5104
▁bhaol	-12.5104
▁tOll	-12.5104
▁delicious	-12.5104
▁dividend	-12.5104
▁iltaobha	-12.5105
▁Cúnta	-12.5105
▁Pasfhoca	-12.5105
fhaibhreo	-12.5105
bout	-12.5105
▁ndlúthchomhar	-12.5105
ostero	-12.5105
▁swing	-12.5105
fhriotaíocht	-12.5106
▁Caomhnóir	-12.5106
▁mhias	-12.5106
CLE	-12.5106
▁Aithin	-12.5106
▁spic	-12.5106
▁pioc	-12.5106
▁bhreoiteacht	-12.5106
▁contrapháirt	-12.5107
▁Ceadó	-12.5107
▁caomhanta	-12.5107
▁Geall	-12.5107
▁ghaoth	-12.5107
▁sroichea	-12.5107
▁póraithe	-12.5107
▁ndréacht	-12.5107
▁Calaois	-12.5107
bhochtaineacht	-12.5107
▁CEIST	-12.5108
leathan	-12.5108
▁coirce	-12.5108
▁Good	-12.5108
▁Cúraim	-12.5108
▁Silk	-12.5109
▁Prio	-12.5109
▁comhbhrúiteoir	-12.5109
▁cearr	-12.5109
▁chlaochladá	-12.5109
▁taosrá	-12.5109
▁Bronna	-12.511
▁848	-12.511
▁Fíon	-12.5111
▁mórchóir	-12.5111
▁Angla	-12.5111
▁sclábha	-12.5111
▁216	-12.5111
▁Saka	-12.5111
▁discuss	-12.5112
▁Leanbh	-12.5112
▁Excel	-12.5112
▁imeasc	-12.5112
▁chruthó	-12.5112
▁litiam	-12.5113
▁bhíoma	-12.5113
▁chríochnó	-12.5114
▁Force	-12.5114
[...]
