<unk>	0
<s>	0
</s>	0
▁	-2.31451
▁a	-3.54475
,	-3.61473
▁an	-3.69106
▁.	-3.92223
▁agus	-4.20059
í	-4.3837
▁ar	-4.38444
s	-4.44199
r	-4.48807
▁na	-4.49996
)	-4.5295
(	-4.53169
▁i	-4.64196
e	-4.68434
a	-4.68843
▁le	-4.72224
-	-4.73669
dh	-4.74506
n	-4.77424
▁nó	-4.99461
▁go	-5.05851
▁d	-5.28743
▁sin	-5.29235
▁de	-5.30915
▁do	-5.3437
ú	-5.36973
▁ag	-5.37933
il	-5.41228
idh	-5.4321
▁seo	-5.46884
in	-5.48942
is	-5.5586
▁chun	-5.62063
t	-5.62636
▁leis	-5.64958
ir	-5.65019
ithe	-5.72069
'	-5.75995
▁t	-5.79863
▁aon	-5.80653
▁in	-5.81814
▁den	-5.8241
:	-5.83108
▁é	-5.85213
▁is	-5.8697
▁sé	-5.89245
▁faoi	-5.92877
▁sa	-5.9636
▁c	-5.96875
ch	-6.07033
▁mar	-6.07115
l	-6.08167
▁bhfuil	-6.08808
igh	-6.11517
▁1	-6.12062
;	-6.1531
▁atá	-6.17111
d	-6.20472
▁b	-6.22994
▁ina	-6.23089
anna	-6.27653
"	-6.35007
nn	-6.35087
▁eile	-6.36084
▁san	-6.3681
▁ó	-6.37343
▁bheith	-6.3761
▁chur	-6.38529
▁duine	-6.38722
▁2	-6.4042
▁C	-6.42294
ach	-6.42912
ar	-6.43065
▁dá	-6.46071
▁alt	-6.46923
tear	-6.47275
▁dhéanamh	-6.47589
▁maidi	-6.47753
la	-6.49664
▁don	-6.50566
—	-6.53143
▁Tá	-6.53784
h	-6.55682
▁An	-6.58278
▁réir	-6.59097
▁h	-6.60966
▁bhei	-6.62099
▁ná	-6.63925
▁nach	-6.64705
ta	-6.64911
▁I	-6.66744
▁n	-6.67666
▁lena	-6.68007
▁Is	-6.68348
▁A	-6.69633
gach	-6.69727
alt	-6.70125
▁tá	-6.72065
▁féid	-6.72904
▁Acht	-6.73025
▁3	-6.74347
eanna	-6.75667
/	-6.76327
mh	-6.77872
▁nío	-6.82172
tha	-6.86661
adh	-6.868
▁D	-6.87416
iú	-6.87517
▁no	-6.87752
▁ní	-6.89759
cha	-6.90335
m	-6.90745
▁gcás	-6.91487
íonn	-6.94663
as	-6.95732
ra	-6.96433
▁mó	-6.96961
▁S	-6.97867
▁trí	-6.99453
ítear	-7.00314
▁faoin	-7.0179
”	-7.02155
▁B	-7.02219
im	-7.02849
aithe	-7.02883
▁tú	-7.03135
▁éis	-7.03356
▁iad	-7.0449
▁haghaidh	-7.0535
it	-7.06112
▁gur	-7.0638
▁leith	-7.06476
“	-7.07574
▁4	-7.0847
▁ón	-7.09699
▁ach	-7.10759
▁chuid	-7.11128
p	-7.12385
▁5	-7.14932
▁thabhair	-7.1496
▁amháin	-7.15485
aí	-7.15617
▁L	-7.16548
▁so	-7.1691
aoine	-7.17255
▁úsáid	-7.17801
▁lá	-7.1795
▁mbei	-7.18021
▁19	-7.18178
▁T	-7.18317
▁roimh	-7.18665
▁bei	-7.19661
c	-7.20022
y	-7.21648
▁G	-7.21924
▁f	-7.22619
▁tar	-7.23666
▁á	-7.24071
i	-7.24524
imh	-7.2484
isteach	-7.25721
▁Ní	-7.2585
▁as	-7.25967
▁um	-7.26776
▁méid	-7.26871
▁gan	-7.27153
ó	-7.27285
g	-7.28148
]	-7.28262
id	-7.28271
[	-7.28658
▁amach	-7.29388
▁siad	-7.29597
▁P	-7.32074
te	-7.32202
▁chuig	-7.32723
far	-7.33803
▁chomh	-7.3589
f	-7.3633
▁g	-7.3645
▁F	-7.36488
acha	-7.37493
▁má	-7.3814
’	-7.38444
▁fáil	-7.38466
▁rud	-7.38608
▁fho	-7.39667
▁leana	-7.39795
ann	-7.40292
arna	-7.4146
▁M	-7.42309
▁nua	-7.42941
▁Airteagal	-7.43426
▁féin	-7.44341
uithe	-7.44639
▁tréimhse	-7.45005
o	-7.45112
▁acu	-7.45351
áil	-7.45614
u	-7.46247
eamh	-7.47121
eann	-7.47869
▁Rialachá	-7.48241
▁féadfa	-7.48371
▁ann	-7.49028
b	-7.4922
▁gá	-7.49664
án	-7.50795
▁tAir	-7.50989
▁p	-7.51508
▁saor	-7.51715
▁Má	-7.5217
ing	-7.52445
▁6	-7.52682
▁idir	-7.53399
▁bhí	-7.54921
▁E	-7.55687
▁maith	-7.57191
Acht	-7.57559
▁Ar	-7.57805
▁Aire	-7.58156
bh	-7.58179
▁R	-7.59372
▁mór	-7.59668
al	-7.59898
cháin	-7.61559
aigh	-7.61743
le	-7.62484
ic	-7.6278
▁sna	-7.63272
▁ceann	-7.63407
▁EN	-7.6342
▁Féadfa	-7.63565
ad	-7.63812
▁bh	-7.64041
ibé	-7.64217
▁fháil	-7.64551
▁bhainean	-7.6494
the	-7.65072
na	-7.6524
?	-7.66643
&	-7.66933
▁sonraí	-7.6696
on	-7.67762
▁fo	-7.6789
▁áit	-7.68492
▁déanfa	-7.68783
▁aige	-7.69078
▁linn	-7.69508
aisce	-7.69726
A	-7.69955
▁dtí	-7.70081
raibh	-7.70996
▁leat	-7.71143
▁bhfeidhm	-7.71188
▁bhfo	-7.72838
▁más	-7.73375
▁aghaidh	-7.73592
aon	-7.74703
each	-7.76111
k	-7.76426
fear	-7.77258
▁7	-7.77635
▁ba	-7.789
int	-7.79194
▁Uimh	-7.79529
ol	-7.80043
nuair	-7.8098
▁áirithe	-7.81124
tar	-7.81541
▁dul	-7.81657
▁íoc	-7.83236
▁dáta	-7.83293
▁Le	-7.83548
áin	-7.83612
▁porn	-7.83697
▁freisi	-7.83903
▁bhliain	-7.85175
▁sí	-7.85464
▁líne	-7.85607
▁cur	-7.85777
▁Bei	-7.85809
▁dó	-7.85816
▁seirbhís	-7.86342
▁ch	-7.86773
th	-7.86998
am	-7.87079
▁fé	-7.87648
▁ndáil	-7.87913
▁mé	-7.87968
▁ciallaíon	-7.88066
á	-7.8858
I	-7.88678
▁8	-7.89345
▁ordú	-7.89349
▁chéad	-7.8935
er	-7.8957
▁ionad	-7.89625
▁10	-7.90022
▁m	-7.90327
íodh	-7.90876
▁mbainea	-7.91828
▁léir	-7.92164
▁mír	-7.92229
▁imeachta	-7.92567
▁amhlaid	-7.92605
▁dtagraí	-7.93418
▁Ch	-7.93423
▁iomchu	-7.9367
ion	-7.9407
ála	-7.94179
▁fearr	-7.9453
▁tráth	-7.94584
▁iomlán	-7.96344
or	-7.96365
▁uair	-7.96531
eas	-7.96777
▁críocha	-7.96809
▁neamh	-7.97107
▁bliana	-7.9764
▁sórt	-7.97673
ig	-7.97916
▁feidhm	-7.98003
áir	-7.98445
▁air	-7.98533
▁údarás	-7.98833
▁bearta	-7.99255
▁deimhnithe	-7.99274
▁feidhme	-7.99521
eadh	-8.00214
▁cheart	-8.00272
▁bith	-8.003
▁fógra	-8.00616
▁Ballstá	-8.0062
▁Ba	-8.00748
▁cheann	-8.0142
L	-8.02075
ed	-8.0242
▁th	-8.02561
▁bhaint	-8.02572
▁hEorpa	-8.03233
▁gc	-8.03459
▁stiúir	-8.03512
ca	-8.03651
▁cuideachta	-8.03709
▁roinnt	-8.03718
▁Eorpach	-8.03992
▁thar	-8.04278
acht	-8.04309
▁dt	-8.04675
inneadh	-8.05106
▁gcomhréi	-8.05782
▁Mar	-8.06185
▁laist	-8.06788
▁ndéanfa	-8.07795
niú	-8.08133
▁O	-8.08517
▁Aontais	-8.09745
▁comh	-8.10059
▁díreach	-8.10336
▁am	-8.10691
ais	-8.10699
▁dlí	-8.10913
▁éifeacht	-8.11147
▁Cuntas	-8.11812
▁duit	-8.12126
▁ábhar	-8.12146
▁leo	-8.12249
B	-8.12294
▁sh	-8.12692
▁feadh	-8.12824
▁haon	-8.13055
▁0	-8.13268
▁forála	-8.133
gh	-8.14168
láthair	-8.14446
▁Coimisiún	-8.14898
▁bhun	-8.14903
▁Déanfa	-8.14993
▁ár	-8.1504
eacha	-8.15118
▁síos	-8.15156
é	-8.15199
@	-8.15526
▁9	-8.15783
eideal	-8.16303
um	-8.1643
▁mo	-8.16458
▁dhéanfa	-8.16672
an	-8.16775
ite	-8.17916
▁dhá	-8.18009
▁mbea	-8.18406
▁iarratas	-8.18593
▁chéile	-8.18786
▁rialachá	-8.18969
ear	-8.19685
▁H	-8.19959
▁Chun	-8.20056
3	-8.21399
▁AE	-8.21566
▁12	-8.22281
▁Sa	-8.22339
▁cinn	-8.22577
▁cuid	-8.22817
▁for	-8.22885
▁mhéid	-8.23024
▁luach	-8.23067
▁Agus	-8.2358
▁Stát	-8.23906
fa	-8.24325
▁18	-8.24765
▁leor	-8.25213
▁áitiú	-8.25542
▁Aonta	-8.26244
▁gníomh	-8.26465
▁mhí	-8.26483
artha	-8.26656
▁suas	-8.27313
ip	-8.27323
▁CE	-8.277
faidh	-8.28454
▁déanta	-8.28849
obair	-8.2944
▁beag	-8.3047
▁mura	-8.31054
▁Ard	-8.31062
▁éagsúla	-8.31098
!	-8.31191
▁Achta	-8.31493
▁gt	-8.31589
eacht	-8.31667
▁In	-8.31989
▁gComhairle	-8.3249
ac	-8.32699
ur	-8.32761
▁dtaobh	-8.32867
▁fén	-8.3292
E	-8.32943
▁mhír	-8.32994
▁gheall	-8.3305
–	-8.33052
if	-8.33313
▁chóir	-8.336
aíonn	-8.33965
▁seacha	-8.3402
▁V	-8.34356
▁céanna	-8.34674
▁Airgeada	-8.34775
▁comhalta	-8.34953
▁ghlacadh	-8.34978
▁bhrí	-8.34979
ill	-8.35202
▁ard	-8.35207
▁De	-8.35285
▁áireamh	-8.35474
os	-8.35825
R	-8.35909
▁Nua	-8.36247
▁teacht	-8.36842
achta	-8.37005
▁mí	-8.37391
S	-8.3779
▁15	-8.37944
▁coinníollach	-8.37994
▁rá	-8.38057
▁ceart	-8.38077
▁dóibh	-8.38083
cht	-8.38176
íochta	-8.38251
▁Seo	-8.38779
▁airgeadai	-8.38891
▁ailt	-8.38915
▁uisce	-8.38937
▁fh	-8.3918
▁pé	-8.39283
▁Faoi	-8.40418
▁Béarla	-8.40703
▁amp	-8.40825
O	-8.41523
▁cuí	-8.4178
▁Na	-8.42349
▁líon	-8.4261
z	-8.42611
iúil	-8.42822
2	-8.4294
▁iarrai	-8.43222
▁rialacha	-8.43568
▁oifig	-8.44043
úil	-8.44667
▁mb	-8.44909
▁Ceist	-8.45008
▁Fuaim	-8.45229
air	-8.45289
▁chuir	-8.4536
inn	-8.45457
▁fad	-8.45571
▁leas	-8.45641
▁déana	-8.45911
▁clár	-8.45945
D	-8.45997
ne	-8.46049
▁Ach	-8.46084
▁rith	-8.46713
eachta	-8.46854
G	-8.4698
imid	-8.47133
▁táirgí	-8.47146
▁AN	-8.47172
▁talamh	-8.47485
▁Tuillea	-8.47797
ce	-8.47951
ine	-8.48363
us	-8.48557
óir	-8.48627
st	-8.48754
▁ráta	-8.48773
▁airgead	-8.48806
w	-8.48808
▁bhíonn	-8.48949
▁scéim	-8.49128
▁tríd	-8.4935
▁Chomhairle	-8.49506
▁gh	-8.50084
N	-8.5027
▁di	-8.50494
Ã	-8.51338
▁Ag	-8.51344
▁cé	-8.5151
▁Coimisinéir	-8.51566
náisiúnta	-8.51656
▁suim	-8.51859
▁rinne	-8.52142
▁11	-8.5223
ia	-8.52446
T	-8.5279
ean	-8.53198
ist	-8.5323
▁dhéana	-8.53286
▁iníoc	-8.53472
▁Th	-8.53627
▁fu	-8.53762
▁baint	-8.54084
ath	-8.54314
íocht	-8.54445
▁ii	-8.5476
▁Sceideal	-8.54791
▁Bh	-8.54882
▁30	-8.55071
irt	-8.55214
▁chuideachta	-8.55671
%	-8.55955
▁háirith	-8.56277
eal	-8.56731
▁ainm	-8.56743
Airteagal	-8.56806
▁deara	-8.57056
▁tagairt	-8.57661
▁N	-8.57708
M	-8.5785
ith	-8.58389
C	-8.58481
ag	-8.589
▁Aon	-8.59095
▁táirge	-8.59211
all	-8.59671
orthu	-8.59819
ansin	-8.59962
▁náisiúnta	-8.60184
▁gcuid	-8.60241
lú	-8.60505
1	-8.60569
U	-8.6077
▁blia	-8.60782
▁Comhairle	-8.60792
▁uile	-8.61543
amh	-8.61713
▁fó	-8.6174
▁of	-8.61777
▁deimhniú	-8.61805
▁eolas	-8.61883
v	-8.62357
▁U	-8.62482
▁Pharlaimint	-8.62542
ois	-8.62825
F	-8.63039
ord	-8.63059
▁réims	-8.63069
ire	-8.63233
agtha	-8.63446
▁críche	-8.64093
▁cuirea	-8.64128
ul	-8.64395
▁W	-8.64518
▁Bord	-8.64695
fhéadfadh	-8.64697
▁leibhéal	-8.64779
íoc	-8.64789
▁bun	-8.64802
▁gréasá	-8.64838
▁leasú	-8.64849
áiríte	-8.6505
agat	-8.6529
slí	-8.65654
▁deirea	-8.66018
▁sholátha	-8.6609
ro	-8.66591
▁nd	-8.6692
▁monaróir	-8.67188
▁speisialta	-8.67196
▁tSín	-8.67249
▁Cé	-8.67569
▁ghabha	-8.68075
hloig	-8.68095
▁bunaithe	-8.68238
▁14	-8.68269
▁gnó	-8.68326
▁earra	-8.68484
▁20	-8.68728
íos	-8.68905
lach	-8.69228
▁cead	-8.69326
▁13	-8.69532
ófa	-8.69691
▁chomhalta	-8.69792
UID	-8.70236
▁páirt	-8.70339
▁bhféadfa	-8.7041
▁cánach	-8.70419
údarás	-8.70664
▁chomhlíona	-8.70962
▁oifigeach	-8.70972
▁mba	-8.71049
anseo	-8.71735
▁Stáit	-8.71789
▁thug	-8.719
othair	-8.71988
▁tras	-8.72037
▁Choimisiú	-8.72061
▁Chéad	-8.72084
▁ceadúna	-8.72105
▁scríbhinn	-8.72207
▁hiomlán	-8.72395
4	-8.7262
ireann	-8.73056
éachaint	-8.73195
▁Co	-8.73432
▁pearsanta	-8.73774
▁liosta	-8.73914
▁mian	-8.74006
▁ath	-8.74231
▁láithreá	-8.74617
▁16	-8.74941
ru	-8.7505
▁planda	-8.75162
▁Ionca	-8.75165
abhair	-8.75441
▁ceap	-8.75762
▁cion	-8.75888
▁Ó	-8.7592
▁Br	-8.75988
▁Fómhair	-8.76022
▁Eorpaigh	-8.76038
▁chás	-8.76055
▁gcéad	-8.76111
op	-8.76155
▁Roimh	-8.76336
ma	-8.76446
iúl	-8.77015
▁oibre	-8.77232
oirí	-8.77289
▁modh	-8.77457
P	-8.77528
▁athrú	-8.77636
▁fiú	-8.77704
▁foca	-8.77852
▁lú	-8.77876
▁faisnéis	-8.78159
▁HD	-8.78721
▁Go	-8.7893
sc	-8.79242
amhail	-8.79571
io	-8.79572
ib	-8.79616
ibh	-8.7964
▁téarma	-8.79712
▁oiriúnach	-8.79918
ge	-8.79968
▁rogha	-8.80147
▁taobh	-8.80199
▁ábhartha	-8.80363
▁suíomh	-8.8045
óirí	-8.80562
scríobh	-8.80846
▁os	-8.80914
▁sonra	-8.81001
anta	-8.81145
▁hAcht	-8.81282
▁chineál	-8.81425
▁Bhí	-8.81681
ll	-8.81699
▁The	-8.8182
huine	-8.81948
▁be	-8.82301
▁hÉireann	-8.82581
sórt	-8.82588
ladh	-8.82928
inearálta	-8.8318
▁ndia	-8.83319
▁000	-8.83783
▁muid	-8.83856
▁huaire	-8.83873
úsáid	-8.83886
▁poiblí	-8.84134
▁aistriú	-8.84261
ailt	-8.8433
onas	-8.84488
▁Cuir	-8.84576
oir	-8.84881
ghaidh	-8.84897
ordú	-8.84972
ba	-8.85066
▁Údará	-8.85108
oidh	-8.85157
▁fás	-8.85307
om	-8.8541
▁leasa	-8.85419
▁dar	-8.85495
nna	-8.85652
▁ndearna	-8.85712
fhonn	-8.85807
inne	-8.85838
▁bia	-8.86024
▁leagan	-8.86032
▁dháta	-8.86297
nach	-8.86319
lu	-8.86367
éanamh	-8.86395
cu	-8.86492
éir	-8.86735
▁co	-8.86736
▁údará	-8.86799
▁bhf	-8.86858
▁cluichí	-8.86992
▁2017	-8.86995
Ú	-8.87049
▁bhea	-8.87102
▁rialú	-8.87624
▁fhaisnéis	-8.87646
Á	-8.87679
▁comhlacht	-8.87702
aois	-8.87785
pa	-8.8791
▁2016	-8.8797
▁Treoir	-8.8797
▁dhíol	-8.88126
▁áirithi	-8.883
onair	-8.88336
▁bhua	-8.88357
chosaint	-8.8858
▁dochar	-8.88669
li	-8.88696
▁measfa	-8.88807
▁dhiai	-8.88807
▁seirbhíse	-8.88917
▁lagha	-8.88952
oisc	-8.88999
da	-8.89139
▁cad	-8.89238
▁17	-8.8992
▁gceist	-8.89933
▁nós	-8.90046
▁ghnáth	-8.90081
▁lán	-8.90635
▁cosúil	-8.90676
▁gcoinne	-8.90721
éal	-8.90724
▁Chúirt	-8.90865
fianaise	-8.91052
▁mhaith	-8.91194
▁gurb	-8.91254
▁gcónaí	-8.91645
ré	-8.91724
▁ríomh	-8.91924
▁gCoimisiú	-8.91943
▁toiliú	-8.92036
▁Sh	-8.92104
ian	-8.92105
fásta	-8.92288
úinn	-8.92493
▁2018	-8.92625
▁sheola	-8.92708
▁deir	-8.93081
▁ph	-8.93122
▁togra	-8.93379
▁cineál	-8.93388
▁II	-8.93406
▁Do	-8.93408
Í	-8.93463
▁Chuid	-8.93619
▁cuirf	-8.93622
▁Phríomh	-8.93649
▁cluiche	-8.93649
▁cúram	-8.9365
óra	-8.9375
▁gníomhaíochta	-8.93986
▁bhunú	-8.94045
x	-8.94121
▁cúis	-8.94377
▁bhonn	-8.94391
el	-8.94426
▁laghdú	-8.94747
▁cheana	-8.95068
▁Comh	-8.95712
▁Maidir	-8.95737
▁Roinn	-8.95905
▁físeáin	-8.95969
hráid	-8.95991
▁léi	-8.96296
▁NA	-8.9639
éil	-8.96393
▁trádála	-8.96423
▁Twitter	-8.96442
▁fíor	-8.96471
▁shin	-8.96514
▁25	-8.96647
▁íocaíocht	-8.96674
▁tosa	-8.96737
▁sláinte	-8.9681
▁cás	-8.96848
de	-8.96856
▁24	-8.96886
▁cuir	-8.9697
▁measc	-8.97057
ga	-8.97153
rá	-8.97272
▁chinneadh	-8.97312
isc	-8.97922
eofa	-8.98042
ard	-8.98139
IN	-8.98221
▁gcomhairle	-8.98613
lann	-8.98657
▁Níl	-8.99158
▁u	-8.99262
fh	-8.99406
▁glaca	-8.99462
▁San	-8.99486
▁reatha	-8.9969
▁dara	-8.99732
▁Dh	-8.99794
▁Leasú	-8.99825
ers	-9.00096
▁limistéar	-9.0011
ainneoi	-9.00123
▁curtha	-9.00376
▁cúig	-9.00429
▁aird	-9.00695
▁gC	-9.00699
ide	-9.00747
▁Cad	-9.0077
▁tuga	-9.00825
▁Be	-9.00841
▁chaighdeán	-9.00963
▁cho	-9.01039
▁Gaeilge	-9.01163
▁Nolla	-9.01166
ent	-9.01365
ice	-9.01422
asc	-9.01868
▁ceangla	-9.01898
▁2013	-9.01902
▁ráite	-9.0201
▁gcion	-9.02948
ileamh	-9.02962
sp	-9.03142
▁Oifig	-9.033
▁comhaont	-9.03321
▁lua	-9.03335
▁ma	-9.03381
▁Náisiúnta	-9.03432
▁tuarascá	-9.03442
onn	-9.03485
▁cláraithe	-9.03615
rac	-9.03621
éar	-9.03679
▁Re	-9.0372
▁chéanna	-9.03795
▁ama	-9.03992
uas	-9.03993
athair	-9.04099
nar	-9.04333
▁áitreabh	-9.04345
▁liom	-9.04568
▁nár	-9.04794
▁st	-9.04879
▁Leasa	-9.05044
óga	-9.05056
▁Chomh	-9.05094
oll	-9.05259
▁leathan	-9.05481
aíochta	-9.05532
▁bláth	-9.05708
▁Dé	-9.05817
▁cheapa	-9.05825
nithe	-9.05849
▁faoina	-9.06114
▁Tar	-9.06145
GUS	-9.06171
mhar	-9.06492
▁shonraí	-9.06569
rochtain	-9.06709
▁láithreach	-9.06788
▁príomh	-9.0697
▁cabhr	-9.07023
che	-9.07062
▁choimeád	-9.07254
▁dtugta	-9.07274
aíocht	-9.07306
▁Mo	-9.07459
▁feidhmiú	-9.07673
▁chiont	-9.07793
▁comhair	-9.0801
▁sc	-9.08034
▁siúl	-9.08036
▁K	-9.0807
▁2012	-9.08071
▁Léim	-9.08107
lá	-9.08258
oil	-9.08463
▁costais	-9.08467
▁fola	-9.08491
▁thora	-9.08558
co	-9.08615
▁caighdeán	-9.08646
▁21	-9.08673
▁Ph	-9.08688
ly	-9.08747
▁measún	-9.08812
▁fhorbairt	-9.08869
▁thaobh	-9.08872
▁breise	-9.08937
▁Cluich	-9.09266
▁31	-9.09467
he	-9.09538
H	-9.09565
▁2014	-9.09674
eoir	-9.09692
chán	-9.10025
▁100	-9.10376
irgid	-9.10392
▁fhógra	-9.1048
▁doiciméad	-9.1048
▁Cl	-9.1049
8	-9.10646
▁íocaíochta	-9.10709
íortha	-9.10786
▁shampla	-9.10888
▁soláthar	-9.11298
▁córas	-9.11381
rea	-9.1183
▁againn	-9.11894
▁For	-9.11945
▁faisnéise	-9.11987
▁tuairim	-9.12123
▁2009	-9.1213
▁leanbh	-9.12152
▁údara	-9.12359
éad	-9.12368
V	-9.12379
ri	-9.12466
▁Act	-9.12466
▁céim	-9.12502
▁w	-9.12512
íoslódáil	-9.12538
ab	-9.12902
▁shl	-9.12943
▁scoth	-9.12965
▁Te	-9.12986
▁Baile	-9.13162
▁súil	-9.13199
chta	-9.13283
▁có	-9.13404
▁Uimhir	-9.1347
▁cruach	-9.13528
asta	-9.13964
▁dath	-9.13973
▁sásta	-9.14077
▁2019	-9.14221
▁Parlaimint	-9.14226
▁chlár	-9.14272
▁cearta	-9.14289
▁éigin	-9.14644
▁choinneáil	-9.14654
▁lae	-9.14675
▁tharla	-9.15067
20	-9.15172
▁cheannach	-9.15204
able	-9.15214
▁cóip	-9.15283
▁chlárú	-9.15366
▁breith	-9.15626
▁thosa	-9.15629
ation	-9.15668
▁su	-9.15695
▁2015	-9.15928
▁forbairt	-9.15973
▁tortha	-9.16069
insean	-9.16296
▁roghnú	-9.16352
▁riachtanach	-9.16364
ille	-9.16418
ompair	-9.16469
▁sula	-9.1652
K	-9.16909
▁kar	-9.17024
▁tu	-9.17292
od	-9.17324
▁leagt	-9.17504
▁saol	-9.17581
raí	-9.17714
▁freagrach	-9.17752
úirt	-9.17754
▁Ma	-9.17793
▁22	-9.17807
▁fhios	-9.17834
▁faid	-9.18071
hong	-9.18095
▁gabhá	-9.18097
▁seilbh	-9.18105
fho	-9.18513
▁mhonarcha	-9.1856
iméad	-9.18629
▁cosanta	-9.18632
▁téarmaí	-9.18748
▁ordu	-9.18819
▁cothrom	-9.18944
▁chumhacht	-9.19308
▁tacaíocht	-9.19407
▁chúis	-9.19489
▁tír	-9.19498
▁margadh	-9.19688
▁28	-9.19759
▁St	-9.19998
▁Gh	-9.20197
ACHT	-9.20273
▁leath	-9.20279
aire	-9.20314
▁ciontach	-9.20498
▁bliantú	-9.20567
▁tioncha	-9.20774
▁praghas	-9.20941
▁soilsi	-9.20941
▁bp	-9.21125
▁airde	-9.21139
ve	-9.21286
▁re	-9.21299
ras	-9.213
▁cheangal	-9.21331
mirt	-9.21457
▁siú	-9.21662
▁tabharfa	-9.21695
▁26	-9.21718
▁stiúrthóir	-9.21734
haoine	-9.21881
▁Idir	-9.21913
▁ngníomh	-9.22059
▁díol	-9.22119
▁talún	-9.22132
▁chruthú	-9.22141
▁Tr	-9.22336
▁damáist	-9.22595
▁tionscada	-9.22605
▁barr	-9.22609
▁comhairle	-9.22628
▁dheon	-9.22679
▁ioncam	-9.22979
▁Author	-9.23051
chlár	-9.23232
nniu	-9.23393
▁minic	-9.23482
▁grianghraf	-9.23543
▁Mh	-9.23694
▁ionann	-9.23731
▁ndéana	-9.23883
▁nádúrtha	-9.23921
▁Tweet	-9.23979
▁domhain	-9.23981
▁iarratais	-9.23984
▁iontach	-9.23984
▁húsáid	-9.24016
▁mhaoin	-9.24151
▁cuirfea	-9.24404
▁dhosmálta	-9.24455
leanúint	-9.24467
▁bhéal	-9.2452
och	-9.2466
ora	-9.24801
▁dhéanta	-9.25203
▁luaite	-9.25276
▁thaga	-9.25318
▁soiléir	-9.25391
▁luath	-9.25456
▁bheadh	-9.25471
▁grúpa	-9.25614
▁liúnta	-9.25792
▁Áitiú	-9.25834
▁abairt	-9.25862
▁2011	-9.25874
▁dóigh	-9.25933
▁scaire	-9.25984
▁aer	-9.26026
▁Dá	-9.262
uíonn	-9.26233
▁Corporat	-9.26301
ment	-9.26364
úla	-9.26393
óg	-9.26405
▁arb	-9.26632
▁úsáide	-9.26774
▁cinnte	-9.26932
ies	-9.26977
▁deis	-9.27076
▁hordú	-9.27086
▁Soláthra	-9.27297
▁chúirt	-9.27363
▁Coiste	-9.27397
▁Seirbhís	-9.27508
▁Fh	-9.27853
▁ionca	-9.2818
▁teorainn	-9.28276
▁Tag	-9.28443
istigh	-9.2846
▁feist	-9.28542
▁cuntais	-9.28753
▁riachtanais	-9.28903
▁Éireann	-9.29219
▁lasmuigh	-9.29247
▁riarachá	-9.29534
▁dtabharfa	-9.29737
▁lucht	-9.29831
▁ghairm	-9.29844
▁rún	-9.30152
▁cuspóir	-9.30231
▁feidhmeanna	-9.30386
▁cáin	-9.30481
iarratas	-9.30585
▁deimh	-9.30587
ram	-9.30839
▁dleacht	-9.3086
▁chinnt	-9.31202
oideachais	-9.31228
▁Cánach	-9.31237
▁iompar	-9.31279
▁rialta	-9.31287
ot	-9.31611
ph	-9.31752
▁mion	-9.3184
▁bharr	-9.31857
lacha	-9.31994
▁bhfoirm	-9.32238
▁gcrích	-9.3224
▁dtaca	-9.32252
land	-9.32322
▁gnótha	-9.32453
▁sócmhainn	-9.3247
to	-9.32525
▁Su	-9.32551
▁III	-9.32798
▁tháinig	-9.32817
and	-9.32834
▁mB	-9.33131
▁foirgn	-9.33254
▁treala	-9.33256
▁fhoráil	-9.33259
itheoir	-9.33297
ocht	-9.33317
▁Se	-9.33372
aid	-9.33429
▁achomharc	-9.33583
▁ndéanta	-9.33767
tú	-9.33772
ochta	-9.33828
ábhar	-9.33893
iv	-9.33926
▁gnáth	-9.3393
▁húdará	-9.33959
▁sonrach	-9.34027
▁Féach	-9.34328
▁cáilíochta	-9.34347
iom	-9.34381
▁sheirbhís	-9.34466
ial	-9.34504
ithre	-9.34522
▁se	-9.34738
▁mBallstá	-9.348
mhéadú	-9.34967
nta	-9.34972
▁siar	-9.34982
▁foirm	-9.34986
▁50	-9.35043
fe	-9.35088
▁taighde	-9.35125
▁ró	-9.35154
W	-9.35274
aici	-9.35291
▁mhalairt	-9.35321
▁gnéas	-9.35418
▁glan	-9.35647
IS	-9.35648
▁Bill	-9.35667
▁tabhairt	-9.35807
▁etc	-9.35848
▁DO	-9.36002
íoch	-9.36096
ate	-9.3617
▁cúna	-9.36195
▁uimhir	-9.36198
▁maoin	-9.36355
hoird	-9.36406
áit	-9.36433
▁fada	-9.36535
chtaí	-9.36673
▁sp	-9.36715
▁chó	-9.36726
▁infheidhme	-9.36861
▁Cona	-9.36877
▁Bhallstá	-9.36901
▁gcuideachta	-9.37023
▁éag	-9.37077
ity	-9.37105
inse	-9.37155
▁cumhacht	-9.37279
▁ionstraim	-9.37368
▁muirear	-9.37432
▁íseal	-9.37436
sanna	-9.3745
ás	-9.37526
laigh	-9.37587
oifigeach	-9.37615
▁réasúnach	-9.37802
▁halt	-9.37983
▁cruinn	-9.38056
▁23	-9.38279
▁soils	-9.38349
▁cosaint	-9.38505
▁pe	-9.38517
▁scrío	-9.38518
anas	-9.38532
▁plean	-9.38568
▁tré	-9.38674
▁fhéadfa	-9.3869
▁doiciméid	-9.38703
▁iasacht	-9.3888
▁Sp	-9.38966
▁nochta	-9.38976
áis	-9.39054
ow	-9.39094
▁comhlachta	-9.39099
▁scrúdú	-9.3935
onaid	-9.39363
▁láimh	-9.39523
▁fíneáil	-9.39588
▁Soils	-9.39594
▁páirtí	-9.39614
▁díobh	-9.39666
▁sár	-9.39821
▁tuillea	-9.39898
▁Porn	-9.4009
▁inar	-9.40167
▁córa	-9.40212
ola	-9.40302
ster	-9.40459
▁Cuirf	-9.40467
▁rialaithe	-9.40554
▁v	-9.40694
▁iarnró	-9.4076
▁Leictreon	-9.41237
▁fhorála	-9.4124
▁29	-9.4129
▁choinníoll	-9.41393
▁seach	-9.41435
▁me	-9.41504
▁Bain	-9.4157
lacht	-9.41651
▁Cliath	-9.41792
▁Product	-9.41792
▁dhó	-9.41854
▁chu	-9.41905
▁páirteach	-9.41924
▁gné	-9.41967
▁ola	-9.42025
hord	-9.42098
▁ghnó	-9.42121
▁tapa	-9.42207
un	-9.42276
▁Cuarda	-9.42355
ló	-9.42402
▁oibriú	-9.42467
▁seachtain	-9.4253
oth	-9.42702
ime	-9.42788
▁Rialtais	-9.42913
▁thabharfa	-9.42931
▁27	-9.42934
ob	-9.43001
▁fheidhmiú	-9.43044
▁réamh	-9.43501
▁ainmnithe	-9.43537
▁tuairisc	-9.43569
▁ábhair	-9.43599
ant	-9.43757
▁Iúil	-9.43853
oid	-9.43946
▁Márta	-9.44056
▁neart	-9.44131
▁éasca	-9.44135
aith	-9.44168
▁bainistíocht	-9.44169
▁riosca	-9.44195
líon	-9.44204
▁socha	-9.44295
▁phoiblí	-9.44617
▁forbartha	-9.4466
▁bhfad	-9.44694
▁Meán	-9.44704
▁ngair	-9.44808
▁ng	-9.44899
vi	-9.44919
▁bheala	-9.4493
▁J	-9.44983
▁SC	-9.45079
▁bhforáil	-9.45196
íre	-9.45217
ITHE	-9.45227
▁tástála	-9.45279
éis	-9.45304
▁fhaigh	-9.4533
▁raon	-9.45411
▁críoch	-9.45581
oc	-9.45615
▁gclár	-9.45698
▁gcuir	-9.45718
▁lorg	-9.4577
▁mhór	-9.45844
▁freastal	-9.46095
ón	-9.46109
ling	-9.46128
▁theacht	-9.46217
▁mheas	-9.46223
▁ceist	-9.46369
▁Sláinte	-9.4637
▁ullmhú	-9.46395
▁tábhachtach	-9.46417
▁ham	-9.46439
▁Deirea	-9.46489
▁gceannas	-9.46573
aip	-9.46624
isce	-9.46708
ng	-9.46745
▁iii	-9.46811
▁sean	-9.46876
▁tos	-9.46897
ex	-9.46935
▁Líne	-9.46941
▁costas	-9.46941
▁2008	-9.46955
ár	-9.46967
▁thart	-9.47003
▁oifige	-9.47051
shan	-9.4719
▁Táirg	-9.47333
▁Eanáir	-9.47396
▁thógá	-9.47449
▁nasc	-9.47477
▁ort	-9.47519
▁léamh	-9.47526
íochána	-9.4753
▁déantóir	-9.47606
▁níl	-9.47657
▁ghnóth	-9.47708
▁ball	-9.47921
▁dT	-9.47991
IR	-9.4801
Rialtas	-9.48116
▁taithí	-9.48273
iúla	-9.48293
éirí	-9.48338
Údará	-9.48369
É	-9.48375
lia	-9.48387
▁bán	-9.48394
▁teast	-9.4841
▁substaint	-9.48545
istí	-9.48659
▁Físeá	-9.48712
uirthi	-9.48713
▁LE	-9.48828
▁sraith	-9.48873
▁min	-9.48902
▁eolai	-9.48951
▁ligean	-9.49333
me	-9.49349
▁fáth	-9.49357
▁dír	-9.49455
▁chumas	-9.4951
▁foráil	-9.49521
▁Bu	-9.49617
scaoileadh	-9.49823
▁Cur	-9.49858
▁Lá	-9.49911
MS	-9.50043
cal	-9.50077
ry	-9.50245
▁teach	-9.50246
00	-9.50249
List	-9.50273
▁scoil	-9.50284
▁dubh	-9.5049
▁To	-9.50586
▁fuinn	-9.50642
▁eisiúint	-9.50904
24	-9.51045
▁sprioc	-9.51129
▁saintréith	-9.51156
bha	-9.51222
▁údarú	-9.51342
ordaithe	-9.5147
▁fostaíochta	-9.51587
▁to	-9.51588
▁mu	-9.51931
tí	-9.51943
▁choiste	-9.51992
▁Oireachta	-9.51999
▁caiteacha	-9.52036
▁ré	-9.52425
▁bhearta	-9.5253
ngach	-9.52724
▁gcomh	-9.52768
éile	-9.53111
▁frith	-9.53312
iamh	-9.53435
scoileanna	-9.53436
▁La	-9.53478
aimseartha	-9.53605
▁tionscna	-9.53605
▁Iarscríbhinn	-9.53628
▁mbliana	-9.53691
▁shonra	-9.53786
▁fuair	-9.53891
▁aistrithe	-9.54111
▁céad	-9.54134
▁Éirinn	-9.54183
ie	-9.54209
▁Contae	-9.54236
▁cúit	-9.54257
▁thuras	-9.5428
▁inniú	-9.54343
▁ríomhaire	-9.54421
▁grá	-9.5447
▁físeá	-9.54471
per	-9.54493
▁Clár	-9.5454
▁thugta	-9.54639
ná	-9.54752
▁tairiscint	-9.54884
tas	-9.54918
▁léas	-9.55019
▁Po	-9.55028
▁roghna	-9.55231
▁ACHT	-9.55303
TA	-9.55322
▁scair	-9.55571
▁leanúnach	-9.55675
▁Úsáid	-9.5568
▁z	-9.55756
ti	-9.55782
íní	-9.55802
thréimhse	-9.56056
▁cheist	-9.56172
▁caillteana	-9.56238
ki	-9.56254
▁Rogh	-9.56298
tais	-9.56495
hníomhaireacht	-9.56546
▁bord	-9.56649
▁balla	-9.56662
▁Cúirte	-9.56804
▁luaith	-9.56805
fach	-9.56993
10	-9.57096
▁aisíoc	-9.57255
▁ciall	-9.57307
▁Grúpa	-9.5744
▁cíos	-9.57492
▁léiriú	-9.57499
▁chaitheamh	-9.575
éan	-9.57503
▁Scoil	-9.57594
23	-9.57624
ontas	-9.57636
ráid	-9.57652
nó	-9.57678
▁iarra	-9.57729
▁teagmhá	-9.57748
▁scannán	-9.57816
▁scriosa	-9.57899
uair	-9.57983
▁domhan	-9.58086
▁úinéir	-9.58141
▁thionscna	-9.58147
▁fear	-9.58154
▁stoc	-9.58181
▁féach	-9.58246
▁Clárú	-9.58389
▁Alt	-9.58509
▁Cuirea	-9.58511
▁tús	-9.58591
▁cailín	-9.58777
▁TV	-9.58876
▁hearra	-9.58899
67	-9.58903
▁simplí	-9.58963
▁cuma	-9.59004
▁o	-9.59137
▁aois	-9.592
▁cláir	-9.59418
éard	-9.59419
▁2006	-9.59428
óid	-9.5948
▁mbun	-9.5965
▁cona	-9.59934
ST	-9.60233
iarr	-9.6037
▁sábháilteacht	-9.60384
▁dliteana	-9.60387
dong	-9.60399
ainm	-9.60701
▁scéime	-9.60718
▁saoire	-9.60759
▁Déanta	-9.60865
cumhachtaí	-9.60961
▁seomra	-9.61011
▁shocrú	-9.6128
▁Cuid	-9.61329
iar	-9.61374
EIDEA	-9.61426
RE	-9.61429
▁úsáideoir	-9.61497
▁réit	-9.61501
▁Sonraí	-9.61511
▁cosc	-9.61517
▁éinn	-9.61526
omha	-9.61653
omhairc	-9.61662
▁reachtú	-9.61862
▁oifigiú	-9.61876
AMH	-9.61902
▁iarracht	-9.62397
▁éil	-9.62403
ich	-9.6268
▁socrú	-9.62792
AL	-9.62809
eana	-9.6281
fhéid	-9.62848
50	-9.63
earra	-9.63064
Bord	-9.63106
ud	-9.63225
úcháin	-9.63231
▁adhmai	-9.63285
▁cumhachta	-9.63319
▁institiúid	-9.63383
og	-9.6341
▁Choiste	-9.63565
Stiúrthóireacht	-9.63645
▁beart	-9.63659
▁déan	-9.63698
ER	-9.63828
ut	-9.63992
Ó	-9.64006
▁volta	-9.64176
▁bosca	-9.64177
▁teanga	-9.64246
▁bhreise	-9.64315
▁chion	-9.64339
▁laeth	-9.64539
tre	-9.64545
▁Á	-9.64631
IL	-9.64642
▁Bhaile	-9.64707
▁gala	-9.64914
▁chomhaont	-9.64948
▁post	-9.64949
▁bhfaigh	-9.64987
▁gcur	-9.65005
▁Sc	-9.65019
▁oibleagáid	-9.65045
▁éifeachtach	-9.65068
ofa	-9.6513
▁cheadú	-9.65166
56	-9.65266
▁bliant	-9.65271
▁cm	-9.65379
▁scoile	-9.65525
▁Gan	-9.65528
▁Lawn	-9.65532
▁ghlac	-9.65556
7	-9.65606
▁aitheanta	-9.65625
▁cleachta	-9.65792
▁dom	-9.65868
unt	-9.65895
▁gheobha	-9.65915
eithre	-9.65987
po	-9.65993
▁athbhreithniú	-9.6612
▁cineálach	-9.66126
thu	-9.66185
▁slándá	-9.66316
▁punt	-9.66352
aíochtaí	-9.66472
tory	-9.66477
▁léinn	-9.66661
▁Teach	-9.6677
bu	-9.66783
íocha	-9.66803
oist	-9.66962
▁leictreonach	-9.67003
▁teicniú	-9.67003
▁tharraingt	-9.67003
▁sealbhóir	-9.67024
eora	-9.67079
▁ndáir	-9.67092
▁Iar	-9.67113
▁Eola	-9.67207
shaol	-9.67275
▁Stiúrthóir	-9.67631
▁fanacht	-9.67724
▁contae	-9.67726
▁árachais	-9.67726
▁ísle	-9.67734
▁thagairt	-9.67768
▁milliún	-9.67851
tro	-9.67925
▁tuig	-9.68017
stát	-9.68116
luais	-9.68139
los	-9.68316
▁monarcha	-9.68447
▁díospóireacht	-9.68486
▁com	-9.68736
▁leathn	-9.68789
mm	-9.69351
▁éisteachta	-9.69402
▁athr	-9.69594
▁cheadúna	-9.69762
30	-9.69797
log	-9.69826
AN	-9.69851
oirceallá	-9.69913
▁cheangla	-9.69913
▁meaisín	-9.69913
▁Ollscoil	-9.69913
▁Fo	-9.69915
muigh	-9.6994
▁Tuga	-9.69964
▁bhailiú	-9.69965
▁fheiceá	-9.69991
▁40	-9.70219
▁creidmheasa	-9.7032
rian	-9.70344
▁foirn	-9.70368
90	-9.70412
▁aicm	-9.7063
▁conra	-9.70642
▁dleathach	-9.70654
▁Guan	-9.70738
▁parlaiminteach	-9.70778
▁baile	-9.70806
méadú	-9.70828
éara	-9.70843
▁iascaireacht	-9.70889
▁shonró	-9.70906
uaidh	-9.7099
bogearra	-9.71122
uine	-9.7113
▁Déan	-9.71139
▁inmheánach	-9.71365
▁dearbhú	-9.71399
▁plandáil	-9.714
▁tacú	-9.71408
▁clárú	-9.71417
▁mbainf	-9.71434
▁chothabháil	-9.71436
▁meán	-9.71478
▁lár	-9.71499
▁Mura	-9.715
▁thíos	-9.71504
port	-9.71632
▁leabhar	-9.71635
65	-9.71641
orthaí	-9.71695
▁freagra	-9.71852
▁fosta	-9.71942
▁Ro	-9.71965
▁chuntasaíocht	-9.72143
▁sampla	-9.72151
▁ghníomh	-9.72201
▁chríoch	-9.72206
one	-9.72208
▁Forála	-9.72223
aoin	-9.72312
▁inniúla	-9.72316
▁cheap	-9.7237
▁fhoirm	-9.72475
▁Fe	-9.72479
aill	-9.72556
teannta	-9.72557
ealach	-9.72564
▁So	-9.726
▁gCuid	-9.72632
▁Tabharfa	-9.72909
▁thaispeáin	-9.72909
▁bpoint	-9.72911
▁molta	-9.72919
▁long	-9.72933
▁Meitheamh	-9.7296
▁treoir	-9.72987
▁rátaí	-9.7303
▁Léir	-9.73191
▁dlite	-9.73337
▁gcóra	-9.73375
▁éadrom	-9.73483
▁ainmh	-9.7359
tor	-9.73667
▁thuillea	-9.73674
▁breathn	-9.73882
▁beo	-9.73923
fháil	-9.74072
lainn	-9.74095
▁mhodh	-9.74115
táille	-9.74117
▁tráchtál	-9.74129
ive	-9.74208
▁oscailte	-9.74286
bheart	-9.74344
▁caite	-9.74388
▁tsuim	-9.74442
▁Chonra	-9.7445
▁fost	-9.74451
seamh	-9.74538
▁cuntas	-9.74697
lag	-9.74919
aistriú	-9.74949
52	-9.75081
▁liúntais	-9.75082
SA	-9.75102
▁corpraithe	-9.75217
08	-9.75283
▁and	-9.75512
▁geall	-9.75852
oibr	-9.75857
▁IV	-9.75859
▁gCoimisinéir	-9.75998
▁faire	-9.76009
▁reachtaíocht	-9.7617
▁Foins	-9.76193
▁ga	-9.76338
▁coiste	-9.76371
▁asbhaint	-9.76385
▁fiche	-9.76404
▁Aibreá	-9.76634
▁gceann	-9.76758
▁sláintíocht	-9.76785
▁Fógra	-9.76786
▁Londa	-9.76786
▁tarmlig	-9.76789
▁gceart	-9.76805
▁chosc	-9.7682
▁gcomhair	-9.76874
▁Cho	-9.76915
▁shealbh	-9.77044
▁diúlt	-9.77165
▁Trí	-9.77203
▁déag	-9.77216
▁32	-9.77224
▁talmhaíocht	-9.77297
mná	-9.77315
▁cionn	-9.77543
▁malairt	-9.77579
▁chaiteacha	-9.77579
▁Tiarna	-9.7758
▁cárta	-9.7758
oibreacha	-9.77595
▁Bealtaine	-9.77599
▁cionta	-9.77669
▁infheistíochta	-9.77759
▁mhéad	-9.77835
ugtha	-9.77881
phá	-9.78056
ual	-9.78107
▁deich	-9.78128
▁scor	-9.78158
▁éisteacht	-9.78222
▁réidh	-9.78268
▁phríomh	-9.78357
▁uirlis	-9.78379
▁iontu	-9.78379
▁dochtúir	-9.7838
68	-9.78484
léireofa	-9.78639
▁prionsaba	-9.78757
AS	-9.78848
▁Europ	-9.78934
▁straitéis	-9.79006
▁leanfa	-9.79087
man	-9.79117
thar	-9.79179
▁bhíthin	-9.79187
▁bhéarfa	-9.79191
▁réasúnta	-9.79254
▁Feabhra	-9.79258
▁chuma	-9.79348
▁brath	-9.79371
▁achtachá	-9.79421
25	-9.79649
▁Li	-9.79665
▁onnmhaireoir	-9.79683
▁Eor	-9.79783
▁con	-9.79918
bhar	-9.79957
▁gheimhr	-9.79998
▁SOLAS	-9.79999
▁Chuir	-9.80002
▁crua	-9.80015
▁Gnótha	-9.80035
iompar	-9.80039
dia	-9.80078
ainne	-9.80088
▁álainn	-9.80112
▁cóir	-9.80199
▁bhaile	-9.80223
SE	-9.80244
▁bunú	-9.8026
▁Ina	-9.80344
IT	-9.80361
irg	-9.80361
tic	-9.80367
est	-9.80439
▁Tu	-9.8067
bhall	-9.80741
▁Dia	-9.80752
áilte	-9.80812
▁chontae	-9.80819
tair	-9.80895
▁comhpháirt	-9.80919
▁údar	-9.80925
▁Ord	-9.80997
▁brú	-9.81013
oma	-9.81047
áireamh	-9.81147
▁glas	-9.81314
ailte	-9.81317
óide	-9.81457
▁35	-9.81519
16	-9.81547
▁sholáthra	-9.81645
▁sóisial	-9.81645
▁comhlíona	-9.81652
rátaí	-9.8179
▁scéal	-9.818
▁gcuirf	-9.81851
▁Dlí	-9.81957
ik	-9.82256
▁rachai	-9.82407
oiread	-9.82412
▁múinteoir	-9.82478
▁phróiseáil	-9.82478
▁earnáil	-9.82478
▁staid	-9.82478
▁speic	-9.82479
▁fheabhsú	-9.8249
▁2007	-9.82494
▁2010	-9.82502
▁sheachada	-9.8251
▁cist	-9.82546
aptha	-9.82561
mb	-9.82605
▁iarrthóir	-9.82624
▁Airgid	-9.82743
aontú	-9.82772
▁dócha	-9.83019
ton	-9.83222
▁socruithe	-9.83318
▁stíl	-9.83328
▁coitianta	-9.8336
▁ghearradh	-9.83384
▁Ríocht	-9.83478
ug	-9.83482
▁treorach	-9.83504
▁oibríochta	-9.83537
▁lean	-9.83799
▁mórdhíol	-9.83835
▁bhreis	-9.83997
▁Iarnró	-9.84017
AR	-9.84162
▁sealadach	-9.84166
▁Scéim	-9.84171
agartha	-9.8424
▁ainmniú	-9.84305
▁leighis	-9.84325
▁cumas	-9.84332
97	-9.8468
go	-9.84712
▁deontas	-9.84834
▁eacnamaíoch	-9.84883
59	-9.84903
▁pictiúir	-9.8502
▁thiocfa	-9.85022
▁Dara	-9.85169
▁díls	-9.85335
▁tA	-9.85381
27	-9.85582
▁iasc	-9.85598
▁Ainm	-9.85646
IÚ	-9.85719
▁Áth	-9.85772
▁cuairt	-9.85866
▁himeachta	-9.85877
▁dtiocfa	-9.85884
▁dhearbh	-9.86002
▁sl	-9.86117
▁bhreith	-9.86238
▁ceadú	-9.86302
nách	-9.86353
▁cáilithe	-9.86402
▁Oideacha	-9.86441
▁suí	-9.86506
▁iniúcha	-9.86561
▁taifead	-9.86614
33	-9.86727
▁fadhb	-9.86753
▁dréacht	-9.86758
▁Tuirc	-9.8676
▁Moncler	-9.86772
▁Naisc	-9.86813
▁Córa	-9.86913
▁Éisteachta	-9.8693
▁seacht	-9.86998
tóir	-9.87061
airdín	-9.87152
ty	-9.87156
6	-9.87184
RA	-9.87222
▁Sta	-9.87234
gu	-9.8743
leachta	-9.87466
heannta	-9.87552
▁trína	-9.87587
▁Poiblí	-9.87629
▁Príomh	-9.8763
▁siopa	-9.8763
▁gluaiseacht	-9.8763
▁Saor	-9.87727
▁thuas	-9.87729
▁stair	-9.8778
▁Car	-9.87855
▁líonra	-9.87988
▁próiseas	-9.88044
▁brabú	-9.88208
athaoirleach	-9.88253
▁shonr	-9.88254
éasca	-9.88367
▁Pa	-9.88395
▁gcuirfea	-9.88418
LA	-9.8843
achomair	-9.88524
▁2001	-9.88543
radh	-9.88614
48	-9.88636
▁lámha	-9.88636
▁Bainistíocht	-9.88649
rom	-9.88752
▁stóráil	-9.88786
eolaíoch	-9.88848
mhuireara	-9.89007
▁chomhlachta	-9.89068
BH	-9.89069
▁buan	-9.89155
▁60	-9.89184
▁fuarth	-9.89272
▁luaidhte	-9.89311
▁fhoilsi	-9.89324
▁táill	-9.8933
▁chóras	-9.8936
EORPA	-9.89407
déileáil	-9.89412
ghníomh	-9.89461
óin	-9.89485
▁Chuideachta	-9.89488
▁saineola	-9.89532
namh	-9.89587
eoil	-9.89763
▁luas	-9.90107
fheidhmeanna	-9.90114
▁clip	-9.90312
▁cúraim	-9.90324
▁Cha	-9.90325
▁ghinearálta	-9.90376
▁bhliantú	-9.90505
▁oscailt	-9.90508
▁thos	-9.90564
ci	-9.90587
CO	-9.90614
▁ex	-9.90709
mhéid	-9.90863
▁conartha	-9.9096
eolaíochta	-9.91049
80	-9.91079
oifig	-9.91177
▁agam	-9.9118
ml	-9.91181
rianchlo	-9.91217
▁Chomhphoba	-9.91217
▁Lúnasa	-9.91217
▁Talmhan	-9.91217
▁té	-9.9124
▁cheapfa	-9.91288
▁Ciste	-9.91336
orm	-9.91348
Chiste	-9.91386
Aibreá	-9.91394
▁chuirf	-9.91464
▁bhain	-9.91599
íolta	-9.91752
▁Lua	-9.9176
▁gco	-9.91817
▁ceall	-9.91891
lé	-9.91897
▁cheannas	-9.9193
▁gcé	-9.91946
uaire	-9.92004
airgead	-9.92018
▁smaoin	-9.9211
▁dhliteana	-9.92135
▁Gharda	-9.92135
tv	-9.92168
▁sochai	-9.92197
ireacht	-9.92219
64	-9.92266
▁Fear	-9.92413
inbh	-9.92432
▁bás	-9.92502
▁fostaí	-9.92508
▁chomhlacht	-9.92599
aireacht	-9.92673
▁cheada	-9.92676
va	-9.92686
onta	-9.92882
ird	-9.92916
5	-9.9295
áid	-9.92969
91	-9.93007
▁plaisteach	-9.93062
▁leithligh	-9.93069
▁spás	-9.93079
▁cónaithe	-9.93082
▁mheasúnachta	-9.93113
▁faireachá	-9.93127
chiste	-9.93163
▁Hel	-9.9318
tach	-9.93199
▁déanmha	-9.9324
▁fág	-9.93248
▁ngairm	-9.93251
▁chéim	-9.93275
▁phobal	-9.93286
DH	-9.93317
maoine	-9.93371
▁híoc	-9.93591
▁gléas	-9.93834
▁tuismitheoir	-9.94005
chóireáil	-9.94021
▁tithíocht	-9.94024
▁tháirgeadh	-9.94029
▁seachtrach	-9.94044
▁eol	-9.94046
álta	-9.94274
▁Hot	-9.94299
▁teocht	-9.94319
chas	-9.94331
▁fostóir	-9.94352
▁193	-9.94385
▁mhaithe	-9.94502
ior	-9.9459
▁ragha	-9.94684
▁anailís	-9.94729
▁phoba	-9.94761
▁500	-9.9482
chánach	-9.94891
▁chomhairle	-9.94913
▁cúpla	-9.94938
▁cuarda	-9.94942
▁íomhá	-9.94948
▁cheanta	-9.94952
end	-9.95006
▁Threo	-9.95076
▁chinnf	-9.95165
▁struchtúr	-9.95185
▁feiceá	-9.95203
▁dualgais	-9.9521
ome	-9.95212
▁Dáta	-9.95213
01	-9.9532
ithreach	-9.95325
oibriú	-9.95326
▁blas	-9.95536
▁leictreacha	-9.95542
athar	-9.95543
▁scile	-9.95695
iam	-9.95762
uain	-9.95849
▁shár	-9.9587
▁pacáist	-9.95891
▁crité	-9.95894
▁solas	-9.95928
▁leithéid	-9.95949
▁Ceann	-9.96056
ak	-9.96086
▁réigiún	-9.96134
▁míle	-9.9615
▁hoifig	-9.96237
héann	-9.96411
▁É	-9.96583
tee	-9.96718
tóirí	-9.96763
▁fir	-9.96781
bhu	-9.96812
▁stáisiú	-9.96852
▁bPríomh	-9.96852
▁Cruach	-9.96857
ck	-9.96868
▁cinntí	-9.96874
▁tháirg	-9.96881
▁roghanna	-9.96906
▁tacaíochta	-9.96909
éin	-9.96997
eanga	-9.97079
ineacht	-9.97112
▁iontaobha	-9.97116
ey	-9.97166
iarratasóir	-9.97169
▁ceadúnais	-9.97239
▁chóra	-9.97296
▁Pro	-9.97334
▁sábháilte	-9.97381
eolas	-9.97394
be	-9.97503
éag	-9.97551
▁CH	-9.97554
íonna	-9.9759
churtha	-9.97647
▁gearr	-9.97716
tal	-9.97728
▁fheidhm	-9.9775
▁gcomhar	-9.97813
▁pinsin	-9.97824
▁Gaeltachta	-9.9784
▁dearg	-9.97865
▁gairdín	-9.97902
mais	-9.97906
▁acmhainn	-9.97937
ect	-9.97974
▁Wat	-9.97977
oga	-9.98077
▁beala	-9.98162
▁iarbh	-9.98172
osa	-9.98173
nc	-9.98177
▁45	-9.98262
▁tairbhe	-9.98463
itheach	-9.98516
▁thoil	-9.98669
ribh	-9.98697
▁Coda	-9.98731
AC	-9.98786
▁cábla	-9.98804
▁dromchla	-9.98804
▁gcríoch	-9.98814
▁1999	-9.98857
▁teoranta	-9.98874
eisia	-9.98922
▁PH	-9.98944
ance	-9.98974
▁cúirte	-9.99081
san	-9.99148
up	-9.99155
dán	-9.99306
chuir	-9.99328
▁soláthraí	-9.99364
▁tuairisceá	-9.99407
éim	-9.99421
02	-9.99472
eachtaí	-9.99635
▁Chiste	-9.99641
eál	-9.99717
éifeacht	-9.99719
Load	-9.99795
▁gCúirt	-9.99822
▁tréimhs	-9.99863
▁difríocht	-9.99897
mhór	-9.99909
▁soláthróir	-9.99993
chead	-10.0006
▁eagraíocht	-10.0012
▁Sóisial	-10.0019
nas	-10.0044
▁Fu	-10.0048
eacair	-10.0055
cheart	-10.0058
OS	-10.0067
▁limisté	-10.0077
hiúscairt	-10.0079
▁Commit	-10.0079
▁leordhóthanach	-10.0079
▁2005	-10.0081
▁fuaime	-10.0081
elet	-10.0082
▁thalamh	-10.0085
▁caighdeáin	-10.0088
▁iasca	-10.0092
ding	-10.0102
▁leasuithe	-10.0109
▁34	-10.0111
bhrú	-10.0119
11	-10.0122
▁chearta	-10.0125
▁sainche	-10.0128
▁Cor	-10.0135
pháirtí	-10.0143
▁Lean	-10.0147
▁bra	-10.015
▁traidisiún	-10.0151
ost	-10.0151
othar	-10.0156
▁Ad	-10.0162
age	-10.0168
▁grianghra	-10.0174
▁iarratasóir	-10.0177
▁BliainDaon	-10.018
▁Speisialt	-10.018
▁diúité	-10.018
▁sheirbheáil	-10.018
▁cumarsáid	-10.018
▁tiomána	-10.018
load	-10.0181
▁Caibidil	-10.0182
▁dheimhniú	-10.0185
▁Porno	-10.0191
▁tseirbhís	-10.0194
▁Sraith	-10.0196
IC	-10.0202
▁bunaío	-10.0217
▁gnócha	-10.0221
eáin	-10.0223
▁oideachas	-10.0225
▁fuar	-10.0235
▁No	-10.0238
▁caiteachais	-10.0244
▁chua	-10.026
phointe	-10.027
▁gcomhlíona	-10.0273
▁ghrúpa	-10.0277
▁suntasach	-10.0282
▁oíche	-10.0283
▁gloine	-10.0284
▁toradh	-10.0286
póirt	-10.0299
▁Post	-10.0305
▁gar	-10.0309
eolaíocht	-10.0332
▁fianaise	-10.0338
ionann	-10.034
▁cuntasaíocht	-10.0341
▁mheasfa	-10.0342
ID	-10.035
▁spreaga	-10.0352
06	-10.0357
airí	-10.037
▁UM	-10.0382
▁Screen	-10.0386
▁mhargadh	-10.0386
▁sreang	-10.0387
▁creidiúna	-10.0389
▁oiliú	-10.0401
▁Ansin	-10.0401
▁teilifíse	-10.0404
▁ordó	-10.0429
irc	-10.0429
▁dheirea	-10.0434
uisce	-10.0439
áitreabh	-10.0441
▁príobháideach	-10.0444
j	-10.0456
▁bainisteoir	-10.0459
ox	-10.046
Chúirt	-10.0468
▁pá	-10.0471
▁soláthra	-10.0479
▁mac	-10.0486
orbartha	-10.0487
▁tionónta	-10.0488
▁taispeáint	-10.049
▁leigheas	-10.0491
▁bpost	-10.0492
▁druga	-10.0493
▁bunúsach	-10.0495
▁tuiscint	-10.0497
▁bhainfid	-10.0511
our	-10.0518
rádáil	-10.053
▁37	-10.0542
▁Al	-10.0565
▁theicniú	-10.0595
▁Split	-10.0595
▁buntáist	-10.0595
ON	-10.0595
▁2004	-10.0596
▁uathoibríoch	-10.0596
▁leibhé	-10.0598
▁uachtar	-10.0602
▁ceachta	-10.0606
ES	-10.0608
▁saoráid	-10.0612
▁sheacha	-10.0613
▁táscair	-10.0622
▁mBan	-10.0625
▁bhainisti	-10.0627
ber	-10.0627
aitheamh	-10.0633
▁coimeád	-10.0646
omhaid	-10.0665
oi	-10.0674
▁dtreo	-10.0677
uc	-10.0678
▁ionadaí	-10.069
▁éagsúlacht	-10.07
ANNA	-10.07
▁mheán	-10.0701
dóigh	-10.0702
▁Trácht	-10.0704
▁imscrúdú	-10.0707
▁cruth	-10.072
▁36	-10.0727
samhail	-10.0729
▁marc	-10.0733
▁maoirseacht	-10.0735
▁Oideachas	-10.0743
▁chónaithe	-10.0748
AE	-10.0759
▁Aer	-10.0762
▁suite	-10.0764
▁oibreacha	-10.0768
▁toirt	-10.077
▁leanúna	-10.0781
▁aice	-10.0789
▁Stair	-10.0791
▁chinn	-10.0798
▁téacs	-10.0809
▁fhomhír	-10.0811
▁Uisce	-10.0813
▁Banc	-10.0814
íocfa	-10.0816
▁tástáil	-10.0819
▁taist	-10.0821
▁shuíomh	-10.0826
▁ús	-10.0827
oird	-10.0834
▁comhionann	-10.0851
orainn	-10.0853
▁Iompair	-10.0862
inte	-10.0868
▁on	-10.0868
ria	-10.0885
15	-10.0896
▁oiliúna	-10.09
▁00	-10.0909
▁rotha	-10.091
▁ghabháil	-10.0913
41	-10.0913
▁chomhair	-10.0917
▁Allah	-10.0918
▁Daon	-10.0921
▁cigire	-10.0921
▁1976	-10.0923
adóir	-10.0927
▁bó	-10.0929
cair	-10.0929
▁taifid	-10.0929
▁slán	-10.0931
▁díolúin	-10.0941
▁airgeadra	-10.0944
▁réim	-10.0954
▁nAcht	-10.0962
▁fhorléir	-10.0963
▁breithiúna	-10.0964
IM	-10.0964
▁33	-10.0966
fhost	-10.0966
▁Leis	-10.0968
▁pointe	-10.0977
tion	-10.0987
naigh	-10.0989
fheidhmiú	-10.0991
nse	-10.0992
34	-10.1005
ráite	-10.1005
ogadh	-10.1009
▁Bo	-10.101
▁mara	-10.1011
▁Tionsca	-10.1023
fort	-10.1024
ARLAIMINT	-10.1027
▁Institiúid	-10.1027
▁Togra	-10.1027
▁Bosca	-10.1028
▁bhforál	-10.1029
▁Páirt	-10.103
ige	-10.1044
úna	-10.105
▁dhlí	-10.1052
mar	-10.1061
▁AR	-10.1076
pobal	-10.1087
íomh	-10.1091
▁bP	-10.1101
ture	-10.1104
▁méada	-10.1119
comparáid	-10.112
49	-10.1129
▁catagóir	-10.1139
▁pionós	-10.1139
▁aithint	-10.114
▁bunaidh	-10.114
ochair	-10.1141
▁seasamh	-10.1143
▁Déanann	-10.1148
▁uairean	-10.115
▁tíre	-10.1158
ou	-10.116
▁Con	-10.1162
▁Theas	-10.1173
▁ea	-10.1176
ov	-10.1178
údar	-10.118
▁Fac	-10.1188
▁ról	-10.1199
▁glac	-10.1199
▁réigiúnach	-10.1214
▁Uachtarán	-10.1216
net	-10.1228
mheas	-10.1238
▁fororda	-10.1241
shuiteáil	-10.1251
▁difriú	-10.1251
▁gcomhalta	-10.1252
tán	-10.1256
▁staidéar	-10.1268
ghala	-10.1268
▁feabhas	-10.1273
dhéanta	-10.1273
▁Tabhair	-10.1282
rua	-10.1287
▁pro	-10.1287
isean	-10.1288
▁gCuideachta	-10.1292
▁Ábhar	-10.1294
CP	-10.1297
▁dtaga	-10.1299
▁feithicl	-10.1306
▁agóid	-10.131
▁Tí	-10.1313
81	-10.1314
▁Céad	-10.1317
▁bhord	-10.1317
▁Am	-10.1331
▁Sin	-10.1333
ick	-10.1338
▁bua	-10.1347
▁hA	-10.1359
▁bréagach	-10.1365
▁malart	-10.1365
▁Monaróir	-10.1365
▁dheasca	-10.137
▁chuirfea	-10.1373
aghas	-10.1382
mo	-10.139
▁ardchaighdeá	-10.1394
iúint	-10.1396
iceáil	-10.1399
▁Ire	-10.14
▁gcú	-10.1422
▁shábháil	-10.1436
▁cruinni	-10.1453
▁tionsca	-10.1453
▁ghnótha	-10.1462
ól	-10.1463
roinnt	-10.1469
gar	-10.1471
▁meácha	-10.1475
▁cod	-10.1477
▁Catagóir	-10.1479
▁Straitéis	-10.1479
▁ollmhór	-10.148
▁bpáirt	-10.148
▁fhág	-10.1486
▁srianta	-10.1501
▁incháilithe	-10.1502
luach	-10.1502
adóireacht	-10.1504
▁Atha	-10.1507
▁j	-10.1514
▁scoirf	-10.152
▁chláir	-10.1522
táin	-10.1524
TE	-10.1525
ze	-10.1532
▁pleaná	-10.1535
03	-10.154
ure	-10.1542
▁Có	-10.1544
▁breis	-10.1559
▁teaghlaigh	-10.1561
ainmneach	-10.1565
lucht	-10.1581
▁próiseála	-10.1596
ullmha	-10.1596
▁Chontae	-10.1596
▁fhianaise	-10.1596
illte	-10.16
hábhair	-10.1603
iliú	-10.1604
dhéanamh	-10.1606
86	-10.161
▁théarma	-10.1612
▁íosta	-10.1614
ualach	-10.1622
AD	-10.1643
▁un	-10.1651
▁Plean	-10.1667
▁rang	-10.1668
ama	-10.1669
▁forál	-10.1672
▁líomatáist	-10.168
▁aibí	-10.1683
▁trádá	-10.1684
▁measúnachta	-10.1685
09	-10.1691
eitheamh	-10.1696
▁athbhreithn	-10.1703
óige	-10.1704
▁urrú	-10.1708
▁Next	-10.1713
dhíreach	-10.1714
▁chugainn	-10.1714
úint	-10.1715
▁chúit	-10.1715
▁tobac	-10.1726
▁Dúi	-10.1727
▁Pland	-10.1729
▁liti	-10.1733
▁Airteaga	-10.1735
less	-10.1742
▁Euro	-10.1742
▁CF	-10.1743
HUN	-10.1744
q	-10.1761
▁Feidhm	-10.1763
▁gcóir	-10.1765
▁snáithe	-10.1774
J	-10.1793
ioc	-10.1795
sal	-10.1801
▁neamhspleách	-10.1802
infheistíocht	-10.1805
oibreoir	-10.1825
▁chúlghairm	-10.1832
▁nuashonr	-10.1832
▁spraoi	-10.1832
▁thairiscint	-10.1832
▁1963	-10.1832
▁foirfe	-10.1833
iarsma	-10.1833
roichead	-10.1833
▁tirim	-10.1836
▁As	-10.1838
▁European	-10.1842
▁maoiniú	-10.1856
can	-10.1857
▁chaoi	-10.1859
▁Mór	-10.1863
45	-10.1872
▁Feidhmiú	-10.1889
▁Barcelona	-10.1892
▁baill	-10.1896
ya	-10.1897
▁mála	-10.1904
ust	-10.1904
ness	-10.1924
▁inneall	-10.1925
▁Chlár	-10.1926
▁We	-10.1929
▁mbunaí	-10.1929
▁tógáil	-10.1929
▁vót	-10.1929
▁leictreach	-10.1931
▁Cuma	-10.1944
bhreithniú	-10.1944
▁dlíns	-10.1948
vo	-10.1952
▁láidir	-10.1953
pho	-10.1954
▁2000	-10.1961
▁Leanaí	-10.1967
thir	-10.1971
▁duilleog	-10.1975
▁ríomhpho	-10.1984
oo	-10.199
▁teagmhála	-10.2017
▁dhear	-10.2018
▁gl	-10.202
iu	-10.2034
ici	-10.204
▁Iasca	-10.2054
ous	-10.2058
ithne	-10.2065
▁gníomhach	-10.2067
othabháil	-10.2069
▁praghs	-10.2075
▁Bláth	-10.2075
▁Choinbhinsiú	-10.2075
▁friotaíocht	-10.2075
▁reacht	-10.2075
▁Iris	-10.2076
▁tiocfa	-10.2077
▁gcomhlacht	-10.2077
abhra	-10.2082
▁deireanach	-10.2083
▁todhchaí	-10.2086
▁bronntana	-10.2089
osúil	-10.2107
▁par	-10.2112
▁gcuntas	-10.2113
▁Rinne	-10.2115
▁IO	-10.212
▁Barr	-10.2125
▁pearsan	-10.2131
▁dhiúlt	-10.2133
▁bonn	-10.2137
nár	-10.2139
▁Té	-10.2143
▁Níor	-10.2143
▁mbeart	-10.2149
tiú	-10.2151
▁tS	-10.2152
▁teorann	-10.2155
▁Ionad	-10.2166
▁taitneamh	-10.2166
óireacht	-10.217
▁mhola	-10.2179
▁Talmhaíocht	-10.2198
▁iontaofa	-10.2198
▁Connect	-10.2198
▁Mheán	-10.2198
▁ráitis	-10.2199
▁titim	-10.2199
scoil	-10.22
▁Oifigiú	-10.2202
▁ceanta	-10.2205
▁urrús	-10.2211
▁42	-10.223
▁Ka	-10.2244
▁thíolaca	-10.2268
chur	-10.2268
66	-10.2282
▁bac	-10.2284
▁aerártha	-10.2284
▁Ghaeilge	-10.2285
olla	-10.2287
▁Faigh	-10.229
aitheoir	-10.2292
AG	-10.2296
▁comhar	-10.231
▁Feabh	-10.2313
▁Áirí	-10.232
▁mhea	-10.2322
phinsin	-10.2323
▁Fostaíocht	-10.2324
▁Imeachta	-10.2324
iomlán	-10.2325
▁branda	-10.2327
▁turas	-10.2328
▁Tionscada	-10.2329
stoic	-10.2329
▁Eacnamaíoch	-10.233
▁dhéag	-10.2334
▁Pé	-10.2342
▁chuí	-10.2355
▁Ceannai	-10.2362
▁buí	-10.2365
▁Sean	-10.2367
▁rannpháirt	-10.2368
▁phragha	-10.2371
over	-10.2372
mer	-10.2378
54	-10.2385
▁cód	-10.2389
▁eastá	-10.2393
aimsire	-10.2402
▁EU	-10.2407
▁soláthair	-10.2408
▁Faisnéise	-10.2426
07	-10.2433
cónaí	-10.2448
ghné	-10.2449
▁Monarcha	-10.245
▁sibhialta	-10.245
▁gcoinníoll	-10.245
▁Ráta	-10.245
TH	-10.2453
▁iniúchta	-10.2453
▁New	-10.2454
▁meáchain	-10.2455
▁2020	-10.2455
oiriúnach	-10.2456
ew	-10.2456
▁réite	-10.2463
▁Pá	-10.2465
▁nglacfa	-10.2465
▁Gníomhaíochta	-10.2465
chomh	-10.2471
ics	-10.2474
CH	-10.2476
▁custaiméir	-10.2477
ond	-10.2494
▁híocaíochta	-10.2495
▁tarraing	-10.2503
▁ghníomhaíochta	-10.2506
▁móra	-10.2521
▁hi	-10.254
stáil	-10.2541
▁39	-10.255
▁dáilea	-10.2554
▁imeacht	-10.2555
▁plé	-10.2556
▁ocht	-10.2558
▁mblia	-10.256
▁chláraithe	-10.2563
▁wash	-10.2578
▁thógaint	-10.2578
▁Foirm	-10.2578
CDD	-10.2578
éascú	-10.2585
bo	-10.2587
40	-10.2591
iche	-10.2593
▁Mórdhíola	-10.2595
osta	-10.2614
▁cathaoirleach	-10.2617
osanta	-10.2622
raitheann	-10.2625
▁séala	-10.2626
▁tromchúiseach	-10.2627
▁mórdhíoltóir	-10.2629
▁riachtana	-10.264
▁dtú	-10.2641
árach	-10.2655
▁comhréireacht	-10.2655
éiteach	-10.2667
▁scoir	-10.267
▁Cineál	-10.2678
eola	-10.268
▁léiríonn	-10.2681
85	-10.2686
CC	-10.2699
AM	-10.27
que	-10.2702
nscne	-10.2702
▁dian	-10.2706
▁Coinbhinsiú	-10.2708
▁Ilghnéitheach	-10.2708
▁teaghais	-10.2708
▁Chearta	-10.2708
▁cathrach	-10.2711
shuim	-10.2714
seo	-10.2718
▁labhairt	-10.2719
lán	-10.2721
▁rolla	-10.2723
▁thóg	-10.2724
way	-10.2732
▁ghlana	-10.2733
▁aidhm	-10.2746
▁38	-10.2752
▁46	-10.2773
▁Ré	-10.2777
▁inti	-10.2777
▁staidé	-10.278
▁Seirbhíse	-10.2782
áititheoir	-10.282
▁nglac	-10.2824
19	-10.2837
▁fios	-10.2839
▁Cumarsáid	-10.284
▁athnuachan	-10.284
▁imthosca	-10.284
▁paisinéir	-10.284
▁Cathrach	-10.284
▁tógála	-10.284
mheasúnú	-10.2844
reidiúint	-10.2855
olex	-10.2857
▁thiar	-10.286
▁Gníomhaireachta	-10.2861
arm	-10.2862
▁míniú	-10.2862
▁gorm	-10.2871
▁Neamh	-10.2876
▁oibríochtú	-10.2883
▁caipit	-10.2883
▁aonad	-10.2886
▁Samhai	-10.2887
▁scála	-10.2901
▁Tóg	-10.2902
▁bainisti	-10.2904
tine	-10.2905
▁críochnaithe	-10.292
díoltóir	-10.2922
Ord	-10.2934
▁Leas	-10.2938
▁nea	-10.2938
60	-10.2949
▁creat	-10.295
▁chuntas	-10.2963
96	-10.2965
▁teicneolaíocht	-10.2966
▁hArd	-10.2972
▁Iostanbúl	-10.2973
▁Outlook	-10.2973
▁shóisial	-10.2973
▁gComh	-10.2974
▁dhíon	-10.2976
▁lámh	-10.2986
▁Óg	-10.2994
▁fá	-10.2998
95	-10.2999
idirbheart	-10.2999
airgeadra	-10.3008
oin	-10.3012
scadh	-10.3012
▁tsao	-10.3015
998	-10.3029
lín	-10.3037
oinn	-10.3039
12	-10.304
igthe	-10.3041
FC	-10.3042
ardú	-10.3043
▁Sola	-10.3043
▁Anois	-10.3049
▁Mha	-10.3057
▁rathú	-10.306
▁dualga	-10.3069
▁chreid	-10.3077
▁VI	-10.3079
▁sealbh	-10.3084
iontaobhais	-10.309
▁fréamh	-10.3108
▁mhaolú	-10.3108
▁páipéar	-10.3108
▁digiteach	-10.3108
▁threoir	-10.3109
▁comharthaí	-10.3111
▁páist	-10.3117
▁Gairdín	-10.312
hosaint	-10.3124
lib	-10.3125
29	-10.3135
▁tionscal	-10.3135
▁roinn	-10.3138
▁chúna	-10.3154
ven	-10.316
▁200	-10.3172
▁ceal	-10.3173
▁Cuideachta	-10.3176
éiríonn	-10.3177
▁DE	-10.3178
▁rialaitheoir	-10.318
▁Cu	-10.3181
▁tharchu	-10.3185
▁foins	-10.3194
▁aimsi	-10.3194
qui	-10.3196
pt	-10.3207
▁chruinn	-10.321
▁bhF	-10.3215
SP	-10.3232
NA	-10.3232
fhostaithe	-10.3236
▁éagsú	-10.3244
lic	-10.3245
▁Teaghla	-10.3245
▁satailít	-10.3245
▁sholáthró	-10.3245
▁stáda	-10.3245
▁chumhda	-10.3245
▁triail	-10.3245
▁phearsanta	-10.3246
▁taisteal	-10.3248
▁beatha	-10.325
láraitheoir	-10.3252
▁70	-10.3254
▁réalta	-10.3255
▁fhoirgn	-10.3256
▁thrí	-10.3259
▁gcomhlíonfa	-10.3259
aiste	-10.3265
ainmh	-10.3267
▁muiri	-10.327
AIS	-10.3271
▁195	-10.3281
▁ghníomhaíocht	-10.3284
▁eagla	-10.3293
▁réad	-10.3296
99	-10.3298
▁Nuacht	-10.3313
▁timpeall	-10.3321
▁bhean	-10.3321
▁Ná	-10.3324
Ch	-10.3337
obha	-10.3339
▁55	-10.3355
▁tóir	-10.3356
Gníomhaireacht	-10.3363
▁phr	-10.3372
bar	-10.3374
▁Ráit	-10.3374
36	-10.338
▁Ár	-10.3383
pháipéir	-10.3384
▁gcruinni	-10.3384
▁gruaig	-10.3386
▁amhras	-10.3387
▁2002	-10.3389
iseán	-10.3389
▁gcoit	-10.3398
▁réigiú	-10.34
▁Com	-10.3402
05	-10.3408
▁fíon	-10.3408
▁Ealaíon	-10.3417
▁phost	-10.3428
▁iomláin	-10.3429
2003	-10.3434
eagra	-10.3438
▁timpeallacht	-10.3447
▁dé	-10.3463
▁crann	-10.3465
▁son	-10.3465
▁faighte	-10.3465
▁díola	-10.3472
▁cos	-10.3475
phlean	-10.3477
▁feithicle	-10.3481
ionad	-10.3482
▁Ho	-10.349
▁méad	-10.3517
ghluaiste	-10.3518
▁hAchta	-10.3519
▁Athr	-10.3519
▁chonra	-10.3524
▁teagmhas	-10.3525
▁deontais	-10.3525
bhliana	-10.3526
▁pháirt	-10.3527
leic	-10.3529
▁EUR	-10.3529
▁riail	-10.3531
▁lárnach	-10.3532
ff	-10.3534
▁bean	-10.3536
▁togha	-10.3538
choda	-10.3539
▁oibrithe	-10.3543
▁Éireannach	-10.3546
ong	-10.3548
26	-10.355
gen	-10.3564
▁ghá	-10.3565
▁cumann	-10.3565
ínte	-10.3565
▁chleachta	-10.3567
▁chaill	-10.357
▁gcionta	-10.3576
▁ionadaithe	-10.3578
arainn	-10.3578
▁gearán	-10.3589
▁Ru	-10.3591
Chúirte	-10.3596
▁chorp	-10.3599
▁dho	-10.3603
phost	-10.3604
mhuir	-10.3606
oiciméid	-10.3615
▁léasa	-10.3623
ious	-10.3629
▁Bainea	-10.3629
▁mhín	-10.3632
so	-10.3635
▁dalta	-10.3642
▁chrutha	-10.3642
ghníomhach	-10.3643
gram	-10.3651
óis	-10.3665
nasctha	-10.3665
éine	-10.3666
▁Forbairt	-10.3668
▁Taispeáin	-10.3668
▁fhadhb	-10.3668
▁chigire	-10.3668
▁croí	-10.3669
▁únaer	-10.3671
▁tomhaltóir	-10.3672
▁glacfa	-10.3678
eagrú	-10.3679
000	-10.3679
▁fiosrúchá	-10.3684
▁bhfu	-10.3685
▁Ex	-10.3687
▁phróisea	-10.3704
chomharc	-10.3712
iasachtaí	-10.3717
▁dhul	-10.3717
UM	-10.3719
éid	-10.373
▁Mu	-10.3731
35	-10.3747
▁shláint	-10.3748
do	-10.375
mhaith	-10.375
▁eagraíochta	-10.3769
▁gcoinn	-10.3769
▁gairmiú	-10.3776
▁teasa	-10.3784
aithí	-10.3794
tions	-10.38
▁DHÉAN	-10.3813
▁diúscairt	-10.3813
▁ceangailte	-10.3813
▁dlíthiúil	-10.3813
▁Local	-10.3813
▁múnla	-10.3813
▁cóireála	-10.3813
▁cóireáil	-10.3813
▁oidhreacht	-10.3813
imreoir	-10.3813
▁intinn	-10.3814
▁éadaí	-10.3816
▁ghrian	-10.3817
▁mhian	-10.3818
▁ghearr	-10.3823
athrú	-10.383
ize	-10.3832
▁cúrsaí	-10.3835
▁Léig	-10.384
▁chluich	-10.3841
▁gléasra	-10.3843
▁tabha	-10.3847
▁carr	-10.3848
▁caithfi	-10.3852
▁oiriún	-10.386
▁línt	-10.3862
92	-10.3864
▁thur	-10.387
▁trácht	-10.3875
▁mhodhn	-10.3875
▁scanná	-10.3877
▁chúl	-10.3878
chúrsa	-10.391
no	-10.3911
chais	-10.3912
▁tháirgí	-10.3916
▁gcumas	-10.3922
▁measta	-10.3937
▁Ath	-10.3939
▁Gníomh	-10.394
▁úis	-10.3952
▁pu	-10.3954
úsáideoir	-10.3956
▁thuairim	-10.396
▁táirgthe	-10.396
▁Gluaiseacht	-10.396
▁alúmana	-10.396
▁ócáid	-10.396
éifeachtúlacht	-10.3961
▁náisiún	-10.3961
▁míleata	-10.3963
▁fionraí	-10.3965
urscaoileadh	-10.3966
▁tosaíochta	-10.3969
▁Síne	-10.397
▁féilir	-10.3973
ártha	-10.3975
▁cultúr	-10.3984
▁pian	-10.3993
▁marga	-10.3993
▁comhartha	-10.3995
▁mhíniú	-10.3998
ebate	-10.4002
▁coinníoll	-10.4007
▁cheal	-10.4007
dhroim	-10.4013
▁gcomhaont	-10.4015
eisiúint	-10.4015
▁teaghlach	-10.4016
ja	-10.4018
teorann	-10.4019
▁rannpháirteach	-10.402
▁Shóisiala	-10.4023
uth	-10.4023
▁Tuarascá	-10.4029
bail	-10.403
▁thuairisc	-10.4036
EN	-10.4049
▁iarrfa	-10.406
ME	-10.4062
tho	-10.4066
▁sheachtain	-10.4066
buiséad	-10.4068
▁úinéireacht	-10.4074
▁coda	-10.4076
ence	-10.4077
▁Oibre	-10.4079
▁Ha	-10.408
▁brí	-10.4081
▁Nach	-10.4091
▁togh	-10.4095
▁ainmniúchá	-10.4096
líne	-10.4102
íche	-10.4106
▁indéanta	-10.4109
▁tiomanta	-10.4109
Daonlatha	-10.4109
▁mhargai	-10.4109
▁Rialú	-10.4109
▁thuiscint	-10.411
▁gCiste	-10.411
▁comhairliúchá	-10.4113
▁fhoirceann	-10.4113
ospidé	-10.4119
▁hamhá	-10.412
▁dligh	-10.4121
▁sceideal	-10.4121
▁fhás	-10.4124
raein	-10.4125
line	-10.4131
▁Roghna	-10.4136
AT	-10.4138
OR	-10.4152
▁Cás	-10.4159
▁chaith	-10.419
light	-10.4192
▁bog	-10.4192
ACH	-10.4201
Sín	-10.421
ary	-10.4229
oibrithe	-10.4248
SS	-10.4249
▁shain	-10.4259
▁compordach	-10.426
▁ionchúis	-10.4261
▁Tacaíocht	-10.4261
just	-10.4263
▁fomhír	-10.4263
chéim	-10.4263
▁iniúchóireachta	-10.4264
▁teicneolaíochta	-10.4269
▁foláir	-10.4269
ÁS	-10.427
▁Ciall	-10.4274
▁craiceann	-10.4279
▁clúda	-10.4292
▁chruinni	-10.4295
▁Cumhacht	-10.4313
▁Eo	-10.4315
▁bótha	-10.4316
RI	-10.4321
ated	-10.4324
31	-10.4337
sion	-10.435
Oireachta	-10.4351
▁iniúchóir	-10.4352
▁dtosa	-10.4353
▁caipitiú	-10.4364
▁féideartha	-10.4365
▁Sho	-10.4366
eagar	-10.437
▁75	-10.4373
▁taise	-10.4378
▁Par	-10.439
IP	-10.4392
▁bailí	-10.4393
imscrúd	-10.4393
▁inmhuir	-10.4393
iste	-10.4395
iteach	-10.4406
▁nD	-10.4413
IGH	-10.4413
Eilvéis	-10.4414
iontráil	-10.4414
▁Iomlán	-10.4414
▁dhochtúir	-10.4414
▁pictiúr	-10.4414
▁giorra	-10.4414
▁chúram	-10.4414
▁éigeandála	-10.4414
▁tráchta	-10.4414
▁fórsa	-10.4415
AIR	-10.4415
▁riocht	-10.4415
bhuirg	-10.4416
14	-10.4416
▁daonna	-10.4417
▁Mhár	-10.4417
▁héifeachtach	-10.4418
▁cainé	-10.4422
▁Ríomh	-10.4422
▁hoibleagáid	-10.4422
ball	-10.4423
▁fóill	-10.4429
▁príosúnacht	-10.4435
▁Caithf	-10.4435
fhostóir	-10.4435
▁toir	-10.4448
▁tuarascála	-10.4455
▁mionsonra	-10.4456
chéile	-10.4465
ndi	-10.447
▁cháilíocht	-10.4477
▁mhuirear	-10.4477
▁mola	-10.4487
EC	-10.4488
chúis	-10.4494
93	-10.4496
▁Féad	-10.4499
▁phlé	-10.4514
▁scia	-10.4517
76	-10.4528
▁Saoir	-10.4534
▁háit	-10.4535
▁lig	-10.4536
▁feithic	-10.4543
▁fheithic	-10.4551
▁sm	-10.4563
ithigh	-10.4565
▁dteagmhá	-10.457
▁reáchtáil	-10.457
▁bhrabú	-10.457
▁Chuarda	-10.4571
▁staitisticí	-10.4571
▁Praghas	-10.4571
▁ealaín	-10.4571
▁Freagra	-10.4571
EASÚ	-10.4571
▁cruthúna	-10.4571
▁fhostaí	-10.4573
▁euro	-10.4573
▁dhaingniú	-10.4573
▁charm	-10.4578
▁comp	-10.4579
ka	-10.4581
▁deona	-10.4583
▁eochair	-10.4583
book	-10.4584
▁toirmeasc	-10.4589
con	-10.4594
▁phionós	-10.4604
▁chustaiméir	-10.4605
▁héifeacht	-10.4613
bhunaithe	-10.4615
lon	-10.4617
▁shíni	-10.4628
▁fostaíocht	-10.463
▁bhuna	-10.4631
▁comhshao	-10.4639
▁Ur	-10.4645
▁laethú	-10.465
▁caighdeánach	-10.4657
aisíoc	-10.4662
▁mheasta	-10.4681
allmhair	-10.4692
▁fhororda	-10.4694
fhéadfa	-10.4703
▁cúrsa	-10.4705
▁géar	-10.4709
▁ciste	-10.4718
39	-10.4724
▁tairisc	-10.4725
éireo	-10.4726
▁liathróid	-10.4729
▁páipéir	-10.4729
▁Taighde	-10.4729
▁fhorghníomh	-10.4729
tírdhreach	-10.4729
▁theasta	-10.4731
▁ordachá	-10.4732
▁farraige	-10.4734
▁treoirlín	-10.4734
▁bheag	-10.4738
aireachta	-10.4745
▁imní	-10.4745
▁CEE	-10.4751
▁shu	-10.4763
ream	-10.4764
▁vótála	-10.4767
▁casta	-10.4772
69	-10.4782
US	-10.4788
▁riara	-10.479
apa	-10.4803
▁meas	-10.4805
▁gníomhaíocht	-10.4805
▁measa	-10.4805
▁toghchán	-10.4807
▁teas	-10.4809
oy	-10.4814
▁taisc	-10.4821
▁rialáil	-10.4825
ithi	-10.4859
▁dtáirgí	-10.4867
aisghair	-10.4877
▁Ne	-10.4879
ier	-10.4886
rapóirtéir	-10.4891
▁Fhrainc	-10.4891
▁Uaireadóir	-10.4891
▁foghlaim	-10.4891
▁gceangla	-10.4891
▁sreabha	-10.4891
▁cuibhe	-10.4891
▁chostas	-10.4891
olctha	-10.4891
▁Déardao	-10.4891
▁gaolmhar	-10.4891
▁Coláist	-10.4891
▁Earra	-10.4893
hósta	-10.4894
▁chríche	-10.4894
▁Jo	-10.4895
▁hionstraim	-10.4896
▁gúna	-10.4902
▁cáiliú	-10.4911
▁fáilte	-10.4911
▁shannt	-10.4914
▁reachtach	-10.492
▁scaipea	-10.492
▁seachada	-10.4927
▁choinne	-10.493
éigean	-10.4935
▁gra	-10.4945
ium	-10.4949
▁Tiocf	-10.4956
▁Lu	-10.4959
▁Cáin	-10.4961
▁Fheidhmiú	-10.4967
▁eitilt	-10.4986
▁Céim	-10.499
▁stáit	-10.4999
▁dúrad	-10.5003
BL	-10.5013
scaoilte	-10.5027
leas	-10.5031
men	-10.5034
▁Réamh	-10.5041
▁bhail	-10.5049
▁Reacht	-10.5051
▁chaomhn	-10.5054
▁dtuairim	-10.5054
▁polaitiú	-10.5054
SI	-10.5054
▁scoláir	-10.5054
▁sainráite	-10.5055
▁madra	-10.5055
▁gceanta	-10.5055
▁Joint	-10.5059
▁vótáil	-10.5062
▁Dollar	-10.5062
▁shiúl	-10.5074
▁corparáide	-10.5076
▁seolta	-10.5077
▁Iarrata	-10.5077
reidiún	-10.5078
úinéir	-10.508
pi	-10.5087
▁dhiaili	-10.5087
idéal	-10.5088
LE	-10.509
89	-10.5091
▁rannpháirtíocht	-10.5094
MA	-10.5096
42	-10.5097
▁tábhacht	-10.5102
aothrú	-10.5104
▁dheona	-10.5108
▁fhreagra	-10.5112
▁bailiúchá	-10.5127
by	-10.5131
▁point	-10.5132
▁47	-10.5139
EA	-10.5141
▁riala	-10.5153
ósta	-10.5155
▁choth	-10.5166
Aois	-10.5179
▁fhia	-10.5181
▁sho	-10.5188
38	-10.5203
▁deartha	-10.5204
ainmniú	-10.5204
▁58	-10.5209
▁phearsa	-10.522
COMHAIRLE	-10.5221
Caighdeán	-10.5221
aturnae	-10.5221
▁Ghearmáin	-10.5221
▁himthosca	-10.5221
▁Rialacha	-10.5221
▁scáileá	-10.5221
▁polasa	-10.5221
▁Riail	-10.5221
▁sruth	-10.5222
mhairc	-10.5223
▁domhanda	-10.5225
▁Dearbh	-10.5227
▁Tugt	-10.5227
out	-10.523
▁gcúirt	-10.5236
▁suimiú	-10.5242
úlra	-10.5243
MI	-10.5246
▁glasra	-10.5249
▁leagfa	-10.5254
of	-10.5259
Óg	-10.5259
13	-10.5267
mon	-10.5268
mhach	-10.527
78	-10.5271
79	-10.5286
▁cló	-10.5289
▁urlá	-10.529
▁mhuirearú	-10.5292
▁fhu	-10.5298
mheasann	-10.5302
EM	-10.5306
▁shé	-10.5316
▁Bia	-10.5316
▁cháil	-10.5318
ole	-10.5335
▁oibríocht	-10.5338
▁Sonra	-10.5338
▁gairm	-10.535
▁inneal	-10.5359
▁mhair	-10.5362
▁Glacfa	-10.5367
airm	-10.5368
21	-10.5372
chumann	-10.5373
▁Chaibid	-10.5376
▁ghníomhaire	-10.5378
eart	-10.5379
▁fhoghlaim	-10.538
▁iPhone	-10.5391
fheistiú	-10.5391
▁National	-10.5391
▁ceangal	-10.5391
▁ilbhliantú	-10.5391
▁víosa	-10.5391
▁Dearadh	-10.5391
▁dhlíthiú	-10.5391
▁Tábla	-10.5391
▁Uathoibríoch	-10.5391
▁earráid	-10.5391
bhótha	-10.5393
▁Super	-10.5393
HT	-10.5394
fuinneog	-10.5395
▁coiriúla	-10.5402
▁pósta	-10.5402
ghrád	-10.5406
▁teachtaireacht	-10.5406
▁Aib	-10.5408
pre	-10.5409
▁cliceá	-10.541
tive	-10.5412
▁laghdaithe	-10.5413
▁Roinne	-10.5413
cmhainní	-10.5416
▁Méad	-10.5416
▁Clib	-10.5418
▁Cumhachta	-10.542
MH	-10.5424
chuid	-10.5427
illiún	-10.5429
fhorchu	-10.5432
▁dháilea	-10.5433
▁Cead	-10.5434
iniúcha	-10.5434
46	-10.5435
▁ionstraimí	-10.5435
▁44	-10.544
▁meastóireacht	-10.5444
ten	-10.5448
▁réasún	-10.5448
use	-10.545
éadrom	-10.5455
77	-10.5459
▁Déantóir	-10.5477
IA	-10.5479
▁tóga	-10.548
▁chorpr	-10.5492
ortha	-10.5495
▁taisce	-10.55
▁oibrí	-10.5505
▁tábla	-10.552
▁ghairmiú	-10.5528
agra	-10.5533
▁mp	-10.5536
▁Líon	-10.554
▁earrach	-10.5547
aistrithe	-10.556
▁Cainteoir	-10.5563
▁Comhphoba	-10.5563
▁muinín	-10.5563
▁dílseána	-10.5563
▁Tuairim	-10.5563
▁buidéal	-10.5563
▁allmhairiú	-10.5564
▁chúig	-10.5568
▁Dubh	-10.5571
▁Comhalta	-10.5571
▁cheadó	-10.5579
baineann	-10.558
▁léigh	-10.5582
▁cairde	-10.5583
uaisceart	-10.5584
▁Oibrío	-10.5585
ful	-10.5586
▁deoch	-10.5587
▁príomha	-10.5589
▁Beal	-10.5595
▁ollscoil	-10.5609
▁Il	-10.562
▁inarb	-10.5622
OIR	-10.5624
ioncam	-10.5626
▁comhlán	-10.5632
gal	-10.5634
éilithe	-10.5635
ileog	-10.5638
▁fholaío	-10.5642
tarraingt	-10.5645
▁Her	-10.5648
head	-10.5657
88	-10.5677
den	-10.5685
ock	-10.5692
▁eisío	-10.5697
oirne	-10.5697
▁cáilíocht	-10.5717
17	-10.5719
tá	-10.5721
CE	-10.5728
▁cuimhne	-10.5729
▁scáth	-10.5734
▁Diamond	-10.5738
▁traenach	-10.5738
▁Sainmhíni	-10.5738
▁tseachtain	-10.5738
▁seiceála	-10.5739
▁uaireadóir	-10.5739
▁Treorach	-10.5739
▁stórála	-10.574
▁geal	-10.5744
achomharc	-10.5747
▁chomaoin	-10.5756
▁díbhinn	-10.5757
▁State	-10.5758
▁Fir	-10.5764
Oifigeach	-10.5764
▁só	-10.577
▁gair	-10.5793
▁Mi	-10.5803
▁taispeánta	-10.5804
▁coir	-10.581
ows	-10.5813
CHA	-10.5813
Uachtarán	-10.5818
▁Comhshao	-10.5833
fhiosrú	-10.5844
▁saincheiste	-10.5845
ascach	-10.585
▁app	-10.5856
▁Sna	-10.5866
▁fhear	-10.587
PS	-10.5882
vel	-10.5889
thóir	-10.5899
▁Mheiriceá	-10.59
▁du	-10.5904
▁Éire	-10.5907
▁Gné	-10.5908
▁Leigh	-10.5912
▁breac	-10.5913
▁Universit	-10.5917
▁díospóid	-10.5917
▁lotnaid	-10.5917
▁tSeirbhí	-10.5917
▁meicniú	-10.5917
▁mhoill	-10.5917
▁sonrófa	-10.5917
▁chostais	-10.5917
▁Spáinn	-10.5917
▁carachta	-10.5919
▁píosa	-10.5919
fhógair	-10.592
▁bainc	-10.592
áthú	-10.592
▁bhfostaíocht	-10.5921
▁Breith	-10.5921
iúlacht	-10.5925
▁phríobháideach	-10.5935
▁eagr	-10.5942
aistr	-10.5943
▁Eile	-10.5945
▁díolachá	-10.5947
▁coinne	-10.5954
▁aimsir	-10.5955
tíre	-10.5959
▁mhonar	-10.5967
▁eisc	-10.5975
▁meascá	-10.5983
▁ndíol	-10.6011
próiseas	-10.6012
tube	-10.6012
▁morgáiste	-10.6013
22	-10.6015
▁shealbhóir	-10.6018
ning	-10.6019
oideachas	-10.6019
mes	-10.602
▁Deir	-10.6022
▁próiseáil	-10.6026
▁Sóisiala	-10.6027
▁saoránach	-10.6032
▁modhn	-10.6033
▁cá	-10.6036
▁tarchur	-10.6042
imhdeach	-10.6044
chónaí	-10.6049
▁dhualga	-10.606
oite	-10.606
AP	-10.607
ÓN	-10.6072
anaí	-10.6073
▁Réigiún	-10.609
▁Cheanna	-10.6095
infheisteoir	-10.6099
loingseoireacht	-10.6099
▁Google	-10.6099
▁Limisté	-10.6099
▁gComhphoba	-10.6099
▁fráma	-10.6099
▁scilling	-10.6099
▁caoga	-10.6101
▁chuarda	-10.6102
uais	-10.6103
▁Chomhaont	-10.6103
▁VII	-10.6104
▁Liosta	-10.6106
cháilithe	-10.611
▁vótaí	-10.6111
▁1990	-10.6117
áide	-10.6118
▁Cúig	-10.6118
▁bháis	-10.6128
▁Corparáide	-10.6137
có	-10.6137
▁mic	-10.6141
▁saothar	-10.6144
▁beirt	-10.6144
UR	-10.6147
▁Mhaigh	-10.615
bheala	-10.6152
fheidhm	-10.6156
▁brabús	-10.6162
▁ranníoc	-10.6169
▁cáilitheach	-10.6175
▁rial	-10.6175
Shan	-10.6178
irteagal	-10.6187
74	-10.6192
TO	-10.6194
▁bróg	-10.6202
litreach	-10.6209
léas	-10.6212
▁toghchá	-10.6214
TR	-10.6217
scrío	-10.6223
▁cine	-10.6224
▁gníomhaire	-10.6226
▁seachtainiú	-10.623
▁Conra	-10.6231
ments	-10.6238
tter	-10.6242
▁Dleacht	-10.6253
uan	-10.6253
scrios	-10.6273
▁ngnó	-10.6275
scéal	-10.6282
▁Appl	-10.6284
▁dúbailte	-10.6284
▁1994	-10.6284
▁Health	-10.6284
▁chonartha	-10.6284
▁phlanda	-10.6284
▁dearfach	-10.6284
▁Frith	-10.6285
▁láimhseá	-10.6286
▁dtuga	-10.6286
▁easpa	-10.6287
▁fhíorú	-10.629
eachín	-10.6291
▁Ós	-10.6293
▁olc	-10.63
▁cothromaíocht	-10.6315
aisghabháil	-10.6337
maid	-10.6339
▁áise	-10.634
▁fís	-10.6342
▁breithe	-10.6342
▁chlúdach	-10.6342
▁43	-10.6344
▁bain	-10.6345
▁gcúrsa	-10.6347
▁meái	-10.6348
áiste	-10.6349
ound	-10.6352
▁míchuma	-10.6359
aibh	-10.6359
▁baol	-10.6362
▁toil	-10.6363
▁aeráid	-10.6372
▁Lig	-10.6377
tóra	-10.6377
▁Thu	-10.6385
ical	-10.6387
▁ghabh	-10.6393
iasc	-10.6394
PA	-10.6395
chaighdeán	-10.6396
▁meastachá	-10.6406
▁Áiritheo	-10.6407
saothrú	-10.6417
cuain	-10.6417
▁53	-10.6417
▁Gairmiú	-10.6418
▁cúl	-10.6432
choiste	-10.6438
▁dícháil	-10.6438
▁Bun	-10.644
▁barra	-10.6441
ble	-10.6451
▁gcó	-10.6461
▁fheic	-10.6461
▁nuálaíocht	-10.6473
fheicthe	-10.6473
ÍOCHTA	-10.6473
▁Breataine	-10.6473
▁patrú	-10.6473
ionnsca	-10.6473
▁bhuiséad	-10.6474
▁Bearta	-10.6475
▁achmair	-10.6475
▁Commission	-10.6475
▁foirceanna	-10.6476
▁faisean	-10.6477
▁feasach	-10.6478
▁láidre	-10.6478
roinn	-10.6481
▁1960	-10.6484
▁dóich	-10.6484
▁leasmhar	-10.6484
Fómh	-10.6487
▁fáis	-10.6489
▁Nós	-10.6491
bhail	-10.6501
▁ngníomhaíocht	-10.6503
▁Ceart	-10.6504
▁Faisnéis	-10.6508
▁cóiríocht	-10.6512
easca	-10.6516
▁Bhea	-10.6522
▁máist	-10.6529
ogha	-10.6533
▁minicíocht	-10.6534
itic	-10.6541
55	-10.6541
▁rúnaí	-10.6552
king	-10.6555
CI	-10.6558
▁Gu	-10.657
▁uast	-10.657
iompróir	-10.6579
abhartha	-10.659
87	-10.6602
▁Chá	-10.6607
▁dathanna	-10.6611
▁oibrío	-10.6625
EACHTA	-10.6639
Oifig	-10.6642
▁casa	-10.6648
▁nádúr	-10.6655
▁Trádála	-10.6665
▁breosla	-10.6665
▁miotail	-10.6665
▁Frainc	-10.6665
▁Bardas	-10.6665
▁ciorca	-10.6666
▁heagraíochta	-10.6666
▁scór	-10.6666
▁1972	-10.6667
▁maireachtá	-10.6667
▁Domhna	-10.6668
▁Financ	-10.667
fíric	-10.667
▁gréine	-10.667
▁Thuaidh	-10.6671
▁Lucht	-10.6671
▁Méid	-10.6674
gan	-10.6675
▁mblian	-10.6675
áthair	-10.6678
▁saoirse	-10.6678
▁dearmad	-10.6678
Oileá	-10.6681
orleathan	-10.6682
▁cothabhála	-10.6683
▁Ion	-10.6684
▁crios	-10.6685
▁dtéarma	-10.6686
▁gairmiúla	-10.6687
▁fhostaíocht	-10.6693
hraitheann	-10.6694
▁thion	-10.6698
toghachá	-10.6707
▁Iarratais	-10.6712
iarrachtaí	-10.6712
▁fhágá	-10.6714
GH	-10.6725
▁Sula	-10.6726
▁pas	-10.6728
▁cúirt	-10.6729
▁thabha	-10.6743
▁astu	-10.6751
Ão	-10.6757
aobh	-10.6757
▁nótaí	-10.6758
▁hé	-10.6765
▁Táirge	-10.6769
ION	-10.6772
▁poba	-10.6777
▁Oiliún	-10.6786
▁choinníollach	-10.6815
aoiseach	-10.6823
▁Iompa	-10.6825
▁taca	-10.683
▁Tosa	-10.683
▁grean	-10.6831
fhan	-10.6841
▁Ghnó	-10.6853
ACHA	-10.6856
▁Bhain	-10.6858
hibhialta	-10.6861
▁pionóis	-10.6861
▁stampa	-10.6861
▁video	-10.6861
scairchaipit	-10.6861
▁bhfógra	-10.6861
▁monatóireacht	-10.6861
▁siúcra	-10.6861
uimhreach	-10.6861
▁Phoba	-10.6861
▁tógtha	-10.6862
▁mhíchumas	-10.6862
▁chríochnú	-10.6862
▁dhíth	-10.6863
▁tiarna	-10.6864
▁fochuideachta	-10.6864
fhorála	-10.6864
▁gCoist	-10.6865
▁choigeartú	-10.6866
▁Conartha	-10.6866
▁Measfa	-10.6867
▁throm	-10.687
▁1988	-10.687
▁Digiteach	-10.6873
▁tsamhraidh	-10.6876
Infheistíochta	-10.6878
▁cúltaca	-10.6881
▁crainn	-10.6882
TC	-10.6883
▁díobhálach	-10.6884
▁aeir	-10.6896
▁caidr	-10.6897
▁caith	-10.6899
ealaíon	-10.69
GE	-10.69
▁miondíol	-10.6909
▁spreag	-10.6925
▁Athbhreithni	-10.6937
▁staidr	-10.6937
▁Tuarascála	-10.6967
▁CAI	-10.6973
nder	-10.6979
▁dheir	-10.6981
▁foirmiú	-10.6991
▁ranníocaíochta	-10.7002
▁oibreo	-10.7013
▁fais	-10.7019
aoise	-10.702
sliú	-10.7048
▁tugt	-10.7051
GA	-10.7057
▁glao	-10.7059
Úcráin	-10.7061
▁teaghrá	-10.7061
▁uathúil	-10.7061
▁vitimín	-10.7061
▁Cultú	-10.7061
Afraic	-10.7061
▁píopa	-10.7061
▁RIALACHÁ	-10.7061
▁diaper	-10.7061
▁hathru	-10.7061
▁aoisliúnta	-10.7062
▁comhiomlán	-10.7066
▁gcomhthéacs	-10.7066
▁1937	-10.7066
burg	-10.7067
▁Thosa	-10.7084
▁Irish	-10.7085
shealbh	-10.7085
▁luibhe	-10.7088
▁strap	-10.7091
▁athraithe	-10.7096
▁ghlacfa	-10.7101
▁rochta	-10.7102
athanna	-10.7108
▁ceapachá	-10.7113
foirt	-10.7115
▁caint	-10.7116
lón	-10.713
ATH	-10.7132
▁snámha	-10.7143
fuirm	-10.7145
▁Íocaíocht	-10.7154
▁Tras	-10.7156
▁Soláthair	-10.7156
agairt	-10.7168
list	-10.7169
▁feidhmíochta	-10.7177
com	-10.7178
iall	-10.7179
rúin	-10.7186
▁Cúna	-10.719
▁bhainea	-10.7201
ionsaí	-10.7207
▁cuimilteo	-10.7212
▁eachtra	-10.7213
▁soghluaiste	-10.7228
▁aisíocaíocht	-10.724
▁Seacha	-10.724
ator	-10.7251
75	-10.7255
▁haisc	-10.7256
▁chaillea	-10.7261
▁iomaíoch	-10.7265
▁cleithiúna	-10.7265
Parliament	-10.7265
nternational	-10.7265
▁Phoibl	-10.7265
▁sláintiú	-10.7265
▁1961	-10.7265
▁gceangal	-10.7265
▁lampa	-10.7265
▁fulaing	-10.7265
▁uiscí	-10.7265
▁lamhál	-10.7265
▁socraithe	-10.7266
▁Limit	-10.7266
▁srian	-10.7272
▁1978	-10.7275
▁chomhlán	-10.7276
▁insint	-10.7277
▁deonaío	-10.7281
▁dorcha	-10.7293
▁ndei	-10.7294
RAS	-10.7309
Oibreacha	-10.7328
SO	-10.7334
onnmhairiú	-10.7335
▁tasc	-10.7344
riot	-10.7347
ímid	-10.735
▁ndeon	-10.7354
ung	-10.7356
▁Domhand	-10.7362
▁gairme	-10.7364
ok	-10.7368
▁feiste	-10.7375
▁féachan	-10.7376
▁saorána	-10.7377
▁cheadúnais	-10.7377
▁grád	-10.7379
▁bheirt	-10.7386
▁Tuairisc	-10.7393
70	-10.7399
▁bhfora	-10.7401
▁hoibre	-10.7403
▁choinn	-10.7412
GO	-10.7436
uk	-10.7439
óca	-10.7447
val	-10.7459
▁nuacht	-10.7462
óiste	-10.7471
Sheirbhís	-10.7474
▁Slándá	-10.7474
▁bándearg	-10.7474
▁freagairt	-10.7474
▁hoibríochta	-10.7474
▁huathoibríoch	-10.7474
▁lipéad	-10.7474
thrádála	-10.7474
eilimint	-10.7474
▁Cosaint	-10.7474
▁chaillteana	-10.7474
▁current	-10.7474
▁lonnaithe	-10.7474
▁gceadúna	-10.7474
▁Sco	-10.7481
PE	-10.7481
▁teagaisc	-10.7482
▁ceol	-10.7482
▁dainge	-10.7482
▁bhosca	-10.7486
▁fhaillí	-10.7486
▁neamhní	-10.7487
▁ríomhaireachta	-10.7487
▁dóiteáin	-10.7489
▁leaba	-10.7499
▁mhic	-10.7499
NE	-10.75
▁inár	-10.7518
leibhéal	-10.7524
ailse	-10.7526
THA	-10.7534
ix	-10.7535
▁folamh	-10.7535
▁Dúin	-10.7537
▁Fad	-10.7542
▁mianra	-10.7545
choimeád	-10.7547
áistí	-10.7549
fheidhmíocht	-10.7555
▁gcead	-10.7565
▁Teicneolaíocht	-10.7568
▁cruthaío	-10.7592
imeachta	-10.7603
rialach	-10.7614
▁mhó	-10.762
▁Scil	-10.7621
amharc	-10.7623
▁Fé	-10.7628
▁smaointe	-10.7629
▁Cuims	-10.763
dáileog	-10.7633
▁saibh	-10.764
▁clúdach	-10.7641
eilg	-10.7645
ating	-10.7645
▁custaim	-10.7645
oireachta	-10.7657
▁comhréir	-10.7658
raiceann	-10.766
scartha	-10.7661
▁dlúth	-10.7664
isteoir	-10.7679
▁fán	-10.7679
esistant	-10.7686
▁Fórsa	-10.7686
▁Public	-10.7686
▁clasaiceach	-10.7686
▁tíolaca	-10.7686
▁Aisghair	-10.7686
▁chuspóir	-10.7686
▁pláta	-10.7686
▁trádmharc	-10.7686
▁coigeart	-10.7686
cnaipe	-10.7687
▁theorainn	-10.7688
▁Ioncu	-10.7688
▁neamhdhleathach	-10.7688
▁Andro	-10.7688
▁gceap	-10.7692
▁dheisiú	-10.7695
▁hair	-10.7698
▁rabha	-10.7698
▁Dhia	-10.7698
▁Nóta	-10.7699
▁éifeachtacht	-10.7699
▁gCon	-10.7708
logy	-10.7709
▁Leasu	-10.771
nóna	-10.7713
▁Oba	-10.7716
dhlíthe	-10.7717
▁caora	-10.7717
léid	-10.7732
stra	-10.774
suiteáil	-10.7741
uck	-10.7742
mharc	-10.775
▁ráthaíocht	-10.7758
pol	-10.7761
fhoils	-10.7764
get	-10.7765
▁thaifeada	-10.7772
scríbhinn	-10.7787
ionadaithe	-10.7793
▁mbearta	-10.7793
dálaí	-10.7794
▁Teicneolaíochta	-10.7806
▁fhai	-10.7807
Cáilíochta	-10.781
luaite	-10.781
▁mhion	-10.7818
▁chor	-10.7819
igiú	-10.7827
▁léirithe	-10.7829
▁meastóireachta	-10.7836
luacha	-10.7848
Oibr	-10.7856
▁díobháil	-10.7858
SC	-10.7864
▁moill	-10.7867
▁Tua	-10.7869
▁hiarratas	-10.7871
▁iasachta	-10.7873
▁teachtaireachta	-10.7892
Fhor	-10.79
▁gcinnf	-10.7901
threora	-10.7903
▁tweet	-10.7904
▁PDF	-10.7904
▁léarscáil	-10.7904
▁Ankara	-10.7904
▁Crutha	-10.7904
▁chailín	-10.7907
▁troid	-10.7907
▁Charm	-10.791
▁gcaithf	-10.7911
breá	-10.7913
▁dúnta	-10.7914
▁gcosta	-10.7914
▁1977	-10.7914
▁Treal	-10.7914
▁Áracha	-10.7917
▁cruinneas	-10.7918
▁úsáideach	-10.7921
▁1980	-10.7922
▁oibriúcháin	-10.7924
▁gcaoi	-10.7926
bhainisteoir	-10.7927
óthar	-10.7929
▁pota	-10.7931
IAS	-10.7932
▁gníomhaireachta	-10.7935
▁Tai	-10.7936
▁Cro	-10.7947
EANNA	-10.795
mas	-10.7959
▁árasá	-10.7961
▁Bhó	-10.7961
▁locht	-10.7961
▁thit	-10.7965
▁Poba	-10.7967
▁gCaibid	-10.7973
▁tuairisciú	-10.7978
▁gcúis	-10.7981
▁vótaíochta	-10.7982
fhá	-10.7987
bhainistíocht	-10.8
▁sona	-10.8004
TU	-10.8007
eithead	-10.8033
ats	-10.8036
▁chuntais	-10.8039
▁áisiú	-10.8044
▁leasaithe	-10.8044
▁Coinn	-10.8059
TS	-10.8077
▁bhia	-10.8078
▁Face	-10.8089
▁sia	-10.8122
OD	-10.8123
▁phríosún	-10.8126
▁Fhorbairt	-10.8126
▁Jacket	-10.8126
▁phlandáil	-10.8126
▁theaghla	-10.8126
▁Measún	-10.8126
▁sliocht	-10.8126
▁toirmisc	-10.8126
▁shainmhín	-10.8126
▁sainmhín	-10.8126
watch	-10.8126
▁Bliana	-10.8126
▁Téarma	-10.8126
▁thriail	-10.8126
▁dlíthiúla	-10.8126
▁bhreithiúna	-10.8126
iosta	-10.8127
▁slabhra	-10.8127
▁sneachta	-10.8127
mheasúnacht	-10.8128
▁Tairiscint	-10.8129
▁measartha	-10.813
▁Inter	-10.8131
▁China	-10.8134
▁Fuinn	-10.8139
mharcáil	-10.815
▁Náisiún	-10.8151
▁bainis	-10.8153
reibh	-10.8154
▁Costais	-10.8161
eadrána	-10.8161
Bailiúchá	-10.8167
▁cath	-10.8168
omhdhéanta	-10.8171
for	-10.8178
▁comhshocraíocht	-10.8179
▁tábhachta	-10.8191
aithn	-10.8198
RC	-10.8203
DA	-10.8204
▁bainteach	-10.8211
▁tsocha	-10.8211
▁Rúise	-10.8211
▁51	-10.8216
▁Op	-10.8218
inneacha	-10.8226
▁bradá	-10.8231
▁Éil	-10.8238
leabhar	-10.8248
▁scrúd	-10.8252
▁Solátha	-10.8255
▁ionadaíocht	-10.8255
▁ranníocaí	-10.8255
▁shoot	-10.8278
ED	-10.8287
▁Pre	-10.8288
ming	-10.8293
oscail	-10.8312
teoir	-10.8323
▁UN	-10.834
▁béil	-10.8343
▁shaor	-10.835
choimisiún	-10.8353
▁thuismitheoir	-10.8353
▁Poblacht	-10.8353
▁Talún	-10.8353
idirdhealú	-10.8353
▁foilsiú	-10.8353
▁dlítheanach	-10.8353
▁tharmlig	-10.8353
▁paitinn	-10.8353
▁cearnach	-10.8353
▁scam	-10.8353
chárta	-10.8353
▁síológ	-10.8354
▁árachas	-10.8357
iarmhéid	-10.8357
▁gcolú	-10.8358
▁Leaba	-10.8358
únt	-10.8359
▁aisling	-10.8359
▁Comhlacht	-10.8362
▁1974	-10.8364
▁thaiscea	-10.8366
▁fhormheas	-10.8368
▁innealtóireacht	-10.8369
▁bhailíocht	-10.8374
ave	-10.8374
▁inghlactha	-10.8374
athra	-10.8374
▁fhorchuir	-10.8383
chruth	-10.8391
▁Cinn	-10.8404
▁Áise	-10.8405
let	-10.8406
ordó	-10.8408
▁57	-10.8409
íleata	-10.8409
ollar	-10.8414
rianta	-10.8419
mhlacha	-10.843
▁chúrsaí	-10.8431
oileán	-10.8433
fri	-10.8434
eadhon	-10.8435
▁tap	-10.8438
▁120	-10.8441
▁Mó	-10.845
▁Údar	-10.8464
▁leaga	-10.8465
▁Sé	-10.8468
▁ET	-10.8486
▁forfheidhmi	-10.8495
▁déanach	-10.85
▁héil	-10.8502
ank	-10.8505
uathu	-10.8517
ubh	-10.8524
▁Críostaí	-10.8537
▁daingn	-10.8539
adáin	-10.8539
▁shon	-10.8542
▁Dhei	-10.8543
clóir	-10.8548
▁caol	-10.8555
eep	-10.8558
fhág	-10.8563
▁aquarium	-10.8566
chleachta	-10.857
▁fearai	-10.8571
▁ndlí	-10.8572
▁iomarcach	-10.858
Prótaca	-10.8586
▁Meaisín	-10.8586
tBank	-10.8586
▁leithdháilea	-10.8586
▁dtarló	-10.8586
▁ionfhabht	-10.8586
NCA	-10.8586
▁thástá	-10.8586
▁Wind	-10.8587
▁cógas	-10.8588
fhíor	-10.8588
▁droch	-10.8591
▁snasta	-10.8591
▁Ceanta	-10.8592
▁Fhorá	-10.8597
▁gcomhlíon	-10.8599
▁trioma	-10.8599
▁Bó	-10.8599
▁Pleanála	-10.8603
▁Samh	-10.8604
▁iomaíocht	-10.8606
ÁIL	-10.8611
▁sínea	-10.8613
gi	-10.8617
▁luadhfa	-10.8618
946	-10.8626
▁trédhearcach	-10.8633
▁mi	-10.8633
cóid	-10.8637
ally	-10.8641
▁ionchur	-10.8653
▁inbhuanaithe	-10.8662
▁bheatha	-10.8665
tréimhse	-10.8678
▁Nó	-10.8679
ogearra	-10.8687
líonta	-10.8692
airde	-10.8708
▁nuachtá	-10.8711
▁Cháin	-10.8712
schur	-10.8718
▁docht	-10.8725
▁feirme	-10.8726
▁ranníoca	-10.8727
easportá	-10.8741
cy	-10.8744
▁Fáilt	-10.8748
▁imp	-10.8749
iad	-10.8754
dúil	-10.8755
▁All	-10.8755
▁mionsonraí	-10.8759
▁mea	-10.8765
▁Leid	-10.8772
▁comhpháirteach	-10.8782
▁bóthar	-10.8786
bhliant	-10.8787
▁gcomhpháirt	-10.8792
▁luí	-10.8803
háinig	-10.8807
▁stop	-10.8808
▁nÃ	-10.8811
▁Rialaithe	-10.8815
▁míos	-10.8817
▁Leabhar	-10.8822
▁Críoch	-10.8823
tom	-10.8823
▁cruithneacht	-10.8824
mplifier	-10.8824
▁Coinníollach	-10.8824
▁Service	-10.8824
▁achoimre	-10.8824
▁chorparáide	-10.8824
▁líomhna	-10.8824
plátáil	-10.8824
▁riarthóir	-10.8824
▁Suíomh	-10.8826
▁tríocha	-10.8828
▁bhfreagra	-10.8829
▁corp	-10.883
▁séasúr	-10.883
▁CD	-10.883
Ospidé	-10.8831
▁hinstitiúid	-10.8832
▁Gaillimhe	-10.8832
▁snáithín	-10.8833
▁63	-10.8839
▁more	-10.8841
ipéid	-10.8842
▁cheithre	-10.8845
ullmhú	-10.8848
▁Breithiúna	-10.8849
▁dtrí	-10.8849
Oidhreachta	-10.8864
▁tiont	-10.887
éisteacht	-10.8872
ruailliú	-10.8876
▁Mac	-10.8878
▁Arm	-10.8882
▁intu	-10.8897
▁PC	-10.8902
▁sínithe	-10.8905
ko	-10.8909
▁dinea	-10.8916
▁coinn	-10.8916
▁sonraíochta	-10.8926
▁creidmheas	-10.8933
▁bhás	-10.8941
▁Aonair	-10.8946
▁barracha	-10.8948
SD	-10.896
CU	-10.897
926	-10.898
▁hAoi	-10.8986
▁Comhaont	-10.8992
▁Seice	-10.9008
Pad	-10.901
uartha	-10.9028
cháilíocht	-10.9028
▁Fora	-10.903
▁báis	-10.9033
low	-10.9042
▁bpríomh	-10.9042
▁leictr	-10.9044
▁Airgead	-10.9044
▁Íocfa	-10.905
▁250	-10.9052
▁sciath	-10.9057
▁dheimhn	-10.9057
▁Chorca	-10.9059
▁Ghaeltacht	-10.9068
▁puiblí	-10.9068
▁Chríost	-10.9068
▁sheiceáil	-10.9068
▁Bliain	-10.9068
▁thomhas	-10.9068
▁mhúinteoir	-10.9068
eisiúna	-10.9068
▁chroí	-10.9068
iomportá	-10.9069
intiúir	-10.9069
▁íogair	-10.907
▁orgánach	-10.907
▁ionsú	-10.9071
▁soicind	-10.9071
Bunreacht	-10.9071
▁LEIS	-10.9072
▁spéis	-10.9072
▁rialála	-10.9072
artlann	-10.9073
▁bhriseadh	-10.9073
▁shainaith	-10.9073
▁Molta	-10.9074
únaer	-10.9075
▁Cóipeá	-10.9076
▁admhá	-10.9076
▁thrádáil	-10.9076
▁Buna	-10.9085
▁Gnó	-10.9087
▁Beag	-10.9087
▁lasta	-10.9088
aisghairm	-10.9089
▁Coiriú	-10.909
fhoirm	-10.9093
mhas	-10.9095
▁hachtachá	-10.9095
▁Rochta	-10.9097
▁chiallaío	-10.91
▁Io	-10.9116
▁gcruthófa	-10.9119
athach	-10.913
▁lascain	-10.9138
▁tairbhí	-10.9138
▁naoi	-10.9141
dhílse	-10.9146
phinsean	-10.9146
▁huisce	-10.9147
▁díolmh	-10.9149
▁sástacht	-10.9149
▁Chó	-10.9156
▁bhuail	-10.9165
▁fiacha	-10.917
▁pearsa	-10.9171
▁mhúin	-10.9187
▁chóip	-10.9201
▁bhainistí	-10.9217
▁Inc	-10.9229
▁sheol	-10.9244
▁iarrthó	-10.925
ghabháil	-10.9251
▁chustaim	-10.9263
▁haicm	-10.9263
▁ngabh	-10.9265
icíd	-10.9269
tóg	-10.9275
▁thogha	-10.9278
orann	-10.9298
▁forlíontach	-10.9303
▁haois	-10.9307
▁liacht	-10.9308
seirbhís	-10.9309
▁EP	-10.9309
Iarscríbhin	-10.931
▁gcruth	-10.9311
ition	-10.9312
▁mhainn	-10.9315
▁cumhda	-10.9318
▁Seapáin	-10.9318
▁foghlam	-10.9318
▁folúnta	-10.9318
▁praiticiú	-10.9318
▁lógó	-10.9318
▁sceimhlitheoir	-10.9318
▁uirbeach	-10.9318
▁fiáin	-10.9318
▁Mhuir	-10.9318
▁oiriúint	-10.9318
▁sásra	-10.9318
▁hiarratais	-10.9318
▁foilsithe	-10.9318
▁athchóiriú	-10.9319
thionónta	-10.9319
aigéad	-10.9319
▁tSeana	-10.932
▁thionscada	-10.932
▁bhfomhír	-10.9321
▁Costa	-10.9322
ook	-10.9323
ction	-10.9323
▁Foireann	-10.9324
▁seasta	-10.9324
chruinn	-10.9326
▁Mol	-10.9326
▁scrúdu	-10.9328
▁fachtóir	-10.9328
iarrthóir	-10.9328
▁leithead	-10.9331
▁Gnéas	-10.9332
▁1941	-10.9334
daonra	-10.9336
▁riaráist	-10.9337
▁mbreith	-10.9338
▁cairt	-10.9339
▁Áit	-10.9342
▁comhlacha	-10.9343
▁dheis	-10.9347
ped	-10.9347
téar	-10.9348
THE	-10.9353
▁neamhrialta	-10.9355
▁comhlachais	-10.9357
18	-10.9363
▁poll	-10.9364
mirce	-10.9364
▁Acmhainní	-10.9365
▁béim	-10.937
▁TF	-10.9373
RT	-10.9379
glaoch	-10.9388
▁inniúlacht	-10.9389
▁comhachta	-10.9391
▁sainiú	-10.9392
▁macasamh	-10.9397
▁Sche	-10.9398
▁háite	-10.9399
roim	-10.9399
iseal	-10.9426
▁méadaithe	-10.9427
▁fia	-10.9441
ACHTA	-10.9441
▁Tit	-10.9447
▁fómha	-10.9457
▁Ju	-10.9474
▁fiach	-10.9475
▁cruthaithe	-10.9475
▁dámha	-10.9486
stat	-10.9499
▁72	-10.9516
aidrea	-10.9517
▁fáinn	-10.9522
▁Gearr	-10.9525
▁gClár	-10.9529
LC	-10.9529
tréithe	-10.9537
ógaiseoir	-10.9548
últaca	-10.9551
seog	-10.9556
umha	-10.9558
▁tomhais	-10.956
▁bainf	-10.9561
Gaillimh	-10.9565
▁America	-10.9574
▁Teagmhá	-10.9574
▁bhfaisnéis	-10.9574
▁geografach	-10.9574
▁uiscedhíonac	-10.9574
▁gcaiteacha	-10.9574
▁cumhrá	-10.9574
Astráil	-10.9574
▁Deontais	-10.9574
▁cheiliúra	-10.9574
work	-10.9574
▁tocsain	-10.9574
▁colún	-10.9574
▁Bursa	-10.9574
▁scríb	-10.9575
▁greama	-10.9576
oinbhleacht	-10.9576
▁1958	-10.9576
▁eiseo	-10.9576
▁comhla	-10.9577
▁Man	-10.9578
ATIO	-10.958
▁forchuir	-10.9581
▁SEAS	-10.9581
▁theip	-10.9582
▁Stage	-10.9582
aicm	-10.9583
▁Bhainc	-10.9584
▁ghiniú	-10.9584
nill	-10.9587
▁Cheap	-10.9589
oisghrúpa	-10.9591
▁fhorordó	-10.9593
▁cobhsaíocht	-10.9594
▁bonneaga	-10.9594
▁imscrúdaithe	-10.9596
▁Teanga	-10.9596
▁leithleach	-10.9597
▁téama	-10.96
▁comhordú	-10.96
riseadh	-10.9601
Rúnaí	-10.9603
▁mhalartú	-10.9606
▁Scair	-10.9613
▁Amach	-10.9614
▁fíorú	-10.9614
▁Sonraíocht	-10.9624
chomhshó	-10.9626
▁Críost	-10.9629
Eanáir	-10.9631
▁infheidhm	-10.9642
▁coga	-10.9645
▁gcuma	-10.9649
▁ceannach	-10.9653
▁fhoins	-10.9656
▁197	-10.9661
lot	-10.9668
eagraíocht	-10.9668
▁Bainf	-10.967
▁Feidhmeanna	-10.9688
▁láithr	-10.9691
▁bhfoca	-10.9695
árthach	-10.9698
▁73	-10.9699
▁hailt	-10.9699
uaithe	-10.9706
▁trád	-10.9712
hanc	-10.9718
time	-10.972
iÃo	-10.9733
yst	-10.9734
▁gcaithea	-10.9738
▁gcúrsaí	-10.9749
▁trom	-10.9758
▁Dhá	-10.9767
939	-10.977
hat	-10.9785
rainn	-10.979
▁Aireacht	-10.9795
▁carn	-10.9798
▁héifeachta	-10.9798
▁Ko	-10.9802
▁fiosrú	-10.9809
▁diúltach	-10.982
reg	-10.9825
▁toba	-10.9829
DC	-10.9835
▁Chorparáid	-10.9837
▁Struchtúr	-10.9837
▁coimisiú	-10.9837
▁cosantóir	-10.9837
▁shimpl	-10.9837
▁shocró	-10.9837
ábalta	-10.9837
▁criostail	-10.9837
ullamh	-10.9838
▁Sábháilteacht	-10.9838
▁USB	-10.9838
hoblacht	-10.9838
▁uait	-10.9838
▁Leagan	-10.9838
▁chólucht	-10.9839
▁fhreagairt	-10.9839
▁info	-10.984
▁thoirmeasc	-10.9841
▁fionta	-10.9841
croílár	-10.9842
▁tionóntacht	-10.9843
Bhreith	-10.9843
mhná	-10.9843
▁chothrom	-10.9844
ella	-10.9847
vision	-10.9847
▁1970	-10.9847
orie	-10.9848
▁Maisiú	-10.9851
▁fianá	-10.9852
▁1995	-10.9852
▁ailtireacht	-10.9853
▁próisis	-10.9854
VA	-10.9854
▁gheofa	-10.9855
eastá	-10.9855
ionraí	-10.9856
▁cothaith	-10.9858
▁comhoibri	-10.9859
▁ruba	-10.9862
▁Big	-10.9862
▁hainm	-10.9865
▁gearrtha	-10.9867
arraige	-10.9867
▁ngnáth	-10.9869
ionadaí	-10.9891
VI	-10.9892
Chumann	-10.9894
ISTE	-10.9897
íocaíocht	-10.9898
léim	-10.9899
▁neamhspleácha	-10.9906
▁aistreo	-10.9911
▁hábhar	-10.9914
▁stu	-10.9925
uimhir	-10.9926
sonraíocht	-10.9927
▁eisithe	-10.9937
shláint	-10.9938
éata	-10.995
▁hard	-10.9956
SIS	-10.9959
▁cheachta	-10.9959
NS	-10.9962
▁scagair	-10.9967
isiam	-10.9971
intinn	-10.9979
▁mothú	-10.9989
▁300	-10.9994
▁margaí	-10.9997
EAR	-10.9998
AO	-11.0002
▁Socha	-11.0005
▁chónaío	-11.001
réine	-11.0014
▁Cruinn	-11.0017
ríche	-11.0019
ghluaiseacht	-11.0051
▁chumhachta	-11.0059
CS	-11.0065
daite	-11.008
▁chosant	-11.0088
▁caithea	-11.009
▁comhthá	-11.0101
oncler	-11.0101
GN	-11.0107
icrosoft	-11.0108
iontaoibh	-11.0108
▁Sláintíoch	-11.0108
▁chatagóir	-11.0108
▁countertop	-11.0108
▁fírinne	-11.0108
▁tiomáint	-11.0108
▁fheiste	-11.0108
▁tuirlingt	-11.0108
ochairfhoca	-11.0108
▁Cárta	-11.0108
▁Pháirt	-11.0108
▁ghabhálta	-11.0108
▁stiúra	-11.0108
▁práinne	-11.0109
▁pianbhreith	-11.0112
▁Eachtracha	-11.0112
▁uibhe	-11.0112
▁claochladá	-11.0112
▁Just	-11.0113
▁bhfeidhmiú	-11.0114
▁Aims	-11.0116
▁contrártha	-11.0116
archéime	-11.0117
▁Socra	-11.0117
▁1989	-11.012
▁fillea	-11.0121
▁trá	-11.0121
sheilbh	-11.0122
▁Amharc	-11.0125
ska	-11.0127
mhaid	-11.0128
▁triú	-11.0133
▁Mp	-11.0134
▁mbainist	-11.0135
▁cháis	-11.0137
▁hiasachta	-11.0139
zine	-11.0143
▁breiseán	-11.0146
love	-11.015
▁trialach	-11.0151
▁fíorai	-11.0153
▁tairg	-11.0159
core	-11.0164
▁luachála	-11.0167
▁gcinn	-11.0172
▁téigh	-11.0176
▁Naom	-11.0184
▁Buan	-11.0188
▁buiséadach	-11.0192
▁aistrí	-11.0214
▁Chóra	-11.0216
▁duille	-11.0218
▁caidé	-11.022
▁athraío	-11.022
hoist	-11.0221
chumhacht	-11.0227
inneall	-11.0243
▁formheas	-11.0261
▁táirgeoir	-11.0264
936	-11.0268
▁blianachta	-11.0272
TAR	-11.0284
▁comhionanna	-11.0284
▁eachtrach	-11.0286
▁onnmhair	-11.0289
▁ráthaíochta	-11.0292
day	-11.0297
▁silt	-11.0304
▁púda	-11.0306
▁tonn	-11.0306
▁Rúis	-11.0326
omhshó	-11.033
met	-11.033
▁parlaimint	-11.0338
lánta	-11.0338
ÁN	-11.0357
▁Masturbat	-11.0385
Foilseachá	-11.0385
fhuascailt	-11.0385
▁Gearmáin	-11.0385
▁dealraitheach	-11.0385
▁phróisis	-11.0385
▁xxx	-11.0385
fhírinne	-11.0385
▁1962	-11.0385
▁chonaic	-11.0385
▁mheabhair	-11.0385
▁thairbh	-11.0385
▁reiligiún	-11.0385
▁uasghrád	-11.0386
▁eisceachtú	-11.0386
▁Seomra	-11.0386
fhaibhr	-11.0386
sperm	-11.0386
▁gabhálta	-11.0387
▁léitheoir	-11.0387
press	-11.0388
ember	-11.0389
▁coiteann	-11.0391
raft	-11.0392
▁thiomáint	-11.0393
▁Deimhniú	-11.0393
▁thomhaltóir	-11.0393
▁comhtháth	-11.0393
▁ceannaitheoir	-11.0397
▁bhainfea	-11.0398
▁Réigiúnach	-11.0398
▁sráide	-11.0399
▁Laghd	-11.04
▁1940	-11.0402
▁mbonn	-11.0403
▁bhallóid	-11.0405
cre	-11.0406
▁Glan	-11.0406
▁Fair	-11.0406
SIN	-11.0412
▁dhúna	-11.0412
mate	-11.0413
▁Réalt	-11.0414
▁Leanúin	-11.0416
ónta	-11.0418
▁gaol	-11.042
▁Tora	-11.042
▁corr	-11.0422
FE	-11.044
▁déileála	-11.0441
▁dhualgais	-11.0446
▁Chur	-11.0449
▁MAR	-11.0452
▁smacht	-11.0456
ever	-11.0462
▁tso	-11.0468
▁shanna	-11.0472
amar	-11.0479
▁móide	-11.0484
íocann	-11.0491
▁measúnacht	-11.0494
▁pleanáil	-11.0499
▁with	-11.0511
sraon	-11.0527
GB	-11.0538
hua	-11.0547
▁Shóisial	-11.0547
▁príobháideacha	-11.056
MT	-11.0571
▁pháist	-11.0578
aille	-11.0583
tóireachta	-11.059
▁scar	-11.0602
▁han	-11.0603
▁Sion	-11.0606
AIL	-11.0623
ency	-11.0629
▁Liúnta	-11.0632
oirmeasc	-11.0633
othabhála	-11.0645
▁Hid	-11.0645
Catal	-11.0669
▁thaca	-11.0671
▁Caibidl	-11.0671
▁Phrótaca	-11.0671
▁Staitistic	-11.0671
▁WHO	-11.0671
▁teileafó	-11.0671
einsím	-11.0671
ocsaíd	-11.0671
▁Bhreithiúnai	-11.0671
▁1983	-11.0671
▁MAIDI	-11.0671
▁fadtéarmach	-11.0671
▁tsraith	-11.0671
díotáil	-11.0671
▁normal	-11.0671
▁gaineamh	-11.0671
▁cócaireacht	-11.0671
▁eascra	-11.0671
▁bhfoirgn	-11.0671
▁chólíona	-11.0672
▁dearbhu	-11.0672
▁scriú	-11.0672
▁táiblé	-11.0672
▁gnólachta	-11.0673
▁bhrath	-11.0673
charge	-11.0673
▁Stíl	-11.0673
▁glúin	-11.0674
TÉ	-11.0675
▁comhlíonta	-11.0675
▁gcod	-11.0676
▁fhómha	-11.0676
oic	-11.0677
oilte	-11.0677
▁líníocht	-11.0678
choróin	-11.0678
▁Shábháilteacht	-11.068
▁painé	-11.068
▁ghlao	-11.068
▁EURO	-11.0684
▁thús	-11.0684
▁1949	-11.0691
▁treo	-11.0691
▁buille	-11.0691
ionsaithe	-11.0694
▁foraoise	-11.0694
▁sub	-11.0694
▁cháilitheach	-11.0699
áithre	-11.07
haisnéis	-11.0701
ible	-11.0706
acmhainn	-11.0707
▁Log	-11.0708
▁mBail	-11.0712
▁bailíocht	-11.0715
▁Sráid	-11.0715
chultúr	-11.0722
▁bhfabh	-11.0723
▁treocht	-11.0731
▁gnáthchóna	-11.0732
éacht	-11.0735
stóras	-11.0737
▁clocha	-11.0738
▁Mont	-11.0753
EACH	-11.0756
ship	-11.0759
outh	-11.0767
▁Gairm	-11.0769
áirge	-11.0769
▁Comhdhá	-11.0769
▁Réamhrá	-11.077
▁tairbhiú	-11.0771
▁grafa	-11.0775
▁rath	-11.0781
▁imirce	-11.0784
othrom	-11.0784
▁ranga	-11.0788
▁ceapfa	-11.0789
ardaithe	-11.079
▁Taispeánta	-11.0792
ocra	-11.0793
▁féadf	-11.0796
▁liost	-11.0797
▁lítear	-11.0803
▁mhionn	-11.0812
onic	-11.0816
▁margaíocht	-11.0822
▁idirghabhála	-11.0824
thábhachtach	-11.0833
▁choga	-11.0834
EL	-11.0839
riachtanach	-11.0845
▁solúbtha	-11.0847
mhiota	-11.0849
▁riar	-11.0857
ILL	-11.0859
▁dífhostaíocht	-11.0867
eagla	-11.0881
▁feidhmíocht	-11.0891
▁bainea	-11.0894
aighdeáin	-11.09
scála	-11.0903
▁déileál	-11.0907
léireach	-11.0934
▁Íoc	-11.0936
▁chiall	-11.0937
▁Tionól	-11.0948
▁laghd	-11.095
uilte	-11.0956
▁Díol	-11.096
TUA	-11.096
cósta	-11.0961
▁gcoimeád	-11.0962
eileachumarsáid	-11.0965
▁Teaghrán	-11.0965
▁ceimiceá	-11.0965
▁ndualga	-11.0965
▁neamhghnách	-11.0965
▁Múinteoir	-11.0965
▁diosca	-11.0965
▁scuab	-11.0965
atellite	-11.0965
▁Riarachá	-11.0965
▁Bunúsach	-11.0965
▁CNC	-11.0965
▁Black	-11.0965
▁gcineál	-11.0965
▁céatadá	-11.0965
▁Uachtara	-11.0966
▁SOCRÚ	-11.0966
▁Dearg	-11.0966
▁géill	-11.0966
▁cuimsitheach	-11.0966
▁dáileoir	-11.0966
▁chionroinnt	-11.0967
▁chomhréir	-11.0967
▁rásaíocht	-11.0968
uasmhéid	-11.0969
urscaoilte	-11.097
▁Report	-11.097
▁foriomlán	-11.0972
▁Sínis	-11.0973
▁Láriona	-11.0973
▁Uairean	-11.0974
▁máthair	-11.0974
▁díobhála	-11.0974
▁póca	-11.0974
▁ghléasra	-11.0975
▁1975	-11.0977
▁freagrachta	-11.0978
▁ceamara	-11.0981
aigne	-11.0982
▁ww	-11.0983
▁fuck	-11.0984
▁Tionó	-11.0986
▁dhiúltó	-11.0988
▁folu	-11.0989
▁1950	-11.0998
ngen	-11.1006
▁ranná	-11.1006
Sualainn	-11.1007
comhpháirtíochta	-11.1016
áilleacht	-11.1018
▁ardlua	-11.1022
▁hOifige	-11.103
▁straitéiseach	-11.1032
▁chinnfea	-11.1032
bhealaí	-11.1035
▁neamhniú	-11.104
údara	-11.1042
▁cógais	-11.1046
▁theach	-11.1049
láinte	-11.1053
▁Fuai	-11.1066
▁61	-11.108
▁gcáil	-11.1087
▁Beo	-11.1088
▁Chua	-11.1099
▁gcumhacht	-11.1101
▁ghrá	-11.1109
▁Feist	-11.1116
éilitheoir	-11.1131
▁feirmeoireacht	-11.1135
SU	-11.1138
▁Eolaíochta	-11.1139
▁Per	-11.1148
▁scaga	-11.1156
▁dílseach	-11.1158
▁Ábha	-11.116
▁62	-11.1162
▁Roinnt	-11.1167
mhír	-11.1167
▁hairgead	-11.1168
▁Gnáth	-11.1178
CB	-11.1179
oibleagáid	-11.1179
▁Cuideachtan	-11.1183
▁uachta	-11.1209
▁Corparáideach	-11.1211
▁coiriú	-11.1212
Béarla	-11.122
▁banc	-11.1225
▁lasc	-11.1227
▁príosúna	-11.1228
oghthóir	-11.1234
▁hacmhainn	-11.1236
ized	-11.1251
báiste	-11.1263
▁uathoibr	-11.1264
col	-11.1265
▁cuims	-11.1268
▁Barbour	-11.1268
▁Turasóireacht	-11.1268
▁ghréasá	-11.1268
▁loinge	-11.1268
▁Freastal	-11.1268
▁bplean	-11.1268
▁cainníocht	-11.1268
▁nGall	-11.1268
▁codlata	-11.1268
quo	-11.1268
▁Samsun	-11.1268
▁ríthábhachtach	-11.1268
▁Dúithch	-11.1268
▁ngeall	-11.1268
▁tionól	-11.1268
▁Teachtaireacht	-11.1268
▁Clúda	-11.1269
▁íoslucht	-11.1269
▁foilsío	-11.1269
▁cliste	-11.1269
▁inslithe	-11.127
▁reoite	-11.127
▁ghnéas	-11.1271
▁bhformáid	-11.1271
▁milis	-11.1274
▁beze	-11.1274
▁romhai	-11.1275
▁spórt	-11.1275
▁iomarca	-11.1276
cheannta	-11.1277
▁gaile	-11.1277
ndiúscar	-11.1279
obháideacha	-11.128
▁gníomhair	-11.1281
▁1979	-11.1282
▁inmheána	-11.1282
CÁIL	-11.1284
comhthéacs	-11.1288
▁Glaca	-11.129
▁Glac	-11.1291
▁leithroinnt	-11.1295
fheithicl	-11.1307
▁Comment	-11.1309
zon	-11.1309
▁dearca	-11.1316
srael	-11.1317
▁taifeadta	-11.1317
▁Réit	-11.1318
▁rithte	-11.1347
▁mall	-11.135
▁125	-11.1358
aonad	-11.137
▁CON	-11.1374
▁críochnaitheach	-11.1392
▁Fhora	-11.1399
LO	-11.1406
▁hiarra	-11.1421
fhoirgniú	-11.1431
athchóir	-11.1431
▁éileo	-11.1431
carbó	-11.1432
soláthair	-11.1433
OC	-11.1435
▁breithiúnach	-11.1448
▁bhfear	-11.1451
uille	-11.1469
bhainn	-11.1486
chuideachta	-11.1511
▁Adhma	-11.1514
▁Measta	-11.1516
▁fhorord	-11.1517
▁chreat	-11.1519
LÍ	-11.1528
iontaobha	-11.1536
rialta	-11.1541
forbairt	-11.1542
▁shocha	-11.1554
eimiceach	-11.1554
aifid	-11.1563
choigeart	-11.1574
icéid	-11.1576
jo	-11.1577
▁freagartha	-11.1581
íosparta	-11.1581
▁Office	-11.1581
▁Teilifíse	-11.1581
▁ailléirg	-11.1581
▁bhronntana	-11.1581
▁chaipitiú	-11.1581
▁cliniciú	-11.1581
▁coibhéis	-11.1581
▁gcuspóir	-11.1581
▁thaisbeá	-11.1581
▁Techno	-11.1581
▁raidió	-11.1581
▁Scannán	-11.1581
▁mhainneachtain	-11.1581
▁Monatóireacht	-11.1581
▁gearrthóg	-11.1581
▁socró	-11.1581
▁Talamh	-11.1581
▁thogra	-11.1581
▁Foilsithe	-11.1581
▁Fásta	-11.1581
United	-11.1581
▁caipín	-11.1581
▁mhúnl	-11.1581
▁creidim	-11.1581
▁Chláir	-11.1581
▁héigeanta	-11.1581
▁aonfhoirmeach	-11.1581
▁chreidmheas	-11.1582
▁gineadó	-11.1582
▁bhfostóir	-11.1582
▁Bhuan	-11.1585
▁Fionta	-11.1585
▁Dhún	-11.1585
▁super	-11.1586
fhill	-11.1587
Fheabh	-11.1588
▁mogal	-11.1589
fhoills	-11.1589
chúraim	-11.1591
ghabhála	-11.1592
▁chaidr	-11.1592
▁Gléas	-11.1594
▁coirp	-11.1596
▁mhac	-11.1598
▁mainneachtain	-11.1599
▁tíotáiniam	-11.1602
▁ISO	-11.1603
▁Word	-11.1603
liaint	-11.1605
▁dhein	-11.1607
▁inrát	-11.1609
▁Medi	-11.1609
▁gearra	-11.1615
▁Meith	-11.1619
▁Liúntais	-11.1624
▁thacaíocht	-11.1627
holáiste	-11.1629
▁gener	-11.1632
▁bhá	-11.1637
med	-11.1638
▁Pu	-11.1643
ttle	-11.1651
▁sex	-11.1653
▁daor	-11.1655
rialtas	-11.1673
▁bóna	-11.1678
▁ionchui	-11.1691
cheathrú	-11.1696
▁Maca	-11.171
▁Fre	-11.1712
▁iompró	-11.1712
▁cói	-11.1716
▁bhfó	-11.1722
hábháilteacht	-11.1725
uel	-11.1727
9	-11.1731
▁tuill	-11.1735
ÍOC	-11.1737
▁Pen	-11.1741
▁Creat	-11.1745
▁ríomhair	-11.1755
aem	-11.177
▁deonach	-11.1784
▁fhreagracht	-11.179
ichead	-11.1797
ged	-11.1799
▁seic	-11.18
teangacha	-11.182
▁dhéanf	-11.1832
▁cógaisíocht	-11.1849
▁chríochna	-11.1852
idirlíon	-11.1855
▁caillte	-11.1858
TP	-11.1862
íocaíochta	-11.1872
▁Stoc	-11.1876
▁alcó	-11.1894
▁fireann	-11.1895
▁Dearbhu	-11.1897
▁fuaim	-11.1898
tuismitheo	-11.19
▁chlinic	-11.1903
▁Education	-11.1903
▁Traenach	-11.1903
▁gcustaiméir	-11.1903
▁tarrthála	-11.1903
▁Breathna	-11.1903
▁Casino	-11.1903
▁Thrácht	-11.1903
▁sráidbhail	-11.1903
▁Shaorá	-11.1903
▁turgna	-11.1903
▁míthreorach	-11.1903
▁Tarraing	-11.1903
▁thabhó	-11.1903
▁ndeár	-11.1903
▁gcontae	-11.1903
▁chluas	-11.1903
▁Tioncha	-11.1904
▁fhionna	-11.1904
▁rátála	-11.1904
▁creidea	-11.1904
▁buirg	-11.1904
Imréit	-11.1904
▁turasóireacht	-11.1904
▁Ceadúna	-11.1904
▁dearbha	-11.1905
▁Garda	-11.1905
lomhá	-11.1905
▁ainmneo	-11.1905
▁imeall	-11.1905
ova	-11.1905
▁shriana	-11.1906
▁drochuair	-11.1906
▁seiceáil	-11.1906
▁1973	-11.1907
▁ÁIR	-11.1908
▁Dóiteáin	-11.1908
▁bhóthair	-11.191
fhorbairt	-11.1911
▁ruga	-11.1911
▁eHouse	-11.1912
▁contúirteach	-11.1917
icrile	-11.1918
▁Seinn	-11.192
▁1985	-11.1923
▁tharló	-11.1924
▁imréit	-11.1926
▁claon	-11.1927
▁threor	-11.1928
fhó	-11.193
quarium	-11.193
▁ceimiceach	-11.1931
▁deacrachta	-11.1932
Mheiriceánach	-11.1934
agus	-11.1935
▁comhsheasmhach	-11.1935
▁chlog	-11.1937
▁Mam	-11.194
gáiste	-11.1945
▁dtéa	-11.1947
▁Cabhra	-11.1947
▁aighneacht	-11.1954
▁hurrú	-11.1955
choinneála	-11.1959
▁meabhrá	-11.1961
▁mball	-11.1962
▁siamsaíocht	-11.1964
▁Free	-11.1966
▁eip	-11.1968
▁ranníocóir	-11.1969
▁oráist	-11.1971
▁náisiúnach	-11.1985
▁dhíscaoil	-11.1988
▁maisiú	-11.2004
onchur	-11.2004
aife	-11.2006
iomp	-11.202
▁talmha	-11.202
NN	-11.2022
teiripe	-11.2025
BE	-11.2025
▁poil	-11.203
▁Foirgníocht	-11.2031
▁idirbhearta	-11.2037
▁chló	-11.2043
▁dhiúlta	-11.2053
▁bronnta	-11.2062
▁Stamp	-11.208
▁Domhan	-11.2081
éadan	-11.2083
▁dúshlán	-11.2099
thaifead	-11.2102
▁Cong	-11.2116
▁neamhchomhlíon	-11.2118
▁bhó	-11.2127
PAR	-11.2131
▁phun	-11.2133
▁Oiliú	-11.2136
aiscí	-11.2146
intreach	-11.2152
▁stór	-11.2163
icéad	-11.2168
▁bainistí	-11.2168
cast	-11.2172
▁tromla	-11.2172
Mail	-11.2179
▁feirmeoir	-11.2184
▁fhorai	-11.2189
théacs	-11.2206
▁cobhsaí	-11.2211
EES	-11.2212
dráma	-11.2221
▁Cinnt	-11.2232
▁shocra	-11.2236
▁healaíon	-11.2237
▁gCoinbhinsi	-11.2237
cúlghairm	-11.2237
innéacs	-11.2237
▁English	-11.2237
▁cheangló	-11.2237
▁comhchoiteann	-11.2237
▁gheilleaga	-11.2237
▁shubstaint	-11.2237
fhuinneog	-11.2237
▁armchúirt	-11.2237
▁deartháir	-11.2237
▁scratch	-11.2237
▁sorcóir	-11.2237
siombail	-11.2237
▁bpearsa	-11.2237
▁komis	-11.2237
CHÁIN	-11.2237
▁fiacla	-11.2237
▁figiúir	-11.2237
▁fisiciú	-11.2237
▁Movie	-11.2237
▁reifr	-11.2237
▁Mens	-11.2237
▁Mhór	-11.2237
▁Grand	-11.2237
▁COMH	-11.2237
▁thráth	-11.2237
▁Pionó	-11.2237
▁céadluaite	-11.2238
▁Láithreá	-11.2238
▁Staidr	-11.2238
athnuaite	-11.2238
play	-11.2239
amhrán	-11.2239
▁seachadta	-11.2239
▁spriocdháta	-11.224
▁gheará	-11.224
▁luaidhe	-11.224
▁fíochá	-11.2241
▁Teorainn	-11.2242
▁bpá	-11.2243
▁mhaoirseacht	-11.2243
▁cigireachta	-11.2246
▁musc	-11.2246
▁fhreastal	-11.2246
▁chronograph	-11.2248
▁ceint	-11.2251
▁forex	-11.2253
▁Aisghabhá	-11.2253
▁Bhéar	-11.2254
LS	-11.2254
▁Comhdhlú	-11.2254
▁Ghnótha	-11.2255
▁inchinn	-11.2257
iniúchóir	-11.2262
▁scriosta	-11.2263
▁húinéir	-11.2267
▁comhábhair	-11.227
▁chaibid	-11.227
▁1965	-11.2271
raimí	-11.2275
▁Maga	-11.2278
▁úsáideora	-11.2282
▁Rúisis	-11.2285
▁kg	-11.229
ailecheannta	-11.2296
▁1920	-11.2296
feighil	-11.2304
ND	-11.2306
▁ghníomhaireacht	-11.2315
▁úll	-11.2321
▁taitneamhach	-11.2326
▁thuairisciú	-11.2327
▁mhara	-11.2339
▁gcai	-11.234
ITE	-11.2341
cheap	-11.2345
▁dlíthe	-11.2348
SPC	-11.2355
▁tásc	-11.2358
▁earc	-11.2384
anam	-11.2388
▁dífhosta	-11.2402
▁chod	-11.2416
zre	-11.2434
leatha	-11.2436
▁geará	-11.2441
▁stairiú	-11.2444
▁chuimsi	-11.2445
▁Chathai	-11.2449
▁fhostó	-11.245
▁láriona	-11.2453
▁hordu	-11.2464
▁samhra	-11.2493
▁Acad	-11.2497
Imm	-11.2499
▁cao	-11.251
▁04	-11.2519
láraithe	-11.2534
ithní	-11.2561
áras	-11.2563
contúirt	-11.2567
▁contrár	-11.2571
House	-11.2578
TUAIRIM	-11.2581
lectric	-11.2581
timthriall	-11.2581
Éigipt	-11.2581
▁Bronntana	-11.2581
▁Chustaimé	-11.2581
▁Coimirce	-11.2581
▁Thionsca	-11.2581
▁World	-11.2581
▁bhfoilseofa	-11.2581
▁teagasc	-11.2581
▁1947	-11.2581
▁ceangló	-11.2581
▁coincheap	-11.2581
▁fliuch	-11.2581
▁phaitinn	-11.2581
▁tionóisc	-11.2581
▁Iniúchóir	-11.2581
▁abhcóide	-11.2581
▁tionscnó	-11.2581
▁bharánta	-11.2581
▁laighead	-11.2581
▁lugha	-11.2581
▁ceardchuma	-11.2581
▁Strap	-11.2582
▁forghníomhú	-11.2582
▁spraeá	-11.2582
▁Science	-11.2582
▁Metro	-11.2582
fholúnta	-11.2582
Abrá	-11.2582
▁Chuig	-11.2582
▁thionól	-11.2582
▁ghaolmhar	-11.2582
▁tArd	-11.2582
▁Cionta	-11.2583
shoiléir	-11.2583
sealbhóir	-11.2583
▁mháthair	-11.2584
▁Príobháideacha	-11.2584
▁bagú	-11.2584
▁gconra	-11.2585
▁meicníocht	-11.2586
Fheidhmeannach	-11.2586
bhuntáist	-11.2586
▁chlé	-11.2589
▁mhíle	-11.2589
▁cupá	-11.2589
▁Glas	-11.2594
▁dramh	-11.2595
▁seaicé	-11.2598
▁1993	-11.2599
▁bhfosta	-11.26
shlánú	-11.2601
gration	-11.2602
▁comhfhreagra	-11.2604
▁mínithe	-11.261
▁600	-11.261
▁BTE	-11.2611
▁Hard	-11.2611
▁Athchóiri	-11.2612
▁NÃ	-11.2618
airbhearta	-11.262
▁stopa	-11.2621
▁toghthóir	-11.2622
RÉ	-11.2633
▁idirlí	-11.2635
cliant	-11.2637
▁Land	-11.2643
▁ghnócha	-11.2649
▁Gael	-11.2652
▁Stiúrthó	-11.2652
Chomhairle	-11.2655
bhainte	-11.2656
▁eisiach	-11.2659
tógáil	-11.266
ealaíontóir	-11.2661
▁Tógá	-11.267
800	-11.267
▁agalla	-11.2672
AGH	-11.2673
▁mhol	-11.2674
▁gcinnea	-11.2676
▁céannachta	-11.2682
▁Leictreacha	-11.2684
▁Tráth	-11.2684
▁thionsca	-11.2687
▁Caipitiú	-11.2695
▁mholta	-11.2696
socraíocht	-11.2699
Rail	-11.2712
FOR	-11.2716
bloc	-11.272
▁cara	-11.272
dirlíon	-11.2748
▁fhoirmiú	-11.2749
▁airteaga	-11.2751
▁calaois	-11.276
▁comhréireach	-11.2773
ghrúpa	-11.2784
▁calaoise	-11.2788
▁tromchúis	-11.2802
▁Trá	-11.2802
IU	-11.2809
▁gairea	-11.2813
▁gabha	-11.282
Reachtair	-11.2826
▁Leictreach	-11.2834
FS	-11.2837
▁tairbh	-11.2839
▁laghda	-11.2847
pháirteach	-11.2849
eighilt	-11.2858
▁stiúrth	-11.2867
▁Lena	-11.2884
tosó	-11.2893
▁Dath	-11.2915
inmheasún	-11.2928
▁comhchuibh	-11.2939
mbudsma	-11.2939
oblagáid	-11.2939
▁Inmheána	-11.2939
▁Riachtana	-11.2939
▁gcaighdeán	-11.2939
▁gcuimhne	-11.2939
▁gealltanais	-11.2939
▁iarmhairt	-11.2939
▁saighdiúir	-11.2939
▁Ionstraim	-11.2939
▁Uirlis	-11.2939
▁póilín	-11.2939
▁finné	-11.2939
▁phacáist	-11.2939
HÉAD	-11.2939
▁fhíneá	-11.2939
indíreach	-11.2939
phrionsaba	-11.2939
▁coimirc	-11.2939
▁Rialáil	-11.2939
▁Rannpháirt	-11.2939
▁roisín	-11.2939
▁Dréacht	-11.2939
▁fionnu	-11.2939
ompany	-11.2939
▁Dealra	-11.294
ingearach	-11.294
▁bpáipé	-11.294
▁peitrilia	-11.2941
▁tsráid	-11.2941
▁Fíor	-11.2941
▁Smaoin	-11.2941
▁pacáil	-11.2942
géarchéim	-11.2945
▁Access	-11.2945
▁Custaim	-11.2946
▁ioncu	-11.2947
▁aiseola	-11.2947
▁tosca	-11.2948
▁hearnála	-11.2948
iúró	-11.295
▁chuga	-11.2951
▁alcól	-11.2951
▁Fuck	-11.2952
▁Deontas	-11.2953
▁rialtóir	-11.2953
▁1987	-11.2953
EILE	-11.2954
▁Ailt	-11.2956
▁caillea	-11.2956
▁thuaidh	-11.2958
▁teip	-11.2959
▁scíth	-11.2959
▁1966	-11.2961
▁phola	-11.2961
▁oiriúnaithe	-11.2964
▁scur	-11.2966
▁dún	-11.2971
▁Caill	-11.2972
▁cuntasach	-11.2975
▁bagairt	-11.2976
árachaithe	-11.2977
▁faireacha	-11.2978
▁Gorm	-11.298
▁custa	-11.298
EAS	-11.2981
▁whi	-11.2983
hosca	-11.2984
chomhshaoil	-11.2989
INT	-11.2994
▁Déag	-11.2995
▁Bhlia	-11.2998
▁fiachais	-11.3002
▁lamháil	-11.3009
▁you	-11.302
▁rianú	-11.3026
▁inter	-11.3032
naisc	-11.3034
▁phleanál	-11.3035
▁Pacáist	-11.3036
substaint	-11.3036
▁bád	-11.3038
Ghaeilge	-11.305
IMH	-11.3053
tábhachtach	-11.3054
cheadúna	-11.3055
▁cairé	-11.3056
chomhalta	-11.3057
díol	-11.3063
ooter	-11.3064
láimhs	-11.3065
liúnta	-11.3068
▁soláthraío	-11.3073
▁chuims	-11.3075
▁shás	-11.3085
▁Chóir	-11.3085
athbhreithniú	-11.3088
Hz	-11.3098
▁Cáilíocht	-11.3101
leog	-11.3108
dubh	-11.311
▁gcoist	-11.3124
▁Meiriceá	-11.3137
▁Nio	-11.3137
▁Fan	-11.3147
▁Taispeán	-11.3154
▁94	-11.3159
▁bailiú	-11.3165
▁Cóip	-11.3167
▁shása	-11.3172
ley	-11.3186
▁Caipit	-11.3188
▁Ceadaío	-11.322
▁Pins	-11.3227
ubli	-11.3233
▁Fola	-11.3234
▁trédhearcacht	-11.3234
ghabhálach	-11.3237
▁Org	-11.3237
▁theorant	-11.3243
icneolaíocht	-11.3244
▁Rún	-11.3245
▁seisea	-11.3253
earca	-11.3258
▁fúth	-11.3281
stáit	-11.3284
▁mheasúna	-11.3288
▁Iodáil	-11.3293
eibhéal	-11.3295
ealtaine	-11.33
▁Tairisc	-11.3308
▁seirbheála	-11.3309
▁Tréimhse	-11.3309
▁fuascailte	-11.3309
▁Classic	-11.3309
▁Sampla	-11.3309
▁caomhnóir	-11.3309
▁comhleanúnach	-11.3309
▁dtrácht	-11.3309
▁election	-11.3309
▁radharc	-11.3309
▁Stáisiú	-11.3309
▁sheachtrach	-11.3309
▁rannchuidi	-11.3309
▁Tuarasta	-11.3309
▁erotic	-11.3309
▁doimhneacht	-11.3309
▁dídean	-11.3309
rdvolta	-11.3309
▁Ghlac	-11.3309
▁dearthóir	-11.3309
▁tionsclaíoch	-11.3309
▁shócmhainn	-11.3309
▁éigeantach	-11.3309
▁tiubh	-11.3309
▁ndearbh	-11.3309
▁CBS	-11.3309
▁thairg	-11.3309
zmir	-11.331
▁Cóiré	-11.331
▁todóg	-11.331
▁Muirí	-11.331
inicíocht	-11.331
▁easnamh	-11.3311
▁conabla	-11.3311
▁teicníc	-11.3311
▁Staidé	-11.3311
▁Leabharlann	-11.3312
earnóg	-11.3312
▁2-3	-11.3312
▁Comharthaí	-11.3314
▁saotharlann	-11.3315
▁Comór	-11.3317
▁micrea	-11.3318
íobla	-11.3319
▁dheireanach	-11.3319
▁shamhl	-11.3323
▁nochtfa	-11.3324
▁Comhlacha	-11.3324
agarmharc	-11.3324
▁Taobh	-11.3325
▁Fhoir	-11.3326
easóid	-11.3327
▁feadá	-11.3328
▁Franc	-11.333
▁Gabh	-11.333
▁tairseach	-11.3331
▁hiarrthóir	-11.3331
▁File	-11.3332
▁ngnótha	-11.3332
▁gairid	-11.3335
▁Corporation	-11.3338
▁comhacht	-11.3341
▁Pay	-11.3345
▁coig	-11.3347
▁Seola	-11.3351
▁TÁ	-11.3356
▁Íos	-11.3357
▁sása	-11.3359
▁gcéim	-11.336
▁bhuío	-11.3362
▁náisiúntacht	-11.3368
▁seolfa	-11.337
▁chlo	-11.3377
▁calafo	-11.3381
▁guth	-11.3387
▁ársa	-11.3388
tighe	-11.3396
▁MP	-11.3399
▁chatha	-11.3402
▁loc	-11.3417
▁bhreathn	-11.3419
▁Margaí	-11.3419
▁conarthach	-11.343
▁Pleaná	-11.343
▁cloi	-11.3431
▁thír	-11.3432
ramhaíola	-11.3436
under	-11.3437
ooth	-11.3439
FI	-11.3451
▁sciathá	-11.3459
bhreith	-11.3462
phlé	-11.3469
ghlactha	-11.3481
▁morgáist	-11.3487
talamh	-11.3488
▁séarach	-11.349
▁cheil	-11.3495
aicmí	-11.3503
mhorgáiste	-11.3505
▁Eorpa	-11.3514
▁ranníocaíocht	-11.3517
▁Bótha	-11.3528
saincheist	-11.3531
mak	-11.3549
▁cruthaitheach	-11.356
VC	-11.3569
▁gcunta	-11.3577
TM	-11.3586
▁caing	-11.3597
AND	-11.36
▁Inneal	-11.3612
vótál	-11.3614
heat	-11.3621
heobhaid	-11.3623
▁gciste	-11.3625
▁clárúchá	-11.3647
siceo	-11.3658
éama	-11.367
fheabhs	-11.3688
▁Suirbhé	-11.3689
▁leithreas	-11.3689
▁ghlan	-11.369
cáipéis	-11.3694
▁Blonde	-11.3694
▁Foghlaim	-11.3694
▁constaic	-11.3694
▁huirlis	-11.3694
▁tSeapáin	-11.3694
▁teagmhai	-11.3694
▁1984	-11.3694
▁Amazon	-11.3694
▁naipcín	-11.3694
▁scairshealbhóir	-11.3694
▁soladach	-11.3694
Iontaobha	-11.3694
▁ceiliúra	-11.3694
▁litríocht	-11.3694
▁sleamhná	-11.3694
▁theastó	-11.3694
▁cumhra	-11.3694
léarga	-11.3694
▁Video	-11.3694
▁choimirc	-11.3694
▁éarlais	-11.3694
insteall	-11.3694
▁ciliméada	-11.3694
▁PhrÃ	-11.3694
▁Bhunreacht	-11.3694
▁craicin	-11.3694
▁Search	-11.3694
▁Direct	-11.3695
RU	-11.3695
▁peata	-11.3695
uxur	-11.3695
▁gunna	-11.3695
▁Táscair	-11.3696
▁shínea	-11.3696
▁Iarmhéid	-11.3696
▁dhéileá	-11.3697
▁thuig	-11.3697
▁shaorána	-11.3697
▁formáid	-11.3697
▁Union	-11.3697
▁ORD	-11.3699
▁sútha	-11.3699
ampáil	-11.3701
▁sainaith	-11.3703
Press	-11.3703
feola	-11.3707
bhunscoile	-11.3708
ocial	-11.3712
▁mias	-11.3712
▁1969	-11.3712
▁allmhairí	-11.3713
▁banda	-11.3713
asfhoca	-11.3714
▁eatramhach	-11.3714
árachóir	-11.3714
PRO	-11.3719
▁chaing	-11.3724
▁bhainc	-11.3726
▁ardleibhé	-11.3734
▁ticéad	-11.3735
▁thréimhs	-11.3736
▁Order	-11.3737
scaradh	-11.3742
▁Airm	-11.3744
uation	-11.3749
▁thoir	-11.3749
ju	-11.3756
▁Time	-11.3758
▁Read	-11.3759
▁Ardchaighdeá	-11.3764
▁áiritheoi	-11.3771
▁tiús	-11.3771
▁ceannair	-11.3818
▁mhonaróir	-11.3819
fhrea	-11.3827
▁Mini	-11.3839
uachtarán	-11.3839
urraithe	-11.386
▁urghabhá	-11.3861
amhain	-11.3867
prionsaba	-11.3904
▁feabhsú	-11.3904
▁idirghníomh	-11.3904
▁71	-11.3923
riachtana	-11.3928
ddle	-11.3938
▁taispeán	-11.3945
OP	-11.3954
▁hidir	-11.3956
Stiúrth	-11.3968
▁Eagraíocht	-11.3974
athachta	-11.3985
▁cloch	-11.4
▁scaip	-11.4024
▁míchu	-11.4025
dáilte	-11.4026
údará	-11.4033
▁chabhra	-11.4034
cover	-11.4039
bhirt	-11.4039
▁leachtach	-11.4063
oirse	-11.4063
omhfhreagra	-11.4069
▁Plé	-11.4074
cóip	-11.4078
▁Deimhn	-11.4089
▁lasmui	-11.4091
dhleathach	-11.4093
▁cathaoir	-11.4094
▁FORÁLA	-11.4094
▁Danmhairg	-11.4094
▁Omega	-11.4094
▁cearrbhacha	-11.4094
▁spiorad	-11.4094
▁breoite	-11.4094
▁dhoiciméad	-11.4094
▁tréidlia	-11.4094
TAOBH	-11.4094
▁Cuspóir	-11.4094
▁Incredi	-11.4094
▁airbheartó	-11.4094
▁buachaill	-11.4094
▁roghnó	-11.4094
ortaingéil	-11.4094
ullmhó	-11.4094
▁1928	-11.4094
▁Stáda	-11.4094
usiness	-11.4094
meabhrach	-11.4094
▁foilseo	-11.4094
fhinné	-11.4094
▁taoide	-11.4094
chainníocht	-11.4094
▁Rannóg	-11.4094
▁chartú	-11.4094
▁ceirde	-11.4094
uimhnigh	-11.4094
▁comhthoil	-11.4094
▁péinteáil	-11.4094
▁saothra	-11.4094
▁strus	-11.4094
▁cairdiú	-11.4094
▁Díreach	-11.4095
▁Eura	-11.4095
síocháin	-11.4095
▁Seachtain	-11.4095
▁ceathrú	-11.4095
▁Tithíocht	-11.4097
▁guy	-11.4097
▁oinniú	-11.4098
INNE	-11.4098
▁marsanta	-11.4099
▁préimhe	-11.4099
charachta	-11.41
▁rothl	-11.41
▁conver	-11.41
eicníocht	-11.4101
▁fhochuideachta	-11.4102
▁Scrío	-11.4102
▁coinneáil	-11.4107
▁laoch	-11.4107
▁suiteála	-11.4108
▁leabharlann	-11.411
▁kb	-11.4114
wan	-11.4122
▁luachmhar	-11.4123
▁1948	-11.4128
▁Gold	-11.4134
▁Hua	-11.4134
▁Srian	-11.4136
▁dhíolta	-11.4136
UC	-11.4138
▁fónta	-11.4138
▁Teorant	-11.4156
▁Mes	-11.4156
bona	-11.4161
hathrach	-11.4165
▁fhiacha	-11.4166
▁mhuiri	-11.417
▁ndeire	-11.4174
CHE	-11.4182
glass	-11.4182
▁thoiliú	-11.4206
WC	-11.4217
▁dtean	-11.4237
▁sighn	-11.4243
▁bhFo	-11.4276
▁gao	-11.4277
comhlucht	-11.4314
▁ítim	-11.4316
▁naimhde	-11.4328
▁gcaing	-11.4328
rely	-11.4336
iarraid	-11.4348
tuarascá	-11.4357
éagsúlacht	-11.4357
chláir	-11.4359
seomra	-11.4359
sheirbhís	-11.436
sócmhainn	-11.4361
▁náisiú	-11.4368
Cheann	-11.4368
off	-11.4375
iostá	-11.4387
▁Nu	-11.4396
ARR	-11.4402
agró	-11.4417
fhrith	-11.4423
Inniu	-11.4437
▁thairis	-11.4438
óipcheart	-11.4453
IV	-11.4455
▁mhais	-11.4459
bhÃ	-11.4461
ML	-11.4477
bhainisteo	-11.4478
▁muc	-11.4492
▁trans	-11.4507
▁Sceid	-11.4509
▁comhéada	-11.451
▁Invest	-11.451
▁ÁITIÚ	-11.451
▁Ceangla	-11.451
▁Industr	-11.451
▁Nuashonr	-11.451
▁ngrúpa	-11.451
▁paraiméada	-11.451
▁phuiblí	-11.451
▁sapphire	-11.451
▁smachtbhanna	-11.451
▁smartphone	-11.451
▁suibscríobh	-11.451
▁síntiús	-11.451
▁1982	-11.451
▁biotáille	-11.451
▁Aoisliúnta	-11.451
fhórsa	-11.451
▁Tionscla	-11.451
▁bródú	-11.451
▁Chonartha	-11.451
▁acadúil	-11.451
▁snáth	-11.4511
▁dhoirtea	-11.4511
eorpa	-11.4511
▁Cúram	-11.4511
▁frithpháirteach	-11.4511
▁buíocha	-11.4511
iúiré	-11.4511
íomhaoin	-11.4513
▁suíochá	-11.4513
▁tiomna	-11.4513
▁laghdófa	-11.4513
▁cloí	-11.4513
▁teoiric	-11.4514
▁cumhachtach	-11.4514
▁éanlaith	-11.4515
▁cúins	-11.4515
▁faillí	-11.4517
▁coláist	-11.4517
ANTA	-11.4519
chuimsitheach	-11.4519
▁leithreasaí	-11.452
▁Samhna	-11.452
itín	-11.4521
chleachtóir	-11.4522
▁soithí	-11.4522
▁Choiriú	-11.4522
▁téip	-11.4523
▁1918	-11.4523
iarann	-11.4524
1957	-11.4531
eochra	-11.4531
▁fáltai	-11.4532
FHO	-11.4533
▁ROS	-11.4533
utter	-11.4534
▁VIS	-11.454
▁thioncha	-11.454
▁Srianta	-11.4543
▁borr	-11.4547
▁coimeádán	-11.455
▁tarraingteach	-11.4555
▁Painé	-11.4567
ghlacadó	-11.4568
comaoin	-11.4578
▁seó	-11.458
oscó	-11.4582
▁theicneolaíoch	-11.4588
Eabhra	-11.4595
▁fhritháir	-11.4602
▁logáil	-11.4607
iomláin	-11.4616
▁ngá	-11.4625
▁sheachtainiú	-11.4632
▁shealadach	-11.4639
▁bhfás	-11.4651
BHAR	-11.4661
fhéadf	-11.4668
▁tosaíocht	-11.4679
▁phó	-11.4681
back	-11.469
cheannaithe	-11.4694
▁faighteoir	-11.4708
▁comhairleoir	-11.4711
▁feabhsúchá	-11.4712
▁bpragh	-11.4721
oghairm	-11.475
▁gceadó	-11.4755
láithreacht	-11.4758
▁ghló	-11.4758
OLA	-11.4769
CHU	-11.4772
institiúid	-11.4782
léiriú	-11.4783
uff	-11.4788
ndment	-11.4789
▁ioncha	-11.4807
chríochnaithe	-11.4814
shaoil	-11.4831
cheangal	-11.4837
OV	-11.4842
obháide	-11.4844
▁STA	-11.4848
▁cat	-11.4857
other	-11.486
ANN	-11.4874
ábhair	-11.4877
▁comhábha	-11.4882
37	-11.49
▁sonrú	-11.4906
▁Léi	-11.4915
ubai	-11.4916
chreidte	-11.4916
▁Luc	-11.4929
loic	-11.4929
IREANN	-11.4932
▁pós	-11.4936
ianbhreith	-11.494
obac	-11.4941
▁labhair	-11.4944
▁feabhsa	-11.4945
cheangailte	-11.4945
féichiúna	-11.4945
▁Council	-11.4945
▁Ioslam	-11.4945
▁Pearsanta	-11.4945
▁School	-11.4945
▁Tionscna	-11.4945
▁bhfeithic	-11.4945
▁dinimic	-11.4945
▁piobar	-11.4945
▁thrádmharc	-11.4945
▁timpist	-11.4945
▁wallpaper	-11.4945
▁Soláthró	-11.4945
▁bhabhta	-11.4945
▁fairsing	-11.4945
▁neodrach	-11.4945
Kommission	-11.4945
▁Affair	-11.4945
▁méarlo	-11.4945
▁fisiceach	-11.4945
▁Creidea	-11.4945
▁bpacáist	-11.4945
▁Power	-11.4945
▁White	-11.4945
▁CRO	-11.4945
▁bréagá	-11.4945
▁Rialtóir	-11.4945
▁bacainn	-11.4945
▁Téacs	-11.4945
▁Fág	-11.4945
▁Express	-11.4946
AIDH	-11.4946
▁ghéill	-11.4946
▁fhisic	-11.4946
▁Leathan	-11.4946
raenáil	-11.4946
▁lómhar	-11.4946
▁Rang	-11.4946
▁ghnólachta	-11.4946
▁luíod	-11.4947
▁cluaise	-11.4947
▁bhfeic	-11.4948
chrios	-11.4948
▁Madra	-11.4949
▁Taist	-11.495
▁bithicíd	-11.4951
réimhe	-11.4952
ilver	-11.4952
▁bric	-11.4956
▁tráthchoda	-11.4957
▁gcleachta	-11.4961
▁Leagt	-11.4963
▁FAIR	-11.4963
▁Tuig	-11.4964
▁iníon	-11.4965
▁rúis	-11.4965
▁Custa	-11.4965
▁Long	-11.4973
▁silín	-11.4974
Aighne	-11.4978
▁Bhun	-11.4979
immer	-11.4979
ÉIS	-11.4983
▁Buisé	-11.4984
uestion	-11.4988
inniúlachta	-11.4988
▁Chúna	-11.4991
▁Bunó	-11.4993
▁sceit	-11.5
▁nimhiú	-11.5003
▁ndeara	-11.5025
▁mbarr	-11.503
táill	-11.5031
▁shuíf	-11.5033
▁Líonra	-11.5043
▁expe	-11.5054
uatha	-11.5059
gcomhpháirtíocht	-11.506
▁chisti	-11.506
▁dócmhainneach	-11.508
Choimisinéir	-11.5085
▁pléasca	-11.5087
▁Gearrth	-11.5094
loine	-11.51
▁leantóir	-11.5104
EID	-11.512
▁chomhlachai	-11.5122
▁org	-11.5141
▁mothúchá	-11.5143
tuairiscí	-11.5152
KB	-11.5153
▁caoi	-11.5155
▁chaird	-11.5175
náthchónaitheoir	-11.5177
aingne	-11.518
▁dteanga	-11.5193
réige	-11.5216
únant	-11.5232
▁achainí	-11.5242
▁meisc	-11.5258
údaró	-11.5275
GM	-11.5283
údaruí	-11.5288
róiseas	-11.5288
MÁ	-11.5292
rush	-11.5299
▁Bainisti	-11.53
▁dtabh	-11.5307
hliste	-11.5317
ionstraim	-11.5319
iarnró	-11.5336
théarma	-11.5336
▁Nov	-11.5337
▁bailío	-11.5343
huaisceart	-11.5343
▁sainord	-11.5361
▁speisial	-11.5363
▁Breit	-11.5367
▁coigilt	-11.5368
▁spo	-11.537
▁Mheic	-11.5386
osmálta	-11.5391
RTHA	-11.5393
fhreagair	-11.5396
▁BHAINEA	-11.54
▁FEIDHM	-11.54
aliforni	-11.54
atamaitic	-11.54
Ísiltír	-11.54
▁Chaomhn	-11.54
▁Department	-11.54
▁Mheithimh	-11.54
▁Nádúrth	-11.54
▁bpríosún	-11.54
▁ceardlann	-11.54
▁coimisinéir	-11.54
▁comórta	-11.54
▁fiaclóireacht	-11.54
▁forghéill	-11.54
▁fíneála	-11.54
▁jewel	-11.54
▁líomóid	-11.54
▁ndiúltó	-11.54
▁phaisinéir	-11.54
▁polaitíocht	-11.54
▁pribhléid	-11.54
▁príosúntacht	-11.54
▁próitéin	-11.54
▁teirmeach	-11.54
▁thuarasta	-11.54
▁Creidim	-11.54
▁Diúité	-11.54
▁ocsaigin	-11.54
▁Mhúinteoireacht	-11.54
▁craolachá	-11.54
▁Atweetáil	-11.54
▁thaighde	-11.54
fhulaing	-11.54
▁dhílsiú	-11.54
▁bhronna	-11.54
▁geimhr	-11.54
▁Govern	-11.54
▁iniompartha	-11.54
▁Polasa	-11.54
▁tobhach	-11.54
▁coileach	-11.54
▁Giúda	-11.54
▁Margadh	-11.54
▁Volta	-11.54
▁Ionchúis	-11.54
▁leachtaitheoir	-11.54
▁tubaiste	-11.5401
inoibritheacht	-11.5401
▁trastomhas	-11.5401
▁chuairte	-11.5401
▁creim	-11.5402
▁Ghairm	-11.5403
▁Scrios	-11.5403
▁club	-11.5403
▁marcáilte	-11.5403
▁sceithea	-11.5403
▁Diaper	-11.5404
▁Chónaithe	-11.5405
▁lánúin	-11.5405
▁liath	-11.5405
inéiv	-11.5407
▁Cairt	-11.5408
▁Cailín	-11.5411
foundation	-11.5412
▁imoibr	-11.5413
idirthréimhseach	-11.5414
▁Litr	-11.5416
▁Home	-11.5417
▁1922	-11.5419
▁Ranná	-11.5423
▁Bileog	-11.5425
▁fhorfheidhmiú	-11.5425
BID	-11.5431
▁léacht	-11.5433
▁sháró	-11.5435
▁chuaird	-11.5435
▁phleanáil	-11.5436
tomhas	-11.544
▁réamhíoc	-11.5443
ianaise	-11.5448
▁rúndacht	-11.5453
freagraí	-11.5454
▁prái	-11.5454
▁Thairis	-11.5455
idiam	-11.5456
▁oighea	-11.5462
▁seasa	-11.5463
▁Nasc	-11.5463
▁orgá	-11.5463
fheirmeoir	-11.5468
▁eachtraíocht	-11.5481
Rúnaíocht	-11.5483
▁tsean	-11.5491
samhraidh	-11.551
▁soghluaisteacht	-11.551
▁Sci	-11.5511
▁deonfa	-11.5528
séasú	-11.5556
brand	-11.5557
▁Saoirse	-11.5558
▁Áirithe	-11.5564
▁Bhuir	-11.5565
▁feo	-11.5573
▁uaim	-11.5585
▁dúshlá	-11.5591
eform	-11.56
uama	-11.561
▁Meiriceána	-11.5615
▁TEO	-11.5616
eoranta	-11.5617
dúrad	-11.5625
chomhairliúchá	-11.5628
frithsheasmhach	-11.5629
▁ndea	-11.5651
aigéi	-11.5674
▁híocfa	-11.5685
thionsc	-11.5705
▁duill	-11.5711
▁vótaíocht	-11.5736
treora	-11.5737
▁Chabh	-11.5742
▁dhíl	-11.5756
urrús	-11.5775
fhéach	-11.579
▁gcruthó	-11.5791
▁eat	-11.58
téarma	-11.581
corparáid	-11.5812
▁thréig	-11.5813
dróm	-11.5816
▁Bainistí	-11.5816
prof	-11.5819
dhlúit	-11.582
▁Aistriú	-11.5837
▁rúnda	-11.5837
uiscint	-11.5844
▁Anailís	-11.5845
▁Seanad	-11.5846
▁uirb	-11.5853
Oideacha	-11.586
struchtúr	-11.5861
chraola	-11.5861
fhreasta	-11.5862
Parlaimint	-11.5863
Gaeilge	-11.5863
oundation	-11.5865
▁ghléas	-11.5866
▁Uathoibr	-11.5876
CÚIRTE	-11.5876
▁Bhreatain	-11.5876
▁Fiontraíocht	-11.5876
▁Toscaireacht	-11.5876
▁atmaisféar	-11.5876
▁chomhchuibh	-11.5876
▁cóimhiotal	-11.5876
▁dtimpeallacht	-11.5876
▁gluaisrotha	-11.5876
▁mbrabú	-11.5876
▁nítrigin	-11.5876
▁shuntasach	-11.5876
▁stylish	-11.5876
▁thaispeánta	-11.5876
fiunra	-11.5876
▁Gineadóir	-11.5876
▁coisctheach	-11.5876
▁fhréamh	-11.5876
▁vaigín	-11.5876
▁véarsa	-11.5876
vigation	-11.5876
▁cosmaideach	-11.5876
▁Muirear	-11.5876
▁Caiteacha	-11.5876
raenála	-11.5876
loingsi	-11.5876
▁Luachála	-11.5876
▁cinntitheach	-11.5876
▁dtuig	-11.5876
▁dTreoir	-11.5876
▁inghnóthaithe	-11.5876
▁Thiarna	-11.5876
▁Miontuairisc	-11.5876
▁Tomhalt	-11.5876
▁Marmara	-11.5876
▁seánra	-11.5876
▁fíonchaor	-11.5876
▁sainchomha	-11.5876
▁Oscailt	-11.5876
▁leapacha	-11.5876
ejian	-11.5876
▁Lárchóra	-11.5876
phacáil	-11.5876
▁athsholátha	-11.5876
▁tuirse	-11.5876
Ceanada	-11.5877
▁theorann	-11.5877
▁Earná	-11.5877
toghchán	-11.5877
▁Leathn	-11.5877
▁Blue	-11.5877
▁taibhs	-11.5877
▁comhlíonfa	-11.5877
▁Hack	-11.5878
heagasc	-11.5878
▁Taisteal	-11.5878
▁fillteá	-11.5878
▁bríomha	-11.5878
▁lóistí	-11.5879
▁bhfiach	-11.588
▁Aicm	-11.5881
▁ghream	-11.5881
aerártha	-11.5881
▁díoth	-11.5882
▁scaipthe	-11.5882
▁chabhró	-11.5883
ware	-11.5883
▁Meácha	-11.5883
MENT	-11.5885
▁Ranníoca	-11.5886
▁fógraíocht	-11.5888
▁gCuma	-11.5888
phort	-11.5889
▁críochnú	-11.5889
atalóg	-11.589
▁pholasa	-11.589
erver	-11.589
▁Teasta	-11.5891
▁fhíon	-11.5893
▁cuaill	-11.5894
Páirc	-11.5895
▁Creidmheasa	-11.5898
▁thobhac	-11.5898
Gain	-11.5899
▁Preas	-11.59
▁speisialtóir	-11.59
▁fheidhmeo	-11.5906
Ghala	-11.5907
▁forlíonta	-11.591
▁mhainneo	-11.5911
▁paist	-11.5911
ghearrtha	-11.5913
ruaig	-11.5923
olrú	-11.5932
▁Ceala	-11.5957
chothaithe	-11.5961
▁Last	-11.5962
hríocha	-11.5963
dealú	-11.5971
100	-11.5988
BLA	-11.6003
▁Comhlíon	-11.6006
▁Coitiant	-11.601
▁mhaisiú	-11.6017
▁brains	-11.6023
mhéada	-11.6035
▁taighdeoir	-11.6061
0	-11.6064
▁slat	-11.6069
hange	-11.6084
▁roghnaío	-11.6087
agre	-11.6093
▁coimeádfa	-11.6108
oige	-11.6109
institiúideach	-11.6112
cted	-11.6113
▁athchomhair	-11.6115
uaithi	-11.6153
▁Mheithea	-11.6158
▁comhdhá	-11.6164
▁snámh	-11.6172
heith	-11.6173
acmhainneacht	-11.6187
aontó	-11.6191
ARD	-11.6215
▁mhilliú	-11.6253
▁struchtú	-11.6259
▁Éisteacht	-11.6272
Pal	-11.6295
▁sonnr	-11.6307
odhchaí	-11.6307
ifríocht	-11.6326
íbhinn	-11.633
DI	-11.6334
íotáiniam	-11.6341
rmáid	-11.6346
▁Digit	-11.6347
allraíocht	-11.6355
eamara	-11.6357
pórt	-11.6365
▁gcroí	-11.6367
▁dtréimhs	-11.6372
General	-11.6376
lowjob	-11.6376
undúireacht	-11.6376
▁Caomhn	-11.6376
▁Cábla	-11.6376
▁Marquette	-11.6376
▁Network	-11.6376
▁Spiorad	-11.6376
▁cithfholc	-11.6376
▁clúmhillte	-11.6376
▁cucumber	-11.6376
▁habairt	-11.6376
▁iargúlta	-11.6376
▁phriontáil	-11.6376
▁siopadóireacht	-11.6376
▁tuarasgabhá	-11.6376
inmhianaithe	-11.6376
▁Ghréig	-11.6376
▁Green	-11.6376
▁Sliocht	-11.6376
▁sciorta	-11.6376
athghairm	-11.6376
▁Póilín	-11.6376
▁shlándá	-11.6376
▁tipiciú	-11.6376
▁searmana	-11.6376
shaoire	-11.6376
▁bolgá	-11.6376
▁trócaire	-11.6376
▁Archive	-11.6376
▁gcluich	-11.6376
▁Tástála	-11.6376
▁Luimn	-11.6376
▁Socru	-11.6376
▁cartúi	-11.6376
▁toiltean	-11.6376
▁TRÍ	-11.6376
▁choirp	-11.6376
▁Transport	-11.6376
▁Áireo	-11.6376
▁cóimheas	-11.6377
▁bhanchéil	-11.6377
▁craobh	-11.6377
▁RIALTA	-11.6377
▁cnámh	-11.6378
nmharthana	-11.6378
▁dosage	-11.6379
▁hinfheistíochta	-11.6379
▁gcigire	-11.638
898	-11.638
▁torrach	-11.638
▁grinnscrúdú	-11.6381
▁Auto	-11.6382
▁atáirgea	-11.6383
▁Life	-11.6384
▁Cúit	-11.6384
TTE	-11.6385
▁substaintiú	-11.6385
▁Leigheas	-11.6386
Plus	-11.6387
inaitheanta	-11.6387
dóthain	-11.6391
▁impleacht	-11.6392
ough	-11.6397
▁dhigiteach	-11.6403
▁bhunúsach	-11.6404
▁choiriú	-11.6405
▁seachadfa	-11.641
SHA	-11.6415
Éirinn	-11.6417
ghnótha	-11.6426
▁coireacht	-11.6432
▁lámhleabha	-11.6433
fhálta	-11.6446
ocsai	-11.6455
chumas	-11.6455
tabhairt	-11.6463
príomhshuim	-11.647
▁síceola	-11.6471
▁comhard	-11.6476
lárathóir	-11.6479
▁fiontraíocht	-11.6482
saorghluaiseacht	-11.6483
draig	-11.6491
bout	-11.6495
liant	-11.6495
▁Cineálach	-11.6496
áirse	-11.6502
▁Eisea	-11.6505
▁tógfa	-11.6512
▁simpl	-11.6514
shot	-11.652
eilbh	-11.6527
oiriún	-11.6542
caife	-11.658
▁carraig	-11.659
▁bronn	-11.6591
▁snáith	-11.6608
▁cheapachá	-11.6631
EAN	-11.6637
▁matá	-11.6647
▁grúp	-11.6647
ndre	-11.6668
▁thrácht	-11.6695
olói	-11.6698
▁Minist	-11.6703
Aireachta	-11.6704
▁socraío	-11.6729
oitianta	-11.6729
▁coinneo	-11.675
MAT	-11.6754
▁maoirs	-11.6783
▁huisc	-11.6808
▁ullmhúchá	-11.6808
chomhairl	-11.6818
ATT	-11.6852
ócó	-11.6895
▁droich	-11.6899
▁leictrea	-11.6899
▁Príobháid	-11.6899
▁ghaol	-11.6902
▁neamhchorpra	-11.6902
ONTAIS	-11.6902
abhlóid	-11.6902
isciplín	-11.6902
mháistir	-11.6902
nstruction	-11.6902
rioblóid	-11.6902
▁Dúbailte	-11.6902
▁OIBRE	-11.6902
▁Pholainn	-11.6902
▁Satailíte	-11.6902
▁Tiomána	-11.6902
▁baictéir	-11.6902
▁barántúla	-11.6902
▁dtaifead	-11.6902
▁déantúsaíocht	-11.6902
▁fluaraiseach	-11.6902
▁foilseachá	-11.6902
▁gheobhfa	-11.6902
▁ilghnéitheach	-11.6902
▁massage	-11.6902
▁ndoiciméad	-11.6902
▁ndéileálfa	-11.6902
▁neamhchiontach	-11.6902
▁píolóta	-11.6902
▁seimineá	-11.6902
▁tiúbair	-11.6902
▁íoslaghd	-11.6902
AINGNI	-11.6902
▁Cheanada	-11.6902
▁Pandora	-11.6902
▁Shaorstá	-11.6902
▁1943	-11.6902
▁gcaipit	-11.6902
apór	-11.6902
▁troscá	-11.6902
▁braiteoir	-11.6902
asket	-11.6902
▁Mharga	-11.6902
▁Malart	-11.6902
▁créachta	-11.6902
▁Royal	-11.6902
▁ainsealach	-11.6902
LISA	-11.6902
▁Select	-11.6902
▁comhréidh	-11.6902
▁COMMI	-11.6902
▁phonc	-11.6902
▁éadroim	-11.6902
▁dtuismitheoir	-11.6902
▁bhfios	-11.6902
streach	-11.6902
chlub	-11.6902
▁comhraic	-11.6903
▁thriom	-11.6903
dícheall	-11.6903
▁Work	-11.6903
▁mionbhr	-11.6903
▁Cúntóir	-11.6903
▁forbraío	-11.6903
▁Cairdi	-11.6903
comharsanacht	-11.6903
▁Cónaithe	-11.6903
▁Bharra	-11.6903
▁briste	-11.6903
▁dhaltaí	-11.6903
▁cólíona	-11.6903
▁chomhtháth	-11.6903
▁ionmhuir	-11.6904
▁shaincheist	-11.6904
▁láimhdeacha	-11.6904
like	-11.6904
▁FAOI	-11.6904
▁extra	-11.6905
▁fionna	-11.6905
▁meánmhéid	-11.6906
▁míbhuntáist	-11.6906
▁Print	-11.6906
ÍOMH	-11.6906
▁aistarraingt	-11.6907
▁stiall	-11.6907
▁fabraic	-11.6907
▁Leagfa	-11.6907
▁hack	-11.6908
mateur	-11.6908
▁Tacaíon	-11.6909
▁vii	-11.6909
▁dtarla	-11.6909
▁Ceol	-11.691
▁Food	-11.691
▁Neart	-11.691
▁cumaisc	-11.6912
HRÍ	-11.6913
ponc	-11.6913
▁cuairteoir	-11.6914
▁baincéir	-11.6916
PHO	-11.6916
caillfid	-11.6917
▁deisiúchá	-11.6917
phone	-11.6922
▁Prim	-11.6925
Bhu	-11.6926
▁Glao	-11.6936
isgint	-11.6938
▁ceartaitheach	-11.6948
maighnéadach	-11.6953
▁cosá	-11.696
shocrú	-11.6969
▁marcál	-11.6969
▁háise	-11.6975
▁aistrío	-11.6975
cadé	-11.6976
▁múch	-11.6977
▁earnálach	-11.6982
uaite	-11.6983
omparáid	-11.6991
▁óstach	-11.6992
ionúireacht	-11.7001
▁eacnamaíocht	-11.7006
▁suiteáilte	-11.7008
iompraío	-11.7018
iniúna	-11.7021
▁Cana	-11.7069
léasóir	-11.709
▁dhleacht	-11.7105
▁aithnío	-11.713
▁crannchu	-11.7163
▁dhaingn	-11.718
▁fánaíocht	-11.7201
SMA	-11.7204
hóiteá	-11.7216
▁Chuma	-11.7267
▁orla	-11.7305
óthach	-11.7309
heathrú	-11.7335
▁phionó	-11.7338
▁soláthrói	-11.7344
▁Gaelscoil	-11.7346
▁Náisiú	-11.7353
iarrfa	-11.7358
earnála	-11.7361
▁milliú	-11.7373
▁gcoimeádá	-11.7388
NACH	-11.7405
itreo	-11.7431
hoinníollach	-11.7431
fhoircean	-11.7446
Gaeltacht	-11.7448
▁garraíodóir	-11.745
OIFIG	-11.7458
phróiseála	-11.7458
▁Cónaidhm	-11.7458
▁Environment	-11.7458
▁Februar	-11.7458
▁Feithicl	-11.7458
▁Léarscáil	-11.7458
▁Puiblí	-11.7458
▁Teagasc	-11.7458
▁chruithneacht	-11.7458
▁conclúid	-11.7458
▁dhámhachtain	-11.7458
▁dtionscada	-11.7458
▁hInstitiúid	-11.7458
▁límistéir	-11.7458
▁meaitseá	-11.7458
▁ngeilleaga	-11.7458
▁phraiticiú	-11.7458
▁Éadrom	-11.7458
▁Íoslódáil	-11.7458
Oirthear	-11.7458
ionchorp	-11.7458
mheabhrach	-11.7458
▁Chumhacht	-11.7458
▁Dochtúir	-11.7458
▁Sealadach	-11.7458
▁bhiotáille	-11.7458
▁orgasm	-11.7458
▁sealúcha	-11.7458
▁seirbheáil	-11.7458
▁shórt	-11.7458
flashing	-11.7458
▁Ceapfa	-11.7458
▁Coimeádfa	-11.7458
▁Práinne	-11.7458
▁mbosca	-11.7458
▁tomhalta	-11.7458
▁Maoirseacht	-11.7458
▁fhógrá	-11.7458
▁1944	-11.7458
▁Bárda	-11.7458
▁chuimhne	-11.7458
▁bioráin	-11.7458
▁hÁise	-11.7458
▁lóisteáil	-11.7458
▁Cúrsa	-11.7458
▁pacála	-11.7458
▁bhfág	-11.7458
▁bhuachaill	-11.7458
▁Déantús	-11.7458
▁Bhreis	-11.7458
▁elegan	-11.7458
oimhlint	-11.7458
▁Sreabh	-11.7458
▁páirceá	-11.7458
▁gcreat	-11.7458
▁gclúd	-11.7458
▁marthanacht	-11.7458
▁piorra	-11.7458
▁bairille	-11.7458
▁Róimh	-11.7458
▁fóirst	-11.7458
▁Bonneaga	-11.7458
▁Reifr	-11.7458
ashington	-11.7458
▁bhagú	-11.7458
▁éagórach	-11.7458
▁clasp	-11.7458
▁Éasca	-11.7458
▁Comhionanna	-11.7458
▁bplanda	-11.7458
chorraithe	-11.7458
Caisleá	-11.7458
▁uillinn	-11.7458
▁Raidi	-11.7459
▁fiailí	-11.7459
▁Halla	-11.7459
Brown	-11.7459
▁neo	-11.7459
▁botú	-11.7459
▁plum	-11.746
argánta	-11.746
▁Old	-11.746
DARA	-11.746
zhen	-11.746
▁Christ	-11.746
▁congant	-11.7461
aireagá	-11.7461
▁shaoirs	-11.7461
▁radaíocht	-11.7461
ÓID	-11.7461
▁glacadóir	-11.7461
▁comhchosú	-11.7461
▁carthana	-11.7462
▁ghealltana	-11.7463
▁Bhearta	-11.7463
▁ngearr	-11.7464
▁neamhbhailí	-11.7464
▁Comisi	-11.7464
▁Translat	-11.7465
▁Dheimhn	-11.7465
▁bhfeist	-11.7465
ÉIL	-11.7465
board	-11.7465
fhionta	-11.7465
▁athlas	-11.7466
▁comharba	-11.7466
▁hairteaga	-11.7468
NBA	-11.7468
▁cúnta	-11.7469
athcheap	-11.7471
▁Expe	-11.7472
▁micro	-11.7473
▁choiscf	-11.7478
▁Díolachá	-11.748
▁toimhdeo	-11.7483
▁rátáil	-11.7483
▁Uni	-11.7488
▁Caidr	-11.7493
▁Mhúin	-11.7495
aontu	-11.7496
direct	-11.7502
▁Manufacturer	-11.7509
orcaigh	-11.7509
chomhshocraíocht	-11.751
▁cinnfid	-11.7525
▁Cap	-11.7549
lasse	-11.755
▁seoltóir	-11.756
▁dúich	-11.7568
LAF	-11.757
údair	-11.7591
áirmhí	-11.7595
táblaí	-11.7603
▁stain	-11.7616
▁scriosfa	-11.762
▁hainmne	-11.7624
▁lionsa	-11.7625
teaghlaigh	-11.7628
oiliúna	-11.7628
trádála	-11.7632
bhrat	-11.7634
▁Comhpháirt	-11.7641
▁Cruinni	-11.765
chóras	-11.7663
▁Tuairisceá	-11.7679
▁mhíchu	-11.7703
nrochtaineacht	-11.7722
▁bruit	-11.7775
chomhlíonta	-11.7782
áiritheofa	-11.7812
▁Foirgn	-11.7813
▁Gloin	-11.7831
tub	-11.7854
úsai	-11.7885
900	-11.7898
▁dhíchu	-11.79
▁réasú	-11.7914
cheapann	-11.7924
▁feabha	-11.7926
▁Tho	-11.795
▁hIo	-11.7958
▁eadrá	-11.7973
ppy	-11.7973
abhrán	-11.7976
▁Míni	-11.7985
hlóga	-11.8006
France	-11.8017
eacnama	-11.8028
mhaoirs	-11.8035
▁Trans	-11.8038
íonachta	-11.804
bunscoile	-11.8042
▁bhuisé	-11.8043
▁RIAL	-11.8045
fhabht	-11.8045
▁COM	-11.8046
▁mhionsonra	-11.8046
▁spéacl	-11.8046
▁fertiliz	-11.8046
experience	-11.8046
▁Consolidat	-11.8046
▁Countertop	-11.8046
▁Independen	-11.8046
▁Iompórtáil	-11.8046
▁Stóráil	-11.8046
▁bhrabhsála	-11.8046
▁coiníoll	-11.8046
▁flúirse	-11.8046
▁gcumhda	-11.8046
▁hOllscoil	-11.8046
▁mheaitseá	-11.8046
▁neamhchónaithe	-11.8046
▁ornáideach	-11.8046
▁printíseachta	-11.8046
▁tionóntá	-11.8046
▁truaillithe	-11.8046
▁trucail	-11.8046
▁unbeliever	-11.8046
Athghairm	-11.8046
▁Maoirseoir	-11.8046
▁gceangló	-11.8046
▁pussy	-11.8046
▁seirbheálfa	-11.8046
stanbul	-11.8046
▁bhfeirm	-11.8046
▁chlaochl	-11.8046
▁robot	-11.8046
▁nuálach	-11.8046
▁uasteorainn	-11.8046
▁Human	-11.8046
▁Soghluaisteacht	-11.8046
▁roghchlá	-11.8046
▁réamheolair	-11.8046
▁machnamh	-11.8046
▁Comhthái	-11.8046
▁Virgin	-11.8046
▁ultra	-11.8046
▁osclaío	-11.8046
▁Brabú	-11.8046
▁Bhliantú	-11.8046
chuimilt	-11.8046
guisín	-11.8046
RÉIMH	-11.8046
▁figiúr	-11.8046
▁Phort	-11.8046
▁eorna	-11.8046
▁geata	-11.8046
▁pháirc	-11.8046
▁lacáist	-11.8046
▁neamhfhoirmiú	-11.8046
▁Pearl	-11.8046
▁coigistíoch	-11.8046
▁Ceapa	-11.8047
▁atráth	-11.8047
▁inléite	-11.8047
▁barúlach	-11.8047
▁rannóg	-11.8047
▁Plaisteach	-11.8047
▁Play	-11.8047
▁Íosluchtai	-11.8047
▁múinea	-11.8047
▁ceathra	-11.8047
▁bhfíor	-11.8047
▁color	-11.8047
▁rince	-11.8047
▁dóchúla	-11.8048
▁Laidin	-11.8048
IOMPA	-11.8048
ANCE	-11.8048
EREC	-11.8049
clábha	-11.8049
bourg	-11.8049
▁míshásta	-11.805
▁Cross	-11.805
▁Tiont	-11.805
▁ionchasach	-11.805
INMH	-11.805
▁reilig	-11.8051
▁dteast	-11.8051
bhanda	-11.8051
airseach	-11.8051
▁imdhíonach	-11.8052
OTI	-11.8052
▁ghlas	-11.8052
▁optú	-11.8053
▁sású	-11.8053
cadhnra	-11.8053
▁Polic	-11.8054
▁bharda	-11.8055
▁chalaois	-11.8055
▁sciúr	-11.8056
▁shaineola	-11.8057
▁scarda	-11.8058
chathaoir	-11.8058
▁briath	-11.8066
▁Rialaitheoir	-11.8068
▁Diúsca	-11.8069
▁Chomhalta	-11.8071
▁leithdháilt	-11.8074
▁Díolúin	-11.8078
▁Beat	-11.8081
Grianghraf	-11.8088
▁Comharsan	-11.8089
sáraithe	-11.809
ampála	-11.809
▁sheolfa	-11.8091
halamh	-11.8094
▁faci	-11.8094
▁scáthá	-11.8095
▁himeacht	-11.8099
▁príomhfheidhm	-11.8106
▁théam	-11.8107
claíocht	-11.8108
▁Crios	-11.8117
▁Lárna	-11.8121
▁gleo	-11.8122
▁fhéachan	-11.8134
genda	-11.8139
▁chobhs	-11.8144
▁oighi	-11.8162
▁Ráth	-11.8179
▁scríbhneoir	-11.8186
Point	-11.82
▁Cuimsi	-11.8207
▁Chomhdhá	-11.8216
▁iniúchó	-11.8236
▁thógfa	-11.824
▁Leanfai	-11.8245
eimpléad	-11.825
▁Ráthaíocht	-11.8257
thráchta	-11.8283
fhoirgn	-11.8289
chóiriú	-11.8293
simplí	-11.8298
107	-11.83
▁dtuairisc	-11.8309
oibreo	-11.8332
▁gcoimeádfa	-11.8366
gCabh	-11.8374
eitilt	-11.8378
▁scé	-11.8425
▁chlúda	-11.8473
TFT	-11.8477
Ealaíona	-11.852
scríbhneoireacht	-11.8524
comhshocraíochta	-11.8527
▁thruailli	-11.8534
brainse	-11.8538
porno	-11.8544
▁dtáirgea	-11.8573
▁Uachtará	-11.8582
▁mhalart	-11.8591
▁fágá	-11.8598
▁deacracht	-11.8614
▁próis	-11.8629
▁dtáirg	-11.863
athshlán	-11.8639
▁eitl	-11.8649
▁Rúi	-11.8651
▁staitist	-11.8671
dronuilleog	-11.8671
▁fhadtéarma	-11.8671
Dámhachtain	-11.8671
Erasmus	-11.8671
Shéalainn	-11.8671
Udarás	-11.8671
mheáchan	-11.8671
president	-11.8671
▁Agricultur	-11.8671
▁Institut	-11.8671
▁Organization	-11.8671
▁Simplí	-11.8671
▁gcomórta	-11.8671
▁géiniteach	-11.8671
▁hIarái	-11.8671
▁humidor	-11.8671
▁imtheorann	-11.8671
▁mháithreacha	-11.8671
▁soláthrófa	-11.8671
▁suaimhnea	-11.8671
▁síntiúis	-11.8671
▁thimpeallacht	-11.8671
▁éiceachóra	-11.8671
eispéir	-11.8671
ournament	-11.8671
▁Friend	-11.8671
▁Miotal	-11.8671
▁dhúshlá	-11.8671
▁forghníomhaithe	-11.8671
▁víreas	-11.8671
▁ngnáthnós	-11.8671
▁Fhuinn	-11.8671
▁Foilseo	-11.8671
▁HTML	-11.8671
▁Rátáil	-11.8671
▁forbróir	-11.8671
control	-11.8671
▁Java	-11.8671
▁macánta	-11.8671
▁Cuntais	-11.8671
formation	-11.8671
éintéireacht	-11.8671
Brasaíl	-11.8671
▁fhorlíonta	-11.8671
▁pláiné	-11.8671
▁fógrá	-11.8671
▁Euroopa	-11.8671
iospói	-11.8671
▁Buntáist	-11.8671
▁Forbraío	-11.8671
▁dhréacht	-11.8671
▁phíosa	-11.8671
▁Ceathrú	-11.8672
▁priaca	-11.8672
▁Micro	-11.8672
▁Chomhbhearta	-11.8672
▁Aitheanta	-11.8672
▁dhíoth	-11.8672
▁tochailt	-11.8672
▁Sócmhainn	-11.8673
body	-11.8673
▁cheird	-11.8673
▁3-4	-11.8673
▁thionscnó	-11.8674
▁Toghchá	-11.8674
▁buailte	-11.8674
▁Tháirg	-11.8675
▁neamhréir	-11.8675
▁silic	-11.8675
giotá	-11.8675
▁bunreacht	-11.8676
▁deontóir	-11.8676
▁gcrios	-11.8676
Campa	-11.8676
umpáil	-11.8676
PORT	-11.8677
▁peaca	-11.8678
eisiatach	-11.8678
thairgthe	-11.8679
▁Agalla	-11.8679
▁connra	-11.8679
▁preas	-11.868
▁aigéadacht	-11.868
▁diagnóiseach	-11.8684
▁stuama	-11.8685
lonrach	-11.8687
▁Innealtóireacht	-11.8687
mhuini	-11.8687
▁Éirí	-11.8691
▁Game	-11.8692
hríosú	-11.8693
▁suífea	-11.87
chtúra	-11.8701
inscne	-11.8711
chloiste	-11.8712
▁Ghníomh	-11.8716
▁sonrúchá	-11.8734
coirf	-11.8745
▁Teoran	-11.8749
▁dhíobh	-11.8763
loíte	-11.8783
chónaitheoir	-11.8803
▁ngabhál	-11.8807
▁Phreas	-11.8819
▁Gao	-11.8825
▁dhíobhál	-11.8835
▁mainneo	-11.8836
íobhálach	-11.8836
oimeádán	-11.8848
axi	-11.895
▁Reatha	-11.8958
Eagraíochta	-11.8961
▁jack	-11.8977
tháirgí	-11.9007
gánach	-11.905
ntel	-11.9135
▁Pacáisti	-11.9161
ailín	-11.9202
▁cultú	-11.9224
▁breath	-11.9236
shábháilte	-11.9268
▁infhaighte	-11.9274
gnéis	-11.9274
hiontach	-11.9287
Tax	-11.9296
▁dhigit	-11.9301
cket	-11.9309
ccess	-11.9325
▁Eachtra	-11.9329
▁boilg	-11.9335
▁Sábháil	-11.9337
fhorghéill	-11.9338
▁dtaispeán	-11.9338
Impireacht	-11.9338
NÁISIÚN	-11.9338
SPORTS	-11.9338
mploy	-11.9338
séadchomhartha	-11.9338
▁Achoimr	-11.9338
▁Atlanta	-11.9338
▁Bhruiséil	-11.9338
▁Ciorclá	-11.9338
▁Cispheil	-11.9338
▁Development	-11.9338
▁Dromchla	-11.9338
▁Oibleagáid	-11.9338
▁Oilimpeach	-11.9338
▁SLÁINT	-11.9338
▁Sibhialta	-11.9338
▁bhfoghlaim	-11.9338
▁caomhnaithe	-11.9338
▁chimeád	-11.9338
▁chomharsanach	-11.9338
▁chomórta	-11.9338
▁consalachta	-11.9338
▁dTeaghla	-11.9338
▁dlisteanach	-11.9338
▁díograis	-11.9338
▁eiseama	-11.9338
▁randamach	-11.9338
▁Éagsúl	-11.9338
▁Éigeandála	-11.9338
prótaca	-11.9338
▁Taifead	-11.9338
▁Ullmha	-11.9338
▁cnapshuim	-11.9338
▁pléasctha	-11.9338
lorida	-11.9338
▁Alúmana	-11.9338
▁Ealaín	-11.9338
▁bPrímh	-11.9338
▁dobharshaothr	-11.9338
▁geilleaga	-11.9338
▁ngearán	-11.9338
Scrúdó	-11.9338
▁NFL	-11.9338
▁Osclaío	-11.9338
▁chomóra	-11.9338
▁daonlatha	-11.9338
▁neamhchlaon	-11.9338
▁DVD	-11.9338
▁clársceideal	-11.9338
▁fluor	-11.9338
▁Phearsan	-11.9338
▁loam	-11.9338
▁Aigéad	-11.9338
▁Crown	-11.9338
▁ndaingneo	-11.9338
▁dhlúth	-11.9338
▁fiabhra	-11.9338
▁státseirbhís	-11.9338
anagement	-11.9338
▁Coiscthe	-11.9338
▁tamaill	-11.9338
▁modúl	-11.9338
▁cófra	-11.9338
▁threisi	-11.9338
▁Dílean	-11.9338
▁Ceangal	-11.9338
maitéara	-11.9338
▁damhsa	-11.9338
▁luighe	-11.9338
▁anaithnid	-11.9338
▁Píoló	-11.9338
▁Great	-11.9338
cquis	-11.9338
▁PET	-11.9338
▁Eurasia	-11.9338
▁tánaisteach	-11.9338
▁monaraíocht	-11.9338
▁dhílseána	-11.9338
▁Mhíchuma	-11.9339
▁Cloí	-11.9339
▁gnóthú	-11.9339
▁Meabhair	-11.9339
▁gCeanta	-11.9339
▁cluas	-11.9339
▁hiomportál	-11.9339
▁uilíoch	-11.9339
▁Chiarra	-11.934
scolaíocht	-11.934
offici	-11.9341
▁promha	-11.9342
NKO	-11.9343
sagart	-11.9343
▁ndeimhneo	-11.9344
Ceanncheathrú	-11.9345
▁Cuairt	-11.9347
▁tháill	-11.9349
osúlacht	-11.9349
▁guaise	-11.9351
ghort	-11.9353
▁Geall	-11.9354
chonraitheoir	-11.9357
ontent	-11.9358
aeriompróir	-11.9363
▁Crói	-11.9364
Iodáile	-11.9367
▁eitleá	-11.9368
▁chóipeá	-11.9374
▁mbainfea	-11.938
charbó	-11.9385
dhaonna	-11.9397
idirdhealaithe	-11.9429
▁slait	-11.9442
Innealtóir	-11.9471
ABS	-11.9503
urghabh	-11.9526
▁Mórdhíol	-11.9527
▁Óstá	-11.9547
athdhíol	-11.9556
▁Gréig	-11.9576
cipe	-11.9587
▁gCór	-11.9603
aighnea	-11.9674
▁Fheidhm	-11.9701
óiteáin	-11.9753
Airteaga	-11.9755
chumai	-11.9761
Iarrata	-11.9775
teaghlach	-11.9776
Ionad	-11.9781
abhrói	-11.9792
Bhuirg	-11.9836
ceannasaí	-11.9885
lamháilte	-11.991
▁chineá	-11.9916
▁teilifís	-11.9924
▁pragha	-11.9927
shocraíocht	-11.997
enerál	-11.9974
▁chlui	-11.9981
▁mainneachta	-12.001
Eacnama	-12.0012
fhorfheidhmi	-12.0018
Corparáid	-12.0036
rinnscrúdú	-12.0045
▁Tairis	-12.0047
▁ndeimhn	-12.0049
▁antaibheatha	-12.0052
▁phictiúr	-12.0052
▁phátrún	-12.0052
Aturnae	-12.0052
Dlúthpháirtíocht	-12.0052
athchúrsáil	-12.0052
athscrúd	-12.0052
field	-12.0052
orbhreathn	-12.0052
product	-12.0052
quality	-12.0052
rionglóid	-12.0052
sheomra	-12.0052
thocsaineach	-12.0052
▁Chaitliceach	-12.0052
▁CÉIM	-12.0052
▁Imscrúd	-12.0052
▁Próiseá	-12.0052
▁Rómáin	-12.0052
▁caomhnú	-12.0052
▁dhromchla	-12.0052
▁eagarthóireacht	-12.0052
▁grinnfhiosrúchá	-12.0052
▁iarmhartach	-12.0052
▁inmholta	-12.0052
▁masterpiece	-12.0052
▁núicléach	-12.0052
▁pimple	-12.0052
▁síochánta	-12.0052
▁thaispeána	-12.0052
▁turraing	-12.0052
▁uaslódáil	-12.0052
iompórtáil	-12.0052
▁TIONCHA	-12.0052
▁fíniúna	-12.0052
▁Doiciméad	-12.0052
▁cuóta	-12.0052
▁díleá	-12.0052
▁gcultú	-12.0052
▁plandála	-12.0052
▁stailc	-12.0052
▁German	-12.0052
▁Téalainn	-12.0052
▁dtionscna	-12.0052
▁mionnscríbhinn	-12.0052
▁spúnóg	-12.0052
▁bhláth	-12.0052
▁hoidhreacht	-12.0052
▁uisciú	-12.0052
▁criticiú	-12.0052
▁cómhaoini	-12.0052
▁drochamhra	-12.0052
▁taidhleoir	-12.0052
aught	-12.0052
▁seasmhach	-12.0052
▁Cigireacht	-12.0052
▁fhorbr	-12.0052
▁sparán	-12.0052
ization	-12.0052
▁mhadra	-12.0052
▁pléisiú	-12.0052
oirthear	-12.0052
▁hasbhaint	-12.0052
▁Prophet	-12.0052
▁twist	-12.0052
▁Chruinn	-12.0052
▁durable	-12.0052
▁ghlúin	-12.0052
▁babhta	-12.0052
▁Smart	-12.0052
▁seisiú	-12.0052
▁Bliantú	-12.0053
▁Garci	-12.0053
▁ghiorr	-12.0053
ssess	-12.0053
▁raidis	-12.0053
▁easaonta	-12.0053
▁sicín	-12.0053
▁leochaileach	-12.0053
aomhanta	-12.0053
▁fócas	-12.0054
▁fabhrach	-12.0054
entral	-12.0054
▁sloinne	-12.0054
▁scartáil	-12.0054
▁Saoránach	-12.0054
▁Beatha	-12.0054
▁máithreacha	-12.0054
▁Imleabha	-12.0055
▁calma	-12.0056
aitsilé	-12.0056
▁Laeth	-12.0057
▁Feicf	-12.0058
agrafaíocht	-12.0059
▁dhruga	-12.006
▁dtógfa	-12.006
▁clása	-12.006
▁breacachá	-12.0068
▁Fiach	-12.0072
▁bhfadhb	-12.0076
▁drámaíocht	-12.0088
tosnó	-12.0088
reign	-12.0097
chomhairleoir	-12.0102
bhriste	-12.0105
▁Siopa	-12.0106
▁Defen	-12.0107
▁réamhshocr	-12.0115
▁críochnaío	-12.0118
▁lárchóra	-12.0118
▁colscar	-12.0123
▁thagraí	-12.0123
loud	-12.0126
mfhál	-12.0169
holún	-12.0179
▁cuimilt	-12.0245
▁Déanaim	-12.0279
húchán	-12.0293
stampál	-12.0348
comhbhearta	-12.0382
▁príomhchúi	-12.0385
▁bhfarraig	-12.0392
Eolaíochtaí	-12.0394
▁buicé	-12.0396
formheasta	-12.041
lúbthachta	-12.044
▁diúltaío	-12.052
▁iarchur	-12.0545
ubb	-12.0555
▁Dramhaí	-12.0557
▁LEITH	-12.0566
Úsáid	-12.0605
leictreach	-12.0607
chuntas	-12.0613
riosca	-12.0615
ubi	-12.0617
fhorléir	-12.0629
dhíoltóir	-12.0649
▁Chomhshao	-12.0657
▁Scrúda	-12.066
▁ardcháil	-12.0673
▁príobháid	-12.0675
▁chultú	-12.0682
▁Oidhreacht	-12.0689
▁scrúdói	-12.0696
fheirme	-12.0705
▁Prionsa	-12.0719
ualainn	-12.0728
▁Grianghra	-12.0766
eatramh	-12.0781
▁toimhde	-12.0786
hronograph	-12.0794
▁thiomáin	-12.08
earmad	-12.0804
▁Cinnteoi	-12.0815
▁chronomet	-12.0821
Dioplóma	-12.0821
comhthimpeallach	-12.0821
iompórtála	-12.0821
▁Breosla	-12.0821
▁Brunette	-12.0821
▁Chreidmheas	-12.0821
▁Chónaidhm	-12.0821
▁Communit	-12.0821
▁Copernicus	-12.0821
▁IARSCRÍBHINN	-12.0821
▁Insteall	-12.0821
▁Praghs	-12.0821
▁Priontáil	-12.0821
▁Riaghalta	-12.0821
▁alcaileach	-12.0821
▁bpaisinéir	-12.0821
▁déthaobhach	-12.0821
▁gcosantóir	-12.0821
▁hiarmhairt	-12.0821
▁ionducht	-12.0821
▁plague	-12.0821
▁puzzle	-12.0821
▁watermelon	-12.0821
hildren	-12.0821
pátrún	-12.0821
rasphlandú	-12.0821
▁CHOMH	-12.0821
▁Liotuáin	-12.0821
▁bróicéir	-12.0821
▁comhdhlúth	-12.0821
▁daoibh	-12.0821
▁thaispeánfa	-12.0821
▁AIRGEAD	-12.0821
▁Dífhostaíocht	-12.0821
▁Fráma	-12.0821
▁Sprioc	-12.0821
▁Thaighde	-12.0821
▁dteipf	-12.0821
▁thalmhaíocht	-12.0821
▁Trasfhoirmeo	-12.0821
▁dílleachta	-12.0821
▁gcreidea	-12.0821
▁maigné	-12.0821
▁TIONSCA	-12.0821
▁cheardchuma	-12.0821
▁huibhe	-12.0821
▁mhothúchá	-12.0821
tuaslagá	-12.0821
▁Sonró	-12.0821
▁afflict	-12.0821
▁phláiné	-12.0821
weight	-12.0821
▁Custom	-12.0821
▁Feirme	-12.0821
▁script	-12.0821
aileanda	-12.0821
journ	-12.0821
▁Nuálaíocht	-12.0821
▁saighead	-12.0821
wood	-12.0821
▁sliotá	-12.0821
▁fhormhuini	-12.0821
▁thoghfa	-12.0821
▁scamhóg	-12.0821
▁Fiber	-12.0821
▁frása	-12.0821
▁gceathrú	-12.0821
▁mhargaíocht	-12.0821
▁shaothar	-12.0821
▁Eitilt	-12.0821
▁spíosra	-12.0821
theangacha	-12.0821
▁buaiteoir	-12.0821
▁Léas	-12.0822
▁Thoghchá	-12.0822
▁cailc	-12.0822
▁hAlb	-12.0822
áistreás	-12.0822
▁scraga	-12.0822
▁shroichea	-12.0822
hóilíneach	-12.0822
▁gcailltea	-12.0822
▁dhaonra	-12.0822
chuóta	-12.0822
itneamhach	-12.0822
▁Faireachá	-12.0822
▁featha	-12.0822
Tiomna	-12.0823
▁breithneo	-12.0823
▁Comhlána	-12.0823
▁seilf	-12.0823
UBLI	-12.0824
izz	-12.0824
Ostair	-12.0824
▁hollscoile	-12.0825
▁LEANA	-12.0825
Chalaois	-12.0827
▁driog	-12.0827
▁labhraío	-12.0828
▁Breiseá	-12.0829
▁Éada	-12.0829
hagóid	-12.0831
▁choigrí	-12.0832
▁Ceannasaí	-12.0835
▁Críochnaío	-12.0836
hochar	-12.0836
oircheas	-12.0846
fhaighteoir	-12.0852
▁éiceolaíoch	-12.0863
hinking	-12.0863
nfhaighteacht	-12.0895
▁litera	-12.0903
Phins	-12.0917
comhdhúil	-12.0942
aibhreas	-12.0944
▁doirtea	-12.0947
▁Meá	-12.0961
shínithe	-12.1002
achtachá	-12.1006
togra	-12.1063
ushing	-12.1076
mhonara	-12.1102
hreasa	-12.1129
▁nuachtlit	-12.1151
éamhráite	-12.1166
▁thíolac	-12.118
Safe	-12.1181
▁thábhacht	-12.1185
▁uasmhéad	-12.1203
▁chaighdeá	-12.1225
graph	-12.1244
aibidil	-12.1358
▁forfheidhmiúchá	-12.1362
hrúpa	-12.1367
urlái	-12.1389
▁Scói	-12.1396
shuíomh	-12.1521
limisté	-12.1522
tástála	-12.1524
phragha	-12.1527
▁Eagraío	-12.1533
▁vacsaín	-12.156
TIONS	-12.1562
eagaisc	-12.162
oicind	-12.1644
abraic	-12.1646
▁fhéich	-12.1654
hiodráit	-12.1654
▁cháipéis	-12.1654
Loingseoireacht	-12.1654
Seirbia	-12.1654
athnuachaint	-12.1654
ceolchoirm	-12.1654
▁Anatolia	-12.1654
▁BREITH	-12.1654
▁Baincéireacht	-12.1654
▁ECRIS	-12.1654
▁Messenger	-12.1654
▁Oiriúnach	-12.1654
▁SOLÁTHA	-12.1654
▁Scríbhneoir	-12.1654
▁Séadchomhartha	-12.1654
▁Thiobra	-12.1654
▁Traidisiú	-12.1654
▁bPoblacht	-12.1654
▁bhreosla	-12.1654
▁chonsalacht	-12.1654
▁coinsín	-12.1654
▁deighleálfa	-12.1654
▁dáilcheanta	-12.1654
▁feithid	-12.1654
▁gCríost	-12.1654
▁hiodrálach	-12.1654
▁idirmheánach	-12.1654
▁language	-12.1654
▁ngréasá	-12.1654
▁prostitute	-12.1654
▁rómánsú	-12.1654
▁sreinge	-12.1654
▁tíolactha	-12.1654
▁Íomhá	-12.1654
teidlíocht	-12.1654
▁MEASÚN	-12.1654
▁Metropoli	-12.1654
▁bhranda	-12.1654
▁ceirmeach	-12.1654
▁nArm	-12.1654
▁Nigéir	-12.1654
▁Scáth	-12.1654
eascró	-12.1654
position	-12.1654
CHOIM	-12.1654
▁cúcama	-12.1654
▁Compani	-12.1654
AOINE	-12.1654
Oispidé	-12.1654
▁Lascain	-12.1654
▁capaill	-12.1654
▁coimhth	-12.1654
▁dTiarna	-12.1654
▁Chonaic	-12.1654
▁inimirce	-12.1654
▁bintiúr	-12.1654
▁lóisteál	-12.1654
flower	-12.1654
phíopa	-12.1654
shirria	-12.1654
fhéichiúna	-12.1655
▁chumhrá	-12.1655
▁Modúl	-12.1655
▁Journ	-12.1655
▁Pláta	-12.1655
▁eagna	-12.1655
▁gColáist	-12.1655
▁Sealbh	-12.1655
▁Meastóireacht	-12.1655
▁Forlíontach	-12.1655
▁bholg	-12.1655
cleachtóir	-12.1655
.	-14.1853
